<unk>	0
<s>	0
</s>	0
.	-2.72691
,	-3.09503
▁	-4.10808
లో	-4.58757
:	-4.91783
▁(	-4.92612
ను	-5.1518
▁ఈ	-5.16802
ం	-5.17031
ు	-5.23
గా	-5.28212
▁ఉంది	-5.30953
కు	-5.31269
▁నుండి	-5.32666
)	-5.33188
ని	-5.36784
▁ఉన్నాయి	-5.43173
లు	-5.50933
న	-5.52169
వ	-5.62679
్	-5.66528
ి	-5.6662
ా	-5.68452
కి	-5.69245
▁కి	-5.77797
మీ	-5.79749
▁-	-5.80346
▁ఒక	-5.81585
ల	-5.82147
మ	-5.83287
▁గ్రామంలో	-5.89352
▁గ్రామం	-5.92265
తో	-6.00749
జ	-6.02363
▁దూరంలో	-6.026
▁ఆ	-6.08576
ము	-6.09441
▁10	-6.11026
▁కూడా	-6.11425
▁లో	-6.26214
ే	-6.30125
ాన్ని	-6.30323
▁జిల్లా	-6.30633
ర్	-6.3149
▁ఉన్న	-6.34385
▁కేంద్రం	-6.34956
క	-6.35721
ారు	-6.36881
▁"	-6.39051
స్	-6.39421
-	-6.40192
ీ	-6.40267
▁తెలుగు	-6.41448
▁ద్వారా	-6.47059
ానికి	-6.50291
▁5	-6.5217
రు	-6.52823
▁ప్రభుత్వ	-6.56637
▁ఇది	-6.57149
▁హెక్టార్లు	-6.58194
ంది	-6.59148
న్	-6.59377
▁భారత	-6.60255
"	-6.62144
▁సమీప	-6.62604
వి	-6.64343
ల్	-6.65406
▁భూమి	-6.66661
ాయి	-6.66971
త	-6.6742
ంగా	-6.68284
ర	-6.68946
ాడు	-6.69468
య	-6.7235
ది	-6.72667
▁వ	-6.73683
ాలు	-6.7388
▁తరువాత	-6.74273
▁కళాశాల	-6.74784
▁సంఖ్య	-6.75221
నే	-6.77497
▁చెందిన	-6.7946
▁అని	-6.81076
డ్	-6.81632
▁అ	-6.81669
డి	-6.81677
ప	-6.82214
▁సౌకర్యం	-6.82654
▁శ్రీ	-6.84224
▁ప్రైవేటు	-6.8841
▁తన	-6.90125
▁ఉన్నారు	-6.91076
▁న	-6.91309
▁పాఠశాల	-6.92741
▁అనే	-6.94925
గ	-6.95554
మైన	-6.98102
పై	-6.99645
స	-7.00386
▁సినిమా	-7.01004
ుడు	-7.0179
▁రహదారి	-7.0277
▁రెండు	-7.03156
రి	-7.04812
పు	-7.04971
ూ	-7.0506
'	-7.05272
శ	-7.06432
▁వ్యవస్థ	-7.07056
▁రోజు	-7.0894
▁ప్రధాన	-7.11136
▁'	-7.11565
▁జనాభా	-7.11895
▁సరఫరా	-7.13694
ులు	-7.14989
క్	-7.15172
సి	-7.18159
▁ఇతర	-7.20384
▁లోని	-7.2044
▁పైబడిన	-7.20551
లోని	-7.22299
▁ప్రకారం	-7.23881
▁లేదు	-7.24896
▁2	-7.25084
▁3	-7.25338
రా	-7.25378
ట	-7.25394
▁వ్యవసాయ	-7.25463
ద	-7.25887
ట్	-7.27374
▁వైద్య	-7.27565
టి	-7.28443
లను	-7.28524
▁రాష్ట్ర	-7.30188
డ	-7.30364
▁మొదటి	-7.30895
డు	-7.30932
▁వరకు	-7.31093
నా	-7.31636
ో	-7.32382
ిన	-7.33105
▁మధ్య	-7.33345
▁జరిగిన	-7.33346
▁రచయిత	-7.33588
▁వారి	-7.34323
▁గ్రామానికి	-7.34498
▁జాతీయ	-7.35536
ింది	-7.35715
▁ప్రాథమిక	-7.35741
▁ఆరోగ్య	-7.36456
▁పేరు	-7.37524
▁రోజులు	-7.37964
▁ఇక్కడ	-7.38524
▁సామాజిక	-7.3859
▁వి	-7.38745
▁కు	-7.39019
▁ఒకటి	-7.39348
▁7	-7.40097
▁పాటు	-7.40588
▁ఏ	-7.40636
▁పాఠశాలలు	-7.4113
▁18	-7.41326
▁విద్యా	-7.41639
▁మంది	-7.41943
▁ఎక్కువ	-7.42801
▁చాలా	-7.43034
లి	-7.43238
లా	-7.4401
▁పెద్ద	-7.46146
s	-7.46186
▁పారా	-7.46255
▁అభివృద్ధి	-7.46507
▁కింది	-7.47751
▁సంవత్సరము	-7.48202
డం	-7.48638
/	-7.4955
▁ఆలయం	-7.50214
▁ఆంధ్ర	-7.50394
▁15	-7.51463
▁భారతీయ	-7.51719
▁డాక్టర్లు	-7.51975
న్న	-7.52058
మెడికల్	-7.52282
ాల	-7.53079
▁నుంచి	-7.53394
▁యొక్క	-7.53881
కా	-7.54033
▁సౌకర్యాలు	-7.54065
ంలో	-7.54212
▁ప	-7.54406
▁4	-7.54444
▁గా	-7.54445
▁నీటి	-7.54615
▁అన్ని	-7.54624
▁కొన్ని	-7.54802
▁నది	-7.54825
▁జిల్లాలో	-7.55286
▁ఆంధ్రప్రదేశ్	-7.55328
▁తెలంగాణ	-7.56635
▁సా	-7.57636
▁బి	-7.58649
నీ	-7.5889
▁లేని	-7.59137
▁నీరు	-7.59577
▁దక్షిణ	-7.59699
▁సంస్థ	-7.60275
▁వ్యవసాయం	-7.60659
),	-7.60669
▁మూడు	-7.60828
లలో	-7.6132
▁వంటి	-7.61464
మ్	-7.61536
▁క	-7.61692
▁కంటే	-7.61974
▁ఆఫ్	-7.62071
లకు	-7.62129
▁రోజున	-7.62182
▁వద్ద	-7.63226
▁మ	-7.63267
య్య	-7.64013
▁16	-7.64465
▁1	-7.64522
▁6	-7.64606
▁17	-7.64895
▁ప్రత్యేక	-7.65051
త్	-7.65343
▁నటుడు	-7.6552
▁స	-7.65948
▁అనేక	-7.67249
▁మే	-7.67441
తి	-7.6781
హ	-7.68632
ుల	-7.6926
మ్మ	-7.69267
▁చేసిన	-7.69273
▁ఆయన	-7.69297
▁వారు	-7.69444
▁మీద	-7.69573
పి	-7.69581
ణ	-7.69657
▁ఎ	-7.69973
సు	-7.70157
మా	-7.70172
అ	-7.71003
▁కాలంలో	-7.71076
▁కవి	-7.71425
▁జనగణన	-7.72435
▁12	-7.73582
▁వివిధ	-7.7374
▁వాణిజ్య	-7.73869
▁ఉంటుంది	-7.73892
గ్	-7.73962
▁వనరుల	-7.7439
వా	-7.7497
డానికి	-7.75037
▁చ	-7.75491
▁చిన్న	-7.77015
▁కోసం	-7.77253
▁భాష	-7.77434
▁11	-7.77553
▁8	-7.7774
▁లేదా	-7.77757
▁నా	-7.77862
▁చరిత్రలో	-7.77941
▁రైల్వే	-7.78115
▁మాజీ	-7.78308
జ్	-7.7842
గు	-7.78576
ె	-7.78941
▁14	-7.79346
▁బ్యాంకు	-7.79634
మే	-7.79776
▁ఇంకా	-7.79815
▁త	-7.79844
▁విద్యుత్	-7.80262
▁షెడ్యూల్	-7.80573
▁డిగ్రీ	-7.81471
▁ఆసుపత్రి	-7.82159
▁సి	-7.82277
మి	-7.82602
’	-7.82639
కో	-7.82998
▁తిరిగి	-7.83267
వు	-7.83303
▁/	-7.83322
▁ప్రభుత్వం	-7.83688
▁పథకం	-7.84095
▁గ్రామ	-7.84309
చ	-7.84411
2	-7.85007
▁గంటల	-7.85042
▁మొదలైన	-7.85306
▁ప్రపంచ	-7.85512
▁చైనా	-7.85538
▁2011	-7.85665
▁వారం	-7.86167
▁ఉత్తర	-7.86202
▁పి	-7.86219
▁13	-7.86232
▁ఉప	-7.86254
4	-7.86323
పబ్లిక్	-7.86392
▁అతను	-7.86647
▁రా	-7.87063
▁అతని	-7.87625
▁జరిగింది	-7.87929
▁ఫోన్	-7.87961
యా	-7.87961
రీ	-7.881
▁మీ	-7.88238
▁వైద్యశాల	-7.88437
▁బ	-7.88445
▁ప్రతి	-7.88532
▁:	-7.89186
▁రెండవ	-7.89218
▁కలిగి	-7.89246
▁రోడ్లు	-7.89328
వే	-7.90236
▁ఇద్దరు	-7.90323
▁9	-7.90741
▁ఆఫీసు	-7.91009
▁వ్యవసాయానికి	-7.91473
▁స్వాతంత్ర్య	-7.91596
▁పోస్టాఫీసు	-7.92062
ియన్	-7.92069
▁ఇ	-7.9258
▁భారతదేశంలో	-7.92617
▁పాకిస్థాన్	-7.92997
3	-7.93319
▁ముందు	-7.93893
▁జరుగుతోంది	-7.94022
దు	-7.94236
▁మొత్తం	-7.94384
▁ప్రజలు	-7.94969
ద్	-7.95124
▁గురించి	-7.95175
▁స్టేషన్	-7.95838
ఎస్	-7.95914
▁తమ	-7.96705
▁జూన్	-7.96845
▁జనవరి	-7.97377
▁ప్రాంతం	-7.97578
ాలను	-7.97691
యు	-7.98131
▁సంగీత	-7.98202
▁తూర్పు	-7.98925
సా	-7.99288
▁రాజకీయ	-7.99809
కే	-7.99985
▁స్వామి	-8.00038
▁ను	-8.00205
ష	-8.00406
▁మా	-8.00758
ములు	-8.00863
▁తొలి	-8.00911
▁కొరకు	-8.01024
▁20	-8.01116
లోనూ	-8.01235
▁ని	-8.01244
▁ప్ర	-8.02127
▁టి	-8.02413
▁ప్రవహిస్తుంది	-8.02468
▁కా	-8.02689
ుని	-8.03129
▁దర్శకుడు	-8.0317
▁రాజు	-8.03514
▁సిబ్బంద	-8.03649
▁గోదావరి	-8.03703
▁మార్చి	-8.04086
▁పై	-8.04314
▁కోడ్	-8.04556
▁చేసి	-8.04642
రాజు	-8.04931
▁పార్టీ	-8.05092
ప్	-8.05093
▁మండలం	-8.052
బ	-8.06217
ున్నాయి	-8.06346
▁లోపు	-8.07245
▁కాని	-8.07713
▁చేయ	-8.0782
▁విధంగా	-8.07995
19	-8.08266
▁ఉత్పత్తి	-8.08312
e	-8.08388
లతో	-8.08656
▁నాయకుడు	-8.08952
యం	-8.09207
▁భూ	-8.09402
▁ప్రాథమికోన్నత	-8.09568
▁అండ్	-8.0966
▁ఫిబ్రవరి	-8.09862
జి	-8.09936
▁ప్రదేశ్	-8.10151
▁ఏర్పాటు	-8.10371
▁జూలై	-8.10463
▁నటి	-8.10507
నుండి	-8.10609
▁మాధ్యమిక	-8.10621
▁అంటారు	-8.10659
▁చరిత్ర	-8.10689
చి	-8.10843
వారు	-8.11149
రో	-8.11301
▁నాలుగు	-8.11784
ధ	-8.12002
▁సంఘం	-8.12063
▁సంవత్సరాల	-8.12622
ంచ	-8.12768
▁మహా	-8.12912
▁కొత్త	-8.13357
▁ఆమె	-8.13408
▁సమయంలో	-8.13549
హార	-8.13608
▁విస్తరించి	-8.13669
▁సం	-8.13829
▁ల	-8.13947
పో	-8.14163
ంత	-8.14187
▁గల	-8.14413
▁ప్రాంతంలో	-8.14451
▁య	-8.14505
▁కాలువల	-8.14508
తు	-8.1457
▁బస్సులు	-8.14612
క్ష	-8.14802
▁ము	-8.14808
ల్లో	-8.14809
లే	-8.14872
న్నాయి	-8.15348
▁రవాణా	-8.1544
▁సంవత్సర	-8.15472
▁కోట	-8.1561
▁ప్రాంతాల	-8.15619
▁పశ్చిమ	-8.15685
భ	-8.15751
▁వచ్చిన	-8.1584
▁కానీ	-8.15938
▁రాష్ట్రం	-8.16314
▁కె	-8.16316
▁అయిన	-8.16367
▁ఏప్రిల్	-8.16809
▁అను	-8.16998
చే	-8.17313
▁లాండ్	-8.17396
▁తర్వాత	-8.17577
▁కేంద్రంలో	-8.17708
▁కుటుంబ	-8.17848
▁సంగతులు	-8.17889
నూ	-8.17946
▁ఓ	-8.17968
▁పలు	-8.18051
▁సు	-8.18131
▁of	-8.18167
▁25	-8.18567
▁డాక్టరు	-8.19038
లేదు	-8.19047
ఆర్	-8.19135
7	-8.19236
▁జ	-8.19373
బి	-8.1939
ప్ర	-8.19469
దా	-8.19553
▁సినీ	-8.1958
▁గుండా	-8.19675
▁ప్రముఖ	-8.20711
▁ఉండేది	-8.20736
▁కాగా	-8.20786
▁బావులు	-8.21126
యి	-8.21244
తా	-8.21358
మని	-8.21405
▁హ	-8.21518
▁వచ్చింది	-8.21721
▁30	-8.21833
1	-8.21911
▁గాంధీ	-8.22305
▁అన్న	-8.22654
6	-8.22845
టు	-8.24166
▁జరుగుతుంది	-8.24261
▁దీనిని	-8.24304
▁గ	-8.24383
o	-8.24414
▁ఉంటాయి	-8.24517
ష్	-8.24669
▁ది	-8.24833
▁వృత్తి	-8.24882
రే	-8.24882
▁విజయనగర	-8.24989
▁శిక్షణ	-8.25016
▁సభ	-8.25226
ొ	-8.25229
▁జూనియర్	-8.25998
▁హైదరాబాదు	-8.26213
▁సామాన్య	-8.26308
▁సిబ్బంది	-8.26469
▁కో	-8.26549
▁పౌర	-8.26718
8	-8.26755
ాలి	-8.27066
▁--	-8.27444
ంద	-8.27444
▁సాహిత్య	-8.27477
▁ఇందులో	-8.27681
▁రాజ	-8.27695
▁ఏడాది	-8.27723
▁మురుగునీర	-8.27726
▁ఆగష్టు	-8.2776
▁గ్రామాల	-8.27839
రావు	-8.27888
▁వల్ల	-8.27914
▁చిత్ర	-8.28026
▁దివ్య	-8.28235
5	-8.28355
టం	-8.29098
i	-8.29235
ైన	-8.29266
▁అయితే	-8.29558
!	-8.29712
▁అమెరికా	-8.29908
▁క్యాలెండర్	-8.30018
▁ముగ్గురు	-8.30033
▁వలన	-8.30184
▁ఇంజనీరింగ్	-8.30288
ముగా	-8.3034
ప్ప	-8.3054
▁దేశ	-8.30657
▁ఆర్థిక	-8.30793
▁ప్రకారము	-8.30796
▁వా	-8.30801
లీపు	-8.30826
▁లేరు	-8.30888
▁మాత్రమే	-8.31055
▁అది	-8.31058
గి	-8.31117
▁చారిత్రక	-8.31577
▁కేంద్రాలు	-8.31839
ేతర	-8.32076
్లో	-8.32352
▁అతి	-8.3243
▁గణాంకాల	-8.32616
ళ్ళ	-8.32674
లోను	-8.32959
▁చేసింది	-8.33216
▁దీని	-8.3326
a	-8.33297
ాంతమున	-8.33346
▁చేశారు	-8.33351
▁కేంద్ర	-8.33793
▁శ	-8.33831
▁నగరం	-8.33986
ాయ	-8.34071
▁కాలం	-8.34216
పూ	-8.34399
పా	-8.34455
ేశ్వర	-8.34477
▁తేదీలు	-8.3467
▁సెప్టెంబర్	-8.34806
▁మిగిలినవి	-8.34839
t	-8.35028
▁పొడుగున	-8.35048
▁ద	-8.35068
ై	-8.35308
▁బంజ	-8.3531
▁దేవాలయం	-8.35544
▁హిందూ	-8.35572
బా	-8.35574
▁గ్రెగొర	-8.35586
▁మురుగునీటి	-8.35859
బడింది	-8.35956
ున్నారు	-8.36296
▁నమోదు	-8.36682
▁ప్రసిద్ధి	-8.36875
ోంది	-8.3697
ిక	-8.37086
▁24	-8.37127
కీ	-8.37185
▁పట్టణం	-8.37324
▁రెడ్డి	-8.37491
;	-8.37513
▁బా	-8.37514
?	-8.37534
▁ఐ	-8.37632
▁కృష్ణ	-8.3811
▁షా	-8.38814
▁ఆర్ట్స్	-8.38927
▁ఇంటర్నెట్	-8.3894
కం	-8.39078
▁శాస్త్రవేత్త	-8.39196
▁సైన్స్	-8.39319
▁అంటే	-8.39365
లీ	-8.39979
▁రామ	-8.39994
▁సహకార	-8.40153
ఫ్	-8.40277
▁లైన్	-8.40397
▁అందుతు	-8.40861
▁అసెంబ్లీ	-8.41236
▁గ్రంథాలయం	-8.41406
▁జి	-8.41412
▁కులాల	-8.41515
▁అలాగే	-8.41787
▁అంతర్జాతీయ	-8.41886
▁వినోద	-8.42063
▁2001	-8.42081
▁కార్యాలయం	-8.42191
ౌ	-8.42241
%	-8.42285
▁ఇరాన్	-8.42362
▁మి	-8.42532
▁తెగల	-8.42774
కె	-8.42926
▁కార్యకర్త	-8.4294
▁ఒకరు	-8.43182
▁వినియోగం	-8.43249
సీ	-8.43604
▁26	-8.4406
▁కుళాయిల	-8.4412
ండి	-8.44358
▁నిర్వహించారు	-8.44451
▁భాగంగా	-8.4463
▁సేవా	-8.44775
▁సంపూర్ణ	-8.45015
▁వాటి	-8.45315
▁స్వయం	-8.45414
▁ఆర్	-8.45519
▁స్	-8.45866
వారి	-8.45956
▁ఆటో	-8.46043
▁భారతదేశ	-8.46044
▁దాని	-8.46166
▁21	-8.46252
▁ప్రజల	-8.46277
▁సబ్	-8.46572
▁గో	-8.46583
▁28	-8.46904
▁సంత	-8.46971
▁మైదానం	-8.46989
▁మట్టి	-8.47047
జీ	-8.47062
▁గ్రహీత	-8.47134
▁జా	-8.47232
▁హిందీ	-8.47246
▁యుద్ధం	-8.47266
ద్ద	-8.47287
▁కల	-8.47397
▁డి	-8.47521
▁లభిస్తున్న	-8.47619
డా	-8.47704
ాలలో	-8.47758
▁రాజధాని	-8.479
▁రష్యా	-8.47926
▁సంరక్షణ	-8.48064
ళ	-8.48191
▁మగవారి	-8.48377
▁కన్నడ	-8.48388
▁కర్ణాటక	-8.48416
▁మండల	-8.48421
▁తో	-8.48558
▁ఔషధ	-8.48676
యాస్	-8.48782
▁సాగునీరు	-8.48988
స్వామి	-8.48994
▁విశ్వవిద్యాలయం	-8.49377
▁కారణంగా	-8.49608
▁సంవత్సరం	-8.4961
▁ముఖ్యమంత్రి	-8.49734
గల	-8.4974
▁ఉ	-8.49831
కొ	-8.49852
▁19	-8.49959
▁ఆటల	-8.49965
ాంగుల	-8.49978
ంగ	-8.4998
▁రైలు	-8.50001
▁ఆరోగ్యం	-8.50097
▁నిర్మాత	-8.50099
నది	-8.50109
▁డిసెంబర్	-8.50242
▁సంక్షేమ	-8.50242
▁పంపిణీ	-8.50559
▁సుమారు	-8.50616
▁ఇళ్లతో	-8.50886
▁బృందం	-8.50942
▁చెరువు	-8.51034
▁అప్పటి	-8.51103
▁శాల	-8.51176
▁పశు	-8.51223
▁తమిళ	-8.5137
కూ	-8.51565
▁మేనేజిమెంటు	-8.51834
▁సొసైటీ	-8.51834
▁ఆడవారి	-8.51853
▁నాటికి	-8.52306
▁లు	-8.52447
▁పోషణ	-8.52477
▁పట్టణమైన	-8.52557
చేస్తున్నారు	-8.53002
▁మొబైల్	-8.53125
▁కర్నూలు	-8.53183
▁కలిగిన	-8.53222
▁23	-8.53226
▁జనన	-8.53289
▁శిశు	-8.53371
▁వార్తాపత్రిక	-8.53451
▁విత్తి	-8.53475
20	-8.53521
▁మన	-8.53559
ికరంగా	-8.53639
▁భారతదేశం	-8.53661
▁అనియత	-8.53783
ట్లు	-8.53844
▁మంచి	-8.53964
మై	-8.54014
▁సామ్రాజ్యం	-8.54074
▁మె	-8.54076
▁వినియోగంలో	-8.54123
▁22	-8.54141
ించి	-8.54187
▁నిమిత్తం	-8.54433
▁నవంబర్	-8.54765
▁వచ్చి	-8.54801
హెక్టార్లలో	-8.5495
వ్	-8.54952
▁మరణాల	-8.5501
▁టెలిఫోన్	-8.55094
▁హాలు	-8.55159
▁బాలల	-8.55247
▁పోషకా	-8.553
▁ప్రత్యామ్నాయ	-8.55426
▁పాలీటెక్నిక్	-8.55447
▁ఆశా	-8.55609
▁క్రీ	-8.5561
రం	-8.55615
▁గొప్ప	-8.55768
▁దాదాపు	-8.55822
మును	-8.55862
▁వీరి	-8.55867
ఇ	-8.55875
నో	-8.55905
బ్	-8.55923
▁పా	-8.55964
▁కాకుండా	-8.56121
▁కొండ	-8.5624
d	-8.56393
▁మంచినీటి	-8.5643
▁మొట్టమొదటి	-8.5647
▁ప్రాంతాలు	-8.56517
▁లా	-8.56677
▁అక్టోబర్	-8.56765
▁వీధుల	-8.56842
▁పుట్టిన	-8.57159
▁సహాయక	-8.57204
ములో	-8.57222
థ	-8.5743
▁లొకేషన్	-8.57441
▁పోస్ట్	-8.5745
▁క్రికెట్	-8.57474
▁మండలానికి	-8.57605
▁వీటి	-8.57609
▁చేశాడు	-8.57642
▁ఇండియా	-8.57833
▁ఎం	-8.58101
▁పో	-8.5812
▁వస్తువులు	-8.58281
▁అవసరాల	-8.58306
▁చేసే	-8.58475
▁పురస్కారం	-8.58634
▁ముఖ్య	-8.58734
▁ఉత్పాదక	-8.58807
▁సమీకృత	-8.58808
▁కాంగ్రెస్	-8.58863
▁మాతా	-8.58894
▁బ్రహ్మ	-8.59099
▁కొరియ	-8.59145
▁పరపతి	-8.59158
▁బస్సు	-8.59371
▁అదే	-8.59429
▁జిల్లాలోని	-8.59518
ాలని	-8.59529
▁|	-8.59657
▁కలిసి	-8.59679
▁29	-8.59683
▁ఇక్కడి	-8.59987
▁రాష్ట్రంలో	-8.60001
▁లెక్కల	-8.60127
▁సంచార	-8.60316
▁వ్యర్థాల	-8.60542
▁మార్కెటింగ	-8.60542
ఆ	-8.60549
ాన	-8.60604
▁అక్కడ	-8.60623
్తారు	-8.60665
▁సేకరించే	-8.60676
▁నగర	-8.60784
▁ఎక్కువగా	-8.60864
▁కంకర	-8.60896
▁ఉన్నత	-8.60988
▁ఇవి	-8.61151
▁టెలిగ్రాఫ్	-8.61244
▁రక్షిత	-8.61246
▁చెప్ప	-8.61361
▁పారిశుధ్య	-8.61597
▁గృహావసరాల	-8.61598
దే	-8.61668
పల్లి	-8.61797
▁మరుగుదొడ్	-8.61952
▁తిరుగుతున్న	-8.61958
▁పోలింగ్	-8.6196
▁పక్కనే	-8.61993
▁బ్రిటిష్	-8.62034
▁రీడింగ	-8.62049
▁తారు	-8.62151
▁దేశంలో	-8.62296
▁రూం	-8.62322
లోనే	-8.62418
ంబ	-8.62591
▁నాటి	-8.62634
▁బయోగ్	-8.62652
▁కెఫె	-8.62664
▁ఎస్	-8.62682
యే	-8.62749
▁పేరుతో	-8.62774
▁కథ	-8.62789
▁శతాబ్దం	-8.62846
▁ప్రస్తుతం	-8.62864
▁డిస్పెన్సరీ	-8.63022
▁కృష్ణా	-8.63218
▁ఈయన	-8.63274
▁అత్యంత	-8.6338
▁అలోపతి	-8.63382
▁సరఫరాల	-8.63439
ంతో	-8.63636
▁ఏటీఎమ్	-8.63742
▁ఇంటింటిక	-8.63754
▁ర	-8.63874
ఈ	-8.63896
▁వీరు	-8.63934
తీ	-8.63965
▁ఇలా	-8.64089
▁భాషా	-8.64242
▁ముఖ్యమైన	-8.64313
,000	-8.64366
▁మొదలైనవి	-8.64394
ఎ	-8.64846
క్క	-8.64852
▁రాష్ట్రపతి	-8.64872
▁దేవ	-8.64979
▁వెంకట	-8.64998
▁ఎన్నో	-8.65213
▁ఇదే	-8.65244
▁బాగా	-8.65285
▁స్థానంలో	-8.6538
▁గుంటూరు	-8.6543
▁కాక	-8.65578
▁ఆలయ	-8.65664
టీ	-8.65715
బడి	-8.65805
▁తిరుమల	-8.66233
▁ప్రాజెక్టు	-8.66449
▁అధికంగా	-8.66501
▁తిరుపతి	-8.66517
▁రష్యన్	-8.66733
▁చేసారు	-8.66832
ండ	-8.66969
▁ఖమ్మం	-8.67025
▁పట్టణ	-8.67127
▁విజయవాడ	-8.67156
▁దగ్గర	-8.67373
▁సంస్కృత	-8.67561
▁బహిరంగ	-8.6767
జా	-8.67765
ః	-8.67775
టా	-8.67837
▁ఆలయంలో	-8.67903
▁లోనూ	-8.67936
▁విద్య	-8.68031
▁నగర్	-8.68429
▁కొ	-8.6853
▁శతాబ్దంలో	-8.6889
▁నాటక	-8.68902
▁చెత్త	-8.68951
▁పాల	-8.68975
▁the	-8.69023
మున	-8.69032
యో	-8.69042
▁పారబోస	-8.69316
y	-8.69331
ష్ట	-8.6941
వాడీ	-8.69613
▁ట్రాక్టర్ల	-8.69698
నె	-8.69836
తే	-8.69854
▁అమలవుత	-8.70089
▁లోను	-8.7036
▁నిజాం	-8.70467
▁చక్రవర్తి	-8.70583
▁నేరు	-8.70869
▁వారికి	-8.70939
▁కాదు	-8.71171
▁అవుతున్నాయి	-8.71252
▁ఐదు	-8.71289
దీ	-8.71377
▁ఆధునిక	-8.71398
వాడు	-8.71502
▁మద్రాసు	-8.71634
▁పాలన	-8.71821
▁నివాస	-8.71892
▁అంగన	-8.72049
▁చివరి	-8.72404
▁ధర్మ	-8.72749
రోడ్ల	-8.7278
ిత	-8.72916
u	-8.73088
▁రావు	-8.73187
▁సోవియట్	-8.7321
▁వాడ	-8.73305
▁మరో	-8.7333
▁ఏమి	-8.73679
ళ్ళు	-8.73825
▁పొందిన	-8.7389
త్ర	-8.73896
కుండా	-8.74
▁దినోత్సవం	-8.74191
బడిన	-8.74367
▁27	-8.74423
ుడైన	-8.74464
▁పురుషుల	-8.74484
▁శివ	-8.74535
▁వీర	-8.74632
్య	-8.74656
మె	-8.74689
గిరి	-8.74695
▁వె	-8.7476
▁సిస్టం	-8.74812
ాలకు	-8.74843
ేవారు	-8.75006
▁).	-8.75211
త్త	-8.75233
ాల్లో	-8.75233
▁విజయ	-8.75515
”	-8.75622
▁చేర	-8.75635
▁జిల్లాకు	-8.75653
▁దీనికి	-8.75734
▁రాయలు	-8.75742
్లోకి	-8.75816
▁పాత	-8.7603
వర్	-8.76127
▁మరొక	-8.76369
▁దేశం	-8.76453
బడ	-8.76687
▁భక్తులు	-8.7674
▁రచన	-8.76945
▁ప్రపంచంలో	-8.76974
▁శాసనసభ	-8.77047
▁పూర్తి	-8.77091
ుగా	-8.77224
▁లోక్	-8.77247
▁ఎమ్	-8.7739
▁చేసాడు	-8.77411
బడ్డాయి	-8.77568
ంగ్	-8.77627
ముల	-8.77813
▁భ	-8.77934
▁అధ్యక్షుడు	-8.78119
9	-8.78202
▁ఏలూరు	-8.78509
▁అక్టోబరు	-8.78636
▁కాల	-8.78679
▁మంత్రి	-8.78815
▁రంగస్థల	-8.78934
▁జన	-8.79321
▁and	-8.79369
మునకు	-8.79406
▁ఆరు	-8.79545
0	-8.79628
▁గుడి	-8.79664
గో	-8.79782
ఐ	-8.79823
▁మత	-8.80018
▁నిర్మించిన	-8.80037
▁ఖ	-8.80052
రెడ్డి	-8.80174
▁తండ్రి	-8.80321
al	-8.80587
డే	-8.80943
▁నెల్లూరు	-8.81248
వీ	-8.81416
▁వచ్చే	-8.81429
▁భాగం	-8.81494
h	-8.81654
లూ	-8.8175
మో	-8.81815
వచ్చు	-8.81854
ఇది	-8.81976
▁సమీపంలో	-8.81985
p	-8.82
వ్వ	-8.82027
r	-8.823
▁చె	-8.82423
▁బాలబడి	-8.8246
పాడు	-8.82472
▁మో	-8.82487
▁సంఘటనలు	-8.82491
ేందుకు	-8.82837
▁చలనచిత్ర	-8.83237
▁366	-8.83352
▁బాల	-8.83533
▁నీ	-8.83534
▁31	-8.83668
▁కే	-8.83671
పురం	-8.83876
కవి	-8.84138
▁అంత	-8.8445
▁ఉండే	-8.84645
ాడేందుకు	-8.84749
c	-8.84871
లుగా	-8.84915
▁స్కోప్	-8.85001
▁థాయ్	-8.85003
n	-8.85047
▁విజయం	-8.8507
▁వై	-8.85087
▁అమెరికన్	-8.85161
ారని	-8.8526
టర్	-8.85348
▁అవార్డు	-8.85449
▁మరియు	-8.85464
ల్ల	-8.85492
.18	-8.85493
చ్చ	-8.85565
▁స్థానిక	-8.85722
రామ	-8.85889
▁చేతిపంపుల	-8.85899
▁తెలంగాణా	-8.86242
▁కంపెనీ	-8.86351
▁క్రీడాకారుడు	-8.86352
▁అవి	-8.86417
▁ఢిల్లీ	-8.86443
▁చేత	-8.86492
▁పాత్ర	-8.86517
కర్	-8.86543
▁మందుల	-8.86821
▁అందులో	-8.86905
ుతుంది	-8.86948
▁గు	-8.87039
ళ్ల	-8.87074
సం	-8.87134
▁సర్వ	-8.87188
▁పోతున్న	-8.87199
▁వదులుత	-8.87264
లె	-8.87268
హి	-8.87292
ింప	-8.87408
▁కట్ట	-8.87566
m	-8.87689
▁శాఖ	-8.87733
▁పార్లమెంటు	-8.87777
16	-8.87914
ప్పుడు	-8.88016
▁పద	-8.88059
▁జె	-8.88061
ందని	-8.88097
కాల	-8.88123
▁యుద్ధ	-8.88256
▁కెనడాలో	-8.88341
నం	-8.88456
పాటి	-8.88469
▁జల	-8.8848
ుట	-8.88484
▁A	-8.8854
▁అనగా	-8.88568
స్త	-8.88961
బోరు	-8.89043
రె	-8.89083
▁సభ్యుడు	-8.89145
▁ఈమె	-8.89217
30	-8.90043
▁2013	-8.90205
▁సామ్రాజ్య	-8.90281
ిస్తూ	-8.90539
▁మద్య	-8.90594
▁శాస్త్రి	-8.91035
▁రే	-8.91055
▁మాత్రం	-8.91058
▁ప్రాంతాలలో	-8.91078
టానికి	-8.91195
▁లక్షల	-8.91223
▁జలవనరుల	-8.91463
▁బహుమతి	-8.91464
▁డా	-8.91482
▁తా	-8.91613
▁బహిరంగంగా	-8.91624
▁నారాయణ	-8.91645
ంచి	-8.91818
▁ప్రాచీన	-8.92034
బ్బ	-8.92116
50	-8.92153
ూరు	-8.92339
▁చెందింది	-8.92496
an	-8.92768
▁2022	-8.92929
ులకు	-8.9299
ప్రాథమిక	-8.93199
▁మూల	-8.9335
▁అధిక	-8.93412
▁యు	-8.93446
13	-8.93503
▁రాజా	-8.93649
నాడు	-8.93696
▁నరసింహ	-8.93836
ించిన	-8.93897
A	-8.94084
▁కడప	-8.94085
▁అనుసరించి	-8.94146
▁నిర్మాణ	-8.94205
▁ఎన్	-8.9422
▁ఆంగ్ల	-8.94221
▁మహారాష్ట్ర	-8.94393
▁ప్రాంతాన్ని	-8.94491
▁పురాతన	-8.94882
▁కుమారుడు	-8.94931
పేట	-8.94932
▁సె	-8.95149
▁నాడు	-8.95282
▁కలిపి	-8.95327
▁మార్కెట్	-8.95354
▁పని	-8.95581
▁లభిస్తుంది	-8.95848
▁వేద	-8.95986
ధా	-8.9612
ెడ్	-8.96288
▁ప్రసిద్ధ	-8.96308
ించాడు	-8.96422
▁చే	-8.96609
త్య	-8.96825
దగ్గ	-8.96883
▁గోల్కొండ	-8.96897
ట్ల	-8.97436
ణి	-8.97474
er	-8.97521
ుంది	-8.97631
▁పొంద	-8.97764
▁ప్రజా	-8.97845
g	-8.97951
▁నిర్మించారు	-8.97968
▁ప్రా	-8.97978
▁సాగని	-8.98019
▁2014	-8.9809
బు	-8.98092
ాలతో	-8.98104
▁ముస్లిం	-8.98158
▁పాట	-8.98245
▁ఇన్	-8.98258
▁కచ్చ	-8.98296
హ్	-8.98372
ఖ	-8.9844
▁అతిపెద్ద	-8.98442
కొండ	-8.98519
▁తప్ప	-8.9852
ట్ట	-8.98543
నేషనల్	-8.98591
▁అంద	-8.9873
ించారు	-8.98804
ఎం	-8.98963
▁40	-8.99087
▁రాష్ట్రంలోని	-8.9927
C	-8.99294
▁కొంత	-8.9939
▁ఏర్పడిన	-8.99409
చు	-8.9942
▁వే	-8.99471
▁ఒక్క	-8.99538
▁పంచ	-8.99557
దని	-8.99845
(	-8.99861
డీ	-8.99933
▁భూములు	-9.00298
సంవత్సరం	-9.00388
▁ప్రస్తుత	-9.00404
▁ఎంతో	-9.0041
▁శాశ్వత	-9.00434
▁మిగిలిన	-9.00477
▁మూడవ	-9.00492
▁ఏర్పడింది	-9.00493
▁వీటిలో	-9.00535
▁భారత్	-9.00637
▁లే	-9.00688
▁భావిస్తున్నారు	-9.00971
▁తక్కువ	-9.01044
▁వీ	-9.01109
▁అధికార	-9.01252
▁అందుబాటులో	-9.01483
▁తల్లి	-9.01485
▁శక్తి	-9.01522
▁సమరయోధుడు	-9.01636
12	-9.01782
▁సంవత్సరాలు	-9.01783
స్థ	-9.0188
సమీప	-9.01958
▁కనుక	-9.02081
▁రచించిన	-9.02125
▁ఉండ	-9.022
ెన్	-9.02208
▁తల	-9.02258
▁జాతి	-9.024
▁బౌద్ధ	-9.02415
ఘ	-9.02418
డంతో	-9.02461
▁ఒ	-9.02474
▁పు	-9.0248
ందు	-9.02482
ar	-9.02548
యూ	-9.02676
▁చిత్రం	-9.02719
▁జిల్లాల	-9.02719
▁శాతం	-9.02961
▁తెలుగులో	-9.02978
▁పరిశ్రమ	-9.03053
ఫ	-9.0313
ధి	-9.03141
10	-9.03409
▁ఖాన్	-9.0348
▁స్వతంత్ర	-9.03589
▁డిసెంబరు	-9.03783
▁చూడ	-9.03834
▁జిల్లాలు	-9.03979
రంగ	-9.04013
▁పైగా	-9.04087
▁ఫ	-9.0409
▁నెహ్రూ	-9.04153
▁పూర్వ	-9.04161
▁భార్య	-9.04173
▁అన్నమయ్య	-9.04179
▁S	-9.04357
▁సింగ్	-9.04387
షా	-9.04441
రాజ	-9.045
ుకొని	-9.04518
బీబీ	-9.0473
25	-9.04851
శి	-9.04965
▁లేక	-9.05109
▁చిత్రాలు	-9.05206
కర	-9.05237
▁రూ	-9.05467
▁వలస	-9.05532
రణ	-9.05591
ుతూ	-9.05608
▁అత్యధిక	-9.0561
పూర్	-9.05694
▁అవ	-9.05769
▁చేయడం	-9.05776
▁పరి	-9.05783
▁అంచనా	-9.05791
▁ఉర్దూ	-9.05853
▁అధికారిక	-9.05867
▁సముద్ర	-9.06129
15	-9.06169
ట్టు	-9.0617
ల్లా	-9.06196
▁సంప్రదాయ	-9.06237
]	-9.06319
▁సందర్భంగా	-9.0637
▁నాగ	-9.06416
▁సంబంధించిన	-9.06509
▁నిర్మాణం	-9.06737
▁నగరంలో	-9.06888
▁పిలుస్తారు	-9.06897
▁2009	-9.06927
▁ఎన్నికలలో	-9.07179
▁చా	-9.07312
▁in	-9.07373
యెస్	-9.074
▁సంఘ	-9.07485
ులను	-9.07539
జె	-9.0755
▁పర్యాటక	-9.07617
ఉ	-9.07622
▁రాజులు	-9.07783
b	-9.0782
▁నలుగురు	-9.0803
▁ఇప్పుడు	-9.08101
మూ	-9.08109
▁బో	-9.08144
▁1947	-9.08175
f	-9.08378
ెను	-9.08408
▁ఏడు	-9.08481
▁విడుదల	-9.0857
▁కేరళ	-9.08641
▁పరిపాలన	-9.0869
▁)	-9.08698
▁మండలాలు	-9.08727
▁రాయ	-9.08773
▁వ్యక్తి	-9.088
కల్	-9.0886
▁ఆది	-9.08953
14	-9.09259
▁సెప్టెంబరు	-9.09259
▁అయింది	-9.09263
in	-9.0938
▁2008	-9.09384
▁సైనిక	-9.0943
▁జీవ	-9.09524
ప్రైవేటు	-9.09793
▁గాయకుడు	-9.09814
40	-9.09864
పద	-9.10026
రాయ	-9.10191
17	-9.10282
▁దుకాణాలు	-9.10306
▁సాంస్కృతిక	-9.10328
▁అక్షరాస్యత	-9.10338
▁సాధారణంగా	-9.10392
▁వ్యాపార	-9.10451
ంటే	-9.10634
18	-9.10638
▁కిలోమీటర్ల	-9.10784
▁సభ్యులు	-9.10857
▁పర్వత	-9.10874
▁1990	-9.10886
▁2012	-9.10906
▁చంద్ర	-9.10938
▁ఉండి	-9.1099
▁పత్రిక	-9.11031
▁లింగ	-9.11091
ట్టి	-9.11233
▁సత్యనారాయణ	-9.11312
▁పాలనలో	-9.11343
▁కాలువ	-9.1141
▁యుద్ధంలో	-9.11439
▁లాల్	-9.11477
▁ఆసియా	-9.1154
▁వ్యతిరేక	-9.11561
ధార	-9.11682
▁సీ	-9.11737
▁బె	-9.1179
▁రాష్ట్రాల	-9.11799
ింగ్	-9.11916
▁యూనియన్	-9.12035
▁రోడ్డు	-9.12151
▁1956	-9.12183
▁సాగులో	-9.12334
▁ఒకే	-9.12367
▁వేంకట	-9.12453
▁కుతుబ్	-9.12621
v	-9.12626
▁గుర్తింపు	-9.12694
ును	-9.1305
▁చి	-9.1315
షి	-9.1316
▁తమిళనాడు	-9.13237
▁ప్రధానమంత్రి	-9.13325
▁ప్రకాశం	-9.13325
▁శాంతి	-9.13429
▁రాజ్యం	-9.13494
▁రాజ్య	-9.13619
▁లక్ష్మీ	-9.13726
▁సైన్యం	-9.1375
:-	-9.13766
వై	-9.13814
▁వేల	-9.13945
లం	-9.14005
▁నవ	-9.1415
▁శాసన	-9.14218
▁విశ్వ	-9.14243
▁సమ	-9.14264
ఎన్	-9.14407
మైనది	-9.14429
▁నవంబరు	-9.14502
కార	-9.14779
▁స్త్రీల	-9.14898
▁రెవెన్యూ	-9.15006
▁పంట	-9.15092
▁భావ	-9.15246
ందుకు	-9.15311
▁అన	-9.15429
▁అర్థం	-9.15461
▁B	-9.15473
▁కాంగ్రెసు	-9.15611
▁50	-9.15683
గానే	-9.15953
▁సో	-9.15971
▁గ్రామాలు	-9.16082
▁దాడి	-9.162
▁నంద్యాల	-9.16223
పర	-9.16417
▁మండేలా	-9.16833
▁అలా	-9.16856
▁హైదరాబాద్	-9.16912
▁నిర్	-9.16945
స్తు	-9.16971
22	-9.17024
ాం	-9.17072
▁కోట్ల	-9.17129
బో	-9.17231
70	-9.17248
▁పంప	-9.17378
▁ఉత్తమ	-9.17449
▁భూముల్లో	-9.17463
▁కంప్యూటరు	-9.17544
▁సంస్కృతి	-9.17554
▁వ్యతిరేకంగా	-9.17584
▁తు	-9.17713
94	-9.18047
▁రో	-9.18057
▁కొందరు	-9.18069
▁నాయుడు	-9.18079
▁గృహాలు	-9.18148
▁అరటి	-9.18188
న్ని	-9.18205
సె	-9.18222
ియా	-9.18368
బీడు	-9.18678
పాల	-9.1875
▁35	-9.18789
▁వరి	-9.1879
▁సత్య	-9.18852
▁తి	-9.18989
▁ఇతని	-9.19057
▁చూప	-9.19125
శ్రీ	-9.19156
స్తూ	-9.19164
▁మల్ల	-9.1925
▁భక్తి	-9.19263
▁పర	-9.19373
▁మారింది	-9.19448
ీయ	-9.19532
ఏ	-9.19555
▁పెట్ట	-9.19607
▁కానివి	-9.19727
▁ముఖ్యంగా	-9.19731
▁కృషి	-9.19837
▁కేవల	-9.19964
పాలెం	-9.19984
పతి	-9.20004
▁ఆధారంగా	-9.20101
▁తాను	-9.20103
▁తయారు	-9.2015
ంట	-9.20429
▁హా	-9.20476
▁కేంద్రంగా	-9.20476
▁నల్ల	-9.20485
శాస్త్రి	-9.20498
మూర్తి	-9.20511
▁మరింత	-9.20607
▁స్టేషను	-9.20703
▁M	-9.20873
▁రాజుల	-9.20967
▁దా	-9.2124
▁మహబూబ్	-9.2129
▁యా	-9.21487
▁మానవ	-9.21584
ూర్	-9.21586
▁రాజధానిగా	-9.21651
దేశ	-9.21714
▁మార్గం	-9.21764
▁అమ్మ	-9.21805
▁వున్న	-9.21907
23	-9.21956
▁హై	-9.22
పె	-9.22027
▁మొదట	-9.2212
k	-9.22146
ంక	-9.22171
▁పోటీ	-9.22194
▁సరిహద్దు	-9.22353
చె	-9.22367
▁60	-9.22454
▁ఉజ్బెకిస్థాన్	-9.22521
▁ఒంగోలు	-9.22521
▁నోబెల్	-9.22522
▁మహిళా	-9.22648
కుడు	-9.22715
టో	-9.22795
▁నేల	-9.22799
▁గంగ	-9.228
వరం	-9.22859
▁లోకి	-9.2288
ra	-9.22961
▁జీవిత	-9.22962
▁వరకూ	-9.23019
at	-9.23067
ున్న	-9.23067
దేవ	-9.23162
▁పండితుడు	-9.23204
ృ	-9.23219
▁ఆగస్టు	-9.23258
▁శుద్ధి	-9.23314
మర్	-9.23332
▁జయ	-9.23395
▁పూర్వం	-9.23411
▁తీర	-9.23416
▁ప్రజలకు	-9.23592
▁నృత్య	-9.23669
▁గీత	-9.23742
▁భాషలో	-9.23744
▁నూతన	-9.23835
▁పాకిస్తాన్	-9.23916
▁భౌతిక	-9.23922
ారెడ్డి	-9.23982
▁పూర్తిగా	-9.24001
మాన	-9.24063
ాడని	-9.24131
▁దానిని	-9.24206
వాడ	-9.24404
పిన్	-9.24455
▁ష	-9.24466
▁రిపబ్లిక్	-9.24534
▁పాటలు	-9.2491
▁స్థాయి	-9.25108
▁పెంచ	-9.25184
▁పురస్కార	-9.25307
▁ఇండియన్	-9.25339
S	-9.2539
వరకు	-9.25435
▁–	-9.25474
11	-9.25499
టే	-9.25596
ద్ర	-9.25712
న్నీ	-9.25718
▁క్రింద	-9.25801
▁చేస్తారు	-9.25848
▁మీదుగా	-9.25927
▁స్వాతంత్ర్యం	-9.25955
కై	-9.26056
▁2010	-9.26069
చ్	-9.26109
▁ఉద్యమ	-9.26116
▁పడ	-9.26398
▁మహ	-9.26451
▁ఉపయోగించ	-9.26455
°	-9.26502
▁సంవత్సరంలో	-9.26532
▁వంశ	-9.26646
షన్	-9.26768
▁విశేష	-9.26783
కోట	-9.26875
▁సాంకేతిక	-9.26892
ించే	-9.27018
▁ఉద్యమం	-9.27049
▁అమ్మవారి	-9.27071
▁దేశాల	-9.27122
▁పరిశోధన	-9.27146
కృష్ణ	-9.27201
▁అప్పుడు	-9.27391
▁రచనలు	-9.27432
కుల	-9.27438
▁ప్రభావం	-9.2754
జర్	-9.27587
ఁ	-9.27629
▁పొందింది	-9.27992
స్తా	-9.28034
▁వరంగల్	-9.2815
▁బొ	-9.28157
▁మొఘల్	-9.28553
డో	-9.28554
▁పొడవు	-9.28637
వర	-9.28643
ుకుని	-9.2868
ల్స్	-9.28746
▁దేవి	-9.28817
ాన్	-9.28877
42	-9.2891
ుటకు	-9.28972
▁పూజ	-9.28985
▁నిర్వహించెద	-9.29009
▁సిద్ధ	-9.29062
ించింది	-9.29066
ార	-9.29073
▁తిరుగుబాటు	-9.29247
▁మహిళల	-9.29311
▁ఆడ	-9.29621
56	-9.2994
60	-9.29954
▁రాసిన	-9.29985
డుగు	-9.30009
▁అనంతరం	-9.3004
▁=	-9.30073
▁అల	-9.30271
▁(1	-9.30277
▁ఎత్తు	-9.30317
▁దానికి	-9.30452
▁బట్టి	-9.30545
ండ్	-9.30566
▁ప్రారంభించారు	-9.30709
▁చేయబడింది	-9.30765
▁దూరం	-9.30777
▁వైపు	-9.30913
▁రాష్ట్రములో	-9.31017
▁ప్రాంత	-9.31096
▁మొ	-9.31129
97	-9.31138
మైంది	-9.31163
▁విదేశీ	-9.31179
▁ఏక	-9.31204
▁రి	-9.3122
▁గురువు	-9.31231
స్ట్	-9.31233
▁ఉమ్మడి	-9.31355
▁వెబ్	-9.31368
▁డే	-9.31394
▁ఇప్పటికీ	-9.31398
ంటి	-9.31419
ుతున్న	-9.31435
ing	-9.31592
▁లలో	-9.31734
▁ప్రధానంగా	-9.31798
▁ముఖ్యమంత్రిగా	-9.31801
ండు	-9.3188
ిని	-9.31892
▁1991	-9.31901
▁1948	-9.32087
▁భారీ	-9.32135
ల్లి	-9.322
▁ఒడ్డున	-9.32207
పీ	-9.32293
29	-9.32319
▁ఎన్నికల	-9.32472
న్స్	-9.32499
▁చంప	-9.32588
హా	-9.32629
▁అనేది	-9.32644
▁కళా	-9.32729
▁సేవ	-9.32753
▁కవులు	-9.32823
87	-9.32911
▁100	-9.32951
▁చెంద	-9.32963
▁విజ్ఞాన	-9.33038
▁ఇతను	-9.33134
▁నే	-9.33141
▁చదివిన	-9.33165
▁మై	-9.33214
బుల్	-9.33304
▁32	-9.33325
ed	-9.33575
▁దేశాలలో	-9.33847
▁కోర	-9.34046
▁తగ్గ	-9.3407
▁లిపి	-9.34136
నాథ	-9.34224
▁అకాడమీ	-9.34238
▁గణపతి	-9.34242
▁1980	-9.34259
▁వ్రాసిన	-9.34262
ఎల్	-9.34428
చూ	-9.34587
▁స్వామివారి	-9.34602
90	-9.34661
▁విశాఖపట్నం	-9.34768
P	-9.34775
▁నె	-9.3482
ంబు	-9.34824
▁సాధారణ	-9.34856
▁ఆనకట్ట	-9.34973
కల	-9.35006
▁జట్టు	-9.35012
▁మరణించాడు	-9.35027
▁మరణించారు	-9.35046
▁సాహిత్యం	-9.35074
భవ	-9.35083
▁ప్రాంతానికి	-9.35128
లోకి	-9.3519
▁తోటలు	-9.35282
కొన	-9.35595
▁వెళ్ళి	-9.35596
▁తాగునీరు	-9.35712
గే	-9.35822
▁కార్	-9.35844
▁భాషలలో	-9.35872
▁చివర	-9.35872
▁రంగ	-9.35891
గ్గ	-9.35955
80	-9.3619
▁నదులు	-9.3625
▁సర్	-9.36308
▁C	-9.36319
▁వాడుకలో	-9.36359
▁డ	-9.36404
▁శ్రీరాములు	-9.36497
▁59	-9.36598
రూ	-9.36637
ఒక	-9.36648
▁ఆహార	-9.36684
▁పచ్చిక	-9.36838
▁2005	-9.37066
▁రేడియో	-9.3721
▁మార	-9.37214
▁విషయం	-9.3723
▁కుల	-9.37368
07	-9.37397
▁రామకృష్ణ	-9.3749
▁విమానాశ్రయం	-9.37567
76	-9.37594
24	-9.37602
ెస్	-9.37632
▁రామారావు	-9.37671
▁నియోజకవర్గం	-9.378
వలసిన	-9.3781
▁నదీ	-9.37998
▁యునైట	-9.38088
▁ఉండేవి	-9.38194
▁నంది	-9.38449
▁కింద	-9.38612
బీ	-9.3865
▁వైభవం	-9.38712
▁రోజువారీ	-9.38742
రియా	-9.38768
▁పరిస్థితి	-9.38802
▁దక్షిణాన	-9.38858
మంది	-9.38864
89	-9.38939
▁తరువాతి	-9.39062
▁తిక్కన	-9.3911
▁బు	-9.39187
నకు	-9.39237
72	-9.39374
E	-9.39378
ార్	-9.39391
ాలయం	-9.39441
▁సంస్థలు	-9.39473
▁బోరుబావుల	-9.39493
▁సాగు	-9.39575
▁2015	-9.39604
తులు	-9.39748
▁గంగా	-9.3979
▁డాక్టర్	-9.39865
▁కారణం	-9.39919
▁కర	-9.39995
▁ప్రారంభ	-9.4005
▁G	-9.40099
▁తెలియ	-9.40131
91	-9.40148
త్వం	-9.40154
▁పె	-9.40269
▁1985	-9.40284
▁లేకుండా	-9.40291
▁కరీంనగర్	-9.40328
▁మనం	-9.40374
▁సింధు	-9.40413
71	-9.40469
ాయ్	-9.40507
▁వారిని	-9.40507
▁హరి	-9.40679
▁కుమార్	-9.4083
43	-9.40897
వల్ల	-9.40897
దో	-9.41044
▁1952	-9.41052
▁1969	-9.4106
78	-9.41088
▁మరణం	-9.41221
ర్ల	-9.41249
▁వెనుక	-9.41261
.19	-9.41295
పాటు	-9.41307
▁పాప	-9.41342
06	-9.41459
▁పొ	-9.41627
▁న్యాయ	-9.41641
శ్	-9.41671
రాల	-9.4174
▁అడుగుల	-9.4174
as	-9.41844
▁1960	-9.41856
▁బ్రాహ్మణ	-9.41872
▁తేదీ	-9.41878
▁ఇండో	-9.41882
▁రకాల	-9.41888
ాపురం	-9.42009
▁విష్ణు	-9.42036
లేని	-9.4207
▁భాషలు	-9.42097
ాది	-9.42143
▁చేయడానికి	-9.42229
ద్ధ	-9.42258
జన	-9.42267
భాష	-9.42384
▁విగ్రహం	-9.42414
▁రాతి	-9.42435
▁టెక్నాలజీ	-9.42624
శాస్త్ర	-9.42632
▁అయినప్పటికీ	-9.42648
▁బావుల	-9.42733
▁పండుగ	-9.42855
పే	-9.42879
▁హి	-9.42936
ేంద్ర	-9.4312
ంతా	-9.43138
ిస్తుంది	-9.43161
వో	-9.43193
▁The	-9.43263
▁పట్ట	-9.43286
▁జానపద	-9.43426
▁జన్మించాడు	-9.43441
▁ప్రదేశం	-9.43442
▁2017	-9.4347
▁ప్రాంతీయ	-9.43507
▁కొద్ది	-9.43511
▁మేత	-9.43629
▁మాట్లాడే	-9.43673
రూప	-9.43723
▁ఒప్పందం	-9.43725
21	-9.43761
98	-9.43775
36	-9.43784
▁పట్టణంలో	-9.43834
▁మాట	-9.43971
▁సుందర	-9.43998
38	-9.44061
▁రాత్రి	-9.44067
▁చిత్రాల	-9.44261
▁రచయిత్రి	-9.44261
▁బాల్	-9.44268
▁రె	-9.44296
▁పాలు	-9.44533
w	-9.44569
▁నిర్మించ	-9.44623
▁రికార్డు	-9.44631
75	-9.44672
▁1,	-9.44683
▁దేశానికి	-9.44695
35	-9.44775
▁ప్రక్రియ	-9.44785
▁ఆధ్వర్యంలో	-9.45043
▁చుట్టూ	-9.45057
▁స్థానం	-9.45197
▁బీ	-9.45292
ేషన్	-9.45329
▁లాంటి	-9.4541
స్తుంది	-9.45495
▁నాయకులు	-9.45665
▁లోక	-9.45668
▁శాస్త్ర	-9.45689
48	-9.4578
▁హో	-9.45827
▁పురపాలక	-9.45857
▁జనరల్	-9.45867
▁లభించింది	-9.45886
▁చాల	-9.45915
▁స్వాధీనం	-9.45966
▁ఉదయం	-9.4613
▁వెళ్ళ	-9.46229
▁వేరు	-9.46229
దేవి	-9.46379
▁సాహితీ	-9.46426
▁విస్తీర్ణం	-9.46462
▁క్ర	-9.4657
ులైన	-9.46634
▁పారిశ్రామిక	-9.46674
▁ఆధ్యాత్మిక	-9.46696
▁2007	-9.4674
▁వేమన	-9.46756
▁రాయలసీమ	-9.46775
0%	-9.46797
▁పర్షియన్	-9.46817
▁గుర్తించ	-9.46833
▁మీటర్ల	-9.46968
సర	-9.4717
▁అక్క	-9.47327
పడ	-9.47384
39	-9.47439
▁1971	-9.47535
▁మరాఠీ	-9.47621
తాయి	-9.4767
▁పదవిని	-9.47805
▁నదుల	-9.47867
26	-9.47889
▁పదం	-9.47955
▁గౌరవ	-9.48089
68	-9.48104
చో	-9.48333
▁స్థాపించబడింది	-9.48367
శాఖ	-9.4842
▁చెప్పిన	-9.48593
27	-9.48741
▁విప్లవ	-9.48743
▁ఆల్	-9.48828
st	-9.48873
▁పద్య	-9.49025
▁P	-9.49125
▁మండలంలో	-9.49126
▁నేపథ్య	-9.49135
▁స్త్రీ	-9.49181
▁నిర్ణయించ	-9.49188
▁బ్రిటిషు	-9.49197
▁గ్రామీణ	-9.49198
▁1972	-9.4922
పునర్వ్యవస్థీకరణ	-9.49287
▁పొట్టి	-9.49335
R	-9.49408
▁సహా	-9.4943
▁పవిత్ర	-9.49479
00	-9.4948
28	-9.49566
లైన	-9.49616
▁1965	-9.49665
▁రాజ్యాంగ	-9.49772
న్నా	-9.49811
▁ఉంచ	-9.49846
▁జరిగే	-9.49917
కాలం	-9.49961
▁చలన	-9.50045
▁శాస్త్రీయ	-9.50061
▁అతనికి	-9.50063
▁చేస్తూ	-9.50068
ితే	-9.50081
ద్య	-9.5015
ాత్మక	-9.50192
▁వాతావరణం	-9.50199
▁కార్యక్రమాలు	-9.50263
▁కూడిన	-9.50263
▁పూ	-9.50288
▁నవల	-9.50344
▁రు	-9.50354
▁కొనసాగ	-9.50395
▁జీ	-9.50446
▁స్త్రీలు	-9.50448
▁భారతదేశానికి	-9.50473
▁రాష్ట్రానికి	-9.50545
కంటే	-9.50586
45	-9.50613
▁ఇంత	-9.50647
▁జో	-9.50674
మీద	-9.50727
▁కవుల	-9.50744
▁గ్రంథ	-9.50766
65	-9.50826
ీకరణ	-9.50874
్యా	-9.50969
▁అయ్యాడు	-9.51038
▁2019	-9.5105
▁ఉండగా	-9.51058
పోయింది	-9.51059
▁మొదలు	-9.51065
▁పాలించారు	-9.51068
▁ప్రేమ	-9.5115
▁పుస్తకం	-9.51163
▁సాధించ	-9.51251
తం	-9.51254
01	-9.51357
▁భక్తుల	-9.51734
▁అమలు	-9.51746
▁ప్రచురణ	-9.51774
సే	-9.51804
▁1930	-9.51818
▁అవకాశం	-9.52005
▁2016	-9.52009
▁పట్టు	-9.52212
▁పరిశ్రమలు	-9.52284
▁సాధించి	-9.52373
కాలంలో	-9.52386
59	-9.52389
▁ఇంటి	-9.52404
▁జ్ఞాన	-9.52507
▁మతం	-9.52531
▁వర	-9.52591
▁నంద	-9.52598
ిస్తారు	-9.52601
▁బ్రిటీషు	-9.52653
-19	-9.52678
▁పే	-9.52684
ములను	-9.52733
ాక	-9.52744
తెలుగు	-9.5277
▁2004	-9.52845
కాయ	-9.5292
▁గురు	-9.5303
▁అలీ	-9.53114
ic	-9.53197
▁టీ	-9.53242
▁సమస్య	-9.53408
▁పది	-9.53466
82	-9.53528
▁విధానం	-9.53532
▁ప్రాముఖ్యత	-9.53536
▁మైసూరు	-9.53536
▁భూగర్భ	-9.53543
▁1964	-9.53555
▁రెండో	-9.53565
▁కంప్యూటర్	-9.53607
ుకున్న	-9.53623
▁అందించ	-9.53627
▁గొ	-9.53637
▁కథా	-9.53726
త్తు	-9.53732
▁దేవస్థానం	-9.53887
స్తారు	-9.54131
▁గోవా	-9.54154
▁D	-9.54213
▁గాని	-9.54228
▁నన్నయ	-9.54412
▁కమ్యూనిస్టు	-9.54427
▁చట్టం	-9.54441
▁అతడు	-9.54493
▁క్రమంగా	-9.54523
▁బ్ర	-9.54674
స్తే	-9.5469
▁వివరించ	-9.54784
▁రూపంలో	-9.54845
▁రక్షణ	-9.54846
త్వ	-9.54868
▁1:	-9.55141
వె	-9.55213
యస్	-9.55222
▁చేర్చ	-9.55266
▁కమిటీ	-9.55326
▁సాగవుతున్న	-9.55326
on	-9.55374
▁నిర్వహించిన	-9.55468
▁మొదటిసారిగా	-9.55497
▁కాకినాడ	-9.55519
▁చేస్తున్న	-9.55806
▁పూజలు	-9.55857
ాయని	-9.55973
▁తూర్పున	-9.55977
47	-9.55978
▁ఎకరాల	-9.56104
31	-9.56122
జన్	-9.56133
▁ఊరి	-9.56138
▁సాంఘిక	-9.56233
▁1975	-9.56256
▁విలీనం	-9.56277
▁ప్రారంభమైంది	-9.56287
▁2002	-9.56324
▁భీమ	-9.56353
▁సుల్తాన్	-9.56383
▁పొందాడు	-9.56455
▁ప్రథమ	-9.56549
▁విద్యార్థులు	-9.56606
చేత	-9.56708
D	-9.56767
95	-9.5677
▁పిల్లల	-9.56786
▁భావించ	-9.56803
79	-9.56811
తె	-9.56814
▁గి	-9.56842
▁క్షేత్రం	-9.56915
▁విశేషం	-9.56926
దె	-9.56938
▁నాయకత్వంలో	-9.56993
32	-9.57006
▁1955	-9.57169
88	-9.57273
▁మార్గంలో	-9.57361
▁సమర	-9.57488
▁కామ	-9.57525
▁కళాశాలలు	-9.5753
▁భా	-9.57687
▁నాయకుల	-9.57871
ుతారు	-9.57926
63	-9.57949
▁నీటిని	-9.57973
పల్లె	-9.58071
▁ఆరుగురు	-9.58083
▁1946	-9.58091
వారికి	-9.58113
క్కు	-9.58114
▁పేర్లు	-9.58134
ూరి	-9.58144
గం	-9.58254
es	-9.58256
▁సమేత	-9.5826
ినేని	-9.58421
▁జైన	-9.58626
ఠ	-9.58632
▁2000	-9.58779
ri	-9.58801
▁ఎల్	-9.58885
re	-9.58894
▁దశ	-9.58918
ర్చ	-9.58949
://	-9.59008
▁వాటిలో	-9.59008
▁సగటు	-9.59011
▁కీ	-9.59169
▁పెద	-9.59175
M	-9.5921
B	-9.59213
44	-9.59258
ంగి	-9.59324
▁వారిలో	-9.59335
▁చదువు	-9.59378
ుకున్నారు	-9.59389
తూ	-9.59399
▁వైశాల్యం	-9.59608
▁ఓడించి	-9.59641
పరంగా	-9.59695
ప్పటికీ	-9.59731
▁జాబితా	-9.5989
▁డె	-9.599
▁భీమవరం	-9.59927
▁ప్రకృతి	-9.59959
బడుతుంది	-9.60002
▁1920	-9.60007
▁బంగారు	-9.60019
పూడి	-9.60029
తల	-9.60038
▁ఉత్తరాన	-9.60046
సర్	-9.60052
▁సభ్యుల	-9.60084
▁నెల	-9.60134
05	-9.60136
▁జపాన్	-9.6017
▁ఉత్సవాలు	-9.60178
37	-9.60205
శా	-9.60227
లేక	-9.60375
▁ప్రసాద్	-9.60389
▁రోజుల	-9.60464
▁అడవి	-9.60481
చా	-9.60513
85	-9.60529
▁తెర	-9.60561
▁డిగ్రీలు	-9.60718
▁ఆనంద	-9.60754
09	-9.60782
▁తాడేపల్లిగూడెం	-9.60897
ండ్ల	-9.60965
భి	-9.60966
▁సుబ్బారావు	-9.61036
▁గణిత	-9.61288
▁కాకతీయ	-9.61365
టన్	-9.6143
▁వేర్	-9.61533
▁K	-9.61552
▁పాలించిన	-9.61591
51	-9.61657
34	-9.61668
▁33	-9.61782
▁సై	-9.6185
▁మళ్ళీ	-9.61856
▁పనిచేశాడు	-9.61863
ుచున్నది	-9.61881
▁2003	-9.61907
▁ముఖ	-9.61948
96	-9.62007
▁ఇందిరా	-9.62056
▁సాధించింది	-9.62082
▁రూపాయల	-9.62125
▁2023	-9.62134
▁కళ్యాణ	-9.62165
▁అత్యధికంగా	-9.62173
▁పురుషులు	-9.62226
▁ధర	-9.62259
▁దేవత	-9.62288
పుర	-9.62294
▁పాడ	-9.62438
49	-9.62465
▁సోమ	-9.6252
55	-9.62554
▁మార్చ	-9.62564
▁తాత	-9.6263
పర్	-9.62673
▁ప్రతీ	-9.62694
▁1974	-9.62702
▁అక్కడి	-9.62802
▁వార్షిక	-9.62818
67	-9.62822
▁గవర్నర్	-9.62824
▁ప్రణాళిక	-9.62824
▁బెంగాల్	-9.62824
▁1942	-9.62854
▁మాట్లాడ	-9.62861
▁చర్చి	-9.62864
▁సముద్రం	-9.63132
▁పీ	-9.63147
▁కేంద్రమైన	-9.63162
చంద్ర	-9.63172
ణా	-9.63198
వని	-9.63198
▁పరిధిలో	-9.63212
77	-9.63322
▁స్వ	-9.63337
▁ఎక్క	-9.63355
▁నవలా	-9.63495
58	-9.636
ేవాడు	-9.63627
▁తర	-9.63703
▁నేను	-9.63778
▁సమాజ	-9.63781
▁పురాణ	-9.63902
▁ప్రదర్శన	-9.63916
61	-9.63956
▁ప్రాంతాల్లో	-9.6397
స్ట	-9.64076
▁ఆత్మ	-9.64081
▁1950	-9.64095
ఫా	-9.64132
▁శతాబ్ది	-9.64197
▁ఎలా	-9.64292
▁మందిరం	-9.64297
చ్చి	-9.64302
▁అర్ధ	-9.64342
02	-9.64411
▁ప్రారంభమయ్యాయ	-9.6447
ాడ	-9.6458
▁పైన	-9.64594
ానంద	-9.64656
▁ఎంత	-9.64763
▁జరిగాయి	-9.64789
▁జర్మనీ	-9.6479
▁1999	-9.64811
▁1961	-9.6483
▁చేస్తుంది	-9.64843
57	-9.64844
▁తెలుగుదేశం	-9.64908
ికి	-9.64942
▁గాయని	-9.64995
చేయ	-9.65078
▁ప్రత్యేకత	-9.65079
▁రాజమండ్రి	-9.65131
▁కార్యక్రమం	-9.65168
▁అం	-9.6527
▁ప్రయాణ	-9.65343
83	-9.6541
వచ్చును	-9.65492
33	-9.65502
▁యోగ	-9.65527
లాల్	-9.6578
▁స్కూల్	-9.65788
▁1973	-9.65798
▁1982	-9.65812
▁కథలు	-9.65869
▁ఉండటం	-9.65931
ార్థ	-9.65987
▁నేత	-9.6599
మన్	-9.66007
▁నాగరికత	-9.66018
వార	-9.66039
▁రసాయన	-9.66102
▁శాసనం	-9.66122
▁కొడుకు	-9.66144
▁పండితులు	-9.66153
గొ	-9.66173
చేసి	-9.66181
▁తాలూకా	-9.6619
క్రీ	-9.66272
▁ఆలయాన్ని	-9.66284
పాద	-9.663
క్ర	-9.6636
▁1945	-9.66403
▁పోలి	-9.66418
64	-9.66434
స్స	-9.66524
▁సూర్య	-9.66548
వాస	-9.6657
లూరు	-9.66579
ుండ	-9.66715
▁ఆదాయం	-9.66739
▁ఇరానియన్	-9.66794
▁పంజాబు	-9.66794
▁నేపాల్	-9.66795
▁న్యాయమూర్తి	-9.66807
▁శా	-9.66831
▁లి	-9.66839
▁జిల్లాలలో	-9.66843
▁భారతరత్న	-9.6687
us	-9.66885
▁ఎర్ర	-9.66914
▁చెయ్య	-9.6698
▁కలసి	-9.67055
▁చెన్నై	-9.67055
te	-9.67083
ma	-9.6717
పుడు	-9.67222
ంభ	-9.67326
99	-9.67333
ినట్లు	-9.67377
జ్ఞ	-9.67387
▁ఊ	-9.67403
▁పెళ్ళి	-9.67405
▁ప్రఖ్యాత	-9.6746
ాలుగా	-9.67463
్యం	-9.67471
▁రాయల	-9.67568
యిన	-9.67583
ంచు	-9.67628
నియా	-9.6768
▁చిత్తూరు	-9.67821
▁కనిపిస్తుంది	-9.67825
▁1954	-9.67833
▁2018	-9.6787
▁అందుకు	-9.679
▁ఎనిమిది	-9.67916
▁బల	-9.67939
▁శ్రీనివాస	-9.68076
యోగ	-9.68082
▁ప్రబంధ	-9.68086
ుడై	-9.68089
53	-9.68089
▁అయి	-9.68153
దన	-9.68153
▁ఇవ్వ	-9.6821
46	-9.68226
▁చాళుక్య	-9.68252
08	-9.68324
93	-9.68474
ధ్	-9.68588
నప్పుడు	-9.68627
▁మర	-9.68642
▁వెంకటేశ్వర	-9.68653
థి	-9.68749
▁తుంగభద్ర	-9.68841
▁కళాకారుడు	-9.68848
▁ప్రకటించింది	-9.68889
▁ప్రారంభించాడు	-9.68911
▁ఇం	-9.68918
▁ఫలితంగా	-9.68935
am	-9.68955
▁సాగర్	-9.69051
ృత	-9.69068
▁జాన్	-9.69099
ండే	-9.69161
41	-9.69261
ముతో	-9.69336
54	-9.69356
▁త్రి	-9.69469
▁ఇందు	-9.69493
74	-9.69517
న్నారు	-9.69574
▁అణు	-9.6962
la	-9.6963
▁రాజ్	-9.69642
▁36	-9.69658
▁సంస్థాన	-9.69706
ఢ	-9.69869
▁ప్రభ	-9.69889
▁విజయనగరం	-9.69897
▁తయారీ	-9.69942
▁1983	-9.69969
మొ	-9.70064
▁మహర్షి	-9.7012
▁హైదరాబాదులో	-9.70153
ియ	-9.70247
▁ధ	-9.70272
▁మద్దతు	-9.7051
▁గత	-9.70519
▁కుమార్తె	-9.70531
▁చూసి	-9.70548
▁భూభాగం	-9.70568
డె	-9.70742
▁ఇప్పటి	-9.7085
▁2014,	-9.70907
▁సంపాదకుడు	-9.70944
ళ్లు	-9.70953
62	-9.70955
▁నామ	-9.71141
▁భాషల	-9.71152
గల్	-9.71173
▁వుంది	-9.7132
▁ఆలయాలు	-9.71382
నారాయణ	-9.71417
▁ఉన్నాడు	-9.71437
▁ఘ	-9.71528
▁మనకు	-9.71598
ాంతర	-9.71611
▁బాధ	-9.71715
▁దేశము	-9.71725
ుకునే	-9.71845
వ్య	-9.71949
▁సంఖ్యలో	-9.71982
▁సహజ	-9.71986
▁బ్రిటీష్	-9.7199
▁జరుపుకుంటారు	-9.71994
▁నివేదిక	-9.71996
▁[	-9.71999
▁అనంతపురం	-9.72004
▁I	-9.72018
▁విగ్రహ	-9.72134
▁కొండల	-9.72136
నట్లు	-9.72295
భారత	-9.72331
ఫి	-9.72358
▁గృహ	-9.72403
▁ఆలయానికి	-9.72424
.17	-9.72482
శాల	-9.72564
ధ్య	-9.72726
▁స్వయంగా	-9.72737
▁అయినా	-9.72771
▁పట్ల	-9.72862
▁భారతదేశప	-9.7288
200	-9.72966
ునిగా	-9.73062
▁చిత్రకారుడు	-9.73084
సారి	-9.73095
▁నిర్వహణ	-9.73112
▁భక్త	-9.73125
▁మరి	-9.73162
▁సమితి	-9.73186
మన	-9.73192
▁అనీ	-9.7321
సన్	-9.73245
▁విద్యుత్తు	-9.73271
▁రాజవంశం	-9.73282
నున్న	-9.73309
టిక్	-9.73366
ఛ	-9.73368
నాథ్	-9.73378
▁||	-9.73535
▁1967	-9.73537
ద్వారా	-9.73549
▁కులీ	-9.73576
నగర్	-9.73579
▁ఆట	-9.73597
▁విశ్వనాథ	-9.73606
ాంధ్ర	-9.73621
▁వందల	-9.73661
లపై	-9.73739
▁దు	-9.73874
▁నో	-9.73876
లింగ	-9.73936
ర్స్	-9.73971
లక్ష్మి	-9.74008
▁200	-9.74024
▁అంగ	-9.74059
▁కళ	-9.7411
▁స్వంత	-9.74123
▁ఎగుమతి	-9.74147
▁రద్దు	-9.74165
▁నాగార్జున	-9.74199
▁వచ్చాయి	-9.742
పెట్ట	-9.74219
▁శుభ	-9.74272
▁ముంబై	-9.74307
▁ఫా	-9.74353
▁భద్రాచలం	-9.74388
I	-9.74393
03	-9.74422
▁బే	-9.74439
▁గారి	-9.7452
చిన	-9.74567
దారు	-9.74572
▁శాస్త్రం	-9.74607
మాన్	-9.74627
రాష్ట్ర	-9.74662
లై	-9.74769
▁సంస్థల	-9.74782
హీ	-9.74815
చీ	-9.74823
నాట	-9.74906
దం	-9.75019
▁మిలియన్ల	-9.75026
▁ఇంద్ర	-9.75056
స్య	-9.75089
▁లీ	-9.75091
▁ప్రత్యేకంగా	-9.75184
కాలు	-9.75193
ుకున్నాడు	-9.75226
▁నల్గొండ	-9.75243
▁బ్లాగు	-9.75249
▁చేసుకుని	-9.75251
భా	-9.75258
▁1963	-9.75268
▁యే	-9.75268
▁1994	-9.75278
▁విష్ణువు	-9.75326
ించడం	-9.75345
డమే	-9.75355
▁ఉంటారు	-9.75358
గ్రామ	-9.75426
▁ఊరు	-9.75474
▁దండ	-9.75487
▁ఇంగ్లీషు	-9.75516
▁లోనే	-9.75523
ణీ	-9.75537
▁వృక్ష	-9.75592
తన	-9.75619
గారి	-9.75678
en	-9.75728
దురు	-9.75879
కోసం	-9.75914
▁N	-9.75938
1%	-9.76189
▁ప్రవేశపెట్ట	-9.76206
త్స	-9.76247
▁ఒలింపిక్	-9.76351
▁పిల్లలు	-9.7636
▁వంట	-9.76371
▁1998	-9.7638
–	-9.76398
▁రూప	-9.76409
▁సార్లు	-9.76482
స్వామివారి	-9.76564
▁F	-9.76606
ించు	-9.76713
క్స్	-9.76798
▁ఉద్యోగ	-9.76813
▁చెట్టు	-9.7686
or	-9.76904
▁ఖండ	-9.76923
▁దూర	-9.76924
▁పేర	-9.76924
L	-9.7695
▁దగ్గరలో	-9.76962
▁భక్తులకు	-9.77003
▁కాయ	-9.77036
▁రష్యాలో	-9.771
▁సంపద	-9.77169
▁పోలీసు	-9.77396
▁వృద్ధి	-9.77471
▁భావిస్తారు	-9.77484
66	-9.77485
▁కాబట్టి	-9.77489
▁1997	-9.77505
▁దీన్ని	-9.77514
ంటూ	-9.77557
▁లేవు	-9.77563
▁స్థాపించాడు	-9.77585
▁80	-9.77586
ుచు	-9.77589
▁క్రింది	-9.77602
ార్ధ	-9.77644
▁అనంత	-9.77716
్ర	-9.7774
ంద్ర	-9.77759
▁ప్రాంతాలను	-9.77759
▁తీవ్ర	-9.77789
▁చేస	-9.77799
▁పట్టణానికి	-9.77924
ాంగ	-9.77947
▁L	-9.77979
▁లె	-9.77991
▁బిరుదు	-9.78002
▁వార	-9.78008
▁నేటి	-9.78028
వాద	-9.78087
com	-9.78189
▁పత్రికా	-9.78201
▁57	-9.78249
▁India	-9.78286
▁చైనాలో	-9.78288
▁రాజ్యాలు	-9.7831
వాగు	-9.78404
▁రూపొందించ	-9.78456
దల	-9.78563
▁రాజీనామా	-9.78604
▁వర్షపాతం	-9.78604
▁గుజరాత్	-9.78605
రై	-9.78621
▁మొదలగు	-9.78625
▁ఉండాలి	-9.7866
వలసి	-9.78693
▁జీవన	-9.78794
జాల	-9.78991
▁చక్ర	-9.79118
▁ఛ	-9.79133
▁వ్యాసం	-9.79225
త్రి	-9.79252
్ని	-9.79307
▁న్యూ	-9.79319
వైపు	-9.79389
డము	-9.79394
▁వర్ణ	-9.79448
▁ప్రదేశ	-9.79559
▁పరీక్ష	-9.79606
▁T	-9.79639
▁క్రైస్తవ	-9.79645
▁దాదా	-9.79713
▁యుగం	-9.79721
▁పాశ్చాత్య	-9.79751
▁ప్రస్తావన	-9.79751
▁ఐదుగురు	-9.79765
▁జన్మ	-9.7977
రిక	-9.79771
▁కరువు	-9.79788
▁నిర్మించబడింది	-9.7981
▁న్యాయవాది	-9.7983
సూ	-9.79851
▁ఎన్నిక	-9.79859
▁ఎక్స్	-9.79864
▁ఉంటే	-9.79898
▁స్థాపించారు	-9.79914
▁ఎన్నికైన	-9.80018
▁అల్	-9.80019
▁మండలాల	-9.80042
▁వస్తుంది	-9.80067
▁చేపట్టాడ	-9.80073
▁ప్రదేశాలు	-9.8011
▁పనులు	-9.80121
తరం	-9.8024
▁మసీదు	-9.80245
పురి	-9.80297
▁బై	-9.80432
హెచ్	-9.80436
▁రాష్ట్రంగా	-9.80459
▁కాం	-9.80505
▁రస	-9.80534
▁రుద్ర	-9.80595
▁కనిపించ	-9.8063
▁జీవితం	-9.80655
ంతి	-9.8077
ంటారు	-9.80809
▁పదవీ	-9.80829
▁మండలంలోని	-9.80862
ానికీ	-9.80899
▁అత్యున్నత	-9.8091
▁ఎయిర్	-9.8091
▁నరేంద్ర	-9.80915
▁విమర్శకుడు	-9.80916
▁ఆర్ధిక	-9.80925
▁వంటివి	-9.80927
ొక	-9.80948
▁పరిసర	-9.80949
జో	-9.81258
▁చెప్పాడు	-9.8132
l	-9.81326
గర్	-9.81515
▁కౌ	-9.81517
86	-9.81531
▁సహాయ	-9.81599
ునికి	-9.81674
ul	-9.81704
▁పాలించ	-9.81708
ైనా	-9.81741
వలెను	-9.81836
▁సేవలు	-9.8184
th	-9.81945
నికి	-9.81987
▁సృష్టించ	-9.82003
నాటి	-9.82021
▁ఆచార్య	-9.82022
▁అవసరం	-9.82083
▁సాహితీవేత్త	-9.82087
▁జనసంఖ్య	-9.82089
▁1931	-9.8211
.5	-9.82124
▁మన్	-9.82126
ాభివృద్ధి	-9.82128
▁1940	-9.8213
▁నాయక	-9.82273
▁ఈశాన్య	-9.82302
▁జైలు	-9.82325
▁జూ	-9.8241
ెట్	-9.82412
ాచార్యులు	-9.82412
దుర్గ	-9.82565
▁వివాహం	-9.82636
▁45	-9.82726
▁కనక	-9.82739
హార్	-9.82762
మంత	-9.82791
▁బహు	-9.82801
న్నది	-9.82807
▁ప్రధాని	-9.82813
శక్తి	-9.82816
ోప	-9.82818
వాది	-9.82834
▁ఇచ్చిన	-9.82881
81	-9.83006
రాం	-9.83011
▁పాద	-9.83026
యందు	-9.8309
▁సంగీతం	-9.83128
▁గణ	-9.83151
ప్రసాద్	-9.83166
▁అమరావతి	-9.83272
▁పాఠశాలలో	-9.83284
▁అందుకే	-9.83297
▁మలయాళ	-9.833
ెల్ల	-9.83301
ేష్	-9.83319
▁దక్కన్	-9.83321
▁శబ్ద	-9.83379
▁దర్శకులు	-9.8338
▁నిలిచింది	-9.83415
▁దీనిలో	-9.83419
▁స్థాపకుడు	-9.83447
▁దూరంలోనూ	-9.8345
▁నిఘంటువు	-9.83542
▁అర	-9.83559
▁అధికారం	-9.83584
ణం	-9.83678
▁అంతా	-9.83745
▁శిక్ష	-9.8377
▁2006	-9.83814
నేని	-9.83866
▁70	-9.83904
▁పాలనా	-9.83914
▁దేవతల	-9.83936
▁అధికారి	-9.83939
▁ఫర్	-9.83963
▁సాహిత్యంలో	-9.83991
▁కల్పించ	-9.84065
▁శ్రీశ్రీ	-9.84133
▁మరాఠా	-9.8422
▁ప్రవహించి	-9.84241
▁హాస్య	-9.84256
▁పరమ	-9.84285
▁స్థాపించ	-9.84287
జే	-9.84288
▁రంగంలో	-9.84291
▁లను	-9.84347
టె	-9.84404
▁కవిత్వం	-9.84449
▁అత్తిలి	-9.84471
▁మహాత్మా	-9.84471
▁1932	-9.84499
▁ఇతడు	-9.84505
▁కోరిక	-9.84541
▁అనుమతి	-9.84567
▁వచ్చాడు	-9.84572
▁బెంగుళూరు	-9.84588
O	-9.84623
69	-9.84624
▁E	-9.84637
▁సరస్వతీ	-9.84669
▁చేరిన	-9.84754
▁మోడల్	-9.84789
▁శ్రీకాకుళం	-9.84796
ెం	-9.84877
▁హు	-9.84881
ిస్తున్న	-9.84929
ీవ్	-9.84979
▁జు	-9.85065
▁మారి	-9.85082
▁అమర	-9.85109
ాంశ	-9.85142
▁స్థితి	-9.85198
▁పరిపాలనా	-9.85205
బె	-9.8524
▁కోర్టు	-9.8528
వార్	-9.85289
▁ఇటీవల	-9.85334
▁ఏట	-9.85343
నుంచి	-9.85385
il	-9.85416
ంధ	-9.85426
▁42	-9.85476
▁క్యా	-9.85484
▁జనాభాలో	-9.85562
యైన	-9.85563
▁మార్పు	-9.85608
▁మనిషి	-9.85689
▁ఒక్కొక్క	-9.85698
గడ	-9.8574
▁మధుర	-9.85773
▁ఉండేవారు	-9.85808
తను	-9.85882
మాల	-9.85902
రాజ్	-9.8596
▁రంగారెడ్డి	-9.85965
▁యోధుడు	-9.85969
▁ట్	-9.86016
▁పెట్టారు	-9.86027
▁కాశ్మీరు	-9.86032
▁a	-9.86039
▁అవతరించి	-9.86041
▁ధన	-9.86119
▁సాధించిన	-9.86125
్ల	-9.8613
గత	-9.86163
ద్దు	-9.86218
▁కుమార	-9.86258
▁ఈనాడు	-9.86269
నము	-9.86288
ముఖ	-9.86313
రాలు	-9.86361
▁వెలి	-9.86435
▁అన్నాడు	-9.86437
▁వేసవి	-9.86453
మయిన	-9.86543
గ్రా	-9.8656
సార	-9.86563
di	-9.86577
▁క్రమ	-9.86579
ాబాద్	-9.8659
▁కాపాడ	-9.86643
▁రోజుల్లో	-9.86646
▁పండ	-9.86655
▁ఆక్రమించ	-9.86675
▁ప్రాణ	-9.86699
విద్య	-9.86739
▁సింగ	-9.86769
▁కాశీ	-9.86916
▁ఫుట్	-9.86919
▁అస్సాం	-9.86922
▁ప్లాంట్	-9.86922
▁by	-9.86929
▁విభజన	-9.871
ురాలు	-9.87116
▁వ్య	-9.87182
▁s	-9.87187
▁వినాయకుని	-9.87238
స్థాన	-9.87276
▁తెరాస	-9.87309
▁పద్మ	-9.87372
▁ఆధారాలు	-9.87501
▁అర్థ	-9.87525
▁మార్	-9.87546
▁ఒకటిగా	-9.87569
▁చల్ల	-9.87587
▁టా	-9.87632
త్తి	-9.87681
యన్	-9.87712
▁పుట్ట	-9.87726
F	-9.87769
84	-9.87801
దొ	-9.87877
▁కూర	-9.87965
▁చట్ట	-9.88019
▁మరణ	-9.88025
▁తదితర	-9.88083
హిత	-9.88105
▁నియంత్రణ	-9.88164
▁ప్రయత్నం	-9.88164
▁ఉప్పు	-9.88183
▁దారి	-9.88205
▁చెక్క	-9.88207
ళి	-9.88215
▁ప్రాధాన్యత	-9.88222
▁జై	-9.8828
▁150	-9.88331
▁గణపవరం	-9.88373
▁c	-9.88386
▁పురాణం	-9.88392
▁వ్యాధి	-9.88433
▁వైష్ణవ	-9.88449
ంట్	-9.88493
ంస్	-9.88526
పుత్ర	-9.88581
▁వెళ్ళే	-9.88647
్యాల	-9.88673
▁షి	-9.88758
యర్	-9.88776
▁ప్రాంతము	-9.88794
▁కేంద్రాల్లో	-9.88801
▁శ్రీశైలం	-9.88813
వేల	-9.8885
▁యూ	-9.8896
ుడిని	-9.88963
▁పన్ను	-9.88971
ందర్	-9.88971
▁దృష్టి	-9.89041
▁అర్ధం	-9.89133
▁నేర	-9.89194
▁ప్రధానమంత్రిగా	-9.89251
▁టై	-9.89375
▁శర్మ	-9.89399
▁తిరు	-9.89401
▁గజ	-9.89422
▁ఫ్రెంచి	-9.89426
▁మామూలు	-9.89426
▁ఆకాశవాణి	-9.89427
▁కాకతీయుల	-9.89429
▁అండమాన్	-9.8943
▁శైలి	-9.89458
▁తంజావూరు	-9.89524
▁ఉదాహరణ	-9.8958
▁పరిశోధకులు	-9.896
ులతో	-9.8961
▁అర్	-9.89617
▁సరస్వతి	-9.89633
▁యతి	-9.8971
▁వాడు	-9.89812
▁దేవాలయాల	-9.89819
▁ప్రకటించ	-9.8982
▁పనిచేసిన	-9.89823
▁విషయ	-9.89891
ద్వ	-9.89905
▁రాముడు	-9.89914
92	-9.89924
▁పదాలు	-9.90018
le	-9.90028
▁అప	-9.90037
▁తత్వ	-9.9012
▁1914	-9.90254
ీకరించ	-9.90293
ెంట్	-9.9045
▁నదికి	-9.90471
▁H	-9.90474
కల్ప	-9.90584
▁2015,	-9.90596
ుతాయి	-9.90633
▁జవహర్	-9.90704
▁బంగ్లాదేశ్	-9.90704
▁అగ్ని	-9.90711
▁బాపట్ల	-9.90716
▁పాత్రికేయుడు	-9.90722
▁జనతా	-9.90739
▁1929	-9.90742
▁చెబుతారు	-9.90802
▁చేసుకున్నాడు	-9.90808
▁పాటల	-9.90813
▁ఇచ్చి	-9.9086
▁సింహ	-9.90955
▁గణాంకాలను	-9.90989
లర్	-9.9107
ికా	-9.91087
▁రాజ్యాన్ని	-9.91102
▁దండయాత్ర	-9.91112
▁ప్రజలలో	-9.91367
▁కార్య	-9.91389
▁దేశంలోని	-9.91475
▁వుండ	-9.91484
▁గాను	-9.91511
▁1936	-9.91573
▁పేట	-9.9183
▁0	-9.91884
▁ఉన్నట్లు	-9.91938
పేరు	-9.91938
చర్ల	-9.91956
▁తనకు	-9.91974
▁చెల్ల	-9.91982
▁నిష్పత్తి	-9.91998
▁సిక్కిం	-9.91999
▁తెలుస్తుంది	-9.92001
▁సెంటర్	-9.9201
▁గారు	-9.92012
▁1915	-9.92048
▁రచించాడు	-9.92068
▁కర్మ	-9.92073
▁సే	-9.9208
▁కలకత్తా	-9.92103
శాస్త్రం	-9.92113
▁మూ	-9.92113
▁బొంబాయి	-9.92146
▁ఇస్లామిక్	-9.92147
▁విడుదలైన	-9.92154
▁మహారాజు	-9.92193
ur	-9.92204
▁బిల్లు	-9.92248
▁కవితా	-9.92276
▁ఉన్నది	-9.92384
▁శతకము	-9.92392
▁ద్వీప	-9.92401
▁చోళ	-9.92433
▁ప్రచారం	-9.92476
▁44	-9.92632
ుచున్నారు	-9.92687
▁మంత్రిగా	-9.92757
కారుడు	-9.92831
▁ఆయనకు	-9.92836
▁అక్షర	-9.92875
▁ఫి	-9.92891
▁హిట్	-9.92927
▁గుర్తు	-9.92942
▁75	-9.92998
▁గ్రంథము	-9.93072
▁తక్కువగా	-9.93093
▁అన్నీ	-9.93146
▁సహాయం	-9.93277
▁మురుగు	-9.93294
▁ప్రియ	-9.93295
▁ఎత్తైన	-9.9331
▁సూపర్	-9.93316
▁సాయుధ	-9.93321
▁సీతారామరాజు	-9.93335
▁వహించాడు	-9.9339
వాన్	-9.93423
▁ఆశ	-9.93448
▁కొల	-9.93498
▁అందమైన	-9.93545
▁పోర్ట్	-9.9355
▁విద్యార్థుల	-9.93594
▁వ్యాపించి	-9.93612
చర	-9.93698
ాత్మ	-9.93715
ఫీ	-9.93728
▁ఆయా	-9.93758
▁చింత	-9.93766
▁మధ్యలో	-9.93783
▁బయట	-9.93797
▁పడి	-9.93818
▁నగరానికి	-9.93874
▁పోరాట	-9.93901
▁భాషను	-9.9391
నాయక	-9.93924
▁దీక్ష	-9.93972
▁to	-9.93986
▁భాగంలో	-9.93993
డంలో	-9.94021
▁1000	-9.94129
▁శివుని	-9.94132
is	-9.94174
క్త	-9.94218
▁1962	-9.94267
నీయ	-9.94292
సాహెబ్	-9.94313
ులుగా	-9.94322
ఱ	-9.94339
▁పోతన	-9.94426
గాని	-9.94445
▁ఉచిత	-9.94519
▁పోరాటం	-9.94526
▁భద్ర	-9.94548
ుచున్న	-9.94604
▁ఫాల్కే	-9.94639
▁సమర్పించ	-9.94639
▁మెదక్	-9.94639
▁నిర్వహిస్తుంది	-9.94644
▁ఆర్థికవేత్త	-9.94655
▁సైటు	-9.94675
▁1922	-9.94685
▁1938	-9.94727
డియా	-9.94766
▁రంగు	-9.94793
▁(18	-9.94795
నాలు	-9.94813
చార	-9.94869
కారం	-9.94881
ప్రాంత	-9.94884
▁లోయ	-9.94924
▁చాళుక్యుల	-9.94955
▁హిందువులు	-9.95021
రాన్	-9.95023
నామ	-9.95074
▁48	-9.9508
▁విమాన	-9.95278
▁బాధ్యతలు	-9.95374
▁తిన	-9.95413
రల్	-9.95437
ెర్	-9.95484
▁ఉన్నా	-9.95507
▁పార్టీకి	-9.9556
▁ఉష్ణోగ్రత	-9.95577
ర్లు	-9.95608
గురు	-9.95812
య్యాడు	-9.95826
▁మెడికల్	-9.95831
▁కొత్తగూడెం	-9.95856
ad	-9.95866
▁శేష	-9.9593
▁52	-9.95974
▁చదరపు	-9.95986
▁తపస్సు	-9.95986
▁ధార్వాడ	-9.95986
▁సర్పంచిగా	-9.95986
▁పంతులు	-9.95988
▁ప్రతిష్ఠ	-9.95996
▁కార్పొరేషన్	-9.95996
గంటి	-9.96022
▁కృష్ణానది	-9.96067
▁పోర్చుగీసు	-9.96071
▁1937	-9.96135
▁ముందుగా	-9.96176
▁సభలో	-9.96191
పూజ	-9.9622
▁చేరి	-9.96254
▁34	-9.9629
ఖ్	-9.96361
▁గుణ	-9.964
▁O	-9.96435
రస	-9.96486
▁అధ్యయనం	-9.96568
▁చేతుల	-9.96576
ునకు	-9.96615
▁వాదన	-9.96623
N	-9.96663
ంటా	-9.96683
T	-9.96708
▁ఆలోచన	-9.96811
ేది	-9.96841
నంద	-9.96857
▁తెల్ల	-9.9689
సేవ	-9.96909
▁ప్రారంభమైన	-9.9692
▁రామచంద్ర	-9.96921
▁38	-9.96952
▁p	-9.96958
▁మారు	-9.96976
▁పదవి	-9.96988
▁సంగమ	-9.97012
తాడు	-9.97136
▁V	-9.97137
భాగ	-9.97145
▁హక్కుల	-9.97145
▁పదాల	-9.97158
▁పరిశ్రమల	-9.97165
▁కొండపై	-9.97248
▁అంతరిక్ష	-9.97277
్యు	-9.97286
▁లిమిటెడ్	-9.97351
▁ఆదోని	-9.97353
▁ఆసక్తి	-9.97354
▁కలుస్తుంది	-9.97354
▁అవుతోంది	-9.97358
క్షణ	-9.97365
▁భర్త	-9.97365
▁సూచించ	-9.97367
▁హేతువాది	-9.97374
▁తారక	-9.97378
▁1976	-9.97389
▁1944	-9.97394
▁:-	-9.97406
▁బొమ్మ	-9.97407
▁పూర్	-9.9744
▁రేటు	-9.97446
కైక	-9.97456
▁వలె	-9.97486
▁అస	-9.97488
▁ప్రారంభం	-9.97496
▁జే	-9.97498
సెయింట్	-9.97522
▁శిలా	-9.97552
▁విస్తరించ	-9.97585
వలె	-9.97597
పైన	-9.97658
▁నెలల	-9.97685
▁వేడి	-9.97686
▁భవన	-9.97793
▁సొ	-9.97937
▁యజ్ఞ	-9.97978
▁వేంకటేశ్వర	-9.97981
▁సమాన	-9.9799
▁నవాబు	-9.97996
విన్	-9.98
▁భాగము	-9.98019
▁వినాయక	-9.98047
▁టె	-9.98099
ణ్	-9.9812
▁మూర్తి	-9.98139
▁రత్న	-9.98295
బ్ర	-9.98359
▁దత్త	-9.98371
▁బాధ్యత	-9.98447
▁భాగాలు	-9.98465
=	-9.98478
ఎఫ్	-9.98561
ాసన	-9.98632
▁గ్రెగోరియన్	-9.98735
▁నరసరావుపేట	-9.98735
▁ప్రజాదరణ	-9.98735
▁మామిడి	-9.98735
▁విద్యార్థి	-9.98735
▁బహుళ	-9.98759
▁షాహీ	-9.98765
▁1926	-9.98769
▁చక్కని	-9.9894
▁అవధాని	-9.98941
▁డివిజన్	-9.98953
▁యె	-9.99016
కొని	-9.99019
ch	-9.9904
▁చేయని	-9.99056
▁సత్	-9.99064
▁జలపాతం	-9.9907
ాస్	-9.99089
ారి	-9.99108
ల్లు	-9.99139
▁లభించిన	-9.99181
▁స్థాయిలో	-9.99188
▁ఉద్	-9.99213
▁భాషగా	-9.99255
ంచిన	-9.99258
▁తాగ	-9.99275
▁సామ్రాజ్యంలో	-9.99283
కలు	-9.99312
▁ప్రవేశ	-9.99357
▁1970	-9.99404
▁దిగ	-9.99582
▁మాస	-9.99679
ఓ	-9.99895
▁పద్యం	-9.99916
▁నిల్వ	-9.99947
▁వాడుక	-9.99951
▁సామంత	-9.99957
ిరెడ్డి	-9.99978
ండ్ర	-10
▁నౌక	-10.0006
▁జం	-10.0009
▁ఘనం	-10.001
▁కాలములో	-10.0011
▁1958	-10.0013
▁నిజామాబాదు	-10.0014
▁ప్రైవేట్	-10.0014
▁కర్నాటక	-10.0014
▁తెనాలి	-10.0014
▁వాయవ్య	-10.0014
▁లండన్	-10.0014
▁స్థాపించిన	-10.0014
ములలో	-10.0014
▁1935	-10.0018
▁క్రీస్తు	-10.0018
▁వెంటనే	-10.0025
▁చాలామంది	-10.0025
▁రాణి	-10.0028
▁ప్రకటించారు	-10.0033
▁నిర్మించాడు	-10.0035
▁జగిత్యాల	-10.0037
దేశం	-10.0038
▁ఉందని	-10.004
పరచ	-10.0045
▁మైళ్ళు	-10.0046
▁37	-10.0055
మహా	-10.0056
▁రకాలు	-10.0059
▁క్రీడలు	-10.0059
▁పద్యాలు	-10.006
▁రాజ్యాంగం	-10.0061
▁పత్తి	-10.0063
▁పొడి	-10.0084
▁మల	-10.0099
శం	-10.01
కృత	-10.0106
▁ప్రాంతంలోని	-10.0108
త్రిక	-10.0112
▁దిగువ	-10.0117
▁ఘన	-10.0117
▁విశ్వవిద్యాలయ	-10.012
తర	-10.0124
ులలో	-10.0126
▁శంకర	-10.0126
▁ఇందిర	-10.0127
ాద్రి	-10.0127
ుకోవడం	-10.0129
కాని	-10.0131
▁స్థాపించి	-10.0134
థా	-10.0135
▁రాగ	-10.0141
▁నెలకొల్ప	-10.0141
▁కిలోమీటర్లు	-10.0147
వతి	-10.0149
▁శ్రీరంగ	-10.015
తోపాటు	-10.015
ష్ఠ	-10.0152
▁నిర్వహించ	-10.0156
▁ఆధీనంలో	-10.0156
▁బడ్జెట్	-10.0156
▁మైసూర్	-10.0156
▁మ్యూజియం	-10.0156
▁బీహార్	-10.0157
▁నిడమర్రు	-10.0158
▁విషయంలో	-10.0158
▁1908	-10.016
▁ఇలాంటి	-10.0162
▁అధ్యక్షుడిగా	-10.0165
▁పాలకులు	-10.0165
▁చేతిలో	-10.017
బాల	-10.0171
▁స్టేట్స్	-10.0171
▁ప్రాచుర్యం	-10.0174
▁కీర్తి	-10.0175
▁ఉడిపి	-10.0175
▁రాజ్యంలో	-10.0178
▁ముద్ర	-10.0182
▁సరి	-10.0189
▁R	-10.0194
▁దర్శకత్వం	-10.0198
▁ఆదాయ	-10.0199
▁కృష్ణుడు	-10.0202
▁బాబు	-10.0205
▁ఇక్కడే	-10.0206
▁గేయ	-10.0212
▁పాల్	-10.0213
▁చేతి	-10.0218
▁దీవుల	-10.0223
▁వాడే	-10.0224
▁వివరాలు	-10.0228
▁సమాచారం	-10.024
et	-10.024
▁http	-10.0245
యత్	-10.0247
ట్లుగా	-10.025
ంలోని	-10.0266
▁గుమ్మడి	-10.0267
▁సంస్కృతము	-10.0269
▁రాక్షస	-10.027
▁దర్శించ	-10.027
చరిత్ర	-10.0282
▁దిశ	-10.0282
▁జరగ	-10.0284
హో	-10.0284
▁సార	-10.0291
▁రాజ్యాల	-10.0295
▁కాలెండరు	-10.0301
▁తజికిస్థాన్	-10.0301
▁హెక్టారులు	-10.0301
▁వసతి	-10.0301
▁సమాఖ్య	-10.0301
.2016)	-10.0301
ందా	-10.0302
▁ఉండును	-10.0304
ిష్	-10.0304
▁అబ్దుల్లా	-10.0305
▁నిర్వహిస్తారు	-10.0306
▁కోస్తా	-10.0308
కార్	-10.0308
▁కంద	-10.0309
▁అభి	-10.0311
▁ఇక	-10.0312
ొక్క	-10.0315
ింపు	-10.0316
భూ	-10.0317
▁ఇచ్చింది	-10.0321
▁కుటుంబం	-10.0324
▁అభిమాన	-10.0325
పూరు	-10.0326
▁సమీపంలోని	-10.0329
▁శివుడు	-10.0333
▁పెన్నా	-10.0342
▁చేరాడు	-10.0345
సియా	-10.0348
▁సహ	-10.0349
▁దేశపు	-10.035
▁భాగవత	-10.0355
▁ఉదాహరణకు	-10.0358
▁300	-10.0362
▁నాయకత్వం	-10.0362
ఒ	-10.0363
▁సీత	-10.0365
▁అష్ట	-10.037
▁ఔ	-10.0381
▁చేపట్టిన	-10.0393
▁సుల్తానుల	-10.0412
రొ	-10.0413
ుకుంది	-10.0415
▁పెట్టి	-10.0419
▁మెంట్	-10.042
▁వర్ణన	-10.0421
▁రాం	-10.0423
దర్	-10.0424
▁క్షేత్ర	-10.0426
▁విగ్రహాలు	-10.043
గుణ	-10.0437
▁శంకుస్థాపన	-10.0447
▁వెలసిన	-10.0447
▁సరస్సు	-10.0448
గూడెం	-10.0448
▁చూస	-10.0451
▁1921	-10.0451
స్టర్	-10.0452
▁అధ్యక్ష	-10.0453
▁మొదలైంది	-10.0453
▁గాలి	-10.046
▁స్టిట్యూట్	-10.0461
▁జాతుల	-10.0461
▁దో	-10.0467
▁వ్రాయ	-10.0469
వలన	-10.0474
▁ఉపయోగ	-10.0474
▁పద్ధతి	-10.0477
▁నటించిన	-10.0479
నై	-10.0479
▁47	-10.0487
కర్త	-10.0487
▁కూర్చ	-10.049
▁అసలు	-10.0491
▁నిర్మాణానికి	-10.0492
▁తమిళం	-10.0495
▁వెల	-10.0499
▁కమ్మ	-10.0504
▁మొక్క	-10.0507
▁సూ	-10.0512
▁యాత్ర	-10.0522
▁1962:	-10.0529
్యము	-10.0532
▁సాగ	-10.0533
▁సుఖ	-10.0534
▁సుల్తాను	-10.0535
ation	-10.0536
▁బుక్క	-10.0536
సేన	-10.0542
4%	-10.0548
▁రుచి	-10.0551
▁దర్శకత్వంలో	-10.0553
యె	-10.0557
పడి	-10.0562
▁సర	-10.0568
▁లకు	-10.0574
▁సమయ	-10.0576
▁సంయుక్త	-10.0586
▁మార్పులు	-10.0588
▁వాతావరణ	-10.059
▁సాధన	-10.059
▁విభాగం	-10.0591
▁ఇస్లాం	-10.0596
▁నాగేశ్వరరావు	-10.0596
▁బెంగాలీ	-10.0596
▁వెంకయ్య	-10.0596
▁గద్వాల	-10.0596
▁పారుదల	-10.0596
▁మౌర్య	-10.0596
▁ఆటగాడు	-10.0596
▁పంజాబ్	-10.0596
▁మార్కాపురం	-10.0596
▁పీపుల్	-10.0597
▁అల్లూరి	-10.0597
▁వారసత్వ	-10.0597
▁కొంతమంది	-10.0598
▁నికోబార్	-10.0598
▁యేడాది	-10.0599
▁పరిషత్తు	-10.0603
▁వేదిక	-10.0608
ప్రా	-10.0616
▁పులి	-10.0617
▁కూడ	-10.062
బాయి	-10.0622
▁పేరొందిన	-10.0627
▁ఆహారం	-10.0634
▁రాయ్	-10.0637
▁మరల	-10.064
వనం	-10.0642
చ్చు	-10.0645
▁అమృత	-10.0646
బర్	-10.0651
▁అంగీకరించ	-10.0655
▁గడ	-10.0655
▁శతాబ్దాల	-10.0656
▁కావ	-10.0657
▁పల్లె	-10.0666
తారు	-10.0669
▁e	-10.067
web	-10.0676
▁1989	-10.0677
▁కొండలు	-10.0678
▁వీధి	-10.0687
▁2020	-10.0688
▁స్వీకరించ	-10.0689
▁చెప్పి	-10.0689
▁ఒకప్పుడు	-10.0694
▁శ్రీరామ	-10.0695
▁బోధించ	-10.0699
మత	-10.0706
ab	-10.0707
▁విలువ	-10.0708
▁2016:	-10.0723
▁రైతులు	-10.0741
▁ఎంపిక	-10.0744
▁మణి	-10.0745
▁వెంట	-10.0747
▁ఎమ్మెల్యే	-10.0747
▁టంగుటూర	-10.0747
▁టెలివిజన్	-10.0747
▁నీటిపారుదల	-10.0747
▁ప్రకటన	-10.0747
▁ఆత్మకూరు	-10.0747
▁జరుగుతాయి	-10.0748
▁పిలిచేవారు	-10.0748
▁రాజస్థాన్	-10.0749
▁విద్యావేత్త	-10.0751
▁దేశాయ్	-10.0752
▁శ్రీలంక	-10.0752
▁వంద	-10.0767
ీర్	-10.0773
▁పుణ్య	-10.0779
▁తరగతి	-10.078
గానూ	-10.0781
▁1987:	-10.079
లున్నాయి	-10.0799
▁పరంగా	-10.0799
▁స్థాపన	-10.0813
క్రి	-10.0816
▁రకం	-10.0817
▁w	-10.0823
▁అభిప్రాయం	-10.0824
▁అధికారులు	-10.0827
▁గుంటూరులో	-10.0829
od	-10.0835
▁కురు	-10.0835
▁గ్రంథాలయ	-10.0838
▁లక్ష్మీనరసింహ	-10.0839
▁అందు	-10.0839
▁డీ	-10.0846
▁15:	-10.0847
▁విస్తరించింది	-10.0854
▁మార్గ	-10.0857
▁నూ	-10.0859
ిస్తున్నారు	-10.086
▁శతాబ్ద	-10.086
▁పాల్గొన	-10.0863
▁కర్	-10.0865
▁అంబ	-10.0865
▁హత్య	-10.0872
ఖ్య	-10.0878
▁మగ	-10.088
ప్పటి	-10.0886
▁కం	-10.0888
▁చేయబడిన	-10.0888
▁ప్రజలను	-10.0891
మంత్రి	-10.0895
▁అరేబియా	-10.09
▁ఇబ్రహీం	-10.09
▁తణుకు	-10.09
▁స్మారక	-10.09
▁ప్రతిపాదన	-10.09
▁గాయత్రి	-10.09
▁దేవాలయ	-10.0901
▁రాజ్యసభ	-10.0901
▁తగిన	-10.0901
▁లలిత	-10.0901
▁సుబ్రహ్మణ్య	-10.0901
▁పరిశోధకుడు	-10.0902
▁1933	-10.0903
▁2021	-10.0906
▁తే	-10.0908
▁యుద్ధము	-10.0909
▁అంతకు	-10.0918
▁మిత్ర	-10.0919
▁యువ	-10.0921
సార్లు	-10.0922
▁వాక్య	-10.0926
▁దేశాలు	-10.0935
▁అక్షరం	-10.0936
▁పక్ష	-10.0941
▁పురస్కారాన్ని	-10.0942
▁పవర్	-10.0942
el	-10.0943
▁సొంత	-10.0943
త్రం	-10.0947
కట్ట	-10.0947
▁వేసి	-10.0948
▁నాట్య	-10.095
నగర	-10.0951
▁పనిచేసాడ	-10.0955
లేరు	-10.0958
▁తీవ్రమైన	-10.0963
▁సమాచార	-10.0967
▁12:	-10.0967
మౌ	-10.0973
▁అమ్మవారికి	-10.0979
తార	-10.0982
▁1968	-10.0982
ాడట	-10.0984
బల	-10.0988
తోనే	-10.0989
నల్	-10.0994
▁ఆరవ	-10.1012
దూ	-10.1019
పట్నం	-10.1019
▁ఖగోళ	-10.1022
▁చేయాల	-10.1031
▁పుట్టి	-10.1032
▁వేత్త	-10.1034
▁కోల్	-10.1035
యన	-10.1037
▁స్టేట్	-10.1039
6%	-10.1044
▁అడుగులు	-10.1044
▁అద్భుత	-10.1046
ఝ	-10.1047
▁సినిమాలో	-10.1052
▁ఆదివారం	-10.1055
▁అలెగ్జాండర	-10.1056
▁ఒడిషా	-10.1056
▁రోదసీ	-10.1056
▁కలామ్	-10.1056
▁ఎన్నికయ్యాడు	-10.1056
▁ఉద్యమకారుడు	-10.1057
లూరి	-10.1061
▁ప్రెస్	-10.1062
▁ముందే	-10.1065
▁విదేశాల	-10.1066
▁గ్రంథం	-10.1067
▁భాగ	-10.1069
▁నిత్య	-10.1076
▁తీసుకొని	-10.108
8%	-10.1081
▁దేశంగా	-10.1088
మంతా	-10.1092
▁చేరింది	-10.1096
ందే	-10.1097
▁1984:	-10.11
ఖా	-10.1112
▁మాధవ	-10.1113
▁దైవ	-10.1124
ha	-10.1127
▁స్థాన	-10.1128
▁బలహీన	-10.1129
org	-10.1133
పాత	-10.1135
and	-10.1136
శీల	-10.1138
▁ఇచ్చే	-10.1143
▁విడి	-10.1148
▁స్థలం	-10.1156
▁కోటను	-10.1157
యుల	-10.1159
నంత	-10.1164
▁మహాభారత	-10.1165
▁దశలో	-10.1171
▁గ్ర	-10.1177
యుక్త	-10.12
▁సంధి	-10.1205
-20	-10.1207
▁సమయం	-10.1211
▁నందమూరి	-10.1214
▁విద్వాంసుడు	-10.1215
▁వైద్యులు	-10.1215
వీర	-10.1216
▁1918	-10.1219
▁కావలసిన	-10.1221
▁కార్యక్రమంలో	-10.1222
▁7:	-10.1222
▁పాల్వంచ	-10.1227
▁స్వీకరించాడు	-10.1227
▁ఓడ	-10.1227
▁పూల	-10.1228
▁3:	-10.123
▁అవసరమైన	-10.1234
▁అంటూ	-10.1236
▁పరిచయం	-10.1238
▁కాశ్మీర్	-10.1241
▁కథనం	-10.1242
▁మార్చారు	-10.1242
▁1986:	-10.1249
▁చిక్	-10.1252
▁తేదీన	-10.1258
లని	-10.1269
▁కాలానికి	-10.1271
▁ప్రసార	-10.1276
చిత్ర	-10.1277
ంటుంది	-10.1287
▁ప్రొ	-10.1291
▁పచ్చ	-10.1297
▁వు	-10.1297
యై	-10.1297
భాగం	-10.1297
▁వివాహ	-10.1299
▁తొలగించ	-10.1299
▁విద్యను	-10.1304
▁1953	-10.1304
▁1979	-10.1304
▁1951	-10.1308
▁కలుగ	-10.1312
ంద్	-10.1312
▁1992	-10.1313
▁నక్షత్ర	-10.1314
బెట్టి	-10.1319
▁పండు	-10.132
▁500	-10.132
రిక్	-10.132
ట్స్	-10.1323
▁జరుగుతున్న	-10.1323
లిన్	-10.1326
న్నాడు	-10.1335
▁ప్రత్యేకమైన	-10.1337
.(	-10.1339
▁చోట	-10.1339
▁పంచాయతీ	-10.134
[	-10.1344
▁ఖర్చు	-10.135
▁8:	-10.1352
ప్పు	-10.1352
▁ప్రమాణ	-10.1354
▁ఆకు	-10.1363
వేద	-10.1365
▁అగ్ర	-10.1367
▁ఈస్ట్	-10.1372
▁ప్రయోగ	-10.1372
▁ప్రయాణం	-10.1372
▁హె	-10.1373
▁మహిళలు	-10.1373
▁పరీవాహక	-10.1374
▁అటవీ	-10.1374
▁కాలేజి	-10.1374
నాయుడు	-10.1374
▁ఎల్ల	-10.1374
▁ఆస్ట్రేలియా	-10.1375
▁ఆధారపడి	-10.1375
▁పంటలు	-10.1378
▁చేరుకుంది	-10.1379
▁ఒకరి	-10.1384
▁కాలేజీ	-10.1384
▁పశ్చిమాన	-10.1385
▁వచ్చారు	-10.1385
▁55	-10.1388
▁చూస్తే	-10.1389
▁ప్రారంభించింది	-10.139
▁చెందినది	-10.1391
▁ఎన్నికలు	-10.1392
▁నెట్	-10.1396
▁ఉపఖండంలో	-10.1397
ాంగ్	-10.14
కూడ	-10.1406
▁రాజ్యము	-10.1409
ుకుంటూ	-10.1412
▁58	-10.1416
ట్లే	-10.1418
▁పతనం	-10.142
▁లై	-10.1421
దేశాల	-10.1423
000	-10.1432
▁రవి	-10.1445
▁గోపాల	-10.1447
యాన్	-10.1449
▁తెగ	-10.1449
▁81	-10.1459
▁కలి	-10.1461
▁చాళుక్యులు	-10.1461
▁నేతృత్వంలో	-10.1462
▁కప్	-10.1468
ాలంటే	-10.1468
ర్య	-10.1471
▁రక్త	-10.1472
▁మంద	-10.1483
▁జరిగి	-10.1486
▁ఎదురు	-10.1486
▁దాన్ని	-10.1495
ol	-10.1503
▁దొంగ	-10.1512
▁నిల	-10.1513
రోజు	-10.1514
▁దేవుడు	-10.1519
▁మరణించిన	-10.1519
▁తీరంలో	-10.152
▁కార	-10.1526
▁43	-10.1534
నగ	-10.1537
▁కొబ్బరి	-10.1537
▁ఎందుకంటే	-10.1538
▁ప్రజాస్వామ్య	-10.1538
▁హైకోర్టు	-10.1538
▁సీనియర్	-10.1538
▁హరిహర	-10.1538
▁బ్యాంక్	-10.1538
▁నిజాము	-10.1538
▁వుంటుంది	-10.1538
▁కావ్య	-10.1539
▁నూనె	-10.154
▁వైఎస్ఆర్	-10.154
▁1901	-10.1543
▁1934	-10.1543
▁1917	-10.1544
▁అభివృద్ధికి	-10.1544
▁కావలి	-10.1545
▁నొ	-10.1549
▁అయ్యింది	-10.1549
▁పాలకుల	-10.155
▁చేసుకున్న	-10.1554
▁బ్రౌన్	-10.1556
దగిన	-10.1562
▁కలిగించ	-10.1565
▁గ్రామములో	-10.157
బడుతున్నాయి	-10.1572
▁బహ	-10.1574
▁గోవింద	-10.1576
ెదరు	-10.1577
▁ప్రాంతాలకు	-10.1579
▁విప్లవం	-10.1583
▁అప్ప	-10.1585
▁వరుసగా	-10.1586
▁శాసనము	-10.159
▁కుడి	-10.1593
ాట	-10.1594
శ్వాస	-10.1597
గ్రహ	-10.1602
▁నుండ	-10.1602
▁భావన	-10.1604
బద్ధ	-10.1608
▁వయసులో	-10.1609
▁డో	-10.1613
▁నివసిస్తున్న	-10.1617
▁నిలిచి	-10.1619
▁పుర	-10.1623
▁నగరాన్ని	-10.1624
ఫల	-10.1624
▁పర్వము	-10.1624
▁తెచ్చ	-10.1628
▁దూ	-10.163
▁1977	-10.1634
మందు	-10.1638
స్సు	-10.1648
▁కథల	-10.1652
పోతోంది	-10.1654
▁అడవులు	-10.1658
▁ఎవరి	-10.166
▁వెళ్లి	-10.1661
▁ఎవర	-10.1681
ైంది	-10.1682
▁ప్రాస	-10.1683
▁అశ్వ	-10.1689
▁అవతార	-10.1689
వద్ద	-10.169
ాభి	-10.1693
▁కూచిపూడి	-10.1704
▁పురావస్తు	-10.1704
▁మహమ్మద్	-10.1704
▁సాఫ్ట్	-10.1704
▁సంచలన	-10.1704
▁వరల్డ్	-10.1704
▁పుష్ప	-10.1704
▁క్రితం	-10.1704
▁జ్ఞానపీఠ	-10.1704
▁శాస్త్రము	-10.1705
▁పనిచేశారు	-10.1706
▁దారితీసింది	-10.1706
▁ఔరంగజేబు	-10.1708
శర్మ	-10.1709
▁ప్రధానమైన	-10.1709
▁ద్వీపం	-10.1716
▁సీతారామ	-10.1716
▁పోటీలలో	-10.1718
▁గాంధీజీ	-10.1719
టంతో	-10.172
▁తగ్గించ	-10.1722
▁వసంత	-10.1723
▁ఎత్తులో	-10.1734
ుడయ్యాడు	-10.1735
వుల	-10.1736
▁గోడ	-10.1736
▁మందికి	-10.1737
▁పోలీస్	-10.1739
గిన	-10.174
▁పాల్గొని	-10.1742
కారులు	-10.1749
▁సంపాదించ	-10.175
▁డాలర్లు	-10.1753
▁ప్రభుత్వానికి	-10.1753
▁బండ	-10.1754
ుడిగా	-10.1754
కూడా	-10.1756
దేవుని	-10.1757
▁సామ్రాజ్యానికి	-10.1757
▁ఎదురుగా	-10.1757
▁సింహాసన	-10.1761
▁పరిస్థితుల	-10.1762
0,000	-10.177
▁గానీ	-10.1788
రాయి	-10.179
విధ	-10.1795
పోయే	-10.18
▁ఇరు	-10.1805
▁శతక	-10.1807
▁గెల	-10.1818
▁చేపల	-10.182
▁సమాజం	-10.1823
▁64	-10.1824
▁అత	-10.1825
▁ఉండడం	-10.1831
సార్	-10.1837
▁ఆలీ	-10.1842
▁నృత్యం	-10.1846
▁65	-10.1851
▁బలి	-10.1852
▁చేరుకున్న	-10.1853
▁బంధ	-10.1854
▁అటు	-10.1857
ట్ర	-10.1866
3%	-10.1867
▁ప్రస్తావించ	-10.1872
▁రకరకాల	-10.1872
▁స్పీకర్	-10.1872
▁శృంగార	-10.1872
▁యాత్రికుల	-10.1873
▁కింగ్	-10.1873
▁లోకసభ	-10.1873
రచయిత	-10.1877
▁వ్యవస్థాపకుడు	-10.1877
▁అందువలన	-10.1879
▁1923	-10.1879
▁పలువుర	-10.188
▁శుద్ధ	-10.1881
▁గతంలో	-10.1884
▁సకల	-10.1887
▁కన్నా	-10.1891
▁కాలనీ	-10.1893
▁అయ్యాయి	-10.1894
▁సినిమాలు	-10.1897
▁పంపిస్తున్నా	-10.1899
ణము	-10.1901
▁చేపట్ట	-10.1903
▁ఆనాటి	-10.1906
ుంటారు	-10.1906
యల్	-10.1906
▁వాయు	-10.1907
టింగ్	-10.1907
▁ఫై	-10.1914
ేశ్వరాలయం	-10.1917
▁రాళ్ళ	-10.1918
▁పత్రికల	-10.1919
▁సంస్థానం	-10.1919
▁తె	-10.192
▁ఒకసారి	-10.192
▁Re	-10.1922
మాట	-10.1923
▁కడ	-10.1923
▁1939:	-10.1928
▁జిల్లాను	-10.1929
్మయ	-10.1932
-2	-10.1933
నగరం	-10.1939
▁నిర్వహించి	-10.1941
సింగ్	-10.1945
రంగా	-10.1949
బే	-10.1953
▁చిన	-10.1954
▁నరస	-10.1958
▁విధించ	-10.1958
▁వంగ	-10.1961
▁6:	-10.1963
▁వ్యాస	-10.1967
▁నెల్లూరులో	-10.1968
▁చంద	-10.1982
స్తున్న	-10.1982
చ్చిన	-10.1983
▁ఛా	-10.199
▁మైదాన	-10.1991
ుకోవాలి	-10.1998
▁సెం	-10.2002
ధర్మ	-10.2002
▁చెల్లించ	-10.2005
▁13:	-10.2007
▁17:	-10.2014
▁బాలబడ	-10.2015
▁ద్వీపాల	-10.202
▁నియమించ	-10.2021
▁రై	-10.2022
పోయిన	-10.2024
ly	-10.2031
▁ఉదయ	-10.2035
మార్గ	-10.2037
▁ఆగ	-10.2037
▁లభించ	-10.2041
▁పార్వతీ	-10.2044
▁సుప్రసిద్ధ	-10.2044
▁ప్రత్యేకపూజలు	-10.2044
▁పసుపు	-10.2044
▁మరికొన్ని	-10.2044
▁త్రిపుర	-10.2045
▁ప్రవేశించ	-10.2045
▁మంగళగిరి	-10.2046
▁ఉదయగిరి	-10.2046
▁కనిపిస్తాయి	-10.2047
బడ్డాడు	-10.205
▁దేశీయ	-10.2051
▁జాతర	-10.2052
▁బుక్	-10.2053
▁ఇక్కడికి	-10.2053
▁అవుతుంది	-10.2053
▁నారాయణరావు	-10.2053
▁ఇచ్చాడు	-10.2055
▁సైన్యాన్ని	-10.2056
ేపల్లి	-10.2057
▁రంగం	-10.2058
ter	-10.2059
▁విమానం	-10.206
▁అరెస్టు	-10.206
▁వీలు	-10.2061
▁శిల్ప	-10.2061
▁ట	-10.2065
▁జారీ	-10.2065
విజయ	-10.2065
▁దుర్	-10.2067
▁నిలిచ	-10.207
▁భవనం	-10.2071
▁వేయ	-10.2072
▁వ్రాస	-10.2076
▁9:	-10.2086
▁అజ	-10.2088
▁బస్	-10.2088
▁W	-10.209
వల్లి	-10.2091
▁22:	-10.2093
▁మంత్ర	-10.2095
▁ప్రపంచంలోనే	-10.2095
స్తాయి	-10.2101
మధ్య	-10.2102
▁పొందారు	-10.2103
నాగ	-10.2104
▁వస్తున్న	-10.2105
▁ముఖ్యమైనవి	-10.2107
చ్చే	-10.211
▁అధికారంలో	-10.211
▁సంబంధాలు	-10.2118
▁వదిలి	-10.2125
లొ	-10.2127
▁ప్రవహించే	-10.213
▁గమనించ	-10.2132
జాతి	-10.2132
▁నై	-10.2137
▁వరద	-10.2139
కేంద్ర	-10.2142
▁చూడవచ్చు	-10.2144
▁కలుప	-10.2146
▁కాన్	-10.2146
▁1995	-10.2149
▁థ	-10.2152
శ్చ	-10.2158
▁రామాయణ	-10.2167
▁వరుస	-10.2168
▁మహిళ	-10.217
▁1950:	-10.2174
▁సీతా	-10.2178
▁on	-10.2184
▁డివిజన్లు	-10.2191
▁జయించి	-10.2192
▁27:	-10.2194
యున్న	-10.22
స్తాన్	-10.2202
▁సన్న	-10.2209
▁ప్రశ్న	-10.221
.2015)	-10.2219
▁రెవిన్యూ	-10.2219
▁పద్ధతుల	-10.2219
▁ద్వితీయ	-10.2219
▁ప్రార్థన	-10.2219
▁అప్పారావు	-10.2219
▁ఆసియాలో	-10.2219
▁ఎటువంటి	-10.2221
▁రాజకీయవేత్త	-10.2222
▁బ్రిటన్	-10.2223
▁తోట	-10.2223
▁1911	-10.2224
▁రాజేంద్ర	-10.2224
▁అల్ల	-10.2227
▁నిజ	-10.2228
▁పాల్గొన్నారు	-10.2229
▁వైఎస్	-10.223
▁కొట్ట	-10.223
▁అహ్మద్	-10.2231
▁వంతెన	-10.2236
▁సప్త	-10.2238
▁ఇంటర్నేషనల్	-10.224
▁సాధించాడు	-10.2244
ాదేవి	-10.2244
▁గిరిజన	-10.225
జిత్	-10.2254
యింది	-10.2263
▁ద్రవ్య	-10.2265
▁ప్రచురించ	-10.2268
తలు	-10.227
▁పార్కు	-10.2272
నార్	-10.2274
um	-10.2278
బై	-10.2278
ాపూర్	-10.228
తొమ్మిది	-10.2285
▁రాష్ట్రాలు	-10.2288
శ్వర	-10.2293
▁ఆధిపత్యం	-10.2294
య్యారు	-10.2295
▁2:	-10.2298
▁వెళ్ల	-10.2299
ున్నది	-10.2299
కథ	-10.2302
షు	-10.2308
▁వాడి	-10.2309
▁స్థ	-10.2311
▁2006:	-10.2327
▁వయస్సు	-10.2332
ir	-10.2335
దార్	-10.2341
కేంద్రం	-10.2342
మతి	-10.2343
బంధ	-10.2343
▁ప్రోగ్రాము	-10.2345
▁దాటి	-10.2346
కూర	-10.2351
▁పెరిగి	-10.2353
▁భౌగోళిక	-10.2359
▁యి	-10.236
లయ	-10.2361
దారుల	-10.2364
▁కై	-10.2367
▁సంబంధ	-10.237
▁నమ్మ	-10.2371
ధిక	-10.2373
▁9,	-10.2381
▁ప్రతిభ	-10.2393
చ్ఛ	-10.2395
▁ద్రావిడ	-10.2397
▁డెల్టా	-10.2397
▁ఓటమి	-10.2397
▁పల్నాడు	-10.2397
▁పింగళ	-10.2397
▁సాయంత్రం	-10.2397
▁టన్నుల	-10.2397
▁అచ్యుత	-10.2398
▁కొంతకాలం	-10.2399
▁విషయాల	-10.2404
▁భరత	-10.2404
▁పాలకుడు	-10.2407
▁భూభాగంలో	-10.2408
U	-10.241
▁ఇచ్చారు	-10.241
తమిళ	-10.2411
▁ఆచార	-10.2413
▁పిలవ	-10.2416
▁సంఘటన	-10.2417
▁అరబ్	-10.2417
▁స్థిర	-10.2425
▁రోడ్	-10.2426
▁ఏర్పడ	-10.2429
▁పాడారు	-10.2429
డికి	-10.243
▁తీసుకుని	-10.2433
▁ఉపాధ్యాయ	-10.2434
ాదుల	-10.2434
▁చీరాల	-10.2435
▁వ్యా	-10.2436
▁పరిశోధనా	-10.2437
▁ఆదిల్	-10.2437
▁దేవాలయము	-10.2442
బూ	-10.2445
భూత	-10.245
ిస్తుంటారు	-10.2451
na	-10.246
భావ	-10.2467
ందో	-10.2467
▁బర్	-10.2471
▁శత	-10.2472
ఎమ్	-10.2472
▁మోహన్	-10.2474
ారావు	-10.2476
▁ఎత్తున	-10.2476
▁జీవితంలో	-10.2478
స్త్ర	-10.248
▁గుహ	-10.248
▁పుస్తక	-10.2485
పురాణ	-10.2492
▁వస్తువుల	-10.2494
ముగ	-10.2497
▁స్థల	-10.2501
V	-10.2506
om	-10.2509
▁పేద	-10.251
▁సాంప్రదాయ	-10.2516
▁ఫె	-10.2522
▁అంతే	-10.2522
▁జననం	-10.2523
▁రాజవంశ	-10.2525
రత్న	-10.2529
▁చేయు	-10.2537
▁చెట్లు	-10.254
శ్ర	-10.2542
▁ఆంజనేయ	-10.2544
▁m	-10.2545
▁ప్రదేశంలో	-10.2549
▁కన్	-10.255
▁చెరువులు	-10.2551
▁ఖా	-10.2554
య్యాయి	-10.256
▁ముస్లిములు	-10.2563
▁వర్గాల	-10.2565
▁నియమ	-10.257
▁కాలము	-10.2573
▁క్రొత్త	-10.2578
▁ఫ్రెంచ్	-10.2578
▁యూనివర్శిటీ	-10.2578
▁ఇసుక	-10.2578
▁యూరోపియన్	-10.2578
▁అంజయ్య	-10.2578
▁కడుపు	-10.2578
▁ఐదవ	-10.2578
▁బహదూర్	-10.2578
▁రామాయణం	-10.2578
▁ధర్మపురి	-10.258
▁చరిత్రకారుడు	-10.2582
▁వీరభద్ర	-10.2584
▁చెప్పబడింది	-10.2589
▁చేయబడ్డాయి	-10.2594
▁చేసుకున్నారు	-10.2598
▁అందరి	-10.2599
▁యుగంలో	-10.2599
▁కేంద్రపాలిత	-10.2601
▁పిండి	-10.2603
ింగు	-10.2605
▁మనసు	-10.2606
ందున	-10.2608
గమన	-10.2611
▁కోటి	-10.2612
▁పార్క్	-10.2615
▁ఎక్కడ	-10.2615
▁వ్యక్తులు	-10.2619
▁సంబంధిత	-10.263
్స్	-10.2632
ిస్టు	-10.2636
ఫర్	-10.2638
▁దాన	-10.2639
▁ఎఫ్	-10.264
▁పండితుల	-10.2644
లందు	-10.2646
▁అమెరికాలో	-10.2651
▁అనువాద	-10.2655
▁అడుగు	-10.2656
హరి	-10.2662
▁8,	-10.2667
నేటి	-10.2671
▁శాసనాలు	-10.2673
ంటున్న	-10.2681
▁ఏర్పడి	-10.2683
▁రేవు	-10.2685
▁వెళ్ళిన	-10.2696
▁రచయితలు	-10.27
▁19:	-10.2704
▁ఉత్తరం	-10.2704
▁లోపల	-10.2708
మణి	-10.2715
ుతున్నారు	-10.2718
▁ముందుకు	-10.2727
▁కావడం	-10.2728
ంబర్	-10.2733
▁పట్టణాలు	-10.2736
-12	-10.2747
గొండ	-10.275
భ్య	-10.2751
▁పూజా	-10.2752
హం	-10.2755
▁వైద్యుడు	-10.2755
కుంట	-10.2761
▁ఉపరాష్ట్రపతి	-10.2762
▁హుస్సేన్	-10.2762
▁పొరుగు	-10.2762
▁డబ్బు	-10.2762
▁టర్కీ	-10.2762
▁పెనుగొండ	-10.2762
▁ఘోర	-10.2762
▁షేక్	-10.2762
▁గూడూరు	-10.2763
▁గౌతమ	-10.2763
▁సెంట్రల	-10.2763
తుంది	-10.2764
▁జయంతి	-10.2764
▁వేంగి	-10.2765
▁49	-10.2765
▁ముహమ్మద్	-10.2766
▁వీరికి	-10.2769
▁1910	-10.2769
▁కూడలి	-10.2769
▁మోక్ష	-10.2774
▁18:	-10.2779
▁పెరిగింది	-10.2781
బాబు	-10.2784
ఆంధ్ర	-10.2785
▁ఉపనది	-10.2786
▁వర్ణించ	-10.2786
▁కాలి	-10.2789
▁చౌ	-10.279
▁లత	-10.2791
▁పూర్వపు	-10.2792
ఘ్	-10.2796
▁1906	-10.2796
▁ఫల	-10.2798
సాగర్	-10.2798
▁దొర	-10.2799
-7	-10.2802
▁మరణించ	-10.281
▁జీవితాన్ని	-10.2814
▁పుస్తకాలు	-10.2823
▁వర్ష	-10.2826
▁సంబంధం	-10.2832
శివ	-10.2833
▁హెచ్	-10.2833
.1	-10.2834
▁గుండ	-10.2835
▁1949:	-10.2835
ీయులు	-10.284
▁వృ	-10.2848
▁దాకా	-10.2853
▁సముద్రంలో	-10.2854
పాక	-10.2855
ిస్తే	-10.2855
▁నిర్మించి	-10.2856
ిక్	-10.2857
వర్ణ	-10.286
▁అలి	-10.286
▁అయ్య	-10.2862
▁41	-10.2865
ent	-10.2866
నొ	-10.2867
▁ఉద్యమంలో	-10.2873
▁46	-10.2874
వాటి	-10.2875
▁హింస	-10.2879
▁1949	-10.288
▁ప్రచార	-10.2882
్రి	-10.2885
▁ఆర	-10.2886
▁అమ్మవారిని	-10.2893
li	-10.2897
▁శ్రీకృష్ణ	-10.2899
ak	-10.2899
ార్థం	-10.2899
▁బీర	-10.2904
జ్ఞాన	-10.2909
▁దీప	-10.2912
ాంత	-10.2918
డ్డ	-10.2923
హృదయ	-10.2927
▁క్ష	-10.293
కరణ	-10.2935
▁ఏడవ	-10.2935
భీ	-10.2939
▁అనుకూల	-10.2941
▁ప్రారంభంలో	-10.2948
www	-10.295
▁ఇన్స్టిట్యూట్	-10.295
▁బెంగాలు	-10.295
▁History	-10.295
▁బరువు	-10.295
▁చంద్రబాబు	-10.295
▁సమాధి	-10.2951
▁ఎన్టీఆర్	-10.2952
▁గోపన్న	-10.2953
▁1941	-10.2954
▁పరిపాలించిన	-10.2956
▁400	-10.2962
▁బావి	-10.2963
▁అందరూ	-10.2965
▁సేవల	-10.2966
▁ఉన్నందున	-10.297
▁కూటమి	-10.2971
▁తీవ్రంగా	-10.2971
▁గిరి	-10.2972
▁నాందేడ్	-10.2974
ంతు	-10.2977
▁ప్రభావితం	-10.2978
▁మేరకు	-10.2983
రిగి	-10.2988
▁హర	-10.2992
▁నదిలో	-10.2996
▁టెక్	-10.2997
▁అబ్దుల్	-10.3004
తున్న	-10.3006
దులు	-10.3009
కూరు	-10.3009
▁పార	-10.3011
▁విస్తీర్ణంలో	-10.3011
ెన్స్	-10.3014
ప్రతి	-10.3018
▁0.	-10.3019
▁588	-10.3019
▁మొగ	-10.3023
▁శైవ	-10.3026
▁మాన్	-10.3027
▁కోటలో	-10.3029
డని	-10.3035
▁21:	-10.3036
ధర	-10.3039
మార్	-10.3041
పాలు	-10.3043
lo	-10.3046
nd	-10.3047
▁పట్టి	-10.3047
▁చైతన్య	-10.3049
▁బాబ	-10.3049
▁1970:	-10.305
కంగా	-10.305
▁చెందినవారు	-10.3052
గడ్డ	-10.3058
▁90	-10.3058
▁రైతు	-10.306
▁స్వతంత్రం	-10.3061
నాధ	-10.3067
▁వంశం	-10.3068
▁స్ట	-10.307
▁లతా	-10.3071
నైనా	-10.3071
▁మహారాష్ట్రలో	-10.3071
▁తరలించ	-10.3074
▁ఆలయాల	-10.3075
▁ఎర్రన	-10.3081
▁సోదర	-10.3084
.2	-10.3087
▁ఉత్సవం	-10.3105
▁తొ	-10.3106
గారు	-10.3106
ినా	-10.3114
కున్న	-10.3115
▁మిల్	-10.3116
వర్ధ	-10.3119
ంక్	-10.3119
▁నట	-10.3124
▁లేదని	-10.3124
▁సౌ	-10.3129
ిజం	-10.3133
వంతు	-10.3134
▁తీర్చ	-10.3137
▁గణేశ	-10.3138
▁పోతు	-10.314
▁నివసించ	-10.3141
▁అవగాహన	-10.3141
▁గురజాడ	-10.3141
▁విటమిన్	-10.3141
▁వెడల్పు	-10.3141
.1928)	-10.3141
▁ఎందరో	-10.3141
▁చికిత్స	-10.3141
▁కాలేజ్	-10.3141
▁చుట్టుపక్కల	-10.3141
▁తత్వవేత్త	-10.3142
▁ఉస్మాన	-10.3142
▁నొప్పి	-10.3143
▁బీచ్	-10.3143
▁బోర్డు	-10.3144
▁భగవంతుని	-10.3146
▁ఉపయోగిస్తారు	-10.3148
▁తూ	-10.3148
▁పునర్య్వస్థీకరణ	-10.315
▁మిలియన్	-10.3154
▁కావున	-10.3162
▁మచిలీపట్నం	-10.3165
▁పురాతనమైన	-10.3166
▁14:	-10.3167
బ్రహ్మ	-10.3168
మాత్ర	-10.3174
▁మొదలుపెట్ట	-10.3174
దండ	-10.3174
▁విషయము	-10.3175
▁కాట	-10.3181
ాలున్నాయి	-10.3181
▁ఏనుగు	-10.3183
▁వేసిన	-10.3186
ారం	-10.3188
▁11:	-10.319
▁ఫార్	-10.319
500	-10.3195
▁తరలి	-10.3195
నపుడు	-10.3196
▁ఏనుగుల	-10.3199
sh	-10.3199
▁పండిత	-10.3202
▁51	-10.3203
▁1981:	-10.3208
▁ప్రఖ్యాతి	-10.3209
పీఠ	-10.3214
▁ప్రాంగణంలో	-10.3223
▁పార్	-10.3227
▁ప్రముఖులు	-10.323
▁అండ	-10.323
▁హోమ	-10.3235
-18	-10.3235
▁తాము	-10.3236
▁పూజించ	-10.3236
తికి	-10.324
డీస్	-10.324
▁పనుల	-10.3244
▁ఉత్సవ	-10.325
ళ్	-10.3251
▁వయసు	-10.3251
▁సున్న	-10.3258
▁కన్న	-10.3259
▁దాట	-10.3259
▁మంగళ	-10.326
ుకొన్నాడు	-10.326
సై	-10.3262
▁యుద్ధాలు	-10.3263
▁1966	-10.3266
▁ఆస్థాన	-10.3267
రహిత	-10.3267
▁1978	-10.3268
▁అరు	-10.3268
▁రాష్ట్రాలలో	-10.3269
▁మనో	-10.327
▁కవిత్వ	-10.3271
▁వహించిన	-10.3274
ప్రాంతం	-10.3283
▁రామ్	-10.3287
▁20:	-10.3299
వ్యాప్తంగా	-10.33
▁ధరించి	-10.3302
ుకొన్న	-10.3305
▁వ్యాపారం	-10.3306
పాత్ర	-10.3306
ారణ్య	-10.3306
▁చదివి	-10.3308
▁కేంద్రము	-10.3319
▁తెలంగాణలో	-10.3321
▁చెంది	-10.3321
▁ఉంట	-10.3321
రన్	-10.3324
▁రహదారులు	-10.3329
▁వచ్చు	-10.3334
▁భాస్కర	-10.3334
ుండు	-10.3335
▁అభ్యర్థి	-10.3336
▁విస్తరణ	-10.3336
▁చౌదరి	-10.3336
▁శాసనసభ్యుడు	-10.3336
▁సంస్కర్త	-10.3336
.1924)	-10.3336
▁ప్రతిపక్ష	-10.3336
▁కళింగ	-10.3336
▁అధినేత	-10.3338
▁మణిపూర్	-10.3338
▁వ్యక్తిగత	-10.3338
▁టాటా	-10.3339
▁ద్వారం	-10.3341
▁1943	-10.3342
▁చూడండి	-10.3344
▁శతాబ్దపు	-10.3347
▁ఇంగ్లీష్	-10.3349
ందరూ	-10.335
▁పడమటి	-10.3354
యార్	-10.3355
▁దుకాణం	-10.3355
భూమి	-10.336
▁కనిపించే	-10.3362
▁ఒక్కో	-10.3364
లిపి	-10.3374
ముందు	-10.3376
దాని	-10.3378
▁శైలిలో	-10.338
▁బలమైన	-10.3385
▁నీతి	-10.3392
▁మాన	-10.3392
▁వెలుగు	-10.3403
ల్ని	-10.341
▁రచనల	-10.3412
నట్టు	-10.3413
▁మార్గము	-10.3414
▁పర్యాటకుల	-10.3414
▁పర్	-10.3417
▁1953:	-10.3427
▁1989:	-10.3433
▁దినం	-10.3438
ప్రాంతంలో	-10.344
▁దాస్	-10.3443
9%	-10.3443
ైతే	-10.3448
▁విడ	-10.3452
ినీ	-10.3454
ేలా	-10.3454
ాసుర	-10.3457
▁రీ	-10.3464
▁డిగ్రీల	-10.3466
▁సంవత్సరానికి	-10.347
▁కట్టి	-10.348
రణం	-10.3481
సిస్	-10.3484
▁ఆశ్రమం	-10.349
ప్రారంభించబడింది	-10.3491
▁ప్రదర్శించ	-10.3494
▁కళ్యాణం	-10.3494
గలిగ	-10.3496
▁సంస్కృతం	-10.3497
▁దళాల	-10.35
▁అంశం	-10.3501
7%	-10.3503
▁వహించ	-10.351
▁మండలి	-10.3518
డర్	-10.3529
▁సలహా	-10.3535
▁రెండ	-10.3535
▁పర్యావరణ	-10.3535
.1920)	-10.3535
▁శివాజీ	-10.3535
▁అప్పట్లో	-10.3535
▁స్థూల	-10.3535
▁స్వల్ప	-10.3536
▁ఈశ్వర	-10.3536
▁చేసుకుంది	-10.3536
▁వంకాయ	-10.3536
▁అందువల్ల	-10.3536
▁వైదిక	-10.3536
▁సార్వ	-10.3537
▁మాస్కో	-10.3538
▁ఏర్పడ్డాయి	-10.3539
▁తేడా	-10.3539
▁గ్రా	-10.354
▁సన్యాస	-10.3541
▁1909	-10.3541
▁హౌస్	-10.3541
▁జొన్న	-10.3542
▁క్షేత్రయ్య	-10.3542
న్యాస	-10.3543
లియా	-10.3544
▁1912	-10.3544
▁కొలువు	-10.3545
▁ఝ	-10.3546
క్వి	-10.3547
▁సైనికుల	-10.3549
▁రూపొందించిన	-10.3552
H	-10.3553
▁పాలకొల్లు	-10.3555
▁భగవద్గీత	-10.3555
▁1919	-10.3556
▁నేడు	-10.3558
▁సమాచారాన్ని	-10.3559
▁వాటికి	-10.3563
▁నివసిస్తున్నారు	-10.3566
రస్	-10.3568
▁స్వర్గ	-10.357
▁కన	-10.3572
▁కనీసం	-10.3572
▁1925:	-10.3577
▁1928:	-10.3581
ానీ	-10.3587
▁వార్	-10.3592
ాధికారి	-10.3596
▁నాటు	-10.3601
▁దేవాలయాలు	-10.3616
▁భూమిని	-10.3617
గీ	-10.3619
తకు	-10.3621
▁సిటీ	-10.3621
ష్య	-10.3622
▁Ra	-10.3624
▁1977:	-10.3625
ష్టి	-10.3625
చక్ర	-10.3625
▁1992:	-10.3628
▁గుట్ట	-10.363
▁భాగాన్ని	-10.3631
hi	-10.3631
▁తీయ	-10.3637
త్వము	-10.365
▁సరిహద్దులో	-10.3657
▁74	-10.3658
▁అశోక	-10.3661
్యత	-10.3664
▁మార్గాల	-10.3666
▁ఆమెకు	-10.3666
▁అర్జున	-10.3667
▁పాక్	-10.3667
ుకుంటారు	-10.3668
▁for	-10.3679
▁హిందువుల	-10.3681
▁రూపాయలు	-10.3681
▁ఉదా	-10.3684
సభ్య	-10.3688
ధన	-10.3692
గుడి	-10.3702
▁వ్యవహారాల	-10.3704
▁కార్యాలయ	-10.3707
▁శకం	-10.3708
▁కనుగొన్న	-10.3709
▁మాటలు	-10.371
క్షర	-10.3711
లాండ్	-10.3715
▁భోగ	-10.3715
యాత్ర	-10.3718
▁16:	-10.3719
లపల్లి	-10.3719
▁నగరాలు	-10.3721
▁నదిని	-10.3724
▁వెల్	-10.3731
▁గె	-10.3732
▁కందుకూరు	-10.3738
▁భూకంపం	-10.3738
▁సుప్రీంకోర్టు	-10.3738
▁ఉపాధి	-10.3738
▁కందుకూరి	-10.3738
▁ఛందస్సు	-10.3738
▁తీర్పు	-10.3738
▁నటీమణి	-10.3738
▁పేరిట	-10.3739
▁ఆధిక్యత	-10.3741
▁చేస్తే	-10.3741
▁చర్మ	-10.3742
▁వ్రాశాడు	-10.3742
▁రాధాకృష్ణన్	-10.3747
▁మఠం	-10.3748
5%	-10.3748
▁పేర్కొన్నారు	-10.3749
▁పరిషత్	-10.3752
▁అదన	-10.3756
కింగ్	-10.3757
▁విజయవంతంగా	-10.376
▁నిలయం	-10.3761
▁పిలువబడే	-10.3761
▁సంస్కృతంలో	-10.3763
▁పుల్ల	-10.3775
సాహిత్య	-10.3781
వేశ	-10.3782
▁అంకితం	-10.3786
▁కళాశాలలో	-10.3786
▁పొందాయి	-10.379
▁54	-10.3792
▁జంట	-10.3793
వాడి	-10.3796
▁b	-10.38
ng	-10.3801
హు	-10.3804
▁కంప	-10.3805
▁63	-10.3812
▁సమాజంలో	-10.3814
▁సంప్రదాయం	-10.3816
▁చూస్త	-10.3816
▁దుర్గా	-10.3817
తనం	-10.3818
ుకోవడానికి	-10.3821
▁రాసి	-10.3828
▁మట్ట	-10.383
▁విభజించి	-10.3833
▁లక్షలు	-10.3834
▁కొనసాగింద	-10.3839
▁అభిప్రాయ	-10.384
▁హస్త	-10.384
▁శ్రీశైల	-10.3841
వర్మ	-10.3851
కుమారి	-10.3867
▁రాక	-10.387
నాయకుని	-10.3874
▁విమర్శ	-10.3882
▁రాఘవ	-10.3885
▁నగరాలలో	-10.3885
ve	-10.3888
▁నర	-10.3889
▁తీరాన	-10.3891
▁చెప్పవచ్చు	-10.3895
వేత్త	-10.39
▁పండ్ల	-10.3902
స్థానం	-10.3903
oc	-10.3904
▁నివాసం	-10.3905
దృశ్య	-10.3926
స్థాయి	-10.3927
▁శంకర్	-10.3927
▁ఆంధ్రుల	-10.3943
స్థాన్	-10.3944
▁దళ	-10.3944
▁శీతాకాల	-10.3946
▁ఆందోళన	-10.3946
▁ఊరేగింపు	-10.3946
▁ప్రోత్సహించ	-10.3946
▁అనుగుణంగా	-10.3946
▁ప్రొద్దుటూరు	-10.3946
▁మిగతా	-10.3946
▁సవరణ	-10.3946
▁ఆఫ్రికా	-10.3946
▁హర్యానా	-10.3946
▁జీర్ణ	-10.3946
▁సదస్సు	-10.3946
▁బియ్యం	-10.3946
▁పోరాటంలో	-10.3948
▁మధ్యప్రదేశ్	-10.3949
▁విరమణ	-10.395
▁శ్రీనివాసరావు	-10.3951
▁గ్రేడ్	-10.3953
▁అంతటా	-10.3953
▁1916	-10.3955
▁విముక్తి	-10.3956
▁ఉండేవాడు	-10.3956
▁కొమ్మ	-10.3956
▁వెండి	-10.3957
▁పుస్తకాల	-10.3957
▁ఢిల్లీలో	-10.3958
▁గుండె	-10.3961
▁పనిచేస్తున్న	-10.3971
▁మాటల	-10.3974
▁ఆవు	-10.3978
ాలంకారం	-10.3978
▁యోగి	-10.3981
▁ఒకడు	-10.3985
మూల	-10.3987
▁పంచాయతీకి	-10.399
▁1924:	-10.399
▁మీర్	-10.3991
G	-10.3991
▁రెడ్	-10.3996
▁రాజమహేంద్రవరం	-10.4002
ంటాయి	-10.4003
స్టా	-10.4004
బట్టి	-10.4004
▁నాకు	-10.4007
సంస్థ	-10.4016
▁గ్రంథాలు	-10.4021
యాన	-10.4023
▁1966:	-10.4025
-3	-10.4031
▁72	-10.4032
▁షిప్	-10.4038
▁బ్లాగుల	-10.4039
▁1979:	-10.4042
▁అంశాలు	-10.4047
▁ఎండ	-10.405
▁అంట	-10.405
▁స్వామివారికి	-10.4052
మునందు	-10.4052
▁అడవుల	-10.4058
▁దీనితో	-10.4064
▁పొర	-10.4066
▁భాగమై	-10.4076
▁పాటించ	-10.4078
▁సమావేశ	-10.408
▁జంతువుల	-10.4082
▁ఊర	-10.4083
▁చిత్త	-10.4084
▁1981	-10.4087
▁మేక	-10.4088
-1	-10.4088
ేశ్వరస్వామి	-10.4089
పోయారు	-10.4089
▁కర్ర	-10.4098
ాబ్	-10.4102
ేశ్వరస్వామివారి	-10.4103
▁బాగు	-10.4104
▁కార్యదర్శి	-10.4106
చల	-10.4106
ary	-10.4108
పోయాయి	-10.4109
▁శాతవాహనుల	-10.4117
▁విన	-10.4119
▁పేజీ	-10.4121
▁600	-10.4125
▁నిర	-10.4126
▁విధ	-10.4126
-15	-10.4131
▁చోటు	-10.4131
▁పోయింది	-10.4132
పాలన	-10.4134
▁కుమారులు	-10.4136
నూరు	-10.4138
▁తెలుగువారి	-10.4139
థ్	-10.4142
▁యుగ	-10.4147
▁శరీర	-10.4148
▁కళాకారిణి	-10.4157
▁దాశరథి	-10.4157
▁పోలవరం	-10.4157
▁రీసెర్చ్	-10.4157
▁చమురు	-10.4158
▁వ్యాపారవేత్త	-10.4158
▁పద్మశ్రీ	-10.4159
▁ఇటువంటి	-10.416
▁సంస్కృతాంధ్ర	-10.4161
▁అందిస్తుంది	-10.4161
▁నరసింహారెడ్డి	-10.4161
▁ప్రత్తి	-10.4163
▁గాంచిన	-10.4167
▁ఐరోపా	-10.4168
ారా	-10.417
▁నిద్ర	-10.417
▁పార్లమెంట్	-10.4174
▁పరిపాలించారు	-10.4174
▁మతాల	-10.4178
▁మగళూరు	-10.4178
▁వాళ్ళ	-10.4179
▁ఇస్తారు	-10.418
▁గ్రామాన్ని	-10.4184
▁విషయాన్ని	-10.4188
▁స్వేచ్ఛ	-10.4192
వేసి	-10.4195
▁మంచు	-10.4202
▁లెక్క	-10.4203
▁బడి	-10.4203
▁క్రీడ	-10.4205
.5%	-10.4205
▁చుట్టు	-10.421
▁పదవికి	-10.4211
▁దాత	-10.4211
తీర	-10.4213
▁లక్ష	-10.4215
ోత్సవం	-10.4221
▁జన్మించిన	-10.4228
పెట్టి	-10.4232
సిద్ధ	-10.4233
▁విద్యార్థులకు	-10.4238
▁పడిన	-10.4239
▁వైస్	-10.4239
▁66	-10.424
▁చిక్క	-10.4245
▁రంగనాథ	-10.425
▁పర్వతాలు	-10.4254
▁వేగ	-10.4257
న్నట్లు	-10.426
క్కి	-10.4261
▁తీసుకో	-10.4262
బడ్డారు	-10.4263
ోత్సవ	-10.4267
ిస్	-10.4267
▁సిద్ద	-10.4269
▁బ్యా	-10.4272
▁కర్త	-10.4272
▁సమస్యల	-10.4272
వాళ్ళు	-10.4274
▁నరసింహారావు	-10.4276
▁రచయితల	-10.4277
▁సంఘాల	-10.4278
▁స్థలాలు	-10.4281
▁రచించి	-10.4283
పల	-10.4284
▁సంపాదించి	-10.4286
▁39	-10.4293
▁నమ్మకం	-10.4298
▁సృష్టి	-10.4299
్వా	-10.43
▁విని	-10.4301
ోద్యమ	-10.4306
▁డాలర్ల	-10.4309
▁సంప్రదాయాల	-10.431
▁గోడల	-10.4311
మెంట్	-10.4312
▁సాగించ	-10.4314
స్కో	-10.4317
▁ముని	-10.4319
▁ఈస్ట	-10.4319
వాని	-10.4321
చెంద	-10.4324
▁రథ	-10.4326
▁మాల	-10.4326
▁ఆమోదించ	-10.433
లింగ్	-10.433
ెడి	-10.4338
▁పద్యాల	-10.434
ప్పి	-10.4343
▁మత్స్య	-10.4343
▁ఆధారిత	-10.4344
▁అధికం	-10.4344
నందున	-10.4351
▁పోరాడ	-10.4359
▁అమెరికాకు	-10.4359
▁ఆకాశ	-10.4359
బట్ట	-10.436
▁మార్గాలు	-10.4364
ఖండ	-10.437
▁కనుగొన	-10.4371
.2017)	-10.4373
▁పొడవైన	-10.4373
▁పీఠభూమి	-10.4373
▁అవినీతి	-10.4373
▁విలియం	-10.4373
▁జర్మన్	-10.4373
▁పడమర	-10.4374
▁ధ్రువ	-10.4374
▁గ్రహించి	-10.4374
▁వ్యాప్తి	-10.4374
▁అధిపతి	-10.4374
▁నాయకురాలు	-10.4374
.2013)	-10.4375
▁హాస్యనటుడు	-10.4375
▁రాబర్ట్	-10.4375
▁శర	-10.4377
▁విభజించబడింది	-10.4379
▁మాచర్ల	-10.4379
▁హసన్	-10.4379
▁శక్తివంతమైన	-10.4381
▁కారు	-10.4381
▁హోదా	-10.4382
▁దిక్కు	-10.4382
▁సరైన	-10.4382
▁1900	-10.4383
ాబాదు	-10.4383
▁రాయి	-10.4383
▁బర్మా	-10.4384
▁చిట్ట	-10.4386
▁విభజించారు	-10.4387
భేద	-10.4387
▁పొంది	-10.4389
▁రచించారు	-10.439
▁పండించ	-10.4392
▁దీవి	-10.4393
▁ప్రకటించాడు	-10.4394
▁గంట	-10.4397
▁బస	-10.4397
▁న్యూయార్క్	-10.4398
▁వార్తా	-10.4398
గీత	-10.4399
▁రహ	-10.44
▁పంచాయితీ	-10.4401
ర్యా	-10.4402
సెస్	-10.4404
ుతోంది	-10.4408
▁విగ్రహాన్ని	-10.4411
▁శాసనాల	-10.4418
▁భౌగోళికంగా	-10.442
▁అంబేద్కర్	-10.442
▁నిలువ	-10.4422
▁బిడ్డ	-10.4423
▁పురుష	-10.4425
రాజ్య	-10.443
ుంటాయి	-10.4431
▁పోత	-10.4432
సభ	-10.4433
▁1957:	-10.4435
దేశము	-10.4435
పెద్ద	-10.4438
▁క్రీడా	-10.444
▁పోయి	-10.4447
-16	-10.4451
▁కోల	-10.4451
▁1978:	-10.4456
క్షన్	-10.4461
▁స్ట్ర	-10.4461
▁పిల్ల	-10.4463
▁మనము	-10.4468
▁తీరం	-10.4468
▁పరిపాలించ	-10.4472
▁నిర్మించబడిన	-10.4474
▁వారే	-10.4477
ెల్	-10.448
▁దానం	-10.4487
▁సారి	-10.4492
▁విభాగాల	-10.4494
▁వహించి	-10.4496
▁పర్వతాల	-10.4501
▁రాగి	-10.4521
▁పర్వ	-10.4521
▁ప్రవేశించి	-10.4522
▁విశ్వాస	-10.4523
▁1996	-10.4525
▁వజ్ర	-10.4529
▁విష	-10.4534
▁నర్స	-10.4534
▁తీర్మాన	-10.4538
▁గుప్త	-10.4543
▁ఓం	-10.4545
భద్ర	-10.4549
రియన్	-10.4555
వరకూ	-10.4556
▁వర్మ	-10.4561
▁నీల	-10.4561
▁చివరికి	-10.4567
▁నున్న	-10.4583
▁బానిస	-10.4585
▁కోట్లు	-10.4587
ద్వార	-10.459
▁తాత్కాలిక	-10.4594
▁రాజకీయనాయకుడు	-10.4594
▁కిన్నెరసాని	-10.4594
▁అస్సామీ	-10.4594
▁ఆజాద్	-10.4595
▁వేషం	-10.4595
▁శంఖ	-10.4595
▁సూర్యనారాయణ	-10.4596
▁గజపతి	-10.4596
▁ఉత్తరప్రదేశ్	-10.4597
▁మహాసభ	-10.4598
▁మరణానంతరం	-10.4601
▁1905	-10.4601
▁రామాలయం	-10.4601
▁కృష్ణమూర్తి	-10.4602
రోజుల	-10.4603
▁పేర్కొన్నాడు	-10.4603
▁అందుకున్నాడు	-10.4603
నాల	-10.4604
▁గంటలకు	-10.4606
ist	-10.4607
▁కనుగొన్నాడు	-10.4608
▁ఇంగ్లీషులో	-10.4609
▁రౌ	-10.4609
▁పెద్దది	-10.4612
▁మధ్యకాలంలో	-10.4612
▁ఏదో	-10.4612
▁చండీగఢ్	-10.4612
▁ఎడమ	-10.4613
▁తాళ	-10.4615
▁వస్తు	-10.462
రాయలు	-10.4626
▁కాలేదు	-10.4627
▁కాలువలు	-10.4627
▁నరసాపురం	-10.4628
ులై	-10.4629
▁తీర్థ	-10.463
▁దాడుల	-10.4637
▁చరిత్రకారులు	-10.4638
గన్	-10.464
▁దర్శనం	-10.4644
శేష	-10.465
▁పెర	-10.4651
దక్షిణ	-10.4651
▁షో	-10.4653
తెలంగాణ	-10.4654
హాన్	-10.4655
లేదని	-10.4658
ములతో	-10.4658
▁గుర్	-10.4659
▁95	-10.4659
▁ప్రతిపాదించ	-10.4668
▁ప్రో	-10.467
1936)	-10.4674
▁అవతారం	-10.4675
▁మొదల	-10.4676
▁చెన్న	-10.4682
▁రామన్	-10.469
▁యందు	-10.4695
▁విషయాలు	-10.4695
▁కార్మిక	-10.4696
భారతదేశం	-10.4696
▁వాద	-10.4696
▁నిండి	-10.4698
▁రచించ	-10.4702
▁బాబా	-10.4704
ానని	-10.4709
▁సంస్కృతుల	-10.4711
-9	-10.4712
▁చోట్ల	-10.4713
▁అనువాదం	-10.4717
▁చెబుత	-10.4728
▁పున	-10.473
▁పద్ధతిలో	-10.4735
▁పోటీలు	-10.4735
▁పిన్	-10.4736
▁ప్రపంచం	-10.4738
▁తమ్మ	-10.4738
▁పుణ్యక్షేత్రం	-10.4745
భాషా	-10.4745
సముద్ర	-10.4747
▁శతాబ్ధ	-10.4747
-8	-10.4748
▁మునుప	-10.4752
▁1939	-10.4753
▁దిశలో	-10.4755
▁కొడ	-10.4755
▁ఎప్పుడ	-10.476
▁సముద్రము	-10.4763
▁గురై	-10.4764
తృ	-10.477
▁పేరును	-10.4773
▁కారణ	-10.4776
▁చేసుకో	-10.4778
▁మాల్	-10.4783
▁గే	-10.4785
▁కంటి	-10.4787
▁ఉంచి	-10.4788
ితమైన	-10.479
▁దిగి	-10.479
▁చేర్చి	-10.4793
ంచె	-10.4797
▁బేర	-10.4804
ుతున్నాయి	-10.4813
▁విస్తార	-10.4814
▁తీసుకు	-10.4816
▁1988	-10.4817
▁వాస్తవ	-10.4817
▁కాళ్ళ	-10.4819
▁క్వా	-10.4819
▁డబ్బింగ్	-10.482
▁సుప్రీం	-10.482
▁కమిషన్	-10.482
.1922)	-10.482
▁చక్రవర్తుల	-10.482
▁పటేల్	-10.482
▁నేపాలీ	-10.4821
▁కంభం	-10.4821
▁శోభ	-10.4821
▁నెలకొన్న	-10.4821
▁అఖిల	-10.4821
ేసి	-10.4821
▁కేసీఆర్	-10.4821
BN	-10.4822
▁అనువాదకుడు	-10.4822
▁ప్లా	-10.4822
▁సినీనటి	-10.4823
▁వివరణ	-10.4824
మల్ల	-10.4825
▁రొ	-10.4826
▁ద్వి	-10.4826
ిండియా	-10.4826
రంగంలో	-10.4828
పత్రం	-10.483
▁చిక్కుడు	-10.4831
▁దట్ట	-10.4832
▁అద్భుతమైన	-10.4834
▁ఉంటూ	-10.4835
▁అదనంగా	-10.4835
▁ఖమ్మంలో	-10.4835
▁ఇంట్లో	-10.4835
చరణ	-10.4836
▁ప్రయత్నాలు	-10.4841
▁వ్యయంతో	-10.4842
▁గూర్చి	-10.4843
▁నడుమ	-10.4844
▁చేసేవారు	-10.4844
▁గూడా	-10.4846
▁An	-10.4848
డైన	-10.4848
▁ప్రాంతపు	-10.4849
పోవడం	-10.485
ందర	-10.485
▁4:	-10.4851
మిన్	-10.4852
▁విధాన	-10.4854
-5	-10.4861
▁కళాకారులు	-10.4864
▁250	-10.4866
▁సాగర	-10.4867
▁పరిపాలనలో	-10.4868
▁1927:	-10.4869
శ్వ	-10.4869
స్థానంలో	-10.487
▁ప్రాణాల	-10.4871
▁సారిగా	-10.4877
▁పక్షి	-10.4878
రూపం	-10.4878
▁చెరకు	-10.488
▁దశాబ్దాల	-10.488
▁సహాయంతో	-10.4881
ేశ్వర్	-10.4881
▁భాషకు	-10.4881
▁సాయం	-10.4886
ంపల్లి	-10.489
▁ప్రతిష్ఠించ	-10.4897
▁వరాహ	-10.4904
యుండును	-10.4907
▁అఫ్	-10.4907
▁వేదాంత	-10.4916
రైన	-10.4916
బడ్డ	-10.4917
▁కలప	-10.4919
▁వ్యాసాలు	-10.4921
్రా	-10.4921
▁62	-10.4922
వాసి	-10.4924
▁నీలం	-10.4931
గంగ	-10.4939
▁పప్పు	-10.494
▁79	-10.4943
▁కాళ	-10.4946
▁ఇచ్చ	-10.495
▁తెలుప	-10.4952
▁తెచ్చి	-10.4966
▁స్వీకరించి	-10.4968
▁కుక్క	-10.4969
▁వివాదం	-10.497
▁వర్గాలు	-10.4971
▁సహకారంతో	-10.4971
▁కలశ	-10.4972
థర్	-10.4972
▁రసాయనం	-10.4973
ay	-10.4973
ut	-10.4974
▁సింహాసనం	-10.4974
tion	-10.4977
▁రక్షించ	-10.4982
స్తాడు	-10.4983
▁దేశాన్ని	-10.4983
▁అధికారుల	-10.4984
రాశి	-10.4986
▁భాషల్లో	-10.4988
పట్ట	-10.4989
▁మండపం	-10.4992
▁మోహ	-10.4993
▁పనికి	-10.4993
▁పాము	-10.4993
▁వడ	-10.4994
▁శివలింగ	-10.4999
▁రూపు	-10.5
▁పైకి	-10.5002
రామచంద్ర	-10.5002
▁మంగ	-10.5004
▁విడిపోయి	-10.5007
క్యూ	-10.5008
▁చాట	-10.501
▁సీమ	-10.5011
▁సమా	-10.5011
▁ఫ్ర	-10.5012
▁ప్రవేశం	-10.5013
▁జరుగ	-10.5016
లమ్మ	-10.5019
టరీ	-10.5021
▁నృసింహ	-10.5023
▁వాహనం	-10.5025
ిస్తాడు	-10.5028
▁సరిహద్దుల	-10.5028
▁వేమ	-10.5029
ంగల్	-10.5029
▁సదాశివ	-10.5038
లాగా	-10.5044
▁ముస్లింలు	-10.5046
▁పేర్కొన	-10.5048
▁అవతారము	-10.5049
▁చారిత్రిక	-10.5052
.2012)	-10.5052
▁ఆకర్షించ	-10.5052
▁గోంగూర	-10.5052
▁దక్షిణాఫ్రికా	-10.5052
▁నిజామాబాద్	-10.5052
▁మద్రాస్	-10.5052
▁బెజవాడ	-10.5052
▁ఐక్యరాజ్యసమితి	-10.5052
▁బొగ్గు	-10.5052
▁కఠిన	-10.5052
▁ఓడరేవు	-10.5052
▁దినపత్రిక	-10.5052
▁వినుకొండ	-10.5052
▁నాగార్జునసాగర్	-10.5052
▁పనిచేసే	-10.5052
▁నిరూపించ	-10.5052
▁సురవరం	-10.5053
▁మర్రి	-10.5053
▁ఆకులు	-10.5055
▁సంజీవయ్య	-10.5056
▁సంభవించిన	-10.5056
ేరి	-10.5056
▁గ్రేట్	-10.5057
మనే	-10.5058
▁రోజూ	-10.5059
▁ఇల్లు	-10.5059
▁అటువంటి	-10.506
▁పట	-10.506
▁ఏదైన	-10.5061
▁అందుకున్నారు	-10.5064
▁కొండపల్లి	-10.5064
ప్రస్తుత	-10.5067
▁నివసించే	-10.5068
పరమైన	-10.5068
▁నిపుణులు	-10.507
▁గుత్తి	-10.5071
▁తొండ	-10.5074
▁విభాగంలో	-10.5078
▁బెంగళూరు	-10.5078
▁వేగంగా	-10.508
▁చేసుకుంట	-10.5084
మాత	-10.5096
▁శ్రమ	-10.5099
టము	-10.51
పట్ల	-10.5107
▁కార్యక్రమ	-10.5108
▁కావడంతో	-10.5108
▁విధానాలు	-10.5108
టిల్	-10.5112
▁శివాలయం	-10.5117
న్యా	-10.512
నిర్మాణ	-10.5121
ుకొంట	-10.5121
▁బార్	-10.5123
కరం	-10.5125
▁సంస్కరణ	-10.5126
▁అనుబంధ	-10.5128
▁డై	-10.513
గుంట	-10.5133
▁గ్రంథాల	-10.5143
▁ఇంటికి	-10.5143
▁యుద్ధాల	-10.5145
▁అరుణ	-10.5147
▁చెర	-10.5153
▁మఠ	-10.5165
ge	-10.5167
దట	-10.5172
▁కాకతీయులు	-10.5172
▁దుర్గ	-10.5173
▁సిరి	-10.5177
బాటు	-10.5177
ానంతరం	-10.5179
▁ఎదుర్కొ	-10.518
▁ప్రతిష్ఠా	-10.5181
▁ప్రత్యక్ష	-10.5192
గుర్తించబడుతుంది	-10.5196
▁రాజుగా	-10.5197
▁మెడ	-10.5209
▁కారణాల	-10.521
▁సరళ	-10.5215
ెత్తి	-10.5232
▁అంతర్జాతీయంగా	-10.5234
వచ్చి	-10.5234
▁వ్యక్తుల	-10.5235
▁l	-10.5241
▁మార్క	-10.5241
▁ప్రభువు	-10.5249
▁బీహారు	-10.525
దాసు	-10.5251
▁లోతు	-10.5251
▁పేర్ల	-10.5254
▁వ్యవహరిస్త	-10.5255
▁విర	-10.5255
▁ఎదుర	-10.5256
నటి	-10.5257
▁అన్నారు	-10.5258
ప్రభ	-10.5262
▁విడుదలయ్య	-10.5262
ాసనం	-10.5264
▁బెల్	-10.5268
ట్రా	-10.5269
▁భాగాల	-10.5274
ాచార్య	-10.5276
భక్త	-10.5277
ప్రియ	-10.528
▁ప్రబల	-10.5282
▁తెలిసిన	-10.5285
▁అభయారణ్యం	-10.5288
▁డివిజను	-10.5288
▁మిక్కిలి	-10.5288
.1908)	-10.5288
.1927)	-10.5288
▁జేమ్స్	-10.5288
▁వెలుపల	-10.5288
▁సంపన్న	-10.5288
▁సందేహ	-10.5288
▁చెందుతున్న	-10.5289
▁దాద్రా	-10.5289
▁ఖాళీ	-10.5289
నెల్సన్	-10.5289
▁రూపాంతరం	-10.5289
▁రంగారావు	-10.529
▁దళిత	-10.5291
▁పత్రికలు	-10.5291
▁పాడిన	-10.5291
▁వేలాది	-10.5292
▁టిప్పు	-10.5294
భూషణ	-10.5294
▁పార్టీలో	-10.5296
▁ఎత్తి	-10.5297
▁పౌరాణిక	-10.5303
▁శ్రీమతి	-10.5304
▁మొహ	-10.5305
▁విధానాన్ని	-10.5307
▁1890	-10.5308
వతేదీ	-10.5308
▁తరచుగా	-10.531
▁చేసుకొని	-10.5313
▁క్ల	-10.5316
▁కావ్యం	-10.5321
un	-10.5324
తొ	-10.5327
▁శ్రద్ధ	-10.5329
▁స్తంభాల	-10.5332
▁అడ్డ	-10.5337
▁దిన	-10.5337
▁గుర్తించారు	-10.5338
▁ప్రారంభించ	-10.5338
▁భయ	-10.5342
▁తానే	-10.5348
▁ప్రారంభించి	-10.5349
▁వాళ్ళు	-10.5355
▁పురస్కారాలు	-10.5356
గ్రహం	-10.536
K	-10.5364
▁1988:	-10.5366
▁తిమ్మ	-10.5366
నటుడు	-10.5366
▁ముద్రించ	-10.5368
▁తరహా	-10.537
▁శ్రీనివాస్	-10.5372
సంపద	-10.5373
▁సంస్కరణలు	-10.5373
పథ	-10.5375
జిల్లా	-10.5379
మండల	-10.5379
▁విహార	-10.538
▁కాస్త	-10.5381
▁లోపలి	-10.5398
▁లక్ష్మి	-10.5401
▁గ్రహ	-10.5403
▁సైన్యము	-10.5404
▁పట్టా	-10.5414
ేశాడు	-10.5416
వాణి	-10.5425
ుచుండ	-10.5425
దిన	-10.5426
po	-10.5426
▁నియోజకవర్గ	-10.5429
▁కీలక	-10.5435
కారి	-10.5436
దశ	-10.5436
ములకు	-10.5438
▁పక్క	-10.5442
▁ధరించ	-10.5448
▁ఏళ్ళ	-10.545
ca	-10.5457
▁సాయి	-10.5462
▁ధ్యాన	-10.5467
▁బిలియన్ల	-10.5468
▁నెలలో	-10.5469
▁నారాయణ్	-10.547
మంచి	-10.5471
▁స్టా	-10.5474
▁గడ్డ	-10.5474
▁నిర్ణయం	-10.5477
▁వీధిలో	-10.5478
▁మల్లికార్జున	-10.548
▁78	-10.548
▁రావి	-10.5488
▁మెట్ట	-10.5492
▁మహాభారతం	-10.5493
▁అంతర	-10.5496
ఖి	-10.5501
▁యాదవ	-10.5502
▁సముద్రతీరం	-10.5504
▁స్వర	-10.5505
▁పాఠ	-10.5505
▁ప్రారంభించిన	-10.5509
లేదా	-10.5513
▁పంపించ	-10.5517
ord	-10.5518
▁యంత్ర	-10.5519
▁గణనీయ	-10.5519
దనీ	-10.5523
▁పూస	-10.5524
▁సినిమాలలో	-10.5525
శేఖర	-10.5525
ేరు	-10.5526
్రీ	-10.5526
ెడు	-10.5528
▁తీర్చిదిద్ద	-10.553
▁చదవ	-10.5531
▁అభ్యసించ	-10.5531
▁థియేటర్	-10.5531
▁నిడదవోలు	-10.5531
▁ప్రాతినిధ్యం	-10.5531
▁ఇరవై	-10.5531
▁ఆచంట	-10.5531
▁బ్రహ్మాండ	-10.5531
▁హీరో	-10.5531
▁ప్రతాపరెడ్డి	-10.5531
▁నామకరణ	-10.5532
▁సివిల్	-10.5532
▁మతపరమైన	-10.5532
▁రామదాసు	-10.5533
▁అభ్యుదయ	-10.5534
▁ఉద్భవించింది	-10.5535
▁ప్రొఫెసర్	-10.5536
▁దంపతులకు	-10.5548
▁దక్షిణాది	-10.5548
▁తెలుస్తోంద	-10.5549
▁సేన	-10.555
ాధిపతి	-10.5552
స్క్	-10.5554
భాగంలో	-10.5556
▁సముద్రతీర	-10.5559
వెల్	-10.5567
▁గ్రీకు	-10.5571
▁చెందాయి	-10.5575
▁73	-10.5576
▁వాల్	-10.558
▁వడ్డ	-10.5581
▁దంత	-10.5582
గర	-10.5583
▁రామరాయలు	-10.5586
▁ఎన్ని	-10.5592
లిక	-10.5595
ానికే	-10.5597
ించడానికి	-10.5598
▁దానితో	-10.5599
▁చెట్ల	-10.5603
▁వ్యవహార	-10.5604
నియన్	-10.5605
▁కేశవ	-10.5608
▁అధి	-10.5611
తరువాత	-10.5613
కన్నడ	-10.5614
▁ఆగ్నేయ	-10.5616
రెండు	-10.5619
▁సాగింది	-10.5619
▁69	-10.5626
దైన	-10.5627
చోట	-10.5633
పోయాడు	-10.5633
▁దర్	-10.5634
భర	-10.5638
▁ఆకర్షణ	-10.5639
శంకర్	-10.5651
▁2020:	-10.5651
▁చెప్పారు	-10.5652
▁బలం	-10.5665
▁...	-10.5667
శెట్టి	-10.5671
▁నిర్మాణాలు	-10.5672
▁దండెత్తి	-10.5676
▁వర్గం	-10.5676
నదీ	-10.5686
▁ధార	-10.5689
▁భుజ	-10.569
▁బుద్ధ	-10.5693
▁పద్యము	-10.571
▁దేవుని	-10.5714
కరమైన	-10.5716
▁రజ	-10.5719
▁తీసి	-10.572
▁పెట్టిన	-10.5731
▁గిరిజనుల	-10.5736
▁ఊహించ	-10.5741
▁త్రాగ	-10.5745
▁అధీనంలో	-10.5747
ప్రకాశ్	-10.575
▁మాతృ	-10.5752
▁నేర్ప	-10.5754
▁సందర్భ	-10.5754
కృతి	-10.5756
▁U	-10.5756
▁అడ్డు	-10.5764
▁మధు	-10.5765
▁ముగ్గు	-10.5765
ర్క్	-10.5769
▁బ్రా	-10.5775
ిణి	-10.5775
వాల్	-10.5777
▁అత్యుత్తమ	-10.5779
▁ఆయుర్వేద	-10.5779
▁ఒడిశా	-10.5779
▁చారిత్రాత్మక	-10.5779
▁చిలకలూరిపేట	-10.5779
▁బళ్ళారి	-10.5779
▁సమైక్య	-10.5779
▁సరోజినీ	-10.5779
▁పూజయామి	-10.5779
.1925)	-10.5779
▁దక్షిణాసియా	-10.5779
▁టెన్నిస్	-10.5779
▁తలసరి	-10.5779
▁ఇరాక్	-10.5779
▁తరపున	-10.5779
▁జార్జ్	-10.5779
▁సూక్ష్మ	-10.578
▁ఒకటైన	-10.578
▁తన్నో	-10.578
▁పనిచేస్తుంది	-10.578
▁శివరాత్రి	-10.5781
▁హైదరాబాదుకు	-10.5781
▁పితామహుడు	-10.5782
▁యూనిట్	-10.5783
▁అసఫ్	-10.5783
▁విలువైన	-10.5784
▁జంతు	-10.5784
▁1902	-10.5787
▁ప్రక్క	-10.5788
▁రేఖ	-10.5788
▁చదువ	-10.5792
▁ఇంటర్	-10.5793
▁ఆర్మీ	-10.5793
▁1857	-10.5795
▁కల్లూరు	-10.5796
▁విలాస	-10.5797
▁g	-10.5797
▁నేపథ్యంలో	-10.5798
▁నాలుగవ	-10.58
చేసిన	-10.5804
ఖాన్	-10.5807
▁తిరుగు	-10.5808
▁త్యాగరాజు	-10.5809
▁ఏర్పాటుచేస	-10.5812
▁1830	-10.5812
▁తొక్క	-10.5813
ందలి	-10.5813
▁హాజర	-10.5816
▁సమస్త	-10.5817
▁ప్రసారాలు	-10.5823
▁స్నానం	-10.5825
▁ఉన్నప్పటికీ	-10.5827
▁కాంతి	-10.5827
న్నే	-10.5827
ుచున్నవి	-10.5832
▁2016,	-10.5836
▁నగరాల	-10.5845
▁1993:	-10.5846
▁అంతర్	-10.5847
రాగ	-10.5855
▁పండ్లు	-10.5855
▁నిరంతర	-10.5857
▁లక్షణాల	-10.586
▁మొక్కల	-10.5862
▁84	-10.5863
▁1996:	-10.5863
పాట	-10.5864
ాలనే	-10.5865
▁ఆరంభం	-10.587
▁వీరుడు	-10.5883
▁1995:	-10.5886
రిన్	-10.5887
▁ద్వీపాలు	-10.5889
▁హే	-10.5889
▁పురాణాల	-10.5896
▁కృష్ణుని	-10.5898
▁ముడి	-10.5902
▁సైన్య	-10.5908
ారో	-10.5911
ార్ధం	-10.5922
వర్తి	-10.5923
▁అధ్యయన	-10.5924
▁రంగాలలో	-10.5929
▁పట్టణాల	-10.5933
▁ఉపయోగించే	-10.5934
▁కనబడ	-10.5941
▁పనిచేసి	-10.5942
ండీ	-10.5943
▁జరుపుకు	-10.5956
▁ప్రవాహం	-10.5959
▁మండప	-10.5963
ేటప్పుడు	-10.5964
▁సంతానం	-10.5965
టై	-10.5966
▁1987	-10.5968
▁లెక్కలు	-10.5968
%),	-10.597
▁ప్రెసిడెన్సీలో	-10.5973
▁చీ	-10.5974
▁దర్శి	-10.5976
▁మారిన	-10.598
దేవత	-10.598
▁కష్ట	-10.5983
▁సూత్ర	-10.5983
▁లక్ష్మణ	-10.5986
▁ముద్దు	-10.5987
చారు	-10.5989
▁కుంద	-10.5989
▁సన్	-10.5991
ప్పుడే	-10.5992
▁దూరంగా	-10.5994
▁నిలిపి	-10.5995
▁108	-10.5996
వంటి	-10.5998
▁కన్నుల	-10.6006
▁పర్వతం	-10.6007
ానిక	-10.6009
▁రూపం	-10.601
▁స్వర్ణ	-10.6014
▁వర్తక	-10.6019
ూన్	-10.6019
▁(10	-10.602
ధర్	-10.6024
▁బోధన	-10.6028
▁కలహ	-10.6032
▁వీరబ్రహ్మేంద్ర	-10.6034
▁గోధుమ	-10.6034
▁ప్రామాణిక	-10.6034
▁యూనివర్సిటీ	-10.6034
▁విమోచన	-10.6034
▁జమ్మలమడుగు	-10.6034
▁ఫ్రాన్స్	-10.6034
▁కేటాయించ	-10.6034
.1918)	-10.6034
▁కొంచెం	-10.6034
▁సాళువ	-10.6034
▁ఆదరణ	-10.6034
▁గజపతుల	-10.6034
▁నంబరు	-10.6034
దుపరి	-10.6034
▁అభయ	-10.6034
▁బహమనీ	-10.6034
▁సేకరణ	-10.6035
▁గ్యాస్	-10.6035
▁వినిపించ	-10.6035
▁భద్రాద్రి	-10.6035
▁నాటకకర్త	-10.6037
▁అమలులోకి	-10.6038
▁గ్రామోత్సవం	-10.6039
స్తున్నాయి	-10.6041
▁ఎంపీ	-10.6041
▁సింధూ	-10.6042
వూరు	-10.6042
▁వీరేశలింగం	-10.6042
మన్న	-10.6043
▁వృత్త	-10.6045
▁1913	-10.6045
▁మొదట్లో	-10.6047
▁బహుముఖ	-10.6048
ధాన్య	-10.605
-6	-10.6053
▁స్ఫూర్తి	-10.6055
ించబడింది	-10.6055
▁విస్తృతంగా	-10.6058
▁మొట్ట	-10.6063
మంటే	-10.6063
▁నిపుణుడు	-10.6063
▁జైలులో	-10.6064
▁కుండ	-10.6065
▁షె	-10.6067
▁ప్రదేశము	-10.6068
▁కపిల	-10.6074
▁దక్కను	-10.6074
▁నిధుల	-10.6077
▁ఆన్	-10.6079
▁పతన	-10.6079
▁పెట్టాడు	-10.6086
ంచాడు	-10.6086
▁దర్గా	-10.6091
▁ఆశ్రమ	-10.6093
▁అబ్బ	-10.6094
▁II	-10.6094
▁మాయ	-10.6095
▁మేఘ	-10.6097
▁విఫల	-10.6099
▁హేమ	-10.6099
శంకర	-10.6101
ాన్నీ	-10.6101
▁విశాలమైన	-10.6102
సూచి	-10.6102
మిల్లి	-10.6108
▁దర్శన	-10.6111
▁పెద్దన	-10.6112
▁తనను	-10.6113
వారే	-10.6117
▁కలిపే	-10.6121
ాల్సి	-10.6122
▁ఉల్	-10.6126
▁నేత్ర	-10.6127
▁లింగం	-10.6127
ప్రధాన	-10.6129
W	-10.6129
నరసింహ	-10.6129
రించి	-10.6129
వంశ	-10.6131
▁బయటకు	-10.6132
తోనూ	-10.6135
▁తత్	-10.6137
▁విశిష్ట	-10.6141
▁సమావేశంలో	-10.6142
ఆంగ్లం	-10.6149
▁నిషేధ	-10.615
▁క్వ	-10.6151
▁ఉద్యోగుల	-10.6151
▁120	-10.6152
▁ఆంగ్లేయుల	-10.6152
రాదు	-10.6169
ion	-10.6171
▁భూముల	-10.6189
ాలైన	-10.6191
▁సౌకర్యాల	-10.6195
▁వాగు	-10.6197
▁ప్రశంస	-10.6197
మార్గం	-10.6198
▁పనిచేయ	-10.6202
కళ	-10.6203
▁సుర	-10.6203
▁జరుపుకున్న	-10.6204
చిత	-10.6204
▁టో	-10.6208
▁సూర	-10.6208
నిక్	-10.6209
స్వాతంత్ర్యోద్యమ	-10.6211
▁చెప్పే	-10.6212
వ్ర	-10.6221
తిన్	-10.6221
తాం	-10.6222
▁భోజన	-10.6223
▁గౌర	-10.6225
▁జరుగు	-10.6226
▁1984	-10.6226
▁దశాబ్ద	-10.6227
▁1957	-10.6227
ెళ్ళ	-10.6229
ru	-10.623
▁పరిశోధనలు	-10.6237
▁కళల	-10.6242
వాలా	-10.6242
▁మైళ్ళ	-10.625
మ్య	-10.6252
▁2004:	-10.6252
జిన్	-10.6255
▁భావించబడుతు	-10.6258
▁శక	-10.6258
రాయల	-10.6259
▁జరుప	-10.6261
▁పరిగణించ	-10.6266
▁పెరుగు	-10.6266
▁ముఖ్యము	-10.6267
▁లతో	-10.6268
▁వ్యయం	-10.6277
▁కాణ	-10.6281
▁82	-10.6282
▁సమావేశం	-10.6282
డెన్	-10.6284
▁నియంత్రించ	-10.6286
▁లక్షణాలు	-10.6286
▁తవ్వ	-10.6289
▁అంతర్వేది	-10.6295
▁ఇంగ్లాండు	-10.6295
▁కాళోజీ	-10.6295
▁క్రీడాకారిణి	-10.6295
▁చుట్టుప్రక్కల	-10.6295
▁న్యూక్లియర్	-10.6295
▁పౌర్ణమి	-10.6295
▁బీజాపూర్	-10.6295
▁స్వీకారం	-10.6295
▁కొండవీడు	-10.6295
.1931)	-10.6295
▁నిరసన	-10.6296
▁ఆఖరి	-10.6296
▁రాశారు	-10.6296
▁గర్భగుడి	-10.6296
▁దీంతో	-10.6296
▁ఎడారి	-10.6296
▁బహుమనీ	-10.6296
▁జెండా	-10.6296
▁హనుమంతరావు	-10.6296
▁పంచతంత్ర	-10.6296
▁బాంబే	-10.6297
▁1904	-10.6298
▁రామకృష్ణారావు	-10.6298
▁మరియూ	-10.6299
▁ప్రాకృత	-10.6299
▁ఇస్త	-10.6299
▁టిబెట్	-10.6299
▁రాజపుత్ర	-10.6301
▁దేహ	-10.6302
దృ	-10.6302
▁జ్ఞాపక	-10.6302
▁మూడో	-10.6303
▁సందర్భంలో	-10.6304
▁శిఖర	-10.6306
యమ్	-10.6308
▁వేరే	-10.6309
▁ప్లే	-10.6309
కలి	-10.6309
ెన్నో	-10.6311
▁అర్హత	-10.6313
▁1895	-10.6313
▁కాంగ్రేసు	-10.6314
▁ఉంటుందని	-10.6315
▁భారతదేశములో	-10.6316
▁సంతకం	-10.6316
ోర్	-10.6316
▁బదులుగా	-10.6317
▁క్రమంలో	-10.6317
ుచూ	-10.6318
▁వహించారు	-10.6318
▁లక్ష్యం	-10.6319
▁క్రైస్తవులు	-10.632
▁భావించి	-10.6324
▁కుటుంబంలో	-10.6328
బెట్ట	-10.6331
అందరికీ	-10.6333
▁అరణ్య	-10.6337
▁భాగస్వామ్యం	-10.6337
▁ఆర్య	-10.6339
▁రాసే	-10.634
▁నీటిలో	-10.6341
ంబుల	-10.6344
స్టీం	-10.6345
కుండ	-10.6345
పడ్డారు	-10.6348
▁చోళులు	-10.6349
▁వెళ్ళారు	-10.6351
▁శాఖల	-10.6352
▁ప్రపంచములో	-10.6364
▁సహస్ర	-10.6368
బడుతున్న	-10.6372
▁ఇటీవలి	-10.6372
▁తెలి	-10.6373
ine	-10.6373
▁అప్పగించ	-10.6375
▁థా	-10.6381
▁ఎవరు	-10.6383
▁పోయిన	-10.6386
ముద్ర	-10.6395
రాయ్	-10.6397
http	-10.6398
మంగళ	-10.6399
వైద్య	-10.6402
▁160	-10.6402
ాలన్న	-10.6405
పెం	-10.6408
▁విశ్వవిద్యాలయాల	-10.6409
▁గుహలు	-10.641
▁శాస్త్రవేత్తలు	-10.6411
▁పాదాల	-10.6413
రాత్రి	-10.6414
వరి	-10.6418
ల్ప	-10.6418
▁వేస	-10.6418
▁53	-10.6419
వరపు	-10.6423
ొట్ట	-10.6425
▁అనేవారు	-10.6426
▁68	-10.6426
దత్త	-10.6427
▁పక్కన	-10.6428
ాధికార	-10.6433
▁సైత	-10.6433
▁వ్యవహరించ	-10.6435
▁అంశ	-10.6436
వెళ్ళ	-10.6438
▁గురి	-10.6446
all	-10.6449
▁సదుపాయాలు	-10.6451
▁కళలు	-10.6452
బొ	-10.6454
▁వచ్చ	-10.6462
ండర్	-10.6462
▁యువత	-10.6463
▁రంగుల	-10.6463
1914	-10.6465
దారి	-10.6466
▁బ్లాగులు	-10.6469
ంజి	-10.6475
▁గాయ	-10.648
యినా	-10.6484
టూ	-10.6486
లేఖ	-10.6489
▁చరిత్రను	-10.649
కొచ్చి	-10.6492
▁కప్ప	-10.6494
▁ఉపయోగించి	-10.6494
▁తోక	-10.6495
900	-10.6496
▁వంశము	-10.6497
▁సద	-10.6498
▁లంక	-10.6499
▁ఉత్పత్తుల	-10.65
చర్	-10.6501
▁కలగ	-10.6503
▁సంస్కృతభాష	-10.6504
▁స్థానాలు	-10.6505
▁కను	-10.6508
లీల	-10.6509
నందు	-10.6511
▁నిర్వహించే	-10.6517
ఖే	-10.6526
▁మొట్టమొదట	-10.6529
ుకొన్నారు	-10.6529
▁బోధ	-10.6529
▁మోస	-10.6529
▁మొదటిసారి	-10.653
▁త్రవ్వ	-10.6534
వొ	-10.6545
టెక్	-10.6545
▁చేయటం	-10.6548
▁125	-10.6549
▁సంబంధించి	-10.6556
▁మీరు	-10.6559
▁వంతు	-10.6559
▁ఉభయ	-10.6564
▁పునరుద్ధరణ	-10.6564
▁శృంగేరి	-10.6564
▁చక్కెర	-10.6564
▁ఝార్ఖండ్	-10.6564
▁తజకిస్థాన్	-10.6564
▁నివాసగృహాలు	-10.6564
▁భట్టిప్రోలు	-10.6564
▁మొరార్జీ	-10.6564
.1921)	-10.6564
.1923)	-10.6564
.1933)	-10.6564
▁సంహరించ	-10.6564
▁చైనీయుల	-10.6564
▁వ్రాత	-10.6564
▁ఆయిల్	-10.6564
▁సరికొత్త	-10.6564
▁అరుదైన	-10.6564
▁ఎగువ	-10.6564
▁సహకరించ	-10.6564
▁నాశనం	-10.6565
▁జమ్ము	-10.6565
▁వేటపాలెం	-10.6565
▁చెన్నారెడ్డి	-10.6565
▁మహారాజా	-10.6567
▁కావాలని	-10.6567
▁మనస్సు	-10.6568
మృగ	-10.6568
▁కొనసాగించ	-10.6569
ాలపై	-10.6569
]]	-10.657
▁మాస్టర్	-10.657
▁మార్చబడింది	-10.657
▁వాయువు	-10.6572
▁వేదాల	-10.6572
▁ఇనుము	-10.6572
▁విద్వాంసులు	-10.6573
▁భజన	-10.6574
మవుతుంది	-10.6574
▁కుట్ర	-10.6576
▁స్థాపించబడిన	-10.6577
▁శ్రీకృష్ణుడు	-10.6577
▁వస్త్ర	-10.6579
▁శ్రీహరి	-10.658
▁మూసీ	-10.658
▁1896	-10.6581
▁వర్షాలు	-10.6581
▁ఆరంభ	-10.6581
▁గ్రామాలకు	-10.6581
▁పశువుల	-10.6584
▁ఆస్తి	-10.6588
దళ	-10.6592
▁వాని	-10.6593
▁కూలి	-10.6595
ుతుందని	-10.6596
▁67	-10.6598
▁వెళ్ళాడు	-10.6605
▁అతడి	-10.6612
▁మందు	-10.6615
మయ్యింది	-10.6616
రామారావు	-10.6617
▁ఒకదాని	-10.6619
▁కీర్తనలు	-10.662
▁కదా	-10.6625
▁చేయుట	-10.6625
తుంటారు	-10.6627
▁మలయాళం	-10.6627
▁పువ్వు	-10.6629
▁వచన	-10.6629
▁87	-10.6634
▁రాజైన	-10.6635
▁అధ్యక్షులు	-10.6641
▁నమ్మక	-10.6642
భాషల	-10.6643
▁వార్తల	-10.6646
▁తెలుసు	-10.6648
హె	-10.6652
▁దళాలు	-10.6654
▁లభించే	-10.6656
▁సమస్యలు	-10.6659
▁నడిపించ	-10.6659
కాలము	-10.6662
▁సంవత్సరాలకు	-10.6663
ాల్సిన	-10.6664
▁పోషక	-10.6669
స్థితి	-10.6673
▁బసవ	-10.6675
▁నారా	-10.668
▁భారతీయుల	-10.6681
భట్ట	-10.6686
▁అనుసరించ	-10.6686
▁కాన	-10.6688
▁సంప్రదాయాలు	-10.6692
▁పరిమిత	-10.6692
▁న్యాయస్థానం	-10.6693
▁అనువదించ	-10.6694
▁గోరు	-10.6698
▁బుద్ధి	-10.67
కూడదు	-10.6705
▁శతాబ్దము	-10.6706
ల్లీ	-10.6707
మనీ	-10.6715
▁(6	-10.6717
▁కవిత	-10.6722
▁గుండు	-10.6723
▁డొ	-10.6726
▁వామన	-10.6727
ot	-10.6728
▁ప్రాంతములో	-10.6731
తాయ	-10.6732
ముఖ్య	-10.6734
▁నడిప	-10.6737
▁స్తంభ	-10.6742
▁తీసుకున్న	-10.6745
▁స్థిరపడ్డ	-10.675
▁కోడ	-10.6752
▁అవతరించ	-10.6759
న్నర	-10.6762
▁కార్యక్రమాల	-10.6762
▁(4	-10.6766
ధం	-10.6766
పురా	-10.6767
తల్లి	-10.6768
▁1993	-10.6771
▁మేలు	-10.6772
▁1959	-10.6773
▁2023:	-10.6774
▁గోపాలకృష్ణ	-10.6774
▁n	-10.6779
▁రాశి	-10.678
▁2000:	-10.6783
▁గ్రామాలను	-10.6783
▁పెరిగ	-10.6784
ోదయ	-10.6789
ోధ	-10.6794
▁తాలూకాలు	-10.6794
హే	-10.68
▁ప్రి	-10.68
దుల	-10.6801
రీస్	-10.6804
▁శి	-10.6805
లక్ష్మీ	-10.6805
-10	-10.6805
మగు	-10.6806
▁ఏమీ	-10.6807
▁కేరళలో	-10.681
▁దేవ్	-10.6815
▁బండి	-10.6828
▁కార్యకలాపాల	-10.6829
▁శక్తిగా	-10.6835
▁మిరప	-10.684
▁అత్యవసర	-10.684
▁అసోసియేషన్	-10.684
▁ఇంజనీరు	-10.684
▁గ్రానైట్	-10.684
▁జాషువా	-10.684
▁వేరుశనగ	-10.684
▁పెట్టుబడి	-10.684
▁ఫిల్మ్	-10.684
▁కనిగిరి	-10.684
▁బుర్రకథ	-10.684
▁గెలిచి	-10.684
▁దుంప	-10.684
▁నివారించ	-10.684
▁విరివిగ	-10.684
▁వేములవాడ	-10.684
▁వాయువ్య	-10.6841
▁హిమాచల	-10.6841
గఢ్	-10.6841
.2010)	-10.6841
▁లింకు	-10.6842
▁ప్రశాంత	-10.6842
హిరణ్య	-10.6842
▁రోజులపాటు	-10.6842
▁తరచూ	-10.6842
▁హిమ	-10.6843
▁ప్రచారంలో	-10.6843
▁డామన్	-10.6844
▁పీటర్	-10.6844
▁పొలాల	-10.6844
▁అన్నమాచార్య	-10.6845
▁అక్షరాల	-10.6846
▁పీఠం	-10.6846
▁బాలకృష్ణ	-10.6846
▁వెంకటేశ్వరరావు	-10.6847
▁ఎలాంటి	-10.6847
▁వారితో	-10.6847
▁గుర్తించబడింది	-10.6848
▁Sanskrit	-10.6848
▁పోషించాడు	-10.6851
▁వచ్చిందని	-10.6852
▁1892	-10.6853
▁కొర	-10.6854
▁సత్యాగ్రహం	-10.6855
▁1893	-10.6856
▁నటులు	-10.6856
▁వాటర్	-10.6856
▁మహాకవి	-10.6858
యులు	-10.6859
▁ప్రచురించాడు	-10.686
గతి	-10.686
▁చేయవచ్చు	-10.6861
▁కళ్ళ	-10.6861
▁ఆలయము	-10.6862
▁ప్రచురించారు	-10.6868
▁జంగ్	-10.6869
pa	-10.6871
▁పాత్రల	-10.6871
▁సమరయోధులు	-10.6873
ుండగా	-10.6875
▁విభజించ	-10.6877
▁లేకపోవడం	-10.6879
వ్యక్త	-10.6879
▁దేవతలు	-10.6881
▁పరమేశ్వర	-10.6884
▁పొన్న	-10.689
▁అట్టి	-10.6892
▁మహల్	-10.6893
పడిన	-10.6898
▁గట్టి	-10.6898
▁ఘాట్	-10.69
▁ఉద్యోగం	-10.6911
▁IS	-10.6912
▁బిలియన్	-10.6912
▁చూసిన	-10.6913
▁1959:	-10.6914
▁పలక	-10.6916
▁కణ	-10.6918
▁దగ్గరి	-10.6922
▁చేపలు	-10.693
▁బౌద్ధమతం	-10.694
▁దగ్గరగా	-10.6941
య్యే	-10.6943
ాయన	-10.6943
▁పాలనకు	-10.6945
▁విశిష్టమైన	-10.6949
▁Indian	-10.695
▁ఏర్పరచ	-10.6951
▁ముక్కు	-10.6951
▁కృ	-10.6956
ెద	-10.6958
▁తీస	-10.6959
సంగీత	-10.6959
చేశారు	-10.6961
▁నారద	-10.6963
▁గీ	-10.6964
▁మునిగి	-10.6966
లాగే	-10.6969
▁మరీ	-10.6974
▁Ma	-10.6979
▁విమర్శలు	-10.6982
▁చూచి	-10.6985
రాణి	-10.6985
▁బంగాళాఖాతం	-10.6988
▁నార	-10.6989
విధానం	-10.6991
దర్శన	-10.6999
-13	-10.6999
▁పిల్లలకు	-10.7
▁సైనికులు	-10.7001
▁180	-10.7001
▁పైడి	-10.7003
▁జప	-10.7011
▁కుంభ	-10.7013
▁నివసించిన	-10.7013
ంధ్ర	-10.7016
న్నవి	-10.7017
▁రాముని	-10.7021
▁సాధ్యమ	-10.7026
రాజ్యం	-10.7032
▁ఇవ్వడం	-10.7033
▁నిరంతరం	-10.7036
▁లక్షణ	-10.7036
▁వినియోగించ	-10.7037
▁కల్యాణ	-10.7043
ies	-10.7044
▁ప్య	-10.7052
▁జీత	-10.7052
రాని	-10.7054
▁అయ్యే	-10.7055
పటి	-10.7058
▁ప్రమాద	-10.7061
▁కృష్ణదేవరాయల	-10.7064
ment	-10.7064
భై	-10.7066
సాని	-10.7066
-14	-10.7067
▁బిల్	-10.7068
▁వేణుగోపాల	-10.7073
▁సంగ్రహ	-10.7074
▁సందర్శించి	-10.7078
▁విమర్శించ	-10.7081
▁విశేషాలు	-10.7084
లెక్	-10.7084
ana	-10.7093
▁తోటల	-10.7097
▁శతకం	-10.7099
▁రాష్ట్రాన్ని	-10.7102
పల్ల	-10.711
▁భిన్న	-10.7111
వ్యాప్త	-10.7112
▁కారాగార	-10.7117
▁శైల	-10.712
▁జార్జి	-10.7121
▁సంజీవ	-10.7122
▁స్నేహ	-10.7122
▁నియోజక	-10.7123
▁ఇండోనేషియా	-10.7123
▁ఆఫ్ఘనిస్తాన్	-10.7123
▁ఆర్గనైజేషన్	-10.7123
▁ఇందిరాగాంధీ	-10.7123
▁కాలక్రమేణ	-10.7123
▁నిరంకుశ	-10.7123
▁వీరాస్వామయ్య	-10.7123
▁సమకాలీన	-10.7123
▁ఇటలీ	-10.7124
▁అన్నపూర్ణ	-10.7124
▁వసూలు	-10.7124
▁అందుకని	-10.7124
▁కుంకుమ	-10.7124
▁సాగిన	-10.7124
▁ట్రాన్స్	-10.7124
▁సమూహం	-10.7125
▁సంజీవరెడ్డి	-10.7125
▁నడిచే	-10.7125
.2014)	-10.7126
▁తీరాంధ్ర	-10.7126
.2011)	-10.7126
▁గరుడ	-10.7126
▁సాహస	-10.7127
▁ఆచరించ	-10.7127
▁మహేంద్ర	-10.7127
▁రోమన్	-10.7127
▁జన్మించారు	-10.7132
▁వెలువడిన	-10.7133
▁విధానాల	-10.7135
▁తమ్ముడు	-10.7135
▁బ్రాడ్	-10.7136
▁పద్మభూషణ్	-10.7137
▁వుంటాయి	-10.7141
▁వినాయకుడు	-10.7142
▁ఉండదు	-10.7143
▁ఉంటాడు	-10.7143
▁గట్టు	-10.7143
▁ఫ్ల	-10.7144
▁అద్దంకి	-10.7145
▁ప్రముఖమైన	-10.7146
సముద్రం	-10.7146
ానికై	-10.7146
ట్యూ	-10.7146
▁రాజ్యంగా	-10.7147
▁బృ	-10.7148
▁రష్యన్లు	-10.7149
▁నియామకం	-10.7149
▁గర్భ	-10.7151
▁56	-10.7155
▁ఎన్నికైనాడు	-10.7155
▁పుణ్యక్షేత్రాలు	-10.7156
▁ఇవన్న	-10.7157
▁నిర్మాణాల	-10.7161
▁వస్త్రాలు	-10.7172
ెస్ట్	-10.7172
▁బొమ్మలు	-10.7173
▁సందర్శించ	-10.7177
▁కనపడ	-10.7178
▁కొన	-10.7178
▁కృష్ణదేవరాయలు	-10.7185
▁ఉద్యమానికి	-10.7188
▁పదవిలో	-10.7192
▁is	-10.7193
▁సౌందర్య	-10.7196
▁99	-10.7198
క్వా	-10.7198
▁భు	-10.7201
▁వండ	-10.7203
▁తిప్ప	-10.7205
▁బాలు	-10.7206
▁ఆమోదం	-10.7208
ంగో	-10.7209
▁చర్యలు	-10.721
▁సిద్ధాంత	-10.7213
▁యస్	-10.7214
▁జోన్	-10.7216
వోలు	-10.7223
▁లాగ	-10.7223
▁కోడి	-10.7225
▁గూ	-10.7231
▁నవ్వ	-10.7235
అంత	-10.7237
▁రోజులలో	-10.7242
▁పెట్రో	-10.7243
▁ఊరిలో	-10.7244
▁విశ్వాసం	-10.7244
▁పాలనను	-10.7246
సంఖ్య	-10.725
తిరుపతి	-10.725
మొత్తం	-10.725
పంచ	-10.7256
పర్వం	-10.7256
స్కీ	-10.7258
లాంటి	-10.7266
▁ప్రదర్శనలు	-10.727
దర్శకుడు	-10.7272
▁రహస్య	-10.7276
▁కష్టం	-10.7278
పట	-10.7282
ిస్తోంది	-10.7284
▁పదము	-10.7286
ాకార	-10.7286
గూడ	-10.729
▁వరంగల్లు	-10.7295
▁బహుశ	-10.7297
▁తోడు	-10.7298
▁పతాక	-10.7299
▁ప్రాజెక్టులు	-10.73
▁గండ	-10.7304
▁ఆవుల	-10.7321
▁వేప	-10.7321
పడింది	-10.7326
▁చిత్రాలను	-10.7326
▁శిల్పాలు	-10.7327
చెర్ల	-10.7331
▁సాహిత్యాన్ని	-10.7336
పడ్డాయి	-10.7339
▁రమణ	-10.7341
ప్రాయం	-10.7342
▁ఐక్య	-10.7344
▁జరుపుకొ	-10.7346
▁61	-10.7353
▁చర్య	-10.7354
▁రామరాయల	-10.7355
▁దుర	-10.7364
▁సింధ	-10.7371
▁ప్రభుత్వంలో	-10.7371
స్టాక్	-10.7373
▁సేకరించ	-10.7373
▁సూచన	-10.7375
▁కొట్టు	-10.7381
▁శక్తిని	-10.7388
▁జంతువులు	-10.7388
▁?	-10.7393
▁భగ	-10.7394
పడే	-10.7397
▁జ్యోతిష	-10.7397
కారణ	-10.7405
వచ్చని	-10.7406
▁కావ్యము	-10.7407
▁ఆక్రమణ	-10.7415
▁పునరుద్ధరించ	-10.7415
▁అధిగమించ	-10.7415
▁ఆత్రేయ	-10.7415
▁చేబ్రోలు	-10.7415
▁తాళ్ళపాక	-10.7415
▁నలుమూలల	-10.7415
▁ప్రచోదయాత్	-10.7415
▁ప్రాజెక్ట్	-10.7415
▁బుధవారం	-10.7415
▁బొబ్బిలి	-10.7415
▁మొహమ్మద్	-10.7415
▁వ్యంగ్య	-10.7415
▁సదుపాయం	-10.7415
▁సరాసరి	-10.7415
▁సుదీర్ఘ	-10.7415
▁సుల్తానేట్	-10.7415
▁టౌన్	-10.7415
.1917)	-10.7416
.1926)	-10.7416
▁కూతురు	-10.7416
▁విజేత	-10.7416
▁సయ్యద్	-10.7416
▁రాశాడు	-10.7416
▁వెయ్యి	-10.7416
▁రాసాడు	-10.7416
▁ఆసియన్	-10.7416
▁పద్మావతి	-10.7416
▁సంతరించుకుంది	-10.7416
▁పూర్తయి	-10.7416
▁సాగునీటి	-10.7416
▁భయంకర	-10.7416
▁పెరుగుదల	-10.7416
▁వహిస్తుంది	-10.7416
▁తుళు	-10.7417
▁పండిస్తారు	-10.7417
▁మాట్లాడుతారు	-10.7418
▁వాడతారు	-10.7419
▁వెంకటాద్రి	-10.7419
▁సంపాదకులు	-10.7419
▁నామం	-10.742
▁నన్ను	-10.7421
యోజన	-10.7425
▁పాల్గొన్నాడు	-10.7428
▁పెక్కు	-10.7429
▁సమగ్ర	-10.7429
▁అమ్మవారు	-10.743
▁కౌన్సిల్	-10.7436
▁పలిక	-10.7437
▁చతుర	-10.7437
▁1897	-10.7441
▁వివాద	-10.7441
▁అరబిక్	-10.7449
▁వ్యాఖ్యాత	-10.7449
ుతుంటాయి	-10.7451
▁స్టార్	-10.7455
▁మగధ	-10.7459
▁డ్ర	-10.746
▁1,0	-10.7463
▁వూరి	-10.7464
▁తొలిసారిగా	-10.7464
ొద్ద	-10.7465
▁బాణ	-10.7466
▁సంబంధాల	-10.7467
గలిగే	-10.7468
శ్య	-10.7468
▁కోరాడు	-10.7469
▁పరిశోధనల	-10.747
▁ఉన్నాయని	-10.7474
▁పెట్టింది	-10.7474
▁పొట్ట	-10.7477
▁దళం	-10.7477
▁గణతంత్ర	-10.7482
▁ప్రతీత	-10.7483
▁చక్కగా	-10.7486
▁బోస్	-10.7486
▁కాల్	-10.7487
ph	-10.7494
పట్టు	-10.7495
▁అంశాల	-10.7495
▁కుటుంబాల	-10.7498
▁దిగువన	-10.7499
▁కూరగాయలు	-10.7501
▁చెందినవి	-10.7503
▁మార్పుల	-10.7506
▁సెల్	-10.7508
▁విస్తృత	-10.7509
▁పద్యాలను	-10.7509
▁ఎడ	-10.7509
▁మధ్యయుగ	-10.751
ry	-10.7519
ువులు	-10.7521
▁నాగర్	-10.7525
▁భారతి	-10.7525
▁వాద్య	-10.7526
ik	-10.7527
▁తీరు	-10.7527
▁ఉన్నప్పుడు	-10.7531
▁పదాన్ని	-10.7531
▁గుర్తుగా	-10.7532
ial	-10.7535
▁సంస్కరణల	-10.7537
▁రోజ	-10.7539
గలిగిన	-10.7539
▁అక్షరాలు	-10.7543
▁తెలుపు	-10.7544
▁ఘనత	-10.7545
▁77	-10.7545
▁మేర	-10.7545
▁దశకంలో	-10.7548
నిర్మాత	-10.7552
▁కారం	-10.7553
▁బూ	-10.7553
age	-10.7558
▁భోజనం	-10.7561
▁నాటకాలు	-10.7564
▁కాయలు	-10.757
▁రీతి	-10.7572
▁అనుభవించ	-10.7574
▁వెళ్త	-10.7574
▁పంటల	-10.7579
▁ప్రయాణించి	-10.758
ీన్	-10.7592
▁పెద్దలు	-10.7595
▁కర్మాగార	-10.7596
▁మెట్ల	-10.7605
బడతాయి	-10.7606
▁సుల్తానులు	-10.7608
▁భాగవతం	-10.761
▁ముస్లింల	-10.7611
▁సముదాయం	-10.7615
▁బ్ల	-10.7618
▁ఆకుల	-10.7623
▁1903	-10.7626
దై	-10.7632
దేవుడు	-10.7634
విడ్	-10.7634
▁అనుభవ	-10.7638
▁(3	-10.7644
పృ	-10.7646
సిన్	-10.7648
▁సంపుట	-10.7648
▁ప్రయాణించ	-10.7651
చిన్న	-10.7652
వాదం	-10.7656
▁పదముల	-10.7657
▁సమర్థ	-10.7657
▁ఆరాధన	-10.7658
ుద్దీన్	-10.766
▁చరిత్రకారుల	-10.7662
▁గవర్నరు	-10.7665
▁భో	-10.7665
రాజ్యానికి	-10.7668
నరసింహారావు	-10.7673
▁దీర్ఘ	-10.7673
▁సముదాయ	-10.7677
▁పత్ర	-10.7679
కొక	-10.7681
తాబ్	-10.7686
▁నిర్వహించబడుతు	-10.7687
▁85	-10.7689
▁వ్యక్తిగా	-10.7689
▁పాల్గొన్న	-10.769
▁విగ్రహాల	-10.769
▁రావడం	-10.7692
▁వాహనాల	-10.7697
▁గార్డ	-10.7699
▁చెప్త	-10.77
ted	-10.771
.2006)	-10.7716
▁కమ్యూనిస్ట్	-10.7716
▁ఖైదీ	-10.7716
▁డెవలప్	-10.7716
▁ధీమహి	-10.7716
▁ధైర్య	-10.7716
▁పంజాబీ	-10.7716
▁పెదవేగి	-10.7716
▁బనగానపల్లె	-10.7716
▁మైక్రోసాఫ్ట్	-10.7716
▁మౌలానా	-10.7716
▁వర్ధిల్ల	-10.7716
▁శ్రీకాళహస్తి	-10.7716
▁గ్రూప్	-10.7716
▁ఛంధము	-10.7716
▁పరస్పర	-10.7716
▁రెండింటి	-10.7716
▁విష్ణుకుండినుల	-10.7716
.1902)	-10.7716
.1929)	-10.7716
▁అలవాటు	-10.7716
▁రూపకల్పన	-10.7716
▁విభిన్న	-10.7716
▁కావేరీ	-10.7716
▁నివారణ	-10.7716
▁వనపర్తి	-10.7716
▁బదిలీ	-10.7716
▁థామస్	-10.7716
▁తొలుత	-10.7716
▁గాంధేయవాది	-10.7716
▁నిర్ధారించ	-10.7717
▁నుంచే	-10.7717
▁సోమవారం	-10.7717
▁1899	-10.7717
▁ప్రార్థించ	-10.7717
▁జరుపుతారు	-10.7717
▁పంత్	-10.7717
ాదరణ	-10.7717
▁పాడి	-10.7718
▁Dr	-10.7718
▁మాండ్య	-10.7718
▁నటించారు	-10.7718
▁హైదర్	-10.7718
▁ట్రేడ	-10.7718
▁ప్రతిరోజూ	-10.7719
▁ఉచ్ఛ	-10.772
▁స్వీయ	-10.772
▁ప్రదక్షిణ	-10.7721
▁నాగపూర్	-10.7723
▁మొల్ల	-10.7723
▁భస్మ	-10.7723
▁పీఠాధిపతి	-10.7724
▁ప్రారంభమై	-10.7725
▁ప్రయోగం	-10.7725
▁సరిహద్దులుగా	-10.7726
▁సోదరుడు	-10.7731
har	-10.7733
▁జాబితాలో	-10.7734
▁శ్రీరాముడు	-10.7735
▁చేపట్టింది	-10.7736
▁విశాఖ	-10.7739
▁గోపి	-10.774
▁1889	-10.774
▁భక్తుడు	-10.7742
▁చంద్రశేఖర్	-10.7742
▁విమర్శకులు	-10.7743
▁వర్క్	-10.7743
పోవటం	-10.7744
కట్టు	-10.7745
▁నడుపుత	-10.7748
▁దర్శించి	-10.7752
తై	-10.7753
▁మంత్రివర్గ	-10.7753
ప్రభుత్వ	-10.7753
▁నాటకరంగ	-10.7754
▁బాంబు	-10.7754
▁గ్రామస్థులు	-10.7756
co	-10.7758
▁పాలించాడు	-10.776
▁కాలంనాటి	-10.7762
ుండును	-10.7763
ts	-10.7763
▁వృత్తులు	-10.7764
▁నాస్తిక	-10.7767
▁సౌకర్య	-10.7767
▁కట్టడాలు	-10.7767
▁మరొకటి	-10.7768
2000	-10.7769
▁దేవా	-10.777
▁వాణిజ్యం	-10.7772
▁నమః	-10.7777
య్యింది	-10.7782
▁తమకు	-10.7784
పారిశ్రామికవేత్త	-10.7786
▁ఆప	-10.7788
id	-10.7791
▁చేశ	-10.7791
▁తీర్మానం	-10.7794
▁తెలియజేస	-10.7795
పెడతా	-10.7797
ుణ్ణి	-10.7797
చేశాడు	-10.7802
▁వైపున	-10.7802
▁త్యాగ	-10.7803
▁అచ్చ	-10.7806
హన్	-10.7807
▁అరి	-10.7807
▁భూత	-10.7808
▁సైట్	-10.7808
సత్య	-10.7812
▁పెన్	-10.7814
▁సంగం	-10.7826
▁వర్గ	-10.7827
▁లేద	-10.7827
▁గీతాలు	-10.7833
షియా	-10.7836
▁పతాకం	-10.7838
▁పదములు	-10.7838
▁బంగారం	-10.7839
▁ఏడుగుర	-10.7839
▁గడి	-10.7841
▁పర్యాటకులు	-10.7844
▁నికోల	-10.7845
పార	-10.7849
▁అధ్యక్షత	-10.785
▁ఉత్సవాల	-10.7857
కపోవడం	-10.7859
▁పోలీసులు	-10.7864
▁మొక్కలు	-10.7867
▁ఏనుగులు	-10.7867
pp	-10.7868
▁విఘ్నేశ్వర	-10.7874
▁రామలింగేశ్వర	-10.7875
▁బహిష్కరించ	-10.7877
లచే	-10.7882
▁పాలక	-10.7883
త్వాన్ని	-10.7885
టూరి	-10.7889
ఫలిత	-10.7896
▁మంత్రం	-10.7898
▁రూపము	-10.79
▁ఎకరాలు	-10.79
▁అచ్చు	-10.7907
IT	-10.7907
▁దాచ	-10.7914
▁యుగము	-10.7916
▁కెనడా	-10.7917
హూ	-10.7918
▁చీర	-10.7922
▁ఉగ్ర	-10.7924
▁జరిపిన	-10.7924
ేశ్వరుడు	-10.7925
▁చిత్రాలకు	-10.7928
▁చెప్పడం	-10.7928
ical	-10.793
▁మాడ	-10.7935
▁ఇవే	-10.7944
▁సర్వే	-10.7946
▁ఓడిపోయి	-10.795
▁పనిచేస్త	-10.7951
▁ఆధారం	-10.7954
న్నింటి	-10.7955
ive	-10.7963
ఁడు	-10.7967
▁గూడ	-10.797
భావం	-10.7971
▁ప్రయాణీకుల	-10.7972
▁ఏళ్ల	-10.7972
▁పవిత్రమైన	-10.7974
▁కలిసే	-10.7981
శిక్ష	-10.7984
▁తొలిసారి	-10.7985
▁సంతోష	-10.7986
▁లాగా	-10.7989
▁కొద్దిగా	-10.7992
▁(15	-10.7999
▁శిర	-10.8002
▁వ్యవస్థాపక	-10.8002
మియా	-10.8005
▁స్థలంలో	-10.8006
▁హిమాలయ	-10.8009
▁రాధాకృష్ణ	-10.8012
ఉన్న	-10.8012
ిక్స్	-10.8013
▁జీవించ	-10.8018
▁విద్యాలయ	-10.802
▁సాంబ	-10.8021
▁పోరాడి	-10.8026
▁తెచ్చిన	-10.8026
.1904)	-10.8026
▁కొనుగోలు	-10.8026
▁పిల్లలమర్రి	-10.8026
▁ప్రేక్షకుల	-10.8026
▁బాలీవుడ్	-10.8026
▁బూర్గుల	-10.8026
▁బృహత్తర	-10.8026
▁విద్మహే	-10.8026
▁గండికోట	-10.8026
▁ఛత్తీస్	-10.8026
▁తిరస్కరించ	-10.8026
▁పుష్కల	-10.8026
▁వైకుంఠ	-10.8026
▁శీర్షిక	-10.8026
▁హాస్పిటల్	-10.8026
.1915)	-10.8026
.1940)	-10.8026
▁ఖైదు	-10.8026
▁సభ్యత్వం	-10.8026
▁రజతోత్సవ	-10.8026
▁సైన్సు	-10.8026
▁దసరా	-10.8026
▁ఋషుల	-10.8027
ాళ్వార్	-10.8027
▁పర్షియా	-10.8027
▁హుబ్లి	-10.8027
▁ఫ్యాక్టరీ	-10.8027
▁రాచరిక	-10.8027
▁అంతర్గత	-10.8027
▁ఫెడరేషన్	-10.8027
▁గ్రే	-10.8027
▁మాత్రము	-10.8027
▁అరుణాచల	-10.8028
▁అధ్యక్షునిగా	-10.8028
▁లక్షద్వీప	-10.8028
▁జిల్లాలను	-10.8028
బడినవి	-10.803
▁ప్రగతి	-10.803
▁నన్నయ్య	-10.8033
▁వస్తుంటారు	-10.8033
▁చోడ	-10.8033
▁సంజయ్	-10.8037
▁హాకీ	-10.8038
▁పాఠ్య	-10.8039
▁విస్తారమైన	-10.8039
▁ఉపన్యాస	-10.804
▁చేసేందుకు	-10.804
ెంట	-10.8041
▁వ్రాసి	-10.8042
4)	-10.8042
▁గణనీయంగా	-10.8043
▁భగవంతుడు	-10.8047
▁శ్రీకృష్ణుని	-10.8048
▁ధో	-10.8049
▁1898	-10.805
▁బ్రహ్మోత్సవాలు	-10.805
▁నిలబెట్ట	-10.805
▁సృష్టించింది	-10.8052
▁ప్రధానమైనవి	-10.8052
▁1860	-10.8054
▁ప్రాంతంగా	-10.8055
▁కొంగ	-10.8061
▁ఫ్రీ	-10.8061
▁శాప	-10.8069
▁అన్నింటి	-10.807
▁ఆంగ్లో	-10.8071
ాలే	-10.8075
▁గవర్నరుగా	-10.808
▁కాదని	-10.8081
లెట్	-10.8085
ేటి	-10.8085
▁గానం	-10.8086
▁రచనలలో	-10.8089
▁వదలి	-10.809
రాజా	-10.8091
లన్నీ	-10.8092
▁కోదండరామ	-10.8094
తారా	-10.8096
▁(12	-10.8101
▁ఉత్పత్తులు	-10.8101
▁కృష్ణదేవ	-10.8101
▁ప్రెసిడెన్సీ	-10.8102
▁తప్పు	-10.8109
▁హెక్టార్ల	-10.811
కంటి	-10.8111
▁సమయములో	-10.8113
▁గావించ	-10.8115
▁పూర్ణ	-10.812
▁పోషించి	-10.8123
▁టూ	-10.8129
▁తీసుకుంట	-10.8131
▁వేళ	-10.8131
▁వల్లభ	-10.8136
కెక్క	-10.8141
▁సుబ్రహ్మణ్యం	-10.8143
▁ముక్కలు	-10.8149
▁కర్మాగారం	-10.8152
▁175	-10.8152
ోద్యమంలో	-10.8154
▁జరిపించ	-10.8155
▁సముద్రపు	-10.8157
▁దేవరాయలు	-10.8158
▁మండ	-10.8158
రాతి	-10.8164
▁అవు	-10.8165
రచన	-10.8169
▁మొత్త	-10.8171
▁పాత్రలు	-10.8171
▁కాల్చి	-10.8172
▁అంతటి	-10.8174
పొంద	-10.8174
▁నవలలు	-10.8178
▁కొట్టి	-10.8181
▁సర్వీసు	-10.8186
చోట్ల	-10.8186
▁పక్షుల	-10.8186
▁తొలగించి	-10.8192
▁ప్రదేశాల	-10.8192
per	-10.8204
▁సంస్కృతికి	-10.8209
▁ఆధిపత్య	-10.8209
భాషలో	-10.821
నాటికి	-10.8212
ళు	-10.8214
సౌ	-10.8217
ఆర్యన్	-10.8218
▁ఐన	-10.8225
మవుత	-10.8228
▁వుండే	-10.823
▁కొలను	-10.823
▁తల్లికి	-10.8233
టొ	-10.8235
ొచ్చు	-10.8243
▁కేంద్రాన్ని	-10.8244
▁దండయాత్రల	-10.8245
విభాగ	-10.8246
2011	-10.8253
మయ్యే	-10.8253
వారిని	-10.826
▁చక్క	-10.8261
▁కొరియా	-10.8263
ఉంది	-10.8263
▁సేకరించి	-10.8269
నింగ్	-10.8271
▁ఉండవచ్చు	-10.8271
▁పౌ	-10.8276
తంత్ర	-10.8278
▁స్పష్ట	-10.8278
▁చేయబడ	-10.828
▁1928	-10.828
▁భార	-10.8282
▁మూత	-10.8282
▁దేశాలకు	-10.8283
ాంతం	-10.8286
▁అందించే	-10.829
ండేవి	-10.8294
▁వున్నాయి	-10.8295
ya	-10.8295
ందువలన	-10.8297
ంజలి	-10.8298
▁93	-10.8301
▁సమాచారము	-10.8306
▁బయటి	-10.8307
వీరు	-10.8316
1983)	-10.8326
కన్నా	-10.8327
▁నందు	-10.8332
▁ఉద్దేశ	-10.8333
▁మూడ	-10.8335
▁కొవ్వూరు	-10.8346
▁జమీందారు	-10.8346
▁జోసెఫ్	-10.8346
▁తప్పనిసరి	-10.8346
▁నేలకొండపల్లి	-10.8346
▁బిజినెస్	-10.8346
▁వ్రాశారు	-10.8346
▁శతదినోత్సవాల	-10.8346
▁శ్రేణుల	-10.8346
▁సింగరేణి	-10.8346
మెంటు	-10.8346
▁బీజపూర్	-10.8346
▁మౌలిక	-10.8346
.1901)	-10.8346
.1935)	-10.8346
▁ఆయకట్టు	-10.8346
▁హవేలీ	-10.8346
▁నిర్మూలన	-10.8346
▁ఫిలిప్	-10.8346
▁తక్కిన	-10.8346
▁మున్నగు	-10.8346
▁తజిక్	-10.8346
▁కార్తీక	-10.8347
▁క్షీర	-10.8347
పాక్షిక	-10.8347
▁సారవంతమైన	-10.8347
▁హంపి	-10.8347
▁ఉగాది	-10.8347
▁జంక్షన్	-10.8347
▁పార్వతి	-10.8347
▁పరిరక్షణ	-10.8347
హెన్రీ	-10.8347
▁[[	-10.8348
▁కథారచయిత	-10.8348
▁కలయిక	-10.8348
.2008)	-10.8349
ోత్తర	-10.8349
ఖో	-10.8349
▁కన్యకా	-10.835
▁బల్ల	-10.8351
నారసింహ	-10.8351
▁దూరములో	-10.8353
▁వాడుతారు	-10.8353
▁అంతస్తుల	-10.8355
▁హనుమంతుడు	-10.8356
▁కథకుడు	-10.8356
▁వికాస	-10.8357
▁సంగీతంలో	-10.8357
కాలపు	-10.8357
▁జ్ఞానం	-10.8358
ెయిన్	-10.8358
▁రహదారుల	-10.8359
▁రాజశేఖర	-10.8359
▁వార్డు	-10.8359
గౌడ	-10.836
▁లీగ్	-10.836
బల్	-10.8361
▁మాసంలో	-10.8362
▁పడుతుంది	-10.8362
▁బ్లాక్	-10.8362
▁మంత్రివర్గంలో	-10.8363
▁షాహి	-10.8363
▁అన్నదానం	-10.8366
▁ఏర్పరచారు	-10.8366
▁అనేకమంది	-10.8367
▁పురాణము	-10.8368
▁అనుకూలంగా	-10.8369
▁మాత	-10.837
హర్	-10.8371
▁86	-10.8375
▁అప్పటికి	-10.8379
▁నెలలు	-10.8381
▁చేయించ	-10.8382
▁దుస్తులు	-10.8385
▁మిల్లులు	-10.8385
▁మళ్ల	-10.8385
▁లక్ష్మీకాంత	-10.8385
▁బొమ్మల	-10.8386
▁సమకూర్చ	-10.8387
మడుగు	-10.8396
▁ఇంక	-10.8396
▁మల్లె	-10.8401
క్టర్	-10.8406
యుత	-10.8408
▁చేర్చారు	-10.8409
▁యూదులు	-10.841
▁అవశేషాలు	-10.8412
నీటి	-10.8415
▁దయ	-10.8415
▁కంబ	-10.8416
▁సంతతి	-10.8423
2005)	-10.843
▁నొక్క	-10.843
▁రోగ	-10.843
▁ఓడించ	-10.8436
▁వార్తలు	-10.8437
▁వేడుకలు	-10.8438
▁అపార	-10.8439
▁పార్టీలు	-10.8444
మయింది	-10.8445
▁అధ	-10.8447
జాతుల	-10.8452
ుతున్నది	-10.8455
▁తంగ	-10.8459
▁రక్ష	-10.8461
▁ఎగుర	-10.8462
▁జాతీయస్థాయి	-10.8463
▁చేయాలి	-10.8465
▁ఘర్షణ	-10.8465
సాల	-10.8469
▁ప్రదేశాలలో	-10.8472
▁నల్లమల	-10.8473
▁జాన	-10.8474
▁రహదారిపై	-10.8476
▁నౌకా	-10.8477
▁చేసినట్లు	-10.8477
▁రక్తం	-10.8483
▁పూర్వము	-10.8484
1945)	-10.8485
రట	-10.849
▁పొద	-10.8491
ియర్	-10.8501
ావళి	-10.8504
మయ్యాయి	-10.8507
▁మూలంగా	-10.8509
▁రామాయణము	-10.8512
ఇక్కడ	-10.8512
జాతీయ	-10.8514
రత్నం	-10.8517
▁సిక్కు	-10.8521
టమే	-10.8521
జీవిత	-10.8521
భ్ర	-10.8523
▁గౌరవించ	-10.8525
▁తర్వాతి	-10.8526
▁అందించిన	-10.8531
ేశారు	-10.8532
రమణ	-10.8532
దీక్ష	-10.8535
▁సగం	-10.8535
▁ఆయుధాలు	-10.8538
ia	-10.8542
▁పోషించ	-10.8548
-11	-10.8549
త్తుల	-10.855
▁పల్లి	-10.8552
▁తరు	-10.8554
▁రాజకీయాలలో	-10.8561
▁మీటర్లు	-10.8562
▁ప్రకాశ	-10.8565
op	-10.8565
▁ఖో	-10.8565
జాన్	-10.8569
బండి	-10.8576
▁ఆరంభకాల	-10.8584
▁రాచ	-10.8586
ులయ్యారు	-10.8594
▁శిల	-10.8594
▁అవతారాల	-10.8595
▁101	-10.8596
▁క్రీడలలో	-10.8596
▁జిల్లాల్లో	-10.86
ధారణ	-10.86
▁మహాభారతంలో	-10.8601
▁శిష్యుల	-10.8604
▁గోత్ర	-10.8619
▁గణపవరంలో	-10.8621
▁బాలికల	-10.8623
ోవ్	-10.8627
▁వ్యాకరణ	-10.8627
▁సీస	-10.8628
▁ప్రసాదించ	-10.8629
ుకోవచ్చు	-10.863
స్తుతి	-10.8634
▁ఆంజనేయస్వామి	-10.8637
▁దారిలో	-10.8639
ప్రాంతాలలో	-10.8641
▁శిల్పకళ	-10.8642
భారతి	-10.8644
▁పేర్కొన్న	-10.865
▁ఆక్రమించి	-10.865
▁వివర	-10.865
వాసులు	-10.8651
▁ఆంధ్రా	-10.8653
జాత	-10.8654
▁1986	-10.8656
వంతమైన	-10.8657
రీతి	-10.8659
▁కళాకారుల	-10.8659
▁ఆంధ్రదేశ	-10.866
టువంటి	-10.8661
▁ప్రయోగించ	-10.8662
▁బాటు	-10.8662
▁ఉంద	-10.8672
▁కనిపెట్ట	-10.8672
▁విభాగాలు	-10.8675
▁శనివారం	-10.8676
▁తెలిసి	-10.8676
archive	-10.8677
▁ఇంగ్లాండ్	-10.8677
▁ఔరంగాబాద్	-10.8677
▁కమ్యూనికేషన్	-10.8677
▁కవయిత్రి	-10.8677
▁ప్రమాణస్వీకారం	-10.8677
▁మెజారిటీ	-10.8677
▁యక్షగాన	-10.8677
▁రిచర్డ్	-10.8677
▁వివాదాస్పద	-10.8677
▁సన్నిహిత	-10.8677
▁దిగుమతి	-10.8677
▁మెట్రో	-10.8677
▁రాయచోటి	-10.8677
▁విశ్వేశ్వరయ్య	-10.8677
.1907)	-10.8677
.1939)	-10.8677
.1972)	-10.8677
▁ఆలంపూర్	-10.8677
.2009)	-10.8677
▁కొందరి	-10.8677
▁నిరాహార	-10.8677
▁ముంబాయి	-10.8677
▁నిరాకరించ	-10.8677
▁నమూనా	-10.8677
▁వివక్ష	-10.8677
▁భవిష్యత్తు	-10.8677
▁కైలాస	-10.8678
▁భండార	-10.8678
▁వైవిధ్య	-10.8678
▁వన్య	-10.8678
గలదు	-10.8678
ాశ్రమ	-10.8679
▁నెలకొని	-10.8679
▁సుభాష్	-10.8679
బినెట్	-10.8679
▁కరుణ	-10.8679
▁నిర్వహిస్తున్న	-10.868
▁లక్ష్మీనారాయణ	-10.868
▁ప్రతినిధి	-10.8681
▁ఎలుక	-10.8681
▁పీచు	-10.8681
▁సాక్షి	-10.8682
▁కారణాలు	-10.8683
▁ముగిసింది	-10.8683
▁దాసరి	-10.8684
▁ఇవ్వబడింది	-10.8685
దేశంలో	-10.8685
▁ఉక్కు	-10.8685
▁ఉజ్బెక	-10.8685
▁పేరుపొందిన	-10.8685
▁వారసుల	-10.8686
▁నిర్మించబడ్డాయి	-10.8688
▁ఖనిజ	-10.8688
▁మిషన్	-10.8689
▁ముగిస	-10.8689
,00,000	-10.869
▁మంజూరు	-10.8691
▁కలియుగ	-10.8691
▁వెంకటగిరి	-10.8692
▁అనువదించాడు	-10.8692
▁శుక	-10.8694
▁అలాంటి	-10.8695
▁చేసేవాడు	-10.8696
▁అల్లుడు	-10.8699
యోగి	-10.87
▁సామ్రాజ్యము	-10.87
▁గొట్ట	-10.8701
▁నిర్మల	-10.8701
పురము	-10.8703
ుడూ	-10.8704
భాషగా	-10.8707
▁New	-10.871
గోడ	-10.8712
ఫుల్	-10.8712
▁కాటన్	-10.8713
▁హొ	-10.8714
▁ప్రతిబింబ	-10.8714
వెల	-10.8715
▁అభిప్రాయము	-10.8719
▁ఆంగ్లంలో	-10.872
ect	-10.872
నిచ్చి	-10.8721
▁శత్రు	-10.8721
రావ్	-10.8721
ాచారి	-10.8722
▁జీవుల	-10.8723
▁గుర్తించిన	-10.8723
▁పట్టిక	-10.8724
▁సామర్థ్యం	-10.8724
▁పుట్టింది	-10.8725
▁చిహ్నంగా	-10.8727
▁సాధించాయి	-10.8727
▁పేర్లతో	-10.8728
▁మార్గదర్శక	-10.8729
▁గణాలు	-10.8732
▁రామయ్య	-10.8735
▁వేణుగోపాలస్వామి	-10.8736
▁ప్రసంగ	-10.8736
▁ప్రదర్శితమై	-10.8737
▁పరచ	-10.874
ాయో	-10.874
▁de	-10.8741
▁యమ	-10.8741
▁ఆకారం	-10.8741
▁నైరుతి	-10.8742
▁ఉండవచ్చును	-10.8743
▁ఆలయంలోని	-10.8745
▁వాహనాలు	-10.8748
▁ఉత్	-10.875
ity	-10.875
▁110	-10.8752
ప్స్	-10.8752
దేవ్	-10.8755
▁యాత్రా	-10.8756
▁కాసు	-10.876
కార్యాల	-10.8761
▁మనోహర	-10.8763
▁కమల	-10.8766
▁జ్యోతి	-10.877
▁నిమ్మ	-10.8774
▁కార్ట	-10.8775
ండ్లు	-10.8776
▁వజ్రాల	-10.8778
▁పెరిగిన	-10.8779
▁చేతులు	-10.8782
▁చంద్రుని	-10.8784
▁మెన్	-10.8789
▁వివాదాల	-10.8798
వివేక	-10.8801
▁మంచిది	-10.8802
▁పావు	-10.8802
కాదు	-10.8802
▁ఆనంద్	-10.8804
▁పిల్లి	-10.8808
వర్గం	-10.8809
ండేది	-10.881
నరీ	-10.881
ాచార	-10.8812
▁తయార	-10.8813
▁లభిస్తున్నాయి	-10.8819
▁సంస్థానంలో	-10.882
టూరు	-10.8824
▁వేట	-10.8829
▁చెన్నకేశవస్వామి	-10.8832
▁or	-10.8834
▁తీసుకువచ్చ	-10.8835
సాగారు	-10.8841
▁ఉపదేశించ	-10.8843
▁చర్యల	-10.8844
జార్	-10.8845
లంక	-10.8848
▁స్వా	-10.8848
▁పోరాటాల	-10.885
▁పరిశీలించ	-10.885
గృహ	-10.8852
వాహన	-10.8853
▁ఎంతగా	-10.8854
ాభిషేకం	-10.8856
▁జీవించి	-10.8856
▁అన్నా	-10.8861
నిధి	-10.8861
▁పోతుంది	-10.8862
▁నిధి	-10.8867
300	-10.8871
▁రూపాల	-10.8872
వీటి	-10.8873
ac	-10.8874
ేవారని	-10.8883
▁చిత్రంలో	-10.8883
▁పరశురామ	-10.8885
▁మంజ	-10.8885
ఘంట	-10.8886
జాక్	-10.8888
▁జలాశయ	-10.8892
వటానికి	-10.8893
▁తీసిన	-10.8894
▁కట్టడం	-10.8896
▁పడవ	-10.8896
▁వ్యతిరేకత	-10.8899
బోధ	-10.89
▁సత్యం	-10.89
యొక్క	-10.8905
యిన్	-10.8906
▁నరసింహస్వామి	-10.8906
▁గోన	-10.8915
▁లోహ	-10.8916
▁మల్	-10.8922
కాండ	-10.8923
ఫున	-10.8926
▁మూలం	-10.8934
▁83	-10.8935
▁వో	-10.8936
యాంగ్	-10.8944
▁1927	-10.8954
▁1924	-10.8955
▁యీ	-10.8956
▁ఆదర్శ	-10.8957
▁పండుగలు	-10.896
నిష్	-10.896
▁పొడు	-10.8968
▁కీర్తించ	-10.8974
పప్పు	-10.8978
చ్చాడు	-10.898
▁ఎనిమిద	-10.8984
ita	-10.8986
▁గోప	-10.8986
▁ఉండటంతో	-10.8988
దాస్	-10.8989
▁విన్న	-10.8992
క్రా	-10.8995
▁ఒప్ప	-10.8995
▁వనరులు	-10.8995
జీవ	-10.8998
▁చెబుతున్న	-10.8999
▁నైపుణ్య	-10.9004
▁పద్యాలలో	-10.9005
▁నిత్యం	-10.9005
▁రస్	-10.9007
▁ప్రచురించి	-10.9014
కపోతే	-10.9015
fficial	-10.9019
▁అసంతృప్తి	-10.9019
▁ఇంజినీరింగ్	-10.9019
▁జాతీయరహదారి	-10.9019
▁దుగ్గిరాల	-10.9019
▁ద్వాదశ	-10.9019
▁ధూర్జటి	-10.9019
▁నాల్గవ	-10.9019
▁పులివెందుల	-10.9019
▁పేర్కొంది	-10.9019
▁ప్రోత్సాహ	-10.9019
▁ఫ్రాన్సు	-10.9019
▁బంగాళాదుంప	-10.9019
▁మాల్దీవుల	-10.9019
▁మునిసిపల్	-10.9019
▁వియత్నాం	-10.9019
▁వ్యవసాయాధారిత	-10.9019
▁ఆదిలాబాదు	-10.9019
▁ఓరుగల్లు	-10.9019
▁తాత్విక	-10.9019
▁పాపఘ్ని	-10.9019
▁ముఖర్జీ	-10.9019
▁పరిష్కరించ	-10.9019
▁సంక్రాంతి	-10.9019
▁సభ్యునిగా	-10.9019
.1930)	-10.9019
▁పొదిలి	-10.9019
▁అంకితమిచ్చ	-10.9019
▁ఛైర్మన్	-10.9019
▁అనబడే	-10.9019
▁సేనాని	-10.9019
▁చవితి	-10.9019
▁ఆలోచించ	-10.9019
▁తిలక్	-10.9019
▁కాశీయాత్ర	-10.902
▁పునాది	-10.902
▁ప్రసన్న	-10.902
▁అన్యాయ	-10.9021
▁ద్విపద	-10.9021
▁కొండవీటి	-10.9021
▁గురయ్య	-10.9021
▁దేశాల్లో	-10.9023
▁మంచ	-10.9024
▁బ్రహ్మపుత్ర	-10.9024
▁కనిపించి	-10.9025
▁దగ్గు	-10.9025
▁తగినంత	-10.9026
▁సంతకాలు	-10.9026
▁గంజ	-10.9026
▁గురుకుల	-10.9028
▁గాథ	-10.9029
▁గంగానది	-10.9029
▁తప్పకుండా	-10.903
▁గంధ	-10.9033
▁అర్జునుడు	-10.9034
▁జన్మించింది	-10.9037
▁అమర్	-10.9038
▁ఐతే	-10.9041
▁సంభాషణ	-10.9042
▁మహాదేవ	-10.9043
▁విడిచి	-10.9046
▁నిర్వహించాడు	-10.9047
▁వచ్చినప్పుడు	-10.9047
▁కనుగొన్నారు	-10.9049
▁వర్గీకరించ	-10.9051
▁ఇంకొక	-10.9052
▁రైళ్ళు	-10.9052
▁ఫెడర	-10.9052
▁భేదములు	-10.9053
▁96	-10.9054
▁పుస్తకాన్ని	-10.9054
▁వేసింది	-10.9059
▁మిల్లు	-10.9061
▁నిలుప	-10.9064
▁పెంపకం	-10.9066
▁నిర్మించింది	-10.9072
▁కనుమలలో	-10.9072
▁ఉమా	-10.9073
▁గొల్ల	-10.9078
ాలజీ	-10.9082
నాశన	-10.9082
పర్తి	-10.9082
▁హక్కు	-10.9083
rt	-10.9084
▁చర్చలు	-10.9089
▁కుంట	-10.909
▁అడ్డం	-10.9091
▁పదవ	-10.9105
ుడగు	-10.9105
ంగీ	-10.9109
▁తోడ	-10.9112
▁సమానంగా	-10.9113
▁ప్రయత్నించి	-10.9116
▁పిలిచే	-10.9118
▁కవితలు	-10.9119
పత్ర	-10.9124
▁విద్యాలయం	-10.9125
100	-10.9131
▁తేజ	-10.9132
ావధానం	-10.9133
▁నటించి	-10.9134
▁నక్క	-10.9135
▁మహోత్సవ	-10.9141
▁స్థానాల	-10.9143
▁సర్దార	-10.9145
సెన్	-10.9146
▁గుమ్మ	-10.9147
▁(17	-10.9148
▁కొల్ల	-10.915
▁ఆళ్వారుల	-10.9151
▁71	-10.9153
ుడనే	-10.9154
▁పూరించ	-10.9157
మార్లు	-10.9157
▁తలెత్త	-10.9164
▁బ్రి	-10.9165
▁నందా	-10.9166
▁సతీ	-10.9166
ాచార్యుడు	-10.9168
▁పెర్	-10.9175
▁పాలి	-10.918
▁ఉదాహరణలు	-10.9182
▁ప్రసాద	-10.9184
▁మంత్రులు	-10.9188
▁కర్ణ	-10.9191
▁దొరికిన	-10.9191
▁సులభ	-10.9192
వ్యవస్థ	-10.9193
▁అలంకరించ	-10.9199
▁స్వామిని	-10.92
వాళ్ళ	-10.9204
|	-10.9205
▁అందంగా	-10.9206
ఉత్తర	-10.9207
నిజం	-10.9208
5)	-10.9209
▁ఇతనికి	-10.921
▁యోధులు	-10.9214
ంటో	-10.9222
కాన్	-10.9223
బాహు	-10.9227
▁గింజలు	-10.923
ce	-10.923
▁బావ	-10.9231
విషయ	-10.9233
ీకృత	-10.9234
ేకాక	-10.9236
▁పాలనలోకి	-10.9236
▁కంది	-10.9238
▁మాండ	-10.924
రకము	-10.9243
స్వరూప	-10.9245
▁కథను	-10.9248
బెల్	-10.9249
▁వ్యాసాల	-10.9255
▁కమలా	-10.9258
కుంటే	-10.9259
▁చిత్రాలలో	-10.926
▁సాంప్రదాయం	-10.9261
▁వ్యక్తిత్వ	-10.9263
పంట	-10.9265
▁పరిధి	-10.9266
చైనా	-10.9271
▁శాఖా	-10.9274
▁ఉపగ్రహ	-10.928
టుకు	-10.9285
▁విచ్చేసి	-10.9297
మాసం	-10.9297
▁నేటిక	-10.9303
ావతి	-10.9303
▁యోగము	-10.9305
కుమార	-10.9309
కళా	-10.931
▁అర్చ	-10.9311
ంగానూ	-10.9312
▁1925	-10.9313
▁వంటకాల	-10.9315
▁పెరగ	-10.9322
మిక్	-10.9324
సొ	-10.9327
▁గీతా	-10.9327
▁తరం	-10.9327
▁చూపించ	-10.9337
ాగ్ర	-10.934
▁అవధాన	-10.9342
▁ముక్త	-10.9347
▁ఉద్భవించ	-10.9348
▁తినే	-10.9349
ంబే	-10.935
▁తుల	-10.9352
▁వేడుక	-10.9352
▁సత్యాగ్రహ	-10.9353
tra	-10.9358
▁516	-10.9358
పార్	-10.9364
▁శాత	-10.9364
ాల్లోనూ	-10.9368
ితం	-10.9369
ింపబడింది	-10.937
▁శుక్రవారం	-10.9372
▁మృతి	-10.9373
ాధీశ	-10.9373
▁విపరీత	-10.9373
▁అడ్రసు	-10.9373
▁ఉత్తరాఖండ్	-10.9373
▁ఋతుపవనాల	-10.9373
▁చార్లెస్	-10.9373
▁చొప్పున	-10.9373
▁తుర్కమేనిస్తాన్	-10.9373
▁పుదుచ్చేరి	-10.9373
▁మాధ్యమం	-10.9373
▁ముసునూరి	-10.9373
▁వగైరా	-10.9373
▁విరూపాక్ష	-10.9373
▁స్టేడియం	-10.9373
▁చైనీస్	-10.9373
▁ట్రాక్టరు	-10.9373
▁త్వరగా	-10.9373
.1909)	-10.9373
▁యాత్రికుడు	-10.9373
▁కచేరీ	-10.9373
▁విచారణ	-10.9373
▁ఇబ్బంది	-10.9373
▁పరిశీలన	-10.9373
▁పురుషోత్తమ	-10.9373
షీద్	-10.9373
▁మొదలగునవి	-10.9373
▁కోర్సు	-10.9373
▁గొడవ	-10.9373
▁ఐక్యరాజ్య	-10.9373
▁కొల్లేరు	-10.9373
▁దర్శకురాలు	-10.9373
▁అనారోగ్య	-10.9373
▁ఆదరించ	-10.9373
▁లోతైన	-10.9374
▁సృష్టికర్త	-10.9374
▁సురభి	-10.9374
▁స్వచ్ఛంద	-10.9374
▁పొగాకు	-10.9374
▁పేటెంట్	-10.9374
▁ద్రవిడ	-10.9374
▁అధికసంఖ్య	-10.9375
▁పొన్నూరు	-10.9375
▁ఇటు	-10.9375
▁హరికథ	-10.9375
▁are	-10.9375
▁అభిషేకాలు	-10.9375
▁చిత్రాల్లోనూ	-10.9375
▁చేస్తాయి	-10.9376
▁స్తుతించ	-10.9376
▁టెస్ట్	-10.9376
▁ప్రదానం	-10.9376
▁సాంప్రదాయిక	-10.9378
▁సిద్ధి	-10.9378
▁ఖడ్గ	-10.9378
▁గుండ్ర	-10.938
▁కుమారుడైన	-10.9382
▁చంద్రగిరి	-10.9383
▁1907	-10.9385
▁హద్దు	-10.9385
▁కత్తి	-10.9388
▁విశ్రాంతి	-10.9389
▁ఫోర్స్	-10.9389
▁కలెక్టర్	-10.9389
▁తెలియదు	-10.939
▁language	-10.939
▁భూభాగాన్ని	-10.9392
▁పోషించారు	-10.9392
ఱు	-10.9393
▁మాతృభాష	-10.9395
▁కొంతభాగ	-10.9395
▁English	-10.9396
▁ఏలూరులోను	-10.9398
▁సారస్వత	-10.9402
▁పునర్	-10.9403
కొత్త	-10.9405
▁నిజానికి	-10.9405
▁(9	-10.9407
▁తేదీనాడు	-10.9407
▁గోల్డ	-10.9409
▁నిర్మాణంలో	-10.9409
▁కలదు	-10.9416
▁దేవాలయాన్ని	-10.9417
▁ఆవిర్భవించ	-10.9419
▁తిమ్మన	-10.9422
షే	-10.9424
యానా	-10.9425
▁ఇళ్ళ	-10.9425
▁రైతులకు	-10.9429
▁కాకర	-10.9431
2)	-10.9431
▁దీవులు	-10.9433
-4	-10.9434
రామలింగ	-10.9436
▁హిందూమత	-10.9438
▁ఆస్థానంలో	-10.9441
▁కంచి	-10.9441
▁నిర్ణయ	-10.9441
▁పదవుల	-10.9442
▁పరిమితం	-10.9446
▁జీవనం	-10.9446
▁తేమ	-10.9446
▁అన్	-10.9449
ప్రపంచవ్యాప్తంగా	-10.945
▁ముస్లిముల	-10.9452
▁ముక్క	-10.9454
▁పక్షులు	-10.9454
▁ముగిసిన	-10.9454
▁పత్రికలో	-10.9458
పోతుంది	-10.9459
▁బ్లా	-10.9465
▁కనుమ	-10.9469
▁తయారుచేయ	-10.9472
▁ప్రమాణాల	-10.9479
▁ఓట్ల	-10.9484
▁ఖాత	-10.9486
▁ఉనికిలో	-10.9486
▁స్థానాలలో	-10.9487
లైట్	-10.949
▁సూత్రాల	-10.9491
రేఖ	-10.9494
ంటాడు	-10.9504
▁ముఖ్యమైనది	-10.9505
ాక్షి	-10.9505
▁జలాశయం	-10.9506
▁ఎప్పుడు	-10.9507
▁అశోకు	-10.9511
▁శాంత	-10.9513
▁కీలకమైన	-10.9515
▁వెన్న	-10.9519
సుందర	-10.9521
▁సిద్ధాంతాల	-10.9525
రాహుల	-10.9526
ీకరించారు	-10.9528
నెల్	-10.953
తీయ	-10.9534
▁వినయ	-10.9537
▁ఫంక్షను	-10.9553
ిస్తాయి	-10.9553
▁పుచ్చ	-10.9553
▁వివరాల	-10.9556
▁ఋగ్వేదం	-10.956
▁కష్టాల	-10.9561
గుండం	-10.9562
▁సరిగా	-10.9569
▁ఎకరాలకు	-10.9573
భట్టు	-10.9574
తీర్థ	-10.9575
ప్రతిష్ఠ	-10.9576
సమయంలో	-10.958
▁గురువులు	-10.9582
▁శిఖరం	-10.9595
▁గదులు	-10.9596
▁వాసుదేవ	-10.9598
▁పెండ	-10.9601
▁ఉపయోగపడ	-10.9601
▁ప్రయత్నించ	-10.9605
▁కరి	-10.9609
వేళ	-10.961
▁వెలుగులో	-10.9616
▁సీతారామయ్య	-10.9616
▁నాట్యం	-10.962
▁వాహన	-10.9622
ితంగా	-10.9624
▁కుటుంబాలు	-10.9627
▁తెలుస	-10.9628
▁మొదలై	-10.9633
▁మెరుగు	-10.9637
పడ్డాడు	-10.9642
▁రాజకీయంగా	-10.9643
బ్లాగ	-10.9644
▁జన్మించి	-10.965
▁నాటకం	-10.965
▁బౌ	-10.9651
▁హర్	-10.9654
భారతీయ	-10.9655
▁130	-10.9655
క్ష్మ	-10.9658
▁పచ్చి	-10.9659
ఘట్ట	-10.9659
▁శరీరంలో	-10.9659
య్యర్	-10.966
▁శ్రీకృష్ణదేవరాయ	-10.9661
▁సంకలనం	-10.9661
యున్నది	-10.9661
ప్రస్తుతం	-10.9662
వైపులా	-10.9664
▁92	-10.9664
▁స్వామికి	-10.9668
ున్నాడు	-10.9669
▁చలి	-10.9672
▁మంట	-10.9673
▁చేయబడి	-10.9675
ంబర	-10.9676
▁కీర్తనల	-10.9677
చుకొని	-10.968
▁గుర్తించి	-10.9689
▁ఉపఖండ	-10.9696
కృ	-10.9698
స్తి	-10.9703
▁బలవంత	-10.9704
▁ప్రమాదం	-10.971
▁క్లా	-10.9711
▁దెబ్బ	-10.9712
▁భారతీయులు	-10.9724
▁తీవ్రవాద	-10.9726
▁106	-10.9728
ెళ్ల	-10.9733
షె	-10.9733
▁రాళ్ల	-10.9734
▁మినహా	-10.9739
from	-10.974
▁ఊరేగించ	-10.974
hemistry	-10.974
▁అంబేడ్కర్	-10.974
▁ఆవిష్కరించ	-10.974
▁కొంకణి	-10.974
▁గాయకురాలు	-10.974
▁గోరుచిక్కుడు	-10.974
▁జనసాంద్రత	-10.974
▁డిప్యూట	-10.974
▁మొక్కజొన్న	-10.974
▁సికింద్రాబాదు	-10.974
పిండారీ	-10.974
▁తానీషా	-10.974
.1896)	-10.974
.1900)	-10.974
▁పేష్వా	-10.974
▁వేర్వేరు	-10.974
▁పేదరికం	-10.974
.1910)	-10.974
▁సంస్థానాధీశుల	-10.974
▁పాలమూరు	-10.974
▁కొలువై	-10.974
▁పిమ్మట	-10.974
▁త్వరలో	-10.974
▁సుమతీ	-10.974
▁తిరగ	-10.974
▁కూర్పు	-10.974
▁తెలుస్తున్నది	-10.974
▁అత్యల్ప	-10.974
▁తరగతుల	-10.974
▁సమరయోధురాలు	-10.974
▁రావడానికి	-10.974
▁ఫుడ్	-10.974
▁సంక్షోభం	-10.9741
▁పెరుగుతున్న	-10.9741
▁ఉష్ణమండల	-10.9741
▁ప్రచురణకర్త	-10.9742
▁పదార్థం	-10.9743
▁ఉప్పల	-10.9743
▁మహారాణి	-10.9744
▁రేపల్లె	-10.9746
▁కావాలి	-10.9747
▁ఎంపికైన	-10.9747
▁విశ్వసిస్త	-10.9748
▁గనుక	-10.9748
▁చిన్నతనం	-10.9748
▁con	-10.9748
▁ఉండేదని	-10.9751
▁ఆమోదించింది	-10.9751
▁ధరించిన	-10.9752
▁సీతమ్మ	-10.9752
▁వెళ్లే	-10.9753
▁పవన	-10.9753
▁బంక	-10.9754
▁సభ్యురాలు	-10.9755
▁చేశాయి	-10.9756
▁నిమిషాల	-10.9756
▁మన్యం	-10.9758
బ్బి	-10.9759
▁పదార్థాల	-10.9759
▁దిబ్బ	-10.9762
శాస్త్రవేత్త	-10.9762
▁ఇంకో	-10.9763
ిగ్గా	-10.9764
▁1885	-10.9764
▁1888	-10.9765
▁కాపు	-10.9765
▁వర్ణించాడు	-10.9769
ోన్నత	-10.977
▁రావడంతో	-10.9771
▁కొత్తపల్లి	-10.9771
▁పురాతనమైనది	-10.9771
▁వల్లూరు	-10.9772
▁1894	-10.9774
▁మేనేజ	-10.9774
▁పట్టాభిషేకం	-10.9774
▁శిల్పి	-10.9777
▁యేట	-10.9781
▁వంశస్థులు	-10.9781
▁ప్రక్కన	-10.9784
▁మొత్తము	-10.9787
మద్ది	-10.9788
తడు	-10.9788
▁సంకేత	-10.9788
వారీ	-10.9788
▁తీర్ధ	-10.9789
▁ప్రవేశపెట్టిన	-10.979
▁మాయా	-10.979
▁ఏది	-10.979
▁అధీనంలోకి	-10.9791
▁స్వరూప	-10.9791
▁వారసుడు	-10.9791
▁విమానాశ్రయ	-10.9792
▁హిమాలయాల	-10.9796
నెస్	-10.9797
▁పల్లవ	-10.9797
▁ముద్రణ	-10.9797
వర్ష	-10.9798
▁చంద్రుడు	-10.9799
▁పల్లవులు	-10.9799
▁కలెక్టరు	-10.9799
▁చిహ్నాలు	-10.9799
▁బయలుదేర	-10.9802
▁పెళ్ళ	-10.9808
▁పంపిన	-10.9809
▁సంసార	-10.981
▁వస్తూ	-10.9814
▁ఉంచారు	-10.9816
▁శ్యామ	-10.9816
▁కొండా	-10.9826
▁కార్యక్రమాలను	-10.9827
ిస్తున్నాయి	-10.9827
▁ఇష్ట	-10.9829
▁యాగ	-10.983
▁బాట	-10.9831
▁పరిణ	-10.9838
▁నగరంలోని	-10.9838
▁నిలబడి	-10.9847
▁స్థానము	-10.9848
▁శ్లోకం	-10.9853
▁పొందినది	-10.9857
రక్షణ	-10.9863
నాధ్	-10.9864
▁వాసవ	-10.9864
రామ్	-10.9865
సంఘ	-10.9872
▁మహాసముద్రం	-10.9872
▁పర్యటన	-10.9876
కర్ణ	-10.988
స్థాపన	-10.9881
▁నటీ	-10.9882
▁కూల	-10.9885
▁పురాణాలు	-10.9898
▁దేశాలతో	-10.9899
▁చర్చ	-10.99
వెల్త్	-10.9901
▁జాతులు	-10.9908
ములైన	-10.9914
▁వెళ్ళు	-10.9916
▁కావు	-10.9917
▁ప్రతిమ	-10.9918
▁అందిస్త	-10.9921
▁చిరుత	-10.9924
రియల్	-10.9931
▁లభించాయ	-10.9932
పరచి	-10.9938
▁ప్రక్రియల	-10.9939
▁అత్య	-10.9942
▁కలిప	-10.9943
▁వెర్	-10.9945
▁విద్యాసంస్థలు	-10.9945
▁పోడూరు	-10.9945
▁ఆధారాల	-10.9947
▁ఒప్పంద	-10.9948
మొదటి	-10.9955
||	-10.9955
▁పరిధిలోని	-10.9955
దీనిని	-10.9957
▁జింక	-10.9958
▁దృష్టిలో	-10.9961
▁పాకిస్థానీ	-10.9962
చెట్టు	-10.9962
▁దొరక	-10.9962
ప్రదేశ్	-10.9963
▁కట్టిన	-10.9965
విశ్వ	-10.9965
సైన్స్	-10.9969
▁ఐస్	-10.9969
▁ఛాయ	-10.9971
న్నార్	-10.9972
▁సంస్కృతిలో	-10.9975
ావతారం	-10.9976
▁సర్ప	-10.9977
దూర్	-10.9978
ati	-10.9981
net	-10.9986
▁బౌద్ధమత	-10.9989
▁దక్క	-10.999
.186	-10.999
మండ్	-10.999
▁ప్ల	-10.9992
సీఆర్	-10.9993
▁లేఖ	-10.9998
▁జరిపి	-11.0002
▁శతాబ్దాలలో	-11.0005
▁ఉనికి	-11.0009
▁అధికారాలు	-11.0011
ల్లూరు	-11.0016
▁అక్షరము	-11.0016
▁పడింది	-11.0023
▁నింప	-11.0025
▁చుట్ట	-11.0028
మిది	-11.003
▁In	-11.003
▁కావ్యాల	-11.003
రోగ	-11.0032
పింగ్	-11.0034
▁పర్యటించ	-11.0042
▁ఊరగాయల	-11.0043
స్తున్నది	-11.0048
ore	-11.0049
▁మానవుల	-11.0055
▁కడపలో	-11.0057
ాన్నే	-11.0059
ear	-11.0059
▁పొగ	-11.0061
▁చెయ్యడం	-11.0062
ణ్ణ	-11.0065
▁ఆమోద	-11.0073
▁సంకీర్తన	-11.0083
బర	-11.0084
పురుష	-11.0084
1937)	-11.0087
▁గోవాలో	-11.0095
ఠా	-11.0098
1992)	-11.0099
▁తొలగి	-11.01
▁ఐరోపాలో	-11.0101
▁ఆర్థికంగా	-11.0107
▁పురి	-11.0108
▁చుట్టి	-11.011
▁విధానంలో	-11.0114
ెక్క	-11.0117
▁అణుబాంబు	-11.0121
▁కమిషను	-11.0121
▁ఘంటసాల	-11.0121
▁బంగాళదుంప	-11.0121
▁మధ్యాహ్న	-11.0121
▁మరికొందర	-11.0121
▁సున్నపురాయి	-11.0121
▁ఆత్మహత్య	-11.0121
▁ఉయ్యాలవాడ	-11.0121
▁ఏమిటంటే	-11.0121
▁ఒరిస్సా	-11.0121
▁దోపిడీ	-11.0121
▁పెట్టుబడుల	-11.0121
▁ముదిగొండ	-11.0121
.1911)	-11.0121
▁అయోధ్య	-11.0121
▁ఎఱ్ఱన	-11.0121
▁ఒంటరి	-11.0121
▁ధోరణి	-11.0121
▁వినోబా	-11.0121
▁స్థావరం	-11.0121
▁డిమాండ్	-11.0121
▁దృఢ	-11.0121
▁సూర్యాపేట	-11.0121
▁ప్రేరణ	-11.0121
.2004)	-11.0121
▁తెలియజేస్తున్న	-11.0121
▁పాతాళ	-11.0121
▁సుగంధ	-11.0121
▁వాసిరెడ్డి	-11.0121
నిరవద్య	-11.0121
▁హోటల్	-11.0121
▁కోనేరు	-11.0121
▁నగదు	-11.0121
▁సాక్ష్య	-11.0121
▁చేస్తుంటారు	-11.0122
▁చంద్రబాబునాయుడు	-11.0122
▁సైబీరియా	-11.0122
▁అనువైన	-11.0122
▁చెరుకు	-11.0122
▁ముంపు	-11.0122
▁పెనుకొండ	-11.0122
▁ప్రవహిస్తూ	-11.0122
▁అంతేకాక	-11.0122
▁తలుపు	-11.0123
▁తోడ్పడ	-11.0123
▁గొంతు	-11.0123
▁తెలిపాడు	-11.0123
▁చిలక	-11.0124
▁తేలిక	-11.0124
▁పేరుగాంచిన	-11.0124
▁సందర్భాలలో	-11.0125
▁590	-11.0126
▁సాహిత్యవేత్త	-11.0126
▁ఇద్దరూ	-11.0126
▁రూపొందించబడింది	-11.0129
▁నౌ	-11.013
▁యూరో	-11.013
▁కృష్ణమాచార్య	-11.0131
▁పాదము	-11.0132
▁వూ	-11.0132
▁పరిణామ	-11.0133
▁కుమారుల	-11.0133
ఫే	-11.0134
▁వాస్తు	-11.0137
▁వోల్	-11.0137
▁చెయ్యడానికి	-11.0137
▁ఓడించాడు	-11.0139
ాలయాలు	-11.014
▁హిందు	-11.0141
గ్రఫీ	-11.0141
▁వరదల	-11.0142
▁హనుమంతు	-11.0142
▁మొక్కులు	-11.0142
▁సగ	-11.0142
▁క్రిస్ట	-11.0143
▁1883	-11.0145
▁వరం	-11.0147
▁ఇతడి	-11.0149
ింపబడిన	-11.0151
మట్టి	-11.0152
▁కొనసాగించారు	-11.0152
▁ఉత్తర్వులు	-11.0155
▁శ్లోకాలు	-11.0158
▁విడిచిపెట్ట	-11.016
గణప	-11.0162
▁ఉపనదులు	-11.0163
▁జొ	-11.0165
▁రూపాయి	-11.0166
▁భూభాగ	-11.0166
▁సహకారం	-11.0166
▁కలం	-11.0166
ప్పటికి	-11.0168
▁ఓంకార	-11.0169
▁ఖ్యాతి	-11.0172
▁తరిమ	-11.0173
▁మంత్రిత్వ	-11.0175
▁వస్తే	-11.0176
పుట	-11.0177
▁నీళ్ళు	-11.0178
▁తాటి	-11.0179
▁బజారు	-11.0179
▁అయ్యారు	-11.0182
▁క్విట	-11.019
గణములు	-11.0191
▁ఒకరోజు	-11.0191
▁స్పేస్	-11.0192
▁కల్లు	-11.0195
▁భద్రతా	-11.0196
సాధ్య	-11.0205
▁సంకలన	-11.0205
▁రమా	-11.0206
▁వధ	-11.0207
వరము	-11.0208
▁స్నాన	-11.0208
▁ఆరోపణలు	-11.0209
యుగం	-11.0212
▁సాహెబ్	-11.0216
డియో	-11.0216
▁రాజకీయాల	-11.0219
పురుషుల	-11.022
▁హెర్	-11.0221
నాథుని	-11.0222
▁ముట్టడించ	-11.0226
▁భాగాలను	-11.0227
▁స్థానికంగా	-11.0232
కృష్ణారావు	-11.0236
▁పాదం	-11.0237
▁గోడకు	-11.0238
▁అలీన	-11.0242
▁శిల్పాల	-11.0244
▁భావం	-11.0246
▁రైతుల	-11.0251
▁ఇప్పటికి	-11.0252
▁హరిత	-11.0254
▁కదల	-11.0258
త్రయ	-11.0265
▁మాదిరిగా	-11.0267
యిక	-11.0269
కోల్	-11.027
▁చేదు	-11.0273
▁చోళుల	-11.0273
▁700	-11.0277
▁మెక్	-11.0278
▁పౌరుల	-11.028
▁గ్రహించ	-11.028
▁తడి	-11.0284
▁బాలా	-11.0285
▁గింజల	-11.0287
▁మూస	-11.0293
▁అప్పల	-11.0295
▁చేసుకొన	-11.0296
▁అవసరాలకు	-11.0301
లేటి	-11.0303
మండలం	-11.0303
▁అడవిలో	-11.0304
▁చిత్రంగా	-11.0305
గుట	-11.0315
▁116	-11.0315
క్కా	-11.0327
▁సేవకు	-11.0332
▁హంస	-11.0339
▁దెబ్బతి	-11.0339
▁అయినది	-11.034
▁సాహిత్యము	-11.0349
అమెరికా	-11.0351
ఫిబ్రవరి	-11.0351
ఆంధ్రప్రదేశ్	-11.0352
క్రమం	-11.0352
▁మడ	-11.0354
రాయుడు	-11.0357
ావధాన	-11.0358
▁పులుల	-11.0361
▁అధికమైన	-11.0362
శాంత	-11.0363
▁పరిస్థితులు	-11.0364
▁అరణ్యాల	-11.0368
▁సమర్ధ	-11.0368
▁రాజమండ్రిలో	-11.0379
లింగేశ్వర	-11.0382
విధంగా	-11.0382
రీత్యా	-11.0384
und	-11.0391
ంటున్నారు	-11.0398
శైలి	-11.0401
పిల్లల	-11.0401
▁కాయల	-11.0412
చేసింది	-11.0417
▁అసమాన	-11.042
రణాల	-11.0423
ించాయి	-11.0428
ించుట	-11.0431
▁అర్థము	-11.0432
జింగ్	-11.0434
▁జయించ	-11.0439
▁సామ్రాజ్యాల	-11.0441
్ఞ	-11.0445
▁10%	-11.0447
▁అందిస్తున్న	-11.045
▁పెను	-11.0454
పోవడంతో	-11.0462
▁ఎగుమతుల	-11.0462
▁పాండవ	-11.0462
▁ప్రవాహ	-11.0463
దానం	-11.0469
▁కండ	-11.0469
▁అడుగ	-11.047
▁ఊరగాయ	-11.0476
▁పరుగు	-11.0476
▁ఫోర్	-11.0477
▁సభ్యులుగా	-11.0481
▁గాక	-11.0485
ంజనేయ	-11.0487
▁మించి	-11.0487
ాచలం	-11.0487
వారం	-11.049
▁ఇతరులు	-11.0492
మాల్	-11.0495
▁మందిరాలు	-11.0496
▁వెలువడ	-11.0498
కీర్తన	-11.0502
▁కొండలలో	-11.0503
▁వచ్చును	-11.0505
త్తున	-11.0506
▁నాయకత్వ	-11.0508
▁పల్లవుల	-11.0509
▁పాండవుల	-11.0513
▁ప్రవాస	-11.0513
▁వదల	-11.0513
title	-11.0517
.2007)	-11.0517
▁ఇంజనీర్	-11.0517
▁గిద్దలూరు	-11.0517
▁ట్రాఫిక్	-11.0517
▁ధార్మిక	-11.0517
▁నైఋతి	-11.0517
▁మంగుళూరు	-11.0517
▁మంగేష్కర్	-11.0517
▁మలేషియా	-11.0517
▁మళయాళ	-11.0517
▁మిషనరీ	-11.0517
▁సామూహిక	-11.0517
▁స్పీకరు	-11.0517
▁ఆదిలాబాద్	-11.0517
▁ఒత్తిడి	-11.0517
▁భీష్మ	-11.0517
▁మైక్రో	-11.0517
▁రఘునాథ	-11.0517
▁సందర్శకుల	-11.0517
▁స్పెయిన్	-11.0517
.1906)	-11.0517
.1996)	-11.0517
▁జవాబు	-11.0517
▁బాదామి	-11.0517
▁లిఖిత	-11.0517
▁సెకండరీ	-11.0517
▁రమేష్	-11.0517
▁సుపరిచిత	-11.0517
.1899)	-11.0517
.2002)	-11.0517
▁చండీగ	-11.0517
▁అవార్డ్	-11.0517
▁చిత్రలేఖన	-11.0517
▁డైరెక్టర్	-11.0517
▁ప్లాంటు	-11.0517
▁సమాధుల	-11.0517
▁ఇరానీ	-11.0517
▁కదంబ	-11.0518
▁బెల్గాం	-11.0518
▁తిరుగుతూ	-11.0518
▁విక్రమ	-11.0518
▁పాయింట్	-11.0518
▁నేపాలు	-11.052
▁ప్రభాకర	-11.052
▁భౌతికశాస్త్రం	-11.052
▁కీసర	-11.0521
▁కార్యక్రమాలలో	-11.0521
▁అధిష్టించాడు	-11.0521
▁గది	-11.0522
▁యానాం	-11.0523
▁కేంద్రమంత్రి	-11.0523
▁చెల్లించాలి	-11.0523
▁అధ్యాపకుడు	-11.0524
▁లక్షలాది	-11.0524
▁చెంచు	-11.0524
▁అత్త	-11.0525
▁ఎన్నికైంది	-11.0525
▁బ్రాహ్మణుల	-11.0526
▁దాంతో	-11.0529
▁జలపాతాలు	-11.053
▁గద్య	-11.0531
▁రామమూర్తి	-11.0531
▁నడక	-11.0533
▁అందిస్తున్నాయి	-11.0535
▁తెల	-11.0535
▁జయించాడు	-11.0538
▁కోలు	-11.0538
▁1862	-11.0541
పరిచి	-11.0543
▁1858	-11.0543
▁పచ్చడి	-11.0545
▁నియమించి	-11.0546
▁మేజర్	-11.0546
▁సోదరుల	-11.0547
▁నియమించాడు	-11.0547
▁ఎందుకు	-11.0548
ప్రాప్తి	-11.0548
▁పన్నెండు	-11.0549
ర్షణ	-11.055
▁తగ్గింది	-11.0551
▁రాష్ట్రకూటుల	-11.0552
▁రాకుండా	-11.0555
▁కపూర్	-11.0555
▁అప్పటినుండి	-11.0556
▁ప్రవహిస్తున్న	-11.0556
▁ఉచితంగా	-11.0557
res	-11.0557
▁భూభాగాలను	-11.0558
▁వార్షికోత్సవం	-11.0559
▁త్రవ్వకాల	-11.0562
▁గుర్తించింది	-11.0562
▁ఆపరేషన్	-11.0563
▁మిలియన్లు	-11.057
▁నిల్వలు	-11.0573
దినం	-11.0573
ాళ్	-11.0574
▁ఉండుట	-11.0579
డై	-11.0589
▁కంఠ	-11.0593
▁హోం	-11.0597
▁తుది	-11.0599
▁మంత్రుల	-11.0601
▁రచనా	-11.0605
▁కూడి	-11.0607
▁విగ్రహాలను	-11.0609
▁పూర్తిచేస	-11.061
కుమార్	-11.061
గ్రంధ	-11.061
డింగ్	-11.0612
దాకా	-11.0613
▁క్షీణించ	-11.0613
▁నోటి	-11.0614
▁ఆరాధించ	-11.0614
▁కొరత	-11.0615
▁ఇత	-11.0615
కైనా	-11.0615
▁కార్యదర్శిగా	-11.0615
▁శివలింగం	-11.0615
▁ఉపయోగించిన	-11.0623
▁వున్నది	-11.0624
▁ఉద్దేశించి	-11.0631
▁పారి	-11.064
-30	-11.0641
▁సరసు	-11.0644
▁మతము	-11.0645
▁పరిణామాల	-11.0649
ిస్ట్	-11.0653
▁పరిధిలోకి	-11.0661
▁సమస్యలను	-11.0662
▁140	-11.0662
వుతుంది	-11.0663
ధ్ధ	-11.0664
▁వెచ్చ	-11.0664
చేసే	-11.0665
▁కామన్	-11.067
▁స్తంభం	-11.0671
▁సంబ	-11.0671
▁అంతర్జాల	-11.0676
▁కృతుల	-11.0676
▁పన్నులు	-11.0681
▁విశాఖపట్నంలో	-11.069
పరిపాల	-11.0697
▁ఆర్థర	-11.07
దశలో	-11.07
ినప్పటికీ	-11.07
ెవర	-11.07
▁సుంక	-11.0702
▁సినిమాల్లో	-11.0702
▁అనుమతించ	-11.0705
▁ఉపయోగం	-11.0712
▁వైశాల్య	-11.0716
▁సీతారాముల	-11.0719
విద్యా	-11.0719
బ్రి	-11.0721
▁పెట్టే	-11.0723
▁ఉద్యోగులు	-11.0724
▁నాథ్	-11.0726
న్యూ	-11.0727
నూరి	-11.0727
▁పర్సన	-11.0729
▁చీలి	-11.0729
▁ప్రవేశించిన	-11.0731
కాంక్ష	-11.0733
▁జన్మదిన	-11.0737
▁కాళీ	-11.0738
▁800	-11.0739
▁అనుగ్రహ	-11.074
▁వ్యాఖ్య	-11.0748
▁గెలుచుకు	-11.0749
▁గనుల	-11.0757
▁సీట్ల	-11.0758
1967)	-11.0758
యుద్ధం	-11.076
ఊ	-11.076
పరిశ్రమ	-11.0763
ఆధునిక	-11.0764
సామ్రాజ్య	-11.0764
▁భారతదేశాన్ని	-11.0764
కొరకు	-11.0764
ఠి	-11.0765
▁స్థిరపడిన	-11.0765
శాతం	-11.0767
పండిత	-11.0767
▁దేవస్థానము	-11.0772
▁గాయపడ్డా	-11.0773
▁తొమ్మిద	-11.0774
కునిగా	-11.0775
▁బోర్	-11.0779
బ్లి	-11.0781
▁కలిగే	-11.0782
స్థలం	-11.0782
మంత్ర	-11.0784
▁బలరామ	-11.0786
▁క్రీడల	-11.0788
▁అల్లం	-11.079
▁బోయ	-11.0793
▁చిహ్న	-11.0794
వృత్తి	-11.0794
▁కృతి	-11.0798
గర్భ	-11.08
▁వైవిధ్యం	-11.0801
గోపాల	-11.0803
పత్రిక	-11.0806
ప్రాంతాల	-11.0807
▁గరి	-11.0809
▁చంద్రశేఖర	-11.0818
▁మకర	-11.0824
▁అడవులలో	-11.0824
ుకోవటం	-11.0831
▁చిరు	-11.0837
to	-11.0837
▁పతక	-11.084
▁సంస్కృతిని	-11.0845
▁స్టీ	-11.0848
మిత్ర	-11.086
▁నిధులు	-11.086
▁ప్రవహించ	-11.0868
▁ముస్లిమ	-11.0872
▁గ్రామస్థుల	-11.0875
▁ఇస్లామ	-11.0877
▁రామస్వామి	-11.0877
▁ముగింపు	-11.0879
▁ఇంట	-11.0888
▁సామెత	-11.0889
▁తాలూకాలో	-11.0892
వాదులు	-11.0893
▁భేదము	-11.0894
▁ఉత్సవాలలో	-11.0897
▁చర్చించ	-11.09
1938)	-11.0913
▁రాత్ర	-11.0913
▁చెక్కి	-11.0913
▁నిరోధ	-11.0913
▁ఆహ్వానించ	-11.0914
ఘర్	-11.0918
సమూహ	-11.0919
▁రవీంద్ర	-11.092
▁అక్షరముల	-11.0924
▁భారతంలో	-11.0927
▁చూడు	-11.0928
▁ఏర్పాటై	-11.0929
▁కల్వకుంట్ల	-11.0929
▁గుండ్లకమ్మ	-11.0929
▁తళ్ళికోట	-11.0929
▁నెమ్మదిగా	-11.0929
▁ప్రయోక్త	-11.0929
▁బద్వేలు	-11.0929
▁మరుసటి	-11.0929
▁రుక్మిణీ	-11.0929
▁వికీపీడియా	-11.0929
▁వ్లాదిమిర్	-11.0929
▁శిలాశాసనాల	-11.0929
▁శ్రీమహావిష్ణువు	-11.0929
▁శ్రేణి	-11.0929
▁హొయసల	-11.0929
▁ఆవిర్భావ	-11.0929
▁గాయత్రీ	-11.0929
▁ప్రయత్నిస్త	-11.0929
▁మంజీరా	-11.0929
▁మాండలికం	-11.0929
▁మిలటరీ	-11.0929
▁రాయచూరు	-11.0929
▁సమాధానం	-11.0929
.1892)	-11.0929
ఎత్తిపోతల	-11.0929
▁తెలిపింది	-11.0929
▁సముద్రమట్టాని	-11.0929
▁దామోదర	-11.0929
▁మిశ్రమ	-11.0929
▁గ్రూపు	-11.0929
▁కాలక్రమంలో	-11.0929
▁జమ్మూ	-11.0929
▁శతదినోత్సవం	-11.0929
▁సత్యభామ	-11.093
▁దిగుబడి	-11.093
▁చేనేత	-11.093
▁పిదప	-11.093
▁వనవాస	-11.093
▁వేణు	-11.093
▁మసాలా	-11.093
▁ప్రయోజనాల	-11.093
▁ధ్వంసం	-11.093
▁బిర్లా	-11.093
▁శాఖామంత్రి	-11.093
▁పరిగణిస్తారు	-11.093
▁నామమాత్ర	-11.0931
▁వ్యక్తం	-11.0931
▁శక్తుల	-11.0931
▁పట్టభద్ర	-11.0931
▁దర్శనీయ	-11.0931
▁వాసుల	-11.0931
▁కామరాజ్	-11.0932
▁ధ్వజస్తంభ	-11.0932
▁మకుటం	-11.0934
▁దేశవ్యాప్తంగా	-11.0935
▁శాసనసభ్యుల	-11.0936
▁త్యాగయ్య	-11.0936
▁జిగురు	-11.0937
▁దుష్ట	-11.0937
▁టాకీ	-11.0938
▁వెనుకబడిన	-11.0938
▁ముఘల	-11.0938
▁సంకల్ప	-11.0939
▁వెనక్కి	-11.0941
▁అయిదు	-11.0944
రోజున	-11.0946
▁రాజాజీ	-11.0948
▁భిన్నంగా	-11.0948
▁De	-11.0948
▁దుర్గం	-11.0949
▁స్థావరాలు	-11.0949
షాద్	-11.0949
▁ఇస్తుంది	-11.095
▁1886	-11.0951
▁పట్నం	-11.0952
▁ప్రవేశపెట్టింది	-11.0953
▁యమునా	-11.0953
మర్తి	-11.0954
▁పెంచడానికి	-11.0957
▁దోహదం	-11.0958
▁ఉదర	-11.0958
▁ఉపదేశ	-11.0958
▁అవకాశాల	-11.0961
ుకుందాం	-11.0961
▁ఆచార్యుడు	-11.0961
▁1800	-11.0962
▁జత	-11.0968
▁మార్పిడి	-11.097
ంబున	-11.0971
▁ముగించ	-11.0971
▁నీవు	-11.0971
▁దేవాలయానికి	-11.0972
▁నామా	-11.0973
బర్మన్	-11.0974
▁సామంతులుగా	-11.0975
▁చేసాయి	-11.0977
▁హెల్	-11.0977
▁ముత్యాల	-11.0979
పూర్వక	-11.0979
da	-11.0981
▁సైన్యాలు	-11.0985
▁పేరుపొంద	-11.0988
▁వెల్లడించ	-11.0989
▁చేయగల	-11.0993
▁బౌద్ధులు	-11.0994
▁అలంకారం	-11.0997
▁గంగాధర	-11.0998
▁బాలికలు	-11.0998
▁విశ్వనాధ	-11.1001
▁ఓటు	-11.1006
▁విధమైన	-11.101
▁బంధించి	-11.1012
▁నుంచీ	-11.1013
▁ముల్క్	-11.1014
▁కోణ	-11.1016
▁కొప్ప	-11.1018
▁తిన్న	-11.1018
▁ఆక్రమించుకున్న	-11.1021
▁సొర	-11.1021
టికీ	-11.1022
▁మరలా	-11.1022
▁పరిమాణం	-11.1022
స్థాయిలో	-11.103
▁లేత	-11.1033
▁వక్త	-11.1034
▁అణువుల	-11.1035
▁భాగమైన	-11.1038
▁రుణ	-11.1038
▁పోసి	-11.1039
▁గౌరవం	-11.1049
▁పరీక్షల	-11.1049
▁అంతరించి	-11.1051
▁పాస్	-11.1053
▁చెప్పవచ్చును	-11.1058
▁పద్ధతిని	-11.1066
▁కోర్టులు	-11.1071
▁గుంట	-11.1072
▁సరస	-11.1074
▁వెంకటేశ్వరుని	-11.1075
▁వయస్సులో	-11.1082
వెం	-11.1086
▁నిప్పు	-11.1089
నెట్	-11.1094
▁స్థానికులు	-11.1096
▁స్థూప	-11.1099
▁లైను	-11.1107
▁విశ్వవిద్యాలయము	-11.1113
వాడని	-11.1117
▁సేన్	-11.1117
▁మోడ	-11.112
ద్దరు	-11.1123
▁ప్రధానిగా	-11.1124
▁ఉంటున్న	-11.113
▁విఘ్న	-11.1137
▁పిలువ	-11.114
రసం	-11.1141
▁మొర	-11.1142
▁చూచ	-11.1147
పూరిత	-11.115
▁విమానాల	-11.115
కాళ	-11.1155
ేటట్లు	-11.116
▁చెన్నకేశవ	-11.1161
▁కళ్ల	-11.1166
▁ఇచ్చట	-11.1168
▁పురుగు	-11.1171
▁పసి	-11.1174
▁ఇంతకు	-11.1177
▁విధాలు	-11.1178
▁షియా	-11.118
▁ఊహ	-11.1184
▁సాహిత్యానికి	-11.1186
▁రంజ	-11.1192
The	-11.1194
పర్వత	-11.1195
సుబ్రహ్మణ్య	-11.1196
▁అంతర్భాగం	-11.1196
▁దేవరాయ	-11.1198
▁సంగమం	-11.1198
▁శరీరము	-11.12
మార్చి	-11.1201
▁సాంప్రదాయక	-11.1202
9)	-11.1205
▁పట్టణాలలో	-11.1208
▁ప్రస్తుతము	-11.1211
▁మతాలు	-11.1221
▁ఆరాధ	-11.1229
▁రెండవది	-11.123
▁చెక్కబడి	-11.1233
1988)	-11.1236
ండ్రు	-11.1247
▁చేయడ	-11.1247
▁వనరు	-11.1247
వాడికి	-11.1252
▁105	-11.1258
ain	-11.1259
▁అంకిత	-11.1261
▁సరిహద్దుగా	-11.1266
▁పండించబడుతు	-11.127
▁గతి	-11.1271
▁సైన్యంలో	-11.1271
▁నిలువు	-11.1274
▁ద్రవ	-11.1275
▁గణం	-11.128
▁ఉద	-11.1285
▁170	-11.1285
▁బంధించ	-11.1288
▁కట్టడాల	-11.1289
over	-11.1293
భూముల	-11.1299
▁వాళ్ల	-11.1316
▁జాతీయోద్యమ	-11.1319
▁పిలిచి	-11.1319
▁చెల	-11.132
▁నాలుగ	-11.1324
▁యాస	-11.1329
కుడిగా	-11.1334
▁నవాబుల	-11.1338
▁ప్రక్కల	-11.1338
▁St	-11.1339
II	-11.1339
▁ప్రాధాన్య	-11.1341
▁ప్రతాపరుద్ర	-11.1344
aw	-11.1345
క్షేత్రం	-11.1345
▁గార్ల	-11.1347
▁వస్త్రాల	-11.1348
న్టీఆర్	-11.1357
▁చేయించి	-11.1359
లయిన	-11.1359
▁ఎదిగి	-11.1359
▁పాండిత్య	-11.136
.2018)	-11.136
జలాంతర్గామి	-11.136
▁ఆనవాయితీ	-11.136
▁ఇంకొల్లు	-11.136
▁ఇటాలియన్	-11.136
▁కథానాయకుడు	-11.136
▁కమిషనర్	-11.136
▁కృత్రిమ	-11.136
▁కెప్టెన్	-11.136
▁కోనసీమ	-11.136
▁చీమకుర్తి	-11.136
▁జటప్రోలు	-11.136
▁దూరదర్శన్	-11.136
▁పాండురంగ	-11.136
▁పురాతత్వ	-11.136
▁బ్లెయిర్	-11.136
▁మానవతావాది	-11.136
▁యాజమాన్య	-11.136
▁విడదీసి	-11.136
▁శాస్త్రజ్ఞుడు	-11.136
▁సంఘసంస్కర్త	-11.136
▁సామర్ధ్య	-11.136
▁సాయిబాబా	-11.136
▁చేజిక్కించుక	-11.136
▁మార్కండేయ	-11.136
.1934)	-11.136
▁చీకటి	-11.136
▁నగరపాలక	-11.136
▁ఆఫ్రికన్	-11.136
▁చురుకు	-11.136
▁పేల్చి	-11.136
.1895)	-11.136
.1912)	-11.136
▁ట్రస్ట్	-11.136
▁వేల్పూర్	-11.136
▁హవేరి	-11.136
ింపజేయ	-11.136
▁రావణుడ	-11.136
▁బృందావన	-11.136
▁నెమలి	-11.136
▁రాజంపేట	-11.136
▁తపాలా	-11.136
▁కొవ్వు	-11.136
▁విండోస్	-11.136
చింతామణి	-11.136
▁ఆరోపించ	-11.136
▁చెప్పుకోదగిన	-11.136
▁గంధర్వ	-11.136
▁కొల్లాపూర్	-11.136
▁జరప	-11.136
బడలేదు	-11.1361
ప్రకాష్	-11.1361
▁పథకాల	-11.1361
▁విడిపించ	-11.1361
▁లీడర్	-11.1361
▁ముఖ్యపట్టణం	-11.1361
▁తేల్చ	-11.1361
▁అందుచేత	-11.1362
▁మైత్రి	-11.1363
▁వందలాది	-11.1363
▁భాషావేత్త	-11.1363
▁గుర్రం	-11.1363
▁విప్లవాత్మక	-11.1363
2003)	-11.1364
▁లఘువు	-11.1364
▁విలక్షణ	-11.1365
యిడ్స్	-11.1365
▁సాగుతుంది	-11.1366
▁సజీవ	-11.1366
▁చదివాడు	-11.1366
▁అట్లూర	-11.1367
వచ్చిన	-11.1367
▁చిహ్నం	-11.1368
▁నర్మదా	-11.1369
▁టైమ్స్	-11.1369
▁విరసం	-11.1369
▁ఫిరో	-11.137
▁చిరంజీవి	-11.137
▁శత్రువుల	-11.137
ుకోవాలని	-11.137
▁కాఫీ	-11.1371
▁గోపుర	-11.1372
▁జన్యు	-11.1372
స్వర్ణయుగం	-11.1372
▁బాసర	-11.1372
▁అరణ్యపర్వ	-11.1374
india	-11.1376
▁తాజా	-11.1376
▁బందీ	-11.1377
▁మదర్	-11.1377
▁స్పష్టంగా	-11.1377
ధాన్యాలు	-11.1379
పిల్ల	-11.138
▁తుర్క్	-11.138
▁కలిగిస్తుంది	-11.1381
▁ఎముకల	-11.1382
61)	-11.1382
▁అంతరిక్షంలో	-11.1383
▁సైన్యానికి	-11.1385
▁కస్తూరి	-11.1386
▁దేవస్థాన	-11.1389
▁తీసుకున్నారు	-11.139
▁ఆముద	-11.139
▁80%	-11.139
▁1882	-11.139
▁శరీరానికి	-11.1391
▁మనుషుల	-11.1391
▁జరుగుతున్నది	-11.1393
▁విడిది	-11.1393
స్తానని	-11.1394
▁1880	-11.1395
▁ప్రీత	-11.1397
▁డోన్	-11.1398
▁పరిపాలిస్త	-11.1399
▁గౌతమీ	-11.14
▁సామెతలు	-11.1402
▁ప్రతిష్ఠించి	-11.1404
▁నిలిచారు	-11.1404
▁కన్య	-11.1404
▁593	-11.1405
▁పూర్వీకులు	-11.1405
▁ముక్తి	-11.1406
▁యంత్రాలు	-11.1406
▁హజార	-11.1407
▁పేరుగల	-11.1408
▁చంద్	-11.141
2014	-11.1411
▁కావచ్చును	-11.1411
▁ముగింపుకు	-11.1412
▁తెలుసుకొన	-11.1413
▁అప్	-11.1413
▁స్మిత	-11.1413
▁దోశ	-11.1414
▁ఎగుమతులు	-11.1419
▁విధులు	-11.142
▁ఇద్దరి	-11.1421
▁ఇటుకల	-11.1421
▁దీర్ఘకాల	-11.1421
▁యాదవ్	-11.1424
1974)	-11.1424
▁రూపొందించారు	-11.1428
▁ఉరి	-11.1429
▁ఋ	-11.1433
కోవ్	-11.1433
వేసిన	-11.1434
▁పానక	-11.1434
▁సమావేశాలు	-11.1435
ధ్యాయము	-11.1435
పాండ	-11.1442
▁తాలూకాలోని	-11.1444
▁మరిన్న	-11.1444
▁నేనే	-11.1445
▁బాల్య	-11.1445
▁ఇండ	-11.1446
▁ఆక్స్	-11.1447
▁కార్యకలాపాలు	-11.1448
▁ఆర్ట్	-11.1448
▁పంపాడు	-11.1448
▁శబ్దము	-11.1452
ాశ్రయ	-11.1452
ప్రతాప్	-11.1453
గుట్ట	-11.1454
▁లక్ష్యంగా	-11.1455
▁గోపురం	-11.1458
▁పాదంలో	-11.1461
▁స్వభావ	-11.1463
▁శ్రీరంగం	-11.1464
▁హత్యా	-11.1465
ందరికీ	-11.1465
▁తేది	-11.1465
▁సంపుటి	-11.1468
▁మాఘ	-11.1469
▁మొదలయ్యింద	-11.1469
▁సూరి	-11.147
▁క్షేత్రము	-11.147
▁కుటుంబము	-11.1471
▁కార్యాలయాలు	-11.1471
మగును	-11.1473
ఫిల్	-11.1473
దీప్	-11.1474
▁బృంద	-11.1476
▁సిద్ధాంతం	-11.1477
▁సంప్రదాయానికి	-11.1478
▁ఉదాహరణకి	-11.1479
▁సర్కారు	-11.148
ములందు	-11.148
ology	-11.1482
మిలి	-11.1484
▁హాల్	-11.1484
1000	-11.1488
▁పచ్చని	-11.1491
▁ప్రమాదంలో	-11.1491
▁మహావీర	-11.1492
▁రసం	-11.1493
▁ప్రభావము	-11.1494
▁ప్రాకారం	-11.1494
▁వ్యాఖ్యలు	-11.1494
▁చెందినవాడు	-11.1494
▁అనుమతిస్త	-11.1495
▁వేముల	-11.1496
▁వహిస్త	-11.1496
▁ముంద	-11.1497
our	-11.1498
మాంబ	-11.1499
▁శతాబ్ధాల	-11.1501
▁వేతన	-11.1502
▁కోల్పోయి	-11.1502
▁కూరగాయల	-11.1508
▁ఇక్ష్వాకుల	-11.1508
▁సేవలకు	-11.1509
▁సునా	-11.1511
పట్టణ	-11.1515
232	-11.1515
రిగిన	-11.1515
▁తీర్చుకున్నా	-11.1516
▁చనిపో	-11.152
▁దండి	-11.1521
▁విధి	-11.1523
▁కూరగాయ	-11.1527
సంస్కృత	-11.1529
ern	-11.1531
▁చేసుకునే	-11.1534
▁కాద	-11.1539
▁నోట	-11.1546
▁వేసవిలో	-11.1547
మేషన్	-11.1548
▁ఆయుధ	-11.1548
ver	-11.1552
ka	-11.1554
ుకుంటుంది	-11.1556
భ్యం	-11.1556
▁సుందరమైన	-11.1558
▁శ్ర	-11.1558
▁శివారు	-11.1559
▁167	-11.1559
▁దాస	-11.156
▁నింద	-11.1564
▁దేవీ	-11.1566
▁వెళ్తు	-11.1568
▁బాల్యం	-11.1577
▁121	-11.1578
▁విలసిల్ల	-11.1585
▁అనుబంధం	-11.1592
గ్రామంలో	-11.1596
▁కచ్చిత	-11.1601
▁wh	-11.1606
▁ఫైన	-11.161
మోహన్	-11.1611
ాంశాల	-11.1614
▁పోలీసుల	-11.162
▁సుభా	-11.1623
▁బంగాళాఖాతంలో	-11.1625
▁స్టూడియో	-11.1626
▁బిహార	-11.1631
హిందీ	-11.1643
వరాహ	-11.1645
▁నౌకాశ్రయ	-11.1648
ప్రపంచ	-11.1648
అనగా	-11.165
వీధి	-11.1656
▁దేవదాస	-11.1664
▁గనులు	-11.1665
▁జిమ్	-11.1668
▁మేడ	-11.1672
సేపు	-11.1674
▁సినిమాలకు	-11.1678
▁గర్వ	-11.1678
400	-11.1678
▁వేలు	-11.1681
▁సత్రం	-11.1682
ెత్త	-11.1683
▁తడ	-11.1683
▁దున్న	-11.1693
ెత్తు	-11.1693
▁దర్శక	-11.1694
▁Th	-11.1695
▁శ్లోకాల	-11.1695
▁అల్ప	-11.1706
ిచ్చారు	-11.1707
రామకృష్ణ	-11.1707
▁అక్షాంశ	-11.1709
▁దక్ష	-11.1714
▁పార్లమెంట	-11.1716
▁విశాల	-11.1718
▁త్రిపురాంతక	-11.1719
వున్న	-11.1721
▁524	-11.1722
▁అల్లా	-11.1722
వేయడం	-11.1726
▁1,3	-11.1727
▁పాయ	-11.1728
▁అడ	-11.1731
▁వస్తాయ	-11.1738
▁తగిలి	-11.174
▁యూదుల	-11.1745
▁ధారణ	-11.1747
ొకటి	-11.1749
▁ప్రాంతముల	-11.1749
▁మెచ్చ	-11.175
▁వస్త్రం	-11.175
వలసింది	-11.1751
▁విజయ్	-11.1752
▁నిశ్చయించ	-11.1754
▁తిరునాళ్ళ	-11.1755
చిన్	-11.1757
▁కేంద్రాలలో	-11.1759
.2%	-11.176
భక్తి	-11.1764
▁హూ	-11.1765
▁సోషల	-11.1769
▁ఉత్తర్వు	-11.1769
▁గ్రంథంలో	-11.1769
▁ఎవరైన	-11.1771
▁జాతీయవాద	-11.1772
▁అద్దం	-11.1776
▁350	-11.1781
-24	-11.1785
▁మండలాలతో	-11.1791
▁సమానం	-11.1795
▁వృషభ	-11.1797
▁దారితీస	-11.1798
ప్రభుత్వం	-11.18
▁లఘు	-11.1804
స్తారమున	-11.1805
▁సంరక్ష	-11.1806
▁తీగ	-11.1806
▁గురువారం	-11.1809
.2020)	-11.1809
coordinates	-11.1809
▁అలహాబాదు	-11.1809
▁గుండెపోటు	-11.1809
▁జర్నలిస్టు	-11.1809
▁దత్తాత్రేయ	-11.1809
▁పిఠాపురం	-11.1809
▁పెదనందిపాడు	-11.1809
▁ఫాల్గుణ	-11.1809
▁ఫ్యాషన్	-11.1809
▁బీజాపూరు	-11.1809
▁రావట్లేదు	-11.1809
▁వాగ్గేయకారుడు	-11.1809
▁వామపక్ష	-11.1809
▁అష్టాదశ	-11.1809
▁ఇబ్బందుల	-11.1809
▁టమోటా	-11.1809
▁మొఘలుల	-11.1809
▁యునెస్కో	-11.1809
▁విద్యాభ్యాసం	-11.1809
▁షాజహాన్	-11.1809
.1932)	-11.1809
.1944)	-11.1809
.1998)	-11.1809
▁ఘనవిజయం	-11.1809
▁ఫోటో	-11.1809
▁మాధ్యమాల	-11.1809
▁మార్షల్	-11.1809
▁కరాచీ	-11.1809
.1890)	-11.1809
.1997)	-11.1809
▁నిరవాకి	-11.1809
▁మధుమేహ	-11.1809
▁లక్నో	-11.1809
▁ప్రయోజనం	-11.1809
▁ఎడిటర్	-11.1809
▁హయాంలో	-11.1809
▁వ్యత్యాస	-11.1809
.1919)	-11.1809
▁వెంబడి	-11.1809
▁స్క్రీన్	-11.1809
▁స్కూలు	-11.1809
▁బూడిద	-11.1809
▁శాస్త్రజ్ఞుల	-11.1809
▁హనుమ	-11.1809
▁స్థితిగతుల	-11.1809
▁గాంధార	-11.1809
▁జస్టి	-11.181
▁సమ్మె	-11.181
▁గ్రీన్	-11.181
▁గ్లాస	-11.181
▁0-6	-11.181
▁సరోవర	-11.181
▁సుందరాచారి	-11.181
▁అల్లు	-11.181
ence	-11.181
▁మహానంది	-11.181
▁సంచిక	-11.181
▁రాచకొండ	-11.1811
క్షేప	-11.1811
▁భ్రమ	-11.1811
.1947)	-11.1811
▁బెల్లం	-11.1812
▁చూశా	-11.1812
▁డీఏ	-11.1812
▁ప్రదర్శనశాల	-11.1812
▁ట్రాక్	-11.1813
▁డచ్	-11.1813
▁భత్కల్	-11.1813
▁కామరూప	-11.1813
▁మహిమ	-11.1814
▁ఎదుట	-11.1814
Uni	-11.1814
▁వేయబడింది	-11.1815
▁వెదురు	-11.1816
▁పెన్నానది	-11.1816
▁5071	-11.1817
▁తగ్గుతుంది	-11.1818
▁కలుస్తాయి	-11.1818
▁వ్రత	-11.1818
▁పరిసరాలలో	-11.1819
▁బంగాళా	-11.1821
▁ఇనుప	-11.1821
▁మహాలక్ష్మి	-11.1822
▁పతకాలు	-11.1822
▁కుమ్మరి	-11.1823
▁గుడ్డ	-11.1825
▁బుద్ధుడు	-11.1826
భాగాన్ని	-11.1828
▁వుండేది	-11.1829
▁తినడం	-11.1829
థ్యం	-11.1829
▁కలాం	-11.183
▁ఉపాధ్యాయుడు	-11.1832
▁ప్రహ్లాదుని	-11.1832
▁భద్రపరచ	-11.1835
▁తెప్ప	-11.1835
▁Telugu	-11.1838
▁అనుమాన	-11.1839
▁వాటా	-11.184
▁1877	-11.184
గ్రేట	-11.1844
రేషన్	-11.1844
పర్రు	-11.1845
▁ఘటన	-11.1845
▁క్షేత్రాలు	-11.1846
బర్ట్	-11.1847
▁నూరు	-11.185
▁పరికరాలు	-11.1854
▁తల్లిదండ్రులు	-11.1854
▁పంపింది	-11.1854
▁డ్యా	-11.1855
▁నియమించారు	-11.1856
▁సూర్యుని	-11.1856
▁ఏర్పడే	-11.1857
▁శ్రీపాద	-11.1859
వంశం	-11.1862
▁జక్క	-11.1862
▁రామరాజు	-11.1863
im	-11.1864
aga	-11.1865
▁చెప్పడానికి	-11.1866
ian	-11.1866
▁అయ్యర్	-11.1868
ద్దీన్	-11.1869
▁తాక	-11.187
▁పనిచేస్తున్నారు	-11.187
▁బయో	-11.1871
హర్ష	-11.1872
▁లక్ష్మణ్	-11.1873
పోతున్న	-11.1874
▁చేస్తున్నాయి	-11.1877
▁గడ్డి	-11.1878
▁దోస	-11.1881
▁తీసుకొ	-11.1881
▁వైభవ	-11.1886
విధాల	-11.1889
▁జలాలు	-11.1897
▁పేజీలు	-11.1898
▁చై	-11.1899
▁మారాయి	-11.1899
▁గర్భాలయ	-11.1901
▁వేడుకల	-11.1902
▁బంద	-11.1903
2008	-11.1904
▁జోషి	-11.1905
ost	-11.1905
కాల్	-11.1908
▁ప్రసిద్ధమైన	-11.1909
▁1,2	-11.191
▁ఆజ్ఞ	-11.1912
బాయ్	-11.1919
▁బ్రాహ్మణులు	-11.192
రోజులు	-11.1923
▁రాజకీయాల్లో	-11.1925
ేనని	-11.1929
▁శాతవాహనులు	-11.1934
▁ముఖ్	-11.1949
కావ్యాన్ని	-11.1949
▁ఊరగాయలు	-11.195
▁బయటపడ	-11.1952
▁2,0	-11.1954
▁రాఘవేంద్రస్వామి	-11.1957
నెక్	-11.1958
ఫై	-11.1959
సెల్	-11.1966
▁ప్రశంసలు	-11.197
▁శిల్పం	-11.1972
▁శతాబ్దాలు	-11.1975
జీవన	-11.1977
▁ఎదుర్కొంటున్న	-11.1978
▁We	-11.198
ేమో	-11.1981
▁పరిజ్ఞానం	-11.1981
▁నిర్వహించబడి	-11.1982
▁శైలిని	-11.1986
▁కేంద్రాల	-11.1989
lu	-11.1997
▁భవన్	-11.2002
▁పెట్టె	-11.2004
▁శతాబ్దములో	-11.2008
▁పూవు	-11.201
ిశెట్టి	-11.201
▁అలంకరించి	-11.2013
చేయడం	-11.2017
యగు	-11.2017
మూడి	-11.2026
▁సంస్కృతములో	-11.2026
గ్రంథము	-11.2027
గుండ	-11.2035
యానం	-11.2036
▁తిరుమ	-11.2038
వెంట	-11.2041
▁నేతలు	-11.2042
లపూడి	-11.2046
క్రాంత	-11.2054
mi	-11.2059
▁కంట	-11.2065
▁సమయంలోనే	-11.2065
▁పద్యంలో	-11.2066
▁లక్షణముల	-11.2068
▁శరీరం	-11.2071
▁తీసుకువచ్చి	-11.2073
ద్వీప	-11.2075
▁వేదాలు	-11.2081
దూరంలో	-11.2092
▁అప్పు	-11.2095
▁ప్రజల్లో	-11.2096
▁నడుస్త	-11.2102
▁పడే	-11.2102
పత్	-11.2102
▁157	-11.2104
తుల్	-11.2107
నక్షత్ర	-11.2112
▁టెన్	-11.2113
విష్ణు	-11.2114
అమెరికన్	-11.2114
చెరువు	-11.2114
సామాన్య	-11.2114
▁శివుడి	-11.2121
▁ఆప్	-11.2126
▁భంగ	-11.2131
ప్రథమ	-11.2138
▁అనుసంధానం	-11.2138
పద్మ	-11.2139
▁అవధానం	-11.214
▁సత్ర	-11.2143
యెల్	-11.2147
▁గేట్	-11.2161
▁అనంతర	-11.2163
జూన్	-11.2164
▁కంప్యూటరులు	-11.2164
▁సామంతుల	-11.2167
ుకుంటే	-11.2167
▁కనుమల	-11.2168
▁112	-11.2169
▁క్షీణించి	-11.2171
నిపిస్తుంది	-11.2171
▁అనుకున్న	-11.2174
▁శాస్త్రాల	-11.2188
▁వధించ	-11.2191
▁జలాల	-11.2191
ెరుగ	-11.2192
▁ప్రతిష్ఠాత్మక	-11.2194
▁కుప్ప	-11.2196
▁సమావేశాల	-11.2197
సంస్కృతి	-11.2199
▁సేనల	-11.2201
▁అలంకార	-11.2204
▁ప్రాకార	-11.2205
▁విక్రయ	-11.2209
▁కనిపిస్తున్న	-11.2212
▁ఆరంభంలో	-11.2215
హాస	-11.2217
▁ఆవిర్భవించింద	-11.2218
లంగి	-11.2219
▁టీం	-11.222
▁పరిష్కార	-11.2223
ధుర	-11.2225
▁పట్టాభి	-11.2226
▁కోత	-11.2229
▁సంస్థానాల	-11.2233
బెట	-11.2234
▁నిర్వహ	-11.2236
కౌ	-11.2238
ree	-11.2239
▁ఫలితాల	-11.2249
▁స్కంద	-11.2258
▁ఆంధ్రులు	-11.2259
▁ఖండము	-11.2267
▁నదీతీర	-11.2267
▁కాల్పుల	-11.2268
▁దోష	-11.2271
▁స్థాపక	-11.2271
▁కూర్మ	-11.2274
నుకూల	-11.2274
ఛాన్సలర్	-11.228
ననుసరించి	-11.228
▁People	-11.228
▁with	-11.228
▁అచమెనింద్	-11.228
▁అణ్వాయుధ	-11.228
▁అరేబియన్	-11.228
▁ఎత్తయిన	-11.228
▁కార్యనిర్వాహక	-11.228
▁కొలంబియా	-11.228
▁క్రికెటర్	-11.228
▁ఛత్రపతి	-11.228
▁ఛాంపియన్	-11.228
▁జరుపుకోగా	-11.228
▁పర్వతశ్రేణుల	-11.228
▁పసిఫిక్	-11.228
▁పాలిటెక్నిక్	-11.228
▁పోలేరమ్మ	-11.228
▁ప్యాసింజర్	-11.228
▁మణుగూరు	-11.228
▁మున్సిపల్	-11.228
▁మున్సిపాలిటీ	-11.228
▁రికార్డ్	-11.228
▁లభిస్తాయి	-11.228
▁లౌకిక	-11.228
▁వాలీబాల్	-11.228
▁వ్యావహారిక	-11.228
▁సంక్షిప్త	-11.228
▁సృజన	-11.228
▁సెక్యూరిటీ	-11.228
▁ప్రోగ్రాం	-11.228
▁బారేజి	-11.228
▁భరతనాట్య	-11.228
▁ముంబయి	-11.228
▁రుద్రమదేవి	-11.228
▁శిథిలావస్థ	-11.228
▁సిస్టమ్	-11.228
▁చంద్రబోస్	-11.228
▁దేవరకొండ	-11.228
▁తుఫాను	-11.228
▁నిక్షేపాలు	-11.228
▁నెంబరు	-11.228
▁పల్నాటి	-11.228
▁పిలవబడే	-11.228
▁బాపిరాజు	-11.228
▁సూచిస్తుంది	-11.228
.1950)	-11.228
▁వేరువేరు	-11.228
ఱ్ఱ	-11.228
▁ఇండస్ట్రీ	-11.228
▁ఉత్తేజ	-11.228
▁పరిమళ	-11.228
▁బ్రౌను	-11.228
▁విభూతి	-11.228
▁సౌలభ్య	-11.228
▁అభివర్ణించ	-11.228
▁ధ్వని	-11.228
▁మృతిచెంద	-11.228
▁నిడివి	-11.228
▁నాణె	-11.228
▁విత్తనాల	-11.228
▁కన్యాశుల్కం	-11.228
▁దీపావళి	-11.228
▁గడియార	-11.228
యుండుట	-11.228
▁తరతరాల	-11.228
నాల్డ్	-11.2281
▁ప్రోలయ	-11.2281
▁నరహరి	-11.2281
.1986)	-11.2281
▁బీజింగ్	-11.2281
▁ఎడమవైపు	-11.2281
▁సేవలందించ	-11.2281
▁కులశేఖర	-11.2281
▁మంటపం	-11.2281
▁నష్టం	-11.2282
▁118	-11.2282
▁ఉద్దేశంతో	-11.2283
▁హుసేన	-11.2283
స్పెక్ట	-11.2283
▁ప్రవేశిస్తుంది	-11.2283
▁కలుపుకొని	-11.2283
▁త్రో	-11.2283
▁ప్రతిపత్తి	-11.2283
▁లభ్యం	-11.2284
▁చేసుకోవచ్చు	-11.2284
▁కోడూరు	-11.2284
▁జ్ఞానము	-11.2284
▁అదిలాబాద	-11.2284
▁సింగపూర్	-11.2284
▁నువ్వు	-11.2284
▁పూజిస్తారు	-11.2285
.1905	-11.2285
▁స్వచ్ఛమైన	-11.2285
▁CE	-11.2285
▁నడవ	-11.2285
▁మిరియాల	-11.2285
▁క్లై	-11.2286
▁వేశ్య	-11.2286
▁177	-11.2287
▁వంశధార	-11.2288
▁లోయలో	-11.2288
▁సవాలు	-11.2288
▁చెప్పుకోవచ్చు	-11.2288
▁కల్కి	-11.2288
▁సతారా	-11.2288
▁టీవీ	-11.2288
▁గేజ్	-11.2289
▁కానుక	-11.2289
▁కట్టించారు	-11.2292
▁నివేద	-11.2294
▁అర్హ	-11.2295
కంటె	-11.2295
▁రాచర్ల	-11.2295
▁ఇయర్	-11.2296
వారిపాలెం	-11.2296
▁ఉండాలని	-11.2296
▁కట్టించిన	-11.2297
▁1500	-11.2298
▁వేశారు	-11.2298
▁ఆదేశాల	-11.2299
పట్టణం	-11.2299
▁తిండి	-11.23
▁రెండూ	-11.23
▁మొగుడు	-11.2301
▁థర్మ	-11.2302
▁కూలీ	-11.2302
▁వ్యవహరించాడు	-11.2303
▁యుద్ద	-11.2304
పండువ	-11.2304
▁ఉల్లి	-11.2305
▁సామ్యవాద	-11.2305
▁నాణేలు	-11.2306
pur	-11.2306
▁బాలురు	-11.2307
▁పుట్టుక	-11.2308
▁ఆభరణాలు	-11.2308
▁1565	-11.2311
▁వ్యవహరించారు	-11.2311
మిచ్చి	-11.2311
▁క్రియ	-11.2313
▁గంగమ్మ	-11.2314
▁చెప్పాలి	-11.2316
▁వేయి	-11.2316
▁కప్పం	-11.2317
▁పాలిత	-11.2319
▁పాఠకుల	-11.2322
▁చూరు	-11.2324
▁పోప్	-11.2326
▁ప్రక్కనే	-11.2326
▁విభజించవచ్చు	-11.2326
▁మీడియా	-11.2327
ాక్ట్	-11.233
▁దీన	-11.2331
▁ప్రవేశించింది	-11.2332
▁ఫలితాలు	-11.2335
▁తవ్వకాల	-11.2343
▁సహజంగా	-11.2346
రాజశేఖరరెడ్డి	-11.2346
ోపాధ్యాయ	-11.2347
▁నిర్మల్	-11.2349
▁బలపడ	-11.235
▁రూపాన్ని	-11.236
▁స్టాండ	-11.236
▁కాళ్ల	-11.2367
▁వాళ్లు	-11.2368
▁అరణ్యాలు	-11.2368
ఖర	-11.2375
▁సంభాషణల	-11.2376
▁అమ్మాయి	-11.2377
▁భావాలు	-11.2381
ోయ్	-11.2383
▁లాస్	-11.2384
▁మద్	-11.2388
▁అక్షాంశం	-11.2388
▁పెరుగును	-11.2388
▁కనుమలు	-11.239
▁కొన్న	-11.239
డుచు	-11.2395
ాచార్యుల	-11.2397
▁ఐటి	-11.24
గంట	-11.24
విరోధ	-11.24
▁ఆయుధాల	-11.2403
▁భవనాలు	-11.2404
▁రథం	-11.2406
▁భారతదేశము	-11.241
▁చెప్పింది	-11.241
▁అందజేస	-11.2413
▁ఉద్యమాల	-11.242
▁ఆస్తుల	-11.2422
▁నీలి	-11.2425
▁ఉష్ణోగ్రతలు	-11.2426
▁నిర్దేశించ	-11.2426
▁వినియోగదారుల	-11.2427
▁సోషలిస్టు	-11.243
▁గై	-11.2437
▁తీసుకునే	-11.244
▁ప్రదర్శిస్త	-11.2444
▁ప్రశస్తి	-11.2446
▁విషయాలను	-11.2451
▁వరదలు	-11.2462
▁పిలువబడ	-11.2465
పుల్లయ్య	-11.2467
▁పూరి	-11.2467
▁విమానాశ్రయాలు	-11.2467
బండ	-11.2469
▁దొంగలు	-11.2474
సమయ	-11.2477
కోటి	-11.248
▁పాక	-11.2483
దీప	-11.2486
▁గదుల	-11.2486
నోవ్	-11.2491
▁ఆరంభించ	-11.2496
▁ప్రాణం	-11.2496
▁సంగ	-11.2504
▁పుష్కరాల	-11.2505
▁నీర	-11.2505
▁మెట్లు	-11.2511
▁సింహం	-11.2513
రకాల	-11.2518
▁విభాగాలుగా	-11.252
▁బుట్ట	-11.2522
▁ప్రశ్నల	-11.2523
▁ఆహారంగా	-11.2533
▁మిగిలి	-11.2533
▁చేసుకొన్న	-11.254
▁గదిలో	-11.254
▁ప్రముఖుల	-11.2542
వెంకట	-11.2542
కాంత్	-11.2545
ట్రాన్	-11.2547
▁అమెరికాలోని	-11.2555
సంబంధ	-11.2555
▁పురాణాలలో	-11.2558
ేసాడు	-11.2558
▁పంజ	-11.256
▁ఇతిహాస	-11.2562
ారనీ	-11.2567
▁కప్పు	-11.257
▁అన్నట్లు	-11.2571
▁అనుభవం	-11.2577
ప్రకాశ	-11.258
ers	-11.2581
▁న్యాయస్థాన	-11.2583
ురాలిగా	-11.2584
సింహ	-11.2587
▁నిషేధం	-11.2591
రింగ్	-11.2594
టెడ్	-11.2594
▁ముసల	-11.2597
ోద్యమం	-11.2601
కుటుంబ	-11.2605
సామాజిక	-11.2608
పూర్వం	-11.2608
జనవరి	-11.261
తరహా	-11.2611
సంచార	-11.2614
▁గిన్న	-11.262
▁స్వతంత్రంగా	-11.2621
▁పట్టుకు	-11.2625
ali	-11.2635
▁జలపాత	-11.2641
▁అధికరించ	-11.2646
▁చేపట్టి	-11.2646
▁దాటిన	-11.2646
▁ఫిష	-11.2647
బడును	-11.265
▁ప్రభావ	-11.265
▁సంభ	-11.2651
▁అవమాన	-11.2657
సంత	-11.2658
RA	-11.2663
▁సోషలిస్ట	-11.2669
▁చదువుకున్న	-11.267
వంశపు	-11.2673
▁మచ్చ	-11.2677
▁అస్స	-11.2684
సర్వ	-11.2688
▁స్థానికుల	-11.2692
▁రాష్ట్రకూట	-11.2698
గ్రంథ	-11.2701
▁వంశాల	-11.2702
▁తిని	-11.2704
▁వెల్లడ	-11.2708
▁కవితల	-11.2711
ానువాద	-11.2713
చిత్రాల	-11.2715
▁తరాల	-11.2716
▁కందుల	-11.2716
▁జోగ	-11.2717
▁భవనాల	-11.2718
భావము	-11.2719
▁జాగ్రత్త	-11.2722
▁విజయవంతం	-11.2722
రాష్ట్రీయ	-11.2722
-21	-11.2723
▁బాక్స	-11.2732
ens	-11.2733
▁బాలుని	-11.2745
▁నీళ్ళ	-11.2748
▁బెండ	-11.2748
▁అదుపులో	-11.2762
▁సృష్టించిన	-11.2765
▁ద్రోణ	-11.2767
▁వారసత్వం	-11.2768
▁అంతస్తు	-11.2773
▁శ్రావణ	-11.2773
history	-11.2773
.1952)	-11.2774
▁ఒడంబడిక	-11.2774
▁క్రియాశీల	-11.2774
▁గుంతకల్లు	-11.2774
▁ట్రిలియన్	-11.2774
▁తెలియజేస్తుంది	-11.2774
▁పర్ణశాల	-11.2774
▁ప్రజ్ఞాశాలి	-11.2774
▁మెక్సికో	-11.2774
▁రిజర్వేషన్	-11.2774
▁లూయీ	-11.2774
▁లేపాక్షి	-11.2774
▁వందేమాతరం	-11.2774
▁సంకీర్ణ	-11.2774
▁సత్తెనపల్లి	-11.2774
▁సమృద్ధి	-11.2774
▁స్మృతి	-11.2774
▁ఆకుపచ్చ	-11.2774
▁టర్కిక్	-11.2774
▁మున్నేరు	-11.2774
▁మోటుపల్లి	-11.2774
వాషింగ్టన్	-11.2774
▁ఘరానా	-11.2774
▁పాల్గొంటార	-11.2774
▁శారదా	-11.2774
▁డయ్యూ	-11.2774
▁డిజిటల	-11.2774
.1975)	-11.2774
▁పటిష్ఠ	-11.2774
▁ముఖద్వారం	-11.2774
డాల్ఫ్	-11.2774
▁ఆఫ్ఘన్	-11.2774
▁సిద్ధవటం	-11.2774
▁ఇబ్న్	-11.2774
▁గాలిగోపుర	-11.2774
▁పునర్విభజన	-11.2774
▁మాదన్న	-11.2774
▁ప్రసిద్ద	-11.2774
▁లాటిన్	-11.2774
▁పండిట్	-11.2774
▁వెల్దుర్తి	-11.2774
▁మందాడి	-11.2774
▁వాల్మీకి	-11.2774
▁బ్లాగరుల	-11.2774
▁బాహ్య	-11.2774
▁పగటి	-11.2774
▁విషాద	-11.2774
▁పాట్నా	-11.2774
▁నెరవేర	-11.2774
▁భువన	-11.2774
▁షరతు	-11.2774
▁నేపథ్యగాయకుడు	-11.2774
▁మంగళవారం	-11.2774
▁వేగవంతమైన	-11.2774
▁తీసుకువెళ్ళ	-11.2774
▁Inter	-11.2774
▁గుంపు	-11.2774
▁ఎరువుల	-11.2774
▁యాత్రాచరిత్ర	-11.2774
▁విశాలాంధ్ర	-11.2774
▁అనుచరుల	-11.2774
▁వెంకటేశ్వర్లు	-11.2774
▁విశ్వామిత్ర	-11.2774
▁అటల్	-11.2774
▁జనార్ధన	-11.2774
ట్లయితే	-11.2775
▁సిల్క్	-11.2775
▁శాసనమండలి	-11.2775
▁కావేరి	-11.2775
▁బెల్లంకొండ	-11.2775
▁నమ్ముతారు	-11.2776
▁తత్వశాస్త్రం	-11.2776
ైజేషన్	-11.2776
▁ఆవిరి	-11.2776
శ్చర్య	-11.2776
▁ముప్పై	-11.2776
▁నడచి	-11.2776
▁వీణ	-11.2776
▁పశ్చిమగోదావరి	-11.2776
▁అభినయ	-11.2776
▁గడిపాడు	-11.2776
▁వెళతా	-11.2776
▁వెంకటరమణ	-11.2776
▁దేశభక్తి	-11.2776
▁రాజ్యపాలన	-11.2776
▁ధాన్యం	-11.2776
▁విరమించ	-11.2777
▁దర్శించుకొని	-11.2778
▁జోడించ	-11.2778
▁కార్బ	-11.2778
స్వప్న	-11.2779
సౌత్	-11.2779
పదార్ధాల	-11.2779
▁పనిముట్ల	-11.2779
▁ఒక్కసారి	-11.278
▁మనుమడు	-11.278
▁అక్రమ	-11.2781
▁స్వీడన్	-11.2781
▁ఒరియా	-11.2782
▁కోరుతూ	-11.2782
▁వైశాఖ	-11.2782
▁రంగాచార్యులు	-11.2784
▁మాలిక్	-11.2784
▁ఒక్కటే	-11.2785
▁క్రిమి	-11.2786
▁డేటా	-11.2786
▁బర్గ్	-11.2786
▁చెపుతారు	-11.2787
▁కొలిచ	-11.2789
▁కురుక్షేత్ర	-11.2789
▁కాకర్ల	-11.2789
లాగానే	-11.279
1970)	-11.279
మాజీ	-11.2791
▁మరణించింది	-11.2794
▁1200	-11.2794
▁బహుమతులు	-11.2794
▁అందుకున్న	-11.2796
కుండుట	-11.2798
▁తీసుకున్నాడు	-11.2799
▁అఖండ	-11.28
▁మంగోల్	-11.2804
▁చోళుడు	-11.2808
▁వసతులు	-11.2809
▁సామంతులు	-11.281
▁బుడ	-11.2811
▁కార్యక్రమాన్ని	-11.2813
▁ఈజిప్టు	-11.2814
▁తీసుకోవడం	-11.2815
▁కర్మల	-11.2815
▁ఆంధ్రదేశంలో	-11.2815
▁3000	-11.2817
▁అచ్యుతరాయలు	-11.2818
▁ఇస్తూ	-11.2819
▁మొదలుపెట్టారు	-11.2819
ational	-11.282
▁నాటికే	-11.2823
▁1870	-11.2823
▁గుర్రాలు	-11.2824
▁బంధువుల	-11.2825
▁సైన్యాలను	-11.2828
▁కమల్	-11.2829
▁తేల	-11.283
▁నిలచి	-11.283
▁ముఖ్యమంత్రులు	-11.2834
▁మీసాల	-11.2835
▁కటక	-11.2835
▁నూట	-11.2835
▁కోప	-11.2836
▁రాక్	-11.2836
▁దినోత్సవము	-11.2837
▁ప్రతినిధులు	-11.2837
▁ఫలాలు	-11.2838
ani	-11.2841
▁చావ	-11.2843
▁రథోత్సవ	-11.2844
▁మనుమ	-11.2847
▁లావు	-11.2849
▁మేళ	-11.2851
▁భాగవతంలో	-11.2851
▁భూభాగాలు	-11.2852
▁కన్నె	-11.2852
▁పాండవులు	-11.2853
▁కార్మికులు	-11.2853
భాగాన	-11.2854
▁బీహారులో	-11.2856
▁పెసర	-11.2856
▁దుర్గి	-11.286
▁అనుబంధంగా	-11.286
▁నైట్	-11.2863
▁దుఃఖ	-11.2864
▁ప్రసిద్ధుడు	-11.2865
▁జెట్	-11.2865
▁వెలగ	-11.2866
రాణా	-11.2868
చంద్రశేఖరరావు	-11.2868
▁కార్యక్రమాలకు	-11.2871
పఠన	-11.2871
కలిగి	-11.2872
▁చదువుచున్న	-11.2875
▁కేసులో	-11.2879
▁ఇరువైపుల	-11.288
ముఖి	-11.2881
▁పతకం	-11.2881
ide	-11.2883
▁పిట్ట	-11.2885
▁గోపాల్	-11.2887
▁రాజరాజేశ్వర	-11.2887
▁గార్డెన్	-11.2887
▁దుర్గము	-11.289
▁(2)	-11.2892
▁అమల	-11.2898
▁2%	-11.2899
ప్రసాదరావు	-11.2899
▁బోధన్	-11.2899
వర్డ్	-11.2902
▁ప్రభువుల	-11.2905
▁వ్యాధులు	-11.2905
▁భాగ్య	-11.2907
▁పరిగణ	-11.2908
▁అధికరించి	-11.2911
▁దీపాల	-11.2914
▁ఫలం	-11.2914
▁అధికారాల	-11.2915
▁తీర్థం	-11.2918
▁ఉద్యమాలు	-11.2921
▁ఉపాధ్యాయులు	-11.2921
▁ప్రోగ్రాముల	-11.2922
▁కొనసాగిన	-11.2926
▁కోరిన	-11.2927
▁అలయ	-11.2928
▁బ్యాచ	-11.2932
▁ముద్ద	-11.2934
బంధు	-11.2937
నాగిరెడ్డి	-11.2939
▁వెళుతు	-11.2945
▁మరణంతో	-11.2945
▁సృష్టించి	-11.2952
▁శిఖరాల	-11.2953
ోదర	-11.2954
▁లిబర	-11.2954
మంటప	-11.2955
▁అడ్వ	-11.2955
▁ఎదుర్కొన్న	-11.2955
▁పుష్కర	-11.2956
ించుకుని	-11.2963
86)	-11.2963
▁ఉండడంతో	-11.2964
ther	-11.2967
▁కుమార్తెలు	-11.2972
▁టాక్స	-11.2976
▁వేయించి	-11.2979
▁మించిన	-11.298
▁కలుగజేస	-11.2981
▁ఆక్రమించిన	-11.2983
▁భావించే	-11.2984
▁ఘట	-11.2985
▁పురాణంలో	-11.2986
చ్చె	-11.299
▁పాదాలు	-11.2991
లోచన	-11.2993
1951)	-11.2997
▁కోల్పోయిన	-11.2997
భట్ల	-11.3002
▁అంతర్యుద్ధం	-11.3008
▁విద్యాసంస్థల	-11.3009
లేకపోయింది	-11.301
▁వహిస్తున్న	-11.3016
ల్లాప్రగడ	-11.3018
▁లక్క	-11.3021
▁పరిశీలించి	-11.3024
▁కార్యాలయాల	-11.3026
1968)	-11.3029
▁సర్వీసులు	-11.3029
▁రికార్డులు	-11.3031
▁నిర్మితమైన	-11.3032
▁వార్త	-11.3033
గలిగి	-11.3039
▁భరించ	-11.3039
▁కేసు	-11.3039
▁వన్యప్రాణ	-11.3041
ef	-11.3046
▁ఆరంభమై	-11.3057
▁ఆకర్షణలు	-11.3059
సాగింది	-11.3062
▁మసీదులు	-11.3068
▁తట్ట	-11.3069
▁చైతన్యం	-11.3069
▁నియోజకవర్గాలు	-11.3077
▁be	-11.3078
▁గడించ	-11.3085
▁అంతర్జాలం	-11.3089
ింగ్స్	-11.309
▁ఆళ్వారు	-11.3091
▁నచ్చ	-11.3102
▁దైవం	-11.3104
▁గ్రాముల	-11.3106
▁ప్రాంగణం	-11.3108
▁అందించడం	-11.3109
▁కాంగ్	-11.311
గుప్త	-11.3117
▁......	-11.312
▁మేరీ	-11.3125
▁ఆక్రమి	-11.3125
▁వేటూర	-11.3125
అబ్దుల్	-11.3127
ఇంగ్లీషు	-11.3127
తెరాస	-11.3127
డిసెంబరు	-11.3127
పశ్చిమ	-11.3127
తూర్పు	-11.3127
బ్రాహ్మణ	-11.3128
సూర్య	-11.3135
the	-11.3135
త్యాగ	-11.3137
dia	-11.3142
▁నిర్వహించు	-11.3143
▁సముద్రాల	-11.3144
నాలుగు	-11.3147
▁నక్షత్రాల	-11.3149
▁పరిచయ	-11.3153
▁సమూహాలు	-11.3162
విజ్ఞాన	-11.3163
▁గ్రంథాలను	-11.3164
సంస్కృతము	-11.3165
అంటే	-11.3169
▁వ్యాపించ	-11.3174
ుచున్నాడు	-11.3177
▁జగద	-11.3177
ధ్యాయ	-11.3182
▁ఒడ్డు	-11.319
▁నడుస్తున్న	-11.3196
సాగించారు	-11.3198
▁వ్యాధుల	-11.3199
▁స్థిరపడి	-11.3202
పూట	-11.3202
కవుల	-11.3202
మండలి	-11.3203
▁నిర్వహిస్త	-11.3207
కవులు	-11.3208
విశ్వనాథ	-11.3212
▁బ్రహ్మానంద	-11.3215
▁135	-11.3222
▁సర్వేపల్ల	-11.3226
▁ఫలక	-11.3236
సిటీ	-11.3237
సెంట్	-11.3237
▁పూర్వీకుల	-11.3238
▁శ్రీవారి	-11.3242
▁బండ్ల	-11.3243
సంఘం	-11.3243
▁రసము	-11.3247
▁అనవచ్చు	-11.3247
▁ఆర్యసమాజ	-11.3257
▁అహ్మద	-11.3258
ిలర్	-11.3264
శిల	-11.3267
▁ఆర్యుల	-11.3267
▁సంభవించ	-11.3267
లాక్	-11.3272
▁చూపిన	-11.3275
▁గోవు	-11.3277
ఁగ	-11.3279
కపోయినా	-11.328
▁మీడియ	-11.328
▁కుండల	-11.3282
▁స్వాతంత్ర	-11.3284
▁వరదరాజ	-11.3286
ారాధన	-11.3287
▁పిలుపు	-11.3288
పంతు	-11.3292
▁తాడేపల్లి	-11.3293
ఎలెక్ట్రానిక్	-11.3293
▁GDP	-11.3293
▁అథారిటీ	-11.3293
▁ఇంజనీరింగు	-11.3293
▁ఇజ్రాయెల్	-11.3293
▁ఇస్మాయిల్	-11.3293
▁గెలుపొంది	-11.3293
▁తెహ్రాన్	-11.3293
▁దొనకొండ	-11.3293
▁నడిబొడ్డు	-11.3293
▁నమోదైన	-11.3293
▁పిక్చర్స్	-11.3293
▁ఫౌండేషన్	-11.3293
▁మహాప్రస్థానం	-11.3293
▁మెమోరియల్	-11.3293
▁రిజర్వాయర్	-11.3293
▁లాంగ్వేజ్	-11.3293
▁లైబ్రరీ	-11.3293
▁వ్యుత్పత్తి	-11.3293
▁సల్తనత్	-11.3293
▁సహ్యాద్రి	-11.3293
▁సాంబశివరావు	-11.3293
▁సింగరాయకొండ	-11.3293
▁సుల్తానేటు	-11.3293
▁స్రవంతి	-11.3293
▁హన్మకొండ	-11.3293
▁హాలీవుడ్	-11.3293
▁అరటిపండు	-11.3293
▁జుమ్లా	-11.3293
▁బెర్లిన్	-11.3293
▁భానుమతి	-11.3293
▁మేఘాలయ	-11.3293
▁లాహోర్	-11.3293
▁సెక్రటరీ	-11.3293
.1964)	-11.3293
▁జగ్గయ్య	-11.3293
▁తైవాన్	-11.3293
▁జోక్యం	-11.3293
▁సావిత్రి	-11.3293
▁రామబ్రహ్మం	-11.3293
▁రేఖాంశం	-11.3293
▁భైరవ	-11.3293
▁నాగాలాండ్	-11.3293
▁వాయిద్య	-11.3293
▁కేసరి	-11.3293
▁భంగిమ	-11.3293
▁మరియొక	-11.3293
▁గమనిక	-11.3293
▁పుష్కరిణి	-11.3293
▁లెనిన్	-11.3293
▁కుదిరింద	-11.3293
▁శిఖరాగ్ర	-11.3294
▁అధ్యాయం	-11.3294
▁కాళిదాస	-11.3294
▁రేఖాంశాల	-11.3294
▁తుమ్మల	-11.3294
రొట్టె	-11.3294
.1973)	-11.3294
▁ఎరుపు	-11.3294
▁సొమ్ము	-11.3294
▁నిర్వచన	-11.3294
▁మొదలయింది	-11.3294
▁స్టడీస్	-11.3294
▁షేర్	-11.3294
▁కల్పిస్తుంది	-11.3294
▁కిరణ్	-11.3294
▁జగన్నాధపురం	-11.3294
▁పదార్ధాలు	-11.3294
▁సంగారెడ్డి	-11.3295
▁వేమూరి	-11.3295
▁మానసిక	-11.3295
▁విపుల	-11.3295
▁నాయకుడిగా	-11.3295
▁సూఫీ	-11.3295
▁కుడివైపు	-11.3295
▁రమణీయ	-11.3295
▁బుద్ధారెడ్డి	-11.3295
శృంగ	-11.3295
▁పరమాత్మ	-11.3295
▁సారథి	-11.3296
▁చరిత	-11.3296
▁క్లబ్	-11.3296
▁పరబ్రహ్మ	-11.3296
▁అపూర్వ	-11.3296
▁పాలకుడైన	-11.3296
▁కొట్లో	-11.3296
ture	-11.3296
nline	-11.3296
కల్చర్	-11.3297
▁వెలువర	-11.3297
▁నవగ్రహ	-11.3297
షియల్	-11.3297
▁రొయ్యల	-11.3297
▁దేశమంతటా	-11.3297
▁త్రిలింగ	-11.3297
▁అంకెల	-11.3297
▁జరుగుతూ	-11.3297
▁కొల్లూరు	-11.3298
▁కాంచన	-11.3298
▁చీఫ్	-11.3298
▁భీకర	-11.3298
▁సుదర్శన	-11.3299
▁కేశవరావు	-11.3299
▁తేనె	-11.33
▁సిమెంటు	-11.33
▁తీగల	-11.33
▁ప్రచురించబడింది	-11.33
▁కోనేటి	-11.3301
▁ఎవ్వర	-11.3301
▁తెలిపార	-11.3301
▁సింహళ	-11.3302
▁పిలుచ	-11.3302
▁చేరుకోవచ్చు	-11.3303
▁హల్	-11.3303
▁వెనక	-11.3303
▁నటించాడు	-11.3303
▁మార్టిన	-11.3303
'''	-11.3304
▁కనిపెట్టిన	-11.3304
▁వేషాల	-11.3305
▁రాజరిక	-11.3306
▁ఎదుర్కొన్నాడు	-11.3307
▁ఫీల్డ్	-11.3308
▁ఇవాన్	-11.3308
▁దోచుకు	-11.331
▁భీమవరంలోను	-11.331
▁సులువ	-11.331
▁నారాయణరెడ్డి	-11.3311
▁ఖనిజాలు	-11.3312
▁విశ్లేషణ	-11.3312
▁జియా	-11.3312
ెవ్	-11.3313
▁అవకాశము	-11.3313
▁పురుషుడు	-11.3315
▁నటన	-11.3318
▁పెద్దయె	-11.3319
▁తెలుసుకో	-11.3319
▁అవధానాలు	-11.332
టెన్	-11.332
▁పగడ	-11.332
▁ప్రత్యక్షమై	-11.3323
షేల్	-11.3324
▁ద్వారకా	-11.3324
act	-11.3327
▁ప్రహ్లాద	-11.3328
▁తదితరులు	-11.3328
▁విస్తీర్ణము	-11.3329
▁వెస్ట్	-11.3329
▁పదవీకాలం	-11.3331
▁1865	-11.3331
మాలిక	-11.3333
ell	-11.3333
▁Co	-11.3334
▁1859	-11.3334
▁ఇవ్వాలని	-11.3337
▁1887	-11.3338
ుకునేవారు	-11.3338
▁ఆకలి	-11.3341
▁స్వామీ	-11.3343
వేంకటేశ్వరస్వామి	-11.3348
▁చేపట్టారు	-11.3348
▁డిపో	-11.3349
ాడనీ	-11.3349
▁అనిపించ	-11.3349
▁చదరంగం	-11.335
▁చదివే	-11.3351
▁శిల్పకళా	-11.3352
హార్డ్	-11.3355
▁పూర్తిస్థాయి	-11.3359
▁ప్రతిభా	-11.3361
▁నవీన	-11.3363
▁శ్రీదేవి	-11.3363
▁పోతే	-11.3368
▁నోరు	-11.3368
▁వ్యాపారులు	-11.3368
▁నాజీ	-11.3369
▁ఉండేలా	-11.3369
▁ప్రాబల్యం	-11.3374
పత్తి	-11.3376
▁ఖర్చుతో	-11.3376
▁మనుషులు	-11.3379
బద్ధంగా	-11.3383
▁ప్రయాణీకులు	-11.3387
కొట్ట	-11.339
▁కంప్యూటరుల	-11.3392
▁గట్టిగా	-11.3392
▁సోదరి	-11.3393
తెర	-11.3398
▁వారాల	-11.3401
▁వంటకాలు	-11.3401
▁ఎక్కడా	-11.3401
వ్యాస	-11.3403
▁ప్రధానమైనది	-11.3406
tic	-11.3408
▁రాష్ట్రాల్లో	-11.341
▁అర్జునుని	-11.341
▁కతా	-11.3413
▁విధానాలను	-11.3413
▁అనుసంధాన	-11.3414
▁పునర్నిర్మాణం	-11.3416
▁కనిపిస్తుంట	-11.3419
mb	-11.3421
▁ఉపగ్రహం	-11.3425
▁నగరాలకు	-11.3429
▁124	-11.3433
1991)	-11.3433
పరిగణించబడుతుంది	-11.3436
▁వ్యాఖ్యల	-11.3444
▁కల్యాణం	-11.3445
లన్నిటి	-11.3451
▁మనదేశ	-11.3456
ఫోర్డ్	-11.3457
ome	-11.3463
▁పడకల	-11.3466
1903)	-11.3467
▁వ్రాయబడిన	-11.3468
▁పారిపోయ	-11.347
▁ఉగ్రవాద	-11.3471
▁పరిమితమైన	-11.3472
▁కూరలు	-11.3472
▁ప్రదర్శించి	-11.3473
▁మరాఠాలు	-11.3475
.......	-11.348
కాపురం	-11.3482
వేగంతో	-11.3483
▁సౌర	-11.3483
▁పడ్డ	-11.3487
▁మతానికి	-11.3487
▁మలచ	-11.3487
▁ఋగ్వేద	-11.3491
సైన్	-11.3492
▁నినాదం	-11.3494
▁ఆశ్రయం	-11.3496
▁రూపొందిన	-11.3499
▁సామ్రాజ్యాలు	-11.3502
▁తయారవుత	-11.3509
▁అపర	-11.3513
▁ఇతిహాసం	-11.3521
▁లొంగిపోయ	-11.3524
పడ్డా	-11.3526
▁దేవతా	-11.3527
▁వాడారు	-11.3534
చిలుక	-11.3535
ప్రయుక్త	-11.354
▁పరిపాలించాడ	-11.3544
▁పోరు	-11.3545
▁దానిపై	-11.3553
కారము	-11.3554
ళియ	-11.3561
2.5	-11.357
స్టన్	-11.3576
▁గమనించిన	-11.3579
▁se	-11.3587
పొంది	-11.3599
▁మలయ	-11.3607
▁దాల్చి	-11.3609
▁విస్తృతమైన	-11.3615
▁హోమం	-11.3623
కేశవ	-11.3626
▁విధుల	-11.3629
మూర్	-11.3633
▁పుట్	-11.3634
▁III	-11.3635
▁సరిపో	-11.3635
▁పరిజ్ఞాన	-11.3638
వెంకటేశ్వరస్వామి	-11.364
▁ఎదిరించి	-11.3641
cy	-11.3642
▁వృత్తాంత	-11.3645
▁అధ్యాపక	-11.3646
▁తాలూకాల	-11.3652
▁ప్రసారాల	-11.3661
▁నిండిన	-11.3665
వృక్ష	-11.3673
పర్వము	-11.3675
ప్రత్యేక	-11.3675
అక్టోబరు	-11.3675
చక్రవర్తి	-11.3676
సహాయ	-11.3677
సమాజ	-11.3678
▁వేళ్ళ	-11.3679
▁126	-11.368
ప్రదర్శన	-11.3682
ual	-11.3682
▁మహాభారతము	-11.3683
ఇతను	-11.3685
శబ్ద	-11.3686
గురించి	-11.3689
▁కృప	-11.3689
▁ప్రసాదం	-11.3689
▁స్వరూపం	-11.369
2010	-11.3694
▁సొంతం	-11.3698
ఇందు	-11.3698
మతం	-11.3707
ుండేవాడు	-11.3713
భూభాగం	-11.3715
▁నామము	-11.3717
▁గొర్రెల	-11.3717
ించుకున్న	-11.3718
▁తయారుచేసి	-11.372
▁ప్రసారం	-11.3726
▁పేరొంది	-11.3727
రంగు	-11.3728
▁మూగ	-11.3731
▁Cha	-11.3732
▁కనీస	-11.3741
ుద్ది	-11.3742
▁1600	-11.3744
▁భాగవతము	-11.3749
ll	-11.3755
▁పర్యట	-11.3755
▁మందిరాల	-11.3755
▁అర్ధము	-11.3762
▁అభిప్రాయపడ్డా	-11.3772
▁సాగే	-11.3779
▁వార్షికోత్సవ	-11.3786
▁తల్లిదండ్రుల	-11.3786
▁గుర్రాల	-11.379
▁పట్టే	-11.3791
ఖానా	-11.3792
▁శాతవాహన	-11.3795
▁భిక్ష	-11.3796
▁తరచు	-11.3797
చెందుతూ	-11.3804
▁అహింస	-11.3811
▁వారసుడ	-11.3812
▁నిమిష	-11.3817
son	-11.3821
▁కలిగ	-11.3825
▁ప్రదర్శించే	-11.3825
ాగ్ని	-11.383
▁యూదు	-11.383
వీర్	-11.3835
▁వర్షాకాల	-11.3836
▁విశేషాల	-11.3837
▁ఫ్రాం	-11.3839
▁దౌత్య	-11.3841
process	-11.3841
▁ఇతివృత్త	-11.3841
.2001)	-11.3841
▁Russia	-11.3841
▁అవలంబించ	-11.3841
▁ఆవిష్కర్త	-11.3841
▁ఇంగ్లండ	-11.3841
▁ఉపనిషత్తుల	-11.3841
▁ఎకనమిక్	-11.3841
▁కాంప్లెక్స్	-11.3841
▁కుద్రేముఖ్	-11.3841
▁కౌంసిల్	-11.3841
▁క్యాన్సర్	-11.3841
▁క్యాబేజీ	-11.3841
▁గుర్తించతగిన	-11.3841
▁తత్త్వవేత్త	-11.3841
▁నియమితుడైనాడు	-11.3841
▁బాస్కెట్	-11.3841
▁బెనర్జీ	-11.3841
▁మ్యాచ్	-11.3841
▁యర్రగొండపాలెం	-11.3841
▁రజాకార్ల	-11.3841
▁శ్మశాన	-11.3841
▁సర్వసాధారణం	-11.3841
▁అన్నదమ్ముల	-11.3841
▁ఘగ్గర్	-11.3841
▁తృతీయ	-11.3841
▁పదిహేను	-11.3841
▁పురస్కరించ	-11.3841
▁మ్రొక్క	-11.3841
▁వర్షాధార	-11.3841
▁విద్యనభ్యసించ	-11.3841
.1946)	-11.3841
.1949)	-11.3841
▁అలంకరణ	-11.3841
▁చిరునామా	-11.3841
▁విరాళం	-11.3841
.1888)	-11.3841
.1976)	-11.3841
.1987)	-11.3841
.1995)	-11.3841
▁ట్రాంస్	-11.3841
▁నరసింగ	-11.3841
▁మద్దిపాడు	-11.3841
▁మొసలి	-11.3841
▁సురక్షిత	-11.3841
.1916)	-11.3841
book	-11.3841
▁అధ్వర్యంలో	-11.3841
▁ద్వీపకల్పం	-11.3841
▁నిర్వర్తించ	-11.3841
ాధినేత	-11.3841
▁భ్రమరాంబ	-11.3841
▁అహంకార	-11.3841
▁తెనుగు	-11.3841
▁పామూరు	-11.3841
▁పిప్పర	-11.3841
▁సత్యసాయి	-11.3841
▁బణువు	-11.3841
▁మనుచరిత్ర	-11.3841
▁సునీల్	-11.3841
ాభ్యాస	-11.3841
▁గాంచింది	-11.3841
▁దువ్వూర	-11.3841
▁పొందుపరచ	-11.3841
▁మకుటము	-11.3841
▁రకమైన	-11.3841
▁భక్తిశ్రద్ధలతో	-11.3841
▁దర్వాజ	-11.3842
▁పోరాటయోధుడు	-11.3842
▁పులుసు	-11.3842
▁వాయిదా	-11.3842
▁సన్నిధి	-11.3842
▁విభాగానికి	-11.3842
▁షూటింగ	-11.3842
▁అంతేకాదు	-11.3842
▁స్మరించ	-11.3842
▁పుట్టపర్తి	-11.3842
▁బెండకాయ	-11.3842
▁స్వస్థలం	-11.3842
ద్వేష	-11.3842
▁భగవాన్	-11.3842
స్నేహితుల	-11.3842
▁ఫ్రంట్	-11.3843
▁ఋషి	-11.3843
▁చరణ్	-11.3843
▁సూర్యకుమారి	-11.3843
▁వీడియో	-11.3843
▁అనొచ్చు	-11.3843
▁లేకపోతే	-11.3843
▁ర్యాంక	-11.3844
▁ప్రోటో	-11.3844
▁కేంద్రప్రభుత్వం	-11.3844
▁ప్రవర్తన	-11.3844
మొట్టమొదటిసారిగా	-11.3844
▁బాలాజీ	-11.3844
▁చేస్తాడు	-11.3845
▁కాంస్య	-11.3845
ఓపెన్	-11.3845
▁ఆదిల్షా	-11.3845
▁సమయము	-11.3845
▁చూస్తున్న	-11.3845
▁పేపర్	-11.3846
▁నాయకునిగా	-11.3846
గజానన	-11.3847
▁క్రిస్టియన్	-11.3847
▁పోలాండ్	-11.3847
▁గోపాలరెడ్డి	-11.3847
▁నడప	-11.3847
▁పేర్కొనబడింది	-11.3847
▁వాస్తవిక	-11.3847
▁సందర్శన	-11.3847
ెమ్మ	-11.3847
▁సంభవించింది	-11.3848
▁సాంరాజ్య	-11.3848
▁దశావతారాల	-11.3848
▁గుజరాతీ	-11.3849
▁ఫ్రాంక్	-11.3849
▁వెంకటేష్	-11.3849
▁వరుణ	-11.3849
▁వెలువడింది	-11.385
▁రమ్య	-11.385
▁గ్రామదేవత	-11.385
డాక్	-11.385
▁గోపాలరావు	-11.385
▁ఆద్యుడు	-11.385
▁భగత్	-11.3851
▁ఆమ్ల	-11.3851
▁పరీక్షించింది	-11.3851
▁పెట్టుకొని	-11.3852
▁పట్టించుకో	-11.3852
నాధుని	-11.3852
▁సిమెంట్	-11.3852
▁తింటే	-11.3852
▁లియో	-11.3853
బోయే	-11.3854
▁గ్రామస్తుల	-11.3855
▁పొలం	-11.3855
▁చేర్చబడింది	-11.3856
▁పద్మవిభూషణ్	-11.3857
▁కట్టించాడు	-11.3857
▁శనగ	-11.3859
కవిత్రయం	-11.3859
▁ప్రసాదాలు	-11.3859
▁దీనివల్ల	-11.3859
▁జిన్నా	-11.3859
▁బందరు	-11.386
▁ధనం	-11.386
▁ప్రయత్నించాడు	-11.3861
▁స్థిరపడింది	-11.3861
▁అంటున్నారు	-11.3863
▁భయము	-11.3864
▁నార్త్	-11.3864
▁శతావధాని	-11.3865
▁అడగ	-11.3865
▁ఎన్నుకుంట	-11.3865
▁తదనంతరం	-11.3866
లక్షణ	-11.3867
▁అనుభవించాడు	-11.3867
▁షాహ్	-11.3867
▁అలంకరించారు	-11.3868
▁ప్రయత్నించారు	-11.3869
▁1866	-11.3871
▁నిజమైన	-11.3873
▁రెండుసార్లు	-11.3874
▁వంశీయులు	-11.3874
▁1861	-11.3875
▁పరమేశ్వరీ	-11.3876
▁ఏర్పరచి	-11.3876
▁వాడకం	-11.3876
▁తీసుకుంది	-11.3877
▁చేయటానికి	-11.3878
▁1879	-11.3878
▁ఆచారాలు	-11.3878
▁వికస	-11.3879
▁పునరు	-11.388
▁న్యాయవాద	-11.388
▁ఆకాశంలో	-11.388
▁వ్రాసాడు	-11.3881
▁పంపించాడు	-11.3882
▁లాంగ్	-11.3883
సోమ	-11.3884
▁దంపతులు	-11.3884
▁పంపుల	-11.3888
▁అందించింది	-11.3891
▁అడుగుపెట్ట	-11.3892
▁జైనులు	-11.3892
!!	-11.3894
▁దృశ్యాల	-11.3894
▁రాయబారి	-11.3894
▁స్థలాన్ని	-11.3897
▁రాజవంశాలు	-11.3898
▁వుండి	-11.3898
▁పరుగులు	-11.3899
▁నారాయణయ్య	-11.3899
▁జాగ్రత్తగా	-11.3899
▁ఉద్యోగాలు	-11.39
▁సంకీర్తనలు	-11.3901
▁గర్భం	-11.3902
▁రాష్ట	-11.3902
▁పోరాటానికి	-11.3906
▁ఆదేశాలు	-11.3906
▁కోసమ	-11.3907
▁నిర్వహించడం	-11.3909
600	-11.3913
▁ఇష్టపడ	-11.3913
▁కొయ్య	-11.3914
▁చీలిక	-11.3917
▁రకముల	-11.3918
స్తుంటాయి	-11.392
▁పదార్థాలు	-11.3925
▁రిపోర్ట	-11.3925
▁నియమాలు	-11.3925
▁విప్ప	-11.3926
▁రాష్ట్రకూటులు	-11.3927
ఱి	-11.3934
▁ముప్ప	-11.3934
▁ముప్పు	-11.3935
▁ఏమిటి	-11.3939
▁పరికరాల	-11.3939
▁బృందాలు	-11.3939
▁భోజ	-11.3939
▁వృత్తుల	-11.394
బడుతున్నది	-11.3941
ite	-11.3942
▁ఉపయోగపడే	-11.3947
▁అమిత	-11.3948
▁విలాసము	-11.3948
ప్రజల	-11.3951
▁దాతలు	-11.3953
▁శిష్య	-11.3955
▁నిలయ	-11.3957
▁ఆవరణలో	-11.3961
ాధికారం	-11.3967
▁సత్కరించ	-11.3974
▁రాజ్యలక్ష్మ	-11.3978
రతి	-11.3981
▁వ్యాకరణం	-11.3982
▁సహిత	-11.3983
▁లక్ష్య	-11.3986
▁భద్రత	-11.3986
▁ముఖ్యుడు	-11.399
▁సమూహాల	-11.399
▁దార	-11.3992
▁ఆద్య	-11.3992
▁హెడ్	-11.3994
▁గ్రంథాలయోద్యమ	-11.3999
▁చిత్రీకర	-11.4002
ెయిల్	-11.4017
▁పర్యవేక్షణలో	-11.4019
▁ఉన్నట్టు	-11.4023
సంబంధమైన	-11.4026
▁తెలుసుకున్న	-11.4031
▁భావే	-11.4032
▁సంతాన	-11.4037
తిలక	-11.4039
▁మజ్	-11.4042
▁బారి	-11.4046
▁దొరికే	-11.4047
▁దేవరాయల	-11.4048
▁చర్చల	-11.4052
▁యిచ్చ	-11.4056
లీప్	-11.4059
▁భయపడ	-11.4061
ాజు	-11.4066
▁ఉద్యానవనం	-11.4066
▁వాదించ	-11.4068
▁మద్దతుతో	-11.4068
▁సంపత్	-11.4069
▁137	-11.4072
▁సదుపాయాల	-11.4078
▁రేకుల	-11.4082
▁గెలుచుకున్న	-11.4088
▁సన్మాన	-11.4089
▁చెప్పబడిన	-11.4096
▁వినియోగ	-11.4101
▁పుణ్యక్షేత్రాల	-11.4107
▁బేత	-11.4116
▁జరిపే	-11.4118
▁2,4	-11.4119
దరినీ	-11.4121
యింట్	-11.4124
▁మానవులు	-11.4126
కెళ్ళ	-11.4126
▁విలువలు	-11.4134
▁దొరికి	-11.4136
▁మరణించే	-11.4142
▁చాళుఖ్యుల	-11.4154
▁వంక	-11.4159
▁దుష	-11.4177
▁శుక్ర	-11.4184
▁వర్షం	-11.4188
▁సమకూర	-11.4189
▁చెడు	-11.4193
▁లింగాల	-11.4193
రామరాజ	-11.4202
▁మహానగర	-11.4206
▁కొమర	-11.4218
▁ఆకర్షిస్తు	-11.4218
▁ఎండి	-11.4222
ించబడే	-11.4225
సద్	-11.4226
▁హ్యూ	-11.423
జ్జా	-11.4234
▁దాచి	-11.4239
మహే	-11.4241
▁బ్రతిక	-11.4247
గోదావరి	-11.4249
▁ఏళ్ళు	-11.4251
సమరయోధుడు	-11.4255
తండ్రి	-11.4256
దృష్టి	-11.4256
▁యంత్రం	-11.4261
1962)	-11.4272
లిస్ట్	-11.4272
కోవటానికి	-11.4276
▁భూపతి	-11.4277
▁స్వీకర	-11.4278
ముఖ్యంగా	-11.4283
▁దేవుడి	-11.4287
దాయక	-11.4288
▁భద్రాచల	-11.4298
▁అనుగ్రహించ	-11.4299
రాదని	-11.43
▁అవశేషాల	-11.4301
▁స్టె	-11.4307
పొడి	-11.4313
డెల్	-11.4315
చేసుకున్నాయి	-11.4317
▁ప్రదర్శనల	-11.4321
▁స్వేచ్ఛా	-11.4324
వచ్చునని	-11.4324
గురువు	-11.4325
పురాణంలో	-11.4329
ప్రజలు	-11.4334
ుటకై	-11.4337
▁స్వాధీన	-11.4342
▁రూపొంది	-11.4343
▁స్థలము	-11.435
కాలక్రమ	-11.4351
▁145	-11.4352
దంతా	-11.4355
▁తాప	-11.4355
▁వంశస్థుల	-11.4355
▁త్యాగరాజ	-11.436
▁చూపుతున్న	-11.436
▁Vi	-11.4364
▁రాయబార	-11.4365
▁ప్రయత్నాల	-11.4367
▁గ్రంథాలయము	-11.437
▁తెలుగ	-11.4375
▁చేరుకొ	-11.4377
ుకొనేవారు	-11.438
▁ప్రకటించుకు	-11.4385
శిల్ప	-11.4389
▁ద్వారక	-11.4395
▁తెలుస్త	-11.4396
944	-11.44
త్తూరు	-11.4402
ప్లస్	-11.4403
▁మంగోల	-11.4413
▁పదమూడ	-11.4414
▁నలుగు	-11.4417
▁రాజరాజ	-11.442
934	-11.4421
▁Publishe	-11.4421
▁ఏర్పాట్ల	-11.4421
▁పొదలకూరు	-11.4421
World	-11.4421
▁(1981)	-11.4421
▁District	-11.4421
▁University	-11.4421
▁అగస్త్య	-11.4421
▁అన్వేషణ	-11.4421
▁అప్పుడప్పుడు	-11.4421
▁ఆవిష్కరణ	-11.4421
▁ఎనర్జీ	-11.4421
▁ఒంటిమిట్ట	-11.4421
▁కార్పొరేట	-11.4421
▁చురుకైన	-11.4421
▁చొరవ	-11.4421
▁జంగారెడ్డిగూడెం	-11.4421
▁జోగులాంబ	-11.4421
▁డిపార్ట్	-11.4421
▁త్రాగునీటి	-11.4421
▁థాయిలాండ్	-11.4421
▁నటీమణుల	-11.4421
▁నాదెండ్ల	-11.4421
▁పులిచింతల	-11.4421
▁ప్రావీణ్య	-11.4421
▁బమ్మెర	-11.4421
▁బ్యాడ్మింటన్	-11.4421
▁బ్రెజిల్	-11.4421
▁భరద్వాజ	-11.4421
▁మద్యాహ్నం	-11.4421
▁మహాత్మాగాంధీ	-11.4421
▁మహావిష్ణువు	-11.4421
▁యలమంచిలి	-11.4421
▁వారణాసి	-11.4421
▁విక్టోరియా	-11.4421
▁విరాజిల్ల	-11.4421
▁వైజ్ఞానిక	-11.4421
▁శ్రీరామనవమి	-11.4421
▁హిరణ్యకశిపు	-11.4421
▁population	-11.4421
▁అంగుళాల	-11.4421
▁కాకుమాను	-11.4421
▁క్రమశిక్షణ	-11.4421
▁చిలుకూరి	-11.4421
▁తైమూర్	-11.4421
▁నాణ్యత	-11.4421
▁బహిష్కరణ	-11.4421
▁బ్రాహ్మీ	-11.4421
▁మదురై	-11.4421
▁మిలిటరీ	-11.4421
▁మెట్రిక్	-11.4421
▁సగిలేరు	-11.4421
▁అవతరణ	-11.4421
▁ఏల్చూర	-11.4421
▁పరాజయం	-11.4421
▁పైకప్పు	-11.4421
▁ప్రోలరాజు	-11.4421
▁వశిష్ట	-11.4421
▁వివేకానంద	-11.4421
▁వెంకన్న	-11.4421
▁మెట్రోపాలి	-11.4421
.1942)	-11.4421
.1990)	-11.4421
.1999)	-11.4421
▁అక్బర్	-11.4421
▁తెలియజేయ	-11.4421
▁త్రిమూర్తుల	-11.4421
▁ధృవ	-11.4421
.1913)	-11.4421
లాజికల్	-11.4421
▁తీర్ధప్రసాదాల	-11.4421
▁పూణే	-11.4421
▁పోగొట్ట	-11.4421
▁రద్దీ	-11.4421
▁అందుకనే	-11.4421
▁గోండియా	-11.4421
▁శిబిర	-11.4421
▁మహానుభావు	-11.4421
▁వాస్తుశిల్ప	-11.4421
html	-11.4421
▁సర్వీస్	-11.4421
▁లార్డ్	-11.4421
షిర్డీ	-11.4422
భధ్ర	-11.4422
▁చైర్మన్	-11.4422
▁జారీచేసింది	-11.4422
▁సారథ్యం	-11.4422
▁చింతలపూడి	-11.4422
▁సంస్కార	-11.4422
▁కెన్నె	-11.4422
▁అల్లసాని	-11.4422
▁ఇన్ఫర్మ	-11.4422
▁ప్రయాణికుల	-11.4422
▁ఆకుకూరల	-11.4422
▁స్టాలిన్	-11.4422
▁జలవిద్యుత్	-11.4422
▁సొరకాయ	-11.4422
▁స్వరకర్త	-11.4422
▁గౌడ్	-11.4422
▁రాజభవన	-11.4422
▁నియమించబడ్డాడు	-11.4422
▁బుద్ధిజం	-11.4422
▁వెలువరించారు	-11.4422
▁నిర్మింపబడిన	-11.4423
▁సూచిక	-11.4423
▁గేయరచయిత	-11.4423
▁సాధ్యం	-11.4423
▁సలహాదారు	-11.4423
▁గోపవరం	-11.4423
▁కారంపూడి	-11.4423
▁వదిలే	-11.4423
▁నాగావళి	-11.4423
▁వెలనాటి	-11.4423
▁హింసాత్మక	-11.4423
▁వేమారెడ్డి	-11.4423
▁ప్రవచన	-11.4424
▁115	-11.4424
▁రసాయనశాస్త్రం	-11.4424
▁పోల్చ	-11.4424
▁వెంకటరత్నం	-11.4424
▁సైనికాధికారి	-11.4424
▁బేతరాజు	-11.4424
▁తూర్పుగోదావరి	-11.4425
▁దొరుకు	-11.4425
▁నరసింహరాయలు	-11.4425
▁యువజన	-11.4425
▁నానుడి	-11.4425
put	-11.4425
▁ఆర్థికవ్యవస్థ	-11.4425
▁సీతాదేవి	-11.4425
▁వార్ధా	-11.4425
▁బాల్టిక్	-11.4426
▁టెర్ర	-11.4426
▁రైలుమార్గం	-11.4426
▁సైమన్	-11.4426
▁వాడుతున్నారు	-11.4426
ork	-11.4426
పోవడానికి	-11.4426
▁మంత్రాలయం	-11.4426
▁తింటారు	-11.4427
▁చింతూరు	-11.4427
▁అరవై	-11.4427
▁తెలిపే	-11.4427
మంతటా	-11.4427
▁వర్షాకాలంలో	-11.4427
▁హాసన్	-11.4427
▁ఏర్పాటుచేశారు	-11.4428
▁చెప్పాలంటే	-11.4428
▁వారధి	-11.4428
▁డ్రై	-11.4428
▁ఇంద్రియ	-11.4428
▁సరిపల్లి	-11.4429
▁విధముగా	-11.4429
▁కమలాపురం	-11.4429
▁అయ్యప్ప	-11.4429
యెడల	-11.4429
▁విమానయాన	-11.443
▁పైలట్	-11.443
▁నీళ్లు	-11.443
ామృత	-11.443
ాయుధ	-11.4431
▁మౌంట	-11.4431
▁కాండము	-11.4431
▁ఎద్దుల	-11.4431
▁ఎంతోమంది	-11.4431
▁సమయాలలో	-11.4431
వృద్ధుల	-11.4431
▁గోపాలకృష్ణయ్య	-11.4431
▁బ్లాగ్	-11.4432
.1898	-11.4432
ాంజనేయస్వామి	-11.4432
▁పట్టుకొని	-11.4433
▁ఆర్థికాభివృద్ధి	-11.4434
▁మారుతుంది	-11.4434
▁తర్క	-11.4435
భక్తుల	-11.4435
▁శివారెడ్డి	-11.4435
బోయిన	-11.4436
ుతున్నట్లు	-11.4436
▁కచ్చితమైన	-11.4437
▁చేసుకొన్నాడు	-11.4438
▁కలుగుతుంది	-11.4438
1958)	-11.4438
▁ఎలక్ట	-11.4439
▁కూడగట్ట	-11.4439
▁ఘట్టమ	-11.444
లింగేశ్వరస్వామి	-11.444
▁ఉత్తరాంధ్ర	-11.4443
▁ఏర్పాటుచేసిన	-11.4443
▁భూదేవి	-11.4444
▁ఫార్మా	-11.4445
▁లిపుల	-11.4446
▁దేవగిరి	-11.4447
టెల్	-11.4448
▁మిజోర	-11.4451
▁1881	-11.4451
▁పెంపు	-11.4452
▁మిత్రులు	-11.4452
▁ఉద్భవించిన	-11.4453
▁కలవాడు	-11.4456
▁చెప్తారు	-11.4456
▁హస్తకళ	-11.4457
▁1864	-11.4458
▁అహింసా	-11.4458
▁సాగించిన	-11.4461
▁1700	-11.4461
▁ఆర్యసమాజ్	-11.4462
▁మిగుల	-11.4463
▁క్రీడాకారులు	-11.4465
▁మొగల్	-11.4465
▁1875	-11.4465
▁కొప్పర	-11.4466
▁ఫ్లై	-11.4466
మేనని	-11.4466
▁తయారుచేసిన	-11.4467
▁కొమ్ము	-11.4471
▁జగన్నాథ	-11.4471
▁సంయుక్తంగా	-11.4473
▁కాగితం	-11.4475
ర్బన్	-11.4476
▁ఫర్డ్	-11.4477
▁డాన్	-11.4478
▁దినము	-11.4478
లేకపోయినా	-11.4479
2013	-11.448
ార్చన	-11.448
▁రైస్	-11.448
▁గడిచి	-11.4481
▁బండారు	-11.4485
▁పాదుక	-11.4489
▁జానకి	-11.4489
▁రీతుల	-11.449
▁పరిష్కారం	-11.4492
▁తిరునాళ్ళు	-11.4493
▁రచనల్లో	-11.4493
▁బసు	-11.4493
▁హృదయాల	-11.4494
రాఘవేంద్రరావు	-11.4495
▁ఉపన్యాసాలు	-11.4497
▁చేయలేదు	-11.4501
▁నడుప	-11.4505
▁లాంటిది	-11.451
▁రాయడం	-11.4513
▁జరిగేవి	-11.4514
▁న్యూస్	-11.4517
▁ఎగిర	-11.4524
▁స్పష్టమైన	-11.4524
▁అరెస్ట	-11.453
▁ప్లాన్	-11.4533
▁నారాయణుడు	-11.4535
▁సమ్మేళనం	-11.4535
▁పేరే	-11.4538
▁పొలాలు	-11.4538
▁బిళ్ళ	-11.4539
▁సిక్కులు	-11.4543
▁సంవత్సరాల్లో	-11.4544
▁కులానికి	-11.4547
ప్రదేశ	-11.4549
▁కూత	-11.455
▁రాక్షసుల	-11.455
▁వెలికి	-11.4561
▁శ్వేత	-11.4562
▁శిశువు	-11.4568
▁భూదాన	-11.457
▁కల్ల	-11.4572
▁తామర	-11.4587
▁పండగ	-11.4589
▁జనులు	-11.459
దర్బార	-11.4601
▁వైవిధ్యమైన	-11.4604
▁హ్యూమన	-11.4616
▁బురుజు	-11.4618
వర్తన	-11.4622
▁మహాసముద్రము	-11.4623
▁బ్రిట	-11.4625
▁అమర్చి	-11.4638
▁వ్యాసము	-11.4638
▁రోజా	-11.4647
దేశిక	-11.4652
సాగాడ	-11.4653
▁నేర్చుకొన	-11.4665
▁పెట్టడం	-11.4666
సాధక	-11.4666
▁చండ	-11.4677
శాస్త్రము	-11.4679
▁నాటకాల	-11.4683
▁విలువల	-11.4683
▁ఆలోచనల	-11.4687
▁స్వరూపము	-11.4687
▁రంగాల	-11.4694
▁తలపై	-11.47
▁తోటి	-11.4701
▁వైరా	-11.4703
▁అందాల	-11.4707
ోజు	-11.4708
▁కలిగించే	-11.4714
షిప్	-11.4724
▁పేస్	-11.4727
లన్నియు	-11.4736
8)	-11.4738
ాప్రగడ	-11.4741
139	-11.4741
▁వర్ణించిన	-11.4745
ఏకాదశి	-11.4746
▁ప్రశ్నించ	-11.4757
▁సహాయము	-11.4766
▁సంఘటనల	-11.4771
వంతంగా	-11.479
▁శ్రీధర్	-11.4793
▁రంగాచార్య	-11.4795
ck	-11.4798
▁తప్పించుకు	-11.4804
▁నిర్మించబడి	-11.481
▁తిక్క	-11.4811
▁పరిణామం	-11.4813
▁లక్ష్యాల	-11.4817
భార	-11.4828
▁బురుజుల	-11.4832
న్నూరు	-11.4838
▁1884	-11.4841
▁భూపాల	-11.4845
▁నియమము	-11.4853
▁మూట	-11.4866
శుద్ధ	-11.4869
ఢిల్లీ	-11.487
వ్యాపార	-11.487
హిందూ	-11.4871
తిరుమల	-11.4871
ఇండియన్	-11.4871
పాకిస్థాన్	-11.4871
పురాతన	-11.4872
మఠం	-11.4873
పుస్తక	-11.4873
▁జరిప	-11.4874
విజయవాడ	-11.4874
వేదాంత	-11.488
బొమ్మ	-11.488
ఫోర్ట్	-11.4882
▁బాద్	-11.4884
169	-11.4888
▁సత్కరించి	-11.4889
▁గ్రామాల్లో	-11.4891
▁పునర్నిర్మాణ	-11.4893
ఈనాడు	-11.4895
▁ఆరోపణ	-11.4895
▁109	-11.4895
▁పారిశ్రామికంగా	-11.4898
కరించి	-11.4903
▁కరిగి	-11.4904
▁ప్రతాప	-11.4905
▁చిత్రకళ	-11.4909
శ్యామల	-11.491
▁దేశమంత	-11.491
పొర	-11.4916
ెక్స్	-11.4918
▁ఈశాన్యా	-11.492
▁పరీక్షించ	-11.4926
▁కొనసాగుతున్న	-11.4927
స్త్రీ	-11.4931
▁కోపం	-11.4932
▁స్క్ర	-11.4932
▁కాశ్మీర	-11.4938
విభక్త	-11.4938
▁మోర్	-11.494
▁సెలవు	-11.4941
▁ఉపన్యాసాల	-11.4942
స్వర	-11.4954
▁గీతాల	-11.4955
▁ప్రసంగం	-11.4955
▁ఉంటుంద	-11.4956
ళిక	-11.4961
han	-11.4961
▁వివాహమాడ	-11.4963
▁దుస్తుల	-11.4963
▁చావు	-11.4974
▁చేయబడుతుంద	-11.4977
▁190	-11.4978
▁కాగిత	-11.498
▁పట్టాభిషేక	-11.498
▁అచ్యుతరాయల	-11.4983
ug	-11.4985
▁ప్రబోధ	-11.4991
▁రైళ్ళ	-11.4991
▁బదులు	-11.4999
RI	-11.4999
▁కాలేజీలు	-11.5
ేసారి	-11.5005
▁వీరభద్రస్వామి	-11.501
▁సంపాదక	-11.502
చేయడానికి	-11.5023
మెట్టు	-11.5025
▁పాత్రికేయ	-11.5028
ర్వహణ	-11.5033
▁విఠల	-11.5035
▁జగన్నాధ	-11.5035
శోధన	-11.5036
▁ద్వాపర	-11.5036
▁సార్వభౌమ	-11.5036
▁కాళహస్తి	-11.5037
▁జ్యోతిర్లింగ	-11.5037
▁పృథ్వీ	-11.5037
name	-11.5037
software	-11.5037
ఆస్టరాయిడ్	-11.5037
కుంచికపలక	-11.5037
ముర్దేశ్వర్	-11.5037
▁(1980)	-11.5037
▁Information	-11.5037
▁Kashmir	-11.5037
▁Press	-11.5037
▁అష్టదిగ్గజాల	-11.5037
▁ఆర్థోడాక్స్	-11.5037
▁ఉపపర్వాలు	-11.5037
▁ఎలెక్ట్రిక	-11.5037
▁గ్రహశకల	-11.5037
▁చమత్కార	-11.5037
▁జర్నలిస్ట్	-11.5037
▁జహంగీర్	-11.5037
▁తాష్కెంట్	-11.5037
▁నిరుద్యోగ	-11.5037
▁పెంపొందించ	-11.5037
▁పొటాషియం	-11.5037
▁ప్రసిద్ధిచెందిన	-11.5037
▁ప్రెసిడెంట్	-11.5037
▁బిరుదాంకితులు	-11.5037
▁మేనల్లుడు	-11.5037
▁యాదాద్రి	-11.5037
▁రఘురామయ్య	-11.5037
▁రిజర్వ్	-11.5037
▁రెంటచింతల	-11.5037
▁రైల్వేస్టేషన్	-11.5037
▁లూయిస్	-11.5037
▁వృచ్ఛకుడు	-11.5037
▁వెలుగోడు	-11.5037
▁వెలువడ్డాయి	-11.5037
▁శేషగిరిరావు	-11.5037
▁సందర్శిస్త	-11.5037
▁హెక్టేరుల	-11.5037
▁అసమ్మతి	-11.5037
▁ఆహ్లాదకర	-11.5037
▁కమాండర్	-11.5037
▁దేవాదాయ	-11.5037
▁నవ్యాంధ్ర	-11.5037
▁నిర్వచించ	-11.5037
▁యశోద	-11.5037
▁విదర్భ	-11.5037
▁శ్రోతల	-11.5037
▁సత్తుపల్లి	-11.5037
▁హిస్టరీ	-11.5037
▁ఆర్టికల్	-11.5037
▁ఆస్ట్రియా	-11.5037
▁తిమ్మరుసు	-11.5037
▁నిర్దిష్ట	-11.5037
▁సస్సనిద	-11.5037
▁అభ్యాస	-11.5037
▁పొంగళ్ళు	-11.5037
▁బాపూజీ	-11.5037
▁మైలవరం	-11.5037
▁రామలింగారెడ్డి	-11.5037
▁విభజిస్త	-11.5037
▁River	-11.5037
▁ఒకానొక	-11.5037
▁పడగొట్ట	-11.5037
▁పరిపూర్ణ	-11.5037
▁ప్రోగ్రామింగ	-11.5037
▁సాఫ్ట్వేర్	-11.5037
▁జనావాస	-11.5037
▁దేవులపల్లి	-11.5037
▁పంచదార	-11.5037
▁మోతాదు	-11.5037
▁ఊటుకూర	-11.5037
▁రోదసి	-11.5037
▁మధిర	-11.5037
▁అథ్లెట	-11.5037
▁విస్తరిస్త	-11.5037
▁క్యూబా	-11.5037
▁పరిటాల	-11.5037
▁పోర్టు	-11.5037
▁వత్తిడి	-11.5037
▁అస్థిరత	-11.5037
▁బలూచీస్థాన్	-11.5037
క్లిష్ట	-11.5037
▁మర్యాద	-11.5037
▁రాజనీతి	-11.5037
▁మక్కువ	-11.5037
▁దొడ్డ	-11.5037
▁సభ్యుడిగా	-11.5037
time	-11.5037
▁బహుభాషావేత్త	-11.5037
▁మరుగు	-11.5037
▁అగ్రహారం	-11.5037
▁గల్ఫ్	-11.5037
సోయుజ్	-11.5037
▁నార్వే	-11.5037
▁సిపాయి	-11.5037
▁విద్యార్ధుల	-11.5037
▁గ్లోబల	-11.5037
▁గూడవల్లి	-11.5037
▁ఉపమేయ	-11.5037
▁శిరస్సు	-11.5037
▁కాపలా	-11.5037
▁దిగంబర	-11.5037
▁జన్మస్థలం	-11.5037
▁మొదలయ్యాయి	-11.5038
ign	-11.5038
▁స్నేహితుడ	-11.5038
▁గాయకులు	-11.5038
▁నటుడిగా	-11.5038
▁పనిచేసారు	-11.5038
▁దయానంద	-11.5038
▁సురేష్	-11.5038
▁మూడింట	-11.5038
▁బేసిన్	-11.5038
▁చెరసాల	-11.5038
▁మన్ననల	-11.5038
▁ఉత్పల	-11.5038
▁తయారుచేసే	-11.5038
▁అంతిమ	-11.5038
▁సహజసిద్ధ	-11.5038
▁గణపతిదేవుడు	-11.5038
▁సిలికా	-11.5038
▁ప్రథమస్థానంలో	-11.5039
▁ఎన్నికయ్యారు	-11.5039
▁భువనగిరి	-11.5039
▁కుదరదు	-11.5039
▁సీతారాం	-11.5039
▁నర్సాపురం	-11.5039
▁కర్తవ్య	-11.5039
▁సహజవాయువు	-11.5039
▁ఉండొచ్చు	-11.5039
▁ఆత్మకథ	-11.5039
▁విభేదాల	-11.5039
▁బ్యూరో	-11.5039
▁సైనికదళ	-11.5039
▁ఆర్మూర్	-11.5039
▁టైగర్	-11.5039
▁మాట్లాడతారు	-11.504
▁గ్రాండ్	-11.504
ముక్కల	-11.504
▁చేసుకోవడం	-11.504
▁వైశ్య	-11.504
▁మెప్పించ	-11.504
▁ఘోష	-11.504
▁అర్పించ	-11.504
▁లిఫ్ట	-11.5041
▁టమాటో	-11.5041
▁రాకెట్	-11.5041
▁కలుపుతూ	-11.5041
▁ల్యా	-11.5041
▁విడుదలైంది	-11.5041
▁నిన్ను	-11.5041
▁కనుగొనబడ్డాయి	-11.5041
▁ఎక్స	-11.5041
▁ఆంధ్రజ్యోతి	-11.5041
▁నందలూరు	-11.5041
శ్రేష్ట	-11.5042
▁చెన్నూరు	-11.5042
▁జరిగిందని	-11.5042
▁లేబర్	-11.5042
▁ప్రపంచయుద్ధం	-11.5043
▁CD	-11.5043
▁సిద్ధేంద్ర	-11.5044
▁కనిపిస్తూ	-11.5044
▁చనిపోయిన	-11.5044
▁అవుతాయి	-11.5044
▁ముఠా	-11.5044
▁బజార్	-11.5044
▁భాస్కరరావు	-11.5045
▁తిమ్మరాజు	-11.5045
▁టవర్	-11.5045
▁నాటికలు	-11.5047
▁చేరువ	-11.5047
▁నాలుగో	-11.5047
▁శిష్యుడు	-11.5047
▁డైరీ	-11.5047
ఉడక	-11.5047
▁మంథని	-11.5047
▁కుమారస్వామి	-11.5047
▁పిలువబడింది	-11.5048
▁విలసిల్లిన	-11.5048
▁గడిపి	-11.505
▁వేస్తారు	-11.505
ద్దరూ	-11.505
▁సంగతి	-11.505
▁విద్యావిధానం	-11.505
2016	-11.5051
▁బుర్ర	-11.5051
▁శ్రీరాముని	-11.5051
▁కలువ	-11.5052
▁ప్రయోగించింది	-11.5052
▁అధ్యాపకులు	-11.5053
కోమటి	-11.5053
▁సంగీతకారుడు	-11.5053
▁ఒకమారు	-11.5054
▁బోర్డ్	-11.5054
▁నిర్వహించడానికి	-11.5054
అప్ప	-11.5055
▁ఆతని	-11.5057
ింపజేస	-11.5057
ాదిత్య	-11.5058
▁అభిషేకం	-11.5058
▁కింగ్డం	-11.5059
▁చేయబడ్డాడు	-11.5059
▁ప్రంపంచంలో	-11.506
▁ప్రభావాన్ని	-11.506
▁ప్రతిజ్ఞ	-11.506
▁కారణము	-11.506
మయమైన	-11.5061
▁గుళ్ళు	-11.5061
▁పత్రాలు	-11.5062
▁సందర్శించాడు	-11.5062
▁విధించింది	-11.5062
▁అధికభాగం	-11.5063
▁అల్లూరు	-11.5063
▁పిచ్చి	-11.5063
▁అన్నవరం	-11.5064
▁డిజైన్	-11.5064
▁తెలిసింది	-11.5064
▁దేని	-11.5064
▁ప్రత్యేకాంధ్ర	-11.5065
▁1799	-11.5068
▁ఔట్	-11.5068
▁టేబుల	-11.5072
▁1846	-11.5074
▁మాట్లాడేవారు	-11.5074
▁నేతల	-11.5075
▁కంచు	-11.5076
▁1867	-11.5076
▁సిద్ధాంతాన్ని	-11.5077
▁అనువాదాలు	-11.5077
▁నిబంధన	-11.5078
▁తీసుకుంటే	-11.5078
▁1847	-11.5078
▁1724	-11.5081
ఫేస్	-11.5082
▁హైవే	-11.5084
▁చేరుకుని	-11.5084
▁1848	-11.5084
▁రంగాల్లో	-11.5084
▁చాలాకాలం	-11.5085
▁1876	-11.5087
▁తియ్య	-11.509
▁చిమ్మ	-11.509
▁తీవ్రవాదులు	-11.5092
▁శ్రీనివాసుడు	-11.5092
▁చెవుల	-11.5093
▁నిజంగా	-11.5093
▁కనిపించింది	-11.5097
▁పేలి	-11.5098
▁సరే	-11.5098
▁మహానది	-11.51
ంపూడి	-11.5102
▁నియమితులయ్యా	-11.5107
ావతారము	-11.5109
▁మౌన	-11.511
▁ముగుస్త	-11.511
▁లారీ	-11.5111
▁బద్ద	-11.512
▁చెపుత	-11.5123
▁నిబంధనలు	-11.5123
▁సూచనలు	-11.5125
ుకోడానికి	-11.5125
▁fi	-11.5126
▁మానవుడు	-11.5126
vers	-11.5126
▁నిలిచిన	-11.5127
ఇప్పటి	-11.513
▁,(	-11.513
▁శుంగ	-11.513
▁విక్రయించ	-11.5131
▁తగిలించ	-11.5133
181	-11.5133
▁వస్తుంద	-11.5134
ory	-11.5134
▁విజయాల	-11.5135
పూర్వకంగా	-11.5135
able	-11.5138
▁వశం	-11.5149
▁సలీ	-11.5155
▁చెప్పుకొన	-11.5158
▁గుట్టపై	-11.5159
▁సైన్యాల	-11.5167
అట్లాంటిక్	-11.5172
▁భూభాగాల	-11.5173
▁యమున	-11.5174
1947	-11.5176
▁కలిస	-11.5176
ance	-11.5178
వారూ	-11.5178
▁జనుల	-11.5194
▁సజ్జ	-11.5197
▁చట్టాల	-11.5199
చేసారు	-11.5203
▁1,9	-11.5216
adu	-11.5221
▁2,5	-11.5224
▁విశ్లేష	-11.5226
▁Pe	-11.5228
▁దాడిచేసి	-11.523
▁నాగుల	-11.5235
▁గజల్	-11.5247
ప్రవహిస్తున్నాయి	-11.5249
▁మహాసముద్ర	-11.5252
sion	-11.5252
గుండా	-11.5259
▁శ్లోకములు	-11.526
▁నౌకాశ్రయం	-11.5265
వంత్	-11.5268
▁బయలుదేరిన	-11.5268
▁దీవుల్లో	-11.5272
వారై	-11.5273
▁లేచి	-11.5279
▁ఆశ్రయ	-11.5281
గలదని	-11.5283
లక్ష్మమ్మ	-11.5288
▁కేసుల	-11.529
▁శంకరాచార్యుల	-11.5291
బెళగ	-11.5293
▁ప్రతుల	-11.5294
▁చెలరేగి	-11.5299
▁కల్పించి	-11.5303
పరికర	-11.5304
సూక్త	-11.5307
▁ఫ్య	-11.5307
▁ఒప్పించ	-11.5323
▁మిగిల	-11.5327
కోట్ల	-11.5331
ations	-11.5333
blog	-11.5337
▁వివరిస్త	-11.5343
▁రచింప	-11.535
▁నౌకాదళం	-11.5353
▁కనుల	-11.5353
▁సోమేశ్వర	-11.5359
▁సాంకేతికత	-11.5362
▁సులభం	-11.5363
టేజ్	-11.5368
▁ప్రస్థానం	-11.5372
పొంగ	-11.5383
▁నీచ	-11.5388
▁కలుస్త	-11.5389
కొన్ని	-11.5391
భావాల	-11.5392
▁కృష్ణరాజ	-11.5396
న్నిటినీ	-11.5411
▁రంగము	-11.5413
▁పాయలు	-11.5414
▁మునిగిపోయ	-11.5429
▁శిథిలాలు	-11.5429
▁శివాలయ	-11.5437
▁రూపొంద	-11.5441
▁ఉపయోగిస్త	-11.5447
▁149	-11.545
ించబడ్డాయి	-11.5451
▁అనుసంధానించబడి	-11.5471
ism	-11.5473
▁ధరిస్తుంటా	-11.5474
యితే	-11.5474
లాడే	-11.5476
▁కాంత	-11.5488
▁లీటర	-11.5495
సమానమైన	-11.5503
les	-11.5504
▁కాకపోత	-11.5504
పార్టీ	-11.5504
▁ప్రభావిత	-11.5505
డూరు	-11.5513
▁ఇష్టం	-11.5513
సంభాషణలు	-11.5514
మలయాళ	-11.5526
ఉదాహరణ	-11.5526
చెన్నై	-11.5526
ఏప్రిల్	-11.5527
జూలై	-11.5527
అందులో	-11.5528
పరమేశ్వర	-11.5528
కళాశాల	-11.5528
▁గాథలు	-11.5528
సంబంధిత	-11.5528
▁పుణ్యక్షేత్ర	-11.5529
▁రోగుల	-11.5529
▁Man	-11.553
ప్రేమ	-11.5535
ప్రబంధ	-11.5536
▁పలకల	-11.5541
▁Ro	-11.5541
952	-11.5542
▁విధముల	-11.5542
▁వేసే	-11.5544
▁దక్షిణభారత	-11.5548
IS	-11.5557
▁రాజమహేంద్రవర	-11.5558
క్షేత్ర	-11.5576
ond	-11.558
▁నాస్తికుల	-11.5581
▁సుదూర	-11.5582
▁సేవించ	-11.5589
▁బయలుదేరి	-11.5591
▁సంతరించుకున్న	-11.5596
▁సరుకుల	-11.5597
▁గుర్తించబడుత	-11.5599
ఇంత	-11.56
▁ఇంప	-11.56
రష్యా	-11.5618
▁నియమాల	-11.562
▁కుమారుడ	-11.5622
▁ఫలితం	-11.5635
మందిరం	-11.5636
▁పన్నెండ	-11.5638
▁నిపుణుల	-11.5638
సంధ్య	-11.5638
▁పాండ్య	-11.5644
వాచక	-11.5647
▁శ్రామికుల	-11.5657
▁వాచ	-11.5662
▁చేరుకుంట	-11.5666
▁బేస్	-11.5668
రష్యన్	-11.5679
▁అనుసంధానిస్తు	-11.5681
▁ఆగ్నేయాన	-11.5685
▁నిర్వాహకు	-11.5686
▁పితామహు	-11.5686
▁ద్రాక్ష	-11.5687
▁ఉష్ణ	-11.569
సంక్షోభ	-11.5691
▁భవిష్య	-11.5692
ప్రాతిపదిక	-11.5692
▁చేరుకుంటుంద	-11.5692
search	-11.5692
▁యాదగిరి	-11.5692
ఫలకవచం	-11.5692
▁ఏకగ్రీవ	-11.5692
▁వ్యూహాత్మక	-11.5692
సికింద్రాబాద్	-11.5692
▁China	-11.5692
▁Culture	-11.5692
▁అణచివేత	-11.5692
▁అభ్యర్థుల	-11.5692
▁అల్పసంఖ్యాక	-11.5692
▁ఇండస్ట్రియల్	-11.5692
▁ఈజిప్ట్	-11.5692
▁ఉక్రెయిన్	-11.5692
▁ఉపకులపతి	-11.5692
▁ఉపాధ్యక్షుడు	-11.5692
▁కాస్పియన్	-11.5692
▁కొంకణీ	-11.5692
▁కొల్హాపూర్	-11.5692
▁ఖైబర్	-11.5692
▁గబ్బిలాల	-11.5692
▁చతుర్భుజ	-11.5692
▁నమోదైంది	-11.5692
▁నాణ్యమైన	-11.5692
▁పంగులూరు	-11.5692
▁పగటివేషాల	-11.5692
▁పెషావర్	-11.5692
▁ప్రతిఘటన	-11.5692
▁ప్రొడక్షన్స	-11.5692
▁ఫిర్యాదు	-11.5692
▁బాలగంగాధర	-11.5692
▁మహబూబాబాద్	-11.5692
▁మహాశివరాత్రి	-11.5692
▁వాజపేయి	-11.5692
▁శంభాజీ	-11.5692
▁సాఫ్టువేరు	-11.5692
▁సాఫ్టువేర్	-11.5692
▁హొయశిల	-11.5692
▁Front	-11.5692
▁ఆళ్లగడ్డ	-11.5692
▁ఆసుపత్రుల	-11.5692
▁ఇనిస్టిట్యూట్	-11.5692
▁ఏర్పరుచు	-11.5692
▁జ్ఞాపిక	-11.5692
▁డాక్టరేట్	-11.5692
▁నిమగ్న	-11.5692
▁పురోగతి	-11.5692
▁పౌరహక్కుల	-11.5692
▁ఫ్రాన్సిస్	-11.5692
▁మరాఠి	-11.5692
▁యండమూరి	-11.5692
▁రావణుని	-11.5692
▁లక్ష్మయ్య	-11.5692
▁విరాళాల	-11.5692
▁శ్రేష్ఠ	-11.5692
▁మిఖాయిల	-11.5692
▁మూలవిరాట్	-11.5692
▁సుబ్బయ్య	-11.5692
▁సైన్యాధ్యక్షుడు	-11.5692
.1984)	-11.5692
▁ఆదేశించాడు	-11.5692
▁దీక్షితులు	-11.5692
▁వ్యవధి	-11.5692
ఓరియంట	-11.5693
▁అపహరించ	-11.5693
▁కక్ష్య	-11.5693
▁కర్నూల్	-11.5693
▁నైతిక	-11.5693
▁వ్రాతప్రతుల	-11.5693
▁చాగల్లు	-11.5693
▁సాంద్రత	-11.5693
.1880)	-11.5693
.1885)	-11.5693
▁ఉడుపి	-11.5693
▁రుద్రాక్ష	-11.5693
▁వితంతు	-11.5693
▁పెరవలి	-11.5693
.1897)	-11.5693
▁గుర్రపు	-11.5693
▁తొలగింపు	-11.5693
▁that	-11.5693
▁భూటాన్	-11.5693
▁మెకాలే	-11.5693
▁అద్దె	-11.5693
▁అపురూప	-11.5693
▁వితరణ	-11.5693
ర్రగుంట్ల	-11.5693
▁కెమెరా	-11.5693
endra	-11.5693
▁క్యూబి	-11.5693
తమ్మిలేరు	-11.5693
▁వింధ్య	-11.5693
▁ఇంస్టిట్యూట్	-11.5693
▁అసోం	-11.5693
▁హతమార్చ	-11.5693
▁ప్రాచ్య	-11.5693
అనకాపల్లి	-11.5693
▁దౌత్యవేత్త	-11.5693
▁ఫ్రెడరిక్	-11.5693
▁పేలుడు	-11.5693
▁మోక్షగుండం	-11.5693
sub	-11.5693
▁పీఠిక	-11.5693
▁site	-11.5693
▁కుందేరు	-11.5693
▁కీలకపాత్ర	-11.5693
▁రవీంద్రనాథ్	-11.5693
▁విధ్వంసం	-11.5694
▁కొన్నాళ్ళ	-11.5694
▁తీసికొని	-11.5694
▁అడ్డగించ	-11.5694
▁క్రోధ	-11.5694
▁మొదలయిన	-11.5694
▁మలుపు	-11.5695
▁అభినవ	-11.5695
▁ఆరాధ్య	-11.5695
▁ప్రకటించడం	-11.5695
▁ప్రయోగశాల	-11.5695
▁కాథలిక్	-11.5695
▁షటిల్	-11.5696
▁రైల్వేస్టేషను	-11.5696
▁అరబ్బుల	-11.5696
▁క్రూర	-11.5696
▁మల్టీ	-11.5696
▁దుర్గాదేవి	-11.5696
▁రాజగోపాల	-11.5697
▁మారిపోయింది	-11.5697
▁గజేంద్ర	-11.5697
▁మంగళూరు	-11.5697
▁ఆపరేటింగ	-11.5697
▁రుక్మ	-11.5697
▁కామర్స్	-11.5697
▁దాఖల	-11.5698
▁ఏర్పడుతుంది	-11.5698
కోశంలో	-11.5698
▁సీతారామపురం	-11.5699
▁ఇప్పటివరకు	-11.5699
▁గులాబ	-11.5699
▁నిరసించ	-11.5699
▁హెచ్చు	-11.5699
▁లక్ష్మణరావు	-11.5699
▁జుట్టు	-11.5699
▁నిర్వాహకుడు	-11.5699
▁మదన్	-11.57
▁ఒడియా	-11.57
▁నాగార్జునకొండ	-11.57
▁పాడుతూ	-11.5701
▁విష్ణుమూర్తి	-11.5701
▁సేవలందిస్త	-11.5701
▁సీజన్	-11.5702
▁పాటిల్	-11.5702
▁అందజేసిన	-11.5702
▁నాగేంద్ర	-11.5702
హక్రా	-11.5702
▁నేర్చుకున్నాడు	-11.5703
▁ద్రవ్యోల్బణం	-11.5703
▁దక్కింది	-11.5704
ుచుండును	-11.5704
▁విద్యావ్యవస్థ	-11.5704
▁డచ్చి	-11.5704
▁వేంకటపతి	-11.5704
▁శస్త్ర	-11.5704
▁Sri	-11.5705
▁ఓడిపోయాడు	-11.5705
▁అబ్ద	-11.5705
▁జులై	-11.5705
▁యువరాజు	-11.5707
▁కారాగారంలో	-11.5708
▁దర్శనమిస్త	-11.5708
▁ఆరుద్ర	-11.5708
▁రసాయనిక	-11.5708
▁జాతక	-11.5708
▁అతిథి	-11.5709
▁ఎడ్యుకేషన్	-11.5709
▁భూలోక	-11.571
▁ఆదికవి	-11.5711
▁జరిపారు	-11.5711
▁ప్రపంచదేశాల	-11.5712
▁వెంకటపతి	-11.5712
▁పేదలకు	-11.5712
▁ముదురు	-11.5712
▁పనిచేస్తూ	-11.5712
▁గ్రామనామ	-11.5713
▁సుమన్	-11.5714
▁స్వాతి	-11.5715
chan	-11.5715
▁జాబుల	-11.5715
▁మహోత్సవాలు	-11.5715
▁డౌ	-11.5716
▁ముల్క	-11.5717
▁ఉండినది	-11.5718
▁వచ్చినపుడు	-11.5719
▁ఎవరో	-11.572
▁నియోజకవర్గాల	-11.5722
ోచిత	-11.5724
▁జ్వాల	-11.5726
▁వర్గానికి	-11.5726
▁1869	-11.5727
▁ఉపగ్రహాన్ని	-11.5728
▁బయటపడ్డ	-11.5728
▁ఘట్టాల	-11.5728
▁స్థిరమైన	-11.5728
▁ఉత్తరాది	-11.5729
▁అందించడానికి	-11.573
▁స్వర్ణోత్సవ	-11.5731
▁1854	-11.5732
▁1791	-11.5733
▁అంచుల	-11.5734
▁ఆడియో	-11.5734
▁వేచి	-11.5734
▁హోమాలు	-11.5735
▁విధానానికి	-11.5737
▁సాగించాడు	-11.5737
▁అక్కన్న	-11.5737
మొకటి	-11.5737
▁మాటల్లో	-11.5738
▁తేదీలలో	-11.5739
▁తులువ	-11.5739
Na	-11.574
▁వెంకటరావు	-11.574
▁వెళ్లాడు	-11.5741
▁1794	-11.5742
▁అహోబిలం	-11.5744
వ్యాసుడు	-11.5745
▁ప్రతిపాదించారు	-11.5745
▁పోరాడారు	-11.5747
▁ఉండవు	-11.5747
▁ఉద్యానవనాలు	-11.5748
▁చలికాలం	-11.5749
▁ధర్మరాజు	-11.575
▁చాటువు	-11.5753
▁జాకీ	-11.5754
▁సైట్ల	-11.5756
▁బొజ్జ	-11.5757
▁వ్రాయడం	-11.576
▁హనుమా	-11.5761
▁తీరప్రాంతం	-11.5762
▁సైక	-11.5763
▁పెట్టుకున్న	-11.5764
▁యల్ల	-11.5766
▁నియమిత	-11.5767
▁దిగింది	-11.5767
ొవ్	-11.5767
▁పేరుమీద	-11.5769
▁బూద	-11.577
ill	-11.577
▁కూలిపోయి	-11.5772
▁సమర్ధించ	-11.5772
▁జిల్లాకేంద్రం	-11.5774
▁నిశ్చయ	-11.5774
▁కాకతి	-11.578
▁ఉపయోగిస్తున్నార	-11.578
▁యూస	-11.5788
▁వాడడం	-11.5791
▁కిరణాల	-11.5793
▁చట్టబద్ధ	-11.5793
▁సంతరించుక	-11.5794
▁సరుకు	-11.5794
▁సహించ	-11.5798
▁పుట్టినరోజు	-11.5802
బ్రహ్మానందరెడ్డి	-11.5806
ముఖంగా	-11.5807
og	-11.5807
▁గాజుల	-11.5808
ref	-11.5817
▁సందర్శించే	-11.5817
▁ఇండస్	-11.582
▁ఊళ్ళ	-11.5821
చర్య	-11.5824
sec	-11.5826
▁నిర్మాణకళ	-11.5833
▁మనువు	-11.5837
▁ఖగోళశాస్త్ర	-11.5838
▁పారిపోయి	-11.5838
▁సుగమ	-11.5838
▁ప్రదర్శ	-11.5839
▁నిర్మింప	-11.584
380	-11.584
▁తలచి	-11.5848
▁చంద్రుడి	-11.5849
నాడే	-11.5856
ేకర్	-11.5857
ెరె	-11.586
ాక్షరి	-11.5861
▁వినాయకుడి	-11.5865
గుమ్మడిదల	-11.5872
▁తరలివచ్చ	-11.5873
▁దక్షిణభారతదేశ	-11.5882
avi	-11.5882
శ్రీకృష్ణదేవరాయల	-11.5885
▁స్వదేశ	-11.5905
మ్యాన్	-11.5906
▁సర్వేశ్వర	-11.5908
▁సిక్కుల	-11.5908
▁కొండలపై	-11.5913
▁తుంగ	-11.5915
▁పాల్పడ	-11.5924
▁బెంజ	-11.5926
చేస్తున్న	-11.5929
▁లభించడం	-11.5933
మిత్రుడు	-11.5937
ించాడని	-11.5939
ండవు	-11.5946
▁నిండు	-11.5953
▁వర్ణించబడి	-11.5962
▁కార్మికుల	-11.5962
▁శిథిలాల	-11.5963
▁నరక	-11.5967
▁తెలుసుకోవడ	-11.5977
▁అనుసంధానించ	-11.598
స్తుంటారు	-11.5983
▁పట్టాల	-11.5986
▁రాష్ట్రస్థాయి	-11.5993
దొంగ	-11.5996
గుప్తుడు	-11.5998
చేసాడు	-11.6003
▁సాగుతున్న	-11.6004
ఫ్రెడ్	-11.6011
▁దెబ్బతిన్న	-11.6012
▁గుత్త	-11.6018
సుభద్ర	-11.6022
▁వన్యప్రాణుల	-11.6023
▁సూర్యుడ	-11.6025
ింపజేసి	-11.6025
▁అందుకొన్న	-11.6035
బడుతోంది	-11.6042
▁చెప్పుకున్న	-11.6051
▁మండి	-11.6052
▁అన్య	-11.6055
▁కల్పిస్త	-11.6081
ించుచు	-11.6081
అప్పటి	-11.6083
VI	-11.6087
భూపాలుడు	-11.6089
ఫూ	-11.6092
gu	-11.6092
▁మార్చడం	-11.6102
▁నినాద	-11.6127
▁తరంగ	-11.6139
రేవు	-11.6145
యుగము	-11.6147
▁ఆగ్నేయం	-11.6152
ich	-11.6156
▁మెచ్చి	-11.6158
▁స్థలాల	-11.6168
▁విలీనమై	-11.6172
▁వైరస	-11.6178
కొనుట	-11.6183
టట్లు	-11.6184
▁తయారుచేస్త	-11.6189
▁పర్వాల	-11.6192
▁దూడ	-11.6193
▁కావచ్చు	-11.6196
out	-11.6203
▁3,1	-11.6205
చేతిలో	-11.621
▁జహ	-11.622
సాగర	-11.6221
▁శ్వేతా	-11.6226
మనుషుల	-11.6227
▁సంతోషం	-11.6227
ఔ	-11.6227
ఋ	-11.6228
నృసింహ	-11.6228
పువ్వు	-11.6228
నాగరికత	-11.6228
హైదరాబాదు	-11.6229
స్వతంత్ర	-11.6229
మహర్షి	-11.6229
బ్రిటిష్	-11.6229
ఆత్మ	-11.6229
వీధుల	-11.6229
వైష్ణవ	-11.623
విధానాల	-11.6232
వందల	-11.6233
▁128	-11.6236
▁పిలిచ	-11.6237
చేసుకుంట	-11.6237
చివరి	-11.6238
పద్యం	-11.6241
▁నియమితుడయ్యా	-11.6241
యోధుడు	-11.6244
వచన	-11.625
▁అలియా	-11.626
▁బాధ్యతల	-11.6281
▁శ్రీకాకుళ	-11.6282
▁యుగాల	-11.6284
▁ప్రాబల్య	-11.6285
▁దంపతుల	-11.6289
▁పరిశోధక	-11.6291
▁పెంపక	-11.6297
▁మహేశ్వర	-11.6307
భాగాల	-11.6308
▁దుకాణ	-11.6308
▁ఉపనదుల	-11.6317
5000	-11.6324
ారామం	-11.6324
▁మార్కో	-11.6331
పదముల	-11.6332
▁బ్రహ్మోత్సవాల	-11.634
విమర్శలకు	-11.6342
▁సమరయోధు	-11.6346
164	-11.6346
233	-11.6347
షనల్	-11.6353
ఫోన్	-11.6363
▁షెల్	-11.6371
▁అనబడు	-11.6375
▁యాదవుల	-11.6376
▁గృహాల	-11.6376
▁ఉత్సాహ	-11.6381
uk	-11.6382
700	-11.6385
▁బ్యూ	-11.6392
htm	-11.6394
▁ఎలుగుబంట	-11.6394
▁పునర్నిర్మించ	-11.6394
iography	-11.6394
కాలిఫోర్నియా	-11.6394
మంత్రోచ్ఛారణల	-11.6394
రిపబ్లికన్	-11.6394
శ్రీకాళహస్తీశ్వర	-11.6394
▁Government	-11.6394
▁Madras	-11.6394
▁అగ్రగణ్య	-11.6394
▁అద్వైత	-11.6394
▁ఆముక్తమాల్యద	-11.6394
▁ఇంచుమించు	-11.6394
▁ఏర్పాటయింది	-11.6394
▁ఔత్సాహిక	-11.6394
▁కంట్రోల్	-11.6394
▁కార్పోరేషన్	-11.6394
▁కూనవరం	-11.6394
▁కోడుమూరు	-11.6394
▁కోయిలకుంట్ల	-11.6394
▁చాంపియన్	-11.6394
▁చెఱువు	-11.6394
▁జీలకర్ర	-11.6394
▁టెంపుల్	-11.6394
▁తాడిపత్రి	-11.6394
▁తీసుకెళ్ల	-11.6394
▁తుగ్లక్	-11.6394
▁దుగ్యాల	-11.6394
▁ధవళేశ్వరం	-11.6394
▁ధారావాహిక	-11.6394
▁నందికొట్కూరు	-11.6394
▁నావికాదళ	-11.6394
▁నిర్లక్ష్య	-11.6394
▁నైవేద్యం	-11.6394
▁పబ్లిషింగ్	-11.6394
▁ప్రత్యర్థి	-11.6394
▁ప్రావిన్సు	-11.6394
▁ఫిలిప్పీన్స్	-11.6394
▁ఫొటో	-11.6394
▁బళ్లారి	-11.6394
▁భగవానుడు	-11.6394
▁ముహూర్త	-11.6394
▁మొగల్తూరు	-11.6394
▁మ్యూజిక	-11.6394
▁యురేపియన్	-11.6394
▁యోధురాలు	-11.6394
▁రక్తావలోచను	-11.6394
▁రఘుపతి	-11.6394
▁రిలయన్స్	-11.6394
▁రైతాంగ	-11.6394
▁విజృంభి	-11.6394
▁విదేశీమారక	-11.6394
▁వ్యూహం	-11.6394
▁సన్నివేశాల	-11.6394
▁సమర్పణ	-11.6394
▁సాక్షాత్త	-11.6394
▁సుగ్రీవ	-11.6394
▁సుసంపన్నం	-11.6394
స్లావిక్	-11.6394
▁అడిగాడు	-11.6394
▁అత్యాధునిక	-11.6394
▁కామేశ్వరరావు	-11.6394
▁క్షత్రియుల	-11.6394
▁గ్రానైటు	-11.6394
▁మజ్జిగ	-11.6394
▁మరికొంత	-11.6394
▁మాట్లాడుతుంటారు	-11.6394
▁లభ్యమైన	-11.6394
▁వశిష్ఠ	-11.6394
▁శ్రీమద్భాగవత	-11.6394
▁సంతృప్తి	-11.6394
▁సంప్రదించ	-11.6394
▁అమూల్య	-11.6394
▁కాలిబాట	-11.6394
▁కొండగట్టు	-11.6394
▁జంధ్యాల	-11.6394
▁దివాకర్	-11.6394
▁పట్టాభిషిక్తుడ	-11.6394
▁పునాదులు	-11.6394
▁యూరప్	-11.6394
▁ఖజానా	-11.6394
▁దురాచారాల	-11.6394
▁భీమడోలు	-11.6394
▁రాజేశ్వరరావు	-11.6394
▁లావోస్	-11.6394
.1955)	-11.6394
.1982)	-11.6394
.1985)	-11.6394
▁ఉపరితల	-11.6394
▁ఊపిరి	-11.6394
▁శకుంతల	-11.6394
▁హరప్పా	-11.6394
▁ఆర్కిటిక్	-11.6394
▁నిముషాల	-11.6394
▁విడగొట్ట	-11.6394
................	-11.6394
▁గాడ్సే	-11.6395
▁స్టోన్	-11.6395
▁సెంటరు	-11.6395
▁నామినేట	-11.6395
▁పరీక్షిత్తు	-11.6395
▁గదగ్	-11.6395
▁మహ్మద	-11.6395
▁ఖిల్లా	-11.6395
▁నిజామ్	-11.6395
▁అనుసరిస్తున్న	-11.6395
▁డైరక్టర	-11.6395
జనార్దన	-11.6395
▁అజయ్	-11.6395
▁కర్పూర	-11.6395
▁సిద్ధేంద్రయోగి	-11.6395
▁అమాయక	-11.6395
▁పులకే	-11.6395
▁మనుగడ	-11.6395
▁నిర్వర్తిస్త	-11.6395
▁విద్వాంసురాలు	-11.6395
▁కేంద్రీకృతమై	-11.6395
▁ఫిలిం	-11.6395
▁మొదలవుతుంది	-11.6395
▁కుర్దు	-11.6395
గుడ్లూరు	-11.6395
▁ఐదేళ్ళ	-11.6395
రత్నాకర	-11.6395
▁న్యూఢిల్లీ	-11.6395
▁ప్రళయ	-11.6395
▁పందిరి	-11.6395
▁ప్రజానీక	-11.6395
▁భువనపల్లె	-11.6395
▁మధుబాబు	-11.6395
▁జైనమతం	-11.6395
▁మార్టూరు	-11.6396
▁హీట్	-11.6396
▁సేవకురాలు	-11.6396
▁ఆచరణలో	-11.6396
▁ముద్గల	-11.6396
▁సేనానుల	-11.6396
▁page	-11.6396
▁మినహాయించ	-11.6396
▁అనన్య	-11.6396
▁పరిశుద్ధ	-11.6396
▁బాగుంటుంది	-11.6396
▁అక్కడక్కడ	-11.6396
▁హోంశాఖ	-11.6396
▁బహుభాషా	-11.6396
▁చేస్తోంద	-11.6396
.1961)	-11.6396
▁నాగులపాడు	-11.6396
▁వర్గీకరణ	-11.6396
▁చీల్చ	-11.6396
▁జంబూ	-11.6396
▁బయలు	-11.6396
▁నిర్మాణశైలి	-11.6397
▁వేంకటరమణ	-11.6397
▁బట్టలు	-11.6397
▁చిరకాల	-11.6397
▁శాంతియుత	-11.6397
▁యాభై	-11.6397
▁ఇంధన	-11.6397
▁US	-11.6397
▁ఆకర్షణీయ	-11.6398
ాక్షరము	-11.6398
ాభరణ	-11.6398
▁పారాయణ	-11.6399
▁విప్లవకారుడు	-11.6399
▁క్రితమ	-11.6399
▁ఆపిల్	-11.6399
▁సర్కార్	-11.6399
▁రామగుండం	-11.6399
▁వలయం	-11.6399
▁యోగానంద	-11.6399
▁శ్రీరామమూర్తి	-11.6399
▁ప్రధమ	-11.6399
▁తిమ్మక్క	-11.64
▁చిత్రావతి	-11.64
▁క్రాస్	-11.64
▁సామ్య	-11.64
▁దూర్వా	-11.64
▁అనువదించబడింది	-11.6401
▁అవిశ్వాస	-11.6401
▁పత్తికొండ	-11.6401
▁లవణ	-11.6402
▁సుజాత	-11.6402
▁కామారెడ్డి	-11.6402
▁బేగం	-11.6402
▁ఆచరిస్త	-11.6403
హళ్ళి	-11.6403
▁ఐలాండ్	-11.6403
▁దిద్దుకొ	-11.6403
▁ఉడికి	-11.6404
▁నాయకుడైన	-11.6405
బోతున్న	-11.6405
▁ఇవ్వబడ్డాయి	-11.6405
▁కొనసాగుతుంది	-11.6406
▁కోయిల	-11.6406
▁విభాగము	-11.6406
▁ప్రహ్లాదుడు	-11.6407
▁అగ్రికల్చర్	-11.6407
▁పెరుగుతుంది	-11.6408
▁చెయ్యాలని	-11.6408
▁వేంకటేశ్వరరావు	-11.6408
▁గమ్య	-11.6409
▁విజయవంతమైన	-11.6409
▁ధీర	-11.6411
▁తులసి	-11.6411
▁బలరాముడు	-11.6411
▁కొండమీద	-11.6412
▁చైర్	-11.6412
▁సంభవించాయి	-11.6412
▁పిలిచారు	-11.6412
▁విచ్ఛిన్నమై	-11.6413
▁ఏమిటో	-11.6413
▁దానమిచ్చ	-11.6413
▁నేవీ	-11.6413
▁చెయ్యాలి	-11.6413
▁ఇచ్చేవారు	-11.6414
న్వయ	-11.6414
▁నారాయణపేట	-11.6415
▁అలంపూర	-11.6417
▁అంటరానితన	-11.6418
▁సేవకుడు	-11.6418
▁పెయింట	-11.6418
▁వెడల	-11.6418
▁కొణి	-11.6419
▁రకాలైన	-11.6419
▁పరిస్థితుల్లో	-11.6419
▁లక్ష్మణుడు	-11.642
▁ఉట్టి	-11.642
▁ప్రయోగించిన	-11.6422
▁చిత్రీకరణ	-11.6422
▁ఎడ్ల	-11.6424
వలయున	-11.6425
ric	-11.6425
▁తీసుకొన	-11.6425
▁కిరీట	-11.6426
▁బాషా	-11.6426
▁మిట్ట	-11.6426
▁పారిస్	-11.6427
▁ఆంజనేయులు	-11.6427
▁అంశంపై	-11.6429
▁వర్షపు	-11.6429
▁బోటు	-11.6431
▁సాధించడానికి	-11.6431
dom	-11.6432
▁ప్రబలంగా	-11.6434
▁అమర్చ	-11.6435
▁కరణం	-11.6437
▁ప్రాచుర్యము	-11.6437
ల్యాండ్	-11.6438
▁నంబర్	-11.6438
▁ఋణ	-11.6438
▁1833	-11.6439
▁నార్ల	-11.644
▁1855	-11.6441
రాతియుగం	-11.6441
▁వేరుచేసి	-11.6441
▁1831	-11.6442
▁స్కేల	-11.6443
▁అడ్డంకుల	-11.6444
▁షెడ్	-11.6445
▁సిద్దాంత	-11.6448
▁ఓవర్	-11.645
▁వేసారు	-11.6452
రోవ్	-11.6452
▁గోపీ	-11.6453
▁ఒప్పందాల	-11.6454
▁వెలిసి	-11.6454
▁పంచమి	-11.6455
▁ఎన్నుకొ	-11.6456
▁1829	-11.6457
▁సూత	-11.6459
▁నాగయ్య	-11.6459
▁అంజల	-11.6465
▁నెలకొల్పిన	-11.6469
▁కట్టె	-11.6473
చేయమని	-11.6473
▁ధరిస్త	-11.6473
▁నడిపే	-11.6473
▁30,000	-11.6481
▁ఎంచుకు	-11.6484
▁గుప్తుల	-11.6485
▁ప్రయాణాల	-11.6485
▁పూజారుల	-11.6491
▁దర్శకుల	-11.6498
▁వీరశైవ	-11.6501
ించెను	-11.6502
▁అసుర	-11.651
శ్రీరంగపట్నం	-11.6514
▁సభ్యుడ	-11.6516
గట్టి	-11.6519
eration	-11.6528
▁పెరగడం	-11.6536
గౌర	-11.6539
▁విశిష్టత	-11.654
▁సక్స	-11.6546
450	-11.6549
[...]
