<unk>	0
<s>	0
</s>	0
▁t	-0
▁a	-1
he	-2
్ర	-3
in	-4
▁ప	-5
er	-6
▁the	-7
on	-8
ార	-9
▁క	-10
▁స	-11
▁వ	-12
ని	-13
లో	-14
re	-15
్య	-16
▁o	-17
లు	-18
న్	-19
an	-20
at	-21
ంద	-22
▁s	-23
▁మ	-24
en	-25
ed	-26
is	-27
ర్	-28
▁అ	-29
es	-30
it	-31
▁c	-32
▁w	-33
al	-34
▁an	-35
or	-36
▁of	-37
ాల	-38
స్	-39
ar	-40
▁1	-41
▁in	-42
ic	-43
▁f	-44
▁ర	-45
▁p	-46
▁న	-47
▁b	-48
▁and	-49
▁ప్ర	-50
▁ఉ	-51
క్	-52
▁గ	-53
▁A	-54
ంది	-55
▁చ	-56
ిం	-57
ాయ	-58
డు	-59
ion	-60
ro	-61
▁త	-62
న్న	-63
రు	-64
ing	-65
కు	-66
▁m	-67
as	-68
డి	-69
ల్	-70
▁ద	-71
▁(	-72
గా	-73
▁ఆ	-74
le	-75
▁to	-76
ామ	-77
▁d	-78
▁జ	-79
ంలో	-80
త్	-81
ను	-82
▁h	-83
ించ	-84
ou	-85
రి	-86
ent	-87
▁బ	-88
ారు	-89
▁T	-90
ట్	-91
కి	-92
▁వి	-93
టి	-94
st	-95
▁19	-96
తు	-97
il	-98
om	-99
▁భ	-100
ct	-101
ol	-102
తి	-103
▁e	-104
▁re	-105
▁2	-106
▁ఇ	-107
ము	-108
el	-109
▁l	-110
▁S	-111
▁n	-112
ంత	-113
▁th	-114
ాయి	-115
ండ	-116
గు	-117
▁శ	-118
ిన	-119
▁గ్ర	-120
▁సం	-121
్వ	-122
ాలు	-123
▁C	-124
et	-125
id	-126
ly	-127
am	-128
టు	-129
us	-130
im	-131
ur	-132
ch	-133
▁ఉన్న	-134
లి	-135
ద్	-136
▁is	-137
ation	-138
ది	-139
iv	-140
ార్	-141
త్ర	-142
▁The	-143
లా	-144
▁గ్రామ	-145
ce	-146
ad	-147
రా	-148
▁I	-149
వి	-150
ot	-151
ష్	-152
▁రా	-153
ాన	-154
పు	-155
▁M	-156
ut	-157
▁as	-158
ేశ	-159
ిక	-160
ంగా	-161
ుం	-162
ాని	-163
▁for	-164
▁be	-165
▁ని	-166
▁ఈ	-167
ig	-168
un	-169
▁ల	-170
వు	-171
▁B	-172
▁g	-173
▁20	-174
ist	-175
ir	-176
▁హ	-177
▁on	-178
ైన	-179
ాడు	-180
ith	-181
▁al	-182
ul	-183
ra	-184
మీ	-185
▁P	-186
ers	-187
▁నుం	-188
um	-189
ow	-190
her	-191
▁st	-192
▁చే	-193
వా	-194
ప్	-195
▁H	-196
▁ఎ	-197
▁"	-198
డ్	-199
th	-200
ారి	-201
▁ఒ	-202
▁was	-203
దు	-204
్యా	-205
▁con	-206
em	-207
▁with	-208
▁ఉంది	-209
సు	-210
▁నుండి	-211
న్ని	-212
క్ష	-213
os	-214
▁by	-215
ిల్	-216
ver	-217
▁that	-218
ter	-219
ెం	-220
▁wh	-221
▁E	-222
▁పా	-223
ay	-224
▁ఉన్నాయి	-225
and	-226
ంగ	-227
నే	-228
ంట	-229
op	-230
డా	-231
▁pro	-232
చి	-233
▁ఒక	-234
ానికి	-235
▁లో	-236
▁G	-237
తో	-238
ంద్ర	-239
▁కి	-240
▁L	-241
est	-242
కర	-243
▁D	-244
చ్	-245
స్త	-246
▁or	-247
జు	-248
స్తు	-249
మి	-250
▁స్	-251
▁R	-252
od	-253
▁In	-254
▁W	-255
▁ము	-256
▁F	-257
▁ప్రా	-258
▁తె	-259
క్క	-260
ag	-261
ian	-262
ies	-263
బ్	-264
if	-265
▁య	-266
00	-267
▁N	-268
ద్య	-269
మా	-270
▁v	-271
స్థ	-272
▁చె	-273
▁are	-274
▁కొ	-275
rom	-276
్రీ	-277
సి	-278
av	-279
▁de	-280
శాల	-281
ab	-282
▁at	-283
▁వ్య	-284
వే	-285
res	-286
త్త	-287
▁it	-288
▁com	-289
▁-	-290
pe	-291
▁su	-292
▁కే	-293
క్ట	-294
ate	-295
ించి	-296
ూర	-297
▁భార	-298
మ్	-299
▁ex	-300
ందు	-301
నా	-302
ud	-303
ac	-304
oun	-305
గ్	-306
ain	-307
▁from	-308
▁సా	-309
▁ఏ	-310
19	-311
ri	-312
▁కా	-313
▁మొ	-314
గి	-315
▁he	-316
ట్ట	-317
ీయ	-318
▁జిల్	-319
కా	-320
ట్ర	-321
▁రో	-322
ity	-323
ారం	-324
ద్ధ	-325
▁భారత	-326
దేశ	-327
ical	-328
ort	-329
ant	-330
ప్ర	-331
oc	-332
త్య	-333
ich	-334
▁కేంద్ర	-335
qu	-336
యం	-337
ారా	-338
▁పో	-339
ld	-340
▁పు	-341
▁mo	-342
▁గ్రామంలో	-343
▁his	-344
og	-345
ంధ	-346
▁3	-347
ూర్	-348
▁O	-349
▁సి	-350
▁జిల్లా	-351
▁18	-352
▁వ్యవ	-353
ాత	-354
pp	-355
ess	-356
▁5	-357
),	-358
▁దూర	-359
▁కు	-360
▁J	-361
త్వ	-362
ive	-363
ial	-364
ill	-365
▁r	-366
▁గ్రామం	-367
▁10	-368
త్స	-369
ia	-370
▁కూ	-371
మైన	-372
్యం	-373
▁se	-374
pt	-375
▁భా	-376
ated	-377
్రి	-378
చ్చ	-379
ళ్	-380
ంచ	-381
▁రాజ	-382
ప్ప	-383
▁U	-384
ఖ్య	-385
ber	-386
▁Al	-387
▁దూరంలో	-388
▁నిర్	-389
▁లే	-390
బడి	-391
▁An	-392
se	-393
రం	-394
ోగ	-395
▁201	-396
▁గు	-397
art	-398
▁us	-399
ద్ద	-400
gh	-401
all	-402
▁un	-403
ment	-404
ak	-405
igh	-406
▁స్వ	-407
▁which	-408
యా	-409
ేవ	-410
▁కో	-411
భా	-412
హి	-413
▁వా	-414
తా	-415
▁భూ	-416
యి	-417
▁ch	-418
du	-419
ure	-420
పా	-421
▁K	-422
ధ్య	-423
▁మా	-424
▁ఫ	-425
ard	-426
ew	-427
ell	-428
ther	-429
mer	-430
▁కూడా	-431
rit	-432
ష్ట్ర	-433
▁రోజు	-434
లుగు	-435
రుగు	-436
▁చి	-437
end	-438
నీ	-439
్రా	-440
ere	-441
ction	-442
▁–	-443
ong	-444
భు	-445
ూరు	-446
ary	-447
cl	-448
ల్ల	-449
▁ar	-450
య్య	-451
ave	-452
▁వే	-453
).	-454
కొ	-455
ish	-456
▁పె	-457
టీ	-458
ous	-459
మ్మ	-460
▁not	-461
▁శ్రీ	-462
▁ప్రాంత	-463
ast	-464
▁వై	-465
our	-466
▁పరి	-467
ine	-468
ge	-469
ph	-470
▁ద్వ	-471
▁were	-472
దా	-473
ాల్	-474
▁le	-475
▁రాష్ట్ర	-476
▁ప్రభు	-477
ుల	-478
▁wor	-479
▁200	-480
ov	-481
పి	-482
▁నా	-483
▁తెలుగు	-484
ించిన	-485
▁ab	-486
▁హె	-487
ళా	-488
ip	-489
లలో	-490
▁ప్రభుత్వ	-491
▁pl	-492
▁comp	-493
up	-494
ect	-495
ult	-496
ran	-497
▁మొద	-498
వత్స	-499
▁సౌ	-500
red	-501
రణ	-502
ుడు	-503
▁శా	-504
లను	-505
ులు	-506
సాయ	-507
so	-508
▁4	-509
ear	-510
▁సమీ	-511
der	-512
▁have	-513
▁cont	-514
▁కేంద్రం	-515
▁పే	-516
iz	-517
ించారు	-518
ివ	-519
▁పాఠ	-520
ణా	-521
ంబ	-522
per	-523
ధాన	-524
ub	-525
లీ	-526
▁సౌకర	-527
ేష	-528
ళ్ళ	-529
cc	-530
▁హెక్ట	-531
▁స్థ	-532
ass	-533
▁St	-534
▁సంవత్స	-535
▁పాఠశాల	-536
▁తి	-537
▁k	-538
▁sh	-539
▁,	-540
ome	-541
లకు	-542
కో	-543
ame	-544
▁సామ	-545
▁హెక్టార్	-546
ide	-547
ాలలో	-548
▁వ్యవసాయ	-549
▁has	-550
ence	-551
బా	-552
ican	-553
ట్టి	-554
కృ	-555
▁సు	-556
▁అనే	-557
ight	-558
ition	-559
▁వె	-560
▁వీ	-561
ff	-562
మిక	-563
కుడు	-564
▁int	-565
న్నాయి	-566
oll	-567
ates	-568
ry	-569
ap	-570
ందిన	-571
act	-572
ater	-573
▁Ch	-574
▁నీ	-575
▁సమీప	-576
▁ద్వారా	-577
▁కళా	-578
్యూ	-579
▁పొ	-580
వాత	-581
ండి	-582
▁also	-583
ore	-584
ాలను	-585
ie	-586
▁ad	-587
ర్శ	-588
▁its	-589
.19	-590
▁డి	-591
▁మార్	-592
ib	-593
ింగ్	-594
▁Ar	-595
సం	-596
age	-597
ally	-598
హా	-599
ించాడు	-600
▁y	-601
▁సమ	-602
ru	-603
▁their	-604
నం	-605
▁బా	-606
▁రచ	-607
▁whe	-608
▁had	-609
ations	-610
irst	-611
▁other	-612
▁199	-613
ణి	-614
▁ఇది	-615
ంధ్ర	-616
ang	-617
▁జన	-618
▁కార	-619
క్కు	-620
▁గో	-621
▁హెక్టార్లు	-622
▁7	-623
▁కాల	-624
▁but	-625
ory	-626
న్నారు	-627
▁V	-628
ire	-629
ష్ణ	-630
ely	-631
ount	-632
▁cl	-633
▁Un	-634
▁6	-635
▁Amer	-636
▁ప్రక	-637
clud	-638
▁197	-639
జీ	-640
erm	-641
▁ట	-642
చు	-643
ree	-644
▁జరి	-645
▁dis	-646
వరి	-647
▁అని	-648
ok	-649
▁పాల	-650
ren	-651
ould	-652
▁సర	-653
త్తి	-654
▁దేశ	-655
▁res	-656
▁196	-657
ace	-658
రీ	-659
any	-660
pl	-661
రకు	-662
ium	-663
▁Th	-664
▁198	-665
▁భూమి	-666
ధిక	-667
▁తరు	-668
▁first	-669
జ్	-670
ign	-671
▁పై	-672
20	-673
out	-674
సిన	-675
ust	-676
స్తుంది	-677
▁కళాశాల	-678
యన్	-679
ాన్	-680
▁en	-681
▁all	-682
▁ఆల	-683
..	-684
ంటి	-685
ంక	-686
ఫ్	-687
ంప	-688
▁మండ	-689
▁part	-690
ions	-691
ములో	-692
ost	-693
▁im	-694
తర	-695
▁చెందిన	-696
సా	-697
ైవే	-698
ీసు	-699
tern	-700
మె	-701
ound	-702
చే	-703
ond	-704
▁can	-705
▁sp	-706
పో	-707
▁one	-708
▁సంఖ్య	-709
్రమ	-710
▁includ	-711
ron	-712
నూ	-713
ండ్	-714
▁ష	-715
ేక	-716
జా	-717
ంతో	-718
రాల	-719
▁17	-720
▁this	-721
గిన	-722
ీత	-723
fer	-724
able	-725
ime	-726
▁మీ	-727
▁bec	-728
ord	-729
▁తరువాత	-730
ెడ్	-731
ద్ధి	-732
పతి	-733
▁ఆంధ్ర	-734
ue	-735
ced	-736
▁అవ	-737
▁ne	-738
తుంది	-739
స్త్ర	-740
▁8	-741
ంటే	-742
తులు	-743
▁అను	-744
బ్బ	-745
పాల	-746
▁యు	-747
▁వైద్య	-748
డం	-749
olog	-750
over	-751
▁ప్రధాన	-752
ress	-753
ైవేటు	-754
▁'	-755
▁దీ	-756
ర్త	-757
▁sc	-758
hed	-759
▁ఉండ	-760
ప్పు	-761
బడిన	-762
▁form	-763
▁నే	-764
ep	-765
▁కలి	-766
fter	-767
క్షి	-768
▁అభ	-769
▁per	-770
▁been	-771
▁American	-772
ంత్ర	-773
ile	-774
ric	-775
▁It	-776
హద	-777
▁భాష	-778
▁195	-779
▁మి	-780
ik	-781
own	-782
und	-783
▁సౌకర్యం	-784
▁He	-785
శా	-786
ces	-787
▁194	-788
యన	-789
ించింది	-790
▁గా	-791
లే	-792
థమిక	-793
▁most	-794
▁used	-795
ks	-796
▁ఉప	-797
జి	-798
యిత	-799
యోగ	-800
కం	-801
▁ఆర	-802
▁such	-803
▁te	-804
orm	-805
▁మూ	-806
వల	-807
ర్లు	-808
▁సిని	-809
ామి	-810
▁చేయ	-811
▁produ	-812
శ్వ	-813
కీ	-814
▁డా	-815
వులు	-816
ough	-817
▁తన	-818
▁cons	-819
▁రామ	-820
డే	-821
వం	-822
ల్లి	-823
▁more	-824
▁ప్రైవేటు	-825
ద్ర	-826
నికి	-827
▁ph	-828
ణం	-829
▁sy	-830
ens	-831
ెట్	-832
గర	-833
als	-834
te	-835
ism	-836
wo	-837
▁who	-838
▁మే	-839
▁15	-840
▁శి	-841
▁ఆర్	-842
ational	-843
uring	-844
▁పట్ట	-845
▁ఉన్నారు	-846
ited	-847
ugh	-848
▁comm	-849
▁ఖ	-850
erv	-851
▁ag	-852
▁ro	-853
▁అత	-854
vel	-855
18	-856
▁ele	-857
ాతీయ	-858
ధి	-859
▁9	-860
ubl	-861
▁జూ	-862
దేశ్	-863
▁దేవ	-864
ents	-865
▁సరఫ	-866
్రహ	-867
▁వారి	-868
ts	-869
▁spe	-870
▁రహద	-871
ాలయం	-872
ach	-873
ack	-874
యో	-875
టా	-876
క్కువ	-877
▁భారతదేశ	-878
ice	-879
▁ప్రత్య	-880
▁As	-881
▁విద్య	-882
000	-883
ెండు	-884
▁they	-885
▁than	-886
స్వ	-887
ెండ	-888
▁ధ	-889
▁ప్రాథమిక	-890
▁విజ	-891
▁పేరు	-892
les	-893
▁అంత	-894
▁కార్య	-895
▁cent	-896
▁year	-897
land	-898
తం	-899
ేషన్	-900
స్తారు	-901
దే	-902
ose	-903
ేశ్వ	-904
ilm	-905
▁rel	-906
▁gro	-907
▁(19	-908
amp	-909
▁పి	-910
▁డాక్ట	-911
▁వ్యవస్థ	-912
▁16	-913
ంజ	-914
▁ev	-915
we	-916
▁ac	-917
పై	-918
ట్టు	-919
ెడ్డి	-920
aus	-921
వర్	-922
▁me	-923
▁రహదారి	-924
▁193	-925
తీ	-926
రిత్ర	-927
లం	-928
▁.	-929
▁into	-930
▁కృ	-931
▁met	-932
▁సినిమా	-933
ob	-934
లోని	-935
ance	-936
▁pre	-937
యు	-938
లతో	-939
త్రి	-940
▁రెండు	-941
ూప	-942
▁am	-943
▁అధిక	-944
ied	-945
రో	-946
▁జనా	-947
reat	-948
▁ఇక్క	-949
▁ముఖ్య	-950
వహ	-951
ors	-952
port	-953
▁సంగ	-954
ans	-955
ite	-956
ల్లో	-957
aw	-958
చ్చి	-959
▁ఏర్	-960
▁ప్రతి	-961
మే	-962
▁des	-963
ark	-964
ండా	-965
వారి	-966
▁సహ	-967
▁rec	-968
▁అందు	-969
▁రై	-970
▁సంవత్సర	-971
▁జనాభా	-972
▁నాయ	-973
▁పర	-974
▁num	-975
రించి	-976
▁డ	-977
▁j	-978
కాల	-979
▁హి	-980
ious	-981
జ్య	-982
గం	-983
గొ	-984
లంగా	-985
▁ఆరోగ	-986
దీ	-987
▁app	-988
ular	-989
▁Ap	-990
ase	-991
ంటు	-992
కులు	-993
▁two	-994
ంత్రి	-995
▁చరిత్ర	-996
ener	-997
▁విద	-998
డ్డ	-999
ics	-1000
▁మహ	-1001
ంలోని	-1002
ర్వ	-1003
▁తీ	-1004
బడింది	-1005
ించు	-1006
యిన	-1007
iet	-1008
iss	-1009
ons	-1010
▁over	-1011
ాప	-1012
శ్	-1013
▁పార	-1014
ade	-1015
ten	-1016
▁చిత్ర	-1017
కల్	-1018
▁ప్రజ	-1019
ాన్ని	-1020
▁sub	-1021
బర్	-1022
▁act	-1023
ించే	-1024
ted	-1025
పె	-1026
▁సంస్థ	-1027
▁film	-1028
▁12	-1029
లైన	-1030
▁bet	-1031
▁సరఫరా	-1032
ర్మ	-1033
▁some	-1034
▁మధ్య	-1035
ury	-1036
ానం	-1037
▁బి	-1038
▁kn	-1039
▁after	-1040
▁నె	-1041
ath	-1042
తోంది	-1043
ంగ్	-1044
one	-1045
▁జరుగు	-1046
▁lar	-1047
ys	-1048
rib	-1049
▁ఎక్కువ	-1050
ైద	-1051
ased	-1052
old	-1053
చ్చు	-1054
▁మొదటి	-1055
స్సు	-1056
డానికి	-1057
angu	-1058
".	-1059
▁En	-1060
▁only	-1061
▁దా	-1062
▁పద	-1063
శు	-1064
ములు	-1065
▁her	-1066
rough	-1067
క్తి	-1068
ృద్ధి	-1069
ific	-1070
▁192	-1071
hem	-1072
▁At	-1073
▁ఉత్త	-1074
▁లోని	-1075
▁would	-1076
నకు	-1077
పంచ	-1078
ెస్	-1079
uro	-1080
్యాం	-1081
▁pol	-1082
▁పైబడిన	-1083
ne	-1084
▁మంది	-1085
ాలా	-1086
నరు	-1087
▁14	-1088
oh	-1089
ఫీసు	-1090
▁reg	-1091
ాజ	-1092
ings	-1093
క్షణ	-1094
్యాలు	-1095
▁11	-1096
▁ఇతర	-1097
▁War	-1098
▁వ్యా	-1099
ెక్	-1100
▁ప్రవ	-1101
▁సభ	-1102
ంటారు	-1103
▁mod	-1104
,000	-1105
▁ఐ	-1106
ween	-1107
▁This	-1108
రంగ	-1109
ook	-1110
ual	-1111
ster	-1112
are	-1113
▁లా	-1114
ారంభ	-1115
▁లేదు	-1116
▁ప్రకారం	-1117
oth	-1118
ists	-1119
▁ear	-1120
▁దర్శ	-1121
▁విద్యా	-1122
ood	-1123
▁పార్	-1124
▁రచయిత	-1125
▁him	-1126
▁many	-1127
▁count	-1128
▁pe	-1129
ind	-1130
▁జాతీయ	-1131
షి	-1132
యంలో	-1133
ily	-1134
ict	-1135
చార	-1136
▁Se	-1137
▁att	-1138
▁time	-1139
ప్పటి	-1140
మో	-1141
▁స్ట	-1142
gan	-1143
▁దక్షి	-1144
▁పం	-1145
ట్లు	-1146
▁పూర్	-1147
కారు	-1148
▁ఆధ	-1149
▁Con	-1150
▁13	-1151
▁తెలంగా	-1152
very	-1153
▁సై	-1154
స్కృ	-1155
▁writ	-1156
cre	-1157
▁so	-1158
▁శాస్త్ర	-1159
ష్ట	-1160
▁ప్రారంభ	-1161
▁కె	-1162
▁నిర్మ	-1163
▁ass	-1164
▁art	-1165
▁పెద్ద	-1166
ొక్క	-1167
▁సంఘ	-1168
▁ind	-1169
▁work	-1170
uc	-1171
inc	-1172
▁out	-1173
బ్ద	-1174
▁when	-1175
ివృద్ధి	-1176
hes	-1177
స్తున్న	-1178
▁between	-1179
▁ప్రత్యేక	-1180
▁ఓ	-1181
▁langu	-1182
▁ప్రపంచ	-1183
ాలకు	-1184
ution	-1185
▁విస్త	-1186
రావు	-1187
▁వరకు	-1188
ider	-1189
▁నీటి	-1190
▁under	-1191
▁pr	-1192
▁ఒకటి	-1193
ోన్	-1194
ward	-1195
▁శతా	-1196
▁pres	-1197
▁may	-1198
▁బాల	-1199
▁వెం	-1200
▁about	-1201
ినీ	-1202
▁లభ	-1203
కూ	-1204
ivers	-1205
టర్	-1206
▁సె	-1207
▁కవి	-1208
▁వచ్చ	-1209
▁నిర్వహ	-1210
రే	-1211
▁ob	-1212
▁up	-1213
arch	-1214
outh	-1215
rans	-1216
▁Am	-1217
ities	-1218
ae	-1219
ject	-1220
కే	-1221
బు	-1222
ins	-1223
▁జరిగిన	-1224
▁మరణ	-1225
▁char	-1226
",	-1227
▁em	-1228
▁def	-1229
▁po	-1230
▁తా	-1231
గర్	-1232
ెడి	-1233
▁గ్రామానికి	-1234
ft	-1235
▁నది	-1236
ug	-1237
ాలి	-1238
form	-1239
ైనా	-1240
lex	-1241
టక	-1242
▁dif	-1243
▁తొ	-1244
▁them	-1245
▁చేస	-1246
gl	-1247
తున్నాయి	-1248
ve	-1249
▁var	-1250
▁అన్న	-1251
ాజిక	-1252
ower	-1253
ural	-1254
ుని	-1255
▁వర్	-1256
ern	-1257
సీ	-1258
స్థాన్	-1259
ient	-1260
వర	-1261
▁ఆరోగ్య	-1262
▁సాహి	-1263
కార	-1264
త్రిక	-1265
▁ra	-1266
ince	-1267
▁రోజులు	-1268
ished	-1269
stem	-1270
వేత్త	-1271
▁there	-1272
▁Sp	-1273
▁జీ	-1274
▁సే	-1275
▁qu	-1276
urn	-1277
పూర్	-1278
ved	-1279
ative	-1280
▁సామాజిక	-1281
▁fl	-1282
లన	-1283
▁acc	-1284
▁pop	-1285
▁సాధ	-1286
ప్రదేశ్	-1287
▁ది	-1288
wn	-1289
ail	-1290
hen	-1291
్మ	-1292
సన	-1293
ars	-1294
▁విశ్వ	-1295
ople	-1296
▁పాటు	-1297
▁publ	-1298
▁ఇక్కడ	-1299
ating	-1300
▁పాఠశాలలు	-1301
ంథ	-1302
▁tr	-1303
▁అభివృద్ధి	-1304
gy	-1305
ause	-1306
ందీ	-1307
యర్	-1308
▁found	-1309
▁మహా	-1310
inal	-1311
▁set	-1312
▁during	-1313
ర్థ	-1314
▁where	-1315
▁పరిశ	-1316
▁దీని	-1317
ild	-1318
ages	-1319
▁చాలా	-1320
▁Y	-1321
ock	-1322
▁అన	-1323
ology	-1324
▁play	-1325
ంచి	-1326
▁inv	-1327
ically	-1328
టం	-1329
▁తే	-1330
ral	-1331
▁భాగ	-1332
సెం	-1333
▁inter	-1334
▁we	-1335
ever	-1336
▁కర్	-1337
ెడికల్	-1338
▁co	-1339
▁spec	-1340
▁దక్షిణ	-1341
ోధ	-1342
▁భారతీయ	-1343
▁పట్టణ	-1344
▁through	-1345
▁రాజు	-1346
oy	-1347
▁new	-1348
ix	-1349
నీరు	-1350
▁aut	-1351
▁rem	-1352
▁సిబ్బ	-1353
▁Af	-1354
ures	-1355
▁Ind	-1356
క్ర	-1357
▁నిర్మా	-1358
గణ	-1359
▁దు	-1360
▁:	-1361
ized	-1362
orth	-1363
▁gener	-1364
▁యుద్ధ	-1365
▁known	-1366
▁ఉత్	-1367
▁కల	-1368
ollo	-1369
ert	-1370
▁col	-1371
▁ap	-1372
డుగు	-1373
velop	-1374
2:	-1375
▁మె	-1376
irect	-1377
▁use	-1378
▁కింది	-1379
త్తు	-1380
▁state	-1381
గింది	-1382
▁years	-1383
▁పోస్	-1384
ేశ్వర	-1385
లై	-1386
▁మొదలైన	-1387
కున్న	-1388
స్తున్నారు	-1389
▁నవ	-1390
త్తం	-1391
ton	-1392
తన	-1393
▁క్రీ	-1394
ake	-1395
▁చూ	-1396
▁pos	-1397
▁Re	-1398
ollow	-1399
మై	-1400
గే	-1401
ప్పుడు	-1402
▁system	-1403
▁number	-1404
fl	-1405
స్తూ	-1406
ident	-1407
▁అన్ని	-1408
▁man	-1409
▁call	-1410
▁తెలంగాణ	-1411
ాయణ	-1412
క్రమ	-1413
ll	-1414
బ్లి	-1415
▁వంటి	-1416
▁New	-1417
▁జిల్లాలో	-1418
con	-1419
▁ఇం	-1420
▁చేసి	-1421
ature	-1422
ays	-1423
పాద	-1424
▁అమ	-1425
▁group	-1426
▁గ్రంథ	-1427
ife	-1428
▁do	-1429
▁ఆలయం	-1430
▁these	-1431
▁డాక్టర్లు	-1432
గ్రీ	-1433
కిస్థాన్	-1434
rop	-1435
▁పని	-1436
రస	-1437
▁సమా	-1438
▁విని	-1439
▁stud	-1440
fore	-1441
▁సౌకర్యాలు	-1442
ger	-1443
పడి	-1444
టుడు	-1445
▁మురుగు	-1446
▁ఆట	-1447
▁ఆఫ్	-1448
గో	-1449
ెడ	-1450
ians	-1451
▁రాయ	-1452
aj	-1453
▁నుంచి	-1454
▁టె	-1455
వీ	-1456
int	-1457
▁off	-1458
overn	-1459
ాల్లో	-1460
▁యొక్క	-1461
ట్ల	-1462
▁సంస్కృ	-1463
ram	-1464
5:	-1465
rab	-1466
న్స్	-1467
▁పారామ	-1468
▁రోడ్	-1469
▁పారామెడికల్	-1470
▁కొన్ని	-1471
▁శతాబ్ద	-1472
▁జా	-1473
▁sur	-1474
▁ఉండే	-1475
▁trans	-1476
1,	-1477
cept	-1478
▁ext	-1479
▁Apollo	-1480
▁రెండ	-1481
్యాల	-1482
▁dist	-1483
▁ఆంధ్రప్రదేశ్	-1484
atic	-1485
▁191	-1486
▁202	-1487
ంటుంది	-1488
▁while	-1489
ాలయ	-1490
మెరి	-1491
▁later	-1492
▁చెప్ప	-1493
పే	-1494
ier	-1495
నో	-1496
బంధ	-1497
owever	-1498
▁world	-1499
ually	-1500
ందుకు	-1501
▁States	-1502
gest	-1503
▁సో	-1504
▁including	-1505
2,	-1506
▁ను	-1507
పాటు	-1508
▁century	-1509
▁develop	-1510
బి	-1511
▁fam	-1512
పల్లి	-1513
మంత్రి	-1514
▁well	-1515
బడు	-1516
లిం	-1517
tle	-1518
వచ్చు	-1519
వుల	-1520
ah	-1521
▁De	-1522
▁తో	-1523
▁ఇంట	-1524
."	-1525
▁లేని	-1526
▁క్	-1527
▁పూ	-1528
బాదు	-1529
▁కృష్ణ	-1530
దాయ	-1531
▁స్వాత	-1532
విధ	-1533
రాజు	-1534
▁మండల	-1535
▁United	-1536
pos	-1537
హార	-1538
▁పుర	-1539
▁est	-1540
▁డిగ్రీ	-1541
▁అత్య	-1542
▁నీరు	-1543
6:	-1544
మెం	-1545
▁విధ	-1546
ments	-1547
uch	-1548
round	-1549
▁ఉద్య	-1550
▁eff	-1551
▁మూడు	-1552
రామ	-1553
▁tra	-1554
నాయ	-1555
▁rep	-1556
పూ	-1557
దులు	-1558
▁end	-1559
▁పోష	-1560
కీయ	-1561
▁తిరు	-1562
▁స్వాతంత్ర	-1563
▁Brit	-1564
▁హైద	-1565
▁both	-1566
▁prov	-1567
stit	-1568
▁appe	-1569
▁వెంక	-1570
▁విద్యు	-1571
▁high	-1572
వ్వ	-1573
▁fe	-1574
▁And	-1575
▁sec	-1576
▁ఆయన	-1577
▁వ్యవసాయం	-1578
1:	-1579
4,	-1580
▁కథ	-1581
▁కంటే	-1582
ander	-1583
▁differ	-1584
ike	-1585
5,	-1586
6)	-1587
imes	-1588
7:	-1589
గల	-1590
▁no	-1591
ల్డ్	-1592
నలు	-1593
▁రంగ	-1594
2)	-1595
▁supp	-1596
▁రోజున	-1597
▁వచ్చి	-1598
▁వృ	-1599
▁dec	-1600
other	-1601
hip	-1602
▁direct	-1603
ొక	-1604
▁చేసిన	-1605
▁follow	-1606
the	-1607
ise	-1608
▁190	-1609
▁రూప	-1610
▁సంవత్సరములో	-1611
ined	-1612
▁ఎన్ని	-1613
▁people	-1614
మారు	-1615
chn	-1616
▁term	-1617
▁వద్ద	-1618
బ్లిక్	-1619
▁అమెరి	-1620
▁రాజకీయ	-1621
io	-1622
yp	-1623
▁car	-1624
ారాయణ	-1625
▁చేశ	-1626
4:	-1627
రిగి	-1628
▁బస్సు	-1629
ived	-1630
▁నటుడు	-1631
ax	-1632
rist	-1633
క్ష్	-1634
▁elect	-1635
3:	-1636
ముఖ	-1637
ially	-1638
▁అనేక	-1639
హు	-1640
▁sm	-1641
▁war	-1642
orn	-1643
▁సామ్రా	-1644
0.	-1645
▁partic	-1646
lect	-1647
▁స్థాప	-1648
ర్య	-1649
▁వనరు	-1650
3,	-1651
శం	-1652
బో	-1653
లిన	-1654
▁వాణి	-1655
3)	-1656
ids	-1657
▁ఫి	-1658
cent	-1659
▁became	-1660
elf	-1661
మాన	-1662
ధాని	-1663
▁వారు	-1664
raph	-1665
▁వినియోగ	-1666
లవ	-1667
iel	-1668
ai	-1669
▁రష	-1670
4)	-1671
▁బ్రి	-1672
▁three	-1673
6,	-1674
ines	-1675
▁బ్యాం	-1676
తున్న	-1677
▁being	-1678
▁sl	-1679
▁any	-1680
▁హైదరా	-1681
▁Com	-1682
▁కాలు	-1683
8:	-1684
▁బీ	-1685
cess	-1686
ానీ	-1687
▁కొండ	-1688
▁sim	-1689
ement	-1690
its	-1691
బరు	-1692
ూరి	-1693
కుని	-1694
▁charact	-1695
5)	-1696
▁On	-1697
▁Joh	-1698
కృష్ణ	-1699
ూర్పు	-1700
▁polit	-1701
▁ఎన్నిక	-1702
గణన	-1703
ues	-1704
▁గంట	-1705
▁సాగు	-1706
స్య	-1707
▁మర	-1708
▁Alex	-1709
▁పురా	-1710
cy	-1711
ract	-1712
glish	-1713
bert	-1714
▁sign	-1715
కర్	-1716
ember	-1717
▁made	-1718
▁/	-1719
▁called	-1720
▁కాలంలో	-1721
▁Arab	-1722
ల్వే	-1723
▁cre	-1724
▁శాసన	-1725
▁టెలి	-1726
▁Le	-1727
▁చిన్న	-1728
▁Z	-1729
▁అయిన	-1730
7,	-1731
కరణ	-1732
▁జనగణన	-1733
201	-1734
▁బు	-1735
urope	-1736
illion	-1737
ute	-1738
కుండా	-1739
▁వార్	-1740
uss	-1741
ోత్స	-1742
▁loc	-1743
▁main	-1744
▁then	-1745
▁సాహిత్య	-1746
▁క్ర	-1747
▁pers	-1748
ీన	-1749
bers	-1750
టుంబ	-1751
▁మీద	-1752
కారుడు	-1753
పర	-1754
▁Ag	-1755
▁వివిధ	-1756
200	-1757
ible	-1758
ళ్ళు	-1759
▁ఉంటుంది	-1760
▁add	-1761
▁చైనా	-1762
▁రైల్వే	-1763
az	-1764
వన	-1765
▁వాణిజ్య	-1766
1)	-1767
▁ఊ	-1768
▁hist	-1769
▁సభ్య	-1770
▁govern	-1771
కొండ	-1772
ార్థ	-1773
ctions	-1774
yd	-1775
▁orig	-1776
కర్త	-1777
రువు	-1778
ద్దు	-1779
▁Gree	-1780
▁For	-1781
ముద్ర	-1782
కె	-1783
్లా	-1784
▁ఉత్తర	-1785
▁పథ	-1786
పత్తి	-1787
els	-1788
ఎస్	-1789
0:	-1790
▁disc	-1791
తే	-1792
▁Germ	-1793
▁often	-1794
9:	-1795
ather	-1796
▁చేసు	-1797
oph	-1798
ros	-1799
iety	-1800
దర్శ	-1801
▁imp	-1802
▁సంగీత	-1803
▁కోసం	-1804
ించబడింది	-1805
▁English	-1806
ann	-1807
iew	-1808
▁ప్రసి	-1809
▁తూర్పు	-1810
▁చరిత్రలో	-1811
yl	-1812
pect	-1813
▁లేదా	-1814
veral	-1815
▁she	-1816
▁bel	-1817
▁అధ్య	-1818
▁మాజీ	-1819
7)	-1820
▁occ	-1821
ample	-1822
పత్రి	-1823
యింది	-1824
ulation	-1825
▁result	-1826
▁సిం	-1827
▁కుటుంబ	-1828
తిక	-1829
▁కాని	-1830
▁early	-1831
til	-1832
▁ట్ర	-1833
▁auth	-1834
▁Ph	-1835
▁bl	-1836
ajor	-1837
▁షెడ	-1838
▁పార్టీ	-1839
▁టి	-1840
▁మాత్ర	-1841
గ్ర	-1842
తుల	-1843
గ్రహ	-1844
▁షెడ్యూ	-1845
ants	-1846
▁ఆసు	-1847
▁long	-1848
టిని	-1849
▁ఇంకా	-1850
ful	-1851
iod	-1852
▁2011	-1853
▁consider	-1854
▁విద్యుత్	-1855
ick	-1856
▁నాటి	-1857
▁Christ	-1858
ారావు	-1859
▁విజయ	-1860
▁Europe	-1861
▁contin	-1862
పురం	-1863
▁hum	-1864
ట్టిన	-1865
▁John	-1866
జ్ఞ	-1867
లాల	-1868
▁రూ	-1869
▁ఇద్ద	-1870
ణంగా	-1871
▁186	-1872
ban	-1873
▁వనరుల	-1874
▁ఘ	-1875
▁మో	-1876
ision	-1877
బ్ర	-1878
though	-1879
టెం	-1880
▁నగ	-1881
8,	-1882
▁బ్యాంకు	-1883
▁Pro	-1884
▁ఆసుపత్రి	-1885
ash	-1886
ides	-1887
▁ముందు	-1888
మునకు	-1889
ains	-1890
ఆర్	-1891
హిస్తుంది	-1892
ruct	-1893
50	-1894
▁Mar	-1895
▁anim	-1896
▁మిగి	-1897
ex	-1898
ared	-1899
ives	-1900
▁ret	-1901
▁four	-1902
▁again	-1903
గుల	-1904
▁ed	-1905
ూరులో	-1906
స్వామి	-1907
▁తిరిగి	-1908
బె	-1909
ale	-1910
ద్రా	-1911
▁ఆగ	-1912
▁నగర	-1913
త్మ	-1914
న్నత	-1915
మిళ	-1916
▁Sh	-1917
▁ent	-1918
▁అతి	-1919
eder	-1920
▁షెడ్యూల్డ్	-1921
వ్	-1922
ility	-1923
ively	-1924
led	-1925
ste	-1926
▁Wor	-1927
▁పథకం	-1928
▁country	-1929
▁Is	-1930
▁రే	-1931
ారము	-1932
▁med	-1933
▁రెండవ	-1934
▁exp	-1935
▁mat	-1936
బడ్డ	-1937
▁ప్రభుత్వం	-1938
▁could	-1939
ley	-1940
ప్రా	-1941
▁కంప	-1942
▁లభి	-1943
▁తేదీ	-1944
ield	-1945
గ్గు	-1946
▁desc	-1947
▁అతను	-1948
▁British	-1949
▁mon	-1950
▁sing	-1951
▁స్వాతంత్ర్య	-1952
▁water	-1953
▁common	-1954
▁పబ్లిక్	-1955
▁bu	-1956
ౌర	-1957
arm	-1958
ర్ర	-1959
ట్స్	-1960
▁rev	-1961
▁incre	-1962
▁second	-1963
కుల	-1964
▁యా	-1965
ript	-1966
▁అతని	-1967
▁ఫోన్	-1968
▁జరిగింది	-1969
శ్ర	-1970
ck	-1971
పద	-1972
క్టో	-1973
▁సంత	-1974
▁తీసు	-1975
8)	-1976
▁before	-1977
▁వైద్యశాల	-1978
2.	-1979
▁గొ	-1980
ాం	-1981
▁Sc	-1982
iver	-1983
మెంటు	-1984
▁small	-1985
▁App	-1986
▁వారం	-1987
1.	-1988
▁ఆలయ	-1989
ంటాయి	-1990
▁cult	-1991
▁కలిగి	-1992
డీ	-1993
పం	-1994
భవ	-1995
▁min	-1996
▁రోడ్లు	-1997
▁because	-1998
air	-1999
▁30	-2000
సరాల	-2001
▁189	-2002
▁గంటల	-2003
▁example	-2004
▁భక్	-2005
▁తమ	-2006
▁Ang	-2007
ained	-2008
▁పురస్	-2009
vent	-2010
▁తొలి	-2011
▁techn	-2012
iqu	-2013
▁sch	-2014
▁ఆర్థ	-2015
▁major	-2016
9,	-2017
విద్య	-2018
▁కొత్త	-2019
▁ఇద్దరు	-2020
▁include	-2021
ty	-2022
▁ser	-2023
ony	-2024
▁Ad	-2025
iter	-2026
▁lead	-2027
▁వెంకట	-2028
సభ	-2029
apt	-2030
శి	-2031
▁ఆఫీసు	-2032
▁గృ	-2033
క్షే	-2034
▁sol	-2035
▁బహు	-2036
▁విష	-2037
▁వ్యవసాయానికి	-2038
omet	-2039
ange	-2040
oman	-2041
rench	-2042
▁name	-2043
inn	-2044
ేవారు	-2045
▁serv	-2046
▁గణ	-2047
టాఫీసు	-2048
▁పోస్టాఫీసు	-2049
ప్టెం	-2050
తంగా	-2051
iversity	-2052
enn	-2053
▁అంతర్	-2054
par	-2055
▁పాకిస్థాన్	-2056
yn	-2057
శ్చి	-2058
▁మిగిలిన	-2059
ork	-2060
aking	-2061
.18	-2062
ilos	-2063
దావరి	-2064
▁పారి	-2065
రాయ	-2066
ల్లు	-2067
▁సంద	-2068
▁word	-2069
▁several	-2070
తారు	-2071
నాడు	-2072
రాలు	-2073
9)	-2074
to	-2075
వె	-2076
▁గాంధ	-2077
▁నాలు	-2078
▁contro	-2079
▁స్వామి	-2080
▁జరుగుతోంది	-2081
aid	-2082
వాడ	-2083
▁det	-2084
▁నియ	-2085
్రహ్మ	-2086
▁మై	-2087
▁కోట	-2088
▁క్ష	-2089
ారీ	-2090
▁Or	-2091
మార్	-2092
ording	-2093
▁ప్రజలు	-2094
▁ఏర్పాటు	-2095
సే	-2096
▁land	-2097
▁Alexander	-2098
ామ్	-2099
▁బహి	-2100
ke	-2101
కొని	-2102
గిరి	-2103
మయ్య	-2104
▁గుర్త	-2105
మును	-2106
▁నాగ	-2107
ital	-2108
▁తమిళ	-2109
మతి	-2110
వారు	-2111
▁సెప్టెం	-2112
ool	-2113
ందని	-2114
▁each	-2115
▁స్టేషన్	-2116
gen	-2117
వాహ	-2118
adem	-2119
▁soc	-2120
▁అర్	-2121
▁కను	-2122
3.	-2123
▁same	-2124
▁దాని	-2125
iation	-2126
ged	-2127
▁Wh	-2128
▁జూన్	-2129
▁French	-2130
▁different	-2131
మని	-2132
ంగ్ర	-2133
▁val	-2134
▁అలా	-2135
▁హైదరాబాదు	-2136
▁సహాయ	-2137
▁జనవరి	-2138
మొ	-2139
zer	-2140
▁ఇంజ	-2141
▁అక్టో	-2142
▁Em	-2143
▁author	-2144
0,	-2145
ాన్య	-2146
▁ast	-2147
▁ref	-2148
ble	-2149
▁సొ	-2150
ience	-2151
▁exper	-2152
ization	-2153
▁ప్రముఖ	-2154
ింప	-2155
▁World	-2156
▁పశ్చి	-2157
▁languages	-2158
▁mus	-2159
ograph	-2160
▁మాధ్య	-2161
▁effect	-2162
ases	-2163
ilit	-2164
▁leg	-2165
abl	-2166
▁ఔ	-2167
ting	-2168
▁Sch	-2169
▁కన్న	-2170
ask	-2171
▁ఇరా	-2172
▁కని	-2173
▁సరి	-2174
ternational	-2175
ane	-2176
రుష	-2177
▁Be	-2178
rent	-2179
▁పలు	-2180
▁అక్ష	-2181
▁రి	-2182
▁ఆర్థిక	-2183
▁24	-2184
▁కావ	-2185
▁కొరకు	-2186
▁language	-2187
రసిం	-2188
ccess	-2189
ణీ	-2190
▁They	-2191
▁కాంగ్ర	-2192
▁ఇత	-2193
▁nam	-2194
జన	-2195
▁ఛ	-2196
వాస	-2197
▁25	-2198
▁Fran	-2199
గ్గ	-2200
▁వు	-2201
▁North	-2202
▁import	-2203
▁though	-2204
▁Aust	-2205
▁రాజ్య	-2206
కారం	-2207
▁మొత్తం	-2208
తూ	-2209
ama	-2210
▁మన	-2211
ముగా	-2212
ూర్తి	-2213
▁However	-2214
▁ప్రవహిస్తుంది	-2215
▁Can	-2216
▁city	-2217
▁among	-2218
▁పరిపాల	-2219
▁చా	-2220
▁ప్రాంతం	-2221
దల	-2222
ాలని	-2223
▁own	-2224
▁తర్	-2225
conom	-2226
▁class	-2227
▁Arabic	-2228
▁దర్శకుడు	-2229
ాతా	-2230
▁బో	-2231
oln	-2232
▁కాక	-2233
ర్న	-2234
▁విజయన	-2235
▁అమెరికా	-2236
▁గోదావరి	-2237
▁air	-2238
incoln	-2239
బ్రవరి	-2240
▁డిసెం	-2241
▁ఆమె	-2242
▁book	-2243
▁million	-2244
▁సిబ్బందీ	-2245
au	-2246
gypt	-2247
ాలతో	-2248
▁atom	-2249
▁[	-2250
com	-2251
ised	-2252
▁equ	-2253
▁కోడ్	-2254
▁Lincoln	-2255
ourt	-2256
శాస్త్ర	-2257
oot	-2258
▁Cl	-2259
▁Ear	-2260
▁dep	-2261
▁గాయ	-2262
ided	-2263
▁mem	-2264
ional	-2265
▁వచ్చిన	-2266
▁అధ్యక్ష	-2267
▁str	-2268
▁మరి	-2269
▁తిరుగు	-2270
.1	-2271
▁alk	-2272
▁mov	-2273
రియన్	-2274
▁large	-2275
▁ప్రస్తు	-2276
▁character	-2277
ox	-2278
ంశ	-2279
ica	-2280
sen	-2281
▁మార్చి	-2282
II	-2283
my	-2284
▁అర	-2285
rodu	-2286
▁since	-2287
సర	-2288
iam	-2289
▁ins	-2290
▁సముద్ర	-2291
▁government	-2292
కోవ	-2293
▁person	-2294
-1	-2295
flu	-2296
ien	-2297
▁లె	-2298
▁There	-2299
ణు	-2300
ముల	-2301
▁తర	-2302
ోన్నత	-2303
▁లోపు	-2304
న్మ	-2305
పాడు	-2306
▁Egypt	-2307
క్య	-2308
▁around	-2309
ets	-2310
▁తెలి	-2311
man	-2312
ాయ్	-2313
▁వర	-2314
▁based	-2315
్యాన్ని	-2316
▁period	-2317
లూ	-2318
ank	-2319
▁21	-2320
▁if	-2321
్యాయ	-2322
ories	-2323
▁విధంగా	-2324
de	-2325
▁గణా	-2326
▁Apple	-2327
▁will	-2328
resent	-2329
▁సంబంధ	-2330
▁ఉత్పత్తి	-2331
▁population	-2332
reen	-2333
▁సమయంలో	-2334
pen	-2335
▁బె	-2336
▁cor	-2337
▁back	-2338
▁until	-2339
▁నాయకుడు	-2340
▁బృ	-2341
ental	-2342
▁life	-2343
▁those	-2344
▁గాంధీ	-2345
.,	-2346
వాద	-2347
▁అవు	-2348
▁పాలన	-2349
▁చంద్ర	-2350
▁present	-2351
▁బహిరంగ	-2352
▁ప్రాథమికోన్నత	-2353
▁(1	-2354
ified	-2355
నియర్	-2356
▁ఇండి	-2357
▁సినీ	-2358
▁Greek	-2359
▁death	-2360
▁ఫిబ్రవరి	-2361
▁ant	-2362
▁non	-2363
▁rad	-2364
itions	-2365
▁వెళ్ళ	-2366
▁ప్రదేశ్	-2367
ms	-2368
డవ	-2369
లె	-2370
షా	-2371
ilar	-2372
లేదు	-2373
ందించ	-2374
▁near	-2375
▁అండ్	-2376
▁చారి	-2377
▁పర్వ	-2378
లక	-2379
▁|	-2380
▁థ	-2381
ple	-2382
డాది	-2383
▁మండలం	-2384
▁రాజధాని	-2385
ued	-2386
▁ax	-2387
▁యూ	-2388
▁క్రి	-2389
▁జూలై	-2390
▁అంటారు	-2391
▁గురించి	-2392
▁మాధ్యమిక	-2393
ky	-2394
▁much	-2395
▁గ్రహ	-2396
▁నవంబ	-2397
▁ఉద్యమ	-2398
▁బొ	-2399
▁షా	-2400
aced	-2401
apan	-2402
ately	-2403
▁గణాంక	-2404
▁support	-2405
బై	-2406
షు	-2407
▁దే	-2408
▁అక్క	-2409
tt	-2410
▁లై	-2411
స్టు	-2412
▁స్థాన	-2413
7.	-2414
మున	-2415
▁లక్ష	-2416
ప్రదాయ	-2417
▁నాలుగు	-2418
ధు	-2419
ాము	-2420
▁రు	-2421
▁did	-2422
▁సాం	-2423
▁power	-2424
▁మహి	-2425
▁శివ	-2426
▁Union	-2427
▁organ	-2428
▁కేంద్రంలో	-2429
▁విశ్వవిద్య	-2430
5.	-2431
ద్వ	-2432
ుంట	-2433
ోలు	-2434
▁నటి	-2435
▁trad	-2436
▁పండి	-2437
▁పశ్చిమ	-2438
▁ప్రాంతంలో	-2439
▁భారతదేశంలో	-2440
వరం	-2441
epend	-2442
జే	-2443
వై	-2444
క్కల	-2445
ష్టు	-2446
▁లక్ష్	-2447
▁German	-2448
▁modern	-2449
నాథ	-2450
న్స	-2451
ామా	-2452
▁లి	-2453
వాణా	-2454
▁hyd	-2455
istic	-2456
▁requ	-2457
▁considered	-2458
xt	-2459
ina	-2460
▁మగ	-2461
ired	-2462
▁ముఖ్యమంత్రి	-2463
ర్భ	-2464
▁poss	-2465
ప్రిల్	-2466
▁పరిశోధ	-2467
▁రీ	-2468
▁nov	-2469
▁ఇందు	-2470
▁success	-2471
▁సంవత్సరాల	-2472
ene	-2473
▁అంగ	-2474
estern	-2475
▁South	-2476
▁establ	-2477
▁University	-2478
భాగ	-2479
▁సాగ	-2480
▁వస్తు	-2481
▁ప్రదేశ	-2482
0)	-2483
ries	-2484
▁Ach	-2485
▁After	-2486
▁బస్సులు	-2487
▁సూ	-2488
▁గ్రె	-2489
▁human	-2490
త్రీ	-2491
▁అంద	-2492
▁వార	-2493
▁order	-2494
▁states	-2495
సై	-2496
alt	-2497
▁tem	-2498
▁దిన	-2499
▁అమ్మ	-2500
▁against	-2501
ird	-2502
ందూ	-2503
కాలు	-2504
చార్య	-2505
raft	-2506
▁188	-2507
▁Col	-2508
▁వల్ల	-2509
రెడ్డి	-2510
ప్పటికీ	-2511
▁family	-2512
▁philos	-2513
ీర్	-2514
ivil	-2515
▁రవాణా	-2516
ూడ	-2517
▁bro	-2518
▁పాట	-2519
▁public	-2520
▁కానీ	-2521
▁పురుష	-2522
▁సీ	-2523
ring	-2524
▁పంచ	-2525
యే	-2526
బాద్	-2527
ారెడ్డి	-2528
▁typ	-2529
▁పనిచే	-2530
▁పూర్తి	-2531
▁ఏప్రిల్	-2532
hol	-2533
▁శు	-2534
లుగా	-2535
▁obs	-2536
▁సంఘం	-2537
▁ఏర్పడి	-2538
ధుల	-2539
aving	-2540
▁లాండ్	-2541
▁econom	-2542
▁కాలువల	-2543
▁By	-2544
▁గల	-2545
...	-2546
యితే	-2547
ven	-2548
▁సర్	-2549
▁crit	-2550
▁indu	-2551
▁సంగతులు	-2552
ాతం	-2553
▁చు	-2554
▁సైన	-2555
▁show	-2556
ission	-2557
▁తర్వాత	-2558
ological	-2559
9.	-2560
ove	-2561
ician	-2562
▁తెలు	-2563
▁పంపి	-2564
▁influ	-2565
jan	-2566
ండు	-2567
తుడు	-2568
త్వం	-2569
▁eng	-2570
inium	-2571
▁like	-2572
▁short	-2573
▁విస్తరించి	-2574
ందం	-2575
▁36	-2576
▁సేవ	-2577
▁తయ	-2578
ిల్ల	-2579
▁due	-2580
iving	-2581
రింగ్	-2582
▁ప్రవేశ	-2583
▁మంత్రి	-2584
▁describ	-2585
▁డాక్టరు	-2586
▁తు	-2587
▁Japan	-2588
▁రాష్ట్రం	-2589
af	-2590
లువ	-2591
▁ఇంజనీ	-2592
▁అంతర్జ	-2593
4.	-2594
▁నమో	-2595
▁fact	-2596
▁సంవత్సరా	-2597
ింత	-2598
రుగా	-2599
▁prog	-2600
▁కాగా	-2601
▁ముగ్గు	-2602
▁కార్యక్రమ	-2603
omin	-2604
▁expl	-2605
▁very	-2606
get	-2607
ష్ఠ	-2608
▁ఆది	-2609
▁National	-2610
▁కళ	-2611
▁పీ	-2612
ival	-2613
▁cap	-2614
▁ఉండేది	-2615
▁కార్	-2616
▁బావులు	-2617
ళు	-2618
▁ఆడ	-2619
▁అధికార	-2620
▁చారిత్ర	-2621
▁విభ	-2622
▁series	-2623
6.	-2624
▁కం	-2625
rote	-2626
టిలో	-2627
▁వచ్చింది	-2628
ball	-2629
▁Car	-2630
▁ann	-2631
lands	-2632
▁appro	-2633
▁law	-2634
▁వీర	-2635
ించడం	-2636
▁even	-2637
▁Alban	-2638
న్నా	-2639
▁bod	-2640
ందింది	-2641
aim	-2642
udi	-2643
సారి	-2644
▁const	-2645
▁offic	-2646
▁గుండా	-2647
▁refer	-2648
▁మహారా	-2649
▁similar	-2650
8.	-2651
శేష	-2652
▁చో	-2653
ross	-2654
▁దివ	-2655
▁Russ	-2656
med	-2657
డైన	-2658
▁rele	-2659
▁space	-2660
▁using	-2661
▁ప్రకట	-2662
ామివ	-2663
▁Rep	-2664
▁aff	-2665
▁vis	-2666
▁US	-2667
లాలు	-2668
▁commun	-2669
▁దీనిని	-2670
్యు	-2671
▁mar	-2672
▁పద్య	-2673
▁1,	-2674
ట్లా	-2675
▁చేప	-2676
▁began	-2677
▁జరుగుతుంది	-2678
మల	-2679
దని	-2680
దేవ	-2681
▁--	-2682
▁22	-2683
▁ter	-2684
▁mean	-2685
▁These	-2686
▁within	-2687
▁ఉంటాయి	-2688
▁సంస్కృత	-2689
ness	-2690
తిని	-2691
▁cur	-2692
▁stat	-2693
▁వృత్తి	-2694
తె	-2695
dam	-2696
way	-2697
▁హిందూ	-2698
▁process	-2699
ర్చ	-2700
▁లు	-2701
berg	-2702
▁అది	-2703
రసింహ	-2704
▁production	-2705
aut	-2706
ius	-2707
▁Po	-2708
stero	-2709
▁రష్యా	-2710
ese	-2711
ాయు	-2712
pec	-2713
tic	-2714
.201	-2715
ried	-2716
ల్లె	-2717
wards	-2718
▁చక్ర	-2719
▁జూనియర్	-2720
▁సిబ్బంది	-2721
ouse	-2722
▁బ్రిటి	-2723
br	-2724
డంతో	-2725
▁Hit	-2726
▁Angol	-2727
▁Canad	-2728
స్ట	-2729
ండ్రి	-2730
సింది	-2731
▁జన్మ	-2732
▁సత్య	-2733
▁occur	-2734
▁క్యాల	-2735
▁ప్రాంతాల	-2736
iven	-2737
ణాలు	-2738
ింపు	-2739
▁అయ్య	-2740
min	-2741
▁alg	-2742
▁phys	-2743
andard	-2744
▁న్యాయ	-2745
▁general	-2746
ళి	-2747
por	-2748
▁hig	-2749
▁Some	-2750
▁వ్యాప	-2751
▁స్త్రీ	-2752
▁జి	-2753
నులు	-2754
▁div	-2755
▁along	-2756
▁ఏడాది	-2757
▁ఆగష్టు	-2758
భార	-2759
ales	-2760
ల్లా	-2761
ెండర్	-2762
▁allow	-2763
▁మురుగునీరు	-2764
పీ	-2765
ently	-2766
పత్రిక	-2767
ize	-2768
క్త	-2769
▁23	-2770
▁Ac	-2771
▁fun	-2772
▁mark	-2773
son	-2774
డిన	-2775
ణ్య	-2776
ెన్	-2777
▁gr	-2778
ason	-2779
ోత్సవం	-2780
▁great	-2781
▁ఉపయోగ	-2782
olution	-2783
agn	-2784
▁26	-2785
క్స్	-2786
▁milit	-2787
▁particular	-2788
▁శాస్త్రవేత్త	-2789
బీ	-2790
isc	-2791
తలు	-2792
▁Atl	-2793
cient	-2794
ార్డు	-2795
▁ముస్	-2796
▁wrote	-2797
▁మొట్ట	-2798
sterdam	-2799
పుర	-2800
▁es	-2801
▁నంద	-2802
▁మంచ	-2803
▁ఎన్న	-2804
ential	-2805
▁అయితే	-2806
▁పత్రిక	-2807
▁శిక్షణ	-2808
▁సామాన్య	-2809
▁represent	-2810
రిక	-2811
▁gl	-2812
భి	-2813
ull	-2814
▁మైద	-2815
attle	-2816
feder	-2817
టింగ్	-2818
▁వాడు	-2819
▁సహకార	-2820
▁control	-2821
▁ముగ్గురు	-2822
ీకర	-2823
▁భావ	-2824
▁meth	-2825
▁దాదా	-2826
బడ్డాయి	-2827
▁various	-2828
▁అంతర్జాతీయ	-2829
▁ఇంజనీరింగ్	-2830
▁క్యాలెండర్	-2831
ali	-2832
మొద	-2833
బాటు	-2834
పూర్ణ	-2835
▁లేరు	-2836
▁hydro	-2837
The	-2838
▁జీవి	-2839
▁ప్రకారము	-2840
పేట	-2841
ality	-2842
▁మాత్రమే	-2843
తాయి	-2844
▁విజయనగర	-2845
▁కేంద్రాలు	-2846
▁BC	-2847
▁Sw	-2848
▁All	-2849
▁Mus	-2850
▁hal	-2851
▁అభి	-2852
ామివారి	-2853
▁అప్పటి	-2854
omen	-2855
▁arg	-2856
ended	-2857
▁ఇందులో	-2858
be	-2859
తిలో	-2860
▁His	-2861
▁Warhol	-2862
ఫె	-2863
anc	-2864
▁Ge	-2865
స్తే	-2866
▁alc	-2867
▁బంజ	-2868
▁వలన	-2869
మైంది	-2870
▁Azer	-2871
▁tele	-2872
▁observ	-2873
భూ	-2874
▁adv	-2875
▁perform	-2876
▁published	-2877
▁ప్రసిద్ధి	-2878
ril	-2879
బ్లీ	-2880
▁కాలం	-2881
▁రెడ్డి	-2882
▁చేసింది	-2883
row	-2884
ంతి	-2885
ర్ల	-2886
.192	-2887
డిగా	-2888
▁Day	-2889
▁alph	-2890
▁area	-2891
▁every	-2892
▁comple	-2893
▁చేశారు	-2894
bai	-2895
కృత	-2896
▁అడ	-2897
▁వినో	-2898
▁ox	-2899
▁కొంత	-2900
baijan	-2901
▁child	-2902
▁still	-2903
▁Amsterdam	-2904
ాడ	-2905
ేయ	-2906
▁మత	-2907
▁పున	-2908
▁పరిశ్రమ	-2909
▁చారిత్రక	-2910
వరణ	-2911
alth	-2912
etic	-2913
రక్షణ	-2914
▁said	-2915
▁ప్రచు	-2916
▁పొడుగు	-2917
▁సామ్రాజ్య	-2918
టెక్	-2919
▁pot	-2920
▁పౌర	-2921
craft	-2922
▁తేదీలు	-2923
షణ	-2924
న్నది	-2925
▁fore	-2926
▁less	-2927
▁somet	-2928
▁following	-2929
▁మిగిలినవి	-2930
▁సెప్టెంబర్	-2931
me	-2932
▁Ab	-2933
▁మాన	-2934
▁last	-2935
▁Azerbaijan	-2936
తీయ	-2937
▁నివ	-2938
▁పాల్	-2939
తున్నారు	-2940
▁largest	-2941
ించడానికి	-2942
▁దగ్	-2943
▁పూజ	-2944
▁2001	-2945
మూర్తి	-2946
▁belie	-2947
▁బంజరు	-2948
▁గ్రెగొ	-2949
▁నారాయణ	-2950
▁product	-2951
▁మురుగునీ	-2952
eb	-2953
దొ	-2954
▁50	-2955
▁కీ	-2956
లీపు	-2957
istan	-2958
▁Bell	-2959
▁వ్యతి	-2960
ంతమునకు	-2961
▁important	-2962
పొ	-2963
▁When	-2964
▁అనంత	-2965
▁గ్రెగొరియన్	-2966
▁సంవత్సరాంతమునకు	-2967
30	-2968
ల్ప	-2969
▁స్వయం	-2970
▁electron	-2971
▁ide	-2972
▁now	-2973
మైనది	-2974
▁ఆధార	-2975
▁right	-2976
▁నమోదు	-2977
కున్నాడు	-2978
▁పొడుగునా	-2979
▁అందుతుంది	-2980
pire	-2981
క్కి	-2982
జ్యం	-2983
నిక్	-2984
▁par	-2985
▁పోరా	-2986
ర్నెట్	-2987
▁origin	-2988
కున్నారు	-2989
టికీ	-2990
▁nat	-2991
▁read	-2992
▁వీరి	-2993
▁Q	-2994
tal	-2995
▁హో	-2996
▁species	-2997
▁రె	-2998
రుపు	-2999
▁సమర	-3000
▁acid	-3001
▁oper	-3002
▁resp	-3003
▁Confeder	-3004
శాఖ	-3005
▁28	-3006
osed	-3007
గ్రా	-3008
▁dem	-3009
▁pat	-3010
▁inst	-3011
▁ట్రా	-3012
▁పక్క	-3013
▁ప్రభా	-3014
▁Albert	-3015
విజ	-3016
▁sym	-3017
▁పొంద	-3018
వ్య	-3019
read	-3020
త్మక	-3021
ర్చు	-3022
లోకి	-3023
సెంబ్లీ	-3024
పుల	-3025
ష్ణు	-3026
▁పశు	-3027
▁design	-3028
▁ఆర్ట్స్	-3029
▁ఇంటర్నెట్	-3030
మూ	-3031
ogn	-3032
▁Pl	-3033
▁100	-3034
▁alum	-3035
▁అంటే	-3036
▁నిమి	-3037
▁మేనే	-3038
▁సైన్స్	-3039
చె	-3040
▁Pr	-3041
▁దొ	-3042
ద్ది	-3043
▁నెల	-3044
▁గుంట	-3045
▁సేకర	-3046
▁discover	-3047
▁మొట్టమొద	-3048
ered	-3049
స్తా	-3050
తంత్ర	-3051
▁గణాంకాల	-3052
▁గి	-3053
▁hel	-3054
▁ఎదు	-3055
▁mass	-3056
ps	-3057
▁inc	-3058
▁ఒక్క	-3059
▁కట్ట	-3060
▁వార్తా	-3061
▁ప్రదర్శ	-3062
app	-3063
eth	-3064
ghan	-3065
uted	-3066
▁Tur	-3067
▁ఇలా	-3068
▁ఇక్కడి	-3069
▁బ్రహ్మ	-3070
పట్	-3071
ices	-3072
writ	-3073
ాయిల	-3074
▁few	-3075
లానికి	-3076
నె	-3077
ele	-3078
నసా	-3079
▁సీత	-3080
▁rest	-3081
▁నగరం	-3082
▁వ్రా	-3083
▁arsen	-3084
▁దగ్గర	-3085
▁అసెంబ్లీ	-3086
eng	-3087
▁ke	-3088
జెక్	-3089
▁what	-3090
▁ఒకరు	-3091
▁Alask	-3092
▁pract	-3093
▁works	-3094
▁Achill	-3095
ink	-3096
రుడు	-3097
ర్కొ	-3098
▁der	-3099
ither	-3100
▁head	-3101
▁prot	-3102
▁అలాగే	-3103
లూరు	-3104
▁fin	-3105
▁opp	-3106
▁ఐదు	-3107
▁చలన	-3108
▁Audi	-3109
▁Will	-3110
▁struct	-3111
▁program	-3112
▁సంప్రదాయ	-3113
▁40	-3114
▁కుళ	-3115
త్తిన	-3116
▁Earth	-3117
▁report	-3118
ves	-3119
▁av	-3120
stein	-3121
▁సుల్	-3122
▁abort	-3123
▁ప్రజా	-3124
▁కుమారు	-3125
▁విగ్రహ	-3126
సె	-3127
day	-3128
akes	-3129
▁old	-3130
ాలుగా	-3131
▁rece	-3132
న్నాడు	-3133
▁ఇరాన్	-3134
▁నిర్మాణ	-3135
▁కార్యకర్త	-3136
రేక	-3137
వంత	-3138
▁బెం	-3139
▁astron	-3140
▁school	-3141
▁ప్రాజెక్	-3142
▁అస	-3143
ricult	-3144
▁start	-3145
▁independ	-3146
ches	-3147
iron	-3148
▁ఆటో	-3149
ivity	-3150
▁During	-3151
ara	-3152
ucle	-3153
▁Cent	-3154
▁prim	-3155
▁ఆంగ్	-3156
స్తాయి	-3157
▁విధాన	-3158
ination	-3159
▁histor	-3160
▁భాగంగా	-3161
▁developed	-3162
పరి	-3163
యత్	-3164
▁27	-3165
▁ఆన	-3166
ానిక	-3167
కరంగా	-3168
కుంది	-3169
లియన్	-3170
▁లైన్	-3171
▁indust	-3172
▁introdu	-3173
▁నిర్వహించారు	-3174
రూ	-3175
షధ	-3176
▁)	-3177
▁అల	-3178
గాలు	-3179
డ్డి	-3180
throp	-3181
్యాస్	-3182
▁caus	-3183
▁మంచి	-3184
▁exist	-3185
▁గ్రామాల	-3186
▁cr	-3187
▁జల	-3188
ator	-3189
urch	-3190
▁Her	-3191
▁ఇచ్చ	-3192
▁చేరు	-3193
▁కుళాయిల	-3194
▁&	-3195
ude	-3196
▁నో	-3197
ళ్లతో	-3198
▁కొరి	-3199
▁రైలు	-3200
itional	-3201
▁produced	-3202
రాజ	-3203
▁ఉద	-3204
empt	-3205
▁led	-3206
▁hand	-3207
▁యూని	-3208
astern	-3209
▁కర్ణా	-3210
▁written	-3211
▁దేవాలయం	-3212
▁ముఖ్యమైన	-3213
▁వినియోగం	-3214
ఎమ్	-3215
ably	-3216
సియా	-3217
స్ట్	-3218
▁sug	-3219
▁అనుస	-3220
▁proper	-3221
▁పట్టణం	-3222
▁జనాభాతో	-3223
త్రం	-3224
▁tit	-3225
▁క్రీడా	-3226
cer	-3227
ారణ	-3228
టర్ల	-3229
▁lim	-3230
▁Roman	-3231
ificant	-3232
▁player	-3233
▁గ్రంథాలయం	-3234
ంతు	-3235
▁my	-3236
aining	-3237
iction	-3238
▁astero	-3239
▁కార్యాలయం	-3240
igu	-3241
▁dr	-3242
ourn	-3243
▁నిజ	-3244
thern	-3245
▁వేంక	-3246
▁relig	-3247
▁మట్టి	-3248
▁గ్రహీత	-3249
స్తున్నాయి	-3250
▁$	-3251
une	-3252
▁కన	-3253
్యన్	-3254
ances	-3255
▁భావి	-3256
▁మాట్లా	-3257
టెక్నిక్	-3258
▁సంపూర్ణ	-3259
▁వ్యతిరేక	-3260
▁Bl	-3261
▁కమ	-3262
▁నూ	-3263
▁185	-3264
▁way	-3265
▁సేవా	-3266
▁study	-3267
▁కులాల	-3268
outhern	-3269
▁become	-3270
▁కంప్యూ	-3271
▁లభిస్తున్న	-3272
ata	-3273
ానా	-3274
▁la	-3275
ison	-3276
▁Acc	-3277
▁నేప	-3278
▁సబ్	-3279
ారులు	-3280
ిల్లీ	-3281
▁శిశు	-3282
ration	-3283
▁వినోద	-3284
▁హిందీ	-3285
▁comput	-3286
▁record	-3287
▁countries	-3288
-2	-3289
sc	-3290
lor	-3291
oci	-3292
▁బౌ	-3293
ured	-3294
▁Ant	-3295
▁Alger	-3296
▁కర్నూ	-3297
▁Afghan	-3298
▁another	-3299
▁history	-3300
బైల్	-3301
శ్రీ	-3302
▁187	-3303
▁రచన	-3304
▁body	-3305
▁port	-3306
▁తెగల	-3307
▁విడు	-3308
▁సర్వ	-3309
▁claim	-3310
▁మగవారి	-3311
నల్	-3312
షన్	-3313
ేతర	-3314
స్థి	-3315
▁iss	-3316
క్షేమ	-3317
స్థాన	-3318
▁chem	-3319
▁foot	-3320
▁sold	-3321
▁చేసే	-3322
▁mater	-3323
▁ప్రయా	-3324
▁popular	-3325
▁although	-3326
▁సాగునీరు	-3327
▁హెక్టార్లలో	-3328
నది	-3329
ఫోన్	-3330
▁Ber	-3331
▁line	-3332
నారాయణ	-3333
▁invol	-3334
▁కర్ణాటక	-3335
▁కారణంగా	-3336
▁included	-3337
arb	-3338
ames	-3339
less	-3340
డ్డు	-3341
లోను	-3342
▁ener	-3343
ల్లూరు	-3344
ించబడు	-3345
▁April	-3346
▁పర్యా	-3347
యత	-3348
ler	-3349
గూడ	-3350
hern	-3351
▁ఔషధ	-3352
▁mult	-3353
▁డిస్	-3354
▁నాటక	-3355
▁వాడే	-3356
▁శక్తి	-3357
▁return	-3358
▁మేనేజి	-3359
ner	-3360
rap	-3361
▁go	-3362
cing	-3363
▁Par	-3364
▁వంశ	-3365
▁విమ	-3366
▁క్రిక	-3367
▁strong	-3368
▁ఆరోగ్యం	-3369
▁సంరక్షణ	-3370
▁డిసెంబర్	-3371
ంగు	-3372
చ్ఛ	-3373
▁Ed	-3374
▁Pe	-3375
ites	-3376
పాదక	-3377
▁She	-3378
డింగ్	-3379
ించాయి	-3380
▁పంపిణీ	-3381
▁సుమారు	-3382
▁usually	-3383
▁సంక్షేమ	-3384
▁national	-3385
▁మొట్టమొదటి	-3386
▁King	-3387
▁make	-3388
▁redu	-3389
▁vers	-3390
▁సొసై	-3391
▁జరుపు	-3392
▁theory	-3393
▁ఇళ్లతో	-3394
▁సంవత్సరం	-3395
▁political	-3396
▁ఏమి	-3397
▁2000	-3398
▁ఖమ్మ	-3399
స్తాన్	-3400
▁Arist	-3401
▁కలిగిన	-3402
▁యుద్ధం	-3403
reed	-3404
వాది	-3405
లింగ్	-3406
▁Cong	-3407
▁కిలో	-3408
▁films	-3409
▁named	-3410
▁significant	-3411
idd	-3412
▁బయ	-3413
నుండి	-3414
▁కన్నడ	-3415
▁ఆడవారి	-3416
▁నాటికి	-3417
▁సొసైటీ	-3418
▁members	-3419
▁మేనేజిమెంటు	-3420
▁29	-3421
▁క్షే	-3422
▁field	-3423
▁level	-3424
▁Alaska	-3425
▁method	-3426
▁నిర్మాత	-3427
▁చేస్తున్నారు	-3428
ipp	-3429
ung	-3430
ింగ	-3431
▁2,	-3432
ఖ్యా	-3433
ారామ	-3434
▁beg	-3435
▁శాఖ	-3436
▁సూర	-3437
▁York	-3438
▁grow	-3439
▁view	-3440
▁పోషణ	-3441
ertain	-3442
▁విమాన	-3443
▁విశేష	-3444
▁సిద్ధ	-3445
▁పుట్టిన	-3446
▁పట్టణమైన	-3447
ior	-3448
▁Ro	-3449
ర్షి	-3450
▁oil	-3451
▁pass	-3452
▁వినియోగంలో	-3453
లవు	-3454
▁bas	-3455
▁కలు	-3456
▁ధర్మ	-3457
▁nucle	-3458
్యాంగుల	-3459
▁మొబైల్	-3460
▁కర్నూలు	-3461
▁military	-3462
▁International	-3463
▁mot	-3464
క్షిత	-3465
▁Asia	-3466
▁prof	-3467
▁సంఘట	-3468
▁సరిహ	-3469
▁Republ	-3470
▁వార్తాపత్రిక	-3471
్ఞ	-3472
acy	-3473
▁vow	-3474
▁జనన	-3475
వర్తి	-3476
▁took	-3477
యాన్ని	-3478
▁పెట్ట	-3479
orthern	-3480
▁విత్తిన	-3481
▁దివ్యాంగుల	-3482
ze	-3483
▁bi	-3484
▁gu	-3485
▁పెం	-3486
▁అనియత	-3487
▁బృందం	-3488
▁మంచినీ	-3489
▁శాసనసభ	-3490
▁suggest	-3491
ీటెక్నిక్	-3492
హ్	-3493
mon	-3494
ళ్ల	-3495
▁No	-3496
▁హా	-3497
చిత్ర	-3498
▁నిలి	-3499
▁స్థి	-3500
▁separ	-3501
▁పుస్త	-3502
▁మైదానం	-3503
▁రష్యన్	-3504
▁నికరంగా	-3505
▁నిమిత్తం	-3506
▁విద్యార్థ	-3507
▁ప్రాజెక్టు	-3508
డమ	-3509
లస	-3510
ీమ	-3511
ilt	-3512
most	-3513
itive	-3514
▁prev	-3515
ామ్నాయ	-3516
▁place	-3517
▁times	-3518
▁మార్గ	-3519
▁Academ	-3520
▁నవంబర్	-3521
▁America	-3522
దన	-3523
ule	-3524
▁).	-3525
ష్ణా	-3526
▁abs	-3527
▁appl	-3528
▁real	-3529
▁చెరువు	-3530
▁టెలిఫోన్	-3531
▁According	-3532
▁వ్యవసాయేతర	-3533
awa	-3534
oss	-3535
హావ	-3536
▁Ju	-3537
.193	-3538
eter	-3539
కెట్	-3540
త్సవ	-3541
▁dev	-3542
▁హాలు	-3543
▁మద్రా	-3544
▁పాలీటెక్నిక్	-3545
▁ప్రత్యామ్నాయ	-3546
dom	-3547
ott	-3548
నిక	-3549
▁శత	-3550
ingu	-3551
▁ఆశా	-3552
▁Alab	-3553
▁బాలల	-3554
▁గొప్ప	-3555
▁చివరి	-3556
▁ప్రజల	-3557
▁దాదాపు	-3558
ots	-3559
టకు	-3560
▁Br	-3561
▁anal	-3562
▁బ్లా	-3563
ఢిల్లీ	-3564
▁పాత్ర	-3565
▁Aristot	-3566
హ్మ	-3567
ivid	-3568
కాశం	-3569
వుడు	-3570
orith	-3571
▁five	-3572
▁chang	-3573
▁novel	-3574
▁మరుగు	-3575
▁శ్రీరామ	-3576
iro	-3577
urg	-3578
కన్	-3579
self	-3580
sequ	-3581
▁కాకుండా	-3582
▁అక్టోబర్	-3583
భాష	-3584
▁1.	-3585
ones	-3586
▁లొక	-3587
▁చేతి	-3588
▁భాషా	-3589
టానికి	-3590
▁మంచినీటి	-3591
▁రాష్ట్రంలో	-3592
cul	-3593
rew	-3594
▁er	-3595
ense	-3596
side	-3597
కాహార	-3598
urther	-3599
▁పిల్ల	-3600
instein	-3601
▁region	-3602
▁చేశాడు	-3603
▁పోస్ట్	-3604
▁లక్ష్మీ	-3605
▁లొకేషన్	-3606
▁క్రికెట్	-3607
▁మండలానికి	-3608
▁జిల్లాలోని	-3609
5%	-3610
దవ	-3611
ope	-3612
▁Ex	-3613
▁Gr	-3614
ophy	-3615
దేవి	-3616
ister	-3617
▁Hist	-3618
▁Other	-3619
▁north	-3620
▁having	-3621
▁company	-3622
▁established	-3623
enh	-3624
యోధ	-3625
face	-3626
rial	-3627
▁Angola	-3628
▁Empire	-3629
▁object	-3630
▁social	-3631
▁territ	-3632
▁ఇండియా	-3633
▁పాల్గొ	-3634
▁Alabama	-3635
▁వస్తువులు	-3636
మణ	-3637
ందే	-3638
ెను	-3639
హాలు	-3640
▁Aug	-3641
▁చూడ	-3642
▁open	-3643
▁Spider	-3644
▁అవసరాల	-3645
▁however	-3646
▁పర్వత	-3647
▁వేంకట	-3648
▁proble	-3649
▁script	-3650
▁ఎక్కువగా	-3651
▁కాంగ్రెస్	-3652
Man	-3653
oon	-3654
వ్ర	-3655
antic	-3656
▁left	-3657
▁మాతా	-3658
ention	-3659
▁final	-3660
▁forms	-3661
▁కొనసా	-3662
▁పరపతి	-3663
▁వ్యర్థ	-3664
▁సమీకృత	-3665
▁ఉత్పాదక	-3666
▁ట్రాక్ట	-3667
కవి	-3668
జాం	-3669
దరు	-3670
ులకు	-3671
▁alb	-3672
▁ఆటల	-3673
▁case	-3674
▁liter	-3675
▁పార్ల	-3676
▁బౌద్ధ	-3677
▁సహాయక	-3678
▁others	-3679
▁మార్కె	-3680
▁వ్యక్తి	-3681
iom	-3682
▁sk	-3683
▁కడ	-3684
▁భౌ	-3685
ends	-3686
వారం	-3687
ounds	-3688
▁care	-3689
▁దేశంలో	-3690
▁పారిశు	-3691
▁Christie	-3692
▁material	-3693
▁భారతదేశం	-3694
10	-3695
▁low	-3696
▁అలో	-3697
▁arch	-3698
▁pred	-3699
atures	-3700
▁areas	-3701
▁court	-3702
▁given	-3703
pecially	-3704
stitution	-3705
▁European	-3706
▁ప్రాంతాలు	-3707
by	-3708
ంటూ	-3709
▁జయ	-3710
ched	-3711
itic	-3712
▁అదే	-3713
పెన్స	-3714
▁comb	-3715
▁cond	-3716
▁వీరు	-3717
▁విష్ణు	-3718
▁టెలిగ్రా	-3719
▁పోషకాహార	-3720
▁sometimes	-3721
12	-3722
మన	-3723
ats	-3724
ండే	-3725
abor	-3726
vers	-3727
ారని	-3728
▁ఇవి	-3729
imate	-3730
▁conf	-3731
▁need	-3732
▁కంకర	-3733
▁ఇంటిం	-3734
▁మరణాల	-3735
▁appear	-3736
▁without	-3737
bit	-3738
mit	-3739
▁II	-3740
తమైన	-3741
▁Ass	-3742
▁May	-3743
aster	-3744
▁తారు	-3745
▁లోను	-3746
దొడ్డి	-3747
▁event	-3748
▁రక్షిత	-3749
▁standard	-3750
▁సేకరించే	-3751
▁టెలిగ్రాఫ్	-3752
▁సామ్రాజ్యం	-3753
▁మార్కెటింగ్	-3754
చన	-3755
ads	-3756
ops	-3757
▁el	-3758
ునిక	-3759
▁ఇంగ్	-3760
▁వాడీ	-3761
idence	-3762
▁point	-3763
▁treat	-3764
▁గృహావ	-3765
▁పేరుతో	-3766
▁గృహావసరాల	-3767
▁వ్యర్థాలను	-3768
of	-3769
కల	-3770
chc	-3771
▁బల	-3772
oard	-3773
▁జ్ఞ	-3774
▁రూం	-3775
ining	-3776
rated	-3777
▁2020	-3778
▁వీధుల	-3779
పెన్సరీ	-3780
▁పక్కనే	-3781
▁natural	-3782
▁పోలింగ్	-3783
▁బ్రిటిష్	-3784
▁పారిశుధ్య	-3785
▁పురస్కారం	-3786
▁politician	-3787
.)	-3788
హర	-3789
వియ	-3790
▁just	-3791
▁బయోగ	-3792
▁August	-3793
▁పురాతన	-3794
▁లెక్కల	-3795
▁సరఫరాల	-3796
▁రీడింగ్	-3797
▁Einstein	-3798
ధా	-3799
ేత	-3800
▁నృ	-3801
▁One	-3802
▁eth	-3803
▁ఏటీ	-3804
atter	-3805
▁Ital	-3806
▁కెఫె	-3807
▁energy	-3808
▁సుల్తా	-3809
▁కొరియర్	-3810
▁ప్రస్తుతం	-3811
▁బయోగ్యాస్	-3812
▁మరుగుదొడ్డి	-3813
కాశ	-3814
▁పద్	-3815
ument	-3816
▁సంచార	-3817
▁సంపాద	-3818
▁Hitchc	-3819
▁అత్యంత	-3820
▁దేవాలయ	-3821
▁డిస్పెన్సరీ	-3822
థి	-3823
రగ	-3824
▁build	-3825
▁అంగన్	-3826
▁అలోపతి	-3827
▁స్థానంలో	-3828
▁relations	-3829
దో	-3830
చిన	-3831
▁సృ	-3832
imal	-3833
oice	-3834
▁కెన	-3835
▁late	-3836
▁sour	-3837
▁ఏటీఎమ్	-3838
▁సందర్భ	-3839
▁Congress	-3840
ode	-3841
▁భగ	-3842
uary	-3843
uros	-3844
ences	-3845
చంద్ర	-3846
▁ఉన్నత	-3847
▁single	-3848
▁ఆలయంలో	-3849
▁రోజుకు	-3850
▁శతాబ్దం	-3851
▁మొదలైనవి	-3852
▁ఇంటింటికీ	-3853
▁decl	-3854
▁లోనూ	-3855
▁ident	-3856
పోయింది	-3857
▁individ	-3858
▁Hitchcock	-3859
bs	-3860
ols	-3861
టరు	-3862
యోజ	-3863
ర్ణ	-3864
assi	-3865
మంది	-3866
▁184	-3867
▁home	-3868
▁పోటీ	-3869
▁Academy	-3870
▁ancient	-3871
▁Aristotle	-3872
▁రాష్ట్రపతి	-3873
▁development	-3874
▁తిరుగుతున్నాయి	-3875
ham	-3876
వేశ	-3877
line	-3878
▁మరొక	-3879
▁ఎన్నో	-3880
▁elements	-3881
టే	-3882
ray	-3883
న్నీ	-3884
▁Nov	-3885
▁అవి	-3886
▁బ్ర	-3887
iness	-3888
▁does	-3889
▁init	-3890
▁suff	-3891
▁క్రమ	-3892
▁తప్ప	-3893
▁నివాస	-3894
▁propos	-3895
▁ప్రయత్	-3896
వత	-3897
ype	-3898
ంగి	-3899
▁అర్థ	-3900
▁బాగా	-3901
▁While	-3902
▁aluminium	-3903
alk	-3904
cle	-3905
▁అధ	-3906
olic	-3907
▁ఇదే	-3908
▁ఎస్	-3909
stitute	-3910
▁నరసింహ	-3911
▁అధికంగా	-3912
▁తిరుపతి	-3913
▁ముస్లిం	-3914
ification	-3915
ux	-3916
రాఠ	-3917
▁day	-3918
incip	-3919
▁మందు	-3920
ల్లోకి	-3921
▁associ	-3922
▁either	-3923
▁groups	-3924
▁చేసారు	-3925
▁ఢిల్లీ	-3926
▁పొందిన	-3927
▁attempt	-3928
▁అత్యధిక	-3929
▁original	-3930
ym	-3931
▁హరి	-3932
▁పదవి	-3933
▁lower	-3934
▁metal	-3935
▁విజయవాడ	-3936
cil	-3937
now	-3938
▁జై	-3939
▁వహ	-3940
used	-3941
▁Cam	-3942
▁గుర	-3943
▁మంగ	-3944
openh	-3945
▁Char	-3946
▁help	-3947
▁నగర్	-3948
▁అడుగు	-3949
▁శతాబ్దంలో	-3950
▁విశ్వవిద్యాలయం	-3951
తికి	-3952
వాడు	-3953
స్థల	-3954
▁177	-3955
▁ver	-3956
▁వర్ణ	-3957
▁light	-3958
▁south	-3959
▁తల్లి	-3960
ability	-3961
auer	-3962
▁Jan	-3963
▁Sea	-3964
▁ఈయన	-3965
ached	-3966
▁బ్రా	-3967
▁మారి	-3968
▁కిలోమీ	-3969
formation	-3970
చో	-3971
ాలూ	-3972
నాటి	-3973
నాలు	-3974
త్తను	-3975
▁July	-3976
▁down	-3977
▁held	-3978
▁త్రి	-3979
▁మహిళ	-3980
vision	-3981
urosawa	-3982
▁Ne	-3983
▁(18	-3984
తులకు	-3985
▁camp	-3986
▁వారికి	-3987
ta	-3988
atin	-3989
▁సెం	-3990
▁Geor	-3991
▁spok	-3992
▁చాళు	-3993
▁month	-3994
▁పారబో	-3995
▁సోవియ	-3996
imately	-3997
▁Agassi	-3998
▁element	-3999
ర్లున్నాయి	-4000
24	-4001
▁men	-4002
▁pur	-4003
▁చది	-4004
▁half	-4005
▁turn	-4006
inning	-4007
▁అమలవు	-4008
▁William	-4009
▁చెత్తను	-4010
▁Kurosawa	-4011
▁అమ్మవారి	-4012
▁described	-4013
▁పారబోస్తారు	-4014
▁+	-4015
చేశ	-4016
▁()	-4017
▁ఓడ	-4018
▁దో	-4019
▁Mon	-4020
▁vol	-4021
▁India	-4022
▁alkali	-4023
▁anarch	-4024
▁కృష్ణా	-4025
▁తక్కువ	-4026
▁విమర్శ	-4027
▁numbers	-4028
▁agricult	-4029
▁జిల్లాకు	-4030
నుమ	-4031
.190	-4032
▁cal	-4033
▁పంట	-4034
▁former	-4035
▁function	-4036
23	-4037
hest	-4038
భద్ర	-4039
మ్ము	-4040
▁beh	-4041
▁వేద	-4042
▁educ	-4043
▁song	-4044
▁కాదు	-4045
▁నిర్వ	-4046
▁mathem	-4047
▁నేరుగా	-4048
▁వాడేందుకు	-4049
▁అమలవుతోంది	-4050
ean	-4051
lam	-4052
....	-4053
▁Min	-4054
opher	-4055
▁prom	-4056
▁సిస్	-4057
▁పూర్వ	-4058
▁alphab	-4059
▁engine	-4060
▁recogn	-4061
▁arsenic	-4062
▁అవుతున్నాయి	-4063
25	-4064
wh	-4065
టన్	-4066
సులు	-4067
▁Spe	-4068
▁son	-4069
asing	-4070
▁With	-4071
▁sent	-4072
▁ద్వీ	-4073
▁పిలు	-4074
▁local	-4075
▁కలిసి	-4076
▁తీవ్ర	-4077
▁himself	-4078
▁మద్రాసు	-4079
openhauer	-4080
▁మురుగునీటిని	-4081
arn	-4082
ulf	-4083
▁To	-4084
▁అం	-4085
here	-4086
utes	-4087
ర్చి	-4088
ీకరణ	-4089
▁Pres	-4090
▁post	-4091
▁relat	-4092
▁scient	-4093
▁Although	-4094
▁especially	-4095
ంపై	-4096
టలు	-4097
ille	-4098
ston	-4099
పడ్డ	-4100
ondon	-4101
▁Many	-4102
▁pain	-4103
వాన్ని	-4104
▁నిజాం	-4105
▁స్వతంత్ర	-4106
nd	-4107
ape	-4108
కము	-4109
rica	-4110
ర్టు	-4111
▁six	-4112
▁ఆరు	-4113
▁వాడ	-4114
▁Pers	-4115
▁kill	-4116
▁ప్రస	-4117
▁చెన్న	-4118
yle	-4119
టెడ్	-4120
▁won	-4121
▁మరో	-4122
anish	-4123
▁(200	-4124
▁farm	-4125
ington	-4126
insberg	-4127
▁screen	-4128
▁should	-4129
▁algorith	-4130
▁ప్రసిద్ధ	-4131
ek	-4132
ret	-4133
ెల్	-4134
aken	-4135
ours	-4136
▁183	-4137
▁దండ	-4138
▁Gener	-4139
▁music	-4140
▁ఎత్తు	-4141
▁తయారు	-4142
▁గుంటూరు	-4143
▁సోవియట్	-4144
▁సరిహద్దు	-4145
▁నిర్మించిన	-4146
▁మహారాష్ట్ర	-4147
ద్రి	-4148
▁Med	-4149
ising	-4150
▁మరాఠ	-4151
▁విషయ	-4152
▁విదేశ	-4153
▁Indian	-4154
▁metals	-4155
▁Ginsberg	-4156
▁చక్రవర్తి	-4157
li	-4158
పోయ	-4159
గొండ	-4160
భారత	-4161
రోడ్	-4162
ాయలు	-4163
oviet	-4164
▁test	-4165
▁కాలే	-4166
ements	-4167
▁means	-4168
▁Africa	-4169
▁ప్రపంచంలో	-4170
దిక	-4171
▁Dav	-4172
ప్రాయ	-4173
▁Comp	-4174
▁రావు	-4175
action	-4176
▁రాయలు	-4177
▁Albania	-4178
▁anthrop	-4179
▁ప్రధానమంత్రి	-4180
ిత	-4181
▁35	-4182
▁శై	-4183
▁pri	-4184
▁rul	-4185
పట్నం	-4186
ేంద్ర	-4187
▁అక్కడ	-4188
▁కెనడా	-4189
▁London	-4190
▁దీనికి	-4191
▁సిస్టం	-4192
▁writing	-4193
▁Schopenhauer	-4194
80	-4195
బూ	-4196
▁X	-4197
నుల	-4198
irot	-4199
▁run	-4200
▁లేక	-4201
మ్మడి	-4202
▁2014	-4203
▁least	-4204
▁నియోజ	-4205
lection	-4206
ography	-4207
▁Achilles	-4208
fic	-4209
ify	-4210
omy	-4211
augh	-4212
rain	-4213
భాగం	-4214
లోనే	-4215
▁age	-4216
▁2019	-4217
▁came	-4218
▁conc	-4219
▁లోక్	-4220
▁story	-4221
ication	-4222
▁change	-4223
▁Alberta	-4224
▁football	-4225
ec	-4226
eum	-4227
▁చీ	-4228
.200	-4229
ands	-4230
▁god	-4231
▁sum	-4232
▁పచ్చ	-4233
▁వాటి	-4234
ప్రాంత	-4235
ారాన్ని	-4236
▁కుమార్	-4237
▁Russian	-4238
▁భక్తులు	-4239
▁నియోజక	-4240
▁abortion	-4241
రళ	-4242
att	-4243
హరణ	-4244
పూడి	-4245
ేవాడు	-4246
▁words	-4247
▁ఖమ్మం	-4248
ptember	-4249
▁చేసాడు	-4250
▁experim	-4251
▁interest	-4252
▁gen	-4253
▁ఎమ్	-4254
ార్లు	-4255
▁Anat	-4256
▁అప్ప	-4257
▁విభజ	-4258
▁formed	-4259
▁systems	-4260
eg	-4261
hib	-4262
ote	-4263
▁("	-4264
▁60	-4265
▁br	-4266
ples	-4267
చారు	-4268
రికి	-4269
▁tro	-4270
▁సార	-4271
▁rese	-4272
writer	-4273
▁అధ్యక్షుడు	-4274
ెనీ	-4275
▁59	-4276
▁మల	-4277
▁bus	-4278
▁నామ	-4279
▁carb	-4280
▁దుకా	-4281
▁పండు	-4282
▁రూపొ	-4283
▁స్కో	-4284
▁Poirot	-4285
▁rather	-4286
▁స్థానిక	-4287
▁అక్టోబరు	-4288
sky	-4289
ళిక	-4290
సన్	-4291
లింగ	-4292
▁let	-4293
పెద్ద	-4294
▁గుడి	-4295
యోధుడు	-4296
▁Andor	-4297
ruction	-4298
▁Soviet	-4299
▁తిరుమల	-4300
▁created	-4301
▁AB	-4302
utch	-4303
కాలం	-4304
▁bit	-4305
▁ఉదా	-4306
▁వ్ర	-4307
ittle	-4308
viron	-4309
▁meas	-4310
ending	-4311
▁తెలియ	-4312
▁ఆధునిక	-4313
15	-4314
నై	-4315
ల్స్	-4316
▁Cal	-4317
▁Vol	-4318
arian	-4319
పెట్ట	-4320
▁(196	-4321
▁heav	-4322
▁repl	-4323
▁model	-4324
▁France	-4325
▁consist	-4326
▁subject	-4327
▁Japanese	-4328
▁director	-4329
▁September	-4330
16	-4331
దం	-4332
జర్	-4333
పాలు	-4334
ర్తి	-4335
ోగ్ర	-4336
▁top	-4337
▁ఇస్	-4338
▁ఉపా	-4339
▁నిర	-4340
xiety	-4341
▁నాయక	-4342
▁నియమ	-4343
ములోని	-4344
▁civil	-4345
▁కనిపి	-4346
▁తండ్రి	-4347
▁current	-4348
విన	-4349
▁హై	-4350
ways	-4351
▁sal	-4352
▁Phil	-4353
▁next	-4354
త్వంలో	-4355
వచ్చును	-4356
▁పేర్కొ	-4357
▁meaning	-4358
for	-4359
▁ep	-4360
ades	-4361
▁fri	-4362
arily	-4363
▁2013	-4364
▁West	-4365
▁must	-4366
▁take	-4367
▁విప్	-4368
రోడ్లూ	-4369
▁surface	-4370
▁మట్టిరోడ్లూ	-4371
BA	-4372
తల	-4373
హె	-4374
▁0.	-4375
▁ge	-4376
▁జో	-4377
rict	-4378
▁అంచ	-4379
iatic	-4380
▁March	-4381
▁built	-4382
▁చాళుక్య	-4383
▁generally	-4384
▁Afghanistan	-4385
ఇది	-4386
▁గె	-4387
ique	-4388
oyal	-4389
న్ను	-4390
▁ill	-4391
▁ఇండ	-4392
▁కడప	-4393
utions	-4394
▁axiom	-4395
▁never	-4396
▁పరిస్థి	-4397
▁పురుషుల	-4398
▁సమీపంలో	-4399
▁released	-4400
▁దినోత్సవం	-4401
40	-4402
▁i	-4403
lin	-4404
osp	-4405
తను	-4406
▁jo	-4407
▁pa	-4408
వస్థ	-4409
▁phot	-4410
▁గురు	-4411
▁వదులు	-4412
▁బాలబడి	-4413
▁special	-4414
▁సంఘటనలు	-4415
SA	-4416
▁=	-4417
ంతా	-4418
▁di	-4419
▁sw	-4420
▁ఎం	-4421
umen	-4422
ర్మా	-4423
ింది	-4424
▁Eng	-4425
▁Pat	-4426
▁bor	-4427
▁tax	-4428
itude	-4429
▁plan	-4430
▁శిల్	-4431
ounced	-4432
▁కాలువ	-4433
▁సాహితీ	-4434
▁central	-4435
▁రంగస్థల	-4436
▁పోతున్నాయి	-4437
co	-4438
cem	-4439
్రూ	-4440
like	-4441
పాటి	-4442
▁366	-4443
▁పరీ	-4444
aries	-4445
▁defe	-4446
▁total	-4447
దూ	-4448
ploy	-4449
▁Rev	-4450
▁దుర్	-4451
▁దేశం	-4452
గాన్ని	-4453
▁ఆసియా	-4454
▁alchem	-4455
▁forces	-4456
▁princip	-4457
▁continued	-4458
13	-4459
-19	-4460
raw	-4461
▁2.	-4462
ళూరు	-4463
▁ఎన్	-4464
▁జీవ	-4465
▁know	-4466
▁గోల్	-4467
cember	-4468
▁temper	-4469
▁కాకతీయ	-4470
▁thought	-4471
రత్	-4472
ency	-4473
కునే	-4474
పుడు	-4475
▁Art	-4476
▁Pol	-4477
▁del	-4478
▁Port	-4479
▁type	-4480
▁youn	-4481
▁సూర్య	-4482
sp	-4483
ళం	-4484
▁33	-4485
▁Man	-4486
▁how	-4487
▁రావ	-4488
rican	-4489
ార్జు	-4490
▁థాయ్	-4491
▁ప్రే	-4492
▁బెంగ	-4493
▁భాగం	-4494
▁adapt	-4495
▁terms	-4496
▁ప్రాచ	-4497
▁స్కోప్	-4498
▁related	-4499
▁అమెరికన్	-4500
టో	-4501
డో	-4502
ష్టి	-4503
▁పాత	-4504
▁Cont	-4505
icated	-4506
▁coast	-4507
▁మరియు	-4508
▁higher	-4509
▁January	-4510
▁అవార్డు	-4511
▁తెలంగాణా	-4512
',	-4513
జం	-4514
umb	-4515
నేయ	-4516
శ్చ	-4517
▁ముం	-4518
▁symb	-4519
▁ఇవ్వ	-4520
▁Great	-4521
▁colon	-4522
▁నిర్ణ	-4523
▁ప్రసా	-4524
▁అక్షరా	-4525
▁చేతిపం	-4526
▁స్థాయి	-4527
▁culture	-4528
▁December	-4529
త్యం	-4530
దేశం	-4531
stead	-4532
▁Most	-4533
▁food	-4534
▁seen	-4535
▁చట్ట	-4536
▁చేరి	-4537
▁cover	-4538
▁వచ్చే	-4539
▁కంపెనీ	-4540
▁Western	-4541
▁previous	-4542
▁ప్రతిష్ఠ	-4543
▁క్రీడాకారుడు	-4544
నాల	-4545
–19	-4546
irth	-4547
ందరు	-4548
▁సంస్	-4549
య్యాడు	-4550
▁విజయం	-4551
▁followed	-4552
▁ప్రాంతాలలో	-4553
ma	-4554
yr	-4555
▁నట	-4556
▁కామ	-4557
▁free	-4558
▁నల్ల	-4559
▁ఏలూరు	-4560
▁conson	-4561
not	-4562
షిక	-4563
▁tw	-4564
▁దృ	-4565
aces	-4566
▁కమి	-4567
ected	-4568
▁best	-4569
కాలంలో	-4570
▁ఆంగ్ల	-4571
▁Anatol	-4572
▁complex	-4573
▁నెల్లూరు	-4574
▁చేతిపంపుల	-4575
▁పార్లమెంటు	-4576
▁వైద్యశాలలో	-4577
70	-4578
ects	-4579
ored	-4580
గానే	-4581
వుని	-4582
▁ఈమె	-4583
▁1990	-4584
▁Latin	-4585
▁above	-4586
▁super	-4587
▁ప్రమా	-4588
▁academ	-4589
▁concent	-4590
▁children	-4591
▁వదులుతున్నారు	-4592
uba	-4593
▁El	-4594
▁జె	-4595
▁చదు	-4596
iddle	-4597
▁data	-4598
▁fail	-4599
▁third	-4600
▁certain	-4601
▁కెనడాలో	-4602
▁క్షేత్ర	-4603
rad	-4604
.199	-4605
డియో	-4606
పులు	-4607
▁ren	-4608
erous	-4609
▁1980	-4610
▁China	-4611
▁schol	-4612
▁value	-4613
▁ఉత్సవ	-4614
▁Austral	-4615
▁సభ్యుడు	-4616
▁Egyptian	-4617
▁official	-4618
▁చలనచిత్ర	-4619
▁ప్రస్తుత	-4620
▁సౌకర్యాలున్నాయి	-4621
ari	-4622
▁178	-4623
▁mer	-4624
▁అవత	-4625
▁2012	-4626
▁capt	-4627
▁days	-4628
▁River	-4629
▁Speer	-4630
▁broad	-4631
ించబడిన	-4632
▁across	-4633
▁పరిపాలన	-4634
▁possible	-4635
▁శాస్త్రి	-4636
ేఖ	-4637
నుక	-4638
▁wid	-4639
▁Dutch	-4640
▁spoken	-4641
▁అందించ	-4642
▁throughout	-4643
uf	-4644
హం	-4645
leg	-4646
ula	-4647
దిన	-4648
ేట్	-4649
▁నై	-4650
ague	-4651
▁Oct	-4652
▁inf	-4653
▁పంప	-4654
▁ఫ్ర	-4655
▁శ్ర	-4656
▁ప్రొ	-4657
▁చెయ్య	-4658
▁mother	-4659
men	-4660
రల్	-4661
▁మౌ	-4662
▁వస	-4663
rast	-4664
ులను	-4665
▁enc	-4666
▁ఎగు	-4667
▁నాట	-4668
పల్లె	-4669
▁Miss	-4670
స్థానం	-4671
▁characters	-4672
uth	-4673
▁Te	-4674
▁వయ	-4675
▁హు	-4676
ming	-4677
▁ఉజ్	-4678
▁జలవ	-4679
▁poet	-4680
▁thus	-4681
▁ఇంది	-4682
▁ఎంతో	-4683
▁పద్మ	-4684
▁పాకి	-4685
▁మద్య	-4686
▁జీవిత	-4687
▁పురాణ	-4688
▁almost	-4689
▁జలవనరు	-4690
▁బహుమతి	-4691
▁బ్రిటీ	-4692
▁express	-4693
▁further	-4694
▁located	-4695
▁బహిరంగంగా	-4696
దర	-4697
ీణ	-4698
iev	-4699
ria	-4700
ాను	-4701
▁కౌ	-4702
ceed	-4703
ober	-4704
వరకు	-4705
▁ess	-4706
పోయిన	-4707
▁good	-4708
▁రాజమ	-4709
▁వివర	-4710
▁except	-4711
▁సీతారామ	-4712
▁discovered	-4713
iers	-4714
inct	-4715
వంటి	-4716
▁భీమ	-4717
ంలోకి	-4718
గూడెం	-4719
▁base	-4720
▁bran	-4721
▁died	-4722
▁అనగా	-4723
▁అర్ధ	-4724
▁నాడు	-4725
▁Press	-4726
▁వినాయ	-4727
▁సమస్య	-4728
▁మాత్రం	-4729
▁శ్రీని	-4730
▁Atlantic	-4731
▁పురస్కార	-4732
▁నియోజకవర్	-4733
ప్త	-4734
▁పౌ	-4735
resp	-4736
గులు	-4737
బోరు	-4738
ార్ధ	-4739
▁syn	-4740
▁నడి	-4741
▁find	-4742
▁tour	-4743
▁కేరళ	-4744
▁మొదల	-4745
సంవత్స	-4746
▁women	-4747
▁assist	-4748
▁contrib	-4749
▁position	-4750
▁compounds	-4751
▁introduced	-4752
శీ	-4753
ery	-4754
ief	-4755
rin	-4756
aign	-4757
arkov	-4758
▁June	-4759
▁fall	-4760
▁magn	-4761
▁న్యూ	-4762
రానికి	-4763
▁cause	-4764
▁estim	-4765
▁impro	-4766
▁speak	-4767
▁సినిమ	-4768
▁father	-4769
▁making	-4770
▁జిల్లాలు	-4771
రె	-4772
aps	-4773
థ్య	-4774
aves	-4775
pite	-4776
▁God	-4777
▁Comm	-4778
▁Rand	-4779
▁dest	-4780
▁laun	-4781
▁విడి	-4782
బ్రహ్మ	-4783
▁Civil	-4784
▁mount	-4785
▁parts	-4786
▁విడుదల	-4787
▁animation	-4788
▁నిర్వహించ	-4789
లమ	-4790
▁“	-4791
ift	-4792
ole	-4793
నర్	-4794
ేలా	-4795
▁3,	-4796
▁దశ	-4797
.191	-4798
లోనూ	-4799
▁ఉద్	-4800
▁త్ర	-4801
స్ట్ర	-4802
▁lost	-4803
▁తాలూ	-4804
▁పోలీ	-4805
▁వర్ష	-4806
ishing	-4807
▁ఆక్రమ	-4808
▁కమ్యూ	-4809
▁Battle	-4810
▁రాజ్యా	-4811
▁Algeria	-4812
▁ప్రాచీన	-4813
ేశ్వరరావు	-4814
▁received	-4815
▁associated	-4816
▁ప్రాంతాన్ని	-4817
▁relationship	-4818
శై	-4819
uel	-4820
bell	-4821
orts	-4822
roas	-4823
▁cop	-4824
▁1920	-4825
▁Book	-4826
▁Turk	-4827
▁clos	-4828
▁star	-4829
▁మందుల	-4830
ప్రాథమిక	-4831
▁anxiety	-4832
▁capital	-4833
▁Canadian	-4834
▁evidence	-4835
▁కుమారుడు	-4836
▁చెందింది	-4837
▁President	-4838
22	-4839
ియ	-4840
rag	-4841
వతి	-4842
▁et	-4843
▁ఏక	-4844
hing	-4845
▁sat	-4846
▁ముఖ	-4847
istry	-4848
ములను	-4849
▁ABBA	-4850
▁రాజా	-4851
▁becom	-4852
▁force	-4853
▁respect	-4854
▁వ్యాపార	-4855
▁సభ్యులు	-4856
▁మార్కెట్	-4857
▁కంప్యూటరు	-4858
14	-4859
కలు	-4860
ంతరం	-4861
▁Per	-4862
▁cir	-4863
▁prop	-4864
▁దారి	-4865
▁పంజా	-4866
lected	-4867
ternal	-4868
▁range	-4869
▁letter	-4870
▁October	-4871
roasiatic	-4872
▁ఒకప్రాథమిక	-4873
▁లభిస్తుంది	-4874
")	-4875
uk	-4876
ంబు	-4877
ctor	-4878
చ్చా	-4879
ట్యూ	-4880
డిని	-4881
దగ్గ	-4882
ద్యమ	-4883
మ్మి	-4884
▁అధి	-4885
చింది	-4886
▁1950	-4887
▁Part	-4888
▁భారత్	-4889
▁accept	-4890
▁transl	-4891
▁చెప్పు	-4892
▁విస్తీర్	-4893
79	-4894
ేద	-4895
ట్లో	-4896
▁far	-4897
ering	-4898
విజన్	-4899
▁cell	-4900
▁స్వా	-4901
iences	-4902
కుంటారు	-4903
▁carbon	-4904
▁ఉదాహరణ	-4905
▁African	-4906
▁గోల్కొండ	-4907
▁జలవనరుల్లోకి	-4908
బడ	-4909
upp	-4910
సిం	-4911
ికా	-4912
▁We	-4913
మాన్	-4914
సాడు	-4915
▁Kar	-4916
▁mor	-4917
▁చేత	-4918
రాయలు	-4919
వలసిన	-4920
స్వామ	-4921
gether	-4922
▁cases	-4923
▁వాడుక	-4924
▁General	-4925
▁జిల్లాల	-4926
▁together	-4927
స్వామివారి	-4928
60	-4929
పడ	-4930
ోర్	-4931
▁యే	-4932
▁లీ	-4933
cial	-4934
ysis	-4935
త్తా	-4936
ేషను	-4937
▁From	-4938
▁role	-4939
▁title	-4940
▁సాగని	-4941
ications	-4942
vironment	-4943
▁individual	-4944
▁నిర్మించారు	-4945
88	-4946
ధీ	-4947
భం	-4948
iol	-4949
ney	-4950
పోవ	-4951
▁శం	-4952
▁ఉర్	-4953
▁చాల	-4954
▁1970	-4955
▁aver	-4956
▁దిగు	-4957
ారణంగా	-4958
▁లక్షల	-4959
respond	-4960
▁commer	-4961
▁project	-4962
▁అందుబాటు	-4963
▁అతిపెద్ద	-4964
▁రాష్ట్రంలోని	-4965
SC	-4966
లగ	-4967
▁ఋ	-4968
pro	-4969
ంద్	-4970
సమీ	-4971
ream	-4972
▁Har	-4973
▁army	-4974
▁crew	-4975
▁list	-4976
▁live	-4977
ficult	-4978
▁నలుగు	-4979
▁health	-4980
▁version	-4981
▁అనుసరించి	-4982
ems	-4983
ateg	-4984
త్యా	-4985
ళ్లు	-4986
▁den	-4987
▁ద్ర	-4988
▁శాల	-4989
▁team	-4990
▁పద్ధ	-4991
▁విశాఖ	-4992
▁సుబ్బ	-4993
▁critic	-4994
▁వీటిలో	-4995
▁alphabet	-4996
▁difficult	-4997
▁television	-4998
▁గజ	-4999
ties	-5000
న్యూ	-5001
ెదరు	-5002
uries	-5003
▁1960	-5004
▁coll	-5005
▁ఒప్ప	-5006
▁Canada	-5007
▁Church	-5008
▁island	-5009
▁mostly	-5010
▁భూములు	-5011
▁concept	-5012
▁Institute	-5013
ibr	-5014
rug	-5015
వల్ల	-5016
▁gas	-5017
▁ఇన్	-5018
▁నెహ	-5019
▁నేష	-5020
avery	-5021
▁upon	-5022
▁ఉండి	-5023
▁మూడవ	-5024
▁Since	-5025
▁mouth	-5026
▁మొదలు	-5027
▁శాశ్వ	-5028
▁multip	-5029
▁produce	-5030
▁mathemat	-5031
▁ఏర్పడింది	-5032
▁international	-5033
▁Me	-5034
▁నౌ	-5035
ెంట్	-5036
▁Del	-5037
▁Soc	-5038
▁మైస	-5039
▁వలస	-5040
▁East	-5041
స్తాడు	-5042
▁moved	-5043
ట్టింది	-5044
▁attack	-5045
▁singer	-5046
▁అందులో	-5047
▁Spanish	-5048
▁feature	-5049
ashington	-5050
▁భావిస్తున్నారు	-5051
హరి	-5052
cret	-5053
play	-5054
▁Res	-5055
enced	-5056
జ్ఞాన	-5057
▁adop	-5058
▁neut	-5059
▁రాయల	-5060
▁వేరు	-5061
▁quant	-5062
▁ఉజ్బె	-5063
▁determ	-5064
▁Kingdom	-5065
▁animals	-5066
▁రచించిన	-5067
▁November	-5068
▁సమరయోధుడు	-5069
11	-5070
:-	-5071
sh	-5072
రాన	-5073
▁Kh	-5074
డికి	-5075
రోజు	-5076
▁mix	-5077
ilies	-5078
▁actor	-5079
▁జిల్ల	-5080
▁ప్రచుర	-5081
▁account	-5082
▁reported	-5083
▁research	-5084
▁structure	-5085
75	-5086
ev	-5087
▁0	-5088
శేఖ	-5089
.189	-5090
దుగా	-5091
▁ఒకే	-5092
imony	-5093
పాలెం	-5094
▁2010	-5095
▁Army	-5096
amples	-5097
తాన్ని	-5098
▁activ	-5099
▁కచ్చా	-5100
▁ground	-5101
▁itself	-5102
▁concern	-5103
▁Washington	-5104
ald	-5105
▁cle	-5106
▁foc	-5107
▁neg	-5108
▁అస్	-5109
ంలోనూ	-5110
▁ఖాన్	-5111
▁పైగా	-5112
▁కనుగొ	-5113
▁ఇంగ్లీ	-5114
▁aircraft	-5115
▁president	-5116
▁successful	-5117
sy	-5118
▁#	-5119
ino	-5120
మార	-5121
ీస్	-5122
్వా	-5123
anes	-5124
ebru	-5125
ront	-5126
శ్మీ	-5127
సమీప	-5128
ామిక	-5129
▁రిక	-5130
ption	-5131
urder	-5132
▁వాతా	-5133
ournal	-5134
కారులు	-5135
▁కలిపి	-5136
▁సింగ్	-5137
▁choice	-5138
▁employ	-5139
▁regard	-5140
▁science	-5141
▁డిసెంబరు	-5142
▁according	-5143
▁technology	-5144
0%	-5145
బడే	-5146
సీమ	-5147
▁ఘన	-5148
.194	-5149
▁(199	-5150
▁gave	-5151
▁subst	-5152
▁నెహ్రూ	-5153
▁ఏర్పడిన	-5154
▁computer	-5155
▁అన్నమయ్య	-5156
▁religious	-5157
▁typically	-5158
▁అక్షరాస్య	-5159
Al	-5160
sel	-5161
▁బే	-5162
clus	-5163
ుండు	-5164
▁Des	-5165
▁గౌర	-5166
atory	-5167
ిల్లు	-5168
▁అంది	-5169
▁గవర్	-5170
▁వరంగ	-5171
రాన్ని	-5172
▁offer	-5173
ebruary	-5174
▁reason	-5175
▁విమానా	-5176
▁వాతావరణ	-5177
▁addition	-5178
26	-5179
▁fre	-5180
▁log	-5181
▁win	-5182
▁పరమ	-5183
▁మార	-5184
▁vict	-5185
▁అరటి	-5186
▁కనిప	-5187
▁కనుక	-5188
▁చక్క	-5189
▁భూము	-5190
ensive	-5191
▁approx	-5192
▁compos	-5193
▁little	-5194
▁నగరంలో	-5195
▁industry	-5196
▁తెలుగులో	-5197
▁స్వామివారి	-5198
ఎం	-5199
▁Pa	-5200
రులు	-5201
▁alt	-5202
▁fem	-5203
▁గంగ	-5204
ators	-5205
▁Thom	-5206
▁atoms	-5207
▁defin	-5208
▁పరిధి	-5209
▁భార్య	-5210
▁స్వీకర	-5211
సంవత్సరం	-5212
▁economy	-5213
▁believed	-5214
▁remained	-5215
▁విమానాశ్ర	-5216
ాలీ	-5217
▁Mc	-5218
chan	-5219
ాయని	-5220
్రహ్	-5221
్రియ	-5222
▁ఆవి	-5223
▁(198	-5224
▁rank	-5225
▁ఉర్దూ	-5226
▁పట్టు	-5227
▁మంత్ర	-5228
▁Christian	-5229
▁ఎన్నికలలో	-5230
▁సందర్భంగా	-5231
▁సంబంధించిన	-5232
ఫి	-5233
emb	-5234
que	-5235
్యత	-5236
▁Gu	-5237
ండ్ర	-5238
నగర్	-5239
▁gre	-5240
▁గీత	-5241
▁ప్లా	-5242
▁వైపు	-5243
▁Count	-5244
▁భక్తి	-5245
▁స్థిర	-5246
▁Andorra	-5247
▁economic	-5248
▁అధికారిక	-5249
▁influence	-5250
▁పిలుస్తారు	-5251
▁Confederate	-5252
ey	-5253
రియ	-5254
రూప	-5255
▁Co	-5256
▁My	-5257
▁తల	-5258
▁fig	-5259
▁see	-5260
▁sil	-5261
▁జాన	-5262
▁వంద	-5263
atine	-5264
▁Moon	-5265
▁hold	-5266
anding	-5267
▁సైనిక	-5268
▁amount	-5269
▁రాజులు	-5270
arkovsky	-5271
▁February	-5272
▁academic	-5273
▁includes	-5274
▁increased	-5275
ించబడుతుంది	-5276
▁z	-5277
oid	-5278
ర్ప	-5279
వార	-5280
cean	-5281
ford	-5282
roup	-5283
వాతి	-5284
▁Act	-5285
▁కుం	-5286
▁కృషి	-5287
▁మహబూ	-5288
▁వెళ్	-5289
▁శాతం	-5290
▁manag	-5291
▁జ్ఞాన	-5292
స్కృతిక	-5293
▁నేషనల్	-5294
▁bitumen	-5295
▁ఇప్పుడు	-5296
▁నలుగురు	-5297
▁Republic	-5298
▁business	-5299
▁northern	-5300
▁philosopher	-5301
48	-5302
reg	-5303
ంకే	-5304
దుల	-5305
బీయ	-5306
iber	-5307
work	-5308
తుబ్	-5309
దారు	-5310
▁Its	-5311
▁doc	-5312
▁ఎకర	-5313
▁నిల	-5314
ోత్సవ	-5315
▁2009	-5316
▁Park	-5317
▁fund	-5318
▁టెక్	-5319
సారిగా	-5320
▁press	-5321
▁taken	-5322
century	-5323
▁entire	-5324
▁నేపథ్య	-5325
▁profess	-5326
▁products	-5327
▁కిలోమీటర్ల	-5328
isl	-5329
ume	-5330
ందర	-5331
▁టీ	-5332
eles	-5333
onst	-5334
phib	-5335
చారం	-5336
ణంలో	-5337
▁deg	-5338
▁pron	-5339
టువంటి	-5340
▁artic	-5341
▁avail	-5342
▁చదువు	-5343
▁భౌతిక	-5344
▁శతాబ్	-5345
▁invest	-5346
▁అయింది	-5347
▁బ్రాహ్మ	-5348
▁campaign	-5349
▁సెప్టెంబరు	-5350
ocr	-5351
్లో	-5352
rest	-5353
గురు	-5354
▁Air	-5355
▁Cor	-5356
▁sea	-5357
▁ఏడు	-5358
▁కల్	-5359
▁మాట	-5360
anted	-5361
తులను	-5362
▁able	-5363
▁dial	-5364
▁priv	-5365
▁రసాయ	-5366
▁anime	-5367
▁పోరాట	-5368
▁highest	-5369
▁గాయకుడు	-5370
▁అభిప్రాయ	-5371
▁నిర్మాణం	-5372
▁philosophy	-5373
29	-5374
rog	-5375
మన్	-5376
▁ve	-5377
medi	-5378
క్కన	-5379
▁179	-5380
▁dou	-5381
▁gra	-5382
▁lik	-5383
▁నడు	-5384
aceae	-5385
బీబీయ	-5386
▁పుష్	-5387
▁లాల్	-5388
▁types	-5389
▁క్రీడ	-5390
▁months	-5391
బీబీయెస్	-5392
▁cultural	-5393
▁movement	-5394
▁దుకాణాలు	-5395
▁Tarkovsky	-5396
▁కేంద్రంగా	-5397
▁సాధారణంగా	-5398
▁correspond	-5399
▁సత్యనారాయణ	-5400
go	-5401
rem	-5402
టమి	-5403
డవు	-5404
మండ	-5405
▁If	-5406
గాడు	-5407
వ్యా	-5408
▁మొఘ	-5409
ought	-5410
▁గంగా	-5411
▁react	-5412
▁trade	-5413
▁కమ్యూని	-5414
▁కాంగ్రె	-5415
▁యుద్ధంలో	-5416
▁asteroids	-5417
▁సాంస్కృతిక	-5418
▁ఎమ్బీబీయెస్	-5419
ee	-5420
జె	-5421
lim	-5422
▁హే	-5423
ందున	-5424
▁Ann	-5425
▁Mod	-5426
▁dig	-5427
▁tru	-5428
▁dise	-5429
▁చెబు	-5430
istics	-5431
▁Aruba	-5432
▁సందర్శ	-5433
ociation	-5434
ప్రైవేటు	-5435
▁referred	-5436
17	-5437
ana	-5438
చర్	-5439
ogen	-5440
ware	-5441
▁180	-5442
▁నేత	-5443
▁పాద	-5444
▁prob	-5445
▁ఇంటి	-5446
▁2014,	-5447
▁birth	-5448
▁atomic	-5449
▁రోడ్డు	-5450
▁reached	-5451
▁పారిశ్ర	-5452
▁యూనియన్	-5453
▁రాజ్యాంగ	-5454
▁increasing	-5455
▁particularly	-5456
టరీ	-5457
సుడు	-5458
▁ఆరం	-5459
▁ఫలి	-5460
▁బంగ	-5461
iting	-5462
రాజ్య	-5463
▁lett	-5464
▁past	-5465
▁side	-5466
▁Court	-5467
▁vowel	-5468
▁ప్రవహ	-5469
▁nature	-5470
▁widely	-5471
▁కుతుబ్	-5472
▁తీసుకు	-5473
▁పనిచేశ	-5474
శాస్త్రి	-5475
▁underst	-5476
▁features	-5477
▁గుర్తింపు	-5478
▁అందుబాటులో	-5479
%.	-5480
ef	-5481
కాడ	-5482
▁గౌ	-5483
obal	-5484
reme	-5485
గంలో	-5486
▁deb	-5487
▁ఆదాయ	-5488
▁ఆహార	-5489
టిట్యూ	-5490
▁domin	-5491
▁హిందు	-5492
▁troops	-5493
▁శాశ్వత	-5494
▁changes	-5495
▁గ్రామాలు	-5496
▁తమిళనాడు	-5497
▁cy	-5498
lier	-5499
▁sem	-5500
▁చోళ	-5501
▁తీర	-5502
▁పీఠ	-5503
▁మధు	-5504
▁రిప	-5505
▁వరి	-5506
cript	-5507
inted	-5508
టర్లు	-5509
▁Film	-5510
▁mole	-5511
▁rate	-5512
▁ఆకర్	-5513
▁రెవె	-5514
minist	-5515
▁maint	-5516
▁young	-5517
▁విస్తర	-5518
▁సమావేశ	-5519
▁చేయదగ్గ	-5520
▁మిలియన్	-5521
▁శ్రీకృష్ణ	-5522
▁పారిశ్రామిక	-5523
చీ	-5524
▁జగ	-5525
▁మృ	-5526
ises	-5527
▁amb	-5528
▁లోక	-5529
odium	-5530
▁లోకి	-5531
uments	-5532
▁పుణ్య	-5533
▁చిత్రం	-5534
▁నవంబరు	-5535
▁సాగులో	-5536
▁instead	-5537
▁regions	-5538
▁చిత్రాలు	-5539
▁సంవత్సరాలు	-5540
ంచు	-5541
డల్	-5542
▁డే	-5543
కట్ట	-5544
బెల్	-5545
రియా	-5546
శ్రమ	-5547
▁Hen	-5548
▁కూర	-5549
▁2016	-5550
▁cour	-5551
▁gold	-5552
▁sens	-5553
▁trib	-5554
▁పిలి	-5555
▁James	-5556
▁album	-5557
▁books	-5558
▁indic	-5559
▁whose	-5560
▁భద్రా	-5561
▁రాజవం	-5562
▁సరస్వ	-5563
▁rights	-5564
▁average	-5565
▁command	-5566
▁ప్రకాశం	-5567
▁majority	-5568
▁రామకృష్ణ	-5569
▁రెవెన్యూ	-5570
▁eventually	-5571
▁traditional	-5572
let	-5573
ాయల	-5574
▁వన	-5575
Amer	-5576
ened	-5577
ving	-5578
స్తి	-5579
ిండి	-5580
▁Dem	-5581
▁ion	-5582
▁నేల	-5583
iform	-5584
చ్చిన	-5585
▁గిరి	-5586
▁నన్న	-5587
elling	-5588
ouncil	-5589
▁close	-5590
▁legal	-5591
▁బాధ్య	-5592
▁శాంతి	-5593
స్తోంది	-5594
▁leading	-5595
▁మండలాలు	-5596
▁proposed	-5597
▁కాంగ్రెసు	-5598
చూ	-5599
నీయ	-5600
▁4,	-5601
▁bo	-5602
rick	-5603
year	-5604
ంచిన	-5605
సారు	-5606
▁Tro	-5607
▁fav	-5608
ufact	-5609
▁east	-5610
▁తాగు	-5611
కురాలు	-5612
▁House	-5613
▁State	-5614
▁style	-5615
▁సాంకే	-5616
▁Robert	-5617
▁అనువాద	-5618
▁పాలనలో	-5619
▁History	-5620
▁derived	-5621
▁studies	-5622
▁hydrogen	-5623
▁territory	-5624
▁independence	-5625
che	-5626
ర్ధ	-5627
లిక	-5628
సనం	-5629
చ్చే	-5630
యోగి	-5631
▁Mor	-5632
▁mid	-5633
▁sit	-5634
▁lack	-5635
▁west	-5636
▁అల్ల	-5637
▁radio	-5638
▁వివాహ	-5639
▁famous	-5640
▁living	-5641
▁పెట్టు	-5642
▁మండేలా	-5643
▁Italian	-5644
▁letters	-5645
▁working	-5646
▁పరిశోధన	-5647
▁Anatolia	-5648
▁హైదరాబాద్	-5649
▁అక్షరాస్యత	-5650
▁anthropology	-5651
65	-5652
ెన	-5653
reak	-5654
నేని	-5655
పాతం	-5656
anced	-5657
ights	-5658
▁దాడి	-5659
▁David	-5660
▁polic	-5661
▁కళ్యా	-5662
▁member	-5663
▁review	-5664
▁గృహాలు	-5665
▁చేపట్ట	-5666
▁నాయుడు	-5667
▁slavery	-5668
▁వ్యతిరేకంగా	-5669
ush	-5670
ంట్	-5671
ఎన్	-5672
ires	-5673
▁Hol	-5674
▁Pri	-5675
▁ach	-5676
▁fac	-5677
▁saw	-5678
▁అరు	-5679
▁చేర	-5680
ength	-5681
ధ్యాయ	-5682
యాత్ర	-5683
▁plant	-5684
▁నృత్య	-5685
▁సృష్ట	-5686
▁కాశ్మీ	-5687
▁కొందరు	-5688
▁తెలుసు	-5689
▁ప్రస్తా	-5690
▁భూముల్లో	-5691
77	-5692
దయ	-5693
omb	-5694
rel	-5695
ందా	-5696
కోట	-5697
ష్య	-5698
▁La	-5699
▁Sy	-5700
ideo	-5701
కూరు	-5702
పాలక	-5703
ాడని	-5704
▁Sup	-5705
▁నార	-5706
▁బోధ	-5707
ంలోను	-5708
ములలో	-5709
విత్ర	-5710
▁hard	-5711
▁బీడు	-5712
యిత్రి	-5713
▁condu	-5714
▁larger	-5715
▁whether	-5716
▁రూపొందించ	-5717
%,	-5718
43	-5719
kn	-5720
ణ్	-5721
హన	-5722
ర్గ	-5723
.197	-5724
obel	-5725
డంలో	-5726
ether	-5727
ledge	-5728
uture	-5729
లాండ్	-5730
▁full	-5731
▁host	-5732
▁self	-5733
▁uses	-5734
▁ఇతని	-5735
▁తాను	-5736
▁నంది	-5737
▁మానవ	-5738
▁creat	-5739
▁ఒడ్డు	-5740
▁పర్షి	-5741
▁సైన్య	-5742
చ్చింది	-5743
▁Portug	-5744
▁compan	-5745
▁కానివి	-5746
▁పెరుగు	-5747
▁England	-5748
▁defined	-5749
▁western	-5750
▁మారింది	-5751
▁southern	-5752
▁ముఖ్యంగా	-5753
మం	-5754
oms	-5755
put	-5756
aron	-5757
idge	-5758
ling	-5759
wide	-5760
ంగోలు	-5761
ంజనేయ	-5762
మ్మద్	-5763
▁(201	-5764
▁అమలు	-5765
▁కేవల	-5766
▁always	-5767
▁events	-5768
▁శ్రీకా	-5769
▁Charles	-5770
▁ఆధారంగా	-5771
▁Southern	-5772
▁chemical	-5773
▁families	-5774
▁physical	-5775
▁సంస్కృతి	-5776
▁potential	-5777
▁environment	-5778
ges	-5779
ంబే	-5780
పడు	-5781
▁3.	-5782
hers	-5783
న్యా	-5784
▁Mac	-5785
▁అణు	-5786
▁మూల	-5787
berde	-5788
iques	-5789
వులను	-5790
▁emer	-5791
▁అకాడ	-5792
▁Mount	-5793
▁మరింత	-5794
▁market	-5795
▁కొద్ది	-5796
▁చుట్టు	-5797
▁climate	-5798
▁outside	-5799
▁particip	-5800
▁required	-5801
▁estimated	-5802
▁రాజధానిగా	-5803
▁Revolution	-5804
35	-5805
ోప	-5806
ows	-5807
▁Ze	-5808
▁ur	-5809
atal	-5810
▁hom	-5811
uxley	-5812
▁Amaz	-5813
▁Mary	-5814
▁prec	-5815
▁ship	-5816
▁size	-5817
▁అంచనా	-5818
▁వ్యాస	-5819
మయ్యాయి	-5820
▁మహబూబ్	-5821
▁రాజ్యం	-5822
టిట్యూట్	-5823
▁Germany	-5824
▁దక్షిణా	-5825
▁Johnston	-5826
▁analysis	-5827
aff	-5828
ett	-5829
రుస	-5830
▁32	-5831
opes	-5832
unar	-5833
గాయి	-5834
రుని	-5835
లిలో	-5836
▁Lov	-5837
▁lay	-5838
▁పది	-5839
erson	-5840
రేషన్	-5841
▁2004	-5842
▁bond	-5843
▁isot	-5844
▁king	-5845
▁norm	-5846
నాన్ని	-5847
వంతమైన	-5848
▁played	-5849
▁foreign	-5850
▁started	-5851
▁univers	-5852
▁appeared	-5853
▁ప్రతిపాద	-5854
▁available	-5855
▁relatively	-5856
జూ	-5857
చేయ	-5858
ానే	-5859
▁31	-5860
▁టా	-5861
▁పడ	-5862
rown	-5863
పురా	-5864
▁Bel	-5865
▁diss	-5866
▁జర్మ	-5867
▁వరకూ	-5868
▁Atlas	-5869
▁Islam	-5870
▁stage	-5871
▁ఉత్తమ	-5872
▁ఒంగోలు	-5873
▁నోబెల్	-5874
▁పూర్వం	-5875
▁limited	-5876
▁ప్రజలకు	-5877
▁స్టేషను	-5878
▁asteroid	-5879
▁increase	-5880
▁సాంకేతిక	-5881
▁properties	-5882
▁ఉజ్బెకిస్థాన్	-5883
64	-5884
డై	-5885
హీ	-5886
ాంత	-5887
▁భు	-5888
oted	-5889
న్నె	-5890
ముతో	-5891
▁Sem	-5892
▁aud	-5893
▁1947	-5894
▁text	-5895
▁బంగా	-5896
▁మొదట	-5897
▁వెబ్	-5898
ర్యంలో	-5899
▁award	-5900
▁మహిళా	-5901
▁Huxley	-5902
▁appeal	-5903
▁caused	-5904
▁cities	-5905
▁highly	-5906
▁ఆగస్టు	-5907
▁దానిని	-5908
▁శుద్ధి	-5909
▁పండితుడు	-5910
▁పూర్తిగా	-5911
▁astronaut	-5912
▁tradition	-5913
oe	-5914
రొ	-5915
పారు	-5916
▁tre	-5917
▁సోమ	-5918
aring	-5919
▁(195	-5920
▁2008	-5921
▁away	-5922
▁born	-5923
▁vill	-5924
▁went	-5925
▁లింగ	-5926
icient	-5927
▁గణపతి	-5928
▁నెలకొ	-5929
▁పండుగ	-5930
▁పాటలు	-5931
isation	-5932
American	-5933
▁primary	-5934
▁conditions	-5935
▁పాకిస్తాన్	-5936
▁స్వాతంత్ర్యం	-5937
నాధ	-5938
ఫ్ర	-5939
▁AD	-5940
sych	-5941
ందరి	-5942
టికి	-5943
యంగా	-5944
▁150	-5945
▁అబ్	-5946
heast	-5947
iance	-5948
▁Swed	-5949
ective	-5950
selves	-5951
▁fight	-5952
▁గోపాల	-5953
▁George	-5954
▁billion	-5955
▁remains	-5956
▁directly	-5957
▁సంవత్సరంలో	-5958
ios	-5959
సరి	-5960
ares	-5961
ests	-5962
itor	-5963
నిమి	-5964
లికి	-5965
▁పెద	-5966
నియన్	-5967
▁2022	-5968
▁City	-5969
▁wife	-5970
▁జాతి	-5971
▁orbit	-5972
▁Aberde	-5973
▁career	-5974
▁season	-5975
▁Britain	-5976
▁effects	-5977
▁subsequ	-5978
▁ఇండియన్	-5979
▁ప్రఖ్యా	-5980
▁specific	-5981
▁నాగార్జు	-5982
hel	-5983
▁ey	-5984
▁షి	-5985
atch	-5986
hood	-5987
బుల్	-5988
వారీ	-5989
▁Val	-5990
▁కుల	-5991
▁సహజ	-5992
known	-5993
▁give	-5994
▁town	-5995
▁నూతన	-5996
▁ముని	-5997
rought	-5998
కాన్ని	-5999
▁stable	-6000
▁పవిత్ర	-6001
▁earlier	-6002
▁smaller	-6003
▁contrast	-6004
▁observed	-6005
▁personal	-6006
▁problems	-6007
▁solution	-6008
▁చేస్తారు	-6009
▁approximately	-6010
78	-6011
udd	-6012
పిన్	-6013
▁Ank	-6014
▁Bra	-6015
▁eas	-6016
▁ఎలా	-6017
ously	-6018
▁2005	-6019
▁ఇండో	-6020
▁జంతు	-6021
▁దక్క	-6022
▁భద్ర	-6023
ibrary	-6024
▁First	-6025
▁Nobel	-6026
▁alcoh	-6027
▁might	-6028
▁అర్థం	-6029
▁రచనలు	-6030
▁growth	-6031
▁ప్రయోగ	-6032
▁సైన్యం	-6033
▁పర్యాటక	-6034
▁manufact	-6035
▁provided	-6036
▁announced	-6037
▁education	-6038
▁విశ్వవిద్యాలయ	-6039
45	-6040
amb	-6041
▁చై	-6042
▁డె	-6043
cond	-6044
ning	-6045
▁jud	-6046
▁mag	-6047
▁లలో	-6048
icium	-6049
లక్ష్	-6050
▁cele	-6051
▁ఎర్ర	-6052
▁కూర్	-6053
▁దేవత	-6054
▁దేవి	-6055
▁బాల్	-6056
▁వైభవ	-6057
▁white	-6058
▁కేవలం	-6059
▁దర్శక	-6060
రాష్ట్ర	-6061
▁nation	-6062
▁founded	-6063
▁అప్పుడు	-6064
42	-6065
ణిక	-6066
లర్	-6067
ేరు	-6068
rian	-6069
well	-6070
west	-6071
త్రా	-6072
వైపు	-6073
▁put	-6074
▁Barb	-6075
▁circ	-6076
▁conn	-6077
▁cost	-6078
▁disp	-6079
▁tend	-6080
▁కల్ప	-6081
▁added	-6082
▁వున్న	-6083
itation	-6084
▁expect	-6085
▁actress	-6086
▁variety	-6087
▁వార్షిక	-6088
▁పొందింది	-6089
▁algorithm	-6090
▁రిపబ్లిక్	-6091
▁information	-6092
రవ	-6093
bed	-6094
వలన	-6095
షేక	-6096
▁4.	-6097
▁Sm	-6098
rich	-6099
కంటే	-6100
▁Mos	-6101
▁ఆయు	-6102
▁స్ప	-6103
▁rock	-6104
▁పర్య	-6105
▁occup	-6106
▁మొఘల్	-6107
▁action	-6108
▁compet	-6109
▁necess	-6110
▁విప్లవ	-6111
▁percent	-6112
▁stories	-6113
స్తుంటారు	-6114
▁reaction	-6115
▁భారతదేశపు	-6116
▁నిర్వహించెదరు	-6117
గడ	-6118
amm	-6119
టల్	-6120
దరణ	-6121
సామ	-6122
▁lo	-6123
▁అచ	-6124
.198	-6125
acks	-6126
ints	-6127
మితి	-6128
▁వేల	-6129
▁meet	-6130
▁హనుమ	-6131
ounter	-6132
▁hours	-6133
▁ద్వీప	-6134
▁పొడవు	-6135
▁ప్రతీ	-6136
▁రాసిన	-6137
▁విద్వ	-6138
▁వెనుక	-6139
▁Antigu	-6140
▁writer	-6141
▁దానికి	-6142
▁వరంగల్	-6143
▁Another	-6144
▁multiple	-6145
▁ప్రక్రియ	-6146
▁బ్రాహ్మణ	-6147
▁తిరుగుబాటు	-6148
44	-6149
72	-6150
ipl	-6151
మీద	-6152
▁80	-6153
cont	-6154
వంతు	-6155
▁hon	-6156
▁ten	-6157
▁ఆల్	-6158
▁లిం	-6159
▁సము	-6160
owers	-6161
▁2006	-6162
▁Arch	-6163
▁Stud	-6164
▁axon	-6165
▁నివస	-6166
▁names	-6167
▁travel	-6168
▁అనంతరం	-6169
▁క్రింద	-6170
▁distinct	-6171
▁province	-6172
▁రికార్డు	-6173
Un	-6174
eff	-6175
pir	-6176
ras	-6177
గరం	-6178
జ్ర	-6179
▁అప	-6180
▁టై	-6181
cast	-6182
ండ్ల	-6183
ఫ్ట్	-6184
ర్ట్	-6185
▁Jew	-6186
▁ded	-6187
▁red	-6188
▁చూప	-6189
▁శరీ	-6190
hesis	-6191
ోద్యమ	-6192
▁black	-6193
▁exhib	-6194
▁sound	-6195
▁చుట్ట	-6196
ూరులోను	-6197
▁latter	-6198
▁mechan	-6199
▁plants	-6200
▁possib	-6201
▁served	-6202
▁మీదుగా	-6203
▁objects	-6204
▁provide	-6205
▁ప్రచురణ	-6206
▁returned	-6207
▁scholars	-6208
▁చేయబడింది	-6209
▁ప్రధానంగా	-6210
▁themselves	-6211
▁ప్రారంభించారు	-6212
▁ముఖ్యమంత్రిగా	-6213
వో	-6214
ృత	-6215
కాయ	-6216
తనం	-6217
onic	-6218
rong	-6219
బాబు	-6220
▁van	-6221
▁కరీ	-6222
చున్న	-6223
ప్రసా	-6224
▁Alps	-6225
▁Open	-6226
▁Rich	-6227
▁once	-6228
▁surv	-6229
▁విలీ	-6230
నైటెడ్	-6231
▁conqu	-6232
▁learn	-6233
▁అనేది	-6234
▁చేయడం	-6235
▁భాషలో	-6236
raction	-6237
vention	-6238
డేపల్లి	-6239
▁Thomas	-6240
▁levels	-6241
▁recent	-6242
▁నిర్ణయ	-6243
▁వీటిని	-6244
చార్యులు	-6245
▁journal	-6246
▁problem	-6247
▁దేశాలలో	-6248
▁commonly	-6249
▁ఇప్పటికీ	-6250
▁commercial	-6251
33	-6252
మత	-6253
కరి	-6254
ఖండ	-6255
నాడ	-6256
▁70	-6257
▁ధర	-6258
▁సగ	-6259
▁ste	-6260
▁అలీ	-6261
▁బంధ	-6262
▁యోధ	-6263
▁వంట	-6264
asion	-6265
▁High	-6266
▁sett	-6267
▁జాబి	-6268
▁భారీ	-6269
assium	-6270
కేంద్ర	-6271
▁frequ	-6272
▁media	-6273
▁spect	-6274
▁కవులు	-6275
▁బట్టి	-6276
▁లాంటి	-6277
▁పరీక్ష	-6278
▁వాటిని	-6279
▁brought	-6280
▁mission	-6281
▁astatine	-6282
▁building	-6283
▁involved	-6284
▁performed	-6285
▁agricultural	-6286
76	-6287
off	-6288
▁గత	-6289
omer	-6290
నియా	-6291
ానంద	-6292
▁flu	-6293
▁tri	-6294
▁ఇంత	-6295
▁ఏను	-6296
light	-6297
మెంట్	-6298
సంఖ్య	-6299
▁ever	-6300
▁ఇతను	-6301
▁దూరం	-6302
▁Camus	-6303
▁interp	-6304
▁nearly	-6305
▁source	-6306
▁చదివిన	-6307
▁మార్గం	-6308
▁electrons	-6309
oul	-6310
urs	-6311
ధిప	-6312
సర్	-6313
oney	-6314
wood	-6315
పన్న	-6316
▁bur	-6317
▁cit	-6318
▁say	-6319
▁squ	-6320
▁ఆలో	-6321
క్కలు	-6322
▁appo	-6323
▁whom	-6324
▁పాలు	-6325
▁బోరు	-6326
▁వర్గ	-6327
▁వేర్	-6328
▁సమాజ	-6329
ithium	-6330
▁Ankara	-6331
▁cannot	-6332
▁ఇందిరా	-6333
▁తాలూకా	-6334
▁Central	-6335
▁నంద్యాల	-6336
▁వ్రాసిన	-6337
▁producer	-6338
▁centuries	-6339
▁influenced	-6340
BC	-6341
uda	-6342
రుగ	-6343
శివ	-6344
▁ఆహ	-6345
▁నర	-6346
▁hyp	-6347
▁obt	-6348
iding	-6349
ారాలు	-6350
▁1991	-6351
▁perm	-6352
▁ఎక్క	-6353
▁కారణ	-6354
▁నివసి	-6355
▁పెళ్ళ	-6356
▁ఫ్రెం	-6357
▁అకాడమీ	-6358
▁ఉద్యమం	-6359
▁ఉమ్మడి	-6360
▁భాషలలో	-6361
▁విదేశీ	-6362
ించేవారు	-6363
▁respons	-6364
▁results	-6365
▁తరువాతి	-6366
▁numerous	-6367
▁beginning	-6368
▁experience	-6369
▁techniques	-6370
ఘ్	-6371
gin	-6372
పుణ	-6373
సిక	-6374
gely	-6375
పురి	-6376
empor	-6377
izing	-6378
▁2015	-6379
▁anti	-6380
▁crop	-6381
▁sets	-6382
▁మద్ద	-6383
▁లిపి	-6384
ulated	-6385
▁acids	-6386
▁makes	-6387
▁జట్టు	-6388
▁తోటలు	-6389
▁నదులు	-6390
▁ఆనకట్ట	-6391
▁ఇప్పటి	-6392
▁ప్రయాణ	-6393
▁distrib	-6394
▁nuclear	-6395
▁ఇంగ్లీషు	-6396
▁మరణించాడు	-6397
▁మరణించారు	-6398
▁independent	-6399
▁ప్రాంతానికి	-6400
59	-6401
ss	-6402
ఘు	-6403
ఫీ	-6404
ెల	-6405
aes	-6406
bra	-6407
het	-6408
och	-6409
ందో	-6410
జలు	-6411
aint	-6412
aker	-6413
inem	-6414
రుకు	-6415
ానది	-6416
▁Cur	-6417
▁Gra	-6418
▁III	-6419
▁ord	-6420
▁దశా	-6421
▁నవల	-6422
rents	-6423
పియన్	-6424
▁1956	-6425
▁అడవి	-6426
▁ఉష్ణ	-6427
▁క్రై	-6428
▁రకాల	-6429
▁స్కూ	-6430
aching	-6431
ederal	-6432
స్థాయి	-6433
▁2015,	-6434
▁Peter	-6435
▁confl	-6436
▁వైశాల	-6437
▁People	-6438
▁celebr	-6439
▁issues	-6440
▁పునర్వ	-6441
్వర్యంలో	-6442
▁Amazing	-6443
▁Society	-6444
▁administ	-6445
▁contains	-6446
▁presence	-6447
▁తాగునీరు	-6448
ించబడ్డాయి	-6449
▁literature	-6450
ha	-6451
ki	-6452
ళీ	-6453
హో	-6454
జరా	-6455
లేక	-6456
▁1:	-6457
▁[#	-6458
▁ఫు	-6459
eral	-6460
iant	-6461
ills	-6462
rust	-6463
ygen	-6464
ార్వ	-6465
▁arm	-6466
▁ask	-6467
▁rap	-6468
▁ఆమో	-6469
▁ఎంప	-6470
▁శాత	-6471
ented	-6472
ంనగర్	-6473
నాలజీ	-6474
్యాత్	-6475
▁List	-6476
▁vari	-6477
▁అనువ	-6478
▁అభ్య	-6479
▁గోవా	-6480
▁వెంట	-6481
త్తులు	-6482
భాగంలో	-6483
▁quest	-6484
▁కోట్ల	-6485
▁access	-6486
▁పచ్చిక	-6487
▁వారిని	-6488
▁Persian	-6489
▁greater	-6490
▁largely	-6491
▁సంస్థలు	-6492
▁సంస్థాన	-6493
▁శ్రీరాములు	-6494
log	-6495
▁TV	-6496
▁భో	-6497
డెన్	-6498
నుడు	-6499
▁Hun	-6500
▁arr	-6501
▁too	-6502
▁ఒడి	-6503
▁పడి	-6504
▁బీహ	-6505
orial	-6506
▁Cath	-6507
▁viol	-6508
▁ప్రథ	-6509
uation	-6510
▁table	-6511
▁చిత్త	-6512
▁జరిగే	-6513
▁రోజుల	-6514
ologist	-6515
▁గురువు	-6516
▁రేడియో	-6517
▁methods	-6518
▁రామారావు	-6519
▁transport	-6520
▁footballer	-6521
2%	-6522
36	-6523
47	-6524
An	-6525
ya	-6526
మర	-6527
ael	-6528
ita	-6529
key	-6530
ova	-6531
ుంగ	-6532
ighb	-6533
కారి	-6534
గర్భ	-6535
చేసి	-6536
టిక్	-6537
నాథ్	-6538
లియా	-6539
▁tar	-6540
▁ఆకు	-6541
olute	-6542
ార్డ్	-6543
▁అవసర	-6544
▁చింత	-6545
▁చెంద	-6546
▁బిరు	-6547
ieties	-6548
▁categ	-6549
▁బ్రహ్	-6550
ilities	-6551
▁Govern	-6552
▁battle	-6553
▁future	-6554
▁placed	-6555
▁remain	-6556
▁ఉండేవి	-6557
▁directed	-6558
28	-6559
Am	-6560
జయ	-6561
ida	-6562
ont	-6563
యస్	-6564
uals	-6565
uman	-6566
ద్దీ	-6567
▁Mil	-6568
▁era	-6569
▁ఎంత	-6570
olved	-6571
▁game	-6572
▁వెలు	-6573
రేంద్ర	-6574
▁అత్యు	-6575
▁అబ్దు	-6576
▁బొమ్మ	-6577
▁సింహా	-6578
▁Museum	-6579
▁amphib	-6580
▁commit	-6581
▁flight	-6582
▁formal	-6583
▁Eastern	-6584
▁appears	-6585
▁private	-6586
▁towards	-6587
▁Albanian	-6588
▁complete	-6589
▁రోజువారీ	-6590
▁Australian	-6591
na	-6592
ato	-6593
ias	-6594
ris	-6595
ఎల్	-6596
ళ్వ	-6597
▁Ae	-6598
▁Sl	-6599
ards	-6600
comp	-6601
ores	-6602
view	-6603
్యము	-6604
▁వెల	-6605
based	-6606
▁1999	-6607
▁exec	-6608
▁ఆకాశ	-6609
▁కింద	-6610
▁వాయు	-6611
సముద్ర	-6612
▁Paris	-6613
▁bound	-6614
▁clear	-6615
▁eight	-6616
▁ఇంద్ర	-6617
▁చేర్చ	-6618
▁stated	-6619
▁బోరుబా	-6620
▁వస్త్ర	-6621
▁సాధారణ	-6622
్యాత్మిక	-6623
▁allowed	-6624
▁discuss	-6625
▁islands	-6626
▁పురపాలక	-6627
▁దక్షిణాన	-6628
▁యునైటెడ్	-6629
▁particles	-6630
▁విశాఖపట్నం	-6631
);	-6632
39	-6633
49	-6634
గత	-6635
▁;	-6636
win	-6637
ంతర	-6638
▁Im	-6639
▁NA	-6640
▁UK	-6641
▁ir	-6642
▁నొ	-6643
.196	-6644
airs	-6645
▁dom	-6646
▁imm	-6647
▁నదీ	-6648
▁మనం	-6649
క్టర్	-6650
బట్టి	-6651
▁ethn	-6652
▁loss	-6653
▁ఆరంభ	-6654
▁గుర్	-6655
▁ఫ్రా	-6656
lement	-6657
ressed	-6658
▁Henry	-6659
▁accom	-6660
▁oppos	-6661
▁shown	-6662
▁video	-6663
▁రాజుల	-6664
▁compar	-6665
▁legisl	-6666
▁novels	-6667
▁బ్లాగు	-6668
▁schools	-6669
▁service	-6670
▁డివిజన్	-6671
▁స్త్రీల	-6672
▁కరీంనగర్	-6673
▁ప్రదర్శన	-6674
▁collection	-6675
sl	-6676
su	-6677
ech	-6678
ండీ	-6679
జీవ	-6680
cted	-6681
కృతి	-6682
▁Ada	-6683
▁Arg	-6684
▁Ser	-6685
▁key	-6686
▁అండ	-6687
icted	-6688
inese	-6689
▁Best	-6690
▁idea	-6691
▁look	-6692
▁oxid	-6693
▁sequ	-6694
▁కందు	-6695
▁పెరి	-6696
▁Green	-6697
▁assum	-6698
▁below	-6699
▁ఎనిమి	-6700
▁మహిళల	-6701
▁వ్యక్	-6702
▁సింధు	-6703
▁Middle	-6704
▁create	-6705
▁enough	-6706
▁impact	-6707
▁killed	-6708
▁vowels	-6709
▁ఒడ్డున	-6710
▁శ్రీశై	-6711
▁sources	-6712
▁డాక్టర్	-6713
▁ప్రభావం	-6714
▁వైభవంగా	-6715
▁replaced	-6716
▁రాష్ట్రాల	-6717
ఒక	-6718
కళ	-6719
mar	-6720
▁తప	-6721
▁దళ	-6722
aged	-6723
ల్ని	-6724
వాన్	-6725
▁dyn	-6726
▁mic	-6727
▁క్వ	-6728
▁గోడ	-6729
▁సమయ	-6730
anned	-6731
▁1930	-6732
▁Mich	-6733
▁తత్వ	-6734
▁ద్వి	-6735
▁labor	-6736
▁హాస్య	-6737
actions	-6738
▁charge	-6739
▁medical	-6740
▁separate	-6741
▁చేయడానికి	-6742
▁Republican	-6743
నని	-6744
▁డై	-6745
్యాగ	-6746
▁300	-6747
▁cer	-6748
▁ఆరా	-6749
iforn	-6750
▁true	-6751
▁మలయా	-6752
▁Black	-6753
▁Order	-6754
▁cross	-6755
▁remov	-6756
▁విలువ	-6757
క్షేత్ర	-6758
వుతున్న	-6759
▁calcul	-6760
▁forest	-6761
▁worked	-6762
▁claimed	-6763
▁నిర్వహి	-6764
▁Californ	-6765
▁రాజమండ్రి	-6766
▁అయినప్పటికీ	-6767
38	-6768
ాయం	-6769
▁Gl	-6770
కంగా	-6771
గ్ని	-6772
ార్ల	-6773
ిన్న	-6774
▁you	-6775
▁మేత	-6776
ables	-6777
board	-6778
cause	-6779
ishes	-6780
▁emph	-6781
▁syll	-6782
▁కాకి	-6783
▁మరణం	-6784
▁రాతి	-6785
atives	-6786
య్యారు	-6787
్యవస్థ	-6788
▁Award	-6789
▁Royal	-6790
▁Their	-6791
▁ideas	-6792
▁భాషలు	-6793
▁శాలలో	-6794
▁sodium	-6795
▁జాబితా	-6796
▁ప్రాము	-6797
▁వెళ్ళి	-6798
▁క్రైస్త	-6799
▁చెప్పిన	-6800
▁నియంత్ర	-6801
▁లేకుండా	-6802
▁recorded	-6803
▁ప్రాంతీయ	-6804
▁మాట్లాడే	-6805
▁treatment	-6806
▁టెక్నాలజీ	-6807
▁California	-6808
▁జన్మించాడు	-6809
21	-6810
ror	-6811
పరు	-6812
ాలే	-6813
▁38	-6814
▁గూ	-6815
rate	-6816
▁Lou	-6817
▁Mal	-6818
▁inj	-6819
▁గణప	-6820
▁యువ	-6821
▁విర	-6822
▁Fort	-6823
▁జైలు	-6824
▁Scott	-6825
▁river	-6826
▁పంచాయ	-6827
▁విషయం	-6828
aughter	-6829
estival	-6830
ression	-6831
▁altern	-6832
▁detail	-6833
▁global	-6834
▁spread	-6835
▁society	-6836
▁వాడుకలో	-6837
▁Northern	-6838
▁దేశానికి	-6839
▁రచయిత్రి	-6840
▁తాడేపల్లి	-6841
▁బోరుబావుల	-6842
58	-6843
66	-6844
ియా	-6845
▁ఆయ	-6846
iles	-6847
nost	-6848
onse	-6849
గారు	-6850
డుకు	-6851
రాయల	-6852
▁Sim	-6853
▁ang	-6854
▁sex	-6855
▁అయి	-6856
▁పాడ	-6857
▁మను	-6858
ested	-6859
field	-6860
igned	-6861
▁male	-6862
▁మారు	-6863
ection	-6864
నరసింహ	-6865
ాలయంలో	-6866
▁Party	-6867
▁ఉద్యో	-6868
▁humans	-6869
▁matter	-6870
▁చుట్టూ	-6871
శాస్త్రం	-6872
▁Antigua	-6873
▁Chinese	-6874
▁prevent	-6875
▁writers	-6876
▁నాయకులు	-6877
▁మండలంలో	-6878
▁విగ్రహం	-6879
▁సాహిత్యం	-6880
arc	-6881
eks	-6882
set	-6883
uls	-6884
శ్య	-6885
▁AN	-6886
▁ఆచ	-6887
రత్న	-6888
▁500	-6889
▁nit	-6890
▁నవా	-6891
▁బయట	-6892
anded	-6893
lying	-6894
▁2003	-6895
▁draw	-6896
▁fell	-6897
▁neur	-6898
▁ఆత్మ	-6899
▁ఉదయం	-6900
▁పక్ష	-6901
▁ప్రె	-6902
▁మళ్ళ	-6903
▁శ్లో	-6904
▁Techn	-6905
▁chlor	-6906
▁issue	-6907
▁minor	-6908
▁psych	-6909
▁today	-6910
▁కారణం	-6911
▁Animal	-6912
▁రాత్రి	-6913
▁contain	-6914
▁divided	-6915
▁regular	-6916
▁absolute	-6917
▁probably	-6918
▁resulting	-6919
▁లభించింది	-6920
▁పునర్వ్యవస్థ	-6921
68	-6922
మహ	-6923
ext	-6924
లాం	-6925
▁48	-6926
▁8,	-6927
▁9,	-6928
icip	-6929
యిర్	-6930
రాడు	-6931
▁But	-6932
▁Rom	-6933
▁Vir	-6934
▁2007	-6935
▁mach	-6936
▁గుండ	-6937
▁నమ్మ	-6938
▁సైని	-6939
▁Aaron	-6940
▁Space	-6941
▁expos	-6942
▁focus	-6943
▁జనరల్	-6944
▁Columb	-6945
▁Muslim	-6946
▁likely	-6947
▁తిక్కన	-6948
▁adopted	-6949
▁కొత్తగా	-6950
▁విద్వాం	-6951
▁ఎన్నికైన	-6952
▁పర్షియన్	-6953
▁primarily	-6954
▁ప్రాముఖ్య	-6955
▁శ్రీనివాస	-6956
▁ఆధ్యాత్మిక	-6957
TA	-6958
ేట	-6959
urd	-6960
▁6,	-6961
burg	-6962
ద్భు	-6963
▁Nav	-6964
▁ఇటీ	-6965
▁తజి	-6966
▁తిన	-6967
cular	-6968
ograp	-6969
omers	-6970
▁happ	-6971
▁చేయు	-6972
▁పరిష	-6973
antine	-6974
▁albed	-6975
▁గుజరా	-6976
▁దేశాల	-6977
▁లక్షణ	-6978
▁Histor	-6979
▁mainly	-6980
▁oxygen	-6981
▁పదవిని	-6982
▁రాయలసీమ	-6983
స్తున్నది	-6984
▁mountain	-6985
▁therefore	-6986
:/	-6987
ij	-6988
pr	-6989
గతి	-6990
మాల	-6991
సేవ	-6992
ౌన్	-6993
▁యో	-6994
ging	-6995
rish	-6996
కూరి	-6997
చాడు	-6998
త్మా	-6999
లేని	-7000
▁ice	-7001
▁pay	-7002
▁డాల	-7003
alled	-7004
ament	-7005
క్షన్	-7006
▁1962	-7007
▁Publ	-7008
▁stri	-7009
▁అవతర	-7010
▁కోల్	-7011
▁మల్ల	-7012
గానికి	-7013
▁Class	-7014
▁lunar	-7015
▁paper	-7016
▁sense	-7017
▁పిలువ	-7018
▁వ్రాయ	-7019
▁length	-7020
▁neighb	-7021
▁అతనికి	-7022
▁బంగాళా	-7023
▁brother	-7024
▁document	-7025
▁companies	-7026
▁పరిశ్రమలు	-7027
▁స్థాపించబడింది	-7028
37	-7029
46	-7030
దశ	-7031
"),	-7032
eds	-7033
olf	-7034
yer	-7035
దర్	-7036
ల్వ	-7037
సము	-7038
్యో	-7039
▁చౌ	-7040
▁దె	-7041
taic	-7042
▁pen	-7043
▁కూడ	-7044
▁గణి	-7045
▁మణి	-7046
▁యూర	-7047
inary	-7048
onian	-7049
▁Kore	-7050
▁come	-7051
▁rail	-7052
▁గాని	-7053
▁వరుస	-7054
isions	-7055
ప్తంగా	-7056
▁altru	-7057
▁whole	-7058
▁జానపద	-7059
▁బావుల	-7060
▁మరాఠీ	-7061
▁వైఎస్	-7062
▁archit	-7063
▁friend	-7064
▁illust	-7065
▁resour	-7066
▁అడుగుల	-7067
▁పొట్టి	-7068
త్వాన్ని	-7069
▁Semitic	-7070
▁continu	-7071
▁reflect	-7072
▁antimony	-7073
▁కళాశాలలు	-7074
▁బ్రిటిషు	-7075
▁originally	-7076
▁ఆధ్వర్యంలో	-7077
▁agriculture	-7078
▁విమానాశ్రయం	-7079
▁రాష్ట్రానికి	-7080
55	-7081
శో	-7082
సవి	-7083
▁7,	-7084
otic	-7085
కంలో	-7086
క్రీ	-7087
▁(),	-7088
▁rot	-7089
▁జపా	-7090
▁లోప	-7091
కులను	-7092
తులలో	-7093
▁Angl	-7094
▁nerv	-7095
▁step	-7096
▁నిరా	-7097
▁front	-7098
▁weeks	-7099
▁కూడిన	-7100
artment	-7101
inental	-7102
▁Russia	-7103
▁resist	-7104
▁చేస్తూ	-7105
▁మీటర్ల	-7106
▁వారిలో	-7107
▁demonst	-7108
▁eastern	-7109
▁require	-7110
▁distingu	-7111
▁response	-7112
▁స్త్రీలు	-7113
▁knowledge	-7114
▁potassium	-7115
▁శాస్త్రీయ	-7116
▁construction	-7117
▁కార్యక్రమాలు	-7118
▁భారతదేశంలోని	-7119
▁భారతదేశానికి	-7120
బల	-7121
సో	-7122
500	-7123
://	-7124
aur	-7125
ico	-7126
ధార	-7127
దిరి	-7128
మ్స్	-7129
శేఖర	-7130
ింట్	-7131
▁Bet	-7132
▁Lee	-7133
▁యోగ	-7134
▁వేయ	-7135
order	-7136
ెట్టు	-7137
▁doub	-7138
▁ఇస్ల	-7139
▁మంగళ	-7140
▁వేమన	-7141
orders	-7142
▁citiz	-7143
▁party	-7144
▁Greece	-7145
▁better	-7146
▁నిజామా	-7147
▁మొదలగు	-7148
▁Because	-7149
▁అయ్యాడు	-7150
▁విజ్ఞాన	-7151
▁ప్రయత్ని	-7152
▁establish	-7153
▁supported	-7154
▁పాలించారు	-7155
▁consonants	-7156
▁scientific	-7157
▁spacecraft	-7158
▁temperature	-7159
▁బస్సులుప్రైవేటు	-7160
era	-7161
erc	-7162
vey	-7163
గలి	-7164
లపై	-7165
ూలు	-7166
ృంగ	-7167
▁Dr	-7168
hens	-7169
indu	-7170
pped	-7171
పోయి	-7172
ప్తి	-7173
▁net	-7174
▁సూచ	-7175
▁2017	-7176
▁Paul	-7177
▁fish	-7178
▁soft	-7179
▁నివే	-7180
▁ప్రో	-7181
▁Trans	-7182
▁house	-7183
▁rapid	-7184
▁stars	-7185
▁ప్రతా	-7186
తున్నది	-7187
ographic	-7188
బడుతుంది	-7189
▁Library	-7190
▁గ్రామీణ	-7191
▁సంస్కరణ	-7192
▁Catholic	-7193
▁కుమార్తె	-7194
▁industrial	-7195
▁విస్తీర్ణం	-7196
▁respectively	-7197
▁రాష్ట్రములోని	-7198
ెర	-7199
obe	-7200
ఘిక	-7201
రాస	-7202
▁5,	-7203
▁ఎడ	-7204
▁కై	-7205
▁జే	-7206
lege	-7207
న్సి	-7208
పడిన	-7209
ప్పి	-7210
ాయుధ	-7211
▁Mem	-7212
▁get	-7213
▁ult	-7214
▁కాళ	-7215
▁గడి	-7216
▁భవన	-7217
ennis	-7218
phalt	-7219
మైనవి	-7220
ాయితీ	-7221
▁Aege	-7222
▁rule	-7223
▁అంతే	-7224
▁కష్ట	-7225
▁వీటి	-7226
ession	-7227
▁Grand	-7228
▁చెల్ల	-7229
▁ముద్ర	-7230
ference	-7231
▁Democr	-7232
▁reject	-7233
▁weight	-7234
▁Minister	-7235
▁critical	-7236
▁బ్రిటీషు	-7237
gn	-7238
చల	-7239
umn	-7240
డమే	-7241
పాత	-7242
సాల	-7243
orph	-7244
పక్ష	-7245
వాణి	-7246
సులో	-7247
▁10,	-7248
▁Pal	-7249
▁Reg	-7250
▁Sun	-7251
▁ఉదయ	-7252
▁సహా	-7253
astic	-7254
ready	-7255
వులలో	-7256
ించగా	-7257
ునిగా	-7258
▁acqu	-7259
▁grad	-7260
▁reve	-7261
▁spir	-7262
▁పదవీ	-7263
inated	-7264
ంచింది	-7265
ట్లుగా	-7266
▁units	-7267
▁అక్షర	-7268
▁రెండో	-7269
▁శిక్ష	-7270
iformes	-7271
▁Nether	-7272
▁points	-7273
▁alchemy	-7274
▁ప్రధాని	-7275
▁సాధించి	-7276
▁అధ్యక్షు	-7277
▁Americans	-7278
▁represented	-7279
90	-7280
కై	-7281
రై	-7282
aph	-7283
met	-7284
▁భర	-7285
abul	-7286
osis	-7287
road	-7288
uese	-7289
గారి	-7290
చర్ల	-7291
ధీనం	-7292
ధులు	-7293
▁che	-7294
▁ris	-7295
▁yet	-7296
▁దిశ	-7297
▁నరస	-7298
▁పండ	-7299
itors	-7300
గింపు	-7301
▁1969	-7302
▁1971	-7303
▁hero	-7304
▁kind	-7305
▁అతడు	-7306
▁స్టే	-7307
mitted	-7308
రుగురు	-7309
▁Maced	-7310
▁behav	-7311
▁cerem	-7312
▁thous	-7313
కోవచ్చు	-7314
▁Island	-7315
▁School	-7316
▁animal	-7317
▁నీటిని	-7318
▁మద్దతు	-7319
▁స్థానం	-7320
▁disease	-7321
▁display	-7322
▁fiction	-7323
▁mention	-7324
▁క్రమంగా	-7325
▁ప్రోగ్ర	-7326
▁సంఖ్యలో	-7327
▁స్వాధీనం	-7328
▁కమ్యూనిస్టు	-7329
▁నిర్వహించిన	-7330
,"	-7331
ww	-7332
ago	-7333
obs	-7334
చలం	-7335
రస్	-7336
▁జు	-7337
.188	-7338
anda	-7339
ఘంటు	-7340
▁...	-7341
▁Arm	-7342
▁pet	-7343
▁rat	-7344
▁మాత	-7345
▁సుర	-7346
elled	-7347
ensus	-7348
గ్రామ	-7349
▁1918	-7350
▁2002	-7351
▁amer	-7352
▁rare	-7353
▁slow	-7354
▁తొలగ	-7355
▁నిష్	-7356
▁పల్ల	-7357
▁బ్యా	-7358
ground	-7359
కోర్టు	-7360
▁Early	-7361
▁Spain	-7362
▁algae	-7363
▁basic	-7364
▁earth	-7365
▁కమిటీ	-7366
▁కీర్త	-7367
▁నన్నయ	-7368
▁పూజలు	-7369
▁రక్షణ	-7370
▁Aegean	-7371
▁Modern	-7372
▁extens	-7373
▁పోలీసు	-7374
▁భూగర్భ	-7375
▁alkanes	-7376
▁equival	-7377
▁friends	-7378
▁కాకినాడ	-7379
ేశ్వరస్వామి	-7380
▁సాగవుతున్న	-7381
▁మొదటిసారిగా	-7382
71	-7383
roy	-7384
గల్	-7385
దరి	-7386
aled	-7387
leth	-7388
తాడు	-7389
పర్వ	-7390
రణ్య	-7391
శాడు	-7392
స్కో	-7393
▁Alp	-7394
▁mel	-7395
▁via	-7396
▁పదం	-7397
▁పాప	-7398
ients	-7399
right	-7400
సిద్ధ	-7401
▁Iran	-7402
▁bene	-7403
▁love	-7404
▁soil	-7405
▁wide	-7406
▁జాన్	-7407
▁తగ్గ	-7408
▁తుంగ	-7409
▁పరిచ	-7410
▁పెను	-7411
▁2016,	-7412
▁శిల్ప	-7413
చున్నది	-7414
▁Philip	-7415
▁active	-7416
▁annual	-7417
▁immedi	-7418
▁joined	-7419
▁longer	-7420
▁models	-7421
▁occurs	-7422
▁values	-7423
▁ముస్లి	-7424
▁విలీనం	-7425
▁Council	-7426
▁complet	-7427
▁decided	-7428
▁తూర్పున	-7429
▁పంచాయతీ	-7430
▁పొందాడు	-7431
▁defeated	-7432
▁సుల్తాన్	-7433
▁americium	-7434
▁construct	-7435
▁suggested	-7436
▁మురుగునీటి	-7437
▁ప్రారంభమైంది	-7438
▁విద్యార్థులు	-7439
63	-7440
బే	-7441
▁UN	-7442
▁Ast	-7443
▁చంప	-7444
▁శిఖ	-7445
asons	-7446
which	-7447
రిక్ష	-7448
▁1977	-7449
▁band	-7450
▁కాల్	-7451
▁జార్	-7452
iament	-7453
చరిత్ర	-7454
తెలుగు	-7455
▁break	-7456
▁decay	-7457
▁decre	-7458
▁hypot	-7459
▁lingu	-7460
▁motor	-7461
▁seven	-7462
▁అర్జు	-7463
ampions	-7464
▁albedo	-7465
▁artist	-7466
▁policy	-7467
▁మైసూరు	-7468
▁సాంఘిక	-7469
▁already	-7470
▁leaders	-7471
▁ప్రదేశం	-7472
▁వ్యాఖ్య	-7473
▁practice	-7474
▁speakers	-7475
▁surround	-7476
▁దండయాత్ర	-7477
▁constitution	-7478
ీర	-7479
nam	-7480
ంచే	-7481
కుమ	-7482
గాన	-7483
చిత	-7484
జాల	-7485
హన్	-7486
ాపన	-7487
▁Ak	-7488
▁CE	-7489
▁Ul	-7490
SCII	-7491
yond	-7492
ండర్	-7493
గాని	-7494
టంతో	-7495
యిన్	-7496
▁Der	-7497
▁Two	-7498
▁rob	-7499
▁ధ్వ	-7500
elace	-7501
tical	-7502
వులకు	-7503
▁1919	-7504
▁1948	-7505
▁1979	-7506
▁1998	-7507
▁deep	-7508
▁peak	-7509
▁vary	-7510
▁గౌరవ	-7511
aesium	-7512
నిర్మా	-7513
▁arran	-7514
▁write	-7515
▁అద్భు	-7516
▁ఉండగా	-7517
▁తిమ్మ	-7518
▁పునర్	-7519
▁విడుద	-7520
▁ambigu	-7521
▁promin	-7522
▁status	-7523
▁turned	-7524
▁మార్పు	-7525
emporary	-7526
భివృద్ధి	-7527
▁carried	-7528
▁neutron	-7529
▁ఆరుగురు	-7530
▁dialects	-7531
▁డిగ్రీలు	-7532
▁సిద్ధాంత	-7533
▁worldwide	-7534
▁Portuguese	-7535
▁నియోజకవర్గం	-7536
ido	-7537
nel	-7538
దైన	-7539
పిన	-7540
odes	-7541
ష్కర	-7542
▁182	-7543
▁Gen	-7544
▁opt	-7545
▁our	-7546
▁టర్	-7547
▁పడమ	-7548
▁మసీ	-7549
▁వాహ	-7550
aught	-7551
iated	-7552
liest	-7553
కోవడం	-7554
▁1940	-7555
▁1974	-7556
▁site	-7557
▁అద్ద	-7558
▁గమని	-7559
▁సగటు	-7560
య్యాయి	-7561
▁Inter	-7562
▁basis	-7563
▁chall	-7564
▁equal	-7565
▁lines	-7566
▁quick	-7567
▁త్యాగ	-7568
▁పొందు	-7569
▁behind	-7570
▁అవకాశం	-7571
▁వాటిలో	-7572
▁విధానం	-7573
outheast	-7574
స్థానంలో	-7575
▁Company	-7576
▁release	-7577
▁ప్రసాద్	-7578
▁Lovelace	-7579
▁compared	-7580
▁property	-7581
▁మార్గంలో	-7582
▁architect	-7583
▁సాంప్రదాయ	-7584
▁Netherlands	-7585
సూ	-7586
rid	-7587
ump	-7588
van	-7589
ంతం	-7590
వనం	-7591
ిటీ	-7592
ేశవ	-7593
▁49	-7594
▁ఆస	-7595
▁ఈశ	-7596
.195	-7597
acus	-7598
aeus	-7599
song	-7600
ండగా	-7601
చారి	-7602
టూరి	-7603
త్రు	-7604
దాసు	-7605
మూరి	-7606
ెంలో	-7607
▁Alg	-7608
▁Ste	-7609
▁sus	-7610
▁ఊరి	-7611
rical	-7612
ణాళిక	-7613
▁Both	-7614
▁గర్భ	-7615
▁నవలా	-7616
▁పులి	-7617
▁పేరొ	-7618
పురంలో	-7619
మాన్ని	-7620
▁Artic	-7621
▁తయారీ	-7622
▁పుట్ట	-7623
▁Center	-7624
▁consum	-7625
▁symbol	-7626
▁కోర్టు	-7627
▁ప్రెసి	-7628
▁బంగారు	-7629
▁రూపంలో	-7630
▁Despite	-7631
▁artists	-7632
▁contact	-7633
▁ఉత్తరాన	-7634
▁ప్రాధాన	-7635
▁Aberdeen	-7636
▁accepted	-7637
▁designed	-7638
▁పాలించిన	-7639
▁algorithms	-7640
1%	-7641
4%	-7642
igr	-7643
స్ర	-7644
ేడ్	-7645
్వే	-7646
▁39	-7647
▁5.	-7648
▁కర	-7649
igen	-7650
life	-7651
oper	-7652
rief	-7653
tila	-7654
భూమి	-7655
▁Dan	-7656
▁Red	-7657
▁Tex	-7658
▁Vog	-7659
▁emb	-7660
▁పైన	-7661
rying	-7662
▁Mart	-7663
▁ఎత్త	-7664
▁చర్చ	-7665
▁నికో	-7666
▁సమాన	-7667
ranean	-7668
కారిణి	-7669
▁freed	-7670
▁match	-7671
▁పునరు	-7672
▁ప్రథమ	-7673
▁మొక్క	-7674
▁settle	-7675
▁temple	-7676
▁decades	-7677
▁ఎదుర్కొ	-7678
▁Standard	-7679
▁consists	-7680
▁soldiers	-7681
▁ఉత్సవాలు	-7682
▁పురుషులు	-7683
▁anarchism	-7684
▁community	-7685
▁చేస్తున్న	-7686
▁వ్యవస్థాప	-7687
▁definition	-7688
▁historical	-7689
▁సుబ్బారావు	-7690
▁Constitution	-7691
3%	-7692
డూ	-7693
hic	-7694
imb	-7695
lym	-7696
డని	-7697
నము	-7698
ాయా	-7699
ుంప	-7700
▁Do	-7701
abit	-7702
hist	-7703
otes	-7704
గ్గి	-7705
రంగా	-7706
రాజ్	-7707
▁Aqu	-7708
▁How	-7709
▁Met	-7710
▁upp	-7711
▁అవస	-7712
▁లను	-7713
arent	-7714
azine	-7715
earch	-7716
ector	-7717
శిష్ట	-7718
▁1989	-7719
▁1994	-7720
▁Camp	-7721
▁Karp	-7722
▁చిహ్	-7723
▁ఫాల్	-7724
▁మాండ	-7725
▁రంగు	-7726
దాన్ని	-7727
▁Italy	-7728
▁depos	-7729
▁జపాన్	-7730
▁మళ్ళీ	-7731
▁వేసవి	-7732
▁border	-7733
▁summer	-7734
▁అనుమతి	-7735
▁నాగరిక	-7736
▁పేర్లు	-7737
▁conflict	-7738
▁resulted	-7739
▁completed	-7740
▁జిల్లాలలో	-7741
▁పనిచేశాడు	-7742
▁appearance	-7743
▁అత్యధికంగా	-7744
▁సాధించింది	-7745
ca	-7746
▁°	-7747
arr	-7748
org	-7749
▁45	-7750
▁Fl	-7751
▁గే	-7752
కొనే	-7753
దిగా	-7754
దురు	-7755
ప్రీ	-7756
▁Mex	-7757
▁Old	-7758
▁కాయ	-7759
▁ఖండ	-7760
▁తది	-7761
గోళిక	-7762
▁conv	-7763
▁poor	-7764
▁sulf	-7765
▁అంకి	-7766
▁డబ్బ	-7767
▁నేను	-7768
▁రాధా	-7769
▁స్తం	-7770
▁Under	-7771
▁autom	-7772
▁opened	-7773
▁places	-7774
▁ఆంజనేయ	-7775
▁Michael	-7776
▁మహాభారత	-7777
▁composed	-7778
▁services	-7779
▁training	-7780
▁ప్రణాళిక	-7781
songwriter	-7782
▁consonant	-7783
▁magnitude	-7784
▁కేంద్రమైన	-7785
▁additional	-7786
జో	-7787
కలా	-7788
మనీ	-7789
▁6.	-7790
▁90	-7791
▁బై	-7792
▁యె	-7793
▁వం	-7794
gian	-7795
న్నే	-7796
వలసి	-7797
శారు	-7798
శ్చా	-7799
షనల్	-7800
హెబ్	-7801
▁ఎల్	-7802
▁మతం	-7803
▁మామ	-7804
▁రాఘ	-7805
▁శంక	-7806
apers	-7807
▁1952	-7808
▁burn	-7809
▁dram	-7810
▁fear	-7811
▁stop	-7812
▁wood	-7813
▁అగ్ర	-7814
▁వీధి	-7815
▁వెలి	-7816
▁శృంగ	-7817
▁సర్ప	-7818
▁స్టా	-7819
United	-7820
▁Franc	-7821
▁aband	-7822
▁ended	-7823
▁peace	-7824
▁prote	-7825
▁spent	-7826
▁పరిసర	-7827
▁హక్కు	-7828
▁Awards	-7829
▁center	-7830
▁emphas	-7831
▁failed	-7832
▁office	-7833
▁taking	-7834
▁Ancient	-7835
▁Turkish	-7836
▁పరిధిలో	-7837
▁ప్రార్థ	-7838
▁భౌగోళిక	-7839
▁శ్రీరంగ	-7840
▁becoming	-7841
▁distance	-7842
▁అంతరిక్ష	-7843
iterranean	-7844
6%	-7845
నగ	-7846
pan	-7847
rec	-7848
unt	-7849
xic	-7850
ాభి	-7851
▁AF	-7852
చయిత	-7853
పట్ల	-7854
బార్	-7855
▁San	-7856
▁Sol	-7857
▁dam	-7858
▁జైన	-7859
▁వేగ	-7860
▁సాయ	-7861
ieval	-7862
illed	-7863
ulate	-7864
కులకు	-7865
పుత్ర	-7866
▁Vogt	-7867
▁aard	-7868
▁ions	-7869
▁keep	-7870
▁liqu	-7871
▁poll	-7872
▁ఆమోద	-7873
▁ఉండు	-7874
▁గారి	-7875
▁ముగి	-7876
▁alpha	-7877
▁chart	-7878
▁shows	-7879
▁గాయని	-7880
▁సుందర	-7881
ibility	-7882
▁Attila	-7883
▁Follow	-7884
▁closed	-7885
▁ఆచార్య	-7886
▁జర్మనీ	-7887
▁preserv	-7888
▁victory	-7889
▁జరిగాయి	-7890
▁శతాబ్ది	-7891
ాలున్నాయి	-7892
▁daughter	-7893
▁decision	-7894
▁greatest	-7895
▁launched	-7896
▁students	-7897
▁effective	-7898
▁చేస్తుంది	-7899
▁structures	-7900
▁ప్రాంతాలను	-7901
▁Mediterranean	-7902
ంభ	-7903
యూ	-7904
వృ	-7905
elt	-7906
ణము	-7907
▁మఠ	-7908
reng	-7909
ందర్	-7910
▁bar	-7911
▁don	-7912
▁esc	-7913
▁orb	-7914
▁saf	-7915
▁వుం	-7916
▁శేష	-7917
రించు	-7918
▁Fore	-7919
▁NASA	-7920
▁Olym	-7921
▁frog	-7922
▁rise	-7923
▁అశ్వ	-7924
▁ఆదేశ	-7925
▁ఐక్య	-7926
▁పరిణ	-7927
▁పోలి	-7928
▁సంభవ	-7929
undred	-7930
▁అనువద	-7931
▁కలుపు	-7932
▁చట్టం	-7933
▁నిపుణ	-7934
▁పాలనా	-7935
▁మరికొ	-7936
▁మార్చ	-7937
▁మొత్త	-7938
▁రసాయన	-7939
liament	-7940
▁Karpov	-7941
▁Virgin	-7942
▁appell	-7943
▁aspect	-7944
▁causes	-7945
▁theore	-7946
▁authors	-7947
▁becomes	-7948
▁consequ	-7949
▁serious	-7950
▁మహాత్మా	-7951
▁సముద్రం	-7952
▁religion	-7953
▁ఆలయాన్ని	-7954
▁పండితులు	-7955
▁presented	-7956
▁దేవస్థానం	-7957
▁activities	-7958
NA	-7959
iff	-7960
mod	-7961
rim	-7962
దుప	-7963
భావ	-7964
ర్ఘ	-7965
▁షే	-7966
దిలి	-7967
పూరు	-7968
వుగా	-7969
▁cut	-7970
▁inh	-7971
▁అలం	-7972
▁గుహ	-7973
▁మెద	-7974
estic	-7975
parag	-7976
దర్శి	-7977
పరంగా	-7978
▁1000	-7979
▁1992	-7980
▁Mass	-7981
▁anat	-7982
▁phon	-7983
▁కొలు	-7984
▁క్యా	-7985
▁బోర్	-7986
▁రాజ్	-7987
▁లోనే	-7988
▁స్థల	-7989
ellect	-7990
పడింది	-7991
▁Olymp	-7992
▁cells	-7993
▁ఎక్స్	-7994
▁చర్చి	-7995
▁ప్రశ్	-7996
▁వృక్ష	-7997
▁Commun	-7998
▁Newton	-7999
▁needed	-8000
▁winter	-8001
▁అక్కడి	-8002
▁ఉపయోగి	-8003
▁గుర్తు	-8004
▁చెన్నై	-8005
▁పంజాబు	-8006
ulations	-8007
▁Islamic	-8008
▁Science	-8009
▁efforts	-8010
▁బెంగాల్	-8011
▁ఇరానియన్	-8012
▁పట్టణంలో	-8013
▁భారతరత్న	-8014
▁రామచంద్ర	-8015
▁Following	-8016
▁initially	-8017
▁నాయకత్వంలో	-8018
▁Association	-8019
▁performance	-8020
▁న్యాయమూర్తి	-8021
▁ప్రారంభమయ్యాయి	-8022
27	-8023
ao	-8024
gg	-8025
hi	-8026
oz	-8027
auc	-8028
ply	-8029
కొన	-8030
ోల్	-8031
్యే	-8032
▁Er	-8033
▁ఖా	-8034
alle	-8035
born	-8036
lled	-8037
బాయి	-8038
▁Ald	-8039
▁Dep	-8040
▁అంశ	-8041
▁చతు	-8042
▁నటీ	-8043
▁నల్	-8044
▁లోయ	-8045
icism	-8046
▁Budd	-8047
▁Tele	-8048
▁hous	-8049
▁pric	-8050
▁semi	-8051
▁soon	-8052
▁weak	-8053
▁గణిత	-8054
▁చిక్	-8055
▁నక్ష	-8056
▁నిలు	-8057
▁బాలు	-8058
ferred	-8059
▁Ocean	-8060
▁asked	-8061
▁lived	-8062
▁చెందు	-8063
▁నరసిం	-8064
▁సాగర్	-8065
▁Philos	-8066
▁oldest	-8067
▁ప్రచార	-8068
▁ప్రబంధ	-8069
▁attract	-8070
▁destroy	-8071
▁devices	-8072
▁married	-8073
▁studied	-8074
▁ఉన్నాడు	-8075
▁గవర్నర్	-8076
కోవడానికి	-8077
▁captured	-8078
▁earliest	-8079
▁కృష్ణదేవ	-8080
▁పాఠశాలలో	-8081
▁broadcast	-8082
▁చేపట్టాడు	-8083
▁తెలుగుదేశం	-8084
▁కనిపిస్తుంది	-8085
గవ	-8086
టన	-8087
ాస	-8088
hat	-8089
oud	-8090
uff	-8091
పర్	-8092
పీఠ	-8093
రుల	-8094
ేష్	-8095
▁Lu	-8096
▁Qu	-8097
ancy	-8098
fred	-8099
haps	-8100
itch	-8101
part	-8102
డుపు	-8103
ొన్న	-8104
▁Aut	-8105
▁BCE	-8106
▁Mat	-8107
▁Nap	-8108
▁Tra	-8109
▁aim	-8110
▁అల్	-8111
▁కొల	-8112
▁మని	-8113
▁వరద	-8114
iplom	-8115
riage	-8116
చేసిన	-8117
యుక్త	-8118
ామిక్	-8119
ులుగా	-8120
▁Shah	-8121
▁mill	-8122
▁చర్య	-8123
▁తాత్	-8124
▁పాండ	-8125
▁స్పీ	-8126
హమ్మద్	-8127
హాన్ని	-8128
ించాలి	-8129
▁integ	-8130
▁nomin	-8131
▁woman	-8132
▁పరిశీ	-8133
▁పార్వ	-8134
▁మొదలై	-8135
cluding	-8136
igation	-8137
ophical	-8138
బడ్డాడు	-8139
▁conver	-8140
▁divers	-8141
▁streng	-8142
▁threat	-8143
▁కార్పొ	-8144
▁సమాచార	-8145
▁స్వర్ణ	-8146
▁despite	-8147
▁initial	-8148
▁ఎనిమిది	-8149
▁ఫలితంగా	-8150
▁internal	-8151
▁question	-8152
▁చిత్తూరు	-8153
▁శ్రీకాకు	-8154
▁సుబ్రహ్మ	-8155
▁కళాకారుడు	-8156
▁previously	-8157
▁ప్రకటించింది	-8158
▁ప్రారంభించాడు	-8159
):	-8160
32	-8161
41	-8162
56	-8163
షే	-8164
▁*	-8165
ada	-8166
ంగం	-8167
చేత	-8168
తకు	-8169
నామ	-8170
పైన	-8171
మణి	-8172
▁రథ	-8173
anks	-8174
book	-8175
with	-8176
ధానం	-8177
▁Bab	-8178
▁Byz	-8179
▁Off	-8180
▁Que	-8181
▁Ter	-8182
▁cou	-8183
▁బాధ	-8184
▁సమూ	-8185
acter	-8186
aters	-8187
ening	-8188
inate	-8189
urity	-8190
ంగ్లా	-8191
ంచారు	-8192
త్యాల	-8193
▁1900	-8194
▁1964	-8195
▁Andy	-8196
▁Gold	-8197
▁Hall	-8198
▁exam	-8199
▁move	-8200
▁quar	-8201
▁rang	-8202
▁మనకు	-8203
▁శబ్ద	-8204
రాత్రి	-8205
▁ASCII	-8206
▁Arama	-8207
▁Later	-8208
▁board	-8209
▁resid	-8210
▁ఉండటం	-8211
▁ద్వార	-8212
▁వివాద	-8213
▁వెలువ	-8214
▁Marple	-8215
▁Turkey	-8216
▁argued	-8217
▁courts	-8218
▁signed	-8219
▁speech	-8220
▁Richard	-8221
▁closely	-8222
▁తెలియజే	-8223
▁activity	-8224
▁branches	-8225
▁classical	-8226
▁materials	-8227
▁journalist	-8228
▁mathematics	-8229
VA	-8230
బొ	-8231
సల	-8232
ned	-8233
ora	-8234
సుల	-8235
ippi	-8236
మయిన	-8237
మాని	-8238
సింహ	-8239
▁Int	-8240
▁cry	-8241
▁etc	-8242
▁lab	-8243
▁nav	-8244
▁sac	-8245
▁మనో	-8246
▁మాస	-8247
▁హిం	-8248
phone	-8249
rogen	-8250
utive	-8251
ville	-8252
నున్న	-8253
▁2018	-8254
▁Farm	-8255
▁Gulf	-8256
▁dire	-8257
▁wind	-8258
▁కథలు	-8259
ణాన్ని	-8260
▁Frank	-8261
▁Texas	-8262
▁noted	-8263
▁prior	-8264
▁ఇంటర్	-8265
▁పరిగణ	-8266
▁వుంది	-8267
ించలేదు	-8268
▁abacus	-8269
▁museum	-8270
▁native	-8271
▁refers	-8272
▁slaves	-8273
▁ఆస్ట్ర	-8274
▁ఈశాన్య	-8275
▁నిఘంటు	-8276
▁నేపాల్	-8277
▁పెళ్ళి	-8278
▁మహర్షి	-8279
కున్నాయి	-8280
▁abandon	-8281
▁caesium	-8282
▁collect	-8283
▁edition	-8284
▁finally	-8285
▁whereas	-8286
▁చిత్రాల	-8287
▁స్వయంగా	-8288
▁ఉష్ణోగ్ర	-8289
▁authority	-8290
▁సంపాదకుడు	-8291
▁amphibians	-8292
▁ప్రాంతాల్లో	-8293
DP	-8294
In	-8295
ena	-8296
unc	-8297
val	-8298
గాయ	-8299
గోళ	-8300
మంత	-8301
వని	-8302
్రు	-8303
▁7.	-8304
▁75	-8305
▁iP	-8306
▁pp	-8307
▁దై	-8308
cest	-8309
head	-8310
కార్	-8311
ఖండ్	-8312
ల్లం	-8313
వాసం	-8314
ష్టా	-8315
▁400	-8316
▁అనీ	-8317
oring	-8318
ప్రీం	-8319
శక్తి	-8320
ారిగా	-8321
▁1995	-8322
▁cred	-8323
▁feed	-8324
▁తగిన	-8325
▁పట్ల	-8326
▁సదుప	-8327
▁Andre	-8328
▁Asian	-8329
▁notes	-8330
▁salam	-8331
▁share	-8332
▁takes	-8333
▁upper	-8334
▁అగ్ని	-8335
▁భాగవత	-8336
▁diplom	-8337
▁female	-8338
▁launch	-8339
▁planet	-8340
▁మందిరం	-8341
▁Aramaic	-8342
▁Several	-8343
▁జనాభాలో	-8344
▁పాత్రిక	-8345
▁మాట్లాడ	-8346
▁ఆలయానికి	-8347
▁appointed	-8348
▁existence	-8349
▁resources	-8350
▁కంప్యూటర్	-8351
▁screenwriter	-8352
▁జరుపుకుంటారు	-8353
LA	-8354
sec	-8355
war	-8356
కూడ	-8357
గము	-8358
డర్	-8359
తము	-8360
యము	-8361
విడ	-8362
ారో	-8363
ీతా	-8364
▁||	-8365
isms	-8366
more	-8367
such	-8368
క్రా	-8369
డియా	-8370
త్తర	-8371
భూషణ	-8372
రేబి	-8373
ర్రు	-8374
▁11,	-8375
▁Jul	-8376
▁Pet	-8377
▁Wil	-8378
▁jur	-8379
▁pun	-8380
▁seg	-8381
▁vir	-8382
▁కథా	-8383
▁వాయ	-8384
ellig	-8385
isher	-8386
పోవడం	-8387
లింపి	-8388
ించుట	-8389
ిల్లి	-8390
▁1978	-8391
▁1981	-8392
▁2021	-8393
▁Year	-8394
▁fert	-8395
▁unit	-8396
▁ఎమ్మ	-8397
▁కులీ	-8398
▁గోవి	-8399
▁వేణు	-8400
పాడులో	-8401
ఫ్రికా	-8402
▁corre	-8403
▁graph	-8404
▁incor	-8405
▁night	-8406
▁ఎంపిక	-8407
▁ఏర్పర	-8408
▁నియమి	-8409
▁నిల్వ	-8410
▁బుద్ధ	-8411
anguage	-8412
issions	-8413
▁compon	-8414
▁defend	-8415
▁forced	-8416
▁leader	-8417
▁moving	-8418
▁shared	-8419
ించవచ్చు	-8420
▁Derleth	-8421
▁nucleus	-8422
▁reduced	-8423
▁సుప్రీం	-8424
▁Articles	-8425
▁బ్రిటీష్	-8426
▁astronauts	-8427
▁కార్యక్రమం	-8428
▁విద్యుత్తు	-8429
▁చిత్రకారుడు	-8430
▁mathematical	-8431
Cl	-8432
ఖి	-8433
ucl	-8434
uge	-8435
use	-8436
పాక	-8437
▁Ev	-8438
▁భీ	-8439
టూరు	-8440
భాషా	-8441
ైంది	-8442
▁Ben	-8443
▁Eth	-8444
▁Sar	-8445
▁adm	-8446
▁తార	-8447
ండ్లు	-8448
కుంటు	-8449
ర్చుగ	-8450
▁1983	-8451
▁subs	-8452
▁పన్న	-8453
▁హేతు	-8454
anders	-8455
change	-8456
పోయారు	-8457
వారికి	-8458
▁2017,	-8459
▁Grant	-8460
▁Group	-8461
▁Organ	-8462
▁achie	-8463
▁gives	-8464
▁medic	-8465
▁అచ్యు	-8466
▁అత్తి	-8467
▁అయినా	-8468
▁ఉప్పు	-8469
▁ప్రశం	-8470
▁రద్దు	-8471
▁శ్రీమ	-8472
▁Second	-8473
▁degree	-8474
▁అనుసంధ	-8475
▁ఆలయాలు	-8476
▁ఎగుమతి	-8477
▁ఒలింపి	-8478
▁దారితీ	-8479
▁ప్రాచు	-8480
▁Barbuda	-8481
▁factors	-8482
▁minutes	-8483
▁వచ్చాయి	-8484
▁Algerian	-8485
▁Columbia	-8486
▁electric	-8487
▁occurred	-8488
▁possibly	-8489
▁నాగార్జున	-8490
▁రాధాకృష్ణ	-8491
▁containing	-8492
▁territories	-8493
▁ప్రత్యేకంగా	-8494
,,	-8495
ఢ్	-8496
").	-8497
rum	-8498
జన్	-8499
జావ	-8500
▁(2	-8501
▁ఖై	-8502
teen	-8503
టులు	-8504
త్తమ	-8505
బద్ధ	-8506
ులతో	-8507
▁(20	-8508
▁Ott	-8509
▁exc	-8510
▁mis	-8511
▁spl	-8512
▁und	-8513
▁ఆగ్	-8514
▁పల్	-8515
▁స్న	-8516
aling	-8517
ikido	-8518
ంబాయి	-8519
స్టర్	-8520
▁Cult	-8521
▁fran	-8522
▁impl	-8523
▁myth	-8524
▁salt	-8525
▁stay	-8526
▁కనుమ	-8527
▁కర్మ	-8528
▁కలిగ	-8529
▁గెలు	-8530
▁రూపు	-8531
▁శైలి	-8532
ceeded	-8533
స్థాపన	-8534
ానంతరం	-8535
▁Georg	-8536
▁sales	-8537
▁సమర్ప	-8538
▁Murder	-8539
▁branch	-8540
▁motion	-8541
▁mouthw	-8542
▁ఉంటారు	-8543
▁ఉద్యోగ	-8544
▁పదార్థ	-8545
▁భీమవరం	-8546
▁సార్లు	-8547
▁Angolan	-8548
▁Asparag	-8549
▁lithium	-8550
▁నల్గొండ	-8551
▁నివేదిక	-8552
▁ప్రకృతి	-8553
▁descript	-8554
▁location	-8555
▁చేసుకుని	-8556
▁రాజ్యాలు	-8557
▁dedicated	-8558
▁technique	-8559
▁సంవత్సరము	-8560
▁Confederacy	-8561
31	-8562
57	-8563
As	-8564
dd	-8565
akh	-8566
fin	-8567
yth	-8568
zil	-8569
గార	-8570
దండ	-8571
▁hy	-8572
▁op	-8573
adic	-8574
oric	-8575
time	-8576
ట్రో	-8577
న్నో	-8578
లేరు	-8579
ింగు	-8580
▁Rog	-8581
▁egg	-8582
▁hor	-8583
▁lif	-8584
▁కాం	-8585
▁దర్	-8586
▁మాల	-8587
ంలోనే	-8588
గోపాల	-8589
▁1965	-8590
▁1985	-8591
▁Jose	-8592
▁laws	-8593
▁snow	-8594
▁మ్యూ	-8595
▁వందల	-8596
▁సంపద	-8597
active	-8598
ించబడి	-8599
▁Prize	-8600
▁ఉద్భవ	-8601
▁తెల్ల	-8602
issippi	-8603
డయ్యాడు	-8604
శ్చాత్య	-8605
▁Anders	-8606
▁Berlin	-8607
▁bodies	-8608
▁marked	-8609
▁murder	-8610
▁slight	-8611
▁ఇచ్చిన	-8612
▁చెట్టు	-8613
▁యాత్రి	-8614
▁వ్యవహర	-8615
▁applied	-8616
▁growing	-8617
▁measure	-8618
▁quickly	-8619
▁ఒప్పందం	-8620
▁క్రింది	-8621
▁పిల్లలు	-8622
▁combined	-8623
▁expected	-8624
▁pressure	-8625
▁భక్తులకు	-8626
▁వాతావరణం	-8627
▁remaining	-8628
▁పాత్రికేయ	-8629
▁operations	-8630
▁recognized	-8631
▁రాష్ట్రంగా	-8632
▁Continental	-8633
▁professional	-8634
కథ	-8635
సమ	-8636
agh	-8637
ira	-8638
rol	-8639
తరం	-8640
▁డీ	-8641
▁బహ	-8642
izes	-8643
డిపి	-8644
ణ్యం	-8645
పట్ట	-8646
పాల్	-8647
పేరు	-8648
యార్	-8649
ులలో	-8650
▁120	-8651
▁Bar	-8652
▁Hel	-8653
▁అంజ	-8654
▁దాన	-8655
▁యతి	-8656
aches	-8657
allic	-8658
ports	-8659
వరంలో	-8660
▁1988	-8661
▁1997	-8662
▁Scot	-8663
▁date	-8664
▁face	-8665
▁అమరా	-8666
▁నౌకా	-8667
▁రక్ష	-8668
▁లేవు	-8669
ensity	-8670
inking	-8671
itable	-8672
▁Armen	-8673
▁pregn	-8674
▁బెంగు	-8675
▁ముంబై	-8676
పల్లిలో	-8677
▁financ	-8678
▁fourth	-8679
▁lawyer	-8680
▁spirit	-8681
▁దీన్ని	-8682
▁బంగ్లా	-8683
▁రామాయణ	-8684
▁స్కూల్	-8685
ologists	-8686
చున్నారు	-8687
▁article	-8688
▁కాబట్టి	-8689
▁పుస్తకం	-8690
▁Virginia	-8691
▁approach	-8692
▁examples	-8693
▁positive	-8694
▁ఉపాధ్యాయ	-8695
▁విజయనగరం	-8696
▁interpret	-8697
▁పరిస్థితి	-8698
▁identified	-8699
▁పట్టణానికి	-8700
▁భావిస్తారు	-8701
▁స్థాపించాడు	-8702
7%	-8703
74	-8704
20)	-8705
III	-8706
ady	-8707
lar	-8708
wan	-8709
గలు	-8710
గీత	-8711
డము	-8712
డ్జ	-8713
త్న	-8714
హిత	-8715
ారే	-8716
▁Of	-8717
▁రొ	-8718
axia	-8719
ixed	-8720
ulpt	-8721
ying	-8722
కుంట	-8723
వును	-8724
▁Bur	-8725
▁Don	-8726
▁Sal	-8727
▁fif	-8728
▁inn	-8729
▁voc	-8730
▁ఊరు	-8731
▁సంచ	-8732
elesc	-8733
ధిపతి	-8734
ీనామా	-8735
్యుడు	-8736
▁1973	-8737
▁1975	-8738
▁Cons	-8739
▁done	-8740
▁feel	-8741
▁risk	-8742
▁ఆధిప	-8743
▁కలసి	-8744
▁జ్యో	-8745
▁వారస	-8746
ifying	-8747
▁Human	-8748
▁brief	-8749
▁favor	-8750
▁money	-8751
▁neuro	-8752
▁అరేబి	-8753
▁ఎన్ను	-8754
▁మిత్ర	-8755
పడ్డాయి	-8756
▁Alfred	-8757
▁belong	-8758
▁కొడుకు	-8759
▁వృద్ధి	-8760
▁College	-8761
▁ability	-8762
▁changed	-8763
▁hundred	-8764
▁pattern	-8765
▁గుజరాత్	-8766
▁మెడికల్	-8767
▁లక్ష్మణ	-8768
▁citizens	-8769
▁continue	-8770
▁literary	-8771
▁రాజీనామా	-8772
▁ప్రాముఖ్యత	-8773
bl	-8774
wa	-8775
కన	-8776
ోట	-8777
▁x	-8778
కాక	-8779
యల్	-8780
▁3:	-8781
▁తం	-8782
anth	-8783
enth	-8784
hips	-8785
osen	-8786
బ్బి	-8787
▁Pre	-8788
▁Sam	-8789
▁ple	-8790
▁rub	-8791
▁ఊరే	-8792
▁గూడ	-8793
▁పడు	-8794
orage	-8795
▁Over	-8796
▁wall	-8797
▁ఉంటే	-8798
▁కాలి	-8799
▁కుడి	-8800
▁ద్రా	-8801
▁శిలా	-8802
▁స్వీ	-8803
ournik	-8804
unicip	-8805
దులుగా	-8806
▁blood	-8807
▁older	-8808
▁reven	-8809
▁rules	-8810
▁sever	-8811
▁yield	-8812
▁చెక్క	-8813
▁ప్రాణ	-8814
▁సేవలు	-8815
పెట్టిన	-8816
ప్రసాద్	-8817
▁County	-8818
▁beyond	-8819
▁ఉండాలి	-8820
▁వంటివి	-8821
▁వీరిలో	-8822
▁శాతవాహ	-8823
▁Kournik	-8824
▁entered	-8825
▁offered	-8826
▁reasons	-8827
▁recover	-8828
▁ఐదుగురు	-8829
▁పోర్చుగ	-8830
▁అనంతపురం	-8831
▁వస్తుంది	-8832
▁విశ్వనాథ	-8833
▁శ్రీశ్రీ	-8834
▁న్యాయవాది	-8835
▁పాశ్చాత్య	-8836
▁మండలంలోని	-8837
▁completely	-8838
▁scientists	-8839
▁వెంకటేశ్వర	-8840
▁application	-8841
▁స్థాపించారు	-8842
▁Austroasiatic	-8843
▁నిర్మించబడింది	-8844
34	-8845
దృ	-8846
ధన	-8847
can	-8848
uck	-8849
ంకి	-8850
లంక	-8851
▁58	-8852
aper	-8853
irds	-8854
దానం	-8855
న్సు	-8856
వాగు	-8857
వాహక	-8858
వీడు	-8859
వ్వు	-8860
▁12,	-8861
▁Not	-8862
▁జలా	-8863
▁ఫర్	-8864
obile	-8865
peror	-8866
ెస్ట్	-8867
▁Navy	-8868
▁isol	-8869
▁prep	-8870
▁ఆర్య	-8871
▁జనతా	-8872
▁రక్త	-8873
కునిగా	-8874
వంతంగా	-8875
▁2022:	-8876
▁brain	-8877
▁cinem	-8878
▁trial	-8879
▁vehic	-8880
▁ఎకరాల	-8881
▁ఎయిర్	-8882
▁గుర్ర	-8883
▁ఘనంగా	-8884
▁పనులు	-8885
▁రాక్ష	-8886
▁సుప్ర	-8887
rations	-8888
పడ్డారు	-8889
▁extrem	-8890
▁ranked	-8891
▁ఆర్ధిక	-8892
▁ఒకటిగా	-8893
▁Islands	-8894
▁Swedish	-8895
▁notable	-8896
▁portray	-8897
▁నరేంద్ర	-8898
▁Research	-8899
▁apparent	-8900
▁declared	-8901
▁చెప్పాడు	-8902
▁తుంగభద్ర	-8903
▁వర్షపాతం	-8904
▁increases	-8905
▁అత్యున్నత	-8906
▁controvers	-8907
▁determined	-8908
▁విమర్శకుడు	-8909
99	-8910
చా	-8911
షం	-8912
ైక	-8913
▁—	-8914
ody	-8915
కళా	-8916
▁:-	-8917
▁Hy	-8918
▁అణ	-8919
enes	-8920
from	-8921
phal	-8922
thur	-8923
ర్యం	-8924
సేన్	-8925
హెచ్	-8926
▁Add	-8927
▁Bro	-8928
▁Rad	-8929
▁Sel	-8930
▁tex	-8931
▁అదన	-8932
▁కలక	-8933
▁జవహ	-8934
▁రోద	-8935
▁హిమ	-8936
ateur	-8937
iment	-8938
water	-8939
ళ్ళలో	-8940
▁1966	-8941
▁agre	-8942
▁code	-8943
▁fire	-8944
▁nine	-8945
▁prem	-8946
▁ways	-8947
▁ఉత్ప	-8948
▁పాలి	-8949
▁వేడు	-8950
▁సమేత	-8951
anning	-8952
strong	-8953
urally	-8954
▁impos	-8955
▁movie	-8956
▁అస్సా	-8957
▁తంజావ	-8958
▁పత్తి	-8959
▁ప్రయో	-8960
▁వచ్చు	-8961
▁విప్ల	-8962
ించాలని	-8963
▁figure	-8964
▁simple	-8965
▁అనుబంధ	-8966
▁ప్రమాణ	-8967
కొన్నాడు	-8968
▁పత్రికా	-8969
▁విశిష్ట	-8970
ించేందుకు	-8971
▁creation	-8972
▁division	-8973
▁rejected	-8974
▁దూరంలోనూ	-8975
▁మాట్లాడు	-8976
▁శ్రీనివా	-8977
▁historian	-8978
▁intellect	-8979
▁Kournikova	-8980
▁సాహితీవేత్త	-8981
▁classification	-8982
ంస	-8983
ధ్	-8984
రప	-8985
irm	-8986
కంప	-8987
క్స	-8988
తామ	-8989
ెలు	-8990
ేణి	-8991
▁2:	-8992
▁చొ	-8993
▁హీ	-8994
amic	-8995
pose	-8996
కల్ప	-8997
క్కర	-8998
వచ్చ	-8999
▁160	-9000
▁Dis	-9001
▁Ill	-9002
▁Los	-9003
▁Tal	-9004
▁uns	-9005
▁అమర	-9006
▁గృహ	-9007
▁చైన	-9008
▁విడ	-9009
gebra	-9010
ంత్రం	-9011
త్సవం	-9012
ప్రతి	-9013
ప్రభు	-9014
బడులు	-9015
లింగం	-9016
ీయులు	-9017
▁1961	-9018
▁1972	-9019
▁1982	-9020
▁1984	-9021
▁Thus	-9022
▁qual	-9023
▁synt	-9024
▁told	-9025
▁verb	-9026
▁చెరు	-9027
▁త్రా	-9028
▁విభా	-9029
▁స్నే	-9030
నేషనల్	-9031
▁Books	-9032
▁compl	-9033
▁crops	-9034
▁slave	-9035
▁అనుకూ	-9036
▁ఆత్మక	-9037
▁ఆదాయం	-9038
▁ప్రేమ	-9039
ception	-9040
ictions	-9041
▁Napole	-9042
▁System	-9043
▁ancest	-9044
▁reserv	-9045
▁అందుకే	-9046
▁చైనాలో	-9047
▁దీనిలో	-9048
▁భక్తుల	-9049
▁భూభాగం	-9050
ographer	-9051
▁Further	-9052
▁federal	-9053
▁election	-9054
▁దర్శకులు	-9055
▁ప్రఖ్యాత	-9056
▁రోజుల్లో	-9057
▁సాధించిన	-9058
▁formation	-9059
▁standards	-9060
▁నిలిచింది	-9061
▁స్థాపకుడు	-9062
IS	-9063
ఫల	-9064
ఫా	-9065
▁fa	-9066
▁జం	-9067
vant	-9068
లాది	-9069
▁Ari	-9070
▁adj	-9071
▁ago	-9072
▁pra	-9073
▁reb	-9074
▁సూప	-9075
antly	-9076
ender	-9077
inces	-9078
ishop	-9079
otion	-9080
తులతో	-9081
ాత్మక	-9082
ామిడి	-9083
▁Anim	-9084
▁Herm	-9085
▁Spec	-9086
▁arts	-9087
▁iron	-9088
▁అంతా	-9089
▁ఆఫ్ఘ	-9090
▁ఇతడు	-9091
▁కురు	-9092
▁గాను	-9093
▁గాలి	-9094
▁గ్రీ	-9095
▁తనకు	-9096
▁యూరో	-9097
ipment	-9098
▁Hindu	-9099
▁Louis	-9100
▁Milne	-9101
▁White	-9102
▁games	-9103
▁mixed	-9104
▁moral	-9105
▁round	-9106
▁ఈనాడు	-9107
▁ఉపఖండ	-9108
▁రుద్ర	-9109
▁స్వంత	-9110
స్వామ్య	-9111
ించడంతో	-9112
▁Arthur	-9113
▁Joseph	-9114
▁hydrox	-9115
▁passed	-9116
▁దక్కన్	-9117
▁ప్రవహి	-9118
కారాన్ని	-9119
▁constit	-9120
▁counter	-9121
▁possess	-9122
▁workers	-9123
▁ఎన్నికల	-9124
▁నిర్వహణ	-9125
▁ప్రోత్స	-9126
▁రష్యాలో	-9127
▁రాజవంశం	-9128
▁వచ్చాడు	-9129
▁వీరభద్ర	-9130
▁సరస్వతీ	-9131
▁colonial	-9132
▁featured	-9133
▁magazine	-9134
▁క్షేత్రం	-9135
▁పరిపాలనా	-9136
▁మిలియన్ల	-9137
▁సుల్తాను	-9138
▁Armstrong	-9139
▁evolution	-9140
▁ప్రత్యేకత	-9141
▁ప్రదేశాలు	-9142
▁revolution	-9143
ణే	-9144
cks	-9145
మిత	-9146
రిత	-9147
వేయ	-9148
ైన్	-9149
–18	-9150
▁da	-9151
▁sn	-9152
▁అట	-9153
imum	-9154
itan	-9155
mosp	-9156
uter	-9157
దాని	-9158
మూర్	-9159
స్టి	-9160
ాలపై	-9161
▁Age	-9162
▁Edu	-9163
▁Rob	-9164
▁von	-9165
▁ఉంట	-9166
▁లండ	-9167
▁లకు	-9168
▁వలె	-9169
▁విం	-9170
▁సరో	-9171
acing	-9172
ంచిగా	-9173
పింది	-9174
ములకు	-9175
▁1942	-9176
▁2023	-9177
▁Jean	-9178
▁Zeus	-9179
▁noun	-9180
▁race	-9181
▁root	-9182
▁shot	-9183
▁skin	-9184
▁ఉంటు	-9185
▁చల్ల	-9186
▁జీవన	-9187
▁పారు	-9188
కుడిగా	-9189
కొల్లు	-9190
సార్లు	-9191
ాలయాలు	-9192
▁adult	-9193
▁avoid	-9194
▁exact	-9195
▁heavy	-9196
▁withd	-9197
▁అందరి	-9198
▁అవసరం	-9199
▁ఆశ్రమ	-9200
▁కరువు	-9201
▁కోరిక	-9202
▁తిరుమ	-9203
▁దివ్య	-9204
▁మలయాళ	-9205
▁మసీదు	-9206
▁మోడల్	-9207
▁సాయుధ	-9208
ologies	-9209
▁device	-9210
▁ethnic	-9211
▁instit	-9212
▁proced	-9213
▁showed	-9214
▁పుట్టి	-9215
▁ప్రాంగ	-9216
▁మధ్యలో	-9217
▁యోధుడు	-9218
▁వివాహం	-9219
▁వ్యాధి	-9220
▁comment	-9221
▁convent	-9222
▁elected	-9223
▁అన్నాడు	-9224
▁పట్టాభి	-9225
▁ప్రజలలో	-9226
▁ఉండేవారు	-9227
▁ఒక్కొక్క	-9228
▁కాశ్మీరు	-9229
▁పెట్టారు	-9230
▁సముద్రతీ	-9231
▁chemistry	-9232
▁discovery	-9233
▁interview	-9234
▁producing	-9235
▁officially	-9236
▁రంగారెడ్డి	-9237
▁immediately	-9238
-8	-9239
ka	-9240
జల	-9241
tee	-9242
▁ప్	-9243
atha	-9244
atre	-9245
గుడి	-9246
బ్రహ	-9247
ముని	-9248
ర్స్	-9249
▁Mer	-9250
▁Nor	-9251
▁Tod	-9252
▁కలె	-9253
force	-9254
ronic	-9255
usion	-9256
క్కిం	-9257
ామంది	-9258
ాలంటే	-9259
ీనంలో	-9260
▁Life	-9261
▁Prot	-9262
▁cycl	-9263
▁eyes	-9264
▁కాశీ	-9265
▁కీలక	-9266
▁గ్రా	-9267
▁చూసి	-9268
▁ఫుట్	-9269
enness	-9270
insula	-9271
ternet	-9272
చేవారు	-9273
ీకరణకు	-9274
▁2020,	-9275
▁తెరాస	-9276
▁నదికి	-9277
▁భూభాగ	-9278
▁మైదాన	-9279
▁విశాల	-9280
▁Hitler	-9281
▁Valley	-9282
▁defeat	-9283
▁fields	-9284
▁ఓడించి	-9285
▁కొనసాగ	-9286
▁మ్యూజి	-9287
entially	-9288
▁covered	-9289
▁opposed	-9290
▁అధికారం	-9291
▁గుమ్మడి	-9292
▁ప్రభావి	-9293
▁Anglican	-9294
▁composer	-9295
▁contract	-9296
▁extended	-9297
▁incorpor	-9298
▁Classical	-9299
▁varieties	-9300
▁equivalent	-9301
▁experiment	-9302
▁Azerbaijani	-9303
▁Mississippi	-9304
▁ప్రవేశపెట్ట	-9305
▁హైదరాబాదులో	-9306
▁organization	-9307
52	-9308
73	-9309
hm	-9310
rm	-9311
ూల	-9312
spe	-9313
పాట	-9314
యనం	-9315
▁హృ	-9316
asty	-9317
rael	-9318
yles	-9319
కోసం	-9320
గుండ	-9321
యాలు	-9322
ర్థి	-9323
▁14,	-9324
▁Pac	-9325
▁Sub	-9326
▁Tom	-9327
▁arc	-9328
▁fle	-9329
▁mom	-9330
▁nom	-9331
▁అలె	-9332
▁తాత	-9333
acity	-9334
కుంటూ	-9335
▁1967	-9336
▁Mark	-9337
▁That	-9338
▁imag	-9339
▁kept	-9340
▁mind	-9341
▁seem	-9342
▁ఆనంద	-9343
▁గారు	-9344
▁దొంగ	-9345
▁బడ్జ	-9346
▁బయలు	-9347
▁శర్మ	-9348
▁సింహ	-9349
▁Aster	-9350
▁compr	-9351
▁texts	-9352
▁urban	-9353
▁అనుభవ	-9354
▁అవతార	-9355
▁కర్నా	-9356
▁కుమార	-9357
▁భాషను	-9358
▁మనిషి	-9359
▁విభాగ	-9360
▁వైష్ణ	-9361
▁శాసనం	-9362
igenous	-9363
ించాడని	-9364
ేశ్వరాల	-9365
▁Brazil	-9366
▁agreed	-9367
▁attrib	-9368
▁awards	-9369
▁claims	-9370
▁physic	-9371
▁secret	-9372
▁అంగీకర	-9373
▁ఉన్నది	-9374
▁తొమ్మి	-9375
▁దశాబ్ద	-9376
▁ప్రైవే	-9377
▁వయస్సు	-9378
▁సంగీతం	-9379
▁Nations	-9380
▁adapted	-9381
▁organic	-9382
▁నాగరికత	-9383
▁indicate	-9384
▁regarded	-9385
▁software	-9386
▁పనిచేసిన	-9387
▁secondary	-9388
▁గణాంకాలను	-9389
▁communities	-9390
▁కేంద్రాల్లో	-9391
▁ప్రధానమంత్రిగా	-9392
'.	-9393
-6	-9394
EM	-9395
18)	-9396
wor	-9397
పల్	-9398
మవు	-9399
లని	-9400
▁Bu	-9401
▁Na	-9402
▁Tr	-9403
▁లూ	-9404
▁సల	-9405
aded	-9406
bean	-9407
icit	-9408
vert	-9409
గడ్డ	-9410
నాలి	-9411
సాయి	-9412
ానాయ	-9413
▁Mad	-9414
▁Top	-9415
▁cov	-9416
▁hit	-9417
▁htt	-9418
▁pie	-9419
▁som	-9420
▁చదర	-9421
▁దంప	-9422
▁రాచ	-9423
▁రేఖ	-9424
hetic	-9425
icial	-9426
టీఆర్	-9427
ెస్టు	-9428
▁1976	-9429
▁1996	-9430
▁More	-9431
▁cere	-9432
▁harm	-9433
▁కావు	-9434
▁ఖగోళ	-9435
▁స్థా	-9436
cluded	-9437
lywood	-9438
ప్రోలు	-9439
స్తులు	-9440
▁2008:	-9441
▁Carib	-9442
▁Proto	-9443
▁chief	-9444
▁comes	-9445
▁ఆవిర్	-9446
▁కవితా	-9447
రావుపేట	-9448
▁Berber	-9449
▁belief	-9450
▁depend	-9451
▁easily	-9452
▁giving	-9453
▁liquid	-9454
▁రంగంలో	-9455
▁రాముడు	-9456
izations	-9457
▁Angeles	-9458
▁digital	-9459
▁అండమాన్	-9460
▁ఫ్రెంచి	-9461
▁వ్యవహార	-9462
▁Independ	-9463
▁ceremony	-9464
▁negative	-9465
▁ఆకాశవాణి	-9466
▁గురించిన	-9467
▁జిల్లాను	-9468
▁వైశాల్యం	-9469
▁Australia	-9470
▁equipment	-9471
▁principle	-9472
▁చంద్రబాబు	-9473
▁ప్రత్యక్ష	-9474
▁పరిశోధకులు	-9475
▁applications	-9476
▁distribution	-9477
▁temperatures	-9478
▁philosophical	-9479
ఫు	-9480
షీ	-9481
——	-9482
isd	-9483
గుణ	-9484
పడే	-9485
విక	-9486
▁Up	-9487
chem	-9488
cule	-9489
ully	-9490
క్రో	-9491
నిగా	-9492
విగా	-9493
షేకం	-9494
హ్లా	-9495
▁588	-9496
▁Num	-9497
▁Osc	-9498
▁enj	-9499
▁suc	-9500
▁sun	-9501
▁unc	-9502
▁ఎవర	-9503
▁చిన	-9504
▁జరగ	-9505
▁తోట	-9506
▁పర్	-9507
▁మిన	-9508
cules	-9509
metic	-9510
ంకారం	-9511
ంగాలు	-9512
పాత్ర	-9513
యింట్	-9514
వలెను	-9515
సంస్థ	-9516
ానికీ	-9517
ిల్లా	-9518
▁1945	-9519
▁1986	-9520
▁1987	-9521
▁Carl	-9522
▁Sant	-9523
▁fast	-9524
▁pref	-9525
▁road	-9526
▁అంబే	-9527
▁అష్ట	-9528
▁కోరు	-9529
▁దాటి	-9530
▁యుగం	-9531
▁శరీర	-9532
formed	-9533
పోయాడు	-9534
▁Patri	-9535
▁reach	-9536
▁ships	-9537
▁ఆయనకు	-9538
▁తీర్మ	-9539
▁నెల్ల	-9540
▁పల్లె	-9541
related	-9542
▁Altaic	-9543
▁Korean	-9544
▁allows	-9545
▁atmosp	-9546
▁inside	-9547
▁orders	-9548
▁కాలేజీ	-9549
▁పర్యాట	-9550
▁వెలుగు	-9551
నిస్తాన్	-9552
▁Supreme	-9553
▁alcohol	-9554
▁content	-9555
▁respond	-9556
▁symbols	-9557
▁రామలింగ	-9558
▁describe	-9559
▁isotopes	-9560
▁చెబుతారు	-9561
▁దేశంలోని	-9562
▁ప్రస్తావ	-9563
▁మంత్రిగా	-9564
▁Egyptians	-9565
▁oxidation	-9566
▁బంగ్లాదేశ్	-9567
▁రాజ్యాన్ని	-9568
▁alternative	-9569
▁చేసుకున్నాడు	-9570
▁పాత్రికేయుడు	-9571
▁significantly	-9572
▁తాడేపల్లిగూడెం	-9573
ati	-9574
ini	-9575
isf	-9576
pol	-9577
కుం	-9578
నటి	-9579
నను	-9580
వన్	-9581
్వర	-9582
▁పత	-9583
▁యి	-9584
back	-9585
దగిన	-9586
మంతా	-9587
రోపా	-9588
లిన్	-9589
ారిత	-9590
ాలనే	-9591
▁12:	-9592
▁170	-9593
▁Bay	-9594
▁Rel	-9595
▁అశో	-9596
▁ఎడమ	-9597
▁ధాన	-9598
▁శుభ	-9599
andid	-9600
idium	-9601
where	-9602
క్కిన	-9603
▁1937	-9604
▁Also	-9605
▁చండీ	-9606
▁నిడమ	-9607
▁బెల్	-9608
ampion	-9609
urches	-9610
స్థులు	-9611
▁absor	-9612
▁benef	-9613
▁color	-9614
▁conne	-9615
▁image	-9616
▁newsp	-9617
▁sites	-9618
▁tried	-9619
▁అంతకు	-9620
▁అన్నీ	-9621
▁కావ్య	-9622
▁కింగ్	-9623
▁Astero	-9624
▁ataxia	-9625
▁exists	-9626
▁jurisd	-9627
▁things	-9628
▁జీవితం	-9629
▁దుర్గా	-9630
▁పుస్తక	-9631
▁ప్రభావ	-9632
▁ప్రసాద	-9633
▁బిల్లు	-9634
▁awarded	-9635
▁context	-9636
▁leaving	-9637
▁painter	-9638
▁proport	-9639
▁reading	-9640
▁బిలియన్	-9641
▁బొంబాయి	-9642
▁మహారాజు	-9643
▁allowing	-9644
▁predomin	-9645
▁పునరుద్ధ	-9646
▁రచించాడు	-9647
▁విడుదలైన	-9648
▁Caribbean	-9649
▁abortions	-9650
▁condition	-9651
▁prominent	-9652
▁radiation	-9653
▁something	-9654
▁ఇస్లామిక్	-9655
▁నిష్పత్తి	-9656
▁frequently	-9657
▁శ్రీకాకుళం	-9658
▁తెలుస్తుంది	-9659
▁contemporary	-9660
▁concentration	-9661
98	-9662
Ch	-9663
ఖ్	-9664
lem	-9665
ంబా	-9666
చల్	-9667
యుగ	-9668
యైన	-9669
సలు	-9670
ినా	-9671
▁Bo	-9672
▁అహ	-9673
aped	-9674
ంపేట	-9675
క్సి	-9676
యంతి	-9677
▁176	-9678
▁Bas	-9679
▁Gre	-9680
▁Hor	-9681
▁Pan	-9682
▁big	-9683
▁bra	-9684
▁ఓడి	-9685
▁తెర	-9686
▁రఘు	-9687
▁స్క	-9688
ibert	-9689
inter	-9690
thing	-9691
దక్షి	-9692
న్యాస	-9693
వస్తు	-9694
ెండరు	-9695
▁1963	-9696
▁Mars	-9697
▁Oran	-9698
▁bank	-9699
▁rain	-9700
▁అహ్మ	-9701
▁పోతన	-9702
▁మాతృ	-9703
bridge	-9704
దేవుడు	-9705
▁Carol	-9706
▁Smith	-9707
▁alleg	-9708
▁green	-9709
▁ocean	-9710
▁scale	-9711
▁solid	-9712
▁జరిగి	-9713
▁తదితర	-9714
▁తీర్థ	-9715
▁దెబ్బ	-9716
▁పదాలు	-9717
▁భాషగా	-9718
▁Agatha	-9719
▁agnost	-9720
▁axioms	-9721
▁proved	-9722
▁target	-9723
▁wanted	-9724
▁అందుకు	-9725
▁ఎత్తైన	-9726
▁జ్యోతి	-9727
▁పురాణం	-9728
▁రూపాయల	-9729
▁విశేషం	-9730
▁సాఫ్ట్	-9731
ifically	-9732
▁Pacific	-9733
▁asphalt	-9734
▁ఆదివారం	-9735
▁కలకత్తా	-9736
▁సిక్కిం	-9737
▁medieval	-9738
▁తక్కువగా	-9739
▁నగరానికి	-9740
▁నియంత్రణ	-9741
▁పార్టీకి	-9742
▁వహించాడు	-9743
▁anarchist	-9744
▁necessary	-9745
▁బెంగుళూరు	-9746
▁Department	-9747
▁సీతారామరాజు	-9748
▁subsequently	-9749
En	-9750
PA	-9751
iy	-9752
థ్	-9753
azi	-9754
eto	-9755
oen	-9756
రిన	-9757
enty	-9758
inth	-9759
దోని	-9760
పోతే	-9761
శ్వర	-9762
▁Law	-9763
▁Sum	-9764
▁Sur	-9765
▁అభయ	-9766
▁కనక	-9767
▁గేయ	-9768
▁జాత	-9769
▁నర్	-9770
▁భేద	-9771
▁సేన	-9772
imens	-9773
itzer	-9774
పర్తి	-9775
▁Bill	-9776
▁Hung	-9777
▁Jobs	-9778
▁Land	-9779
▁Lord	-9780
▁cust	-9781
▁grew	-9782
▁ones	-9783
▁pair	-9784
▁poem	-9785
▁చిరు	-9786
▁జారీ	-9787
▁నేటి	-9788
▁పిలవ	-9789
▁ఫోర్	-9790
▁భర్త	-9791
▁శిథి	-9792
ansion	-9793
icture	-9794
▁Found	-9795
▁abund	-9796
▁honor	-9797
▁meant	-9798
▁tourn	-9799
▁అర్ధం	-9800
▁మెదక్	-9801
▁రాజమహ	-9802
▁వాస్త	-9803
▁సూపర్	-9804
▁archae	-9805
▁centre	-9806
▁deaths	-9807
▁factor	-9808
▁sculpt	-9809
▁simply	-9810
▁telesc	-9811
▁visual	-9812
▁అందమైన	-9813
▁గణపవరం	-9814
▁పోర్ట్	-9815
▁ప్రసార	-9816
▁ఫాల్కే	-9817
▁బిరుదు	-9818
▁మూర్తి	-9819
ించుకుని	-9820
ించుకొని	-9821
ేశ్వరుడు	-9822
▁algebra	-9823
▁critics	-9824
▁ప్లాంట్	-9825
▁విషయంలో	-9826
▁Napoleon	-9827
▁actually	-9828
▁ఒలింపిక్	-9829
▁బాధ్యతలు	-9830
▁abandoned	-9831
▁attention	-9832
▁elections	-9833
▁mentioned	-9834
▁హిందువులు	-9835
▁difference	-9836
▁ప్రాధాన్యత	-9837
▁సాహిత్యంలో	-9838
▁ఆర్థికవేత్త	-9839
▁philosophers	-9840
▁నిర్వహిస్తుంది	-9841
54	-9842
గమ	-9843
ani	-9844
edy	-9845
ింట	-9846
▁ఆప	-9847
▁ఘో	-9848
▁నడ	-9849
▁బ్	-9850
▁రజ	-9851
▁శో	-9852
▁హౌ	-9853
brew	-9854
iary	-9855
osph	-9856
rend	-9857
ికల్	-9858
్యాప	-9859
▁13,	-9860
▁15,	-9861
▁Ham	-9862
▁Sil	-9863
▁cam	-9864
▁cos	-9865
▁dro	-9866
▁fru	-9867
▁hot	-9868
▁max	-9869
▁nob	-9870
▁ఆయా	-9871
▁ఊరగ	-9872
▁పామ	-9873
arden	-9874
arius	-9875
embly	-9876
ఆంధ్ర	-9877
కొన్న	-9878
నటుడు	-9879
▁1953	-9880
▁Kent	-9881
▁Mont	-9882
▁cast	-9883
▁dead	-9884
▁diam	-9885
▁phen	-9886
▁poly	-9887
▁ఎల్ల	-9888
▁ఫార్	-9889
▁భావన	-9890
▁రూపా	-9891
▁లిమి	-9892
▁సభలో	-9893
▁సైటు	-9894
సాహెబ్	-9895
ించును	-9896
▁2009:	-9897
▁Irish	-9898
▁block	-9899
▁bring	-9900
▁heart	-9901
▁plays	-9902
▁revol	-9903
▁ఆదిల్	-9904
▁చదరపు	-9905
▁చేయని	-9906
▁చేరిన	-9907
▁సన్ని	-9908
▁సమితి	-9909
resents	-9910
గోరియన్	-9911
▁Secret	-9912
▁images	-9913
▁supply	-9914
▁useful	-9915
▁ఆకర్షణ	-9916
▁తపస్సు	-9917
▁నేర్చు	-9918
▁పంతులు	-9919
▁భాగంలో	-9920
▁figures	-9921
▁forming	-9922
▁జనసంఖ్య	-9923
▁ప్రచారం	-9924
▁altruism	-9925
▁experien	-9926
▁fighting	-9927
▁powerful	-9928
▁sequence	-9929
▁slightly	-9930
▁సినిమాలో	-9931
▁appellate	-9932
▁exception	-9933
▁సర్పంచిగా	-9934
▁resistance	-9935
▁subsequent	-9936
▁traditions	-9937
▁పోర్చుగీసు	-9938
▁experiments	-9939
▁కార్పొరేషన్	-9940
▁పుణ్యక్షేత్ర	-9941
53	-9942
దళ	-9943
aly	-9944
ees	-9945
onn	-9946
rat	-9947
గ్వ	-9948
వేల	-9949
హీన	-9950
ినే	-9951
▁37	-9952
▁42	-9953
▁7:	-9954
▁ఎవ	-9955
▁నమ	-9956
cium	-9957
emen	-9958
iled	-9959
mond	-9960
roph	-9961
ucky	-9962
గ్జా	-9963
తిరు	-9964
ద్రమ	-9965
నంలో	-9966
యందు	-9967
లియం	-9968
ల్చి	-9969
ష్టం	-9970
ానని	-9971
▁15:	-9972
▁Leg	-9973
▁bal	-9974
▁box	-9975
▁చని	-9976
▁జగి	-9977
▁సత్	-9978
గ్రహం	-9979
తుడైన	-9980
▁1939	-9981
▁1968	-9982
▁Four	-9983
▁Writ	-9984
▁చైతన	-9985
▁యజ్ఞ	-9986
▁రేటు	-9987
▁వీరా	-9988
▁సమ్మ	-9989
itness	-9990
డెన్సీ	-9991
నాయుడు	-9992
▁1985:	-9993
▁Arsen	-9994
▁paint	-9995
▁ఇచ్చి	-9996
▁ఇటీవల	-9997
▁గణనీయ	-9998
▁జవహర్	-9999
▁మల్లి	-10000
▁రకాలు	-10001
▁Greeks	-10002
▁Hebrew	-10003
▁helped	-10004
▁middle	-10005
▁sister	-10006
▁sought	-10007
▁toward	-10008
▁ఆసక్తి	-10009
▁ఒప్పంద	-10010
▁తెలుపు	-10011
▁వెళ్ళే	-10012
▁follows	-10013
▁meeting	-10014
▁municip	-10015
▁notably	-10016
▁planned	-10017
▁purpose	-10018
▁బ్రహ్మా	-10019
▁advanced	-10020
▁expanded	-10021
▁intended	-10022
▁suggests	-10023
▁అవుతోంది	-10024
▁ఉన్నట్లు	-10025
▁లిమిటెడ్	-10026
▁విష్ణువు	-10027
▁స్థాయిలో	-10028
▁హేతువాది	-10029
▁Byzantine	-10030
▁Mountains	-10031
▁extremely	-10032
▁కృష్ణానది	-10033
▁ప్రవహించి	-10034
▁ప్రస్తావన	-10035
▁alchemical	-10036
▁importance	-10037
▁represents	-10038
▁కలుస్తుంది	-10039
▁స్థాపించిన	-10040
po	-10041
equ	-10042
ety	-10043
olk	-10044
కలి	-10045
కాం	-10046
నాట	-10047
ఫర్	-10048
సమా	-10049
▁44	-10050
▁8:	-10051
▁Ep	-10052
▁దూ	-10053
▁ఫా	-10054
▁బస	-10055
eign	-10056
iner	-10057
mark	-10058
wise	-10059
కూర్	-10060
స్కర	-10061
ారుల	-10062
▁168	-10063
▁25:	-10064
▁600	-10065
▁Dou	-10066
▁Ger	-10067
▁Mel	-10068
▁పసు	-10069
erals	-10070
house	-10071
oting	-10072
కట్టు	-10073
కొత్త	-10074
టుంది	-10075
ించబడ	-10076
▁1949	-10077
▁Sans	-10078
▁dark	-10079
▁drug	-10080
▁room	-10081
▁winn	-10082
▁ఆళ్వ	-10083
▁పెంచ	-10084
▁బహుళ	-10085
▁వర్త	-10086
▁విను	-10087
▁షాహీ	-10088
కోవాలి	-10089
ద్వారా	-10090
ార్వాడ	-10091
▁Water	-10092
▁chain	-10093
▁extra	-10094
▁ఆదోని	-10095
▁ఐరోపా	-10096
▁క్షీణ	-10097
▁సత్యా	-10098
theless	-10099
▁powers	-10100
▁studio	-10101
▁ఇక్కడే	-10102
▁చక్కని	-10103
▁పోరాటం	-10104
▁మార్కా	-10105
▁forests	-10106
▁machine	-10107
▁neutral	-10108
▁unknown	-10109
▁అధికారి	-10110
▁ఆధారాలు	-10111
▁కాలక్రమ	-10112
▁కాలములో	-10113
▁పాలకులు	-10114
▁లభించిన	-10115
▁విస్తార	-10116
▁Agricult	-10117
▁collabor	-10118
▁engineer	-10119
▁external	-10120
▁requires	-10121
▁writings	-10122
▁ప్రజాదరణ	-10123
▁శాస్త్రం	-10124
▁శ్రీశైలం	-10125
▁Champions	-10126
▁currently	-10127
▁functions	-10128
▁implement	-10129
▁movements	-10130
▁processes	-10131
▁కార్యదర్శి	-10132
▁నరసరావుపేట	-10133
▁differences	-10134
▁గ్రెగోరియన్	-10135
▁ప్రాంతంలోని	-10136
8%	-10137
CA	-10138
గృ	-10139
.20	-10140
ait	-10141
cel	-10142
gar	-10143
ils	-10144
ken	-10145
oes	-10146
osh	-10147
ఎఫ్	-10148
నవి	-10149
మాట	-10150
వళి	-10151
ుడి	-10152
▁ec	-10153
▁ఆశ	-10154
▁బూ	-10155
abil	-10156
ahar	-10157
icon	-10158
leep	-10159
orus	-10160
ship	-10161
stad	-10162
టివ్	-10163
ణుకు	-10164
వేరు	-10165
శర్మ	-10166
▁Nic	-10167
▁Pop	-10168
▁aid	-10169
▁ens	-10170
▁ign	-10171
▁pig	-10172
▁tet	-10173
▁భగవ	-10174
achus	-10175
inois	-10176
organ	-10177
ర్మన్	-10178
్యంగా	-10179
▁1946	-10180
▁Fred	-10181
▁Mill	-10182
▁fuel	-10183
▁grav	-10184
▁repe	-10185
▁tail	-10186
▁vast	-10187
▁కీర్	-10188
▁దగ్గ	-10189
▁నేతృ	-10190
▁శంకు	-10191
తుందని	-10192
▁Among	-10193
▁Roger	-10194
▁encou	-10195
▁fully	-10196
▁lives	-10197
▁serve	-10198
▁shape	-10199
▁solar	-10200
▁strug	-10201
▁అక్కి	-10202
▁ఉందని	-10203
▁కర్మా	-10204
▁లండన్	-10205
లక్ష్మి	-10206
▁Marvel	-10207
▁effort	-10208
▁income	-10209
▁poetry	-10210
▁raised	-10211
▁reduce	-10212
▁tennis	-10213
▁చేతిలో	-10214
▁తెనాలి	-10215
▁వెంటనే	-10216
ennessee	-10217
overeign	-10218
▁Ottoman	-10219
▁anatomy	-10220
▁greatly	-10221
▁landing	-10222
▁protons	-10223
▁క్రీడలు	-10224
▁district	-10225
▁invasion	-10226
▁regional	-10227
▁strongly	-10228
▁క్రీస్తు	-10229
▁చాలామంది	-10230
▁తంజావూరు	-10231
▁ప్రైవేట్	-10232
▁సంతరించు	-10233
▁attempted	-10234
▁direction	-10235
▁ఐక్యరాజ్య	-10236
▁నిజామాబాదు	-10237
▁రాజమహేంద్ర	-10238
▁Afroasiatic	-10239
▁కిలోమీటర్లు	-10240
▁నిర్మించాడు	-10241
▁ప్రకటించారు	-10242
▁ప్రెసిడెన్సీ	-10243
▁environmental	-10244
69	-10245
SI	-10246
ii	-10247
sw	-10248
రక	-10249
-20	-10250
2).	-10251
cop	-10252
gle	-10253
rus	-10254
ంపి	-10255
లేష	-10256
▁6:	-10257
▁IS	-10258
▁Kn	-10259
▁Mr	-10260
▁ఇక	-10261
also	-10262
ceae	-10263
ella	-10264
itud	-10265
uble	-10266
నీటి	-10267
మూరు	-10268
య్యం	-10269
▁Lil	-10270
▁Mic	-10271
▁Tim	-10272
▁mob	-10273
▁గౌత	-10274
▁పేట	-10275
▁బస్	-10276
▁యాద	-10277
gress	-10278
iling	-10279
orter	-10280
pired	-10281
పాలిత	-10282
పూజలు	-10283
బ్రహీ	-10284
ింపజే	-10285
▁Each	-10286
▁Mong	-10287
▁Post	-10288
▁Rock	-10289
▁abol	-10290
▁link	-10291
▁ఆయుధ	-10292
▁ఆలోచ	-10293
▁వజ్ర	-10294
▁సప్త	-10295
▁సూచి	-10296
herent	-10297
ద్దీన్	-10298
పుల్స్	-10299
ేశ్వరి	-10300
▁1972:	-10301
▁Milit	-10302
▁Prime	-10303
▁Treat	-10304
▁argon	-10305
▁breed	-10306
▁enjoy	-10307
▁ఉడిపి	-10308
▁మరాఠా	-10309
oration	-10310
ospital	-10311
▁Israel	-10312
▁editor	-10313
▁poison	-10314
▁proton	-10315
▁revers	-10316
▁transm	-10317
▁ఇలాంటి	-10318
▁కళ్యాణ	-10319
▁జలపాతం	-10320
▁బీహార్	-10321
▁మామిడి	-10322
▁మామూలు	-10323
▁మైళ్ళు	-10324
▁మైసూర్	-10325
▁రాజవంశ	-10326
▁వాయవ్య	-10327
▁సెంటర్	-10328
త్యాన్ని	-10329
ాలయాన్ని	-10330
▁actions	-10331
▁address	-10332
▁amateur	-10333
▁arrived	-10334
▁failure	-10335
▁ordered	-10336
▁quality	-10337
▁removed	-10338
▁అలెగ్జా	-10339
▁ధార్వాడ	-10340
▁పద్యాలు	-10341
▁బడ్జెట్	-10342
▁ముందుగా	-10343
▁సరస్వతి	-10344
▁Festival	-10345
▁Illinois	-10346
▁creating	-10347
▁instance	-10348
▁progress	-10349
▁substant	-10350
▁కృష్ణుడు	-10351
▁క్రైస్తవ	-10352
▁నిడమర్రు	-10353
▁ప్రారంభం	-10354
▁భద్రాచలం	-10355
▁స్టేట్స్	-10356
▁Hollywood	-10357
▁Tennessee	-10358
▁computers	-10359
▁essential	-10360
▁provinces	-10361
▁సమీపంలోని	-10362
▁Technology	-10363
▁classified	-10364
▁ultimately	-10365
▁astronomers	-10366
▁responsible	-10367
▁increasingly	-10368
▁అధ్యక్షుడిగా	-10369
▁సామ్రాజ్యంలో	-10370
-3	-10371
ఠా	-10372
asp	-10373
itt	-10374
ona	-10375
opl	-10376
సార	-10377
▁Ox	-10378
▁ఇట	-10379
▁తై	-10380
▁దౌ	-10381
appe	-10382
comm	-10383
ocks	-10384
ture	-10385
కొను	-10386
జీవి	-10387
దాస్	-10388
ులైన	-10389
్వంచ	-10390
▁130	-10391
▁13:	-10392
▁Due	-10393
▁vac	-10394
▁కనీ	-10395
▁వహి	-10396
▁సదా	-10397
apter	-10398
claim	-10399
itage	-10400
orman	-10401
osing	-10402
లలోని	-10403
ెల్యే	-10404
▁(197	-10405
▁1955	-10406
▁1957	-10407
▁pure	-10408
▁tiss	-10409
▁ఎందు	-10410
▁క్రొ	-10411
▁దత్త	-10412
▁నదుల	-10413
▁నిషే	-10414
▁బాబు	-10415
▁వసతి	-10416
▁సింగ	-10417
render	-10418
▁1962:	-10419
▁1990:	-10420
▁2012,	-10421
▁Const	-10422
▁Moses	-10423
▁advoc	-10424
▁fluor	-10425
▁suppl	-10426
▁చండీగ	-10427
▁దేశపు	-10428
▁పద్యం	-10429
▁సభ్యు	-10430
▁సహాయం	-10431
▁స్తంభ	-10432
ప్రస్తు	-10433
▁Direct	-10434
▁circum	-10435
▁patent	-10436
▁plague	-10437
▁wealth	-10438
▁ఉండును	-10439
▁ఉత్తరా	-10440
▁చేరాడు	-10441
▁పెట్టి	-10442
▁బాధ్యత	-10443
▁శివుడు	-10444
▁సమాఖ్య	-10445
క్షేత్రం	-10446
▁aspects	-10447
▁conserv	-10448
▁refused	-10449
▁వివరాలు	-10450
itzerland	-10451
▁cultures	-10452
▁employed	-10453
▁projects	-10454
▁ఇచ్చింది	-10455
▁ఉదాహరణకు	-10456
▁చేపట్టిన	-10457
▁నీటిపారు	-10458
▁buildings	-10459
▁expressed	-10460
▁molecules	-10461
▁అబ్దుల్లా	-10462
▁maintained	-10463
▁translated	-10464
▁విద్యార్థి	-10465
▁హెక్టారులు	-10466
▁individuals	-10467
▁తజికిస్థాన్	-10468
▁experimental	-10469
▁నిర్వహిస్తారు	-10470
-9	-10471
rd	-10472
నవ	-10473
మౌ	-10474
ips	-10475
్రో	-10476
▁9:	-10477
▁Fe	-10478
▁Ma	-10479
▁Rh	-10480
carb	-10481
iced	-10482
itis	-10483
reet	-10484
rupt	-10485
type	-10486
ద్వీ	-10487
య్యి	-10488
రాయి	-10489
ర్పు	-10490
లాల్	-10491
▁108	-10492
▁16,	-10493
▁19,	-10494
▁Pak	-10495
▁Ram	-10496
▁Rec	-10497
▁Saf	-10498
▁Sat	-10499
▁Van	-10500
▁dog	-10501
▁unp	-10502
▁అంట	-10503
▁చెం	-10504
▁వామ	-10505
పరమైన	-10506
పూర్వ	-10507
ెట్టి	-10508
▁1959	-10509
▁Burg	-10510
▁Coll	-10511
▁arms	-10512
▁felt	-10513
▁gods	-10514
▁gram	-10515
▁path	-10516
▁situ	-10517
▁అసలు	-10518
▁ఆధిక	-10519
▁తయార	-10520
▁పేజీ	-10521
▁రాయ్	-10522
▁వుండ	-10523
▁హిట్	-10524
చ్చాడు	-10525
ుండును	-10526
▁2022,	-10527
▁aardv	-10528
▁songs	-10529
▁split	-10530
▁usage	-10531
▁అలంకర	-10532
▁ఉన్నా	-10533
▁పరంగా	-10534
▁పుల్ల	-10535
▁మోక్ష	-10536
▁సార్వ	-10537
తుంటారు	-10538
ాలనుండి	-10539
▁Turkic	-10540
▁police	-10541
▁అవధాని	-10542
▁కొండలు	-10543
▁కోస్తా	-10544
▁దృష్టి	-10545
▁వెలసిన	-10546
▁వ్యాసం	-10547
▁సముదాయ	-10548
▁సరస్సు	-10549
atically	-10550
ోత్సవాలు	-10551
▁correct	-10552
▁isotope	-10553
▁scholar	-10554
▁winning	-10555
▁నటించిన	-10556
▁బంగాళాఖ	-10557
itionally	-10558
▁actinium	-10559
▁churches	-10560
▁modified	-10561
▁కాకతీయుల	-10562
▁కాలెండరు	-10563
▁గ్రంథాలయ	-10564
▁మార్పులు	-10565
▁మొదలైంది	-10566
▁surrender	-10567
▁దర్శకత్వం	-10568
▁adaptation	-10569
▁consisting	-10570
▁స్టిట్యూట్	-10571
▁combination	-10572
▁దర్శకత్వంలో	-10573
▁నిర్మాణానికి	-10574
At	-10575
4),	-10576
ola	-10577
ప్ల	-10578
బాల	-10579
లియ	-10580
ళువ	-10581
ెర్	-10582
▁Mu	-10583
▁ఆవ	-10584
▁ఫై	-10585
▁రస	-10586
▁వల	-10587
band	-10588
iana	-10589
resh	-10590
చిలీ	-10591
టిల్	-10592
యంతో	-10593
లూరి	-10594
▁11:	-10595
▁17:	-10596
▁181	-10597
▁Dur	-10598
▁Max	-10599
▁Out	-10600
▁mut	-10601
▁pil	-10602
▁ఇరు	-10603
▁కంద	-10604
▁దాత	-10605
▁పతా	-10606
▁పేద	-10607
iable	-10608
oples	-10609
రంగజే	-10610
▁Bern	-10611
▁Dist	-10612
▁Star	-10613
▁crim	-10614
▁lect	-10615
▁seek	-10616
▁walk	-10617
▁గద్వ	-10618
▁తుర్	-10619
▁స్వే	-10620
▁హత్య	-10621
గాలుగా	-10622
గుణంగా	-10623
ించెను	-10624
▁1965:	-10625
▁2016:	-10626
▁Aries	-10627
▁Music	-10628
▁prime	-10629
▁rough	-10630
▁speed	-10631
▁stone	-10632
▁కొబ్బ	-10633
▁దిగువ	-10634
▁మౌర్య	-10635
▁సంఘటన	-10636
▁Orwell	-10637
▁analog	-10638
▁rebell	-10639
▁saying	-10640
▁sector	-10641
▁square	-10642
▁tribes	-10643
▁ఆటగాడు	-10644
▁పంజాబ్	-10645
▁పరిణామ	-10646
▁బయలుదే	-10647
▁భగవంతు	-10648
▁యేడాది	-10649
▁రైతులు	-10650
▁శతాబ్ధ	-10651
▁Johnson	-10652
▁diverse	-10653
▁station	-10654
▁అత్తిలి	-10655
▁అల్లూరి	-10656
▁ప్రజలను	-10657
▁వెంకయ్య	-10658
▁వ్యవహరి	-10659
▁సామ్రాజ	-10660
▁సెయింట్	-10661
▁Austrian	-10662
▁Kentucky	-10663
▁Scottish	-10664
▁audience	-10665
▁phenomen	-10666
▁provides	-10667
▁starting	-10668
▁strength	-10669
▁ఒకప్పుడు	-10670
▁కళాశాలలో	-10671
▁కొంతమంది	-10672
▁పరిశోధనా	-10673
▁పేరొందిన	-10674
▁separated	-10675
▁sovereign	-10676
▁ఉష్ణోగ్రత	-10677
▁developing	-10678
▁sufficient	-10679
▁శంకుస్థాపన	-10680
▁Switzerland	-10681
▁నాగేశ్వరరావు	-10682
--	-10683
ID	-10684
ధర	-10685
య్	-10686
-18	-10687
4).	-10688
OVA	-10689
asc	-10690
oor	-10691
see	-10692
టము	-10693
పున	-10694
మగు	-10695
రోధ	-10696
వెం	-10697
హర్	-10698
▁),	-10699
▁34	-10700
▁43	-10701
▁5:	-10702
▁99	-10703
agen	-10704
amed	-10705
amin	-10706
aved	-10707
ctic	-10708
krit	-10709
చింత	-10710
ధ్యా	-10711
పోయే	-10712
రక్ష	-10713
▁Fin	-10714
▁Lyn	-10715
▁dra	-10716
▁gal	-10717
▁phr	-10718
▁డ్ర	-10719
▁ఫెడ	-10720
▁బీజ	-10721
▁బృహ	-10722
▁మాధ	-10723
▁లలి	-10724
allow	-10725
ronze	-10726
బర్ట్	-10727
ారిటీ	-10728
▁Chem	-10729
▁Jews	-10730
▁goal	-10731
▁weap	-10732
▁ఉచిత	-10733
▁ఏకైక	-10734
▁టంగు	-10735
▁నూనె	-10736
▁వయసు	-10737
▁సంగమ	-10738
▁సాయి	-10739
▁సీతా	-10740
▁సొంత	-10741
వేంద్ర	-10742
▁1973:	-10743
▁1987:	-10744
▁2009,	-10745
▁2018,	-10746
▁Fried	-10747
▁filmm	-10748
▁micro	-10749
▁rates	-10750
▁కోటను	-10751
▁పట్టి	-10752
▁విక్ర	-10753
▁శత్రు	-10754
▁శుక్ర	-10755
▁Edward	-10756
▁achiev	-10757
▁prison	-10758
▁sexual	-10759
▁ఇబ్రహీ	-10760
▁ఇస్లాం	-10761
▁ఉద్దేశ	-10762
▁దేశంగా	-10763
▁దేశాయ్	-10764
▁పారుదల	-10765
▁పిల్లల	-10766
▁ప్రక్క	-10767
▁సృష్టి	-10768
lections	-10769
▁causing	-10770
▁freedom	-10771
▁manager	-10772
▁overall	-10773
▁receive	-10774
▁section	-10775
▁అధ్యయనం	-10776
▁ఆస్ట్రే	-10777
▁కర్నాటక	-10778
▁చేయబడిన	-10779
▁ప్రతిని	-10780
▁వారసత్వ	-10781
▁శ్రీలంక	-10782
▁సమాచారం	-10783
▁articles	-10784
▁colonies	-10785
▁medicine	-10786
▁metallic	-10787
▁programs	-10788
▁variable	-10789
▁నికోబార్	-10790
వ్యాప్తంగా	-10791
▁connected	-10792
▁organized	-10793
▁reactions	-10794
▁reference	-10795
▁ఎమ్మెల్యే	-10796
▁జరుగుతాయి	-10797
▁రాజస్థాన్	-10798
▁విగ్రహాలు	-10799
▁వినాయకుని	-10800
▁Democratic	-10801
▁mathematic	-10802
▁కొత్తగూడెం	-10803
▁పిలిచేవారు	-10804
▁విద్యావేత్త	-10805
▁విస్తరించింది	-10806
62	-10807
Ar	-10808
bo	-10809
దె	-10810
7).	-10811
మరణ	-10812
లాస	-10813
స్స	-10814
ాంశ	-10815
▁64	-10816
▁Bi	-10817
▁LM	-10818
▁గడ	-10819
▁టే	-10820
▁హొ	-10821
agle	-10822
fall	-10823
hire	-10824
iate	-10825
omic	-10826
ట్లే	-10827
ఫిక్	-10828
భాషణ	-10829
వర్శ	-10830
వుడ్	-10831
ుడైన	-10832
▁20,	-10833
▁24:	-10834
▁250	-10835
▁Pen	-10836
▁Ray	-10837
▁Web	-10838
▁కోర	-10839
▁యుగ	-10840
▁శతక	-10841
acrit	-10842
ellow	-10843
produ	-10844
ంచాడు	-10845
సింగ్	-10846
▁1993	-10847
▁Alum	-10848
▁Even	-10849
▁Hell	-10850
▁Late	-10851
▁feat	-10852
▁stra	-10853
▁wild	-10854
▁ఆరోప	-10855
▁గార్	-10856
▁గోరు	-10857
▁చిలక	-10858
▁నెట్	-10859
▁పవర్	-10860
▁ఫ్యా	-10861
▁బీజా	-10862
▁భాషల	-10863
▁మహాన	-10864
▁స్పె	-10865
iaceae	-10866
omical	-10867
rative	-10868
లాన్ని	-10869
విష్ణు	-10870
▁2010,	-10871
▁2011,	-10872
▁2013,	-10873
▁Phoen	-10874
▁Super	-10875
▁alone	-10876
▁plans	-10877
▁roots	-10878
▁sport	-10879
▁voice	-10880
▁కట్టు	-10881
▁తణుకు	-10882
▁దీక్ష	-10883
▁బలహీన	-10884
▁మెంట్	-10885
▁విభజన	-10886
▁వేదిక	-10887
▁స్మార	-10888
కున్నది	-10889
చేసింది	-10890
▁Jewish	-10891
▁census	-10892
▁flower	-10893
▁houses	-10894
▁online	-10895
▁unique	-10896
▁ఔరంగజే	-10897
▁చివరకు	-10898
▁శివుని	-10899
స్తుందని	-10900
▁musical	-10901
▁perhaps	-10902
▁physics	-10903
▁pronunc	-10904
▁quantum	-10905
▁singles	-10906
▁అడుగులు	-10907
▁అమరావతి	-10908
▁గవర్నరు	-10909
▁గాయత్రి	-10910
▁నక్షత్ర	-10911
▁బెంగాలీ	-10912
▁రాజ్యసభ	-10913
గ్రహాన్ని	-10914
▁behavior	-10915
▁category	-10916
▁inspired	-10917
▁obtained	-10918
▁periodic	-10919
▁versions	-10920
▁పరిషత్తు	-10921
▁Cambridge	-10922
▁Southeast	-10923
▁conducted	-10924
▁statement	-10925
▁thousands	-10926
▁అమ్మవారికి	-10927
▁దాదాసాహెబ్	-10928
▁పరిశోధకుడు	-10929
▁సుబ్రహ్మణ్య	-10930
▁institutions	-10931
▁introduction	-10932
▁understanding	-10933
▁పురస్కారాన్ని	-10934
▁లక్ష్మీనరసింహ	-10935
ేశ్వరస్వామివారి	-10936
▁characteristic	-10937
-7	-10938
AR	-10939
St	-10940
ాహ	-10941
add	-10942
bur	-10943
nce	-10944
దాన	-10945
మర్	-10946
▁55	-10947
▁So	-10948
▁Ur	-10949
▁fr	-10950
▁అగ	-10951
▁పృ	-10952
amma	-10953
ners	-10954
onia	-10955
క్లి	-10956
ట్రి	-10957
దుంప	-10958
దుర్	-10959
నంగా	-10960
మ్మా	-10961
య్యే	-10962
ర్షణ	-10963
ామని	-10964
ారాం	-10965
▁Bak	-10966
▁Cup	-10967
▁Kor	-10968
▁Les	-10969
▁Mes	-10970
▁aqu	-10971
▁hol	-10972
▁nor	-10973
▁అటు	-10974
▁అసో	-10975
▁గిం	-10976
▁రాక	-10977
▁వంక	-10978
▁వేశ	-10979
▁హవే	-10980
akers	-10981
iders	-10982
pread	-10983
ropri	-10984
stery	-10985
కరమైన	-10986
కులలో	-10987
▁Serv	-10988
▁Time	-10989
▁bomb	-10990
▁cogn	-10991
▁eggs	-10992
▁flat	-10993
▁heat	-10994
▁rich	-10995
▁virt	-10996
▁కర్త	-10997
▁కారా	-10998
▁జమ్మ	-10999
▁తరలి	-11000
▁పేర్	-11001
▁బాగు	-11002
▁రంగా	-11003
▁సంకీ	-11004
క్కులు	-11005
ధ్యక్ష	-11006
▁1960:	-11007
▁1984:	-11008
▁Child	-11009
▁Delph	-11010
▁Queen	-11011
▁alter	-11012
▁displ	-11013
▁leave	-11014
▁salts	-11015
▁sympt	-11016
▁అప్పు	-11017
▁అరణ్య	-11018
▁కట్టడ	-11019
▁కలామ్	-11020
▁కొండల	-11021
▁గుండె	-11022
▁పన్ను	-11023
▁బాలిక	-11024
▁మచిలీ	-11025
▁ముందే	-11026
▁ముప్ప	-11027
▁వేత్త	-11028
uration	-11029
ింపబడిన	-11030
▁Alpine	-11031
▁Health	-11032
▁Mexico	-11033
▁church	-11034
▁volume	-11035
▁అతనిని	-11036
▁నాయకుల	-11037
▁మహిళలు	-11038
ithmetic	-11039
ేశ్వరుని	-11040
▁believe	-11041
▁capture	-11042
▁deliver	-11043
▁settled	-11044
▁కవిత్వం	-11045
▁చేరింది	-11046
▁విద్యను	-11047
▁స్వేచ్ఛ	-11048
including	-11049
▁Pakistan	-11050
▁animated	-11051
▁deposits	-11052
▁intellig	-11053
▁investig	-11054
▁తీసుకొని	-11055
▁పీపుల్స్	-11056
▁రాజ్యంలో	-11057
▁depending	-11058
▁detective	-11059
▁extensive	-11060
▁practical	-11061
▁టెలివిజన్	-11062
▁పనిచేసాడు	-11063
▁మంత్రివర్	-11064
▁electrical	-11065
▁కొనసాగింది	-11066
▁గోపాలకృష్ణ	-11067
▁నీటిపారుదల	-11068
▁experienced	-11069
▁surrounding	-11070
▁అభివృద్ధికి	-11071
▁ఉద్యమకారుడు	-11072
▁Independence	-11073
▁concentrated	-11074
▁ఎన్నికయ్యాడు	-11075
▁కార్యక్రమంలో	-11076
.(	-11077
ni	-11078
ns	-11079
zy	-11080
థా	-11081
100	-11082
2),	-11083
pet	-11084
ube	-11085
కూర	-11086
జాడ	-11087
నాగ	-11088
రాహ	-11089
వలె	-11090
▁Om	-11091
▁రహ	-11092
cles	-11093
itar	-11094
ords	-11095
ters	-11096
ందరో	-11097
కన్న	-11098
టిన్	-11099
నుని	-11100
రార్	-11101
▁30:	-11102
▁GDP	-11103
▁hop	-11104
▁ఇతి	-11105
▁ఇను	-11106
▁సోష	-11107
ancip	-11108
ipped	-11109
ortun	-11110
uting	-11111
కాలలో	-11112
కుడైన	-11113
▁1954	-11114
▁1958	-11115
▁Bank	-11116
▁Sher	-11117
▁here	-11118
▁అంటూ	-11119
▁కొంక	-11120
▁చివర	-11121
▁చూపు	-11122
▁బృంద	-11123
▁మాల్	-11124
▁మును	-11125
▁వన్య	-11126
జ్ఞుడు	-11127
పెట్టి	-11128
ష్టమైన	-11129
▁1986:	-11130
▁Peace	-11131
▁essay	-11132
▁fixed	-11133
▁grand	-11134
▁logic	-11135
▁overl	-11136
▁ఎదురు	-11137
▁గుట్ట	-11138
▁నిండి	-11139
▁వర్షా	-11140
▁సంజీవ	-11141
amation	-11142
amental	-11143
▁Sweden	-11144
▁borrow	-11145
▁exclus	-11146
▁precip	-11147
▁taught	-11148
▁therap	-11149
▁waters	-11150
▁అస్సాం	-11151
▁ప్రమాద	-11152
▁ప్రెస్	-11153
▁మందికి	-11154
▁Studies	-11155
▁challen	-11156
▁heavily	-11157
▁అరేబియా	-11158
▁కావలసిన	-11159
▁దగ్గరలో	-11160
▁నందమూరి	-11161
▁పాల్వంచ	-11162
idespread	-11163
▁affected	-11164
▁argument	-11165
▁marriage	-11166
▁prepared	-11167
▁revealed	-11168
▁ఎన్నికలు	-11169
▁కార్యకలా	-11170
▁కాలానికి	-11171
▁కాశ్మీర్	-11172
▁మార్చారు	-11173
▁వైద్యులు	-11174
▁సినిమాలు	-11175
▁Andersson	-11176
▁financial	-11177
▁practices	-11178
▁situation	-11179
▁telephone	-11180
▁అక్కినేని	-11181
▁అధికారులు	-11182
▁రాష్ట్రకూ	-11183
▁commission	-11184
▁ప్రాంతాలకు	-11185
▁Asparagales	-11186
▁composition	-11187
▁contributed	-11188
▁విద్వాంసుడు	-11189
▁specifically	-11190
▁స్వీకరించాడు	-11191
▁ప్రభుత్వానికి	-11192
TO	-11193
గె	-11194
ఱ్	-11195
ళన	-11196
శర	-11197
.),	-11198
cts	-11199
ikh	-11200
irl	-11201
isp	-11202
itz	-11203
కండ	-11204
డియ	-11205
వేద	-11206
సంగ	-11207
ీవ్	-11208
ువు	-11209
▁46	-11210
▁52	-11211
▁Go	-11212
▁ZF	-11213
▁ధన	-11214
cies	-11215
hess	-11216
iful	-11217
know	-11218
గాంధ	-11219
ర్చ్	-11220
లాడు	-11221
్యుల	-11222
▁Mir	-11223
▁Nat	-11224
▁Ulv	-11225
▁dut	-11226
▁mig	-11227
▁నంబ	-11228
▁బండ	-11229
▁బర్	-11230
▁రవి	-11231
▁వంత	-11232
▁వివ	-11233
ethyl	-11234
irmed	-11235
olith	-11236
oston	-11237
కిత్స	-11238
డింది	-11239
ద్కర్	-11240
నుంచి	-11241
్వస్థ	-11242
▁1929	-11243
▁Educ	-11244
▁Flor	-11245
▁Form	-11246
▁Jeff	-11247
▁Lake	-11248
▁Tour	-11249
▁ball	-11250
▁dang	-11251
▁epis	-11252
▁mort	-11253
▁plot	-11254
▁subt	-11255
▁అటవీ	-11256
▁కప్ప	-11257
▁కూచి	-11258
▁చోటు	-11259
▁పారా	-11260
▁వేసి	-11261
▁సమయం	-11262
▁స్వర	-11263
.2016)	-11264
ounded	-11265
reland	-11266
దేశంలో	-11267
న్నిస్	-11268
సంస్కృ	-11269
▁1955:	-11270
▁1956:	-11271
▁1975:	-11272
▁2010:	-11273
▁2021,	-11274
▁Argon	-11275
▁Ariet	-11276
▁Kabul	-11277
▁Produ	-11278
▁agent	-11279
▁dates	-11280
▁going	-11281
▁morph	-11282
▁quite	-11283
▁rural	-11284
▁shell	-11285
▁toxic	-11286
▁truth	-11287
▁veget	-11288
▁అల్లు	-11289
▁ఎత్తి	-11290
▁ఒడిషా	-11291
▁చెంది	-11292
▁నిషేధ	-11293
▁ప్రియ	-11294
▁వదిలి	-11295
atively	-11296
య్యింది	-11297
▁Aldrin	-11298
▁Anarch	-11299
▁affect	-11300
▁candid	-11301
▁geomet	-11302
▁medium	-11303
▁memory	-11304
▁spring	-11305
▁suffix	-11306
▁అడవులు	-11307
▁కాలేజి	-11308
▁చూస్తే	-11309
▁దాన్ని	-11310
▁దేవుడు	-11311
▁పద్ధతి	-11312
▁పెరిగి	-11313
▁విభాగం	-11314
▁స్థితి	-11315
........	-11316
▁Austria	-11317
▁heavier	-11318
▁nervous	-11319
▁rapidly	-11320
▁village	-11321
▁అవసరమైన	-11322
▁కుటుంబం	-11323
▁పరీవాహక	-11324
▁వచ్చారు	-11325
ింపబడింది	-11326
▁artistic	-11327
▁chloride	-11328
▁constant	-11329
▁reducing	-11330
▁పశ్చిమాన	-11331
▁మరణించిన	-11332
▁ambiguity	-11333
▁assistive	-11334
▁collected	-11335
▁commander	-11336
▁expansion	-11337
▁operating	-11338
▁reduction	-11339
▁చేరుకుంది	-11340
▁ప్రోగ్రామ	-11341
▁manufactur	-11342
▁publication	-11343
▁అవతరించింది	-11344
▁Revolutionary	-11345
▁characterized	-11346
▁corresponding	-11347
▁traditionally	-11348
▁పంపిస్తున్నారు	-11349
▁ప్రారంభించింది	-11350
▁characteristics	-11351
OS	-11352
Th	-11353
oo	-11354
గీ	-11355
వణ	-11356
1),	-11357
hyd	-11358
ioc	-11359
osa	-11360
ura	-11361
డ్ల	-11362
బోధ	-11363
ఱ్ఱ	-11364
లక్	-11365
సాధ	-11366
▁41	-11367
▁47	-11368
▁78	-11369
▁Jo	-11370
▁Ke	-11371
▁Ly	-11372
▁Tw	-11373
▁ut	-11374
▁మద	-11375
lers	-11376
olis	-11377
onym	-11378
ంకార	-11379
కరణం	-11380
గంటి	-11381
చక్ర	-11382
జాద్	-11383
ట్టం	-11384
డ్స్	-11385
నూరు	-11386
స్తీ	-11387
ినేత	-11388
▁175	-11389
▁22:	-11390
▁23:	-11391
▁Fer	-11392
▁Tag	-11393
▁Ven	-11394
▁aer	-11395
▁bul	-11396
▁నలు	-11397
▁మరల	-11398
allel	-11399
andom	-11400
cious	-11401
class	-11402
ewhat	-11403
itted	-11404
umber	-11405
ందేడ్	-11406
కల్లు	-11407
్యంలో	-11408
▁Cush	-11409
▁Fact	-11410
▁Only	-11411
▁Prov	-11412
▁cool	-11413
▁deal	-11414
▁rein	-11415
▁ఎవరి	-11416
▁గెలి	-11417
▁పతనం	-11418
▁భువన	-11419
▁మధుర	-11420
▁మీర్	-11421
▁రాణి	-11422
▁వాయి	-11423
▁సామం	-11424
చ్చారు	-11425
ేశ్వరం	-11426
ేశ్వర్	-11427
▁1939:	-11428
▁1945:	-11429
▁2011:	-11430
▁Times	-11431
▁daily	-11432
▁ideal	-11433
▁playw	-11434
▁rival	-11435
▁అందజే	-11436
▁అడ్డు	-11437
▁ఇన్స్	-11438
▁కొల్ల	-11439
▁నవాబు	-11440
▁పంటలు	-11441
▁భూకంప	-11442
▁రోదసీ	-11443
entions	-11444
ivation	-11445
western	-11446
బడ్డారు	-11447
▁Boston	-11448
▁actual	-11449
▁advent	-11450
▁advert	-11451
▁course	-11452
▁lowest	-11453
▁master	-11454
▁moment	-11455
▁perman	-11456
▁republ	-11457
▁stream	-11458
▁అధ్యాప	-11459
▁ప్రవాహ	-11460
▁బీహారు	-11461
▁బ్రౌన్	-11462
▁వరుసగా	-11463
▁విస్తృ	-11464
▁సదుపాయ	-11465
▁స్టేట్	-11466
▁స్వచ్ఛ	-11467
చారాన్ని	-11468
▁Ulvaeus	-11469
▁amounts	-11470
▁farming	-11471
▁forward	-11472
▁proceed	-11473
▁protect	-11474
▁quarter	-11475
▁బ్యాంక్	-11476
▁సీనియర్	-11477
ేశ్వరాలయం	-11478
▁Internet	-11479
▁invented	-11480
▁occupied	-11481
▁sciences	-11482
▁అయ్యింది	-11483
▁ఎందుకంటే	-11484
▁చెందినది	-11485
▁తీవ్రమైన	-11486
▁నగరాన్ని	-11487
▁వుంటుంది	-11488
▁వైఎస్ఆర్	-11489
▁హైకోర్టు	-11490
▁spiritual	-11491
▁ప్రధానమైన	-11492
▁controlled	-11493
▁hypothesis	-11494
▁principles	-11495
▁widespread	-11496
▁గ్రామంలోని	-11497
▁చాళుక్యులు	-11498
▁salamanders	-11499
▁ఆస్ట్రేలియా	-11500
▁observations	-11501
":	-11502
డె	-11503
మృ	-11504
hal	-11505
omm	-11506
tes	-11507
దూర	-11508
▁4:	-11509
▁68	-11510
▁Il	-11511
▁Sk	-11512
▁ly	-11513
▁కద	-11514
▁హర	-11515
.186	-11516
adel	-11517
ette	-11518
rows	-11519
wing	-11520
నిని	-11521
పాలన	-11522
యుగం	-11523
సాని	-11524
సిస్	-11525
హాన్	-11526
ాయణం	-11527
▁10:	-11528
▁18:	-11529
▁Dig	-11530
▁Exp	-11531
▁Loc	-11532
▁tom	-11533
▁ఇసు	-11534
▁ఎది	-11535
▁రకర	-11536
▁వాద	-11537
▁సుఖ	-11538
after	-11539
ategy	-11540
forms	-11541
కాలిక	-11542
క్ట్ర	-11543
ళ్ళకు	-11544
ెట్లు	-11545
▁Corn	-11546
▁Just	-11547
▁Khan	-11548
▁Samp	-11549
▁paid	-11550
▁perf	-11551
▁ఆరాధ	-11552
▁కమ్మ	-11553
▁కారం	-11554
▁గానీ	-11555
▁జర్న	-11556
▁తరచు	-11557
▁ప్రి	-11558
▁భక్త	-11559
▁మనుమ	-11560
▁విరా	-11561
aments	-11562
ceived	-11563
essage	-11564
దేవుని	-11565
▁Allen	-11566
▁Saint	-11567
▁holds	-11568
▁newly	-11569
▁purch	-11570
▁therm	-11571
▁visit	-11572
▁ఏనుగు	-11573
▁కల్పి	-11574
▁తగ్గు	-11575
▁తేదీన	-11576
▁యాత్ర	-11577
▁శతకము	-11578
వర్శిటీ	-11579
వ్యవస్థ	-11580
ాల్లోనూ	-11581
▁Engine	-11582
▁column	-11583
▁ending	-11584
▁ethics	-11585
▁fertil	-11586
▁gained	-11587
▁mental	-11588
▁priest	-11589
▁sample	-11590
▁కీర్తి	-11591
▁క్రితం	-11592
▁గద్వాల	-11593
▁గ్రంథం	-11594
▁చెప్పి	-11595
▁నిలిచి	-11596
▁పరిచయం	-11597
▁పోలీస్	-11598
▁మిల్లు	-11599
▁వరల్డ్	-11600
▁Between	-11601
▁Ireland	-11602
▁Through	-11603
▁coastal	-11604
▁treated	-11605
▁ఎత్తులో	-11606
▁ఎదురుగా	-11607
▁కొనసాగు	-11608
▁గాంధీజీ	-11609
▁డాలర్లు	-11610
▁పోటీలలో	-11611
▁మహమ్మద్	-11612
▁వెళ్ళిన	-11613
▁Governor	-11614
▁attempts	-11615
▁baseball	-11616
▁constell	-11617
▁exchange	-11618
▁governor	-11619
▁politics	-11620
▁recently	-11621
▁strategy	-11622
▁ఔరంగజేబు	-11623
▁కూచిపూడి	-11624
▁జ్ఞానపీఠ	-11625
▁తొమ్మిది	-11626
▁నెలకొల్ప	-11627
▁పాల్గొని	-11628
▁ప్రొద్దు	-11629
▁concerned	-11630
▁అభిప్రాయం	-11631
▁పనిచేశారు	-11632
▁పురావస్తు	-11633
▁రాజకీయనాయ	-11634
▁expression	-11635
▁businessman	-11636
▁description	-11637
▁influential	-11638
▁recognition	-11639
▁దారితీసింది	-11640
▁రాష్ట్రపతిగా	-11641
▁communication	-11642
▁సామ్రాజ్యానికి	-11643
▁సామ్రాజ్యాన్ని	-11644
Af	-11645
yg	-11646
భై	-11647
mat	-11648
oto	-11649
గతా	-11650
మను	-11651
రాం	-11652
ేరి	-11653
▁ఫో	-11654
▁భయ	-11655
agon	-11656
cycl	-11657
iban	-11658
icks	-11659
icts	-11660
inet	-11661
odox	-11662
క్రి	-11663
జాతి	-11664
న్లు	-11665
ప్రద	-11666
రంగం	-11667
▁27:	-11668
▁700	-11669
▁Bah	-11670
▁Cre	-11671
▁Def	-11672
▁Lew	-11673
▁You	-11674
▁dry	-11675
▁roy	-11676
▁అడ్	-11677
▁ఆలీ	-11678
▁కరు	-11679
▁తత్	-11680
▁ధ్య	-11681
▁నౌక	-11682
▁పాయ	-11683
▁మంద	-11684
▁శని	-11685
ashes	-11686
crete	-11687
eless	-11688
fully	-11689
inger	-11690
state	-11691
కుంటే	-11692
గాంధీ	-11693
▁1944	-11694
▁Arts	-11695
▁Viet	-11696
▁Wars	-11697
▁acts	-11698
▁blue	-11699
▁doct	-11700
▁else	-11701
▁onto	-11702
▁says	-11703
▁కథనం	-11704
▁దశలో	-11705
▁సేవల	-11706
▁హుస్	-11707
arters	-11708
called	-11709
క్ష్మి	-11710
సాపురం	-11711
▁1920:	-11712
▁1947:	-11713
▁1969:	-11714
▁2019,	-11715
▁ANOVA	-11716
▁Elect	-11717
▁Liter	-11718
▁Loyal	-11719
▁Swiss	-11720
▁adobe	-11721
▁begin	-11722
▁coach	-11723
▁cryst	-11724
▁fifth	-11725
▁shoot	-11726
▁simpl	-11727
▁ఆనాటి	-11728
▁ఇందిర	-11729
▁ఇచ్చే	-11730
▁ఈస్ట్	-11731
▁కాలనీ	-11732
▁తాళ్ళ	-11733
▁పలువు	-11734
▁యంత్ర	-11735
▁లోకసభ	-11736
▁శుద్ధ	-11737
▁సుల్త	-11738
▁హరిహర	-11739
igrants	-11740
uscript	-11741
ూరులోనూ	-11742
▁Chadic	-11743
▁cancer	-11744
▁copies	-11745
▁extent	-11746
▁neuron	-11747
▁prefix	-11748
▁silver	-11749
▁titles	-11750
▁ఒకసారి	-11751
▁కవిత్వ	-11752
▁దేశాలు	-11753
▁భూమిని	-11754
▁రాజీవ్	-11755
కొన్నారు	-11756
▁Sampras	-11757
▁advance	-11758
▁diacrit	-11759
▁improve	-11760
▁typical	-11761
▁అందువలన	-11762
▁అయ్యాయి	-11763
▁కొబ్బరి	-11764
▁పోతోంది	-11765
▁సంయుక్త	-11766
▁స్పీకర్	-11767
▁Sanskrit	-11768
▁concerns	-11769
▁exposure	-11770
▁identity	-11771
▁maintain	-11772
▁occasion	-11773
▁ఇక్కడికి	-11774
▁directors	-11775
▁disorders	-11776
▁featuring	-11777
▁municipal	-11778
▁ప్రవహించే	-11779
▁generation	-11780
▁pronounced	-11781
▁understood	-11782
▁Information	-11783
▁authorities	-11784
▁continental	-11785
▁populations	-11786
▁representing	-11787
▁వ్యవస్థాపకుడు	-11788
.[	-11789
AA	-11790
Is	-11791
అన	-11792
టె	-11793
యె	-11794
ేణ	-11795
1).	-11796
3).	-11797
ilk	-11798
ods	-11799
ంస్	-11800
మతం	-11801
లేయ	-11802
ామీ	-11803
▁69	-11804
▁Ol	-11805
▁ధో	-11806
▁షో	-11807
edia	-11808
elve	-11809
gart	-11810
path	-11811
కేశవ	-11812
మండల	-11813
రాని	-11814
సిటీ	-11815
▁140	-11816
▁14:	-11817
▁17,	-11818
▁20:	-11819
▁Aff	-11820
▁BBC	-11821
▁Pun	-11822
▁Sav	-11823
▁hus	-11824
▁అంబ	-11825
▁కేట	-11826
▁మన్	-11827
▁విన	-11828
▁విశ	-11829
aging	-11830
endar	-11831
isted	-11832
త్రేయ	-11833
నులకు	-11834
పురుష	-11835
మతులు	-11836
ములతో	-11837
శేఖర్	-11838
సమితి	-11839
ించటం	-11840
ొచ్చు	-11841
▁1928	-11842
▁Stat	-11843
▁frag	-11844
▁legs	-11845
▁pack	-11846
▁pros	-11847
▁tens	-11848
▁ఆహ్వ	-11849
▁టన్న	-11850
▁డెల్	-11851
▁నార్	-11852
▁పొడి	-11853
▁భాగవ	-11854
▁వాదన	-11855
▁విము	-11856
▁శివా	-11857
▁సంతో	-11858
itudes	-11859
▁1950:	-11860
▁2007:	-11861
▁About	-11862
▁Charl	-11863
▁Lewis	-11864
▁Three	-11865
▁drive	-11866
▁frogs	-11867
▁print	-11868
▁route	-11869
▁think	-11870
▁గతంలో	-11871
▁తమిళం	-11872
▁దేశీయ	-11873
▁పరిమి	-11874
▁పసుపు	-11875
▁పొంది	-11876
▁భిన్న	-11877
▁మున్న	-11878
▁శతదిన	-11879
▁శిష్య	-11880
▁సమకాల	-11881
unction	-11882
న్నింటి	-11883
▁League	-11884
▁aikido	-11885
▁argues	-11886
▁double	-11887
▁empire	-11888
▁fought	-11889
▁guitar	-11890
▁libert	-11891
▁search	-11892
▁ఆగ్నేయ	-11893
▁పరిశీల	-11894
▁పర్యవే	-11895
▁బాపట్ల	-11896
▁సభ్యుల	-11897
cription	-11898
ructions	-11899
▁Georgia	-11900
▁artific	-11901
▁conduct	-11902
▁evolved	-11903
▁granted	-11904
▁అరెస్టు	-11905
▁ఇచ్చాడు	-11906
▁ఉదయగిరి	-11907
▁పార్వతీ	-11908
▁పొందారు	-11909
▁రచయితలు	-11910
clamation	-11911
▁Cushitic	-11912
▁aardvark	-11913
▁diseases	-11914
▁symptoms	-11915
▁అవుతుంది	-11916
▁నాయకత్వం	-11917
▁బాలబడులు	-11918
▁మంగళగిరి	-11919
▁సంబంధాలు	-11920
రాష్ట్రపతి	-11921
▁alphabets	-11922
▁positions	-11923
▁substance	-11924
▁మహాసముద్ర	-11925
▁arithmetic	-11926
▁indigenous	-11927
▁opposition	-11928
▁నారాయణరావు	-11929
▁సైన్యాన్ని	-11930
▁fundamental	-11931
▁అధికారికంగా	-11932
▁కనిపిస్తాయి	-11933
▁ప్రత్యేకమైన	-11934
▁ప్రపంచంలోనే	-11935
▁రాష్ట్రాలలో	-11936
▁pronunciation	-11937
▁ప్రత్యేకపూజలు	-11938
IC	-11939
uz	-11940
3),	-11941
een	-11942
enz	-11943
uit	-11944
vis	-11945
web	-11946
yan	-11947
కొక	-11948
ఘ్న	-11949
నిజ	-11950
పరచ	-11951
భరణ	-11952
▁(3	-11953
▁థి	-11954
▁ఫల	-11955
▁మం	-11956
▁సద	-11957
apes	-11958
avel	-11959
etts	-11960
hold	-11961
isco	-11962
rier	-11963
కమైన	-11964
తాలు	-11965
రిని	-11966
సాహి	-11967
హారం	-11968
▁19:	-11969
▁21:	-11970
▁Gal	-11971
▁Inc	-11972
▁Mot	-11973
▁Mov	-11974
▁cho	-11975
▁sup	-11976
▁ఏకా	-11977
▁ఛంద	-11978
▁బలి	-11979
▁బహద	-11980
▁మేఘ	-11981
▁వేట	-11982
asket	-11983
ivals	-11984
ysics	-11985
కింగ్	-11986
శ్లేష	-11987
▁1921	-11988
▁1926	-11989
▁ADEM	-11990
▁Chic	-11991
▁Crit	-11992
▁Such	-11993
▁ఆశ్ర	-11994
▁కమలా	-11995
▁కమిష	-11996
▁కోటి	-11997
▁గ్రూ	-11998
▁జననం	-11999
▁జలాశ	-12000
▁తవ్వ	-12001
▁త్వర	-12002
▁పత్ర	-12003
▁పింగ	-12004
▁రత్న	-12005
▁రామ్	-12006
▁రుచి	-12007
▁వేదా	-12008
aneous	-12009
ighter	-12010
monton	-12011
విన్యూ	-12012
▁1931:	-12013
▁1936:	-12014
▁2006:	-12015
▁Major	-12016
▁auton	-12017
▁coord	-12018
▁exped	-12019
▁instr	-12020
▁twice	-12021
▁users	-12022
▁ఉండడం	-12023
▁తరగతి	-12024
▁పొన్న	-12025
▁వెల్ల	-12026
inction	-12027
ructure	-12028
ీనంలోకి	-12029
▁Before	-12030
▁Though	-12031
▁copper	-12032
▁issued	-12033
▁nearby	-12034
▁normal	-12035
▁rivers	-12036
▁styles	-12037
▁కొండపై	-12038
▁పెన్నా	-12039
▁ప్రొఫె	-12040
▁మైక్రో	-12041
▁వినాయక	-12042
iversary	-12043
piration	-12044
ర్య్వస్థ	-12045
హారెడ్డి	-12046
▁Develop	-12047
▁descent	-12048
▁focused	-12049
▁mixture	-12050
▁players	-12051
▁running	-12052
▁tourism	-12053
▁visited	-12054
▁ఎటువంటి	-12055
▁ద్వితీయ	-12056
▁ప్రయాణం	-12057
▁బ్రిటన్	-12058
▁ముందుకు	-12059
▁విప్లవం	-12060
achusetts	-12061
ictionary	-12062
▁Military	-12063
▁criminal	-12064
▁domestic	-12065
▁measures	-12066
▁neutrons	-12067
▁nitrogen	-12068
▁opportun	-12069
▁relative	-12070
▁కార్యాలయ	-12071
▁చెరువులు	-12072
▁రాజేంద్ర	-12073
▁రెవిన్యూ	-12074
▁సుమారుగా	-12075
ancipation	-12076
▁Asteroids	-12077
▁mouthwash	-12078
▁otherwise	-12079
▁principal	-12080
▁solutions	-12081
▁అప్పారావు	-12082
▁అమెరికాలో	-12083
▁సాధించాడు	-12084
▁Government	-12085
▁Parliament	-12086
▁consistent	-12087
▁management	-12088
▁protection	-12089
▁సుప్రసిద్ధ	-12090
▁ఇంటర్నేషనల్	-12091
▁నివసిస్తున్న	-12092
▁పాల్గొన్నారు	-12093
ించబడుతున్నాయి	-12094
61	-12095
?"	-12096
ధూ	-12097
భయ	-12098
హే	-12099
col	-12100
ois	-12101
oke	-12102
urt	-12103
జాత	-12104
నేత	-12105
మూల	-12106
ానై	-12107
▁(,	-12108
▁65	-12109
▁8.	-12110
▁ఊహ	-12111
▁ఏల	-12112
▁కవ	-12113
aria	-12114
ells	-12115
leum	-12116
umes	-12117
umin	-12118
జిత్	-12119
ద్ధం	-12120
మందు	-12121
షియా	-12122
▁118	-12123
▁16:	-12124
▁Cop	-12125
▁Vis	-12126
▁lat	-12127
▁ఆరవ	-12128
▁ఉస్	-12129
▁ఎఫ్	-12130
▁కోడ	-12131
▁గాన	-12132
▁గోప	-12133
▁తీయ	-12134
▁తుల	-12135
anium	-12136
inity	-12137
ందారు	-12138
దుర్గ	-12139
భూషణ్	-12140
విశ్వ	-12141
సీఆర్	-12142
ాన్స్	-12143
ాయిల్	-12144
ాల్సి	-12145
▁1917	-12146
▁1938	-12147
▁1943	-12148
▁Orig	-12149
▁Step	-12150
▁bott	-12151
▁club	-12152
▁అర్హ	-12153
▁ఓటమి	-12154
▁కొంచ	-12155
▁పేరి	-12156
▁ఫిలి	-12157
▁భూభా	-12158
▁మత్స	-12159
▁వాగ్	-12160
▁వాసు	-12161
▁వుంట	-12162
▁సంపు	-12163
perial	-12164
కుమారి	-12165
▁1948:	-12166
▁1961:	-12167
▁1971:	-12168
▁1974:	-12169
▁2015:	-12170
▁Allah	-12171
▁Feder	-12172
▁accur	-12173
▁armed	-12174
▁catal	-12175
▁needs	-12176
▁phase	-12177
▁recip	-12178
▁theme	-12179
▁uncle	-12180
▁అందుక	-12181
▁ఆలోచన	-12182
▁కన్నా	-12183
▁కలుగు	-12184
▁జొన్న	-12185
▁తమ్ము	-12186
▁దర్శన	-12187
▁దీర్ఘ	-12188
▁మోహన్	-12189
▁రాళ్ళ	-12190
▁సున్న	-12191
పాలెంలో	-12192
ప్రాంతం	-12193
▁Daniel	-12194
▁Johann	-12195
▁Native	-12196
▁Parker	-12197
▁arrang	-12198
▁escape	-12199
▁manner	-12200
▁purpos	-12201
▁random	-12202
▁tempor	-12203
▁unable	-12204
▁అహ్మద్	-12205
▁చెట్లు	-12206
▁త్రవ్వ	-12207
▁నిజాము	-12208
▁పాడారు	-12209
▁విశ్వా	-12210
▁సెంట్ర	-12211
▁స్మారక	-12212
▁Arsenic	-12213
▁assumed	-12214
▁extreme	-12215
▁formula	-12216
▁genetic	-12217
▁playing	-12218
▁scripts	-12219
▁setting	-12220
▁ఇచ్చారు	-12221
▁ఇబ్రహీం	-12222
▁పల్నాడు	-12223
▁పాలకుడు	-12224
▁Sciences	-12225
▁alcohols	-12226
▁concepts	-12227
▁subjects	-12228
▁తీసుకుని	-12229
▁ప్రయత్నం	-12230
▁సాయంత్రం	-12231
▁Aluminium	-12232
▁describes	-12233
▁అనుసంధాని	-12234
▁exhibition	-12235
▁ముస్లిములు	-12236
▁effectively	-12237
▁రాజకీయవేత్త	-12238
▁Massachusetts	-12239
-0	-12240
67	-12241
ré	-12242
bes	-12243
den	-12244
eed	-12245
iat	-12246
iny	-12247
జ్జ	-12248
ోజీ	-12249
▁Os	-12250
eler	-12251
gram	-12252
rous	-12253
seud	-12254
zero	-12255
క్యూ	-12256
గాను	-12257
దిలో	-12258
నిర్	-12259
పార్	-12260
బిక్	-12261
మధ్య	-12262
రంలో	-12263
ర్రి	-12264
శాసన	-12265
ికోట	-12266
▁(0.	-12267
▁10%	-12268
▁148	-12269
▁174	-12270
▁Bor	-12271
▁End	-12272
▁Lar	-12273
▁Lev	-12274
▁Rem	-12275
▁Sid	-12276
▁Sir	-12277
▁Wal	-12278
▁ఐదవ	-12279
▁కాన	-12280
▁చోట	-12281
▁రాం	-12282
icien	-12283
ంద్రా	-12284
క్కుల	-12285
జేషన్	-12286
పక్కల	-12287
మంత్ర	-12288
వెళ్ళ	-12289
▁Benn	-12290
▁Kant	-12291
▁Leto	-12292
▁Love	-12293
▁Play	-12294
▁Toff	-12295
▁abug	-12296
▁emot	-12297
▁inse	-12298
▁tons	-12299
▁tree	-12300
▁ఆచార	-12301
▁కారు	-12302
▁దండె	-12303
▁దేవు	-12304
▁సుభా	-12305
thodox	-12306
ంపల్లి	-12307
పోయాయి	-12308
వీంద్ర	-12309
▁1952:	-12310
▁2013:	-12311
▁2019:	-12312
▁Death	-12313
▁bonds	-12314
▁femin	-12315
▁galax	-12316
▁hands	-12317
▁limit	-12318
▁trees	-12319
▁అవశేష	-12320
▁కడుపు	-12321
▁కల్యా	-12322
▁నదిలో	-12323
▁నిత్య	-12324
▁పితామ	-12325
▁వేసిన	-12326
▁సమాజం	-12327
ishment	-12328
itarian	-12329
▁Martin	-12330
▁acting	-12331
▁bacter	-12332
▁chosen	-12333
▁satisf	-12334
▁sports	-12335
▁అంజయ్య	-12336
▁ఎత్తున	-12337
▁ప్రతిభ	-12338
▁బహదూర్	-12339
▁వీరికి	-12340
▁సంభాషణ	-12341
▁సంస్థల	-12342
▁స్వరూప	-12343
heastern	-12344
ictional	-12345
మయ్యింది	-12346
▁charged	-12347
▁council	-12348
▁emerged	-12349
▁husband	-12350
▁killing	-12351
▁network	-12352
▁officer	-12353
▁parents	-12354
▁reviews	-12355
▁segment	-12356
▁క్రొత్త	-12357
▁ప్రహ్లా	-12358
▁ఫ్రెంచ్	-12359
ించినట్లు	-12360
▁acquired	-12361
▁appropri	-12362
▁champion	-12363
▁inherent	-12364
▁involves	-12365
▁patients	-12366
▁reaching	-12367
▁somewhat	-12368
▁టంగుటూరి	-12369
▁వైద్యుడు	-12370
▁Friedrich	-12371
▁dominated	-12372
▁extension	-12373
▁involving	-12374
▁ప్రదేశంలో	-12375
▁మరికొన్ని	-12376
▁యూరోపియన్	-12377
▁వ్యక్తులు	-12378
▁proportion	-12379
▁చేయబడ్డాయి	-12380
▁కేంద్రపాలిత	-12381
▁చెప్పబడింది	-12382
▁ప్రపంచంలోని	-12383
▁యూనివర్శిటీ	-12384
▁demonstrated	-12385
▁చరిత్రకారుడు	-12386
▁చేసుకున్నారు	-12387
▁interpretation	-12388
OH	-12389
gu	-12390
పల	-12391
–6	-12392
19)	-12393
6).	-12394
eas	-12395
eor	-12396
nal	-12397
పరీ	-12398
శంక	-12399
ికొ	-12400
▁87	-12401
▁ఖు	-12402
▁టో	-12403
emic	-12404
inks	-12405
ione	-12406
racy	-12407
rage	-12408
ride	-12409
rine	-12410
roid	-12411
కాని	-12412
తమిళ	-12413
దైనా	-12414
ముడు	-12415
మురు	-12416
రీలు	-12417
వర్ణ	-12418
వాసి	-12419
షులు	-12420
▁158	-12421
▁21,	-12422
▁Cab	-12423
▁Cer	-12424
▁McC	-12425
▁Sen	-12426
▁అడి	-12427
▁అన్	-12428
▁ఆస్	-12429
▁ఏడవ	-12430
▁కప్	-12431
▁చంద	-12432
▁తరల	-12433
▁నాశ	-12434
▁పిం	-12435
▁బ్య	-12436
▁సకల	-12437
aland	-12438
going	-12439
group	-12440
iring	-12441
ockey	-12442
త్తుల	-12443
విధ్య	-12444
▁(194	-12445
▁1941	-12446
▁Karl	-12447
▁Kenn	-12448
▁Nazi	-12449
▁Near	-12450
▁Vict	-12451
▁cold	-12452
▁flag	-12453
▁hier	-12454
▁plat	-12455
▁shif	-12456
▁want	-12457
▁అభిన	-12458
▁కావే	-12459
▁దాకా	-12460
▁పాడు	-12461
▁పులు	-12462
▁బావి	-12463
▁స్టీ	-12464
roleum	-12465
కార్జు	-12466
యార్క్	-12467
రామయ్య	-12468
లిస్ట్	-12469
ించినా	-12470
ేశ్వరీ	-12471
▁1949:	-12472
▁faith	-12473
▁price	-12474
▁proof	-12475
▁views	-12476
▁అవకాశ	-12477
▁అష్టా	-12478
▁ఆదిలా	-12479
▁ఉనికి	-12480
▁ఉపనది	-12481
▁టర్కీ	-12482
▁నాట్య	-12483
▁ముక్క	-12484
▁విటమి	-12485
▁వెడల్	-12486
▁వేముల	-12487
▁సూత్ర	-12488
▁స్థలం	-12489
issance	-12490
ropical	-12491
utation	-12492
గోదావరి	-12493
▁Golden	-12494
▁desert	-12495
▁driver	-12496
▁linear	-12497
▁notion	-12498
▁ఆస్థాన	-12499
▁నృత్యం	-12500
▁పేరుపొ	-12501
▁పొరుగు	-12502
speaking	-12503
▁Protest	-12504
▁Vietnam	-12505
▁engines	-12506
▁peoples	-12507
▁reprodu	-12508
▁పూర్వపు	-12509
▁బ్రహ్మో	-12510
▁శాసనాలు	-12511
▁సంబంధిత	-12512
▁Carolina	-12513
▁approved	-12514
▁entirely	-12515
▁parallel	-12516
▁theories	-12517
▁పెనుగొండ	-12518
▁ముహమ్మద్	-12519
▁హుస్సేన్	-12520
▁agreement	-12521
▁continues	-12522
▁guitarist	-12523
▁molecular	-12524
▁naturally	-12525
▁paintings	-12526
▁succeeded	-12527
▁technical	-12528
▁చాళుక్యుల	-12529
▁డివిజన్లు	-12530
▁పుస్తకాలు	-12531
▁పెరిగింది	-12532
▁స్థాపించి	-12533
▁atmosphere	-12534
▁comparison	-12535
▁quantities	-12536
▁tournament	-12537
▁అమ్మవారిని	-12538
▁జీవితాన్ని	-12539
▁ముఖ్యమైనవి	-12540
▁Christopher	-12541
▁association	-12542
▁పునర్య్వస్థ	-12543
▁Additionally	-12544
▁conventional	-12545
▁ఉపరాష్ట్రపతి	-12546
▁విస్తీర్ణంలో	-12547
▁Confederation	-12548
ny	-12549
ోద	-12550
ado	-12551
but	-12552
fam	-12553
pha	-12554
roc	-12555
రము	-12556
సంఘ	-12557
▁CO	-12558
▁కఠ	-12559
▁తజ	-12560
▁బన	-12561
▁వశ	-12562
down	-12563
ethe	-12564
long	-12565
oral	-12566
slan	-12567
sted	-12568
tebr	-12569
term	-12570
vard	-12571
ంబంధ	-12572
కుండ	-12573
కూడా	-12574
గుంట	-12575
చివే	-12576
ట్టే	-12577
బాల్	-12578
రాన్	-12579
రాలి	-12580
లవరం	-12581
వీటి	-12582
▁().	-12583
▁28:	-12584
▁Adv	-12585
▁Bir	-12586
▁Fam	-12587
▁cat	-12588
▁rug	-12589
▁అలి	-12590
▁ఉపన	-12591
▁దామ	-12592
▁పతన	-12593
▁రకం	-12594
▁సాహ	-12595
▁సుల	-12596
alent	-12597
erted	-12598
etime	-12599
hered	-12600
onium	-12601
oxide	-12602
while	-12603
ంపూర్	-12604
దిద్ద	-12605
ద్గీత	-12606
యేషన్	-12607
రచయిత	-12608
రాలకు	-12609
ిల్స్	-12610
▁(193	-12611
▁Eucl	-12612
▁Sing	-12613
▁elim	-12614
▁infl	-12615
▁stim	-12616
▁wear	-12617
▁కాన్	-12618
▁రంగం	-12619
▁రుక్	-12620
▁లభ్య	-12621
▁వాల్	-12622
▁వీరబ	-12623
▁వెల్	-12624
Europe	-12625
aceous	-12626
asters	-12627
ounder	-12628
panied	-12629
ంతరావు	-12630
లిస్టు	-12631
▁1946:	-12632
▁1964:	-12633
▁1970:	-12634
▁Davis	-12635
▁Never	-12636
▁layer	-12637
▁overs	-12638
▁oxide	-12639
▁seems	-12640
▁staff	-12641
▁taxes	-12642
▁teeth	-12643
▁track	-12644
▁trend	-12645
▁కూటమి	-12646
▁కొమ్మ	-12647
▁ఖర్చు	-12648
▁జ్ఞాప	-12649
▁నదిని	-12650
▁నదిపై	-12651
▁పద్మా	-12652
▁పిండి	-12653
▁పూర్త	-12654
▁పెంచు	-12655
▁మేరకు	-12656
▁లేదని	-12657
▁సమాధి	-12658
▁సాక్ష	-12659
stances	-12660
తుంటాయి	-12661
▁Treaty	-12662
▁debate	-12663
▁improv	-12664
▁phosph	-12665
▁కిన్నె	-12666
▁గోపన్న	-12667
▁జగన్నా	-12668
▁పేరుగా	-12669
▁బుద్ధి	-12670
▁వైష్ణవ	-12671
▁సదాశివ	-12672
▁సరిహద్	-12673
వారంనాడు	-12674
▁Alexand	-12675
▁Taliban	-12676
▁density	-12677
▁inhabit	-12678
▁melting	-12679
▁mineral	-12680
▁visible	-12681
▁అబ్దుల్	-12682
▁చక్రవర్	-12683
▁నాందేడ్	-12684
▁Examples	-12685
▁accounts	-12686
▁normally	-12687
▁relation	-12688
▁repeated	-12689
▁rubidium	-12690
▁selected	-12691
▁straight	-12692
▁teaching	-12693
▁villages	-12694
▁ఎన్టీఆర్	-12695
▁జగిత్యాల	-12696
▁తీవ్రంగా	-12697
▁మ్యూజియం	-12698
▁శతాబ్దాల	-12699
▁సంస్థానం	-12700
▁alongside	-12701
▁contained	-12702
▁documents	-12703
▁encounter	-12704
▁mountains	-12705
▁occurring	-12706
▁residents	-12707
▁స్వతంత్రం	-12708
▁attributed	-12709
▁playwright	-12710
▁popularity	-12711
▁settlement	-12712
▁చెందినవారు	-12713
▁ప్రారంభంలో	-12714
ించుకున్నాడు	-12715
▁constructed	-12716
▁programming	-12717
▁అలెగ్జాండర్	-12718
▁పరిపాలించిన	-12719
▁ఇన్స్టిట్యూట్	-12720
''	-12721
.2	-12722
95	-12723
96	-12724
ళహ	-12725
50)	-12726
Ind	-12727
des	-12728
irs	-12729
sis	-12730
www	-12731
మంగ	-12732
మిన	-12733
లోక	-12734
వలి	-12735
వసర	-12736
ష్క	-12737
▁54	-12738
▁Bh	-12739
▁Gh	-12740
▁ఎల	-12741
▁డో	-12742
rach	-12743
unte	-12744
ంతర్	-12745
చేసు	-12746
తేదీ	-12747
దార్	-12748
పండు	-12749
బ్బు	-12750
రేట్	-12751
హార్	-12752
ీయుల	-12753
▁110	-12754
▁125	-12755
▁18,	-12756
▁Hot	-12757
▁Jac	-12758
▁cel	-12759
▁hun	-12760
▁lie	-12761
▁lov	-12762
▁pal	-12763
▁కంట	-12764
▁గంధ	-12765
▁గుం	-12766
▁జమీ	-12767
▁పూర	-12768
▁మంట	-12769
▁వంగ	-12770
▁హాజ	-12771
idden	-12772
lived	-12773
raged	-12774
rance	-12775
rence	-12776
under	-12777
ండేది	-12778
నింగ్	-12779
వల్లి	-12780
స్థలం	-12781
▁1927	-12782
▁Anch	-12783
▁Last	-12784
▁fort	-12785
▁fram	-12786
▁nort	-12787
▁sole	-12788
▁trig	-12789
▁అవగా	-12790
▁ఇబ్బ	-12791
▁కుండ	-12792
▁కొను	-12793
▁గణేశ	-12794
▁నెలల	-12795
▁పడ్డ	-12796
▁ప్రీ	-12797
▁బీచ్	-12798
▁రావణ	-12799
▁వేడి	-12800
▁సంధి	-12801
.2015)	-12802
ivated	-12803
olloqu	-12804
omorph	-12805
rehens	-12806
ulates	-12807
దక్షిణ	-12808
మునందు	-12809
సెర్చ్	-12810
▁1980:	-12811
▁1981:	-12812
▁1991:	-12813
▁2018:	-12814
▁Catal	-12815
▁Polit	-12816
▁Short	-12817
▁crick	-12818
▁disag	-12819
▁enter	-12820
▁goods	-12821
▁items	-12822
▁valid	-12823
▁అందరూ	-12824
▁ఉపదేశ	-12825
▁ఎందరో	-12826
▁కావున	-12827
▁చదివి	-12828
▁సర్వే	-12829
▁సింగర	-12830
▁సిద్ద	-12831
compass	-12832
త్పత్తి	-12833
త్సవాలు	-12834
▁Annual	-12835
▁Hellen	-12836
▁Mobile	-12837
▁Oxford	-12838
▁Romans	-12839
▁cinema	-12840
▁headqu	-12841
▁output	-12842
▁ruling	-12843
▁termin	-12844
▁valley	-12845
▁అక్షరం	-12846
▁కాలేజ్	-12847
▁గురజాడ	-12848
▁గోవింద	-12849
▁నిర్మి	-12850
▁పర్వము	-12851
▁పింగళి	-12852
▁బోర్డు	-12853
▁సంబంధం	-12854
▁స్థాని	-12855
కుంటుంది	-12856
▁Chicago	-12857
▁Univers	-12858
▁Zealand	-12859
▁neither	-12860
▁promote	-12861
▁soldier	-12862
▁అచ్యుతర	-12863
▁ఉపన్యాస	-12864
▁చికిత్స	-12865
▁పేర్కొన	-12866
▁ప్రయాణీ	-12867
▁బెంగాలు	-12868
▁Edmonton	-12869
▁Orthodox	-12870
▁achieved	-12871
▁minister	-12872
▁visitors	-12873
▁ఉద్యమంలో	-12874
▁ఉన్నందున	-12875
▁కనిపించే	-12876
▁కొంతకాలం	-12877
▁ధర్మపురి	-12878
▁నిఘంటువు	-12879
▁నిర్మించ	-12880
▁సెంట్రల్	-12881
▁Francisco	-12882
▁destroyed	-12883
▁portrayed	-12884
▁predicted	-12885
▁recording	-12886
▁successor	-12887
▁తత్వవేత్త	-12888
▁తెలంగాణలో	-12889
▁ప్రఖ్యాతి	-12890
▁ప్రభావితం	-12891
▁ప్రముఖులు	-12892
▁వేణుగోపాల	-12893
▁సుల్తానుల	-12894
▁Foundation	-12895
▁Phoenician	-12896
▁background	-12897
▁accompanied	-12898
▁ఉపయోగిస్తారు	-12899
▁administration	-12900
-5	-12901
EC	-12902
ga	-12903
నమ	-12904
ala	-12905
mic	-12906
mir	-12907
ped	-12908
rev	-12909
rey	-12910
లేఖ	-12911
ీలు	-12912
▁74	-12913
▁IV	-12914
▁తూ	-12915
Aust	-12916
esis	-12917
iger	-12918
ipel	-12919
lyph	-12920
ping	-12921
ques	-12922
rack	-12923
rait	-12924
ందరూ	-12925
క్కడ	-12926
డియం	-12927
పండి	-12928
మాను	-12929
వెల్	-12930
స్టీ	-12931
ారిక	-12932
▁24,	-12933
▁Dam	-12934
▁Tun	-12935
▁Var	-12936
▁eye	-12937
▁tur	-12938
▁అఫ్	-12939
▁ఇటు	-12940
▁ఉంచ	-12941
▁కొర	-12942
▁గుణ	-12943
▁పాన	-12944
▁మల్	-12945
▁వెన	-12946
,000.	-12947
ivest	-12948
power	-12949
raham	-12950
rates	-12951
sible	-12952
షింగ్	-12953
సాగర్	-12954
▁1951	-12955
▁Jack	-12956
▁Then	-12957
▁aest	-12958
▁cars	-12959
▁hair	-12960
▁user	-12961
▁wars	-12962
▁week	-12963
▁ఇసుక	-12964
▁ఒకడు	-12965
▁కాపా	-12966
▁కోర్	-12967
▁గూర్	-12968
▁తాము	-12969
▁తీరు	-12970
▁దాశర	-12971
▁నాకు	-12972
▁నాటు	-12973
▁ప్రభ	-12974
▁రైతు	-12975
▁వర్ధ	-12976
▁వీలు	-12977
▁హస్త	-12978
attles	-12979
కొండలో	-12980
ాల్సిన	-12981
▁1953:	-12982
▁1982:	-12983
▁1983:	-12984
▁1989:	-12985
▁1992:	-12986
▁2002,	-12987
▁agree	-12988
▁deleg	-12989
▁explo	-12990
▁input	-12991
▁leads	-12992
▁moder	-12993
▁negot	-12994
▁robot	-12995
▁schem	-12996
▁అవధాన	-12997
▁ఆమెకు	-12998
▁ఒక్కో	-12999
▁కావలి	-13000
▁చౌదరి	-13001
▁తగ్గి	-13002
▁పరిష్	-13003
▁వేంగి	-13004
▁వ్రాత	-13005
ignment	-13006
ilation	-13007
logical	-13008
మాచార్య	-13009
▁Arslan	-13010
▁Common	-13011
▁acknow	-13012
▁begins	-13013
▁camera	-13014
▁closer	-13015
▁cooper	-13016
▁propag	-13017
▁remark	-13018
▁select	-13019
▁severe	-13020
▁themes	-13021
▁గిరిజన	-13022
▁చూడండి	-13023
▁వాటికి	-13024
▁Anthrop	-13025
▁Emperor	-13026
▁Foreign	-13027
▁convers	-13028
▁dialect	-13029
▁electro	-13030
▁farmers	-13031
▁కాంగ్రే	-13032
▁మణిపూర్	-13033
▁వహించిన	-13034
▁విశ్లేష	-13035
▁విస్తరణ	-13036
▁వెడల్పు	-13037
▁వైవిధ్య	-13038
▁సర్వీసు	-13039
▁Portugal	-13040
▁cerebell	-13041
▁conquest	-13042
▁isolated	-13043
▁produces	-13044
▁purposes	-13045
▁withdraw	-13046
▁ఇంగ్లీష్	-13047
▁పట్టణాలు	-13048
▁రహదారులు	-13049
▁శతాబ్దపు	-13050
▁సంస్కర్త	-13051
ographical	-13052
▁Education	-13053
▁concluded	-13054
▁neighbour	-13055
▁నిర్మించి	-13056
▁ప్రతిపక్ష	-13057
▁రాజ్యాంగం	-13058
▁సంస్కృతము	-13059
▁Macedonian	-13060
▁Philosophy	-13061
▁connection	-13062
▁separation	-13063
▁జరుగుతున్న	-13064
▁ప్రాచుర్యం	-13065
▁రాష్ట్రాలు	-13066
▁distinguish	-13067
▁documentary	-13068
▁experiences	-13069
▁చుట్టుపక్కల	-13070
▁శాసనసభ్యుడు	-13071
▁Nevertheless	-13072
▁intellectual	-13073
▁సంవత్సరానికి	-13074
TC	-13075
za	-13076
aug	-13077
hex	-13078
non	-13079
ota	-13080
తరు	-13081
యిక	-13082
రావ	-13083
వైన	-13084
స్ప	-13085
▁63	-13086
▁Ha	-13087
▁rh	-13088
bage	-13089
elin	-13090
ifer	-13091
ధర్మ	-13092
ధ్యం	-13093
ర్డ్	-13094
లాగా	-13095
▁29:	-13096
▁AFI	-13097
▁Div	-13098
▁Mag	-13099
▁Tri	-13100
▁Ver	-13101
▁cab	-13102
▁cru	-13103
▁har	-13104
▁nut	-13105
▁sed	-13106
▁ఎడి	-13107
▁చవి	-13108
▁జిం	-13109
▁దైవ	-13110
▁పోయ	-13111
▁మంజ	-13112
▁మకు	-13113
▁రమణ	-13114
▁విక	-13115
▁సుగ	-13116
▁హోమ	-13117
aecil	-13118
athan	-13119
burgh	-13120
ctive	-13121
eward	-13122
graph	-13123
uther	-13124
కారుల	-13125
ఖ్యాత	-13126
పాక్ష	-13127
పిల్ల	-13128
మయ్యే	-13129
స్తుల	-13130
▁1860	-13131
▁1925	-13132
▁1932	-13133
▁Conn	-13134
▁Fair	-13135
▁Gall	-13136
▁Pyth	-13137
▁abst	-13138
▁clim	-13139
▁laid	-13140
▁soul	-13141
▁surf	-13142
▁teac	-13143
▁unus	-13144
▁అచ్చ	-13145
▁ఉంచు	-13146
▁జాతర	-13147
▁నేడు	-13148
▁పాటల	-13149
▁బుక్	-13150
▁సందే	-13151
▁సిటీ	-13152
ennium	-13153
roscop	-13154
ప్పుడూ	-13155
▁1925:	-13156
▁1928:	-13157
▁1942:	-13158
▁1954:	-13159
▁1963:	-13160
▁1977:	-13161
▁2006,	-13162
▁adopt	-13163
▁axons	-13164
▁beaut	-13165
▁joint	-13166
▁monoc	-13167
▁nouns	-13168
▁oppon	-13169
▁stret	-13170
▁towns	-13171
▁అప్పగ	-13172
▁గిరిజ	-13173
▁జయంతి	-13174
▁నుండే	-13175
▁పరికర	-13176
▁పుష్ప	-13177
▁ప్రాస	-13178
▁సమర్థ	-13179
▁సామంత	-13180
iciency	-13181
mediate	-13182
భిప్రాయ	-13183
▁Andrew	-13184
▁Econom	-13185
▁fellow	-13186
▁genera	-13187
▁hockey	-13188
▁module	-13189
▁satell	-13190
▁twenty	-13191
▁ఉత్తర్	-13192
▁కర్మాగ	-13193
▁గెలుచు	-13194
▁గ్రానై	-13195
▁చైతన్య	-13196
▁తీరంలో	-13197
▁దీనితో	-13198
▁ద్రవ్య	-13199
▁నొప్పి	-13200
▁పార్క్	-13201
▁పేరును	-13202
▁మత్స్య	-13203
▁మహాభార	-13204
▁మాస్కో	-13205
▁మునిసి	-13206
▁విమానం	-13207
▁వెంకటా	-13208
▁శివాజీ	-13209
▁స్థాపన	-13210
▁dynasty	-13211
▁hearing	-13212
▁opening	-13213
▁portion	-13214
▁roughly	-13215
▁ఆవిర్భవ	-13216
▁డిగ్రీల	-13217
▁ద్రావిడ	-13218
▁Antimony	-13219
▁Scotland	-13220
▁suffered	-13221
▁violence	-13222
▁అందువల్ల	-13223
▁ఆత్మకూరు	-13224
▁జీవితంలో	-13225
▁దేవస్థాన	-13226
▁పర్యావరణ	-13227
▁ప్రాతిని	-13228
▁భాగాన్ని	-13229
▁యుద్ధాలు	-13230
▁సంస్కృతం	-13231
▁సంస్కృతా	-13232
▁Anchorage	-13233
▁criticism	-13234
▁providing	-13235
▁scientist	-13236
▁stability	-13237
▁చేసుకుంది	-13238
▁పాలకొల్లు	-13239
▁anarchists	-13240
▁celebrated	-13241
▁convention	-13242
▁originated	-13243
▁ఏర్పడ్డాయి	-13244
▁క్షేత్రయ్య	-13245
▁Furthermore	-13246
▁కుటుంబానికి	-13247
▁మల్లికార్జు	-13248
▁సమాచారాన్ని	-13249
▁historically	-13250
▁contributions	-13251
▁manufacturing	-13252
▁organizations	-13253
▁నివసిస్తున్నారు	-13254
CO	-13255
GC	-13256
ko	-13257
va	-13258
నల	-13259
–1	-13260
00)	-13261
00,	-13262
And	-13263
ESC	-13264
ams	-13265
cow	-13266
iop	-13267
kes	-13268
ycl	-13269
చిక	-13270
బిం	-13271
రణ్	-13272
▁56	-13273
▁Du	-13274
▁Gö	-13275
▁ov	-13276
▁ఖో	-13277
▁ఫీ	-13278
▁ఫ్	-13279
▁లొ	-13280
aret	-13281
char	-13282
ials	-13283
idae	-13284
idas	-13285
phia	-13286
reek	-13287
rees	-13288
rone	-13289
then	-13290
usic	-13291
xual	-13292
గామి	-13293
గితే	-13294
చాయి	-13295
ట్నం	-13296
డవైన	-13297
నేటి	-13298
య్యా	-13299
వాదం	-13300
విల్	-13301
వులో	-13302
సార్	-13303
సిన్	-13304
స్సా	-13305
▁Abd	-13306
▁Den	-13307
▁abj	-13308
▁san	-13309
▁జంట	-13310
▁నదు	-13311
▁పలక	-13312
▁భవి	-13313
▁రిజ	-13314
▁లతా	-13315
▁లతో	-13316
archy	-13317
otton	-13318
trans	-13319
works	-13320
కేషన్	-13321
పించి	-13322
రియల్	-13323
విధాన	-13324
▁1909	-13325
▁1914	-13326
▁1931	-13327
▁Indo	-13328
▁Marg	-13329
▁Pass	-13330
▁Song	-13331
▁conj	-13332
▁core	-13333
▁mart	-13334
▁narr	-13335
▁oral	-13336
▁sell	-13337
▁summ	-13338
▁thir	-13339
▁vote	-13340
▁zero	-13341
▁అభివ	-13342
▁ఆందో	-13343
▁ఉగ్ర	-13344
▁కన్య	-13345
▁కూలి	-13346
▁క్యూ	-13347
▁గండి	-13348
▁చేపల	-13349
▁తారక	-13350
▁దోహద	-13351
▁నందు	-13352
▁పునా	-13353
▁బాని	-13354
▁బూర్	-13355
▁ముడి	-13356
▁లోపల	-13357
▁హర్య	-13358
▁హెచ్	-13359
ashion	-13360
queous	-13361
చేశారు	-13362
తులుగా	-13363
పాన్ని	-13364
రించిన	-13365
లనుండి	-13366
స్తాను	-13367
▁1922:	-13368
▁1930:	-13369
▁1976:	-13370
▁2005,	-13371
▁2012:	-13372
▁Homer	-13373
▁beads	-13374
▁fresh	-13375
▁liber	-13376
▁noble	-13377
▁polar	-13378
▁కనీసం	-13379
▁కోదండ	-13380
▁గట్టి	-13381
▁చతుర్	-13382
▁పడమటి	-13383
▁బలమైన	-13384
▁మద్ది	-13385
▁మాటలు	-13386
▁విఘ్న	-13387
▁వీరేశ	-13388
▁శంకర్	-13389
▁సోదరు	-13390
claimed	-13391
ictures	-13392
ార్లెస్	-13393
▁Astron	-13394
▁Athens	-13395
▁Freder	-13396
▁Polish	-13397
▁bright	-13398
▁buried	-13399
▁coming	-13400
▁damage	-13401
▁dating	-13402
▁decade	-13403
▁filled	-13404
▁stabil	-13405
▁strict	-13406
▁viewed	-13407
▁అవగాహన	-13408
▁ఇంజినీ	-13409
▁ఉద్యాన	-13410
▁కథానాయ	-13411
▁చేస్తే	-13412
▁డెల్టా	-13413
▁తెచ్చు	-13414
▁దుకాణం	-13415
▁ధరించి	-13416
▁నటీమణి	-13417
▁పరిషత్	-13418
▁యాత్రా	-13419
▁లక్షలు	-13420
▁హిమాలయ	-13421
ivestock	-13422
▁Abraham	-13423
▁Culture	-13424
▁Digital	-13425
▁Federal	-13426
▁Highway	-13427
▁Indones	-13428
▁accused	-13429
▁descend	-13430
▁dispers	-13431
▁doubles	-13432
▁explain	-13433
▁factory	-13434
▁seconds	-13435
▁కళ్యాణం	-13436
▁చేయాలని	-13437
▁ఛందస్సు	-13438
▁త్రిపుర	-13439
▁నగరాలలో	-13440
▁పొందాయి	-13441
▁పోయింది	-13442
ించటానికి	-13443
▁Armenian	-13444
▁assigned	-13445
▁calendar	-13446
▁depicted	-13447
▁explicit	-13448
▁improved	-13449
▁particle	-13450
▁patterns	-13451
▁spelling	-13452
▁పిలువబడే	-13453
▁వ్రాశాడు	-13454
▁శ్రీకాళహ	-13455
▁astronomy	-13456
▁encompass	-13457
▁newspaper	-13458
▁physicist	-13459
▁చేసుకున్న	-13460
▁దేవాలయాలు	-13461
▁సముద్రంలో	-13462
▁transition	-13463
▁ప్రాంగణంలో	-13464
▁విజయవంతంగా	-13465
▁సరిహద్దులో	-13466
▁radioactive	-13467
▁రాధాకృష్ణన్	-13468
▁రూపొందించిన	-13469
▁Christianity	-13470
▁Organization	-13471
▁పేర్కొన్నారు	-13472
▁సుప్రీంకోర్టు	-13473
";	-13474
-4	-13475
BN	-13476
తక	-13477
%),	-13478
5).	-13479
ano	-13480
yll	-13481
ంసం	-13482
ఖిల	-13483
జయ్	-13484
డగు	-13485
తని	-13486
మహా	-13487
ాట్	-13488
▁88	-13489
▁km	-13490
▁బజ	-13491
▁భి	-13492
anol	-13493
apse	-13494
ault	-13495
crib	-13496
iege	-13497
miss	-13498
pass	-13499
క్తు	-13500
తలను	-13501
సామీ	-13502
▁26:	-13503
▁27,	-13504
▁29,	-13505
▁Ell	-13506
▁Moh	-13507
▁Sym	-13508
▁fat	-13509
▁fet	-13510
▁why	-13511
▁భయం	-13512
▁భరత	-13513
▁వేమ	-13514
▁శరణ	-13515
erman	-13516
కన్నడ	-13517
ప్రగడ	-13518
మాత్ర	-13519
ముందు	-13520
ళ్ళను	-13521
వన్నీ	-13522
సియన్	-13523
▁1934	-13524
▁Brig	-13525
▁Eliz	-13526
▁Galt	-13527
▁Nile	-13528
▁Oper	-13529
▁Rome	-13530
▁Stan	-13531
▁cart	-13532
▁flow	-13533
▁foss	-13534
▁mist	-13535
▁unst	-13536
▁ఉప్ప	-13537
▁టాటా	-13538
▁తనను	-13539
▁దేవర	-13540
▁పడిన	-13541
▁ప్యా	-13542
▁ముల్	-13543
▁యోగి	-13544
▁రాయి	-13545
▁రెడ్	-13546
▁వారే	-13547
▁విరి	-13548
▁విలస	-13549
▁శీతా	-13550
▁సన్న	-13551
▁సలహా	-13552
▁సవరణ	-13553
▁సాంబ	-13554
▁సికి	-13555
▁సుంద	-13556
▁హింస	-13557
commun	-13558
cyclop	-13559
upiter	-13560
ylogen	-13561
ధికారి	-13562
▁1924:	-13563
▁1932:	-13564
▁1935:	-13565
▁1940:	-13566
▁1966:	-13567
▁1979:	-13568
▁2008,	-13569
▁Every	-13570
▁Oscar	-13571
▁Volks	-13572
▁analy	-13573
▁carry	-13574
▁habit	-13575
▁https	-13576
▁inner	-13577
▁lands	-13578
▁sixth	-13579
▁sleep	-13580
▁అంతటా	-13581
▁ఆకర్ష	-13582
▁ఆమెను	-13583
▁ఆహారం	-13584
▁ఎక్కడ	-13585
▁కావడం	-13586
▁తీరాన	-13587
▁తీర్ధ	-13588
▁నియామ	-13589
▁నిరూప	-13590
▁బుక్క	-13591
▁లెక్క	-13592
▁విరమణ	-13593
ographs	-13594
ulating	-13595
ించడంలో	-13596
▁Forces	-13597
▁Moscow	-13598
▁advant	-13599
▁losing	-13600
▁parent	-13601
▁serves	-13602
▁slowly	-13603
▁అంకితం	-13604
▁అక్కడే	-13605
▁ఏర్పాట	-13606
▁గంటలకు	-13607
▁గ్రేడ్	-13608
▁తిరునా	-13609
▁తీర్చి	-13610
▁తీర్చు	-13611
▁తీర్పు	-13612
▁భాగాలు	-13613
▁రకరకాల	-13614
▁సదస్సు	-13615
▁స్నేహి	-13616
▁Mission	-13617
▁Special	-13618
▁Taggart	-13619
▁Theatre	-13620
▁Toffler	-13621
▁learned	-13622
▁longest	-13623
▁persons	-13624
▁radical	-13625
▁ranging	-13626
▁reconst	-13627
▁ఆంగ్లేయ	-13628
▁ఆఫ్రికా	-13629
▁కాలువలు	-13630
▁ప్రయాణి	-13631
▁రూపాయలు	-13632
ప్రాంతంలో	-13633
▁District	-13634
▁Language	-13635
▁Philadel	-13636
▁attested	-13637
▁restrict	-13638
▁ఉండేవాడు	-13639
▁ఊరేగింపు	-13640
▁కందుకూరి	-13641
▁కుమారులు	-13642
▁గ్రంథాలు	-13643
▁పోరాటంలో	-13644
▁ప్రాంతము	-13645
▁ప్రోత్సహ	-13646
▁భగవద్గీత	-13647
▁భూభాగంలో	-13648
▁విముక్తి	-13649
▁Northwest	-13650
▁continent	-13651
▁interests	-13652
▁personnel	-13653
▁rebellion	-13654
▁suffering	-13655
▁అనుగుణంగా	-13656
▁అమెరికాకు	-13657
▁పంచాయతీకి	-13658
▁పురాతనమైన	-13659
▁Convention	-13660
▁artificial	-13661
▁categories	-13662
▁impossible	-13663
▁ఎన్నికల్లో	-13664
▁గ్రామాన్ని	-13665
▁చెప్పవచ్చు	-13666
▁Development	-13667
▁మధ్యప్రదేశ్	-13668
▁విద్యార్థుల	-13669
▁స్వామివారికి	-13670
▁relationships	-13671
▁శ్రీనివాసరావు	-13672
1–	-13673
94	-13674
IA	-13675
la	-13676
టూ	-13677
దై	-13678
ims	-13679
rep	-13680
unk	-13681
ముగ	-13682
యాల	-13683
▁95	-13684
▁MP	-13685
▁ఇర	-13686
▁ఏట	-13687
▁ఓం	-13688
▁వద	-13689
adow	-13690
cers	-13691
emor	-13692
icas	-13693
illa	-13694
lder	-13695
ules	-13696
కాదు	-13697
తురు	-13698
నాల్	-13699
నూరి	-13700
మంచి	-13701
మిని	-13702
మైనా	-13703
ర్యా	-13704
వరపు	-13705
ామన్	-13706
▁13.	-13707
▁25,	-13708
▁Jim	-13709
▁Men	-13710
▁Tar	-13711
▁Tor	-13712
▁bud	-13713
▁die	-13714
▁iPh	-13715
▁iod	-13716
▁nar	-13717
▁ske	-13718
▁ఆడు	-13719
▁క్ల	-13720
▁ఘంట	-13721
▁తగ్	-13722
▁దొర	-13723
▁మేక	-13724
▁శోభ	-13725
icide	-13726
itled	-13727
since	-13728
ushed	-13729
wagen	-13730
అమెరి	-13731
గ్రంథ	-13732
దవోలు	-13733
యేటర్	-13734
వైద్య	-13735
సంబంధ	-13736
ెక్కి	-13737
ోగ్రా	-13738
▁1908	-13739
▁1916	-13740
▁1936	-13741
▁Euro	-13742
▁Prop	-13743
▁Rail	-13744
▁bioc	-13745
▁enem	-13746
▁fair	-13747
▁gall	-13748
▁opin	-13749
▁అలవా	-13750
▁ఇజ్ర	-13751
▁క్వి	-13752
▁పాక్	-13753
▁మనము	-13754
▁మృతి	-13755
▁రావి	-13756
▁విమో	-13757
▁సంజీ	-13758
▁సమూహ	-13759
▁సామె	-13760
▁సారి	-13761
▁సిరి	-13762
▁హృదయ	-13763
▁హౌస్	-13764
.1924)	-13765
.1928)	-13766
iments	-13767
incial	-13768
inding	-13769
రాజులు	-13770
వుల్లో	-13771
▁1967:	-13772
▁2023)	-13773
▁Index	-13774
▁Liber	-13775
▁Radio	-13776
▁dream	-13777
▁faced	-13778
▁frame	-13779
▁multi	-13780
▁train	-13781
▁youth	-13782
▁అనుసర	-13783
▁అరుణా	-13784
▁ఉపాధి	-13785
▁కళింగ	-13786
▁జలపాత	-13787
▁బరువు	-13788
▁భాషకు	-13789
▁మిగతా	-13790
▁వైదిక	-13791
clusion	-13792
olithic	-13793
pective	-13794
ruption	-13795
సంఖ్యలో	-13796
▁Andrei	-13797
▁Online	-13798
▁basket	-13799
▁demand	-13800
▁explos	-13801
▁gender	-13802
▁invent	-13803
▁nuclei	-13804
▁papers	-13805
▁phrase	-13806
▁prefer	-13807
▁recomm	-13808
▁refuge	-13809
▁signif	-13810
▁subsid	-13811
▁vision	-13812
▁ఇందుకు	-13813
▁గాంచిన	-13814
▁దాశరథి	-13815
▁పదవికి	-13816
▁పూర్వీ	-13817
▁ప్రకటన	-13818
▁ప్రకాశ	-13819
▁మెట్రో	-13820
▁యుగంలో	-13821
▁విచ్చే	-13822
▁విడిచి	-13823
▁వెళ్లి	-13824
▁శృంగార	-13825
▁శ్రద్ధ	-13826
▁స్వల్ప	-13827
European	-13828
పెట్టారు	-13829
▁Collins	-13830
▁Instead	-13831
▁Jupiter	-13832
▁aquatic	-13833
▁borders	-13834
▁decline	-13835
▁nations	-13836
▁nothing	-13837
▁parties	-13838
▁reports	-13839
▁theorem	-13840
▁ఆధిక్యత	-13841
▁ఇటువంటి	-13842
▁ఇస్తారు	-13843
▁ప్రత్తి	-13844
▁ముగింపు	-13845
▁విటమిన్	-13846
▁స్థలాలు	-13847
స్తుంటాయి	-13848
ించుకున్న	-13849
▁Maryland	-13850
▁attacked	-13851
▁compound	-13852
▁emphasis	-13853
▁fluoride	-13854
▁francium	-13855
▁learning	-13856
▁measured	-13857
▁spectral	-13858
▁thousand	-13859
▁universe	-13860
▁vehicles	-13861
▁అప్పట్లో	-13862
▁అభ్యర్థి	-13863
▁ఆధిపత్యం	-13864
▁కనుగొన్న	-13865
▁చెప్పుకో	-13866
▁పద్మశ్రీ	-13867
▁పర్వతాలు	-13868
▁రీసెర్చ్	-13869
▁acknowled	-13870
▁campaigns	-13871
▁hydrocarb	-13872
▁operation	-13873
▁physician	-13874
▁pregnancy	-13875
▁societies	-13876
▁variation	-13877
▁కళాకారిణి	-13878
▁విషయాన్ని	-13879
rastructure	-13880
▁biological	-13881
▁components	-13882
▁mechanical	-13883
▁పార్లమెంట్	-13884
▁రాజ్యానికి	-13885
▁అందిస్తుంది	-13886
▁గుంటూరులోను	-13887
▁నరసింహారావు	-13888
▁technologies	-13889
▁పరిపాలించారు	-13890
▁ప్రజాస్వామ్య	-13891
▁వ్యాపారవేత్త	-13892
▁సంస్కృతాంధ్ర	-13893
▁mathematician	-13894
▁నరసింహారెడ్డి	-13895
▁విద్యార్థులకు	-13896
▁administrative	-13897
▁concentrations	-13898
97	-13899
ba	-13900
9).	-13901
kin	-13902
mas	-13903
rac	-13904
ugu	-13905
గ్న	-13906
ధీశ	-13907
వంశ	-13908
▁53	-13909
▁66	-13910
▁Ka	-13911
▁గీ	-13912
▁పగ	-13913
▁సవ	-13914
bran	-13915
idav	-13916
lock	-13917
oked	-13918
uate	-13919
జులు	-13920
యాన్	-13921
యామి	-13922
రిక్	-13923
ర్రా	-13924
లానా	-13925
వర్ధ	-13926
వర్మ	-13927
వార్	-13928
శిల్	-13929
▁31:	-13930
▁Alk	-13931
▁Haw	-13932
▁Nag	-13933
▁Non	-13934
▁boy	-13935
▁odd	-13936
▁అంక	-13937
▁ఆవు	-13938
▁గరు	-13939
▁తెగ	-13940
▁పసి	-13941
▁పోవ	-13942
▁రెం	-13943
abeth	-13944
aemen	-13945
aired	-13946
inite	-13947
owder	-13948
rator	-13949
బెట్ట	-13950
ముఖ్య	-13951
వచ్చి	-13952
ార్థం	-13953
్యుదయ	-13954
▁1830	-13955
▁Auth	-13956
▁Cast	-13957
▁Slam	-13958
▁Wall	-13959
▁Work	-13960
▁folk	-13961
▁sons	-13962
▁susp	-13963
▁sust	-13964
▁thor	-13965
▁కర్ర	-13966
▁కాకర	-13967
▁కేశవ	-13968
▁ట్రి	-13969
▁ధ్రు	-13970
▁మంచు	-13971
▁మిరప	-13972
▁యందు	-13973
▁రాగి	-13974
▁వివా	-13975
▁వ్యూ	-13976
▁సరైన	-13977
icance	-13978
igious	-13979
making	-13980
ట్టమైన	-13981
బెట్టి	-13982
ించుకో	-13983
ింపబడు	-13984
ేశ్వరు	-13985
▁1914:	-13986
▁1933:	-13987
▁1957:	-13988
▁1978:	-13989
▁1994:	-13990
▁Coast	-13991
▁Colon	-13992
▁Lingu	-13993
▁Moroc	-13994
▁Plato	-13995
▁Swift	-13996
▁Third	-13997
▁Today	-13998
▁ammon	-13999
▁chose	-14000
▁crime	-14001
▁crude	-14002
▁crust	-14003
▁hence	-14004
▁laure	-14005
▁merch	-14006
▁అధికం	-14007
▁అవినీ	-14008
▁కేటాయ	-14009
▁చమురు	-14010
▁డబ్బు	-14011
▁తప్పు	-14012
▁దేవతల	-14013
▁నిబంధ	-14014
▁నిశ్చ	-14015
▁నేపాల	-14016
▁పెన్న	-14017
▁ముట్ట	-14018
▁స్నాన	-14019
jection	-14020
సనాన్ని	-14021
▁armies	-14022
▁listed	-14023
▁masses	-14024
▁obtain	-14025
▁preced	-14026
▁prepar	-14027
▁titled	-14028
▁అంశాలు	-14029
▁అధిపతి	-14030
▁కోట్లు	-14031
▁జార్జి	-14032
▁దొరికి	-14033
▁నగరాలు	-14034
▁నీటిలో	-14035
▁పొడవైన	-14036
▁బియ్యం	-14037
▁వయసులో	-14038
▁విలియం	-14039
▁శైలిలో	-14040
▁స్పష్ట	-14041
ట్టానికి	-14042
పడుతుంది	-14043
▁Project	-14044
▁massive	-14045
▁neurons	-14046
▁request	-14047
▁researc	-14048
▁weapons	-14049
▁చివరికి	-14050
▁పలువురు	-14051
▁పీఠభూమి	-14052
▁హర్యానా	-14053
ంటున్నారు	-14054
కరించింది	-14055
పెట్టింది	-14056
▁attached	-14057
▁credited	-14058
▁disorder	-14059
▁dominant	-14060
▁incident	-14061
▁interpre	-14062
▁opposite	-14063
▁security	-14064
▁కిన్నెరస	-14065
▁జిల్లాగా	-14066
▁ఢిల్లీలో	-14067
▁దినోత్సవ	-14068
▁పంచాయితీ	-14069
▁భగవంతుని	-14070
▁మార్గాలు	-14071
▁రచించారు	-14072
▁లభించాయి	-14073
▁Hungarian	-14074
▁Represent	-14075
▁Secretary	-14076
▁committed	-14077
▁component	-14078
▁hydroxide	-14079
▁indicated	-14080
▁regarding	-14081
▁అంబేద్కర్	-14082
▁జన్మించిన	-14083
▁నాయకురాలు	-14084
▁శాస్త్రము	-14085
▁processing	-14086
▁relativity	-14087
▁న్యూయార్క్	-14088
▁భౌగోళికంగా	-14089
▁విభజించారు	-14090
▁హాస్యనటుడు	-14091
▁engineering	-14092
▁ప్రకటించాడు	-14093
▁విగ్రహాన్ని	-14094
▁Philadelphia	-14095
▁నిర్మించబడిన	-14096
▁constellation	-14097
▁విభజించబడింది	-14098
▁constitutional	-14099
92	-14100
AP	-14101
CH	-14102
RI	-14103
US	-14104
da	-14105
gr	-14106
ör	-14107
arp	-14108
ili	-14109
owl	-14110
oys	-14111
raf	-14112
తాళ	-14113
పటి	-14114
బ్ధ	-14115
మత్	-14116
రమణ	-14117
వల్	-14118
షల్	-14119
▁57	-14120
▁85	-14121
▁Az	-14122
▁Es	-14123
▁Ob	-14124
▁du	-14125
▁pH	-14126
▁రౌ	-14127
anta	-14128
aste	-14129
dess	-14130
that	-14131
uten	-14132
ంక్ష	-14133
గంగా	-14134
గుడు	-14135
టేల్	-14136
దుడు	-14137
లిక్	-14138
వాయు	-14139
వేది	-14140
వేలు	-14141
ాలైన	-14142
▁11.	-14143
▁Ale	-14144
▁Ash	-14145
▁Che	-14146
▁Hal	-14147
▁Ker	-14148
▁bad	-14149
▁ora	-14150
▁ran	-14151
▁అరణ	-14152
▁ఉభయ	-14153
▁ఏదో	-14154
▁వాక	-14155
▁శంఖ	-14156
▁శార	-14157
owned	-14158
కార్య	-14159
క్ష్మ	-14160
వధాని	-14161
వులతో	-14162
▁1922	-14163
▁1924	-14164
▁1933	-14165
▁Ancy	-14166
▁News	-14167
▁Wind	-14168
▁coal	-14169
▁fine	-14170
▁gain	-14171
▁pian	-14172
▁sand	-14173
▁tact	-14174
▁wave	-14175
▁కంటి	-14176
▁చర్మ	-14177
▁చాటు	-14178
▁తోడ్	-14179
▁దాడు	-14180
▁నిరు	-14181
▁పైకి	-14182
▁పోయి	-14183
▁భవనం	-14184
▁మహామ	-14185
▁మెక్	-14186
▁మ్యా	-14187
▁వెళు	-14188
▁షేక్	-14189
▁సభకు	-14190
▁స్తు	-14191
▁హసన్	-14192
▁హార్	-14193
.1920)	-14194
mittee	-14195
stream	-14196
ulsion	-14197
నసాగర్	-14198
పాలిటీ	-14199
పోయినా	-14200
లమడుగు	-14201
వాళ్ళు	-14202
ాలలోను	-14203
▁1927:	-14204
▁1969,	-14205
▁2007,	-14206
▁Athen	-14207
▁Brand	-14208
▁Princ	-14209
▁Solar	-14210
▁angle	-14211
▁broke	-14212
▁clust	-14213
▁glass	-14214
▁innov	-14215
▁outer	-14216
▁reign	-14217
▁score	-14218
▁wrest	-14219
▁ఆజాద్	-14220
▁కాలము	-14221
▁కొప్ప	-14222
▁కోటలో	-14223
▁గజపతి	-14224
▁జాగ్ర	-14225
▁దిశలో	-14226
▁నిమ్మ	-14227
▁నున్న	-14228
▁పరిమా	-14229
▁పాండి	-14230
▁పీటర్	-14231
▁పేరిట	-14232
▁బుర్ర	-14233
▁మహాసభ	-14234
▁వంతెన	-14235
▁వెండి	-14236
largest	-14237
▁Delphi	-14238
▁Territ	-14239
▁Trojan	-14240
▁assass	-14241
▁behavi	-14242
▁corpor	-14243
▁covers	-14244
▁discip	-14245
▁edited	-14246
▁marine	-14247
▁muscle	-14248
▁orbits	-14249
▁partly	-14250
▁signal	-14251
▁అధినేత	-14252
▁ఆకర్షి	-14253
▁ఉత్సవం	-14254
▁కాలేదు	-14255
▁దర్శనం	-14256
▁పితామహ	-14257
▁పుష్కర	-14258
▁పోటీలు	-14259
▁మగళూరు	-14260
▁మునిగి	-14261
▁మున్సి	-14262
▁రిజర్వ	-14263
▁వెళ్ళు	-14264
▁సంగ్రహ	-14265
restrial	-14266
▁Babbage	-14267
▁Burgess	-14268
▁Control	-14269
▁Florida	-14270
▁attacks	-14271
▁consult	-14272
▁disappe	-14273
▁existed	-14274
▁kingdom	-14275
▁ranking	-14276
▁showing	-14277
▁student	-14278
▁thermal	-14279
▁చండీగఢ్	-14280
▁రాబర్ట్	-14281
▁రామాయణం	-14282
abilities	-14283
▁Andorran	-14284
▁abundant	-14285
▁existing	-14286
▁festival	-14287
▁formally	-14288
▁partners	-14289
▁transfer	-14290
▁అప్పటికే	-14291
▁గుర్తించ	-14292
▁పద్ధతిలో	-14293
▁సంస్థానా	-14294
▁Peninsula	-14295
▁childhood	-14296
▁confirmed	-14297
▁expensive	-14298
▁petroleum	-14299
▁publisher	-14300
▁regularly	-14301
▁uncertain	-14302
▁తాత్కాలిక	-14303
▁మరణానంతరం	-14304
▁రాఘవేంద్ర	-14305
▁Christians	-14306
▁historians	-14307
▁మధ్యకాలంలో	-14308
ించుకున్నారు	-14309
▁Republicans	-14310
▁inhabitants	-14311
▁observation	-14312
▁కనుగొన్నాడు	-14313
▁కిన్నెరసాని	-14314
▁కృష్ణమూర్తి	-14315
▁శక్తివంతమైన	-14316
▁సూర్యనారాయణ	-14317
▁considerable	-14318
▁universities	-14319
▁అందుకున్నాడు	-14320
▁ఉత్తరప్రదేశ్	-14321
▁చరిత్రకారులు	-14322
▁పేర్కొన్నాడు	-14323
▁controversial	-14324
▁establishment	-14325
▁రాజకీయనాయకుడు	-14326
▁infrastructure	-14327
▁పునర్య్వస్థీకరణ	-14328
AI	-14329
kh	-14330
ée	-14331
టై	-14332
6),	-14333
aic	-14334
kog	-14335
obi	-14336
rig	-14337
rox	-14338
uts	-14339
ymn	-14340
zen	-14341
కాస	-14342
టైన	-14343
డన్	-14344
ధర్	-14345
భ్య	-14346
యని	-14347
రైన	-14348
వేష	-14349
షుల	-14350
▁81	-14351
▁AA	-14352
▁Av	-14353
▁Cr	-14354
▁ఆఖ	-14355
arth	-14356
dust	-14357
eric	-14358
ersh	-14359
gers	-14360
oids	-14361
ంగూర	-14362
క్షో	-14363
చూరి	-14364
జిప్	-14365
యాత్	-14366
యినా	-14367
విజయ	-14368
స్వీ	-14369
ామణి	-14370
ాయిక	-14371
▁165	-14372
▁22,	-14373
▁Ken	-14374
▁Pot	-14375
▁Wat	-14376
▁fib	-14377
▁lit	-14378
▁pan	-14379
▁అహో	-14380
▁గాథ	-14381
▁ధార	-14382
▁పరా	-14383
▁బెజ	-14384
▁మేళ	-14385
▁లఘు	-14386
▁స్ఫ	-14387
abled	-14388
adesh	-14389
vious	-14390
రులను	-14391
ల్సన్	-14392
విజను	-14393
ెక్స్	-14394
▁1915	-14395
▁1935	-14396
▁ANSI	-14397
▁Fund	-14398
▁Good	-14399
▁Troy	-14400
▁elev	-14401
▁glac	-14402
▁lies	-14403
▁sacr	-14404
▁talk	-14405
▁webs	-14406
▁ఉంటూ	-14407
▁కవుల	-14408
▁కూరగ	-14409
▁ఖనిజ	-14410
▁గూడా	-14411
▁చెప్	-14412
▁తీరం	-14413
▁దాస్	-14414
▁పూజా	-14415
▁పెంప	-14416
▁ఫిల్	-14417
▁లలిత	-14418
▁వంశం	-14419
▁వాహన	-14420
ancing	-14421
inates	-14422
ocracy	-14423
ortion	-14424
pected	-14425
కానికి	-14426
కులుగా	-14427
తెలంగా	-14428
ప్రసాద	-14429
మార్గం	-14430
యోధులు	-14431
శెట్టి	-14432
సంఖ్యా	-14433
ాధిపతి	-14434
ాలలోని	-14435
ిండియా	-14436
▁1915:	-14437
▁1938:	-14438
▁1958:	-14439
▁Atari	-14440
▁Buddh	-14441
▁Maria	-14442
▁calls	-14443
▁cited	-14444
▁cycle	-14445
▁diagn	-14446
▁manip	-14447
▁parad	-14448
▁prize	-14449
▁ruled	-14450
▁union	-14451
▁walls	-14452
▁ఆయనను	-14453
▁ఏర్పడ	-14454
▁కొట్ట	-14455
▁చెరకు	-14456
▁జీర్ణ	-14457
▁దేశము	-14458
▁నిద్ర	-14459
▁పక్షి	-14460
▁పటేల్	-14461
▁పనికి	-14462
▁పప్పు	-14463
▁బర్మా	-14464
▁బిడ్డ	-14465
▁మారిన	-14466
▁వివరణ	-14467
abulary	-14468
aration	-14469
enshire	-14470
▁10,000	-14471
▁Around	-14472
▁adding	-14473
▁detect	-14474
▁doctor	-14475
▁inform	-14476
▁legacy	-14477
▁owners	-14478
▁render	-14479
▁resemb	-14480
▁rising	-14481
▁strike	-14482
▁treaty	-14483
▁varies	-14484
▁అదనంగా	-14485
▁ఉత్తరం	-14486
▁కనుగొన	-14487
▁కొట్టు	-14488
▁జయించి	-14489
▁జర్మన్	-14490
▁దానితో	-14491
▁ద్వారం	-14492
▁పార్కు	-14493
▁సారిగా	-14494
▁Arietis	-14495
▁Similar	-14496
▁absence	-14497
▁chapter	-14498
▁engaged	-14499
▁illness	-14500
▁managed	-14501
▁orbital	-14502
▁periods	-14503
▁powered	-14504
▁strateg	-14505
▁volunte	-14506
▁అనువాదం	-14507
▁ఆసియాలో	-14508
▁ఆహ్వాని	-14509
▁కేసీఆర్	-14510
▁ప్రతీతి	-14511
▁విషయాలు	-14512
▁వ్యయంతో	-14513
▁శ్రీశైల	-14514
▁సంకీర్త	-14515
▁సహాయంతో	-14516
▁సినీనటి	-14517
▁Achaemen	-14518
▁Computer	-14519
▁Official	-14520
▁accident	-14521
▁anything	-14522
▁attended	-14523
▁capacity	-14524
▁challeng	-14525
▁commemor	-14526
▁currents	-14527
▁settlers	-14528
▁అంతర్జాల	-14529
▁కాలంలోనే	-14530
▁కేంద్రము	-14531
▁చిక్కుడు	-14532
▁చేసేవారు	-14533
▁డబ్బింగ్	-14534
▁దేశాన్ని	-14535
▁పార్టీలో	-14536
▁ప్రాంతపు	-14537
▁విశేషంగా	-14538
▁వ్యాసాలు	-14539
▁సహకారంతో	-14540
▁సినిమాకు	-14541
▁assistant	-14542
▁communion	-14543
▁determine	-14544
▁fictional	-14545
▁locations	-14546
▁అద్భుతమైన	-14547
▁చెన్నకేశవ	-14548
▁ముస్లింలు	-14549
▁Dictionary	-14550
▁constitute	-14551
▁foundation	-14552
▁అనువాదకుడు	-14553
▁ప్రయత్నాలు	-14554
▁సంస్కృతంలో	-14555
ించుచున్నారు	-14556
▁institution	-14557
▁translation	-14558
▁విద్యాసంస్థ	-14559
▁participated	-14560
▁presidential	-14561
▁successfully	-14562
▁శ్రీకృష్ణదేవ	-14563
▁Aberdeenshire	-14564
▁predominantly	-14565
93	-14566
Ac	-14567
▁?	-14568
aka	-14569
bal	-14570
bor	-14571
def	-14572
oic	-14573
reb	-14574
vol	-14575
ంచీ	-14576
గాక	-14577
డ్ర	-14578
నార	-14579
పదం	-14580
బుల	-14581
భవం	-14582
ళిత	-14583
ేశ్	-14584
▁(4	-14585
▁77	-14586
▁9.	-14587
▁98	-14588
▁Jr	-14589
▁Lt	-14590
▁Od	-14591
▁లత	-14592
ding	-14593
onda	-14594
othe	-14595
rors	-14596
ulus	-14597
ynom	-14598
టంలో	-14599
ట్రా	-14600
పాలి	-14601
ఫ్టు	-14602
బెట్	-14603
వేర్	-14604
సెస్	-14605
ించక	-14606
▁(10	-14607
▁Bal	-14608
▁Big	-14609
▁Ern	-14610
▁Hay	-14611
▁Hon	-14612
▁Lab	-14613
▁Log	-14614
▁Pto	-14615
▁org	-14616
▁ఆంధ	-14617
▁ఘోర	-14618
▁తగి	-14619
▁నిడ	-14620
▁పొర	-14621
▁శ్య	-14622
chest	-14623
lines	-14624
rient	-14625
క్టరీ	-14626
గ్వేద	-14627
టికల్	-14628
మండలి	-14629
ానికే	-14630
్రాన్	-14631
▁1901	-14632
▁Anth	-14633
▁Benj	-14634
▁Conc	-14635
▁Road	-14636
▁Selj	-14637
▁Sund	-14638
▁Upon	-14639
▁beta	-14640
▁doll	-14641
▁lose	-14642
▁merc	-14643
▁swim	-14644
▁task	-14645
▁vice	-14646
▁అడ్డ	-14647
▁అమృత	-14648
▁ఎఱ్ఱ	-14649
▁ఓడరే	-14650
▁తీసి	-14651
▁దేవా	-14652
▁ద్రవ	-14653
▁ధ్వజ	-14654
▁నీలం	-14655
▁బళ్ళ	-14656
▁బాబా	-14657
▁బార్	-14658
▁బాలా	-14659
▁యక్ష	-14660
▁రోజూ	-14661
▁వికీ	-14662
▁విలా	-14663
.2013)	-14664
thetic	-14665
దిద్దు	-14666
మేంద్ర	-14667
వంతుడు	-14668
స్థానీ	-14669
▁1,000	-14670
▁1926:	-14671
▁2017:	-14672
▁2020:	-14673
▁Labor	-14674
▁Stock	-14675
▁Women	-14676
▁dated	-14677
▁grown	-14678
▁peaks	-14679
▁pione	-14680
▁ports	-14681
▁sides	-14682
▁signs	-14683
▁solve	-14684
▁ఆకులు	-14685
▁ఇల్లు	-14686
▁ఎర్రన	-14687
▁కట్టి	-14688
▁కొండా	-14689
▁దిశగా	-14690
▁ధర్మా	-14691
▁నడుపు	-14692
▁పరుగు	-14693
▁బానిస	-14694
▁మర్రి	-14695
▁విజ్ఞ	-14696
istical	-14697
ultural	-14698
కేంద్రం	-14699
పరెడ్డి	-14700
వర్సిటీ	-14701
▁Disney	-14702
▁Unlike	-14703
▁bottom	-14704
▁format	-14705
▁meteor	-14706
▁sounds	-14707
▁stress	-14708
▁sulfur	-14709
▁writes	-14710
▁అధిష్ట	-14711
▁అధ్యయన	-14712
▁అనుకూల	-14713
▁ఆక్రమణ	-14714
▁ఇంటికి	-14715
▁ఏనుగుల	-14716
▁కమిషన్	-14717
▁గుత్తి	-14718
▁గోంగూర	-14719
▁గ్రేట్	-14720
▁త్రాగు	-14721
▁నమ్మకం	-14722
▁పాలకుల	-14723
▁బెజవాడ	-14724
▁బొగ్గు	-14725
▁భవిష్య	-14726
▁రచయితల	-14727
▁రసాయనం	-14728
▁వాళ్ళు	-14729
▁వాస్తవ	-14730
▁వాస్తు	-14731
▁వేగంగా	-14732
▁శాసనము	-14733
లున్నాయి	-14734
ించేవాడు	-14735
▁Animals	-14736
▁Journal	-14737
▁appeals	-14738
▁aqueous	-14739
▁classes	-14740
▁earthqu	-14741
▁flowers	-14742
▁passing	-14743
▁readily	-14744
▁replace	-14745
▁revenue	-14746
▁samples	-14747
▁sensory	-14748
▁unusual	-14749
▁అటువంటి	-14750
▁అన్నారు	-14751
▁కారాగార	-14752
▁కార్మిక	-14753
▁కావడంతో	-14754
▁తెలిసిన	-14755
▁నాయకత్వ	-14756
▁నూతనంగా	-14757
▁మద్రాస్	-14758
▁రవీంద్ర	-14759
▁annually	-14760
▁founding	-14761
▁officers	-14762
▁platform	-14763
▁reserves	-14764
▁struggle	-14765
▁supplies	-14766
▁survived	-14767
▁syllable	-14768
▁నిపుణులు	-14769
▁పత్రికలు	-14770
▁ప్రతిబిం	-14771
▁విధానాలు	-14772
▁వ్యాపారం	-14773
▁సంజీవయ్య	-14774
▁defendant	-14775
▁displayed	-14776
▁estimates	-14777
▁executive	-14778
▁explained	-14779
▁gradually	-14780
▁livestock	-14781
▁కళాకారులు	-14782
▁కాకతీయులు	-14783
▁గ్రామములో	-14784
▁దినపత్రిక	-14785
▁పరిపాలనలో	-14786
▁ముఖ్యముగా	-14787
▁వ్యక్తిగత	-14788
▁Asteraceae	-14789
▁Production	-14790
▁Volkswagen	-14791
▁basketball	-14792
▁leadership	-14793
▁నిజామాబాద్	-14794
▁ప్రవేశించి	-14795
▁మచిలీపట్నం	-14796
▁substantial	-14797
▁civilization	-14798
▁occasionally	-14799
▁significance	-14800
▁transmission	-14801
▁అందుకున్నారు	-14802
▁circumstances	-14803
▁distinguished	-14804
▁అంతర్జాతీయంగా	-14805
▁representation	-14806
▁నాగార్జునసాగర్	-14807
!"	-14808
Ap	-14809
yt	-14810
గై	-14811
–3	-14812
-10	-14813
-12	-14814
gal	-14815
lik	-14816
rav	-14817
whe	-14818
who	-14819
yst	-14820
ంటీ	-14821
కటి	-14822
కరు	-14823
కైన	-14824
గేయ	-14825
దశి	-14826
మ్య	-14827
సేన	-14828
ాడట	-14829
ేణా	-14830
ొని	-14831
▁చల	-14832
▁నల	-14833
aked	-14834
cher	-14835
come	-14836
greg	-14837
kins	-14838
mann	-14839
uras	-14840
ఆంగ్	-14841
కాన్	-14842
కాశ్	-14843
కుంద	-14844
క్వా	-14845
టినీ	-14846
తారా	-14847
దన్న	-14848
పత్ర	-14849
పోటు	-14850
బులు	-14851
వద్ద	-14852
షియం	-14853
ారోగ	-14854
▁10.	-14855
▁162	-14856
▁30,	-14857
▁Cap	-14858
▁Die	-14859
▁Mur	-14860
▁Tem	-14861
▁bre	-14862
▁lic	-14863
▁sen	-14864
▁ఋతు	-14865
▁ఏటా	-14866
▁ఛాన	-14867
▁తను	-14868
▁మూడ	-14869
▁సుమ	-14870
▁సోద	-14871
etics	-14872
gence	-14873
ipher	-14874
pping	-14875
ంత్రా	-14876
కాలను	-14877
టెంట్	-14878
భక్తి	-14879
రత్నం	-14880
రాణిక	-14881
ర్వేద	-14882
స్థుల	-14883
ించని	-14884
▁Clin	-14885
▁Huns	-14886
▁Malt	-14887
▁Mean	-14888
▁Pash	-14889
▁Plan	-14890
▁Prof	-14891
▁alle	-14892
▁belt	-14893
▁deaf	-14894
▁none	-14895
▁plus	-14896
▁styl	-14897
▁warm	-14898
▁ఖాళీ	-14899
▁డైరె	-14900
▁తరహా	-14901
▁తానే	-14902
▁తొండ	-14903
▁దినం	-14904
▁దీవి	-14905
▁పెరగ	-14906
▁రాఘవ	-14907
▁వర్మ	-14908
▁వేసు	-14909
▁శంకర	-14910
▁శ్రమ	-14911
▁షిప్	-14912
▁సరోజ	-14913
▁సాగి	-14914
▁హోదా	-14915
.2017)	-14916
00,000	-14917
apping	-14918
hedral	-14919
idents	-14920
క్కిలి	-14921
దారులు	-14922
▁1908:	-14923
▁1923:	-14924
▁1944:	-14925
▁1988:	-14926
▁1996:	-14927
▁2002:	-14928
▁2003,	-14929
▁Byron	-14930
▁Games	-14931
▁Gersh	-14932
▁Power	-14933
▁breat	-14934
▁cloud	-14935
▁draft	-14936
▁exerc	-14937
▁homes	-14938
▁inert	-14939
▁limbs	-14940
▁loyal	-14941
▁piece	-14942
▁renew	-14943
▁royal	-14944
▁tests	-14945
▁thick	-14946
▁అంకిత	-14947
▁అధికర	-14948
▁అసోసి	-14949
▁ఆరోపణ	-14950
▁ఏదైనా	-14951
▁కచ్చి	-14952
▁చీరాల	-14953
▁చూసిన	-14954
▁చోట్ల	-14955
▁నెలలో	-14956
▁పబ్లి	-14957
▁పుత్ర	-14958
▁వారసు	-14959
▁సన్యా	-14960
పడ్డాడు	-14961
వరెడ్డి	-14962
▁Austin	-14963
▁Master	-14964
▁assert	-14965
▁budget	-14966
▁lasted	-14967
▁merely	-14968
▁phonem	-14969
▁safety	-14970
▁varian	-14971
▁గాంధేయ	-14972
▁గూర్చి	-14973
▁జేమ్స్	-14974
▁టిప్పు	-14975
▁నివాసం	-14976
▁మిగిలి	-14977
▁సామర్థ	-14978
▁సురవరం	-14979
▁స్థావర	-14980
illation	-14981
language	-14982
క్ట్రాని	-14983
మవుతుంది	-14984
▁Algiers	-14985
▁Rearden	-14986
▁balance	-14987
▁episode	-14988
▁extinct	-14989
▁extract	-14990
▁logical	-14991
▁partner	-14992
▁planets	-14993
▁shortly	-14994
▁therapy	-14995
▁younger	-14996
▁అస్సామీ	-14997
▁డివిజను	-14998
▁దట్టమైన	-14999
▁నారాయణ్	-15000
▁ప్రపంచం	-15001
▁శ్రీమతి	-15002
▁Anderson	-15003
▁Benjamin	-15004
▁Buddhist	-15005
▁Gershwin	-15006
▁Ministry	-15007
▁admitted	-15008
▁arranged	-15009
▁historic	-15010
▁interior	-15011
▁magnetic	-15012
▁minerals	-15013
▁చూడవచ్చు	-15014
▁చేసుకొని	-15015
▁రంగారావు	-15016
▁వంశానికి	-15017
▁సింహాసనం	-15018
▁Therefore	-15019
▁consisted	-15020
▁procedure	-15021
▁సంభవించిన	-15022
▁సంస్కరణలు	-15023
▁difficulty	-15024
▁linguistic	-15025
▁statistics	-15026
▁understand	-15027
▁నిర్వహించి	-15028
▁విధానాన్ని	-15029
▁వేంకటేశ్వర	-15030
▁శ్రీనివాస్	-15031
▁Agriculture	-15032
▁anniversary	-15033
▁inspiration	-15034
▁specialized	-15035
▁గుర్తించారు	-15036
▁హైదరాబాదుకు	-15037
▁architecture	-15038
▁ప్రొద్దుటూరు	-15039
▁రాజమహేంద్రవరం	-15040
1]	-15041
IV	-15042
pa	-15043
కట	-15044
యై	-15045
7),	-15046
ami	-15047
dis	-15048
ంకా	-15049
ందన	-15050
కుశ	-15051
గనై	-15052
డనే	-15053
నగర	-15054
మిం	-15055
శనగ	-15056
హ్య	-15057
ేవ్	-15058
▁72	-15059
▁Ca	-15060
▁Da	-15061
▁Di	-15062
▁ce	-15063
▁అజ	-15064
▁దయ	-15065
▁పఠ	-15066
▁ఫె	-15067
abet	-15068
hard	-15069
oung	-15070
rary	-15071
ందుల	-15072
కిల్	-15073
తుకు	-15074
తోనే	-15075
భ్యా	-15076
మానం	-15077
లక్ష	-15078
స్టా	-15079
ాంశం	-15080
ామస్	-15081
ెంటు	-15082
ెట్ల	-15083
▁241	-15084
▁26,	-15085
▁80%	-15086
▁Att	-15087
▁Det	-15088
▁Fre	-15089
▁Low	-15090
▁Luc	-15091
▁Rie	-15092
▁Tel	-15093
▁Tok	-15094
▁bed	-15095
▁got	-15096
▁rig	-15097
▁tun	-15098
▁చెల	-15099
▁తరి	-15100
▁తలస	-15101
▁దిగ	-15102
▁మఠం	-15103
▁సన్	-15104
▁హొయ	-15105
elian	-15106
emble	-15107
izers	-15108
opter	-15109
ండేవి	-15110
ంద్రత	-15111
త్సాహ	-15112
దండ్ర	-15113
ర్ణమి	-15114
లాండు	-15115
లేదని	-15116
శాలలో	-15117
ాల్ని	-15118
▁1850	-15119
▁Bang	-15120
▁Belg	-15121
▁Beng	-15122
▁Berg	-15123
▁Leon	-15124
▁Pier	-15125
▁Rena	-15126
▁card	-15127
▁clay	-15128
▁ends	-15129
▁join	-15130
▁judg	-15131
▁lift	-15132
▁lung	-15133
▁miss	-15134
▁nick	-15135
▁note	-15136
▁sail	-15137
▁unsu	-15138
▁ఆచంట	-15139
▁ఇష్ట	-15140
▁కలుగ	-15141
▁కుంభ	-15142
▁కోట్	-15143
▁నష్ట	-15144
▁నిరం	-15145
▁పడమర	-15146
▁వివే	-15147
▁వేషం	-15148
▁శివు	-15149
▁సాధన	-15150
.2012)	-15151
acular	-15152
encies	-15153
ipping	-15154
తుల్లో	-15155
త్తీస్	-15156
వాదులు	-15157
▁1937:	-15158
▁1968:	-15159
▁1997:	-15160
▁2014:	-15161
▁accum	-15162
▁birds	-15163
▁comed	-15164
▁drawn	-15165
▁error	-15166
▁grass	-15167
▁marks	-15168
▁prove	-15169
▁roads	-15170
▁tools	-15171
▁voted	-15172
▁అగ్రహ	-15173
▁అభ్యస	-15174
▁అసమాన	-15175
▁ఆర్మీ	-15176
▁జాతుల	-15177
▁తిరస్	-15178
▁పాడిన	-15179
▁ప్రోల	-15180
▁భారతి	-15181
▁వాహనం	-15182
▁సాధ్య	-15183
English	-15184
astings	-15185
ockwork	-15186
ungusic	-15187
చున్నవి	-15188
పాధ్యాయ	-15189
లూరిపేట	-15190
▁Alchem	-15191
▁Ancyra	-15192
▁Argent	-15193
▁Global	-15194
▁Little	-15195
▁Lovell	-15196
▁Member	-15197
▁Period	-15198
▁Saturn	-15199
▁Scient	-15200
▁Series	-15201
▁desire	-15202
▁intern	-15203
▁linked	-15204
▁radius	-15205
▁scenes	-15206
▁అభయారణ	-15207
▁తరచుగా	-15208
▁తెచ్చి	-15209
▁పోలవరం	-15210
▁భాస్కర	-15211
▁మండలాల	-15212
▁హక్కుల	-15213
విష్ణువు	-15214
▁Harvard	-15215
▁Muslims	-15216
▁capable	-15217
▁chemist	-15218
▁chronic	-15219
▁connect	-15220
▁details	-15221
▁dropped	-15222
▁fishing	-15223
▁markets	-15224
▁militia	-15225
▁polynom	-15226
▁records	-15227
▁ఆధారపడి	-15228
▁చెందాయి	-15229
▁పెట్టిన	-15230
▁ప్రవేశం	-15231
▁లెక్కలు	-15232
▁సమాజంలో	-15233
▁సముద్రమ	-15234
▁సాగింది	-15235
aecilians	-15236
ామిరెడ్డి	-15237
▁Campbell	-15238
▁constitu	-15239
▁counties	-15240
▁declined	-15241
▁finished	-15242
▁formerly	-15243
▁indirect	-15244
▁unstable	-15245
▁variance	-15246
▁చెప్పారు	-15247
▁దంపతులకు	-15248
▁నిడదవోలు	-15249
▁రామరాయలు	-15250
ifications	-15251
▁candidate	-15252
▁conquered	-15253
▁reflected	-15254
▁secession	-15255
▁చారిత్రిక	-15256
▁వ్యవస్థను	-15257
▁సత్యాగ్రహ	-15258
▁manuscript	-15259
▁parliament	-15260
▁references	-15261
▁ఇంగ్లీషులో	-15262
▁ఉద్యమాన్ని	-15263
▁నిర్మాణాలు	-15264
▁ప్రోగ్రాము	-15265
▁అధికారంలోకి	-15266
▁పురస్కారాలు	-15267
▁ప్రారంభించి	-15268
▁ఉద్భవించింది	-15269
▁ప్రతాపరెడ్డి	-15270
▁ప్రారంభించిన	-15271
▁precipitation	-15272
▁దక్షిణాఫ్రికా	-15273
SM	-15274
bu	-15275
ds	-15276
ht	-15277
zo	-15278
గౌ	-15279
ణె	-15280
ాధ	-15281
-15	-15282
5),	-15283
8).	-15284
alo	-15285
ela	-15286
iak	-15287
lic	-15288
lts	-15289
raq	-15290
rie	-15291
tis	-15292
tym	-15293
uum	-15294
vin	-15295
ంక్	-15296
కోశ	-15297
డను	-15298
దీత	-15299
రణి	-15300
లంబ	-15301
ారట	-15302
▁AP	-15303
▁వధ	-15304
▁వో	-15305
anga	-15306
atus	-15307
elly	-15308
emis	-15309
free	-15310
gary	-15311
heim	-15312
iest	-15313
ieth	-15314
izer	-15315
oons	-15316
oses	-15317
roke	-15318
vest	-15319
కుడి	-15320
క్తా	-15321
చేసే	-15322
నుడి	-15323
బాబా	-15324
భావం	-15325
వర్త	-15326
విడ్	-15327
విన్	-15328
సంపద	-15329
స్పి	-15330
ూర్జ	-15331
▁1,0	-15332
▁172	-15333
▁70%	-15334
▁Bad	-15335
▁Ban	-15336
▁Cro	-15337
▁Dyn	-15338
▁Ess	-15339
▁Ext	-15340
▁Far	-15341
▁Las	-15342
▁Lib	-15343
▁Net	-15344
▁Qur	-15345
▁Sac	-15346
▁Six	-15347
▁dio	-15348
▁gar	-15349
▁tim	-15350
▁ఆన్	-15351
▁ఎలె	-15352
▁కరా	-15353
▁కోన	-15354
▁చీర	-15355
▁జంగ	-15356
▁తామ	-15357
▁పొల	-15358
▁బడి	-15359
▁భోజ	-15360
▁హోం	-15361
acent	-15362
aucas	-15363
inder	-15364
inian	-15365
omous	-15366
ంపాడు	-15367
గుండం	-15368
గొట్ట	-15369
డ్కర్	-15370
భాషగా	-15371
శంకర్	-15372
▁1910	-15373
▁Baku	-15374
▁Ball	-15375
▁Jane	-15376
▁Long	-15377
▁Much	-15378
▁Winn	-15379
▁clin	-15380
▁diff	-15381
▁drop	-15382
▁fest	-15383
▁gest	-15384
▁rice	-15385
▁tong	-15386
▁wing	-15387
▁అరబ్	-15388
▁అసఫ్	-15389
▁ఇరవై	-15390
▁దిగి	-15391
▁నాల్	-15392
▁భోజన	-15393
▁మనసు	-15394
▁మేలు	-15395
▁లోతు	-15396
▁వడ్డ	-15397
▁వాసి	-15398
▁శ్రా	-15399
▁హీరో	-15400
contin	-15401
finals	-15402
fishes	-15403
ltskog	-15404
ricted	-15405
rowing	-15406
గృహాలు	-15407
చుకొని	-15408
డాన్ని	-15409
నాత్మక	-15410
నేషియా	-15411
పరేషన్	-15412
శాన్ని	-15413
ామాణిక	-15414
▁1993:	-15415
▁1995:	-15416
▁1999,	-15417
▁2000,	-15418
▁2001,	-15419
▁2004,	-15420
▁2004:	-15421
▁Akira	-15422
▁Alien	-15423
▁Babyl	-15424
▁Chief	-15425
▁Dougl	-15426
▁Eagle	-15427
▁Front	-15428
▁Seven	-15429
▁Steve	-15430
▁bases	-15431
▁deity	-15432
▁inaug	-15433
▁ionic	-15434
▁kings	-15435
▁pilot	-15436
▁pseud	-15437
▁rugby	-15438
▁thing	-15439
▁waste	-15440
▁అదనపు	-15441
▁ఇరాక్	-15442
▁ఒకటైన	-15443
▁ఒడిశా	-15444
▁గొల్ల	-15445
▁తరపున	-15446
▁తలసరి	-15447
▁దౌత్య	-15448
▁నాటకర	-15449
▁నేత్ర	-15450
▁పర్యట	-15451
▁భట్టి	-15452
▁సాగిన	-15453
వరంలోను	-15454
ాల్లోని	-15455
ించుటకు	-15456
▁Agency	-15457
▁Aquari	-15458
▁Borman	-15459
▁Omotic	-15460
▁Public	-15461
▁Review	-15462
▁agents	-15463
▁arrest	-15464
▁earned	-15465
▁iPhone	-15466
▁leaves	-15467
▁movies	-15468
▁prices	-15469
▁regime	-15470
▁twelve	-15471
▁అద్భుత	-15472
▁జాతికి	-15473
▁దిక్కు	-15474
▁దూరంగా	-15475
▁నాలుగవ	-15476
▁పండ్లు	-15477
▁బెల్లం	-15478
▁విశ్రా	-15479
▁వీరుడు	-15480
▁స్వర్గ	-15481
ప్రస్తుత	-15482
రిస్తారు	-15483
స్థాయిలో	-15484
▁Calgary	-15485
▁Country	-15486
▁Picture	-15487
▁acceler	-15488
▁affairs	-15489
▁ethical	-15490
▁exposed	-15491
▁founder	-15492
▁marking	-15493
▁maximum	-15494
▁origins	-15495
▁premier	-15496
▁renamed	-15497
▁temples	-15498
▁weather	-15499
▁winners	-15500
▁అవతారము	-15501
▁తీర్మాన	-15502
▁నెల్సన్	-15503
▁పూజయామి	-15504
▁బళ్ళారి	-15505
▁విలువైన	-15506
▁సరోజినీ	-15507
పిస్తుంది	-15508
▁Advanced	-15509
▁Encyclop	-15510
▁Hastings	-15511
▁bacteria	-15512
▁diameter	-15513
▁drinking	-15514
▁emission	-15515
▁proposal	-15516
▁publicly	-15517
▁ఉండవచ్చు	-15518
▁చరిత్రను	-15519
▁టెన్నిస్	-15520
▁ద్వీపాలు	-15521
▁న్యూక్లి	-15522
▁బెంగళూరు	-15523
▁రూపాంతరం	-15524
▁విభాగంలో	-15525
▁వీరబ్రహ్	-15526
vironments	-15527
▁Anatolian	-15528
▁Committee	-15529
▁invention	-15530
▁preferred	-15531
▁southeast	-15532
▁telescope	-15533
▁కొండపల్లి	-15534
▁త్యాగరాజు	-15535
▁పితామహుడు	-15536
▁ప్రతిపాదన	-15537
▁ప్రసారాలు	-15538
▁సినిమాలలో	-15539
▁Protestant	-15540
▁continuous	-15541
▁electronic	-15542
▁extraction	-15543
▁publishing	-15544
▁substances	-15545
▁తల్లిదండ్ర	-15546
▁తెలుగువారి	-15547
▁పట్టణంలోని	-15548
▁మార్కాపురం	-15549
▁యుద్ధానికి	-15550
▁consumption	-15551
▁distinction	-15552
▁legislature	-15553
[...]
