<unk>	0
<s>	0
</s>	0
్ర	-0
▁ప	-1
▁క	-2
▁స	-3
ార	-4
▁వ	-5
ని	-6
్య	-7
లో	-8
న్	-9
ాల	-10
ంద	-11
▁మ	-12
ర్	-13
▁అ	-14
లు	-15
స్	-16
▁న	-17
▁గ	-18
▁ర	-19
▁ఉ	-20
క్	-21
▁ప్ర	-22
ంది	-23
▁చ	-24
న్న	-25
రు	-26
ాయ	-27
డి	-28
ామ	-29
డు	-30
▁త	-31
ిం	-32
కు	-33
ల్	-34
▁ద	-35
▁ఆ	-36
ంలో	-37
▁జ	-38
త్	-39
గా	-40
▁బ	-41
▁1	-42
ను	-43
ించ	-44
కి	-45
రి	-46
ారు	-47
▁వి	-48
▁గ్ర	-49
తు	-50
ట్	-51
టి	-52
ాయి	-53
▁గ్రామ	-54
తి	-55
▁భ	-56
▁ఇ	-57
గు	-58
త్ర	-59
ండ	-60
▁సం	-61
ిన	-62
▁ఉన్న	-63
ాలు	-64
▁శ	-65
్వ	-66
టు	-67
ము	-68
ల్ల	-69
ార్	-70
రా	-71
వు	-72
▁ల	-73
ిక	-74
ద్	-75
ుం	-76
ాం	-77
మీ	-78
ది	-79
ష్	-80
ాని	-81
ాన	-82
వి	-83
▁(	-84
▁ఈ	-85
▁రా	-86
▁హ	-87
సు	-88
▁ని	-89
పు	-90
▁నుం	-91
ాడు	-92
▁ఎ	-93
ంగా	-94
▁చే	-95
లి	-96
▁ఒ	-97
డ్	-98
▁నుండి	-99
తో	-100
▁ఉంది	-101
▁2	-102
ంట	-103
ారి	-104
▁ఉన్నాయి	-105
▁పా	-106
ైన	-107
శాల	-108
దు	-109
వా	-110
▁కి	-111
కర	-112
▁వ్య	-113
డా	-114
ంద్ర	-115
▁ఒక	-116
ప్	-117
క్ట	-118
ద్య	-119
ేశ	-120
ానికి	-121
క్ష	-122
నే	-123
మా	-124
▁19	-125
మి	-126
▁-	-127
న్ని	-128
▁సి	-129
ెం	-130
ూర	-131
చి	-132
బ్	-133
▁కే	-134
గ్	-135
స్తు	-136
స్త	-137
▁తె	-138
▁గ్రామంలో	-139
▁గ్రామం	-140
వే	-141
చ్	-142
▁ము	-143
ిల్ల	-144
మ్	-145
▁లో	-146
▁చె	-147
్రీ	-148
్యం	-149
▁కేంద్ర	-150
క్క	-151
▁కొ	-152
స్థ	-153
ందు	-154
▁స్	-155
▁దూర	-156
ారా	-157
▁వ్యవ	-158
జు	-159
త్వ	-160
సి	-161
నా	-162
రం	-163
▁దూరంలో	-164
▁పో	-165
త్త	-166
▁య	-167
▁జిల్ల	-168
▁చి	-169
▁ఏ	-170
▁10	-171
ారం	-172
ాగ	-173
ోగ	-174
యం	-175
ట్ట	-176
ళ్	-177
▁కూ	-178
ించి	-179
▁భూ	-180
▁లే	-181
▁మొ	-182
తా	-183
▁20	-184
▁జిల్లా	-185
▁కు	-186
ూర్	-187
ట్ర	-188
▁కో	-189
రుగు	-190
▁నిర్	-191
▁పు	-192
ప్ర	-193
గి	-194
▁రో	-195
▁హె	-196
కా	-197
ఖ్య	-198
▁భార	-199
త్య	-200
ీయ	-201
బడి	-202
▁కా	-203
చ్చ	-204
▁మా	-205
▁వా	-206
ంచ	-207
▁సౌ	-208
▁ప్రభ	-209
▁5	-210
ద్ధ	-211
నీ	-212
ద్ద	-213
▁హెక్ట	-214
ంత	-215
పి	-216
▁హెక్టార్	-217
లా	-218
▁సౌకర	-219
▁కూడా	-220
పా	-221
▁కేంద్రం	-222
▁గు	-223
ించిన	-224
▁వై	-225
▁పాఠ	-226
ధ్య	-227
▁కళ	-228
▁ప్రభు	-229
▁ద్వ	-230
హి	-231
సాయ	-232
▁సమీ	-233
▁పాఠశాల	-234
య్య	-235
తం	-236
మైన	-237
▁సిని	-238
▁ప్రభుత్వ	-239
త్స	-240
▁ఫ	-241
లుగు	-242
▁భారత	-243
▁రాజ	-244
మ్మ	-245
ప్ప	-246
▁వ్యవసాయ	-247
▁సా	-248
మిక	-249
▁హెక్టార్లు	-250
▁స్వ	-251
ేవ	-252
▁ప్రా	-253
▁పె	-254
ంగ	-255
యి	-256
▁శ్రీ	-257
త్రి	-258
▁కళా	-259
దేశ	-260
▁నీ	-261
ళ్ళ	-262
ష్ట్ర	-263
▁ద్వారా	-264
▁సమీప	-265
బా	-266
▁వే	-267
టీ	-268
ంధ	-269
▁సు	-270
ండల	-271
▁విద్య	-272
ూరు	-273
ర్శ	-274
ివ	-275
▁భూమి	-276
▁3	-277
▁కళాశాల	-278
ైవే	-279
యా	-280
▁తెలుగు	-281
▁రాష్ట్ర	-282
▁డి	-283
ష్ణ	-284
్రా	-285
కొ	-286
ేష	-287
▁బా	-288
▁సర	-289
ైవేటు	-290
న్నాయి	-291
ీసు	-292
ుల	-293
▁చిత్ర	-294
▁రోజు	-295
▁సినిమా	-296
▁సామ	-297
▁తి	-298
్యా	-299
▁పరి	-300
ాంత	-301
దల	-302
ాల్	-303
▁పై	-304
ుడు	-305
▁మండల	-306
19	-307
బ్బ	-308
▁శా	-309
▁వె	-310
▁పే	-311
దా	-312
ణి	-313
ించారు	-314
కో	-315
▁రచ	-316
లలో	-317
▁వైద్య	-318
▁సౌకర్యం	-319
▁జన	-320
్రి	-321
సం	-322
నియ	-323
రణ	-324
▁భా	-325
▁డా	-326
థమిక	-327
ులు	-328
ధాన	-329
▁ప్రైవేటు	-330
్యూ	-331
ందిన	-332
భా	-333
ట్టి	-334
▁వీ	-335
తుంది	-336
బడిన	-337
కృ	-338
▁పి	-339
కం	-340
రాల	-341
▁పొ	-342
లను	-343
▁కార	-344
▁సంఖ్య	-345
నం	-346
డం	-347
డ్డి	-348
▁నా	-349
తర	-350
▁అనే	-351
త్తి	-352
క్కు	-353
స్తుంది	-354
హద	-355
▁సరఫ	-356
సిన	-357
న్నారు	-358
వం	-359
▁మార్	-360
▁డాక్ట	-361
ింగ్	-362
▁ఆర	-363
▁ఇం	-364
▁ఇది	-365
వత్స	-366
రావు	-367
ించాడు	-368
లకు	-369
ల్లి	-370
▁201	-371
▁రామ	-372
▁ప్రాథమిక	-373
▁అత	-374
ర్లు	-375
▁తన	-376
హా	-377
▁ఉన్నారు	-378
▁స్థ	-379
ాలను	-380
▁"	-381
రీ	-382
పో	-383
లే	-384
పతి	-385
▁ట	-386
▁శి	-387
దే	-388
▁రహద	-389
మె	-390
ంటే	-391
▁సమ	-392
00	-393
▁సంవత్స	-394
్రహ	-395
▁ప్రాంత	-396
▁పార	-397
▁గో	-398
▁రహదారి	-399
కుడు	-400
వాత	-401
జీ	-402
▁చెందిన	-403
▁ష	-404
ాత	-405
నూ	-406
లీ	-407
వులు	-408
ల్లో	-409
▁కాల	-410
ండ్	-411
వరి	-412
▁ప్రక	-413
▁ఆరోగ	-414
▁అవ	-415
▁పైబడిన	-416
చు	-417
రకు	-418
ీత	-419
▁దర్శ	-420
▁మే	-421
▁మీ	-422
▁నే	-423
ెడ్డి	-424
▁సరఫరా	-425
ప్పు	-426
▁4	-427
చే	-428
ద్ధి	-429
ర్త	-430
స్ట	-431
▁ప్రధాన	-432
్యాం	-433
▁వ్యవస్థ	-434
▁పం	-435
శా	-436
క్ర	-437
▁సంగ	-438
..	-439
పాల	-440
ేషన్	-441
▁విజ	-442
▁కార్య	-443
ాప	-444
▁ఉండ	-445
వల	-446
ఫీసు	-447
▁పాల	-448
▁పట్ట	-449
పై	-450
కాల	-451
▁జూ	-452
పె	-453
▁కృ	-454
శ్వ	-455
ంధ్ర	-456
▁ఆల	-457
కల్	-458
ేశ్వ	-459
ణా	-460
▁అభ	-461
▁చేయ	-462
▁,	-463
▁జరి	-464
▁18	-465
జి	-466
▁అందు	-467
ాలయం	-468
ణం	-469
▁మూ	-470
తోంది	-471
డే	-472
లోని	-473
▁ప్రత్య	-474
యన	-475
ఫ్	-476
▁బాల	-477
ాజ	-478
ంబ	-479
▁7	-480
దలైన	-481
క్కువ	-482
శు	-483
▁సహ	-484
ద్ర	-485
▁అను	-486
▁అని	-487
▁ఆర్	-488
.19	-489
సా	-490
కీ	-491
▁జరుగు	-492
▁ఆంధ్ర	-493
స్తారు	-494
వారి	-495
▁కలి	-496
ెండు	-497
రో	-498
ట్టు	-499
▁దీ	-500
▁రూ	-501
▁లేదు	-502
▁తరు	-503
▁బి	-504
్మ	-505
▁కె	-506
ానం	-507
తులు	-508
ామి	-509
ాలలో	-510
ండా	-511
ధి	-512
ధిక	-513
ేక	-514
▁జనా	-515
▁ఉప	-516
▁పేరు	-517
▁రెండు	-518
్యాలు	-519
క్షి	-520
ెడి	-521
రించి	-522
లతో	-523
నరు	-524
యిత	-525
స్సు	-526
▁ధ	-527
▁6	-528
జ్	-529
ాతీయ	-530
▁నిర్మ	-531
▁జనాభా	-532
▁పాఠశాలలు	-533
మే	-534
గిన	-535
ోన్	-536
మం	-537
▁వారి	-538
ాజిక	-539
ైల్	-540
గణ	-541
▁ఆరోగ్య	-542
▁సామాజిక	-543
ెడికల్	-544
▁సిబ్బ	-545
▁దేవ	-546
▁తరువాత	-547
▁కృష్ణ	-548
ైద	-549
▁మి	-550
రంగ	-551
▁ఎక్కువ	-552
చ్చి	-553
లంగా	-554
▁యు	-555
▁స్ట	-556
ర్వ	-557
ెట్	-558
▁గ్రామానికి	-559
తీ	-560
వర్	-561
ాన్	-562
క్షణ	-563
▁పారామ	-564
▁సంస్థ	-565
▁పారామెడికల్	-566
▁నగ	-567
జ్య	-568
▁ఇతర	-569
స్వ	-570
ారాయ	-571
▁డ	-572
▁ప్రవ	-573
ించే	-574
▁డాక్టర్లు	-575
▁ఘ	-576
▁పర	-577
▁విద్యా	-578
▁మొద	-579
బు	-580
▁కింది	-581
▁ప్రతి	-582
▁భాష	-583
తున్నాయి	-584
▁మహ	-585
నీరు	-586
▁చూ	-587
▁నట	-588
దేశ్	-589
▁8	-590
▁నిర్వ	-591
▁ఏర్	-592
ర్మ	-593
రియ	-594
ంటు	-595
▁పాటు	-596
▁సౌకర్యాలు	-597
▁మురుగు	-598
▁నీటి	-599
ంలోని	-600
ందీ	-601
▁ప్రజ	-602
▁తీ	-603
▁టె	-604
పే	-605
యో	-606
యిన	-607
భి	-608
క్కడ	-609
▁దా	-610
గొ	-611
డానికి	-612
ించింది	-613
బర్	-614
ములో	-615
▁ఎస్	-616
▁ఖ	-617
▁200	-618
ైన్	-619
▁ప్రకారం	-620
ించు	-621
▁తెలంగా	-622
దీ	-623
▁సే	-624
గ్రీ	-625
ేశ్వర	-626
ూర్తి	-627
మో	-628
▁వం	-629
▁అంత	-630
▁ఒకటి	-631
▁నీరు	-632
చార	-633
▁దేశ	-634
నికి	-635
గ్గ	-636
పల్లి	-637
ీల	-638
ష్ట	-639
▁లేని	-640
▁వచ్చ	-641
ూరి	-642
▁కథ	-643
డ్డ	-644
ంటారు	-645
▁రె	-646
పూర్	-647
ండి	-648
▁ముఖ్య	-649
ారాయణ	-650
స్త్ర	-651
▁నె	-652
రే	-653
స్తున్న	-654
▁రోడ్	-655
▁పోష	-656
డుగు	-657
్రహ్మ	-658
▁డిగ్రీ	-659
లం	-660
▁ఐ	-661
▁హి	-662
▁మం	-663
కులు	-664
▁జాతీయ	-665
ొక్క	-666
ాన్ని	-667
▁కం	-668
కార	-669
కే	-670
ెడ	-671
త్రిక	-672
▁రచన	-673
▁'	-674
),	-675
ృద్ధి	-676
కత్వ	-677
కట	-678
బో	-679
▁ఆట	-680
▁ప్రత్యేక	-681
బరు	-682
▁మంది	-683
▁ఉత్	-684
▁సంఘ	-685
▁నిర్మా	-686
యోగ	-687
▁పట్టణ	-688
20	-689
ములు	-690
▁వ్యవసాయం	-691
▁9	-692
▁మొదలైన	-693
ెస్	-694
▁ఓ	-695
▁ఇంట	-696
క్తి	-697
▁గణ	-698
▁బస్సు	-699
ారావు	-700
▁లోని	-701
ినీ	-702
గణన	-703
▁పెద్ద	-704
క్ష్	-705
▁నాయ	-706
▁గా	-707
పం	-708
▁అధిక	-709
▁బ్యాం	-710
బ్లి	-711
▁సె	-712
▁దు	-713
▁నిర్వహ	-714
▁భాగ	-715
శ్	-716
ాలి	-717
▁మరణ	-718
▁కంటే	-719
రిత్ర	-720
ంగ్	-721
ాలా	-722
▁జనగణన	-723
▁తెలంగాణ	-724
ివృద్ధి	-725
ుత్	-726
ర్థ	-727
నియోగ	-728
▁మధ్య	-729
▁గంట	-730
▁అన	-731
▁వాణి	-732
త్తం	-733
▁ఇద్ద	-734
▁భారతదేశ	-735
గ్ర	-736
యంలో	-737
▁తా	-738
లన	-739
▁15	-740
▁వినియోగ	-741
▁జీ	-742
▁ఉత్త	-743
రామ	-744
▁సంవత్సర	-745
ారంభ	-746
▁వెం	-747
వర	-748
ెక్	-749
ంజ	-750
పత్రి	-751
ల్డ్	-752
▁అన్న	-753
▁విస్త	-754
▁తొ	-755
▁వనరు	-756
బడింది	-757
బ్లిక్	-758
నో	-759
▁విద్యుత్	-760
గం	-761
▁198	-762
▁పథ	-763
▁చేసిన	-764
వుల	-765
▁అమ	-766
▁ప్రారంభ	-767
▁కాలు	-768
రాజు	-769
రిగి	-770
కున్న	-771
▁ఆసు	-772
చ్చు	-773
ప్పటి	-774
▁ఉండే	-775
▁కోసం	-776
ందుకు	-777
▁/	-778
▁రచయిత	-779
▁ఆసుపత్రి	-780
▁11	-781
▁నాగ	-782
▁టెలి	-783
▁మొదటి	-784
▁అభివృద్ధి	-785
▁బ్యాంకు	-786
పాద	-787
వ్వ	-788
▁వాణిజ్య	-789
సే	-790
స్తున్నారు	-791
శ్ర	-792
ధార	-793
▁199	-794
▁తో	-795
ీకర	-796
ంథ	-797
▁చరిత్ర	-798
సెం	-799
▁విడు	-800
యు	-801
▁యొక్క	-802
▁షెడ	-803
▁కల	-804
ట్ల	-805
▁షెడ్యూ	-806
▁దర్శకత్వ	-807
▁వనరుల	-808
కృష్ణ	-809
▁పథకం	-810
సరాల	-811
స్టా	-812
▁పార్	-813
పంచ	-814
▁ఆమె	-815
▁ఇద్దరు	-816
కె	-817
షి	-818
▁సాగు	-819
ేమ	-820
ట్లు	-821
ప్పుడు	-822
▁సభ	-823
టుంబ	-824
▁పబ్లిక్	-825
▁వైద్యశాల	-826
▁షెడ్యూల్డ్	-827
▁వారం	-828
ుని	-829
▁ఫోన్	-830
▁ఆయన	-831
▁.	-832
సన	-833
▁గ్రంథ	-834
▁గంటల	-835
▁రోడ్లు	-836
విధ	-837
▁కవి	-838
▁ఆఫీసు	-839
▁12	-840
▁పద	-841
వీ	-842
హార	-843
కూ	-844
▁విధ	-845
▁విజయ	-846
సీ	-847
త్రం	-848
▁విశ్వ	-849
▁సాగ	-850
▁197	-851
కృత	-852
▁కుటుంబ	-853
ఎస్	-854
స్టాఫీసు	-855
ందం	-856
▁పోస్టాఫీసు	-857
▁వ్యవసాయానికి	-858
జా	-859
▁లా	-860
న్నత	-861
నాయ	-862
ొక	-863
▁మె	-864
రాబా	-865
▁తే	-866
▁చాలా	-867
▁నుంచి	-868
▁మూడు	-869
గల	-870
ల్లు	-871
▁హైద	-872
స్తూ	-873
నకు	-874
▁వరకు	-875
18	-876
▁పని	-877
▁మండలం	-878
ప్రదేశ్	-879
కర్	-880
ంటుంది	-881
▁16	-882
ందించ	-883
▁పాట	-884
▁వృ	-885
▁సిబ్బందీ	-886
బి	-887
▁ది	-888
ాలకు	-889
▁సినిమ	-890
▁నటించిన	-891
▁టి	-892
▁ఎం	-893
కుని	-894
▁196	-895
▁జరిగిన	-896
▁కుమ	-897
కారు	-898
▁రూప	-899
గో	-900
లిం	-901
▁ఫి	-902
కుండా	-903
టక	-904
ైల్వే	-905
▁195	-906
▁ను	-907
▁రంగ	-908
▁సాహి	-909
▁దే	-910
▁మహా	-911
▁ఇక్కడ	-912
▁చేసి	-913
▁వార్	-914
▁జరుగుతోంది	-915
వేత్త	-916
మెం	-917
▁బృ	-918
▁హైదరాబా	-919
▁వర్	-920
▁17	-921
▁రైల్వే	-922
తంత్ర	-923
).	-924
ోత్స	-925
తున్న	-926
పురం	-927
▁దీని	-928
▁ముందు	-929
పాటు	-930
▁సో	-931
టం	-932
ౌర	-933
▁తిరిగి	-934
టిని	-935
▁ప్రపంచ	-936
పడి	-937
లవ	-938
యన్	-939
కర్త	-940
▁పూ	-941
సాల	-942
హిస్తుంది	-943
▁పుర	-944
▁కోడ్	-945
▁వివిధ	-946
▁సంస్	-947
త్తు	-948
▁రాజు	-949
మై	-950
గుల	-951
తన	-952
▁క్ర	-953
▁చేసు	-954
▁మాధ్య	-955
▁బో	-956
శీల	-957
బంధ	-958
ైనా	-959
ఆర్	-960
నియర్	-961
▁లభి	-962
▁మో	-963
▁వ్యా	-964
▁దక్షి	-965
రువు	-966
స్ట్	-967
దులు	-968
▁స్టేషన్	-969
ాల్లో	-970
▁చెప్ప	-971
▁కేంద్రంలో	-972
▁ఆంధ్రప్రదేశ్	-973
వన	-974
ట్స్	-975
దం	-976
▁డాక్టరు	-977
an	-978
▁ఊ	-979
ానీ	-980
▁2011	-981
▁వంటి	-982
▁14	-983
రస	-984
తే	-985
▁క్	-986
▁ట్ర	-987
కోవ	-988
▁చిన్న	-989
గురు	-990
▁స్వా	-991
డీ	-992
టర్	-993
▁అవు	-994
▁వచ్చి	-995
ోన్నత	-996
స్తాడు	-997
▁బహి	-998
పత్తి	-999
ణీ	-1000
▁:	-1001
ళ్ళు	-1002
▁మాధ్యమిక	-1003
డాది	-1004
లై	-1005
శం	-1006
▁గృ	-1007
▁వెంకట	-1008
▁ఆలయం	-1009
వె	-1010
▁కాని	-1011
▁ప్రాథమికోన్నత	-1012
స్య	-1013
▁అతను	-1014
▁సహాయ	-1015
▁బీ	-1016
లోను	-1017
▁194	-1018
▁అతని	-1019
▁వారు	-1020
▁బస్సులు	-1021
▁శాస్త్ర	-1022
తాబ్	-1023
▁కర్	-1024
▁సమా	-1025
ాలయ	-1026
▁కొన్ని	-1027
ర్భ	-1028
▁కాం	-1029
రూ	-1030
▁వహ	-1031
క్టో	-1032
▁పోల	-1033
వాడ	-1034
▁బావులు	-1035
▁శాసన	-1036
▁13	-1037
▁ప్రవహిస్తుంది	-1038
పూ	-1039
▁పారి	-1040
▁మర	-1041
రెడ్డి	-1042
▁జూనియర్	-1043
పేట	-1044
▁తీసు	-1045
▁జిల్లాలో	-1046
▁చేశ	-1047
ర్య	-1048
▁బహిరంగ	-1049
▁సొ	-1050
బ్రహ్మ	-1051
▁ఘంట	-1052
▁నది	-1053
▁శతాబ్	-1054
లూ	-1055
▁బు	-1056
▁ఏడాది	-1057
▁బృందం	-1058
▁ఎన్ని	-1059
బడు	-1060
▁మన	-1061
▁కాగా	-1062
▁రాయ	-1063
▁దర్శకత్వం	-1064
శి	-1065
ధీ	-1066
▁అంగ	-1067
▁సంత	-1068
▁పంపి	-1069
▁పున	-1070
మెంటు	-1071
▁భారతీయ	-1072
▁నిజ	-1073
▁ఉద్య	-1074
ాన్య	-1075
▁సంగీత	-1076
▁తిరు	-1077
▁కాలువల	-1078
▁మండలానికి	-1079
▁అక్టో	-1080
క్రమ	-1081
హు	-1082
▁దక్షిణ	-1083
▁అన్ని	-1084
▁ఇంజ	-1085
▁తెలి	-1086
▁పూర్	-1087
ార్థ	-1088
▁అందుతుంది	-1089
ముఖ	-1090
▁రోజులు	-1091
▁సంగీ	-1092
▁లక్ష్	-1093
ామ్	-1094
డుగునా	-1095
▁వద్ద	-1096
దర్శ	-1097
▁కుల	-1098
▁రెండ	-1099
▁అల	-1100
▁రీ	-1101
తుల	-1102
▁నటు	-1103
▁అనేక	-1104
▁తిరుగు	-1105
in	-1106
ధు	-1107
▁జా	-1108
▁గణాం	-1109
▁ఘంటసాల	-1110
▁పొడుగునా	-1111
▁ఆడ	-1112
మని	-1113
▁యుద్ధ	-1114
ర్న	-1115
▁ఆగ	-1116
బ్ర	-1117
▁మురుగునీరు	-1118
▁పాత్ర	-1119
▁విధంగా	-1120
▁ఔ	-1121
▁ఎన్నిక	-1122
▁ఉంటుంది	-1123
దాయ	-1124
రిక	-1125
▁సంఘం	-1126
ళ్ళి	-1127
మంత్రి	-1128
▁అయిన	-1129
వాణా	-1130
కీయ	-1131
త్మ	-1132
▁మీద	-1133
ర్ర	-1134
▁మగ	-1135
▁సిబ్బంది	-1136
▁వస్తు	-1137
స్వామి	-1138
▁ఉండేది	-1139
▁చిత్రం	-1140
▁సినిమాలు	-1141
▁కన్న	-1142
▁ఆఫ్	-1143
▁నాలు	-1144
▁శు	-1145
▁విస్తరించి	-1146
సభ	-1147
తారు	-1148
▁లోపు	-1149
ముద్ర	-1150
రుష	-1151
▁మురుగునీ	-1152
▁అండ్	-1153
▁రై	-1154
టికి	-1155
▁193	-1156
ల్లె	-1157
నారాయణ	-1158
▁రే	-1159
▁బంజ	-1160
▁వచ్చిన	-1161
▁విష	-1162
▁స్వాతంత్ర	-1163
మిళ	-1164
ద్వ	-1165
▁గొ	-1166
ైన్స్	-1167
పూర్ణ	-1168
▁రాజకీయ	-1169
మాన	-1170
▁తర్	-1171
▁రవాణా	-1172
ద్దు	-1173
▁అంద	-1174
▁కోట	-1175
▁కొత్త	-1176
గ్రహ	-1177
▁దివ	-1178
క్కి	-1179
▁క్రీ	-1180
కొండ	-1181
▁ప్రాం	-1182
▁భక్	-1183
▁బంజరు	-1184
గిరి	-1185
▁తొలి	-1186
▁స్థాప	-1187
▁హైదరాబాదు	-1188
ధుల	-1189
▁తేదీ	-1190
▁కొరకు	-1191
ారెడ్డి	-1192
▁జరుగుతుంది	-1193
▁విడుదలైన	-1194
▁లేదా	-1195
▁ప్రసి	-1196
వాస	-1197
స్థాన్	-1198
నాథ	-1199
న్స	-1200
నాడు	-1201
▁అమ్మ	-1202
▁సంద	-1203
వచ్చు	-1204
▁ఉత్పత్తి	-1205
ణ్యం	-1206
▁సాం	-1207
▁ప్రభుత్వం	-1208
▁లేరు	-1209
er	-1210
ింహ	-1211
ాలని	-1212
టింగ్	-1213
▁అధ్య	-1214
▁ముగ్	-1215
▁బొ	-1216
ేశ్వరరావు	-1217
కారం	-1218
తాప	-1219
▁నమో	-1220
on	-1221
ండ్రి	-1222
▁గణాంకాల	-1223
ar	-1224
▁చేతి	-1225
▁చంద్ర	-1226
▁అమె	-1227
▁తెలు	-1228
▁పార్టీ	-1229
తూ	-1230
▁సభ్య	-1231
గింది	-1232
▁సాధ	-1233
▁ఇంజనీ	-1234
▁కాలంలో	-1235
▁వృత్తి	-1236
▁ఏర్పాటు	-1237
్యాల	-1238
▁సత్య	-1239
సై	-1240
▁వు	-1241
▁ప్రాంతాల	-1242
భాగ	-1243
్లా	-1244
రింగ్	-1245
ారీ	-1246
తాడు	-1247
రంలో	-1248
▁చేస	-1249
▁పురా	-1250
▁ఆర్ట్స్	-1251
టెం	-1252
కుల	-1253
వాహ	-1254
కొని	-1255
ేయ	-1256
▁స్వామి	-1257
బీ	-1258
దొ	-1259
ీకరణ	-1260
▁అం	-1261
▁పురస్	-1262
్యవ	-1263
కల	-1264
▁లు	-1265
ఫె	-1266
నిక్	-1267
▁శిక్షణ	-1268
22	-1269
▁తమ	-1270
ాయిల	-1271
▁శివ	-1272
▁నటుడు	-1273
ోధ	-1274
ద్రా	-1275
యింది	-1276
టికీ	-1277
▁పక్క	-1278
▁వినో	-1279
▁సామాన్య	-1280
ందని	-1281
సాద్	-1282
్యాయ	-1283
పుల	-1284
▁తమిళ	-1285
ట్టిన	-1286
▁బ్రి	-1287
▁నారాయణ	-1288
రాలు	-1289
రుగా	-1290
▁స్వయం	-1291
పాడు	-1292
▁కొండ	-1293
▁సేకర	-1294
టెక్	-1295
▁కావ	-1296
▁కుళ	-1297
▁ఇదే	-1298
తంగా	-1299
▁గుండా	-1300
▁పశు	-1301
మూర్తి	-1302
▁పురుష	-1303
▁లాండ్	-1304
▁కేంద్రాలు	-1305
ర్చ	-1306
జన	-1307
మతి	-1308
▁మేనే	-1309
పీ	-1310
▁సైన్స్	-1311
▁కుళాయిల	-1312
ణంగా	-1313
శ్రీ	-1314
ించడం	-1315
at	-1316
▁నాలుగు	-1317
▁మొత్తం	-1318
▁కని	-1319
రక్షణ	-1320
▁నిమి	-1321
▁సై	-1322
న్స్	-1323
▁మైద	-1324
▁ఒకరు	-1325
▁ఇంజనీరింగ్	-1326
▁తర్వాత	-1327
▁పౌర	-1328
▁సీత	-1329
▁రెడ్డి	-1330
బె	-1331
▁దాని	-1332
తిక	-1333
వారు	-1334
న్మ	-1335
▁కానీ	-1336
ించబడింది	-1337
కారుడు	-1338
▁గురించి	-1339
▁ఆలయ	-1340
▁గాయ	-1341
▁జనవరి	-1342
▁గాం	-1343
▁ట్రా	-1344
▁సంక్ష	-1345
▁కను	-1346
▁కార్యాలయం	-1347
ప్టెం	-1348
▁ఇందు	-1349
ూర్పు	-1350
▁నమోదు	-1351
▁పంపిణీ	-1352
▁ముగ్గురు	-1353
వ్	-1354
▁సహకార	-1355
ంచి	-1356
స్టు	-1357
▁గ్రామాల	-1358
5:	-1359
త్తిన	-1360
▁చిత్రాలు	-1361
కరంగా	-1362
క్కడి	-1363
▁శిశు	-1364
ణాలు	-1365
ధాని	-1366
▁బహు	-1367
▁క్ష	-1368
త్యం	-1369
▁ఆటో	-1370
▁మంచ	-1371
డింగ్	-1372
పర	-1373
▁యా	-1374
▁(19	-1375
లిన	-1376
▁ఉంట	-1377
▁జూన్	-1378
▁కార్యకర్త	-1379
▁జూలై	-1380
▁లైన్	-1381
బ్రవరి	-1382
▁రోజున	-1383
▁ఇళ్	-1384
▁వల్ల	-1385
▁ఇంటర్న	-1386
▁ఛ	-1387
▁నిర్మించిన	-1388
▁సూ	-1389
▁బ్రహ్మ	-1390
16	-1391
నగ	-1392
▁గ్రంథాలయం	-1393
ఎమ్	-1394
ేతర	-1395
▁జి	-1396
▁తర	-1397
▁సంపూర్ణ	-1398
▁సెప్టెం	-1399
▁వినియోగం	-1400
▁పంచ	-1401
▁డిస్	-1402
▁తూర్పు	-1403
▁వర	-1404
ాను	-1405
▁జనాభాతో	-1406
▁రాష్ట్రం	-1407
ల్ప	-1408
▁దగ్గ	-1409
▁స్త్ర	-1410
▁జీవి	-1411
▁మాజీ	-1412
స్త్రి	-1413
గ్రా	-1414
▁సాహిత్య	-1415
▁ఇంటర్నెట్	-1416
షధ	-1417
సారి	-1418
▁సేవా	-1419
▁అతి	-1420
▁ఆది	-1421
▁సంబంధ	-1422
టెక్నిక్	-1423
▁చక్ర	-1424
కిస్థాన్	-1425
ూరులో	-1426
▁పట్టణమైన	-1427
▁మట్టి	-1428
▁చేస్తున్నారు	-1429
▁దొ	-1430
ప్రి	-1431
▁మగవారి	-1432
▁ఆరోగ్యం	-1433
లేదు	-1434
▁హెక్టార్లలో	-1435
▁30	-1436
భవ	-1437
▁సబ్	-1438
్యాస్	-1439
▁దిన	-1440
ేవారు	-1441
▁ప్రస్తు	-1442
▁సంక్షేమ	-1443
▁సొసై	-1444
తుడు	-1445
▁ఇళ్లతో	-1446
▁ప్రముఖ	-1447
లవు	-1448
ఫోన్	-1449
▁స్వాతంత్ర్య	-1450
▁కులాల	-1451
▁రెండవ	-1452
▁ఆడవారి	-1453
▁దర్శకుడు	-1454
మల	-1455
▁గుర్త	-1456
▁సొసైటీ	-1457
▁సంరక్షణ	-1458
17	-1459
▁ఔషధ	-1460
▁సిం	-1461
విద్య	-1462
్యవస్థ	-1463
▁వినోద	-1464
బ్రహ్మణ్యం	-1465
▁అనియ	-1466
▁తెగల	-1467
▁పూర్తి	-1468
బైల్	-1469
▁అవసరాల	-1470
▁రు	-1471
ూడ	-1472
తున్నారు	-1473
▁లభిస్తున్న	-1474
▁ఆశా	-1475
▁ఆధార	-1476
▁రావు	-1477
పట్	-1478
▁బాలల	-1479
or	-1480
▁పోషణ	-1481
కుంట	-1482
▁జనన	-1483
కాహార	-1484
్యాంగుల	-1485
▁మేనేజి	-1486
▁జరిగింది	-1487
రాయ	-1488
పాదక	-1489
▁ఐదు	-1490
▁పాలీ	-1491
▁మైదానం	-1492
▁విత్తిన	-1493
▁సాగునీరు	-1494
▁దివ్యాంగుల	-1495
al	-1496
ళి	-1497
ర్తి	-1498
తాపత్రిక	-1499
▁నిమిత్తం	-1500
▁క్రి	-1501
▁నికరంగా	-1502
▁వార్తాపత్రిక	-1503
బ్లీ	-1504
▁అనియత	-1505
▁మార్కె	-1506
▁సామ్రా	-1507
బడ్డ	-1508
ామ్నాయ	-1509
▁మరుగు	-1510
▁సమీకృత	-1511
▁మేనేజిమెంటు	-1512
4:	-1513
▁సూర	-1514
▁మాతా	-1515
▁మొబైల్	-1516
పద	-1517
▁కలిగి	-1518
▁వినియోగంలో	-1519
ప్రా	-1520
▁హాలు	-1521
▁టెలిఫోన్	-1522
▁ప్రత్యామ్నాయ	-1523
హావ	-1524
ామా	-1525
▁పాలీటెక్నిక్	-1526
▁ఆటల	-1527
▁లక్ష	-1528
యితే	-1529
▁లొక	-1530
▁అక్ష	-1531
▁ఫిబ్రవరి	-1532
సమీ	-1533
ెండ	-1534
▁ఇత	-1535
తె	-1536
▁సీ	-1537
2:	-1538
▁మహి	-1539
▁చలన	-1540
▁వ్యర్థ	-1541
▁లొకేషన్	-1542
▁కొరియ	-1543
▁నిర్మాణ	-1544
▁వ్యవసాయేతర	-1545
యే	-1546
▁పారిశు	-1547
▁ట్రాక్ట	-1548
3:	-1549
6:	-1550
▁సహాయక	-1551
10	-1552
చార్య	-1553
▁రూం	-1554
దేవ	-1555
▁చు	-1556
▁అలో	-1557
తలు	-1558
ింప	-1559
మయ్య	-1560
▁ఉత్పాదక	-1561
▁ఉత్తర	-1562
▁పరపతి	-1563
▁ఇంటిం	-1564
▁పోలింగ్	-1565
▁వస్తువులు	-1566
విజ	-1567
▁వాడీ	-1568
▁పోస్ట్	-1569
▁మార్కెటింగ్	-1570
ష్ఠ	-1571
సెంబ్లీ	-1572
▁పలు	-1573
▁తారు	-1574
▁మరణాల	-1575
▁మరుగుదొ	-1576
▁రీడింగ్	-1577
బాటు	-1578
▁పారిశుధ్య	-1579
ామివ	-1580
ముల	-1581
ుంట	-1582
సమీప	-1583
7:	-1584
సుశీల	-1585
▁అంగన్	-1586
▁అందించ	-1587
▁సముద్ర	-1588
▁పోషకాహార	-1589
1:	-1590
▁జయ	-1591
▁కంకర	-1592
▁ఇందులో	-1593
▁సరఫరాల	-1594
▁పండి	-1595
చె	-1596
▁డిసెం	-1597
▁మార్చి	-1598
▁రోజుకు	-1599
▁కొరియర్	-1600
▁సేకరించే	-1601
▁వ్యర్థాలను	-1602
పెన్స	-1603
గ్రాఫ్	-1604
▁చా	-1605
▁కెఫె	-1606
▁టెలిగ్రాఫ్	-1607
▁అసెంబ్లీ	-1608
▁మరుగుదొడ్డి	-1609
జ్ఞ	-1610
▁నవం	-1611
▁బయోగ	-1612
▁వాడే	-1613
▁గృహావ	-1614
పెన్సరీ	-1615
▁గృహావసరాల	-1616
ణు	-1617
▁అది	-1618
▁ఇంటింటికీ	-1619
▁లె	-1620
▁బయోగ్యాస్	-1621
.18	-1622
ష్టు	-1623
▁పిల్ల	-1624
టా	-1625
మొ	-1626
▁రష	-1627
ల్లా	-1628
▁నరస	-1629
▁వీధుల	-1630
▁న్యాయ	-1631
▁అలోపతి	-1632
▁పక్కనే	-1633
▁పనిచే	-1634
8:	-1635
▁అర్	-1636
బాద్	-1637
దావరి	-1638
▁డిస్పెన్సరీ	-1639
▁సర్	-1640
▁ఇంకా	-1641
▁బె	-1642
▁పునర్వ	-1643
.20	-1644
▁సరి	-1645
టీఎమ్	-1646
▁ఆర్థ	-1647
మును	-1648
▁మందు	-1649
నలు	-1650
నేని	-1651
న్నా	-1652
సుబ్రహ్మణ్యం	-1653
వారం	-1654
ోత్సవం	-1655
వరం	-1656
▁సంవత్సరములో	-1657
▁సంవత్సరాల	-1658
▁మై	-1659
▁తిరుగుతున్నాయి	-1660
▁అనంత	-1661
▁సంగీతం	-1662
సర	-1663
▁మురుగునీటిని	-1664
్ఞ	-1665
▁నూ	-1666
▁మంచినీ	-1667
▁మంచి	-1668
▁ఏటీఎమ్	-1669
రికా	-1670
త్తను	-1671
▁కాంగ్ర	-1672
లాం	-1673
డిగా	-1674
▁గ్రహ	-1675
▁రక్షి	-1676
బూ	-1677
లువ	-1678
▁సమయంలో	-1679
మణ	-1680
▁పునర్వ్యవస్థ	-1681
థి	-1682
మున	-1683
▁వార	-1684
▁మిగి	-1685
▁అమలవు	-1686
15	-1687
శాఖ	-1688
▁సంచార	-1689
▁శ్రీని	-1690
▁అమలవుతోంది	-1691
డైన	-1692
ర్జ	-1693
▁పారబో	-1694
▁సినిమాకు	-1695
టలు	-1696
ింత	-1697
▁వీర	-1698
▁మండలంలో	-1699
▁అక్టోబరు	-1700
యనగ	-1701
▁25	-1702
▁చరిత్రలో	-1703
▁మంచినీటి	-1704
▁పారబోస్తారు	-1705
రోడ్	-1706
▁తండ్రి	-1707
మునకు	-1708
▁రి	-1709
▁ఏర్పడి	-1710
▁ప్రదేశ్	-1711
చంద్ర	-1712
es	-1713
000	-1714
ామివారి	-1715
్యు	-1716
▁మొదలైనవి	-1717
ద్ది	-1718
ేంద్ర	-1719
▁అయితే	-1720
▁ఆన	-1721
ాలతో	-1722
▁కాక	-1723
▁చెత్తను	-1724
డవ	-1725
▁చైనా	-1726
క్స్	-1727
▁పత్రిక	-1728
is	-1729
శ్చి	-1730
▁నిర్వహించారు	-1731
▁నగర్	-1732
▁ఉపయోగ	-1733
▁విజయనగ	-1734
తిని	-1735
▁వ్రా	-1736
▁అవుతున్నాయి	-1737
భూ	-1738
దని	-1739
▁అభి	-1740
▁సినీ	-1741
▁పరిపాల	-1742
▁తల్లి	-1743
▁మంత్రి	-1744
ాము	-1745
▁192	-1746
9:	-1747
▁ప్రజలు	-1748
ర్చు	-1749
▁అంటారు	-1750
▁చేతిపం	-1751
▁పేరుతో	-1752
ర్లున్నాయి	-1753
లోనూ	-1754
▁రక్షిత	-1755
స్తే	-1756
▁ఆరు	-1757
క్కల	-1758
▁అప్పటి	-1759
▁మాన	-1760
ప్రిల్	-1761
▁ఆర్థిక	-1762
▁ఎమ్	-1763
ముగా	-1764
▁అత్య	-1765
వై	-1766
▁ఆధ	-1767
▁వాడేందుకు	-1768
చన	-1769
▁కమ	-1770
కాలు	-1771
▁రాజ్య	-1772
▁పీ	-1773
డంతో	-1774
▁గోదావరి	-1775
ందూ	-1776
▁జన్మ	-1777
▁చేతిపంపుల	-1778
దేవి	-1779
రోడ్లూ	-1780
▁మట్టిరోడ్లూ	-1781
▁గి	-1782
▁నెల	-1783
▁మహిళ	-1784
ల్లోకి	-1785
▁అధ్యక్ష	-1786
▁కుమార్	-1787
▁జిల్లాలోని	-1788
▁2016	-1789
భాష	-1790
▁గల	-1791
▁ప్రవేశ	-1792
ండే	-1793
▁ప్రసాద్	-1794
▁అమెరికా	-1795
ార్డు	-1796
he	-1797
రియన్	-1798
▁తు	-1799
▁పాల్	-1800
▁తయ	-1801
▁అయ్య	-1802
▁పాటలు	-1803
▁ఏప్రిల్	-1804
ంతో	-1805
▁ముఖ్యమంత్రి	-1806
13	-1807
చర్	-1808
ళ్ల	-1809
▁మాత్ర	-1810
యత్	-1811
▁విగ్రహ	-1812
▁)	-1813
క్త	-1814
▁భావ	-1815
తాన్ని	-1816
▁చెరువు	-1817
ారామ	-1818
▁శాసనసభ	-1819
ీన	-1820
▁లభ	-1821
▁ఇండి	-1822
▁పశ్చి	-1823
▁24	-1824
▁కార్	-1825
▁నేరుగా	-1826
12	-1827
ర్ణ	-1828
14	-1829
శోధ	-1830
సాగ	-1831
▁సేవ	-1832
▁ధర్మ	-1833
▁శతాబ్ద	-1834
▁షా	-1835
▁అర	-1836
▁యూ	-1837
తాయి	-1838
▁నేప	-1839
▁పద్య	-1840
▁నిర్మాత	-1841
షు	-1842
ారులు	-1843
▁ఎన్న	-1844
▁దుకా	-1845
▁వైద్యశాలలో	-1846
శేష	-1847
▁దగ్గర	-1848
▁మిగిలిన	-1849
▁వచ్చింది	-1850
రాజ	-1851
▁కాకుండా	-1852
▁దీనిని	-1853
200	-1854
డిన	-1855
▁వేద	-1856
రుపు	-1857
లోకి	-1858
▁ప్రాంతం	-1859
ాడ	-1860
▁సుబ్బ	-1861
▁నాయకుడు	-1862
బాల	-1863
ళు	-1864
క్య	-1865
లింగ	-1866
▁పట్టణం	-1867
దరు	-1868
▁శం	-1869
రికి	-1870
▁వ్యాప	-1871
▁I	-1872
ింపు	-1873
▁చేశారు	-1874
ించడానికి	-1875
▁పాత	-1876
▁వలన	-1877
▁స్థాన	-1878
▁విడుదల	-1879
▁జిల్లాల	-1880
of	-1881
▁శాఖ	-1882
▁విశ్వవిద్య	-1883
చిత్ర	-1884
ణ్య	-1885
▁గాంధీ	-1886
▁వదులు	-1887
కున్నారు	-1888
▁సౌకర్యాలున్నాయి	-1889
సె	-1890
మారు	-1891
▁చది	-1892
గే	-1893
▁వెళ్ళ	-1894
వర్తి	-1895
▁హిందూ	-1896
ప్రదాయ	-1897
▁అస	-1898
మైంది	-1899
ందే	-1900
ోలు	-1901
టిలో	-1902
▁గ్రె	-1903
▁కన	-1904
సింది	-1905
▁తెలియ	-1906
it	-1907
బోరు	-1908
శ్రమ	-1909
ాలుగా	-1910
23	-1911
▁కట్ట	-1912
▁పరిశోధ	-1913
▁సంవత్సరం	-1914
▁అదే	-1915
▁పద్	-1916
ప్రాథమిక	-1917
ావ	-1918
▁నాటక	-1919
▁ఆగష్టు	-1920
ప్రైవేటు	-1921
...	-1922
ెల	-1923
ాయు	-1924
▁23	-1925
▁కార్యక్రమ	-1926
▁ప్రాంతంలో	-1927
▁t	-1928
ందింది	-1929
న్నది	-1930
▁పాలన	-1931
▁పూజ	-1932
▁ప్రకట	-1933
విన	-1934
▁పోతున్నాయి	-1935
▁బయ	-1936
▁వేం	-1937
కున్నాడు	-1938
▁ప్రొ	-1939
ప్పటికీ	-1940
▁వదులుతున్నారు	-1941
▁S	-1942
వరణ	-1943
▁అంతర్జ	-1944
ాగే	-1945
థ్య	-1946
▁జలవ	-1947
▁మందుల	-1948
▁జలవనరు	-1949
▁మాత్రమే	-1950
▁విజయవాడ	-1951
ానా	-1952
▁మహారా	-1953
మూ	-1954
▁నవ	-1955
▁ఎదు	-1956
▁శాస్త్రవేత్త	-1957
▁లి	-1958
▁అంటే	-1959
▁ఇచ్చ	-1960
▁ప్రేమ	-1961
గొండ	-1962
▁ఒక్క	-1963
▁చారి	-1964
▁భారతదేశంలో	-1965
6)	-1966
▁భార్య	-1967
▁నియ	-1968
▁జాన	-1969
▁పతా	-1970
ic	-1971
త్మక	-1972
బీయ	-1973
▁22	-1974
▁సంస్కృత	-1975
▁సుంద	-1976
▁పెళ్ళి	-1977
▁ఒకప్రాథమిక	-1978
en	-1979
జే	-1980
▁అడ	-1981
▁వాడు	-1982
ీకరణకు	-1983
పొ	-1984
▁హో	-1985
▁జలవనరుల్లోకి	-1986
ింగ	-1987
ానిక	-1988
బీబీయ	-1989
▁మార్గ	-1990
బీబీయెస్	-1991
▁26	-1992
డుకు	-1993
▁సర్వ	-1994
▁రాజధాని	-1995
నులు	-1996
▁గుంట	-1997
▁ప్రసిద్ధి	-1998
▁కీ	-1999
▁బెం	-2000
▁కొంత	-2001
▁చేసే	-2002
▁ఎమ్బీబీయెస్	-2003
▁పాకిస్థాన్	-2004
▁హా	-2005
▁నటి	-2006
పట్నం	-2007
▁పర్వ	-2008
▁ఇక్కడి	-2009
▁ప్రయత్	-2010
▁లక్ష్మీ	-2011
1)	-2012
ాయ్	-2013
▁బాలబడి	-2014
▁ప్రాంతాలు	-2015
▁చేప	-2016
▁నంద	-2017
▁జిల్లాకు	-2018
దగ్గ	-2019
▁జరుపు	-2020
1.	-2021
▁చేరు	-2022
▁చో	-2023
▁శాల	-2024
▁స్త్రీ	-2025
లె	-2026
▁36	-2027
వుడు	-2028
ారము	-2029
▁సిస్ట	-2030
▁భూములు	-2031
దన	-2032
▁ప్రచు	-2033
▁పొంద	-2034
▁పెట్ట	-2035
వంత	-2036
▁జై	-2037
ట్లో	-2038
మార్	-2039
యాన్ని	-2040
▁పశ్చిమ	-2041
0:	-2042
తము	-2043
పరి	-2044
▁జె	-2045
▁పాల్గొ	-2046
▁దాదా	-2047
▁పచ్చ	-2048
▁50	-2049
లుగా	-2050
▁భాగంగా	-2051
▁of	-2052
లక్ష్	-2053
కెట్	-2054
▁ఉంటాయి	-2055
▁బ్రిటి	-2056
▁28	-2057
ాంతి	-2058
స్తాయి	-2059
▁దేవాలయం	-2060
భార	-2061
చిన	-2062
▁190	-2063
▁ఇరా	-2064
▁చివరి	-2065
▁చేసింది	-2066
▁ప్రదర్శ	-2067
▁గుడి	-2068
ష్ణు	-2069
▁పెం	-2070
▁కలిసి	-2071
▁హిందీ	-2072
5,	-2073
▁నివ	-2074
జెక్	-2075
▁మహబూ	-2076
▁ప్రస్తుతం	-2077
మొద	-2078
▁మొట్ట	-2079
▁భీ	-2080
▁బ్ర	-2081
▁భూము	-2082
▁కుమారు	-2083
యోజ	-2084
ింది	-2085
▁ఎన్	-2086
▁రాజా	-2087
▁వరంగ	-2088
▁మద్రా	-2089
▁వ్యక్తి	-2090
▁పడ	-2091
టర్ల	-2092
▁మధు	-2093
▁కాలం	-2094
్యాన్ని	-2095
గూడ	-2096
స్థి	-2097
▁నలుగు	-2098
▁సాగని	-2099
▁సందర్భ	-2100
▁అక్కడ	-2101
▁ప్రాజెక్	-2102
▁వహించాడు	-2103
▁అంతర్జాతీయ	-2104
▁జల	-2105
▁ప్రదేశ	-2106
▁నాటి	-2107
న్నాడు	-2108
ణ్	-2109
▁కామ	-2110
▁పోరా	-2111
కపో	-2112
నగర్	-2113
రుడు	-2114
▁ప్రజా	-2115
ేఖ	-2116
▁అప్ప	-2117
కుంటారు	-2118
▁ఉద	-2119
4)	-2120
ంప	-2121
కరణ	-2122
▁రావ	-2123
▁కిలో	-2124
▁అందుబాటు	-2125
▁అధికార	-2126
షా	-2127
▁కొన	-2128
నుండి	-2129
▁సంపాద	-2130
▁రైలు	-2131
▁వ్యతి	-2132
చ్చా	-2133
▁మొదల	-2134
8)	-2135
ర్కొ	-2136
కృతి	-2137
టానికి	-2138
టె	-2139
మ్ము	-2140
▁పతాకం	-2141
▁సూర్య	-2142
▁27	-2143
▁ఆంగ్	-2144
▁సిద్ధ	-2145
లిక	-2146
వాద	-2147
5)	-2148
▁ఉన్నత	-2149
4,	-2150
▁నో	-2151
భు	-2152
▁విద్యార్థ	-2153
చ్ఛ	-2154
▁సైన	-2155
▁కాలువ	-2156
ion	-2157
▁బహిరంగంగా	-2158
ెను	-2159
▁కలు	-2160
ేత్ర	-2161
▁దుకాణాలు	-2162
▁విమ	-2163
ాయం	-2164
పూడి	-2165
▁బ్లా	-2166
▁వేంకట	-2167
▁ఆధారంగా	-2168
▁సంవత్సరా	-2169
2)	-2170
9)	-2171
▁చారిత్ర	-2172
30	-2173
50	-2174
ప్పి	-2175
▁ఆలయంలో	-2176
▁చేశాడు	-2177
▁సాగులో	-2178
▁ముఖ్యమైన	-2179
రె	-2180
▁సెప్టెంబర్	-2181
▁చక్రవర్తి	-2182
7)	-2183
ారని	-2184
బడ్డాయి	-2185
▁నలుగురు	-2186
▁మొట్టమొద	-2187
దో	-2188
నంలో	-2189
వాలు	-2190
▁సమర	-2191
▁చేయదగ్గ	-2192
నల్	-2193
▁లోనూ	-2194
▁భూముల్లో	-2195
ర్ల	-2196
న్నీ	-2197
వాడు	-2198
▁వంశ	-2199
▁బాబు	-2200
▁థ	-2201
తీయ	-2202
డియో	-2203
డ్డు	-2204
▁నిలి	-2205
▁బీడు	-2206
▁సీతారామ	-2207
▁గ్రామాలు	-2208
తమైన	-2209
న్యూ	-2210
▁కానివి	-2211
నది	-2212
కుంది	-2213
▁నియోజ	-2214
సరి	-2215
హాలు	-2216
పల్లె	-2217
▁హరి	-2218
▁శ్రీరామ	-2219
▁ప్	-2220
▁నియోజక	-2221
▁ప్రాజెక్టు	-2222
▁నాట	-2223
▁ఉత్స	-2224
▁నేపథ్య	-2225
▁పొందిన	-2226
▁గుంటూరు	-2227
▁|	-2228
▁గొప్ప	-2229
▁శక్తి	-2230
పిన్	-2231
▁29	-2232
▁మరో	-2233
▁గోపాల	-2234
▁నరసింహ	-2235
▁అందుబాటులో	-2236
7.	-2237
▁తెలుసు	-2238
ల్లూరు	-2239
▁డివిజ	-2240
▁శాశ్వ	-2241
▁కృష్ణా	-2242
హన్	-2243
వాన్ని	-2244
▁శుద్ధి	-2245
శాస్త్రి	-2246
రేక	-2247
న్ను	-2248
▁రూపొ	-2249
1,	-2250
▁వీరి	-2251
▁విభ	-2252
▁పుస్త	-2253
షన్	-2254
పుడు	-2255
▁ప్రే	-2256
▁కచ్చా	-2257
▁ప్రభా	-2258
▁సుమారు	-2259
▁నృ	-2260
▁స్థి	-2261
▁విశేష	-2262
▁సాధార	-2263
▁A	-2264
తను	-2265
▁భగ	-2266
▁బోరు	-2267
▁జీవిత	-2268
హ్మ	-2269
▁అలాగే	-2270
▁కలిగిన	-2271
▁మద్రాసు	-2272
చేశ	-2273
బాదు	-2274
▁కాదు	-2275
▁బాగా	-2276
▁వారికి	-2277
▁చూడ	-2278
▁కర్నూ	-2279
బాలసుబ్రహ్మణ్యం	-2280
ధా	-2281
్ఞాన	-2282
▁తప్ప	-2283
▁వీరు	-2284
▁ఉద్యమ	-2285
▁తిరుపతి	-2286
▁ఈయన	-2287
▁భాషా	-2288
▁మరియ	-2289
▁దేశాల	-2290
టకు	-2291
▁ప్రయా	-2292
ర్టు	-2293
హన	-2294
▁C	-2295
పడ	-2296
▁సృ	-2297
▁చదు	-2298
మన	-2299
▁డిసెంబర్	-2300
▁వ్యతిరేక	-2301
కాశ	-2302
ర్గ	-2303
▁2001	-2304
▁కాలే	-2305
▁మహబూబ్	-2306
ేత	-2307
కాశం	-2308
వెన్యూ	-2309
రగ	-2310
వతి	-2311
▁నగరం	-2312
▁కారణంగా	-2313
▁తల	-2314
ించగా	-2315
▁పోటీ	-2316
▁విధాన	-2317
▁కిలోమీ	-2318
▁P	-2319
ంగు	-2320
స్థాన	-2321
▁క్యాల	-2322
▁పరిధి	-2323
▁గ్రహీత	-2324
▁గురు	-2325
▁విశాఖ	-2326
▁బోరుబా	-2327
▁మత	-2328
,000	-2329
▁ఎల్	-2330
శాస్త్ర	-2331
▁పతాకంపై	-2332
▁రెవెన్యూ	-2333
హర	-2334
త్వం	-2335
మంది	-2336
▁ముస్	-2337
▁దర్శకత్వంలో	-2338
5.	-2339
్యంత	-2340
▁ఇలా	-2341
▁మంగ	-2342
▁సత్యనారాయణ	-2343
వాది	-2344
హె	-2345
ప్యూ	-2346
▁అడుగు	-2347
▁సంగతులు	-2348
▁జో	-2349
▁దినోత్సవం	-2350
▁పర్యా	-2351
▁క్యాలెండ	-2352
▁సంప్రదాయ	-2353
నె	-2354
▁కడ	-2355
▁దశ	-2356
▁వివాహ	-2357
▁పురస్కారం	-2358
2.	-2359
వ్ర	-2360
▁జగ	-2361
▁దో	-2362
లూరు	-2363
▁రష్యా	-2364
▁పరిశ్రమ	-2365
▁వహించిన	-2366
ళం	-2367
కవి	-2368
▁భు	-2369
▁త్ర	-2370
▁చెబు	-2371
▁త్రి	-2372
▁లభిస్తుంది	-2373
7,	-2374
▁189	-2375
▁దాదాపు	-2376
▁అవార్డు	-2377
▁మార్కెట్	-2378
▁రామకృష్ణ	-2379
▁మొట్టమొదటి	-2380
4.	-2381
టే	-2382
ఠా	-2383
▁పద్మ	-2384
▁ఉత్తమ	-2385
▁దేవాలయ	-2386
▁అమ్మవారి	-2387
▁--	-2388
కునే	-2389
ులకు	-2390
▁సుల్	-2391
నాటి	-2392
▁భావి	-2393
▁విష్ణు	-2394
తులకు	-2395
▁రూపాయ	-2396
▁నవంబర్	-2397
▁విజయనగర	-2398
▁బోరుబావుల	-2399
▁T	-2400
లోనే	-2401
▁సార	-2402
▁అర్థ	-2403
▁చెన్న	-2404
▁శాశ్వత	-2405
▁అక్టోబర్	-2406
▁ప్రతిష్ఠ	-2407
▁తాగు	-2408
ములోని	-2409
▁ఎన్నో	-2410
వేశ	-2411
▁మారి	-2412
▁దీనికి	-2413
▁ఎక్కువగా	-2414
▁చారిత్రక	-2415
▁శ్రీనివాస	-2416
▁అవి	-2417
▁భక్తులు	-2418
▁నిర్వహించ	-2419
జం	-2420
శేఖ	-2421
▁విమర్శ	-2422
▁స్థానిక	-2423
హం	-2424
▁కన్నడ	-2425
▁కాంగ్రెస్	-2426
9.	-2427
▁చీ	-2428
▁శత	-2429
▁నిర్మించారు	-2430
▁జం	-2431
▁బల	-2432
▁గీత	-2433
▁ఇంగ్	-2434
హ్	-2435
and	-2436
▁శ్ర	-2437
▁అత్యంత	-2438
▁కర్ణా	-2439
3)	-2440
▁మరొక	-2441
▁ఇండియా	-2442
ట్లా	-2443
రత్	-2444
▁క్యాలెండర్	-2445
▁క్రీడా	-2446
▁విషయ	-2447
▁లెక్కల	-2448
▁పుట్టిన	-2449
om	-2450
భద్ర	-2451
▁నగర	-2452
పెట్ట	-2453
▁మల్ల	-2454
ఇది	-2455
▁వయ	-2456
టూరి	-2457
డిని	-2458
ించాయి	-2459
▁ప్రజల	-2460
తల	-2461
ాంబ	-2462
▁ఏమి	-2463
ేవాడు	-2464
▁అక్షరా	-2465
▁గుర	-2466
▁సుశీల	-2467
as	-2468
▁40	-2469
▁యుద్ధం	-2470
▁నియోజకవర్	-2471
▁చిత్రానికి	-2472
ండు	-2473
్యూని	-2474
▁పిలు	-2475
▁రాష్ట్రంలోని	-2476
శీ	-2477
ర్చి	-2478
▁ఖమ్మ	-2479
▁లోను	-2480
▁సామ్రాజ	-2481
▁నాగేశ్వరరావు	-2482
▁వస	-2483
▁వచ్చే	-2484
▁చదివిన	-2485
▁కర్ణాటక	-2486
లక	-2487
ాంటి	-2488
మైనది	-2489
▁కనిపి	-2490
▁తయారు	-2491
▁మాత్రం	-2492
ఎం	-2493
జున	-2494
వుతున్న	-2495
స్తున్నాయి	-2496
8.	-2497
ళా	-2498
▁పూర్వ	-2499
▁పురాతన	-2500
6.	-2501
....	-2502
ునిక	-2503
▁కొడుకు	-2504
▁59	-2505
▁విమాన	-2506
▁హైదరాబాద్	-2507
40	-2508
ద్రి	-2509
వుని	-2510
▁కరీ	-2511
ిల్లీ	-2512
▁ప్రకారము	-2513
3.	-2514
ండ్ర	-2515
ంనగర్	-2516
యోధ	-2517
▁57	-2518
ర్షి	-2519
▁ఎత్తు	-2520
▁రాష్ట్రంలో	-2521
80	-2522
జర్	-2523
▁వల	-2524
ల్స్	-2525
▁సామ్రాజ్య	-2526
▁దృ	-2527
▁శై	-2528
ర్మా	-2529
వరకు	-2530
▁0	-2531
గానే	-2532
▁క్రిక	-2533
▁సుందర	-2534
▁‘	-2535
నేయ	-2536
▁వాడ	-2537
▁ప్రస	-2538
▁చేసారు	-2539
▁వరంగల్	-2540
▁బస్సులుప్రైవేటు	-2541
ర్ప	-2542
▁1,	-2543
స్కర	-2544
లియన్	-2545
▁నంది	-2546
▁ప్రమా	-2547
ంద్	-2548
స్తాన్	-2549
ారాన్ని	-2550
షిక	-2551
▁ఒకే	-2552
▁అల్లు	-2553
▁తోటలు	-2554
▁బొమ్మ	-2555
▁కర్నూలు	-2556
వాస్	-2557
ైంది	-2558
▁ప్రసిద్ధ	-2559
ఎన్	-2560
▁హై	-2561
చారు	-2562
డికి	-2563
బడుతుంది	-2564
టో	-2565
▁గె	-2566
▁బౌ	-2567
పడ్డ	-2568
▁బావుల	-2569
▁ఇవ్వ	-2570
▁పార్ల	-2571
▁స్వామివారి	-2572
డె	-2573
▁M	-2574
స్తా	-2575
శ్చ	-2576
ికా	-2577
▁పచ్చిక	-2578
పాటి	-2579
▁నిజాం	-2580
▁కంప్యూ	-2581
▁కుమారుడు	-2582
▁అనుస	-2583
▁కరీంనగర్	-2584
8,	-2585
మ్మి	-2586
▁ఉపా	-2587
▁కంపె	-2588
▁బెంగ	-2589
▁డబ్బ	-2590
▁కమ్యూని	-2591
పోయ	-2592
▁నామ	-2593
▁రామలింగ	-2594
ార్లు	-2595
▁బ్రా	-2596
కోట	-2597
రూప	-2598
మ్మా	-2599
▁బంగ	-2600
▁చేరి	-2601
▁సంఘట	-2602
▁కంపెనీ	-2603
దవ	-2604
రళ	-2605
పులు	-2606
▁మేత	-2607
▁బ్రిటిష్	-2608
చో	-2609
ానే	-2610
ాలూ	-2611
▁ఏక	-2612
▁గౌ	-2613
▁భౌ	-2614
▁పంట	-2615
▁ఫ్ర	-2616
▁రాఘ	-2617
లక్ష్మి	-2618
▁తేదీలు	-2619
ంటి	-2620
సియా	-2621
▁జీవ	-2622
▁చిత్రంలో	-2623
మర	-2624
పుర	-2625
సన్	-2626
లీపు	-2627
వాదం	-2628
పురంలో	-2629
▁నివాస	-2630
▁విజయం	-2631
▁పరిస్థి	-2632
వ్య	-2633
మ్మడి	-2634
▁ఎంతో	-2635
▁భాగం	-2636
▁బ్లాగు	-2637
▁మిగిలినవి	-2638
▁విశ్వవిద్యాలయం	-2639
▁R	-2640
తిలో	-2641
రులు	-2642
▁ఆస్	-2643
▁ఈమె	-2644
▁హను	-2645
▁గానం	-2646
▁సరిహ	-2647
▁వెళ్ళి	-2648
కము	-2649
బాబు	-2650
▁ఇవి	-2651
▁నడి	-2652
▁బాలు	-2653
▁తీవ్ర	-2654
▁నాటికి	-2655
▁పురుషులు	-2656
నుల	-2657
ప్త	-2658
నాలు	-2659
ష్టి	-2660
▁మండ	-2661
క్టర్	-2662
ఢిల్లీ	-2663
పోయింది	-2664
▁గ్రెగొ	-2665
▁రామారావు	-2666
▁రాష్ట్రపతి	-2667
60	-2668
▁సంవత్సరాంత	-2669
▁పురుషుల	-2670
▁అక్షరాస్య	-2671
ఘు	-2672
ధం	-2673
▁హు	-2674
నియన్	-2675
▁గ్రెగొరియన్	-2676
▁సంవత్సరాంతమునకు	-2677
▁తాను	-2678
▁లోకి	-2679
▁వర్ణ	-2680
▁నిర్ణ	-2681
▁అందులో	-2682
▁స్థాయి	-2683
▁శాస్త్రి	-2684
▁సెప్టెంబరు	-2685
am	-2686
▁s	-2687
స్థల	-2688
▁మాధ	-2689
▁లక్షల	-2690
క్కినేని	-2691
ేషను	-2692
▁సోమ	-2693
▁నల్ల	-2694
షణ	-2695
వంటి	-2696
▁క్రికెట్	-2697
▁స్థానంలో	-2698
▁కౌ	-2699
▁పదవి	-2700
▁ఘన	-2701
తికి	-2702
నాథ్	-2703
▁చదువు	-2704
▁తక్కువ	-2705
▁పోలీసు	-2706
▁పురస్కార	-2707
ed	-2708
ur	-2709
.200	-2710
ెంట్	-2711
▁పరీ	-2712
▁మాట	-2713
▁సమీపంలో	-2714
▁సందర్భంగా	-2715
:-	-2716
దిన	-2717
జీవి	-2718
▁గౌర	-2719
▁దేశంలో	-2720
చింది	-2721
▁ఇరాన్	-2722
పాలక	-2723
▁పట్టు	-2724
▁తీసుకు	-2725
ఫీ	-2726
▁మల	-2727
▁సాగవుతున్న	-2728
సులు	-2729
▁మరి	-2730
య్యాడు	-2731
▁తాగునీరు	-2732
కాలం	-2733
▁ఏడు	-2734
▁దారి	-2735
▁విడి	-2736
▁వెళ్	-2737
▁చెయ్య	-2738
▁ఆగస్టు	-2739
▁సుల్తా	-2740
▁చలనచిత్ర	-2741
▁D	-2742
గాన్ని	-2743
ెదరు	-2744
▁సైని	-2745
ల్లూరి	-2746
▁నవంబరు	-2747
్యన్	-2748
టన్	-2749
▁58	-2750
▁భారతదేశం	-2751
11	-2752
▁కనిప	-2753
▁సంకల	-2754
కుంటాడు	-2755
▁చేసాడు	-2756
▁సాహితీ	-2757
డో	-2758
▁ఇన్	-2759
▁కల్ప	-2760
▁మార	-2761
కుమ	-2762
టెడ్	-2763
▁2022	-2764
▁బౌద్ధ	-2765
▁మరియు	-2766
▁కొనసాగ	-2767
▁పేర్కొ	-2768
జె	-2769
రానికి	-2770
▁మొదలు	-2771
▁సమస్య	-2772
స్వామివారి	-2773
ధ్ర	-2774
▁గూ	-2775
ంటాడు	-2776
▁క్రమ	-2777
▁విభాగ	-2778
ందరు	-2779
ులను	-2780
▁భీమ	-2781
▁ఆధునిక	-2782
▁బహుమతి	-2783
దూ	-2784
▁యువ	-2785
▁నియమ	-2786
▁నూతన	-2787
ార్జున	-2788
▁సంకలనం	-2789
వార	-2790
▁35	-2791
▁60	-2792
దాసు	-2793
▁తెలుగులో	-2794
ీర్	-2795
▁పౌ	-2796
రియా	-2797
తాన్న	-2798
▁శతాబ్దం	-2799
ధన	-2800
ంచు	-2801
▁నాడు	-2802
శై	-2803
▁the	-2804
▁లోక్	-2805
▁వివర	-2806
ించబడిన	-2807
el	-2808
మ్స్	-2809
పోయిన	-2810
▁పండు	-2811
ోర్	-2812
▁కడప	-2813
▁దండ	-2814
▁గిరి	-2815
ోగ్ర	-2816
▁చేత	-2817
▁మను	-2818
చ్చిన	-2819
▁స్నే	-2820
్లో	-2821
▁వన	-2822
వారీ	-2823
▁పర్వత	-2824
▁వ్యాపార	-2825
దేశాల	-2826
▁గుండ	-2827
యోధుడు	-2828
▁అధ్యక్షుడు	-2829
బడ	-2830
కాం	-2831
పడు	-2832
▁చక్క	-2833
చిత్రం	-2834
▁ఆంగ్ల	-2835
▁రోడ్డు	-2836
▁డిసెంబరు	-2837
▁సంగీతాన్న	-2838
3,	-2839
భం	-2840
కలు	-2841
.193	-2842
గంలో	-2843
▁కల్	-2844
▁చాళు	-2845
▁ప్రాచ	-2846
▁చెప్పు	-2847
▁ఢిల్లీ	-2848
▁నెల్లూరు	-2849
▁అధికంగా	-2850
▁ఏర్పడిన	-2851
హరి	-2852
▁నిల	-2853
▁కింద	-2854
▁అత్యధిక	-2855
▁తెలంగాణా	-2856
▁చాల	-2857
▁ప్రి	-2858
▁రాజమ	-2859
▁వైపు	-2860
▁ఖమ్మం	-2861
దుగా	-2862
▁అనగా	-2863
▁గజ	-2864
▁తిరుమల	-2865
▁అక్షరాస్యత	-2866
70	-2867
ీణ	-2868
▁నల్	-2869
▁రష్యన్	-2870
ందించాడు	-2871
షే	-2872
ష్య	-2873
.192	-2874
పెద్ద	-2875
▁శ్రీకా	-2876
▁అక్కినేని	-2877
▁కిలోమీటర్ల	-2878
యట్	-2879
హరణ	-2880
పాలు	-2881
▁ఓడి	-2882
▁ఆమెను	-2883
▁కళ్యా	-2884
▁నిర్మాణం	-2885
స్థానం	-2886
▁సభ్యులు	-2887
▁సంబంధించిన	-2888
90	-2889
ంటూ	-2890
▁చట్ట	-2891
▁మాట్లా	-2892
6,	-2893
▁ముఖ	-2894
దర	-2895
నర్	-2896
▁పురపాలక	-2897
లగ	-2898
▁B	-2899
చారం	-2900
ళూరు	-2901
▁నడు	-2902
▁కూతు	-2903
▁తారా	-2904
▁ముస్లిం	-2905
▁వున్న	-2906
▁సినిమాలో	-2907
▁మహారాష్ట్ర	-2908
▁మురుగునీటి	-2909
24	-2910
nd	-2911
తృ	-2912
▁ఋ	-2913
స్స	-2914
▁నల్గొండ	-2915
గ్రామ	-2916
▁దేవి	-2917
▁విప్	-2918
రుగురు	-2919
▁పార్వ	-2920
▁నాయుడు	-2921
▁చంద	-2922
▁మరా	-2923
స్వామ	-2924
కాలంలో	-2925
▁పరిపాలన	-2926
▁కుమార్తె	-2927
ిత	-2928
▁లీ	-2929
వ్యా	-2930
▁జానకి	-2931
ఫి	-2932
శివ	-2933
వలసిన	-2934
▁రోజువారీ	-2935
దయ	-2936
కరి	-2937
నుక	-2938
రల్	-2939
వల్ల	-2940
ాయని	-2941
▁సామ్రాజ్యం	-2942
నై	-2943
▁డై	-2944
ండ్ల	-2945
▁ముం	-2946
▁పిలి	-2947
▁రామాయ	-2948
▁రచించిన	-2949
▁ఏర్పడింది	-2950
9,	-2951
ేద	-2952
▁యే	-2953
చ్చే	-2954
భారత	-2955
చూ	-2956
గాడు	-2957
▁కమి	-2958
▁కెన	-2959
తులను	-2960
▁ఆరుగురు	-2961
నని	-2962
మీద	-2963
సీమ	-2964
ళ్లు	-2965
▁అరు	-2966
▁ఆవి	-2967
ాపూర్	-2968
▁ప్రొడ	-2969
సారిగా	-2970
▁బాధ్య	-2971
▁చేస్తారు	-2972
▁సరిహద్దు	-2973
▁డె	-2974
▁పైగా	-2975
▁భర్త	-2976
▁చిత్త	-2977
▁పనిచేశ	-2978
▁ప్రాచీన	-2979
▁రంగస్థల	-2980
▁21	-2981
▁మామ	-2982
▁క్షేత్ర	-2983
▁[	-2984
▁and	-2985
▁ద్ర	-2986
▁వాటి	-2987
▁పురాణ	-2988
పల్లిలో	-2989
▁శతాబ్దంలో	-2990
ad	-2991
లేని	-2992
▁అంచ	-2993
▁లోక	-2994
▁కనుగొ	-2995
ఒక	-2996
సాడు	-2997
▁188	-2998
▁చెరు	-2999
▁దేశం	-3000
▁స్త్రీలు	-3001
le	-3002
ఎల్	-3003
ాయతీ	-3004
▁ఇండ	-3005
▁ఉదా	-3006
▁మూల	-3007
▁వ్ర	-3008
పాలెం	-3009
▁మద్య	-3010
వచ్చును	-3011
2,	-3012
పర్	-3013
▁ఇంత	-3014
▁ప్రపంచంలో	-3015
▁సంవత్సరంలో	-3016
నాల	-3017
▁కృషి	-3018
▁దుర్	-3019
▁మారు	-3020
టువంటి	-3021
ట్టింది	-3022
▁కాకతీయ	-3023
▁c	-3024
కలో	-3025
బడే	-3026
ాడని	-3027
▁గంగ	-3028
రికన్	-3029
▁వెంట	-3030
▁కోట్ల	-3031
▁అనంతరం	-3032
.190	-3033
▁అవత	-3034
▁ఎంత	-3035
▁కుం	-3036
▁భక్తి	-3037
▁చాళుక్య	-3038
ళిక	-3039
▁నై	-3040
మాన్	-3041
▁ఆత్మ	-3042
▁రుద్ర	-3043
▁గృహాలు	-3044
▁పాప	-3045
▁వైభవ	-3046
▁ఇప్పుడు	-3047
జూ	-3048
▁N	-3049
ist	-3050
క్షన్	-3051
రాన్ని	-3052
▁ఏలూరు	-3053
▁నృత్య	-3054
▁ప్రధానమంత్రి	-3055
ందో	-3056
ాలీ	-3057
▁పరమ	-3058
▁అంది	-3059
▁ఉండి	-3060
▁పద్ధ	-3061
▁కళాశాలలు	-3062
కాయ	-3063
టరు	-3064
▁హీ	-3065
▁అధి	-3066
▁స్త్రీల	-3067
25	-3068
వేద	-3069
ందరి	-3070
గులు	-3071
న్సి	-3072
రోజు	-3073
▁రిక	-3074
▁ఒప్ప	-3075
▁నమ్మ	-3076
▁విభజ	-3077
▁ఇంగ్లీ	-3078
పారు	-3079
▁మానవ	-3080
▁ఎన్నికలలో	-3081
తరం	-3082
ేరు	-3083
▁డే	-3084
వంతు	-3085
శారు	-3086
▁వంద	-3087
గూడెం	-3088
సంవత్స	-3089
బొ	-3090
పిన	-3091
లిత	-3092
▁ఎడ	-3093
▁బే	-3094
.199	-3095
▁బ్య	-3096
▁మెద	-3097
▁వెంక	-3098
▁సోవి	-3099
▁శ్రీనివాసరావు	-3100
ht	-3101
నాడ	-3102
▁మూడవ	-3103
▁మోహన్	-3104
▁విశాఖపట్నం	-3105
గర్భ	-3106
క్చర్	-3107
ంగి	-3108
లికి	-3109
▁యోగ	-3110
▁అతనికి	-3111
▁భాస్కర	-3112
▁బ్రాహ్మ	-3113
▁బాలసుబ్రహ్మణ్యం	-3114
బ్ద	-3115
ేట్	-3116
న్నె	-3117
▁చుట్టు	-3118
▁చై	-3119
ెంలో	-3120
▁బంధ	-3121
▁గవర్	-3122
▁వారిని	-3123
▁గాయకుడు	-3124
▁సభ్యుడు	-3125
▁పార్లమెంటు	-3126
▁ఇంది	-3127
▁స్టేషను	-3128
▁).	-3129
▁అలా	-3130
▁ఎకర	-3131
▁నవల	-3132
▁దిగు	-3133
▁సందర్శ	-3134
మామ	-3135
▁మంత్ర	-3136
▁నిజామా	-3137
▁సుబ్బారావు	-3138
సూ	-3139
సారు	-3140
▁ద్వీ	-3141
▁పుష్	-3142
▁సత్యం	-3143
▁అభిప్ర	-3144
▁ప్రయత్ని	-3145
చేయ	-3146
▁33	-3147
దేశం	-3148
వాతి	-3149
▁ఇస్	-3150
▁కనుక	-3151
▁రాయలు	-3152
▁వ్యాస	-3153
▁డాక్టర్	-3154
▁చెందింది	-3155
▁రఘు	-3156
▁గోల్	-3157
▁రాజ్	-3158
▁లింగ	-3159
▁వరకూ	-3160
▁వర్గ	-3161
▁స్వీకర	-3162
▁ప్రారంభించారు	-3163
▁మాధవ	-3164
▁వినాయ	-3165
▁ఉద్యోగ	-3166
చీ	-3167
ానాయ	-3168
▁శరీ	-3169
▁తాలూ	-3170
▁దేవత	-3171
▁రాజ్యాం	-3172
▁సోవియట్	-3173
▁p	-3174
ూలు	-3175
▁2,	-3176
▁సగ	-3177
శాడు	-3178
▁100	-3179
తావరణ	-3180
▁ఇంటి	-3181
▁ఇచ్చి	-3182
▁పెట్టు	-3183
ణము	-3184
రాన	-3185
ేష్	-3186
▁అప	-3187
ధ్యా	-3188
పర్తి	-3189
▁పుణ్య	-3190
ol	-3191
వో	-3192
పిక	-3193
గ్ని	-3194
నుడు	-3195
ల్ని	-3196
▁చేర	-3197
▁పడి	-3198
ation	-3199
▁భువన	-3200
▁స్థల	-3201
▁పోరాట	-3202
▁శాలలో	-3203
▁రాత్రి	-3204
▁శ్రీకృష్ణ	-3205
▁G	-3206
యర్	-3207
ట్యూ	-3208
త్తా	-3209
పోయి	-3210
▁కేవల	-3211
▁చేయడం	-3212
▁రాసిన	-3213
▁వార్షిక	-3214
▁సంవత్సరాలు	-3215
▁in	-3216
▁చౌ	-3217
▁కలిపి	-3218
స్తోంది	-3219
▁ఐదుగురు	-3220
దరి	-3221
మన్	-3222
సనం	-3223
ారక	-3224
▁పది	-3225
త్రేయ	-3226
వరంలో	-3227
▁పరిచ	-3228
▁స్కూ	-3229
క్చర్స్	-3230
▁పంచాయతీ	-3231
▁పూర్తిగా	-3232
▁మండలంలోని	-3233
సుడు	-3234
▁ఖాన్	-3235
▁దొంగ	-3236
ప్రసాద్	-3237
▁అమెరికన్	-3238
▁సమరయోధుడు	-3239
▁పిలుస్తారు	-3240
▁నిర్వహించెదరు	-3241
్రూ	-3242
ాంధ్ర	-3243
కారులు	-3244
▁చేయని	-3245
▁వస్తుంది	-3246
▁ప్రాంతాలలో	-3247
సిక	-3248
▁ఉర్	-3249
ధ్యాయ	-3250
▁విషయం	-3251
▁అప్పుడు	-3252
▁వ్రాసిన	-3253
▁చలనచిత్రం	-3254
▁క్రీడాకారుడు	-3255
హో	-3256
కాడ	-3257
▁ధర	-3258
ానని	-3259
ాశ్ర	-3260
▁కెనడా	-3261
▁జ్ఞాన	-3262
▁ప్రతీ	-3263
▁స్థిర	-3264
▁నటించారు	-3265
▁L	-3266
చాడు	-3267
కినాడ	-3268
▁ఎమ్మ	-3269
▁గంగా	-3270
▁గుర్తింపు	-3271
వత	-3272
వలన	-3273
్రియ	-3274
▁పేజీ	-3275
▁సాయి	-3276
▁వ్యక్	-3277
▁వేటూరి	-3278
గడ	-3279
▁మనో	-3280
గణంగా	-3281
▁ఆకర్	-3282
▁వేరు	-3283
▁ఇంద్ర	-3284
▁సింగ్	-3285
▁వాతావరణ	-3286
▁అవుతోంది	-3287
▁సంస్కృతి	-3288
21	-3289
చల	-3290
ండీ	-3291
గ్గు	-3292
సులో	-3293
▁చింత	-3294
▁ఆసియా	-3295
▁వైశాల	-3296
▁ప్రస్తుత	-3297
▁సాధారణంగా	-3298
డూ	-3299
ోద్య	-3300
▁కొద్ది	-3301
▁నగరంలో	-3302
▁పరీక్ష	-3303
▁భూగర్భ	-3304
▁సిస్టం	-3305
▁వైభవంగా	-3306
▁తారాగణంగా	-3307
ారె	-3308
▁ఆహ	-3309
▁పాడ	-3310
▁చూసి	-3311
▁దూరం	-3312
▁ప్లాం	-3313
▁ప్రయోగ	-3314
▁సంవత్సరము	-3315
▁ప్రాంతాన్ని	-3316
▁1:	-3317
డంలో	-3318
మాని	-3319
ానంద	-3320
ామిక	-3321
▁సమయ	-3322
▁సమాజ	-3323
▁గణపతి	-3324
▁చుట్ట	-3325
▁స్వతంత్ర	-3326
ంచే	-3327
దరణ	-3328
దారు	-3329
ద్యం	-3330
బడులు	-3331
ేషనల్	-3332
▁ఈశ్వ	-3333
▁గుర్	-3334
▁హాస్య	-3335
▁పిక్చర్స్	-3336
▁నిర్మించాడు	-3337
ch	-3338
జయ	-3339
▁టీ	-3340
గారి	-3341
▁గడి	-3342
రాయలు	-3343
▁వర్ష	-3344
▁పూర్వం	-3345
సంవత్సరం	-3346
▁లక్ష్మణ	-3347
▁శ్రీనివాస్	-3348
దుల	-3349
ంచిన	-3350
ర్పు	-3351
్యము	-3352
▁బోధ	-3353
▁వరి	-3354
▁పరిష	-3355
▁మళ్ళ	-3356
▁బ్రిటీ	-3357
▁లేకుండా	-3358
సర్	-3359
ందున	-3360
దిరి	-3361
మూరి	-3362
▁స్ప	-3363
▁న్యూ	-3364
నాన్ని	-3365
రంజీవి	-3366
▁సృష్ట	-3367
▁గురువు	-3368
▁వివాహం	-3369
▁పరిధిలో	-3370
▁సంఘటనలు	-3371
మాల	-3372
ేత్రం	-3373
▁పాకి	-3374
▁సెంట	-3375
స్థాయి	-3376
▁కొండల	-3377
▁కాంగ్రె	-3378
▁నాయకత్వ	-3379
▁H	-3380
ందా	-3381
్యత	-3382
▁హే	-3383
న్నే	-3384
వ్వు	-3385
స్కృ	-3386
▁ఎగు	-3387
▁పాద	-3388
▁వేల	-3389
ంజనేయ	-3390
▁ఇతని	-3391
డని	-3392
▁భర	-3393
▁మృ	-3394
కూరు	-3395
త్రా	-3396
▁సిరి	-3397
▁అక్కడి	-3398
▁లక్ష్మి	-3399
▁=	-3400
▁బిరు	-3401
▁స్కో	-3402
▁కేవలం	-3403
▁లాంటి	-3404
▁దానికి	-3405
il	-3406
రవ	-3407
ెన	-3408
ent	-3409
్యో	-3410
▁నౌ	-3411
▁రాయల	-3412
▁మరింత	-3413
▁సమర్ప	-3414
▁నిర్ణయ	-3415
▁ప్రచుర	-3416
▁వీటిలో	-3417
▁శ్రీకాకు	-3418
▁కేంద్రంగా	-3419
▁నారాయణరావు	-3420
▁రాష్ట్రములోని	-3421
బెల్	-3422
▁ఆలో	-3423
▁స్క	-3424
▁అక్క	-3425
▁ఎర్ర	-3426
▁జాబి	-3427
▁వేణు	-3428
▁అనేది	-3429
▁భూభాగ	-3430
▁శాంతి	-3431
▁భాస్కరరావు	-3432
▁వ్యతిరేకంగా	-3433
ut	-3434
డై	-3435
ణిక	-3436
రుగ	-3437
▁గత	-3438
▁శో	-3439
న్యా	-3440
▁నర్	-3441
▁ముని	-3442
▁మొదట	-3443
ర్యంలో	-3444
▁అర్థం	-3445
▁భౌతిక	-3446
▁అయింది	-3447
▁ఉదాహరణ	-3448
▁తమిళనాడు	-3449
యస్	-3450
▁53	-3451
ండగా	-3452
▁అలం	-3453
▁రాధ	-3454
▁జైలు	-3455
▁ఆక్రమ	-3456
▁మహిళా	-3457
▁మెదక్	-3458
▁కాకినాడ	-3459
▁b	-3460
ామం	-3461
కూర్	-3462
పాల్	-3463
ార్ధ	-3464
▁పేర	-3465
▁అష్ట	-3466
▁అతిపెద్ద	-3467
▁పండితుడు	-3468
▁విమానాశ్ర	-3469
ra	-3470
▁మౌ	-3471
ుండు	-3472
▁లేక	-3473
▁కష్ట	-3474
▁కేరళ	-3475
▁ద్వి	-3476
▁లాల్	-3477
గోరియన్	-3478
▁విగ్రహం	-3479
పాట	-3480
రుస	-3481
▁తది	-3482
▁భారత్	-3483
▁సరస్వ	-3484
▁డివిజన్	-3485
శర	-3486
▁కై	-3487
▁భవ	-3488
▁యం	-3489
లాంటి	-3490
▁ఆదిలా	-3491
▁ఉర్దూ	-3492
▁సాంకే	-3493
▁కొందరు	-3494
▁చేస్తూ	-3495
చార్యులు	-3496
▁డివిజను	-3497
26	-3498
29	-3499
ామృ	-3500
చేసి	-3501
▁186	-3502
▁366	-3503
సంఖ్య	-3504
▁అమలు	-3505
▁ఫిల్	-3506
▁మద్ద	-3507
▁పుట్ట	-3508
క్షన్స్	-3509
▁ఆరుద్ర	-3510
▁దానిని	-3511
▁వాటిని	-3512
▁సిస్టమ్	-3513
ia	-3514
శో	-3515
▁–	-3516
డవు	-3517
మంత	-3518
▁ఆప	-3519
కంటే	-3520
▁పెద	-3521
▁మైస	-3522
▁ఉదయం	-3523
▁యూని	-3524
▁రోజుల	-3525
స్కృతిక	-3526
▁డిగ్రీలు	-3527
▁అందించాడు	-3528
.197	-3529
లేరు	-3530
▁అవసర	-3531
▁గారి	-3532
▁శాతం	-3533
▁హిందు	-3534
ారాయుడు	-3535
▁కూతురు	-3536
డలు	-3537
నాధ	-3538
టంతో	-3539
▁అంబ	-3540
▁అయి	-3541
▁వలస	-3542
కోవడం	-3543
ాయితీ	-3544
▁ఘట్ట	-3545
▁విద్వ	-3546
స్తుంటారు	-3547
▁రామచంద్ర	-3548
శ్య	-3549
ాపన	-3550
▁నర	-3551
▁ఆరం	-3552
▁చిరంజీవి	-3553
ంక	-3554
జాన	-3555
▁నెహ	-3556
వులను	-3557
▁మధుర	-3558
▁పెరుగు	-3559
▁కొత్తగా	-3560
▁రామలింగయ్య	-3561
▁జరుపుకుంటారు	-3562
రాం	-3563
▁80	-3564
కంలో	-3565
నిమి	-3566
స్టర్	-3567
▁అడవి	-3568
▁జరిగే	-3569
▁ముఖ్యంగా	-3570
▁రాజేంద్ర	-3571
iv	-3572
ing	-3573
ానర్	-3574
▁బాధ	-3575
▁మాయ	-3576
బట్టి	-3577
విత్ర	-3578
▁అంతే	-3579
▁పంజా	-3580
▁పండుగ	-3581
▁కాలెండ	-3582
▁మీదుగా	-3583
▁పట్టణంలో	-3584
▁గ్రెగోరియన్	-3585
నరస	-3586
్యే	-3587
యంగా	-3588
▁ఊరి	-3589
▁లిం	-3590
టర్లు	-3591
ములను	-3592
▁2013	-3593
▁చల్ల	-3594
యిత్రి	-3595
▁గోల్కొండ	-3596
▁జిల్లాలు	-3597
▁పొందింది	-3598
▁కాంగ్రెసు	-3599
48	-3600
గతి	-3601
లేక	-3602
వడం	-3603
ాలే	-3604
▁షి	-3605
▁చూప	-3606
ోత్సవ	-3607
▁కోరు	-3608
▁రచనలు	-3609
▁స్కోప్	-3610
▁చెప్పిన	-3611
కోవడానికి	-3612
▁చిత్తూరు	-3613
డమే	-3614
▁జే	-3615
కట్ట	-3616
స్తి	-3617
▁పడు	-3618
▁థాయ్	-3619
కాన్ని	-3620
హాన్ని	-3621
రాష్ట్ర	-3622
▁నాగరిక	-3623
▁బంగారు	-3624
▁ప్రతిపాద	-3625
▁సాంకేతిక	-3626
▁సాహిత్యం	-3627
కళ	-3628
దర్	-3629
▁1.	-3630
రేంద్ర	-3631
▁సర్పం	-3632
▁సాంస్కృతిక	-3633
▁F	-3634
ల్లం	-3635
హెచ్	-3636
ార్ల	-3637
▁185	-3638
▁ఆరా	-3639
▁మని	-3640
▁భద్ర	-3641
▁మరాఠ	-3642
▁నోబెల్	-3643
▁మారింది	-3644
▁కాలెండరు	-3645
▁నిర్మించ	-3646
▁టా	-3647
రుని	-3648
వాగు	-3649
సరాజు	-3650
▁నేను	-3651
▁నెలకొ	-3652
శ్రామిక	-3653
▁ఆత్రేయ	-3654
▁నెహ్రూ	-3655
▁నేషనల్	-3656
▁ప్రఖ్య	-3657
▁రాజ్యం	-3658
▁ప్రజలకు	-3659
▁నాగార్జున	-3660
▁జన్మించాడు	-3661
▁ప్రొడక్షన్స్	-3662
కథ	-3663
నీయ	-3664
సాద	-3665
హర్	-3666
▁భో	-3667
క్కన	-3668
పురా	-3669
వైపు	-3670
▁ఉజ్	-3671
▁బయట	-3672
▁భవన	-3673
ందారు	-3674
▁2000	-3675
▁ఆహార	-3676
▁తనకు	-3677
▁పక్ష	-3678
▁ఎంపిక	-3679
▁క్రింద	-3680
▁పిల్లల	-3681
ేడ్	-3682
డియా	-3683
లిలో	-3684
వాణి	-3685
స్తవ	-3686
చున్న	-3687
▁రంగు	-3688
▁మార్గం	-3689
▁వ్యాధి	-3690
▁పరిశోధన	-3691
▁ప్రకాశం	-3692
▁అన్నమయ్య	-3693
us	-3694
్వా	-3695
ద్భు	-3696
▁రవి	-3697
ంటాయి	-3698
న్నెల	-3699
▁గమని	-3700
▁దాడి	-3701
▁సగటు	-3702
▁అనుసరించి	-3703
▁రూపొందించ	-3704
ag	-3705
ాంగ	-3706
▁ఆయు	-3707
▁ఎలా	-3708
▁నేల	-3709
▁అంచనా	-3710
▁భద్రా	-3711
▁ముద్ర	-3712
▁విదేశ	-3713
▁అతన్ని	-3714
▁స్వర్ణ	-3715
▁కెనడాలో	-3716
▁జనాభాలో	-3717
▁బ్యానర్	-3718
ోప	-3719
▁గీ	-3720
▁అలీ	-3721
ంచారు	-3722
ంలోకి	-3723
క్కలు	-3724
మెంట్	-3725
యాత్ర	-3726
ర్మన్	-3727
▁టెక్	-3728
కురాలు	-3729
కోర్టు	-3730
▁పల్లి	-3731
▁మళ్ళీ	-3732
▁ఇప్పటి	-3733
▁పర్యాటక	-3734
▁మండలాలు	-3735
▁కేంద్రమైన	-3736
▁చేయడానికి	-3737
ధులు	-3738
త్యాల	-3739
▁నియం	-3740
వంతమైన	-3741
ేషన్స్	-3742
▁భాషలలో	-3743
▁స్నేహి	-3744
▁నియోజకవర్గం	-3745
.198	-3746
▁ఏను	-3747
▁వేయ	-3748
▁సుర	-3749
త్మిక	-3750
▁దాశర	-3751
▁పునర్	-3752
▁శిల్ప	-3753
▁చేపట్ట	-3754
▁కార్యక్ర	-3755
▁బాలబడులు	-3756
▁పారిశ్రామిక	-3757
బాయి	-3758
డ్డున	-3759
▁భాను	-3760
త్తులు	-3761
వుతుంది	-3762
▁చుట్టూ	-3763
▁సమావేశ	-3764
హీ	-3765
గాయ	-3766
▁38	-3767
▁టై	-3768
తుబ్	-3769
▁అనువ	-3770
▁ఇతను	-3771
▁జంతు	-3772
▁రసాయ	-3773
మయ్యాయి	-3774
▁చేస్తుంది	-3775
▁V	-3776
▁చం	-3777
కంగా	-3778
బుల్	-3779
▁నార	-3780
▁రాఘవ	-3781
కుమారి	-3782
గానికి	-3783
సముద్ర	-3784
▁బ్రాహ్మణ	-3785
▁యుద్ధంలో	-3786
పల	-3787
▁f	-3788
శ్మీ	-3789
▁గౌరవ	-3790
కుడిగా	-3791
టిట్యూ	-3792
▁దాసరి	-3793
▁బట్టి	-3794
▁చెప్పి	-3795
▁రాజులు	-3796
▁వ్యాఖ్య	-3797
▁భావిస్తున్నారు	-3798
ెల్	-3799
రంగా	-3800
▁గూడ	-3801
▁సహజ	-3802
▁ఆదాయ	-3803
▁కారణ	-3804
▁భారీ	-3805
▁ఆధ్యా	-3806
▁భాషలో	-3807
▁పాలనలో	-3808
▁ఇంగ్లీషు	-3809
27	-3810
46	-3811
▁గళ	-3812
▁తప	-3813
ప్రీ	-3814
లాండ్	-3815
▁అభ్య	-3816
▁ఆనంద	-3817
▁నిరా	-3818
▁హీరో	-3819
ాలయంలో	-3820
▁వెనుక	-3821
▁జాబితా	-3822
▁ఇండియన్	-3823
▁నిర్వహి	-3824
▁ప్రచురణ	-3825
▁ప్లాంట్	-3826
▁అధికారిక	-3827
.,	-3828
et	-3829
ww	-3830
మత	-3831
తన్	-3832
దైన	-3833
▁ఎవ	-3834
చారి	-3835
ద్దీ	-3836
▁చని	-3837
మ్మద్	-3838
రాజ్య	-3839
▁లక్షణ	-3840
▁గుర్తు	-3841
▁లై	-3842
▁ఛాయ	-3843
▁శేష	-3844
▁అకాడ	-3845
▁తగ్గ	-3846
▁ఫైల్	-3847
ప్రాంత	-3848
▁ఉంటారు	-3849
▁పవిత్ర	-3850
▁గ్రామీణ	-3851
▁కొల్లూరి	-3852
వృ	-3853
-19	-3854
గానం	-3855
మితి	-3856
▁కూర	-3857
రేషన్	-3858
▁మంగళ	-3859
▁ఆర్ట్	-3860
▁రాజమండ్రి	-3861
రాజా	-3862
శేఖర	-3863
▁కోటి	-3864
▁రకాల	-3865
▁శిక్ష	-3866
▁సోదరు	-3867
▁ఇప్పటికీ	-3868
తనం	-3869
పూజ	-3870
ఫ్ర	-3871
▁2.	-3872
రాడు	-3873
ార్డ్	-3874
▁ప్రవహ	-3875
▁విజయనగరం	-3876
▁సుబ్బారాయుడు	-3877
▁దె	-3878
▁Ind	-3879
▁కలె	-3880
పద్యం	-3881
▁అతడు	-3882
▁అర్ధ	-3883
▁సింహా	-3884
▁ఆంజనేయ	-3885
▁కుతుబ్	-3886
▁ఎన్నికైన	-3887
దశ	-3888
.17	-3889
▁రజ	-3890
▁ఆల్	-3891
▁గుహ	-3892
▁నిష్	-3893
▁రక్ష	-3894
▁వేర్	-3895
▁విలువ	-3896
▁సంస్కృ	-3897
▁సాధారణ	-3898
్వర్యంలో	-3899
▁ప్రభావం	-3900
▁అనంతపురం	-3901
▁విశ్వనాథ	-3902
▁ప్రధానంగా	-3903
▁మరణించాడు	-3904
45	-3905
చలం	-3906
నము	-3907
కోసం	-3908
▁అవస	-3909
▁వెబ్	-3910
▁మూర్తి	-3911
▁వీటిని	-3912
▁సంస్థాన	-3913
ర్ధ	-3914
ాభి	-3915
ుంగ	-3916
లియా	-3917
▁ఊరు	-3918
▁జమీ	-3919
▁స్మ	-3920
దర్శి	-3921
▁సింగ	-3922
▁ఉండేవి	-3923
▁చేయబడింది	-3924
▁ప్రారంభించాడు	-3925
43	-3926
▁E	-3927
కారి	-3928
కుంటూ	-3929
పాత్ర	-3930
▁2014,	-3931
▁అద్భు	-3932
▁గళామృ	-3933
▁చేర్చ	-3934
▁లభించింది	-3935
▁ఆధ్యాత్మిక	-3936
79	-3937
re	-3938
టమి	-3939
▁70	-3940
▁వెల	-3941
పేటలో	-3942
▁కోల్	-3943
▁గర్భ	-3944
కునిగా	-3945
▁పల్లె	-3946
▁ఫ్రెం	-3947
▁కోర్టు	-3948
▁శ్రీశ్రీ	-3949
▁నిర్వహించిన	-3950
28	-3951
ాంతం	-3952
▁దంప	-3953
▁ఫలి	-3954
కులను	-3955
▁ప్రథ	-3956
▁అందరి	-3957
▁కారణం	-3958
▁సైనిక	-3959
▁అకాడమీ	-3960
▁మామూలు	-3961
▁గుర్తించ	-3962
▁ప్రదర్శన	-3963
▁రాజధానిగా	-3964
▁కార్యక్రమాలు	-3965
▁వెంకటేశ్వరరావు	-3966
63	-3967
లర్	-3968
చిగా	-3969
్యాగ	-3970
▁వది	-3971
▁జ్యో	-3972
▁రాతి	-3973
స్థాపన	-3974
▁ఎనిమి	-3975
▁కోరిక	-3976
▁మాటలు	-3977
▁పెరిగి	-3978
▁యూనియన్	-3979
▁రంగారావు	-3980
▁కంప్యూటరు	-3981
tp	-3982
పన్న	-3983
ఫ్ట్	-3984
యిన్	-3985
▁విర	-3986
▁అరటి	-3987
▁గద్వ	-3988
▁దక్క	-3989
▁పారు	-3990
కేంద్ర	-3991
ప్తంగా	-3992
▁విప్లవ	-3993
ించేవారు	-3994
ళీ	-3995
▁31	-3996
▁శృ	-3997
.196	-3998
▁రాం	-3999
ునిగా	-4000
▁2014	-4001
నిర్మా	-4002
▁2015,	-4003
▁అత్యు	-4004
▁పూజలు	-4005
▁దాశరథి	-4006
▁విజ్ఞాన	-4007
▁ప్రక్రియ	-4008
▁చేస్తున్న	-4009
ేశ్వరస్వామి	-4010
//	-4011
65	-4012
75	-4013
og	-4014
మణి	-4015
ినే	-4016
పాతం	-4017
ర్రు	-4018
▁దశా	-4019
▁తాలూకా	-4020
▁తిరుగుబాటు	-4021
49	-4022
జీవ	-4023
▁3,	-4024
▁హృ	-4025
http	-4026
త్రు	-4027
ొన్న	-4028
ంలోనూ	-4029
▁ఇష్ట	-4030
క్షేత్ర	-4031
▁సుప్రీ	-4032
టిట్యూట్	-4033
త్వాన్ని	-4034
▁కొసరాజు	-4035
▁నాగరికత	-4036
▁రికార్డు	-4037
▁విశ్వవిద్యాలయ	-4038
://	-4039
జ్ర	-4040
నాలి	-4041
▁191	-4042
▁చోళ	-4043
▁సహా	-4044
జానకి	-4045
మనేని	-4046
▁గాని	-4047
▁గోవి	-4048
పెద్ది	-4049
▁ఉజ్బె	-4050
▁వస్త్ర	-4051
▁సైన్యం	-4052
.)	-4053
బై	-4054
త్న	-4055
పిల్ల	-4056
▁నివస	-4057
▁పాలు	-4058
▁పెను	-4059
▁మలయా	-4060
▁గాయని	-4061
▁వుంది	-4062
▁జీవితం	-4063
▁ప్రయాణ	-4064
▁గళామృతము	-4065
▁పాఠశాలలో	-4066
85	-4067
ul	-4068
కై	-4069
సేవ	-4070
.189	-4071
.194	-4072
న్సీ	-4073
కాలను	-4074
▁అద్ద	-4075
▁క్రై	-4076
య్యారు	-4077
▁పొందు	-4078
▁మహిళల	-4079
▁తరువాతి	-4080
ాలున్నాయి	-4081
డల్	-4082
నాగ	-4083
స్ర	-4084
▁45	-4085
▁ఆశ	-4086
▁దై	-4087
▁నొ	-4088
గ్గి	-4089
మూర్	-4090
▁మొఘ	-4091
▁వంట	-4092
▁శుభ	-4093
▁శోభ	-4094
▁సము	-4095
చరిత్ర	-4096
నరసింహ	-4097
▁అగ్ని	-4098
▁జానపద	-4099
▁నివసి	-4100
▁రెండో	-4101
▁సింధు	-4102
కోవచ్చు	-4103
▁అనువాద	-4104
▁అవకాశం	-4105
▁వారిలో	-4106
▁తెలియదు	-4107
▁దూరంలోనూ	-4108
▁స్వాతంత్ర్యం	-4109
ంభ	-4110
▁w	-4111
రస్	-4112
గాయి	-4113
▁పాం	-4114
సాగర్	-4115
▁బాల్	-4116
▁వెలు	-4117
▁పొడవు	-4118
▁శ్రీశై	-4119
▁విద్వాం	-4120
▁పనిచేశాడు	-4121
▁చిత్రాన్ని	-4122
▁ఆచ	-4123
ండర్	-4124
దిగా	-4125
▁మనం	-4126
▁జాతి	-4127
▁పట్ల	-4128
▁ప్రె	-4129
▁లేవు	-4130
▁వీటి	-4131
▁హత్య	-4132
▁మనిషి	-4133
▁వ్రాయ	-4134
▁దీన్ని	-4135
▁ప్రాము	-4136
▁మార్పు	-4137
ోత్సవాలు	-4138
▁సుప్రీం	-4139
▁చెరువులు	-4140
%.	-4141
ణలు	-4142
టిక్	-4143
▁జ్ఞ	-4144
▁పిలువ	-4145
▁సన్ని	-4146
కుంటుంది	-4147
47	-4148
టల్	-4149
ింగు	-4150
▁నవా	-4151
గోపాల	-4152
ోద్యమ	-4153
▁కలిగ	-4154
తెలుగు	-4155
▁డబ్బు	-4156
▁ఇంటికి	-4157
▁కమ్యూనిస్టు	-4158
గలి	-4159
లపై	-4160
▁దళ	-4161
సాయి	-4162
▁కథా	-4163
▁కూడ	-4164
▁పంప	-4165
▁కథలు	-4166
ంచింది	-4167
▁జనరల్	-4168
▁చెన్నై	-4169
▁మార్గంలో	-4170
▁న్యాయమూర్తి	-4171
▁ముఖ్యమంత్రిగా	-4172
▁పంపిస్తున్నారు	-4173
దృ	-4174
ల్వ	-4175
సము	-4176
▁అబ్	-4177
సిద్ధ	-4178
ెల్యే	-4179
▁అంతా	-4180
▁ఆరంభ	-4181
▁తత్వ	-4182
▁పర్య	-4183
▁అప్పు	-4184
▁ఉత్సవ	-4185
▁బిడ్డ	-4186
▁ఇందిరా	-4187
▁కాశ్మీ	-4188
▁మిలియన్	-4189
స్తున్నది	-4190
▁కార్యాలయ	-4191
ఠం	-4192
మహ	-4193
▁ఖా	-4194
▁యె	-4195
నియా	-4196
ప్తి	-4197
▁కాయ	-4198
▁రిప	-4199
▁వుం	-4200
▁సరో	-4201
నున్న	-4202
▁ఇండో	-4203
▁అయినా	-4204
▁ప్రాణ	-4205
▁చేసుకుని	-4206
▁రాష్ట్రాల	-4207
▁ప్రాంతానికి	-4208
33	-4209
95	-4210
య్	-4211
పుణ	-4212
ామీ	-4213
▁అచ	-4214
ట్రి	-4215
పేరు	-4216
ర్యం	-4217
▁లలో	-4218
▁2023	-4219
▁రాధా	-4220
▁సమేత	-4221
▁పాకిస్తాన్	-4222
టరీ	-4223
ాంశ	-4224
రుకు	-4225
▁ఆమో	-4226
▁మణి	-4227
కులకు	-4228
▁అశ్వ	-4229
▁ఆశ్ర	-4230
▁వరుస	-4231
▁విని	-4232
▁రాజవం	-4233
▁వాళ్ళ	-4234
▁ఉద్యమం	-4235
▁మొదలగు	-4236
రామారావు	-4237
▁ఆధ్వర్యంలో	-4238
టివ్	-4239
ముతో	-4240
మేష్	-4241
వాన్	-4242
ాంగ్	-4243
▁బీజ	-4244
చల్లా	-4245
▁1990	-4246
త్రులు	-4247
▁చెల్ల	-4248
▁జట్టు	-4249
▁ఆచార్య	-4250
▁తెనాలి	-4251
▁విదేశీ	-4252
▁పిల్లలు	-4253
▁వీరభద్ర	-4254
▁ఎమ్మెల్యే	-4255
▁ప్రాముఖ్య	-4256
",	-4257
గాన	-4258
మయిన	-4259
లుపు	-4260
వలసి	-4261
▁ఇటీ	-4262
▁ధ్వ	-4263
▁యోధ	-4264
ప్రతి	-4265
ములలో	-4266
శిష్ట	-4267
▁నక్ష	-4268
▁మండే	-4269
▁అర్జు	-4270
▁ఆయనకు	-4271
తున్నది	-4272
▁స్వాధీ	-4273
87	-4274
em	-4275
కుం	-4276
లైన	-4277
ందర్	-4278
చర్ల	-4279
పడిన	-4280
పురి	-4281
ప్పా	-4282
బ్బి	-4283
▁అణు	-4284
▁ఎయి	-4285
▁క్వ	-4286
▁దొర	-4287
ంచాడు	-4288
▁రాణి	-4289
▁నాయకులు	-4290
సో	-4291
ఘిక	-4292
ార్వ	-4293
▁ఆకాశ	-4294
రాత్రి	-4295
▁ఉండగా	-4296
▁కూడిన	-4297
▁అడుగుల	-4298
▁కథానాయ	-4299
వారంనాడు	-4300
▁మాధవపెద్ది	-4301
రాజ్	-4302
▁జాగ	-4303
▁రమణ	-4304
▁జగ్గ	-4305
▁విలీ	-4306
ణాన్ని	-4307
▁కమిటీ	-4308
▁హక్కు	-4309
ానువాదం	-4310
▁రేడియో	-4311
▁ఉన్నాడు	-4312
▁ఘట్టమనేని	-4313
▁కార్యక్రమంలో	-4314
▁8,	-4315
▁అధ	-4316
బద్ధ	-4317
యంతి	-4318
షనల్	-4319
▁దాన	-4320
▁సూచ	-4321
శక్తి	-4322
ేశ్వరి	-4323
▁ఇంటర్	-4324
▁దివ్య	-4325
▁పద్యం	-4326
▁ఒకసారి	-4327
▁అమ్మాయి	-4328
▁అందించిన	-4329
35	-4330
66	-4331
ఘ్	-4332
ధిప	-4333
రము	-4334
దానం	-4335
ష్కర	-4336
▁ఎవర	-4337
చేసిన	-4338
రిక్ష	-4339
లింగం	-4340
ాగ్రహ	-4341
▁కాల్	-4342
▁చేయు	-4343
▁తొలగ	-4344
▁నన్న	-4345
▁రక్త	-4346
▁శ్లో	-4347
▁ఒడ్డున	-4348
▁సంస్థలు	-4349
▁బ్రిటిషు	-4350
▁రచయిత్రి	-4351
▁కేంద్రాల్లో	-4352
▁d	-4353
జరా	-4354
▁ఆయ	-4355
▁ఆస	-4356
కొనే	-4357
గారు	-4358
త్మా	-4359
ర్ట్	-4360
వును	-4361
▁డ్ర	-4362
కుంటు	-4363
▁గారు	-4364
▁పాటల	-4365
▁పులి	-4366
▁స్టే	-4367
మాన్ని	-4368
▁పర్షి	-4369
▁ఇంట్లో	-4370
▁భారతదేశపు	-4371
▁శ్రీకాకుళం	-4372
ct	-4373
ot	-4374
లమ	-4375
ానది	-4376
▁శని	-4377
▁అల్ల	-4378
▁జాన్	-4379
▁మార్చ	-4380
▁స్థానం	-4381
▁నియంత్ర	-4382
▁పొందాడు	-4383
▁సాధించి	-4384
▁అభిప్రాయ	-4385
▁చేస్తాడు	-4386
▁వైశాల్యం	-4387
▁మొదటిసారిగా	-4388
దండ	-4389
▁ఒడి	-4390
.2016	-4391
▁2019	-4392
▁కాశీ	-4393
నైటెడ్	-4394
▁అనుభవ	-4395
▁ఆత్మక	-4396
▁కవులు	-4397
▁జ్యోతి	-4398
▁సాంఘిక	-4399
▁ఉత్సవాలు	-4400
▁మరణించారు	-4401
99	-4402
సిం	-4403
ేశవ	-4404
▁ధన	-4405
కూరి	-4406
గాని	-4407
గుల్	-4408
▁150	-4409
▁దాం	-4410
▁నదీ	-4411
▁మాస	-4412
శేఖర్	-4413
▁మనసు	-4414
▁వీధి	-4415
గుళూరు	-4416
పత్రిక	-4417
▁ఆమెకు	-4418
▁వెలువ	-4419
▁పొట్టి	-4420
▁కాబట్టి	-4421
▁ఆలయాన్ని	-4422
▁తెలుస్తుంది	-4423
44	-4424
77	-4425
eb	-4426
ఖండ	-4427
గర్	-4428
ీస్	-4429
ుడి	-4430
▁బై	-4431
పట్ట	-4432
లిన్	-4433
ంగోలు	-4434
గింపు	-4435
▁గాను	-4436
▁బంగా	-4437
▁వెలి	-4438
▁శృంగ	-4439
▁ప్రియ	-4440
▁లేకపో	-4441
డేపల్లి	-4442
▁ఎదుర్కొ	-4443
▁నటించగా	-4444
▁దక్షిణాన	-4445
▁రంగారెడ్డి	-4446
▁శ్రీరాములు	-4447
▁చిత్రానువాదం	-4448
op	-4449
ౌన్	-4450
ాలనే	-4451
కట్టు	-4452
ుడిగా	-4453
▁మ్యూ	-4454
▁ప్రథమ	-4455
▁సాగర్	-4456
▁అంగీకర	-4457
▁నీటిని	-4458
▁పేర్లు	-4459
▁మద్దతు	-4460
▁దక్షిణా	-4461
▁దేశాలలో	-4462
▁ఉపాధ్యాయ	-4463
▁పట్టణానికి	-4464
▁m	-4465
దుప	-4466
▁ఇక	-4467
▁భి	-4468
దురు	-4469
పాలి	-4470
రణ్య	-4471
ర్తన	-4472
హదేవ	-4473
▁జైన	-4474
▁మరణం	-4475
▁లిపి	-4476
ట్లుగా	-4477
వారికి	-4478
▁ఘనంగా	-4479
▁ప్రశ్	-4480
▁సంభాష	-4481
పట్నంలో	-4482
▁ఉమ్మడి	-4483
▁మండేలా	-4484
▁రూపాయల	-4485
▁రోజుల్లో	-4486
▁విద్యార్థులు	-4487
ay	-4488
.195	-4489
డుపు	-4490
▁పైన	-4491
నాలజీ	-4492
▁ఎవరి	-4493
▁చర్చ	-4494
▁పరిణ	-4495
▁పేరొ	-4496
▁సాయం	-4497
▁భాషలు	-4498
▁రాజుల	-4499
పోతుంది	-4500
▁రాముడు	-4501
▁ప్రార్థ	-4502
▁సాధించింది	-4503
గోళ	-4504
చేత	-4505
ారో	-4506
▁ఫు	-4507
డండి	-4508
దాస్	-4509
▁గణి	-4510
▁నిరం	-4511
▁పల్ల	-4512
▁బయలు	-4513
▁లోనే	-4514
దాన్ని	-4515
చున్నది	-4516
▁స్కూల్	-4517
▁పోతోంది	-4518
▁అంతరిక్ష	-4519
▁కార్యక్రమం	-4520
పరు	-4521
టూరు	-4522
పట్ల	-4523
బ్రహ	-4524
రాయల	-4525
ాయుధ	-4526
▁ఉచి	-4527
▁సుఖ	-4528
విశ్వ	-4529
▁గెలు	-4530
▁రావి	-4531
▁వేడు	-4532
▁తమ్ము	-4533
▁రమేష్	-4534
ించలేదు	-4535
▁గద్వాల	-4536
▁నంద్యాల	-4537
▁విజయవంత	-4538
▁సంఖ్యలో	-4539
▁భక్తులకు	-4540
ృత	-4541
యినా	-4542
ర్డ్	-4543
▁కాళ	-4544
▁గోడ	-4545
▁వరద	-4546
▁సంచ	-4547
▁1980	-4548
▁అసలు	-4549
▁చర్య	-4550
▁సింహ	-4551
వీంద్ర	-4552
వేంద్ర	-4553
▁అనువద	-4554
▁ప్రశం	-4555
చ్చింది	-4556
▁ఒంగోలు	-4557
▁కాలేజీ	-4558
▁ప్రకృతి	-4559
▁స్వయంగా	-4560
.5	-4561
లీల	-4562
ానంత	-4563
▁అంజ	-4564
▁తీర	-4565
వులలో	-4566
▁ఆర్య	-4567
▁వీరా	-4568
ధీనంలో	-4569
విత్రి	-4570
▁త్యాగ	-4571
ించడంతో	-4572
▁అందుకే	-4573
▁వ్యాసం	-4574
▁నందమూరి	-4575
▁పార్వతీ	-4576
▁ప్రాధాన	-4577
▁ప్రోత్స	-4578
▁నిర్మించబడింది	-4579
93	-4580
గవ	-4581
జో	-4582
పాక	-4583
ికో	-4584
పక్ష	-4585
మంచి	-4586
▁మాల	-4587
▁శార	-4588
పియన్	-4589
ారాలు	-4590
▁విరా	-4591
▁హెచ్	-4592
▁కూర్చ	-4593
▁రక్షణ	-4594
▁వైఎస్	-4595
▁ఆనకట్ట	-4596
▁పెట్టి	-4597
▁ప్రెసి	-4598
▁రాజ్యాంగ	-4599
▁ఆదిలాబాద్	-4600
▁సల	-4601
చక్ర	-4602
య్యా	-4603
ింట్	-4604
▁తీయ	-4605
▁పదం	-4606
▁శిఖ	-4607
▁కందు	-4608
▁రంగా	-4609
▁పారుదల	-4610
▁మధ్యలో	-4611
▁మీటర్ల	-4612
▁రూపంలో	-4613
ించుకొని	-4614
▁అయ్యాడు	-4615
▁పట్టాభి	-4616
▁ప్రాంతీయ	-4617
▁విద్యార్థి	-4618
76	-4619
83	-4620
ెర	-4621
నటు	-4622
▁పల్	-4623
▁విల	-4624
ూడియో	-4625
▁ఉద్ద	-4626
▁ఉష్ణ	-4627
▁వాయు	-4628
▁శిల్	-4629
లాన్ని	-4630
▁గుర్ర	-4631
▁నగరాల	-4632
▁రాక్ష	-4633
చున్నారు	-4634
▁రాయలసీమ	-4635
▁దేశానికి	-4636
▁కనిపిస్తుంది	-4637
ధ్	-4638
బే	-4639
్వే	-4640
▁ఫో	-4641
▁యి	-4642
చిలీ	-4643
హార్	-4644
▁కొల	-4645
▁మసీ	-4646
▁వేస	-4647
తులలో	-4648
▁సదుప	-4649
▁సప్త	-4650
ించాలి	-4651
▁అబ్దు	-4652
▁ఎక్స్	-4653
▁స్వంత	-4654
▁చూడండి	-4655
▁వ్యవహర	-4656
▁గుమ్మడి	-4657
▁చివరికి	-4658
▁క్షేత్రం	-4659
▁రిపబ్లిక్	-4660
▁సర్పంచిగా	-4661
▁సాంప్రదాయ	-4662
▁గ్రామంలోని	-4663
▁భారతదేశంలోని	-4664
',	-4665
ఖి	-4666
బల	-4667
షం	-4668
ారే	-4669
▁రొ	-4670
▁షే	-4671
▁15:	-4672
▁ఆకు	-4673
▁ఉద్	-4674
▁దిశ	-4675
▁లను	-4676
మోహన్	-4677
ళ్ళలో	-4678
ీర్ణం	-4679
▁అగ్ర	-4680
▁ఉండటం	-4681
▁డివిజనులో	-4682
▁విమానాశ్రయం	-4683
▁ప్రారంభమైంది	-4684
▁స్థాపించబడింది	-4685
థ్	-4686
సల	-4687
▁డీ	-4688
శర్మ	-4689
ామని	-4690
▁గృహ	-4691
▁తోట	-4692
▁చిరు	-4693
▁జీవన	-4694
▁గుండె	-4695
▁ఇచ్చిన	-4696
▁పాత్రలు	-4697
▁యునైటెడ్	-4698
▁సినిమాను	-4699
▁ఉజ్బెకిస్థాన్	-4700
కన	-4701
గమ	-4702
దె	-4703
యల్	-4704
ర్ఘ	-4705
ళ్వ	-4706
వని	-4707
ాలం	-4708
▁హర	-4709
▁చతు	-4710
▁పామ	-4711
▁యుగ	-4712
▁విన	-4713
మైనవి	-4714
్యుడు	-4715
▁కలసి	-4716
▁నవలా	-4717
య్యాయి	-4718
ిస్తారు	-4719
▁ఉంటాడు	-4720
▁వాటిలో	-4721
భివృద్ధి	-4722
▁టెక్నాలజీ	-4723
▁పాల్గొన్నారు	-4724
కూడ	-4725
▁యో	-4726
నీటి	-4727
▁The	-4728
వులకు	-4729
▁సారి	-4730
స్తులు	-4731
▁తయారీ	-4732
▁అందుకు	-4733
▁స్టూడియో	-4734
▁గోపాలరావు	-4735
▁విస్తీర్ణం	-4736
39	-4737
ri	-4738
పైన	-4739
చయిత	-4740
భూమి	-4741
ులలో	-4742
▁విం	-4743
ామిడి	-4744
▁అవగా	-4745
▁అవతర	-4746
▁ఎత్త	-4747
▁సమాన	-4748
▁అవసరం	-4749
▁ఈనాడు	-4750
▁కలుపు	-4751
▁గుజరా	-4752
▁మొఘల్	-4753
పెట్టిన	-4754
▁అనుసంధ	-4755
▁సమకూర్	-4756
▁క్రమంగా	-4757
42	-4758
సమ	-4759
భూష	-4760
లువు	-4761
▁తెర	-4762
తులతో	-4763
▁ఉంటు	-4764
▁పిఠా	-4765
▁ముగి	-4766
▁సంతో	-4767
▁మచిలీ	-4768
▁భగవంతు	-4769
▁వెంటనే	-4770
ించుకుని	-4771
▁ఫలితంగా	-4772
▁అధికారులు	-4773
▁వ్యవస్థాప	-4774
▁శాస్త్రీయ	-4775
▁భారతదేశానికి	-4776
96	-4777
ab	-4778
ఫల	-4779
తకు	-4780
పల్	-4781
వేల	-4782
్రు	-4783
▁4,	-4784
▁9,	-4785
▁బూ	-4786
త్తమ	-4787
రేష్	-4788
హ్లా	-4789
▁నటీ	-4790
ాలంటే	-4791
▁గోవా	-4792
▁నాటు	-4793
▁నిపుణ	-4794
▁ప్రణా	-4795
▁అనుమతి	-4796
▁చివరకు	-4797
▁పరిచయం	-4798
▁మహర్షి	-4799
▁అధికారి	-4800
▁ఒప్పందం	-4801
▁ప్రోగ్ర	-4802
▁సంస్కరణ	-4803
▁దర్శకులు	-4804
▁నిష్పత్తి	-4805
ీం	-4806
జ్జ	-4807
పోవ	-4808
ాంజ	-4809
▁32	-4810
▁జు	-4811
▁పగ	-4812
నిగా	-4813
లీస్	-4814
వాసం	-4815
సింహ	-4816
▁చంప	-4817
▁పిం	-4818
▁2004	-4819
▁కమలా	-4820
▁వందే	-4821
చ్చాడు	-4822
▁దాంతో	-4823
▁పెళ్ళ	-4824
▁శుక్ర	-4825
▁నేర్చు	-4826
▁మందిరం	-4827
▁సార్లు	-4828
▁ప్రదేశం	-4829
▁దేవస్థానం	-4830
▁ప్రత్యేకంగా	-4831
కార్	-4832
రత్న	-4833
▁1950	-4834
▁అంకి	-4835
▁గోపి	-4836
▁తగిన	-4837
▁పోలి	-4838
▁స్తం	-4839
▁చట్టం	-4840
▁తిమ్మ	-4841
▁నదులు	-4842
▁పనులు	-4843
▁మొత్త	-4844
▁విశ్వా	-4845
▁పండితులు	-4846
ధర	-4847
యము	-4848
హిత	-4849
వాజీ	-4850
▁పదవీ	-4851
▁పాండ	-4852
▁తెల్ల	-4853
▁చెల్లె	-4854
▁బిరుదు	-4855
▁మ్యూజి	-4856
▁వెలుగు	-4857
▁ఉత్తరాన	-4858
▁కుటుంబం	-4859
▁జరిగాయి	-4860
▁ఆలయానికి	-4861
▁బాలకృష్ణ	-4862
▁సంపాదకుడు	-4863
▁రాష్ట్రానికి	-4864
72	-4865
ce	-4866
రిన	-4867
రుల	-4868
▁రథ	-4869
ప్రద	-4870
▁కనక	-4871
▁దర్	-4872
▁ఎందు	-4873
పడింది	-4874
▁ద్వార	-4875
▁సుప్ర	-4876
▁చెట్టు	-4877
▁వాడుకలో	-4878
▁రాధాకృష్ణ	-4879
▁కార్యదర్శి	-4880
86	-4881
టన	-4882
ండం	-4883
ంబు	-4884
కొన	-4885
మనీ	-4886
▁బస	-4887
బాబా	-4888
మానం	-4889
▁పసు	-4890
▁సిన	-4891
్యంలో	-4892
▁1991	-4893
▁ఇక్క	-4894
▁ఉంటే	-4895
▁జర్మ	-4896
▁జార్	-4897
▁పన్న	-4898
▁వయసు	-4899
పాడులో	-4900
▁దెబ్బ	-4901
▁పునరు	-4902
▁విక్ర	-4903
▁అవగాహన	-4904
▁ఉండాలి	-4905
▁ప్రచార	-4906
శాస్త్రం	-4907
▁ఎనిమిది	-4908
▁పాత్రిక	-4909
▁మహాత్మా	-4910
▁వివరాలు	-4911
▁విశిష్ట	-4912
▁అవుతుంది	-4913
▁తీసుకుని	-4914
▁పెట్టారు	-4915
▁సావిత్రి	-4916
▁సుందరరామ	-4917
▁అందించారు	-4918
▁అయినప్పటికీ	-4919
88	-4920
గత	-4921
▁55	-4922
త్యా	-4923
యంతో	-4924
ాలపై	-4925
▁ఉదయ	-4926
▁జరగ	-4927
▁యూర	-4928
▁లోయ	-4929
కిత్స	-4930
▁మనకు	-4931
▁సీతా	-4932
▁పరిగణ	-4933
▁మరాఠీ	-4934
▁ప్రేమి	-4935
▁శివుడు	-4936
▁చెబుతారు	-4937
."	-4938
రణం	-4939
క్కర	-4940
శ్చా	-4941
▁12:	-4942
▁మాం	-4943
▁మేన	-4944
▁సత్	-4945
▁సదా	-4946
టీఆర్	-4947
▁గాలి	-4948
▁భక్త	-4949
▁మాతృ	-4950
▁సూపర్	-4951
▁ఉన్నది	-4952
▁విశేషం	-4953
▁వెళ్ళే	-4954
కారాన్ని	-4955
స్థానంలో	-4956
▁రవీంద్ర	-4957
ించేందుకు	-4958
▁మాట్లాడే	-4959
▁న్యాయవాది	-4960
▁పాత్రల్లో	-4961
%,	-4962
ైక	-4963
కలి	-4964
రచన	-4965
▁65	-4966
పాణి	-4967
షేకం	-4968
ీర్ణ	-4969
▁అశో	-4970
▁గణప	-4971
కొన్న	-4972
ధిపతి	-4973
▁1956	-4974
▁ఉండు	-4975
▁చెంద	-4976
▁మూవీ	-4977
కారిణి	-4978
ించాలని	-4979
▁కళ్యాణ	-4980
▁నిర్మి	-4981
▁విధానం	-4982
▁సముదాయ	-4983
▁ప్రేక్ష	-4984
▁చెప్పాడు	-4985
▁పిఠాపురం	-4986
▁వైద్యులు	-4987
▁తాడేపల్లి	-4988
▁గోపాలకృష్ణ	-4989
▁నిజామాబాదు	-4990
st	-4991
com	-4992
▁అనీ	-4993
▁గుం	-4994
▁గేయ	-4995
▁శాత	-4996
కొత్త	-4997
వల్లి	-4998
▁జాతర	-4999
▁జారీ	-5000
▁తుంగ	-5001
▁అనుబంధ	-5002
▁చందమామ	-5003
▁తొమ్మి	-5004
▁తూర్పున	-5005
▁వచ్చాయి	-5006
▁డబ్బింగ్	-5007
▁పరిశ్రమలు	-5008
గతా	-5009
గీత	-5010
జన్	-5011
మండ	-5012
సార	-5013
ట్రో	-5014
ర్థి	-5015
వరపు	-5016
హెబ్	-5017
▁183	-5018
▁చిన	-5019
నుంచి	-5020
యుక్త	-5021
ాపురం	-5022
్యంతో	-5023
▁1992	-5024
▁శిథి	-5025
తుందని	-5026
స్థులు	-5027
▁అంతకు	-5028
▁దాన్ని	-5029
▁వయస్సు	-5030
▁పాత్రికేయ	-5031
un	-5032
ఖా	-5033
రై	-5034
▁3:	-5035
▁అట	-5036
డ్స్	-5037
భాషా	-5038
ాయిక	-5039
▁అల్	-5040
▁నిడ	-5041
▁విక	-5042
▁అంటూ	-5043
▁శర్మ	-5044
▁సొంత	-5045
ప్రోలు	-5046
▁ఎకరాల	-5047
▁తప్పు	-5048
▁నివేద	-5049
▁మొక్క	-5050
▁చేతిలో	-5051
▁పదవిని	-5052
▁వంటివి	-5053
▁చిత్రాల	-5054
▁ప్రధాని	-5055
▁మహారాజు	-5056
▁వచ్చాడు	-5057
బ్రహ్మణ్య	-5058
▁భువనగిరి	-5059
id	-5060
క్స	-5061
గల్	-5062
సుల	-5063
▁థి	-5064
దాని	-5065
ళ్లి	-5066
స్కో	-5067
▁187	-5068
▁22:	-5069
▁కలక	-5070
▁డాల	-5071
▁పర్	-5072
▁వివ	-5073
▁1947	-5074
▁http	-5075
▁కాపా	-5076
▁తాండ	-5077
▁బుద్ధ	-5078
▁పనిచేసిన	-5079
▁సాధించిన	-5080
▁సుల్తాన్	-5081
▁స్వాధీనం	-5082
▁స్థాపించారు	-5083
▁ప్రకటించింది	-5084
కాక	-5085
రాస	-5086
▁46	-5087
▁దూ	-5088
ముని	-5089
▁10:	-5090
▁కీల	-5091
▁జంట	-5092
▁నేత	-5093
▁స్న	-5094
రిగిన	-5095
▁అస్స	-5096
▁ఇబ్బ	-5097
▁ఎక్క	-5098
▁కుడి	-5099
▁డైరె	-5100
▁ప్రో	-5101
▁ఫాల్	-5102
▁శైలి	-5103
కోవాలి	-5104
▁గొల్ల	-5105
▁మరికొ	-5106
▁యంత్ర	-5107
▁పుట్టి	-5108
▁గవర్నర్	-5109
▁విషయంలో	-5110
▁కళాకారుడు	-5111
▁వెంకటేశ్వర	-5112
84	-5113
లత	-5114
దిక	-5115
మ్య	-5116
▁చొ	-5117
▁ఫల	-5118
▁బహ	-5119
ంపేట	-5120
గడ్డ	-5121
చేసు	-5122
తుకు	-5123
ులతో	-5124
▁అమర	-5125
▁పీఠ	-5126
▁విడ	-5127
ండ్లు	-5128
రావతి	-5129
ార్థం	-5130
▁2020	-5131
▁అచ్చ	-5132
▁ఆమోద	-5133
పోయాడు	-5134
రామయ్య	-5135
శ్రీని	-5136
▁ఎన్ను	-5137
▁పరిసర	-5138
▁రాజీన	-5139
▁శ్రీమ	-5140
▁చక్కని	-5141
▁బయలుదే	-5142
▁రంగంలో	-5143
▁బ్యాంక్	-5144
గ్రహాన్ని	-5145
▁జరుగుతాయి	-5146
▁పరిస్థితి	-5147
▁భావిస్తారు	-5148
od	-5149
▁చల	-5150
షులు	-5151
▁జగి	-5152
▁తిన	-5153
▁హిం	-5154
తుడైన	-5155
బొమ్మ	-5156
శంకర్	-5157
▁1920	-5158
▁వాహన	-5159
▁స్వీ	-5160
ట్లాడు	-5161
▁శాసనం	-5162
▁దుర్గా	-5163
▁జగ్గయ్య	-5164
▁ప్రస్తా	-5165
▁వనపర్తి	-5166
▁ఒక్కొక్క	-5167
▁నిలిచింది	-5168
▁పోషించారు	-5169
▁నిర్మాణానికి	-5170
ang	-5171
కళా	-5172
రాఘ	-5173
సలు	-5174
▁2:	-5175
▁90	-5176
▁బ్	-5177
క్రీ	-5178
ట్రే	-5179
ణ్ణి	-5180
సేన్	-5181
▁25:	-5182
▁జపా	-5183
దండ్ర	-5184
ాత్మక	-5185
▁గణిత	-5186
▁స్పీ	-5187
నేషనల్	-5188
▁నియమి	-5189
▁నూతన్	-5190
▁మలయాళ	-5191
▁ఉద్దేశ	-5192
▁శివాజీ	-5193
▁సహకారం	-5194
▁అన్నాడు	-5195
▁క్రింది	-5196
▁నిర్వహణ	-5197
▁పుస్తకం	-5198
▁సముద్రాల	-5199
ak	-5200
ోర	-5201
▁a	-5202
లంక	-5203
ాతి	-5204
▁ఎల	-5205
కల్ప	-5206
ధానం	-5207
నూరు	-5208
మంతా	-5209
▁23:	-5210
▁అడి	-5211
▁ఊరే	-5212
▁వాయ	-5213
ానికీ	-5214
▁2009	-5215
▁ఐక్య	-5216
▁చిహ్	-5217
▁నవ్వ	-5218
▁రేటు	-5219
▁శంకర	-5220
▁హిట్	-5221
కుమార్	-5222
▁అందరూ	-5223
▁పరిమి	-5224
పాలెంలో	-5225
▁బంగాళా	-5226
▁విలీనం	-5227
▁విస్తర	-5228
ించవచ్చు	-5229
▁శతాబ్ది	-5230
▁రచించాడు	-5231
▁నిజామాబాద్	-5232
73	-5233
చా	-5234
మౌ	-5235
షీ	-5236
పడే	-5237
ినా	-5238
్రో	-5239
▁5:	-5240
గంగా	-5241
టిస్	-5242
ధారి	-5243
న్నో	-5244
ర్రా	-5245
లాది	-5246
సంస్	-5247
▁180	-5248
▁24:	-5249
▁1970	-5250
▁2008	-5251
▁2012	-5252
▁ఎల్ల	-5253
▁పాలి	-5254
▁రాము	-5255
▁రూపు	-5256
▁ఏర్పర	-5257
▁చర్చి	-5258
▁అందమైన	-5259
▁ముద్దు	-5260
▁కాలువలు	-5261
▁రాష్ట్రంగా	-5262
97	-5263
సామ	-5264
▁3.	-5265
▁6:	-5266
▁నడ	-5267
.188	-5268
గుడి	-5269
పర్వ	-5270
▁అదన	-5271
▁కోడ	-5272
▁తాత	-5273
▁తుల	-5274
▁లకు	-5275
▁వాహ	-5276
ెట్టి	-5277
▁1989	-5278
▁కాలి	-5279
▁తనను	-5280
▁పెంచ	-5281
పెట్టి	-5282
▁ద్వీప	-5283
▁రద్దు	-5284
డయ్యాడు	-5285
▁కార్పొ	-5286
▁జర్మనీ	-5287
▁తపస్సు	-5288
▁సూర్యా	-5289
రంగారావు	-5290
▁ఆదివారం	-5291
▁కళాశాలలో	-5292
▁రూపొందిన	-5293
▁స్థాయిలో	-5294
,,	-5295
um	-5296
గార	-5297
▁75	-5298
▁7:	-5299
▁||	-5300
▁కర	-5301
▁జవ	-5302
కాష్	-5303
క్సి	-5304
ర్స్	-5305
▁తార	-5306
ామంది	-5307
▁బాగు	-5308
▁వసతి	-5309
▁అడ్డు	-5310
▁జరిగి	-5311
▁తేదీన	-5312
▁వృక్ష	-5313
▁అతనిని	-5314
▁తిక్కన	-5315
▁భక్తుల	-5316
▁అధికారం	-5317
▁మాట్లాడ	-5318
▁పరిపాలనా	-5319
▁పరిషత్తు	-5320
▁పర్షియన్	-5321
▁రాజీనామా	-5322
▁బెంగుళూరు	-5323
▁వ్యక్తులు	-5324
▁ప్రాంతాలను	-5325
▁ప్రాముఖ్యత	-5326
▁సుబ్రహ్మణ్య	-5327
ూల	-5328
ory	-5329
కలా	-5330
పున	-5331
మాట	-5332
రుణ	-5333
▁ఈశ	-5334
కమైన	-5335
ంబాయి	-5336
▁(200	-5337
▁ప్లే	-5338
▁శిలా	-5339
త్రుడు	-5340
సార్లు	-5341
▁ఆదిల్	-5342
▁ఉప్పు	-5343
▁కొల్ల	-5344
▁జొన్న	-5345
▁తీర్మ	-5346
▁పాలనా	-5347
▁పెంచు	-5348
బడ్డాడు	-5349
య్యింది	-5350
▁ఈశ్వరి	-5351
▁తెలియజే	-5352
▁శ్రీరంగ	-5353
▁దండయాత్ర	-5354
▁పాలించిన	-5355
▁ప్రఖ్యాత	-5356
▁రూపాయలతో	-5357
▁తెలుగుదేశం	-5358
▁కృష్ణమూర్తి	-5359
ఖ్	-5360
నామ	-5361
లక్	-5362
ారణ	-5363
ెన్	-5364
యార్	-5365
టుంది	-5366
ించుట	-5367
▁వేమన	-5368
▁శంకు	-5369
ద్వారా	-5370
▁శంకర్	-5371
▁సహాయం	-5372
▁పంతులు	-5373
▁ప్రాచు	-5374
▁ప్రైవే	-5375
▁మైసూరు	-5376
▁పత్రికా	-5377
▁బాధ్యతలు	-5378
▁అత్యున్నత	-5379
▁పాలించారు	-5380
▁ప్రత్యేకత	-5381
▁ప్రదేశాలు	-5382
▁సీతారామరాజు	-5383
▁హైదరాబాదులో	-5384
-6	-5385
లభ	-5386
దాన	-5387
్మా	-5388
▁4.	-5389
▁8:	-5390
▁రహ	-5391
త్తర	-5392
▁27:	-5393
హదేవన్	-5394
▁ఉద్యో	-5395
▁ప్రమాణ	-5396
▁సంబంధం	-5397
▁సినారె	-5398
కున్నాయి	-5399
▁మంత్రిగా	-5400
▁మాట్లాడు	-5401
▁వాతావరణం	-5402
▁తల్లిదండ్ర	-5403
▁ప్రాంతాల్లో	-5404
15)	-5405
ers	-5406
సంఘ	-5407
ముడు	-5408
య్యం	-5409
▁2010	-5410
▁చివర	-5411
▁తారక	-5412
▁దేవు	-5413
▁బోర్	-5414
▁వాల్	-5415
▁వేసి	-5416
▁కల్యా	-5417
▁రసాయన	-5418
▁వేసవి	-5419
▁శిష్య	-5420
▁గోవింద	-5421
▁ప్రమాద	-5422
▁సమాచార	-5423
▁చికిత్స	-5424
▁వ్యవహార	-5425
▁ప్రజాదరణ	-5426
▁ప్రణాళిక	-5427
▁బ్రిటీషు	-5428
▁సిద్ధాంత	-5429
▁కంప్యూటర్	-5430
▁నిర్మాతలు	-5431
▁అత్యధికంగా	-5432
నారాయణరెడ్డి	-5433
oc	-5434
ాహ	-5435
ీర	-5436
▁l	-5437
-20	-5438
గుణ	-5439
తామ	-5440
▁4:	-5441
▁56	-5442
జార్	-5443
▁10,	-5444
▁కోర	-5445
నిర్మ	-5446
మాతరం	-5447
ర్యాల	-5448
▁2005	-5449
▁2006	-5450
▁ఇస్ల	-5451
▁కారు	-5452
▁తరగతి	-5453
ామంత్రి	-5454
▁ఆలయాలు	-5455
▁పోలీస్	-5456
▁రామాయణ	-5457
▁చేయబడిన	-5458
▁సమీపంలోని	-5459
41	-5460
లాస	-5461
విడ	-5462
వెం	-5463
ోసి	-5464
క్రి	-5465
ఘంటు	-5466
ట్రా	-5467
మండల	-5468
య్యే	-5469
రక్ష	-5470
్యుల	-5471
▁జలా	-5472
▁మల్	-5473
ులుగా	-5474
▁కురు	-5475
▁నిషే	-5476
▁పిలవ	-5477
▁ఫ్రా	-5478
▁బ్రహ	-5479
▁భావన	-5480
▁రైతు	-5481
▁శబ్ద	-5482
▁సంపద	-5483
▁సంభవ	-5484
చ్చారు	-5485
▁చెక్క	-5486
▁తదితర	-5487
▁ప్రస్త	-5488
▁మహిళలు	-5489
కొన్నాడు	-5490
పడుతుంది	-5491
రించింది	-5492
▁కృష్ణదేవ	-5493
▁స్థాపకుడు	-5494
▁ప్రారంభమయ్యాయి	-5495
ళయ	-5496
డ్ల	-5497
నను	-5498
భావ	-5499
యనం	-5500
రళీ	-5501
▁9:	-5502
▁గే	-5503
▁18:	-5504
▁30:	-5505
▁ఎడమ	-5506
▁బావ	-5507
▁వేశ	-5508
కాలలో	-5509
▁కర్మ	-5510
▁చూపు	-5511
▁శాంత	-5512
ానంతరం	-5513
▁ఉందని	-5514
▁క్రీడ	-5515
▁గుట్ట	-5516
▁నిత్య	-5517
▁మిగతా	-5518
▁సాయుధ	-5519
▁తీర్పు	-5520
▁నరేంద్ర	-5521
▁నివేదిక	-5522
▁స్థాపించాడు	-5523
డము	-5524
ధర్	-5525
పాత	-5526
▁7,	-5527
▁తను	-5528
▁పట్	-5529
▁పెడ	-5530
▁మంద	-5531
▁మతం	-5532
▁యాద	-5533
ప్రభు	-5534
బ్లిక	-5535
▁1962	-5536
▁ఇతడు	-5537
▁చైతన	-5538
▁తరలి	-5539
▁బ్యా	-5540
▁వందల	-5541
▁హేతు	-5542
దేవుడు	-5543
▁సేవలు	-5544
పడ్డారు	-5545
▁గూగుల్	-5546
▁ప్రసాద	-5547
▁ఫిల్మ్	-5548
▁చేసుకోవ	-5549
▁బెంగాల్	-5550
▁ముందుగా	-5551
▁విష్ణువు	-5552
▁శ్రీశైలం	-5553
▁చిత్రకారుడు	-5554
▁డిస్పెన్సరీలో	-5555
36	-5556
82	-5557
ూహ	-5558
▁37	-5559
▁భయ	-5560
తేదీ	-5561
పోయే	-5562
భాగం	-5563
▁గుణ	-5564
▁తజి	-5565
గోళిక	-5566
▁నార్	-5567
▁స్పె	-5568
నాయుడు	-5569
ప్పుడూ	-5570
▁చేరిన	-5571
▁ఇక్కడే	-5572
▁దుకాణం	-5573
▁యోధుడు	-5574
▁రాశాడు	-5575
ాలయాన్ని	-5576
▁సీనియర్	-5577
▁ఒకప్పుడు	-5578
▁గురించిన	-5579
▁ప్రారంభం	-5580
వ్యాప్తంగా	-5581
ov	-5582
ug	-5583
జల	-5584
ఫు	-5585
ish	-5586
వేయ	-5587
▁(18	-5588
▁17:	-5589
▁క్ల	-5590
▁గౌత	-5591
▁సెం	-5592
కుంటే	-5593
త్తుల	-5594
పూజలు	-5595
▁కావు	-5596
▁గానీ	-5597
▁పాడు	-5598
▁వెళు	-5599
▁ఎక్కడ	-5600
▁కవితా	-5601
▁కావ్య	-5602
▁మసీదు	-5603
తుంటారు	-5604
▁జగన్నా	-5605
▁తెలుపు	-5606
▁పరిశీల	-5607
▁ముస్లి	-5608
▁కలకత్తా	-5609
▁గాయకులు	-5610
▁ప్రచారం	-5611
▁ఫ్రెంచి	-5612
▁భౌగోళిక	-5613
▁మహాభారత	-5614
▁ఇక్కడికి	-5615
▁వైద్యుడు	-5616
▁ప్రవేశపెట్ట	-5617
▁ఎన్నికయ్యాడు	-5618
▁సుప్రీంకోర్టు	-5619
ir	-5620
డర్	-5621
యైన	-5622
▁లూ	-5623
డులో	-5624
వుగా	-5625
▁ఖండ	-5626
▁లిన	-5627
▁దాటి	-5628
▁ద్రా	-5629
▁బహుళ	-5630
▁బాపు	-5631
▁రత్న	-5632
▁వుండ	-5633
▁సంపు	-5634
చెరువు	-5635
పోయారు	-5636
▁అచ్యు	-5637
▁అర్ధం	-5638
▁ఎదురు	-5639
▁కుమార	-5640
▁నిల్వ	-5641
▁బాలిక	-5642
▁శుద్ధ	-5643
పడ్డాయి	-5644
వెన్నెల	-5645
▁బాధ్యత	-5646
▁బిల్లు	-5647
▁మామిడి	-5648
ేశ్వరుడు	-5649
▁సరస్వతి	-5650
▁బ్రిటీష్	-5651
▁ప్రత్యక్ష	-5652
▁వందేమాతరం	-5653
▁నాయకత్వంలో	-5654
▁నేపథ్యగానం	-5655
▁నరసింహారావు	-5656
ేశ్వరస్వామివారి	-5657
55	-5658
దూర	-5659
మను	-5660
రిత	-5661
▁హౌ	-5662
తుని	-5663
ధారణ	-5664
నిని	-5665
బార్	-5666
హారం	-5667
▁14:	-5668
▁మిన	-5669
క్కిన	-5670
▁అహ్మ	-5671
▁లిమి	-5672
▁వుంట	-5673
▁సమయం	-5674
▁స్వర	-5675
హమ్మద్	-5676
▁చెందు	-5677
▁జపాన్	-5678
▁వదిలి	-5679
▁వేసిన	-5680
▁ఆకర్షణ	-5681
▁జిక్కి	-5682
▁దీనిలో	-5683
▁భాగంలో	-5684
▁జమీందారు	-5685
89	-5686
ఫర్	-5687
▁అగ	-5688
య్యి	-5689
వేరు	-5690
▁పేట	-5691
▁వలె	-5692
చ్చని	-5693
జ్ఞాన	-5694
నులకు	-5695
▁ఆదేశ	-5696
▁కనుమ	-5697
▁ప్రశ	-5698
▁యజ్ఞ	-5699
ఫ్రికా	-5700
▁అన్నీ	-5701
▁ఇటీవల	-5702
▁కొనసా	-5703
▁చౌదరి	-5704
▁పట్టి	-5705
▁విశాల	-5706
▁హనుమం	-5707
▁ఆసక్తి	-5708
▁కవిత్వ	-5709
▁ప్రతాప	-5710
▁ప్రతిభ	-5711
▁అమరావతి	-5712
▁అల్లూరి	-5713
▁ప్రత్తి	-5714
▁ప్రైవేట్	-5715
▁లిమిటెడ్	-5716
ించబడ్డాయి	-5717
▁చేపట్టాడు	-5718
▁విస్తీర్ణ	-5719
▁గ్రామాన్ని	-5720
▁సాహితీవేత్త	-5721
▁చేసుకున్నాడు	-5722
▁నిర్వహిస్తుంది	-5723
94	-5724
ంబా	-5725
యుగ	-5726
లేష	-5727
సమా	-5728
నంగా	-5729
రాలి	-5730
విగా	-5731
ారోగ	-5732
▁13:	-5733
▁20:	-5734
▁ఆయా	-5735
▁త్వ	-5736
▁నంబ	-5737
▁రాగ	-5738
ంలోను	-5739
ఆంధ్ర	-5740
కరమైన	-5741
▁క్యా	-5742
▁గ్రీ	-5743
▁నాకు	-5744
▁బృంద	-5745
బ్రహీం	-5746
▁నన్నయ	-5747
▁నాటకం	-5748
▁పొంది	-5749
కాపల్లి	-5750
శ్చాత్య	-5751
▁ఇలాంటి	-5752
▁ఈశాన్య	-5753
▁ఎగుమతి	-5754
▁సాఫ్ట్	-5755
▁సృష్టి	-5756
▁బెంగాలీ	-5757
▁బ్రహ్మా	-5758
▁జిల్లాను	-5759
▁ప్రస్తావన	-5760
▁విమర్శకుడు	-5761
▁శంకుస్థాపన	-5762
32	-5763
▁O	-5764
గలు	-5765
జాత	-5766
నాట	-5767
మట్ట	-5768
ుడైన	-5769
▁పొల	-5770
▁1952	-5771
▁ఆలోచ	-5772
ద్దులు	-5773
▁శత్రు	-5774
▁నిలిచి	-5775
▁పరిషత్	-5776
▁ప్రక్క	-5777
▁నూతనంగా	-5778
▁అప్పట్లో	-5779
▁అప్పారావు	-5780
-0	-5781
లొ	-5782
కరా	-5783
కొక	-5784
రణ్	-5785
వళి	-5786
ియా	-5787
ోగి	-5788
▁5,	-5789
▁నమ	-5790
తిరు	-5791
▁16:	-5792
▁28:	-5793
▁అండ	-5794
▁దాత	-5795
▁వెన	-5796
కాంత్	-5797
ాల్సి	-5798
▁1982	-5799
▁అభిన	-5800
▁ఆహ్వ	-5801
▁ఖగోళ	-5802
▁బంధు	-5803
▁బాబా	-5804
క్ష్మి	-5805
పాన్ని	-5806
▁ఆనంద్	-5807
▁కన్నా	-5808
▁ముంబై	-5809
▁వెల్ల	-5810
▁వేదిక	-5811
కున్నది	-5812
స్తానని	-5813
▁తెచ్చు	-5814
▁మూవీస్	-5815
▁వాళ్ళు	-5816
▁వెళ్లి	-5817
▁శివుని	-5818
▁తమ్ముడు	-5819
▁దూరములో	-5820
▁పద్యాలు	-5821
▁భానుమతి	-5822
▁మెడికల్	-5823
▁సముద్రం	-5824
▁వ్యాసాలు	-5825
▁రైల్వేస్ట	-5826
▁సంవత్సరానికి	-5827
-2	-5828
ian	-5829
విక	-5830
సంగ	-5831
స్ప	-5832
▁ఓడ	-5833
▁దయ	-5834
రాయి	-5835
విజయ	-5836
సాలు	-5837
సిటీ	-5838
▁11:	-5839
▁ఎది	-5840
▁ఏదో	-5841
▁లండ	-5842
డింది	-5843
ప్రియ	-5844
వస్తు	-5845
ెస్టు	-5846
▁కొడు	-5847
▁వారస	-5848
▁శ్రే	-5849
▁సభలో	-5850
▁ఆదాయం	-5851
▁సంఘటన	-5852
చేసింది	-5853
▁ఒకటిగా	-5854
▁చేరాడు	-5855
▁దారితీ	-5856
▁నగరానికి	-5857
▁జిల్లాలలో	-5858
▁నిర్మించి	-5859
▁పాశ్చాత్య	-5860
ించబడుతుంది	-5861
▁పురస్కారాలు	-5862
".	-5863
ap	-5864
ఢ్	-5865
షేక	-5866
టిల్	-5867
ట్టే	-5868
▁ధాన	-5869
▁పరా	-5870
▁పేద	-5871
ంగ్లా	-5872
ంలోనే	-5873
పరంగా	-5874
▁1985	-5875
▁కులీ	-5876
▁కోడి	-5877
▁నికో	-5878
ద్దీన్	-5879
పారుదల	-5880
విన్యూ	-5881
ించెను	-5882
▁ఇన్స్	-5883
▁ఇల్లు	-5884
▁ఉన్నా	-5885
▁పద్మా	-5886
▁పిలిచ	-5887
▁వచ్చు	-5888
దేశాలలో	-5889
ేశ్వరాల	-5890
మవుతుంది	-5891
▁గుజరాత్	-5892
▁ప్రభావి	-5893
▁ప్రహ్లా	-5894
పిస్తుంది	-5895
▁తీసుకొని	-5896
▁నిర్వహిస్తారు	-5897
గృ	-5898
రప	-5899
హే	-5900
▁n	-5901
org	-5902
నిక	-5903
గంటి	-5904
లియం	-5905
ులైన	-5906
▁మన్	-5907
పురుష	-5908
లింపి	-5909
సిల్ల	-5910
▁గణేశ	-5911
▁వర్త	-5912
▁సామం	-5913
▁సూచి	-5914
▁India	-5915
▁కట్టు	-5916
▁గిరిజ	-5917
▁చూసిన	-5918
▁నెలలో	-5919
▁వుండే	-5920
▁సైన్య	-5921
ించాడని	-5922
▁ఉత్తర్	-5923
▁కీర్తి	-5924
▁క్రితం	-5925
▁పోరాటం	-5926
▁పోర్చు	-5927
▁బొంబాయి	-5928
▁లభించిన	-5929
స్తుంటాడు	-5930
▁ఉష్ణోగ్ర	-5931
▁మరణించిన	-5932
▁రెవిన్యూ	-5933
▁మంత్రివర్	-5934
▁సంగారెడ్డి	-5935
▁పుణ్యక్షేత్ర	-5936
56	-5937
98	-5938
ig	-5939
అన	-5940
ter	-5941
ందర	-5942
▁6,	-5943
▁అణ	-5944
▁రౌ	-5945
గాను	-5946
ష్టం	-5947
▁19:	-5948
▁21:	-5949
▁అంశ	-5950
▁ఇతి	-5951
▁చెం	-5952
▁టర్	-5953
▁నిర	-5954
▁కేసు	-5955
▁దత్త	-5956
▁మును	-5957
▁హుస్	-5958
వంతుడు	-5959
▁ఆస్తి	-5960
▁కలుగు	-5961
▁దుర్గ	-5962
గూడెంలో	-5963
▁ఇద్దరూ	-5964
▁జైపూర్	-5965
▁నమ్మకం	-5966
▁ఆధారాలు	-5967
▁వెళ్ళిన	-5968
వలె	-5969
▁పత	-5970
గుడు	-5971
యందు	-5972
వుడ్	-5973
▁500	-5974
▁పరు	-5975
యింట్	-5976
ీయులు	-5977
▁1969	-5978
▁1999	-5979
▁అబ్బ	-5980
▁ఆరోప	-5981
▁కర్త	-5982
▁గోపీ	-5983
▁కాలనీ	-5984
▁జ్ఞాప	-5985
▁తీసిన	-5986
▁పసుపు	-5987
▁ప్రయో	-5988
▁ఒలింపి	-5989
▁దేవుడు	-5990
▁పదార్థ	-5991
▁సెంటర్	-5992
▁ఇచ్చారు	-5993
▁ఉద్యోగం	-5994
▁గవర్నరు	-5995
▁కృష్ణుడు	-5996
▁తొమ్మిది	-5997
▁ప్రస్తావ	-5998
శ్రీనివాస్	-5999
▁ప్రాధాన్యత	-6000
▁రాజ్యాన్ని	-6001
II	-6002
ఫా	-6003
యె	-6004
ాక	-6005
▁*	-6006
చల్	-6007
డ్జ	-6008
తాళ	-6009
పీఠ	-6010
ోజు	-6011
▁by	-6012
▁ఊహ	-6013
▁దౌ	-6014
దగిన	-6015
మూరు	-6016
స్తీ	-6017
ాంశం	-6018
▁అభయ	-6019
మర్రి	-6020
లేకపో	-6021
ళ్ళను	-6022
సంస్థ	-6023
ామిక్	-6024
▁1988	-6025
▁ఏకైక	-6026
▁జనతా	-6027
▁రావణ	-6028
▁లలిత	-6029
▁వేసు	-6030
▁స్వే	-6031
విష్ణు	-6032
▁2016,	-6033
▁అనుకూ	-6034
▁అవతార	-6035
▁ఆలోచన	-6036
▁నరసిం	-6037
రావుపేట	-6038
▁కూరగాయ	-6039
▁దశాబ్ద	-6040
▁బంగ్లా	-6041
▁వీరిలో	-6042
▁వృద్ధి	-6043
▁ఇబ్రహీం	-6044
▁తెలిసిన	-6045
▁సమాచారం	-6046
▁పాల్గొని	-6047
▁మార్పులు	-6048
▁సాయంత్రం	-6049
▁అన్నపూర్ణ	-6050
బడుతున్నాయి	-6051
▁అమ్మవారికి	-6052
38	-6053
థా	-6054
మర్	-6055
▁హం	-6056
రేట్	-6057
▁ఆగ్	-6058
దక్షి	-6059
ళ్ళకు	-6060
సింగ్	-6061
▁థియే	-6062
▁ముగు	-6063
▁మెట్	-6064
▁రాజీ	-6065
▁వసంత	-6066
▁సరోజ	-6067
గుణంగా	-6068
ధికారి	-6069
▁కొమ్మ	-6070
▁ఖర్చు	-6071
▁పూర్త	-6072
▁రకాలు	-6073
▁విప్ల	-6074
▁వేముల	-6075
▁సమితి	-6076
▁సాక్ష	-6077
▁గీతాలు	-6078
▁ప్రవహి	-6079
▁మిల్లు	-6080
▁రైతులు	-6081
▁త్రిపుర	-6082
▁ప్రతిని	-6083
▁అప్పటికే	-6084
▁భారతరత్న	-6085
▁సాయిబాబా	-6086
▁విగ్రహాలు	-6087
▁కామారెడ్డి	-6088
▁ప్రాంతాలకు	-6089
▁విద్యుత్తు	-6090
▁సిరివెన్నెల	-6091
▁పాత్రికేయుడు	-6092
52	-6093
os	-6094
గె	-6095
వణ	-6096
గామ	-6097
జాల	-6098
ందరూ	-6099
దైనా	-6100
నిర్	-6101
మందు	-6102
▁ఇరు	-6103
▁ఒకర	-6104
▁చలం	-6105
▁రేఖ	-6106
▁హిమ	-6107
పూర్వ	-6108
▁ఆపరే	-6109
▁చెప్	-6110
▁జర్న	-6111
▁దశలో	-6112
▁దేవర	-6113
▁నెట్	-6114
▁ప్లా	-6115
▁వజ్ర	-6116
▁సమ్మ	-6117
క్కులు	-6118
▁ఉద్భవ	-6119
▁యాత్ర	-6120
▁కాలేజి	-6121
▁నేపాల్	-6122
▁పాడారు	-6123
▁ప్రభావ	-6124
▁మందికి	-6125
▁యాత్రి	-6126
▁అవసరమైన	-6127
▁ముందుకు	-6128
▁వచ్చారు	-6129
▁జీవితంలో	-6130
▁సుల్తాను	-6131
▁నియోజకవర్గ	-6132
▁రెండుప్రైవేటు	-6133
37	-6134
59	-6135
68	-6136
జిక	-6137
రోధ	-6138
▁తూ	-6139
వర్ణ	-6140
సిని	-6141
▁29:	-6142
▁కనీ	-6143
▁బస్	-6144
▁వంగ	-6145
▁సకల	-6146
పుత్ర	-6147
ారిటీ	-6148
▁1930	-6149
▁1977	-6150
▁2007	-6151
▁ఆయుధ	-6152
▁నేతృ	-6153
బ్బిలి	-6154
▁ఇచ్చే	-6155
▁కరువు	-6156
▁కర్మా	-6157
▁కీర్త	-6158
▁తీర్థ	-6159
▁పలువు	-6160
▁పుష్ప	-6161
▁ముక్క	-6162
▁మేరకు	-6163
▁వెళ్ల	-6164
▁సంక్ర	-6165
▁తీర్చు	-6166
▁పంజాబు	-6167
▁వికారా	-6168
▁గుడివాడ	-6169
▁సరస్వతీ	-6170
▁శాస్త్రం	-6171
▁పనిచేశారు	-6172
▁సాహిత్యంలో	-6173
▁నిర్మించబడిన	-6174
▁పురస్కారాన్ని	-6175
.1	-6176
FS	-6177
ణే	-6178
14)	-6179
ary	-6180
www	-6181
ంట్	-6182
▁మద	-6183
కూడా	-6184
డియం	-6185
ల్చి	-6186
▁...	-6187
▁కంబ	-6188
▁దైవ	-6189
▁బలి	-6190
▁వంత	-6191
పించి	-6192
ించటం	-6193
▁1978	-6194
▁దేవా	-6195
▁పడ్డ	-6196
▁మాల్	-6197
▁అవకాశ	-6198
▁భాగవత	-6199
▁మర్రి	-6200
▁వైష్ణ	-6201
▁నిఘంటు	-6202
▁ప్రబంధ	-6203
▁భీమవరం	-6204
▁సదాశివ	-6205
▁స్వచ్ఛ	-6206
▁చేయాలని	-6207
▁ప్రయాణం	-6208
▁అయ్యింది	-6209
▁కొంతమంది	-6210
▁చెప్పారు	-6211
▁చేపట్టిన	-6212
▁అభిప్రాయం	-6213
▁ఆర్థికవేత్త	-6214
▁విగ్రహాన్ని	-6215
12)	-6216
▁42	-6217
▁ఓం	-6218
కుడి	-6219
దిలో	-6220
దుడు	-6221
దుర్	-6222
▁ఇటు	-6223
▁చదర	-6224
▁1979	-6225
▁1983	-6226
▁జలాశ	-6227
▁తోలు	-6228
▁వేరే	-6229
ేశ్వరం	-6230
▁2017,	-6231
▁అత్తి	-6232
▁జయంతి	-6233
▁పత్తి	-6234
▁ముందే	-6235
▁మోక్ష	-6236
▁విజయ్	-6237
▁దక్కన్	-6238
▁రాశారు	-6239
▁వాస్తవ	-6240
▁వీరికి	-6241
రామచంద్ర	-6242
▁ఎటువంటి	-6243
▁ఎన్నికల	-6244
▁తీసుకువ	-6245
▁నక్షత్ర	-6246
▁పోర్చుగ	-6247
▁చాలామంది	-6248
▁దేశంలోని	-6249
▁స్థాపించిన	-6250
▁అధ్యక్షుడిగా	-6251
''	-6252
67	-6253
bl	-6254
రమణ	-6255
లోక	-6256
ోల్	-6257
▁ఫా	-6258
ఖండ్	-6259
చూరి	-6260
మల్ల	-6261
రేబి	-6262
లోపు	-6263
వాహక	-6264
▁అంట	-6265
▁తంజ	-6266
▁భగవ	-6267
▁రాచ	-6268
▁వామ	-6269
▁సెక	-6270
కుడైన	-6271
▁1960	-6272
▁అటవీ	-6273
▁కథను	-6274
▁తవ్వ	-6275
▁పేరి	-6276
▁సలహా	-6277
ేశ్వర్	-6278
▁కింగ్	-6279
▁దీక్ష	-6280
▁మిత్ర	-6281
ింపబడిన	-6282
▁చెప్పే	-6283
▁వరుసగా	-6284
▁స్క్రీ	-6285
▁స్థితి	-6286
▁ప్రజలను	-6287
▁రాజ్యసభ	-6288
▁వెంకయ్య	-6289
▁వ్యవహరి	-6290
▁స్వేచ్ఛ	-6291
▁ఇరానియన్	-6292
▁పేరొందిన	-6293
):	-6294
34	-6295
58	-6296
హీన	-6297
▁టే	-6298
క్రో	-6299
మిని	-6300
యాలు	-6301
స్యం	-6302
హారు	-6303
▁గాన	-6304
▁బండ	-6305
▁మంజ	-6306
▁మేఘ	-6307
నటుడు	-6308
మ్మని	-6309
వతేదీ	-6310
ాల్ని	-6311
ెస్ట్	-6312
▁ఆధిప	-6313
▁ఉచిత	-6314
▁తయార	-6315
▁ధ్రు	-6316
▁భవనం	-6317
▁భాషల	-6318
▁వర్మ	-6319
▁శారద	-6320
▁స్టా	-6321
▁హనుమ	-6322
ల్లోనూ	-6323
▁నదికి	-6324
▁నవాబు	-6325
▁పంటలు	-6326
▁పన్ను	-6327
▁సిద్ద	-6328
▁అధ్యాప	-6329
▁ఎత్తైన	-6330
▁ఓడించి	-6331
▁ప్రెస్	-6332
▁విడిచి	-6333
▁వెళ్ళు	-6334
▁శాతవాహ	-6335
▁రచయితలు	-6336
▁రామాయణం	-6337
▁క్రైస్తవ	-6338
▁చిత్రీకర	-6339
▁పార్టీకి	-6340
▁పునరుద్ధ	-6341
▁ప్రయత్నం	-6342
▁మొదలైంది	-6343
▁చంద్రబాబు	-6344
▁సూర్యాపేట	-6345
▁ఆసుపత్రిలో	-6346
▁పరిశోధకులు	-6347
▁కనిపిస్తాయి	-6348
▁కార్పొరేషన్	-6349
92	-6350
టూ	-6351
10)	-6352
11)	-6353
17)	-6354
▁రస	-6355
▁లొ	-6356
ందరో	-6357
గాంధ	-6358
నాటక	-6359
రాని	-6360
రిని	-6361
▁కంట	-6362
▁సాహ	-6363
పింది	-6364
బర్ట్	-6365
▁1998	-6366
▁ఉత్ప	-6367
▁కవిత	-6368
▁తదిత	-6369
▁నౌకా	-6370
▁పింగ	-6371
▁పొడి	-6372
▁ఫోర్	-6373
▁యూరో	-6374
▁రామ్	-6375
కొల్లు	-6376
సాహెబ్	-6377
ాల్సిన	-6378
▁ఆనాటి	-6379
▁ఎయిర్	-6380
▁కలెక్ట	-6381
▁దృష్టి	-6382
▁నృత్యం	-6383
▁ప్రొఫె	-6384
▁సరస్సు	-6385
▁ఇచ్చింది	-6386
▁చేసుకున్న	-6387
▁డైరెక్టర్	-6388
▁సుప్రసిద్ధ	-6389
im	-6390
ంగం	-6391
దాం	-6392
ుంప	-6393
▁షో	-6394
తోనే	-6395
▁అలె	-6396
▁కమల	-6397
▁మంట	-6398
పక్కల	-6399
ర్ణమి	-6400
స్కర్	-6401
ిల్లా	-6402
్యంగా	-6403
▁1995	-6404
▁గెలి	-6405
▁చండీ	-6406
▁నేటి	-6407
▁భాగవ	-6408
▁మహాన	-6409
▁అలంకర	-6410
▁గతంలో	-6411
▁చెంది	-6412
▁దర్శన	-6413
▁మెంట్	-6414
▁చిక్కు	-6415
▁మున్సి	-6416
▁సిద్ధి	-6417
▁సురేష్	-6418
▁స్టేట్	-6419
▁కావలసిన	-6420
▁పోటీలలో	-6421
▁ప్రజలలో	-6422
▁ఉండేవారు	-6423
▁వుంటుంది	-6424
▁సినిమాలలో	-6425
▁సీతారామశాస్త్రి	-6426
ోద	-6427
నవి	-6428
ెడ్	-6429
డ్డం	-6430
దార్	-6431
▁11,	-6432
▁300	-6433
▁మదన	-6434
▁లోప	-6435
కల్లు	-6436
రాలను	-6437
▁1000	-6438
▁1948	-6439
▁1997	-6440
▁ఆరాధ	-6441
▁ఒకడు	-6442
▁చూసు	-6443
▁తరచు	-6444
▁బాని	-6445
▁యుగం	-6446
▁సంతర	-6447
▁సైటు	-6448
చేశారు	-6449
డెన్సీ	-6450
ించమని	-6451
▁పరంగా	-6452
▁భాషను	-6453
▁రాజమహ	-6454
▁లండన్	-6455
ిరెడ్డి	-6456
▁గంటలకు	-6457
▁పేజీలు	-6458
▁బెల్లం	-6459
▁మాస్టర్	-6460
▁సహాయంతో	-6461
▁ఉన్నట్లు	-6462
▁ఎన్టీఆర్	-6463
▁బొబ్బిలి	-6464
▁హైకోర్టు	-6465
▁విషయాన్ని	-6466
బ్లికేషన్స్	-6467
▁జీవితాన్ని	-6468
▁శాఖామంత్రి	-6469
▁ఇంటర్నేషనల్	-6470
▁ముగుస్తుంది	-6471
▁విద్యావేత్త	-6472
▁సూర్యనారాయణ	-6473
ew	-6474
నటి	-6475
నలో	-6476
ాగి	-6477
ికొ	-6478
▁Pr	-6479
కన్న	-6480
గ్జా	-6481
న్సు	-6482
రంగం	-6483
▁120	-6484
▁202	-6485
▁అటు	-6486
▁ఆలీ	-6487
▁ధ్య	-6488
▁పాయ	-6489
▁పోయ	-6490
▁భేద	-6491
▁సాల	-6492
దుర్గ	-6493
▁1987	-6494
▁1994	-6495
▁ఎవరు	-6496
▁పిన్	-6497
▁హృదయ	-6498
దేవుని	-6499
మిల్లి	-6500
▁అరేబి	-6501
▁ఊరికి	-6502
▁కన్ను	-6503
▁చదరపు	-6504
▁తెరాస	-6505
▁నాట్య	-6506
▁సమాజం	-6507
మహదేవన్	-6508
▁రామయ్య	-6509
స్తుందని	-6510
▁కళ్యాణం	-6511
▁కొనసాగు	-6512
▁సంస్థానం	-6513
▁గ్రామములో	-6514
▁పంచాయతీకి	-6515
▁పనిచేసాడు	-6516
▁హిందువులు	-6517
▁మచిలీపట్నం	-6518
▁విద్వాంసుడు	-6519
▁స్వామివారికి	-6520
--	-6521
av	-6522
ఎఫ్	-6523
తని	-6524
లేఖ	-6525
▁In	-6526
▁కవ	-6527
▁రం	-6528
కాంత	-6529
కొను	-6530
పండు	-6531
బాలు	-6532
మాను	-6533
వద్ద	-6534
సత్య	-6535
▁తత్	-6536
▁దామ	-6537
▁రకర	-6538
శ్లేష	-6539
శ్వరి	-6540
▁అర్చ	-6541
▁క్రొ	-6542
▁పేర్	-6543
▁పోతన	-6544
▁సంజీ	-6545
▁సవరణ	-6546
దేశంలో	-6547
శెట్టి	-6548
▁అప్పగ	-6549
▁క్రియ	-6550
▁జవహర్	-6551
▁దిగువ	-6552
▁బుర్ర	-6553
▁మల్లె	-6554
▁గ్రంథం	-6555
▁చేస్తే	-6556
▁పురాణం	-6557
▁మల్లిక	-6558
▁రుద్రమ	-6559
▁కాలములో	-6560
▁దగ్గరలో	-6561
ింపబడింది	-6562
▁ఆకాశవాణి	-6563
▁గ్రంథాలయ	-6564
▁చిత్రంగా	-6565
▁ఛాయాగ్రహ	-6566
▁జగిత్యాల	-6567
▁నెలకొల్ప	-6568
▁భద్రాచలం	-6569
▁మార్చారు	-6570
▁రాజ్యాలు	-6571
▁వర్షపాతం	-6572
78	-6573
91	-6574
భై	-6575
▁e	-6576
ess	-6577
మిన	-6578
ెలు	-6579
▁44	-6580
▁48	-6581
కాని	-6582
కుండ	-6583
చింత	-6584
టిన్	-6585
ణంలో	-6586
పూరు	-6587
సాని	-6588
▁ఇళయ	-6589
▁తిం	-6590
వలెను	-6591
▁1922	-6592
▁2003	-6593
▁ఆఫ్ఘ	-6594
▁కల్వ	-6595
▁నేడు	-6596
జ్ఞుడు	-6597
తుల్లో	-6598
స్తాను	-6599
ించబడి	-6600
▁తంజావ	-6601
▁పదాలు	-6602
▁పితామ	-6603
▁లెక్క	-6604
▁వాడుక	-6605
▁వేత్త	-6606
▁ఉపగ్రహ	-6607
▁చూస్తే	-6608
▁తీసుకో	-6609
▁ఫాల్కే	-6610
▁సదుపాయ	-6611
గ్రామంలో	-6612
▁ప్రకాష్	-6613
▁రూపాయలు	-6614
▁క్రీస్తు	-6615
▁చెందినది	-6616
▁సహకారంతో	-6617
▁హేతువాది	-6618
▁ట్రాక్టరు	-6619
▁ప్రభుత్వానికి	-6620
▁లక్ష్మీనరసింహ	-6621
ow	-6622
పరచ	-6623
భరణ	-6624
భవం	-6625
మూల	-6626
రాహ	-6627
లకల	-6628
▁34	-6629
▁ఫై	-6630
▁శీ	-6631
కరణం	-6632
ట్లే	-6633
నుని	-6634
▁కోన	-6635
గాంధీ	-6636
వడంతో	-6637
విజన్	-6638
▁అలవా	-6639
▁ఇల్ల	-6640
▁గూడా	-6641
▁పూజా	-6642
▁ఫార్	-6643
▁బడ్జ	-6644
▁రుక్	-6645
▁వాసు	-6646
▁సాంబ	-6647
ించినా	-6648
▁ఒక్కో	-6649
▁భారతి	-6650
▁లేదని	-6651
▁ఆర్ధిక	-6652
▁ఏర్పాట	-6653
▁కొండవీ	-6654
▁దొరికి	-6655
▁పింగళి	-6656
▁భూమిని	-6657
▁విస్తృ	-6658
▁సభ్యుల	-6659
▁అలెగ్జా	-6660
▁తమిళంలో	-6661
ించుకున్న	-6662
▁ఉదాహరణకు	-6663
▁కాలానికి	-6664
▁కొంతకాలం	-6665
▁నియంత్రణ	-6666
▁అనకాపల్లి	-6667
▁వేణుగోపాల	-6668
▁కలుస్తుంది	-6669
▁రాజమహేంద్ర	-6670
▁ప్రాంతంలోని	-6671
.(	-6672
th	-6673
20)	-6674
ind	-6675
గ్వ	-6676
నేత	-6677
మగు	-6678
▁భై	-6679
▁సద	-6680
డిపి	-6681
బ్బు	-6682
మైనా	-6683
స్సా	-6684
▁26:	-6685
▁చైన	-6686
▁దళి	-6687
▁బృహ	-6688
▁యతి	-6689
▁వాద	-6690
ముందు	-6691
సీఆర్	-6692
▁2021	-6693
▁నెలల	-6694
▁మాయా	-6695
▁సరైన	-6696
▁అసోసి	-6697
▁ఉండడం	-6698
▁నిద్ర	-6699
పల్లెలో	-6700
▁ఏనుగుల	-6701
▁తీర్చి	-6702
▁మునిసి	-6703
▁ఇళయరాజా	-6704
▁కాకతీయుల	-6705
▁కార్యకలా	-6706
▁తుంగభద్ర	-6707
▁స్క్రీన్	-6708
▁కృష్ణానది	-6709
▁డివిజన్లు	-6710
▁పిలిచేవారు	-6711
▁కిలోమీటర్లు	-6712
▁ప్రెసిడెన్సీ	-6713
▁సుందరరామమూర్తి	-6714
లజ	-6715
ive	-6716
web	-6717
గాక	-6718
జనం	-6719
లని	-6720
▁:-	-6721
▁ఇట	-6722
జులు	-6723
ెండి	-6724
▁12,	-6725
▁కాన	-6726
▁కేట	-6727
▁మరు	-6728
ంద్రా	-6729
ంరాజు	-6730
దిద్ద	-6731
రత్నం	-6732
▁1971	-6733
▁2015	-6734
▁ప్యా	-6735
▁విను	-6736
▁స్థా	-6737
istory	-6738
పాలిటీ	-6739
పోతాడు	-6740
వాళ్ళు	-6741
▁ఎత్తి	-6742
▁తుమ్మ	-6743
▁నాగర్	-6744
▁నిండి	-6745
▁పుల్ల	-6746
▁మైదాన	-6747
▁మోడల్	-6748
▁సంతోష	-6749
▁సమాధి	-6750
లక్ష్మీ	-6751
▁అక్కడే	-6752
▁చిట్టి	-6753
▁చైనాలో	-6754
▁పర్యాట	-6755
▁రాజీవ్	-6756
క్షేత్రం	-6757
▁ఎత్తులో	-6758
▁కవిత్వం	-6759
▁క్రీడలు	-6760
▁సెయింట్	-6761
ించుకుంది	-6762
▁ఒలింపిక్	-6763
▁కనిపించే	-6764
▁తదితరులు	-6765
▁వైఎస్ఆర్	-6766
▁సముద్రతీ	-6767
▁హుస్సేన్	-6768
▁రాఘవేంద్ర	-6769
▁హెక్టారులు	-6770
▁చుట్టుపక్కల	-6771
57	-6772
▁h	-6773
కని	-6774
ిని	-6775
ేశ్	-6776
▁(1	-6777
▁ఫె	-6778
ంటర్	-6779
మీకి	-6780
రోపా	-6781
లంగి	-6782
ెంటు	-6783
▁ఇను	-6784
▁ఎడి	-6785
▁ఏటా	-6786
▁వహి	-6787
▁శేఖ	-6788
ములకు	-6789
▁1964	-6790
▁ఉంచు	-6791
▁కప్ప	-6792
▁కూచి	-6793
▁కొను	-6794
▁చోటు	-6795
▁దాకా	-6796
▁బెల్	-6797
ించును	-6798
▁ఏడుగు	-6799
▁కోటను	-6800
▁నిరూప	-6801
▁శిథిల	-6802
నాయకుడు	-6803
ప్రస్తు	-6804
ూరులోనూ	-6805
▁ఉపన్యా	-6806
▁ఉపాధ్య	-6807
▁ప్రకాశ	-6808
▁ప్రసార	-6809
▁భూభాగం	-6810
▁మండలాల	-6811
▁అడుగులు	-6812
▁అన్నారు	-6813
▁చేరింది	-6814
▁జనసంఖ్య	-6815
▁పేర్కొన	-6816
▁పౌర్ణమి	-6817
▁ప్రాంగణ	-6818
▁బొమ్మలు	-6819
▁విస్తార	-6820
▁వ్యయంతో	-6821
▁శ్రీమతి	-6822
▁తక్కువగా	-6823
▁పట్టణాలు	-6824
▁సమయానికి	-6825
▁ఐక్యరాజ్య	-6826
▁సంక్రాంతి	-6827
▁ప్రకటించారు	-6828
▁ప్రత్యేకపూజలు	-6829
53	-6830
కత	-6831
13)	-6832
age	-6833
పరీ	-6834
సుధ	-6835
▁..	-6836
▁అహ	-6837
▁తై	-6838
ధ్యం	-6839
భావం	-6840
మధ్య	-6841
హుడు	-6842
ాయలు	-6843
ారాం	-6844
▁అన్	-6845
▁ఆడు	-6846
▁కొడ	-6847
▁బుధ	-6848
▁వేళ	-6849
కింగ్	-6850
▁1981	-6851
▁అత్త	-6852
▁గార్	-6853
▁తాము	-6854
▁నిలు	-6855
▁ఫిలి	-6856
▁ఫుట్	-6857
▁రాయి	-6858
▁సౌంద	-6859
క్షుడు	-6860
ప్రసాద	-6861
▁అందజే	-6862
▁కావడం	-6863
▁కొబ్బ	-6864
▁బలహీన	-6865
▁మున్న	-6866
▁శోభన్	-6867
▁పార్కు	-6868
▁పెళ్లి	-6869
▁వెలసిన	-6870
▁సమాఖ్య	-6871
▁స్పష్ట	-6872
▁ఇచ్చాడు	-6873
▁ఎదురుగా	-6874
▁నేతృత్వ	-6875
▁మహమ్మద్	-6876
▁కాశ్మీరు	-6877
▁చక్రపాణి	-6878
▁శ్రీదేవి	-6879
▁దేవాలయాలు	-6880
▁చెప్పవచ్చు	-6881
▁ప్రధానమంత్రిగా	-6882
-7	-6883
టై	-6884
తొ	-6885
దళ	-6886
దై	-6887
ప్ల	-6888
లియ	-6889
▁to	-6890
arch	-6891
▁ఏకా	-6892
▁యస్	-6893
▁లీల	-6894
క్కిం	-6895
సుబ్బ	-6896
▁1975	-6897
▁ఉగ్ర	-6898
▁కథనం	-6899
▁తాత్	-6900
▁తీసి	-6901
▁నిజం	-6902
▁వాయి	-6903
▁కట్టడ	-6904
▁దీర్ఘ	-6905
▁పక్షి	-6906
▁సార్వ	-6907
▁తిమ్మా	-6908
▁త్రవ్వ	-6909
▁బుద్ధి	-6910
▁విచ్చే	-6911
▁సారథ్య	-6912
▁థియేటర్	-6913
▁పూర్వపు	-6914
▁ప్రవేశం	-6915
▁రాజవంశం	-6916
▁రామదాసు	-6917
▁ఆత్మకూరు	-6918
▁కుమారులు	-6919
▁తీవ్రమైన	-6920
▁పంచాయితీ	-6921
▁పరిశోధనా	-6922
▁ఫిల్మ్స్	-6923
▁సంబంధాలు	-6924
నిజ	-6925
లాట	-6926
▁5.	-6927
▁పృ	-6928
పోటు	-6929
లవంత	-6930
లాగా	-6931
ళ్ళో	-6932
▁13,	-6933
▁ఐదవ	-6934
▁రోద	-6935
▁సేన	-6936
ానికే	-6937
ించబడ	-6938
▁కాన్	-6939
▁కేశవ	-6940
▁కొంచ	-6941
▁కోయి	-6942
▁కోర్	-6943
▁చెపు	-6944
▁తాడి	-6945
▁తీరు	-6946
▁త్రా	-6947
▁రాయ్	-6948
▁వీలు	-6949
▁సికి	-6950
కొండలో	-6951
ఫూర్తి	-6952
ీకరణలో	-6953
▁కొట్ట	-6954
▁చదివి	-6955
▁నిశ్చ	-6956
▁విచార	-6957
▁విభజన	-6958
▁శతకము	-6959
▁సమకాల	-6960
▁స్తంభ	-6961
మంతరావు	-6962
స్వామ్య	-6963
▁ఎత్తున	-6964
▁కొండపై	-6965
▁జలపాతం	-6966
▁ధరించి	-6967
▁పద్ధతి	-6968
▁ప్రశంస	-6969
▁మహబూబా	-6970
▁వినాయక	-6971
▁అధ్యయనం	-6972
▁విద్యను	-6973
▁వెన్నెల	-6974
▁అభ్యర్థి	-6975
▁ఎందుకంటే	-6976
▁ప్రోత్సహ	-6977
▁మిలియన్ల	-6978
▁రాజస్థాన్	-6979
▁స్థాపించి	-6980
81	-6981
మయ	-6982
ఱ్	-6983
ans	-6984
్రమ	-6985
▁47	-6986
▁6.	-6987
▁64	-6988
▁on	-6989
▁ఆవ	-6990
ర్మం	-6991
హత్య	-6992
▁ఆరవ	-6993
▁నెం	-6994
▁మలే	-6995
▁లతో	-6996
▁వేట	-6997
▁సంక	-6998
▁సోష	-6999
కులలో	-7000
భూషణ్	-7001
ారాణి	-7002
▁ఆళ్వ	-7003
▁కాంత	-7004
▁గ్రూ	-7005
▁తానే	-7006
గిరిలో	-7007
▁2022:	-7008
▁ఆశ్రమ	-7009
▁ఉపఖండ	-7010
▁ఒప్పు	-7011
▁కోదండ	-7012
▁ఫిలిం	-7013
▁వివాద	-7014
▁సంజీవ	-7015
▁సర్వే	-7016
▁చేసుకో	-7017
▁పేరుగా	-7018
▁మైళ్ళు	-7019
▁వయసులో	-7020
▁సామర్థ	-7021
నిస్తాన్	-7022
స్వామయ్య	-7023
▁ఆస్ట్రే	-7024
▁గాయత్రి	-7025
▁రష్యాలో	-7026
▁విషయాలు	-7027
▁శాసనాలు	-7028
ేశ్వరాలయం	-7029
▁నటించాడు	-7030
▁పడుతుంది	-7031
▁పద్మశ్రీ	-7032
▁భగవంతుని	-7033
▁అమెరికాలో	-7034
▁పుస్తకాలు	-7035
▁అందిస్తుంది	-7036
▁వ్యవస్థాపకుడు	-7037
62	-7038
64	-7039
are	-7040
ందన	-7041
జాడ	-7042
మటి	-7043
ళువ	-7044
షుల	-7045
సేన	-7046
ేద్	-7047
▁43	-7048
▁ధై	-7049
లాస్	-7050
▁15,	-7051
▁పసి	-7052
▁ఫర్	-7053
▁శ్య	-7054
ందులు	-7055
పరమైన	-7056
లలోని	-7057
శాంతి	-7058
్యుదయ	-7059
▁1955	-7060
▁తోడు	-7061
▁దినం	-7062
.2016)	-7063
▁అంతర్	-7064
▁క్షీణ	-7065
▁చేతుల	-7066
▁జాగ్ర	-7067
▁తిలక్	-7068
▁నుండే	-7069
▁పేరిట	-7070
▁విజయా	-7071
వరెడ్డి	-7072
▁గెలుచు	-7073
▁జేమ్స్	-7074
▁స్మారక	-7075
రామకృష్ణ	-7076
▁విశ్లేష	-7077
ించటానికి	-7078
▁విభాగంలో	-7079
▁సంస్థానా	-7080
▁కొండలరావు	-7081
▁సారథ్యంలో	-7082
▁నీటిపారుదల	-7083
▁అభివృద్ధికి	-7084
-3	-7085
▁v	-7086
రేఖ	-7087
ఱ్ఱ	-7088
సంచ	-7089
▁లత	-7090
గ్గా	-7091
పాలన	-7092
సాహి	-7093
ామణి	-7094
▁అయో	-7095
▁ఐతే	-7096
▁కొర	-7097
▁నౌక	-7098
▁పండ	-7099
▁పాన	-7100
▁బాం	-7101
▁భయం	-7102
▁సాయ	-7103
ప్రాయ	-7104
రియల్	-7105
ారాధన	-7106
ింపజే	-7107
▁1986	-7108
▁అట్ల	-7109
▁ఎంపీ	-7110
▁కన్య	-7111
▁కరుణ	-7112
▁కీలక	-7113
▁డ్రై	-7114
▁తుర్	-7115
▁త్వర	-7116
▁నూనె	-7117
▁పవర్	-7118
▁ప్రీ	-7119
▁మేలు	-7120
▁విము	-7121
▁సంకీ	-7122
తంత్రం	-7123
▁కాంచన	-7124
▁నడుపు	-7125
▁నిషేధ	-7126
▁లోకసభ	-7127
▁సురభి	-7128
ాలనుండి	-7129
▁కార్తీ	-7130
▁కొండలు	-7131
▁కొలువు	-7132
▁గణపవరం	-7133
▁గిరిజన	-7134
▁పరిణామ	-7135
▁పాటలను	-7136
▁వద్దకు	-7137
▁సంతానం	-7138
▁అరెస్టు	-7139
▁ఆధీనంలో	-7140
▁కావడంతో	-7141
▁బిలియన్	-7142
▁శనివారం	-7143
▁సంయుక్త	-7144
▁తీవ్రంగా	-7145
▁పశ్చిమాన	-7146
▁సంభాషణలు	-7147
▁సంస్కర్త	-7148
▁స్టేట్స్	-7149
▁టెలివిజన్	-7150
▁కొత్తగూడెం	-7151
▁పరిశోధకుడు	-7152
▁పునర్నిర్మా	-7153
54	-7154
ep	-7155
ev	-7156
ధూ	-7157
భీ	-7158
ళన	-7159
దశి	-7160
మహా	-7161
లేయ	-7162
వన్	-7163
వీర	-7164
ామల	-7165
రాణి	-7166
సెస్	-7167
స్కూ	-7168
ికలు	-7169
▁400	-7170
▁అఫ్	-7171
▁కంద	-7172
▁జడ్	-7173
▁నాశ	-7174
▁మరల	-7175
యేషన్	-7176
స్తుల	-7177
స్థలం	-7178
▁అభివ	-7179
▁ఏళ్ళ	-7180
▁జమ్మ	-7181
▁నిరు	-7182
▁వెల్	-7183
▁సాగి	-7184
కులుగా	-7185
ళ్ళారి	-7186
సాపురం	-7187
▁ఈస్ట్	-7188
▁ఐరోపా	-7189
▁తిరుమ	-7190
▁పరిచయ	-7191
▁బదులు	-7192
▁మురళీ	-7193
▁శేఖర్	-7194
▁సూత్ర	-7195
▁స్థలం	-7196
బడ్డారు	-7197
లాచార్య	-7198
▁ఆస్థాన	-7199
▁కూర్చు	-7200
▁కూర్పు	-7201
▁దేవుని	-7202
▁పర్యవే	-7203
▁విభాగం	-7204
▁శ్రద్ధ	-7205
ేశ్వరుని	-7206
▁పోయింది	-7207
▁బడ్జెట్	-7208
▁సర్వీసు	-7209
▁కూచిపూడి	-7210
▁లక్షణాలు	-7211
▁ప్రధానమైన	-7212
▁కొనసాగింది	-7213
▁దాదాసాహెబ్	-7214
▁ప్రయత్నాలు	-7215
▁కుటుంబానికి	-7216
▁ప్రారంభించి	-7217
-1	-7218
.2	-7219
ry	-7220
భయ	-7221
టము	-7222
డితే	-7223
దేవత	-7224
ధర్మ	-7225
న్లు	-7226
యుగం	-7227
ర్షణ	-7228
ల్క్	-7229
ారుల	-7230
▁ఆవు	-7231
▁తరల	-7232
▁1966	-7233
▁1972	-7234
▁1974	-7235
▁కారా	-7236
▁దాస్	-7237
▁నర్స	-7238
▁పైకి	-7239
▁ఫ్యా	-7240
▁విరి	-7241
▁సంగమ	-7242
▁సిటీ	-7243
▁సుభా	-7244
ించుకో	-7245
▁ఇందిర	-7246
▁ఎస్పీ	-7247
▁ఏదైనా	-7248
▁కడుపు	-7249
▁కొలను	-7250
▁గజపతి	-7251
▁బయటకు	-7252
▁బలవంత	-7253
▁మరాఠా	-7254
▁మారిన	-7255
▁వర్గం	-7256
▁సమర్థ	-7257
▁సుల్త	-7258
▁అహ్మద్	-7259
▁ఉత్తరా	-7260
▁కాలేదు	-7261
▁చేతులు	-7262
▁తెలిసి	-7263
▁పంజాబ్	-7264
▁ద్వితీయ	-7265
▁పలువురు	-7266
▁పార్వతి	-7267
▁నగరాన్ని	-7268
▁పార్టీలో	-7269
▁రాజ్యంలో	-7270
▁పోర్చుగీసు	-7271
▁బంగ్లాదేశ్	-7272
▁ముఖ్యమైనవి	-7273
▁సినిమాల్లో	-7274
▁ప్రత్యేకమైన	-7275
▁వీరాస్వామయ్య	-7276
▁ప్రారంభించింది	-7277
ళహ	-7278
ఘ్న	-7279
బోధ	-7280
వైన	-7281
ాహ్	-7282
.186	-7283
క్రా	-7284
డ్డా	-7285
పండి	-7286
రీలు	-7287
ర్చ్	-7288
విలో	-7289
శ్వర	-7290
ినేత	-7291
▁160	-7292
▁ఆంధ	-7293
▁ఇసు	-7294
▁గోప	-7295
▁భవి	-7296
▁సంప	-7297
కారుల	-7298
కాలిక	-7299
పాలిత	-7300
మతులు	-7301
మయ్యే	-7302
మర్రు	-7303
ాయిల్	-7304
▁1953	-7305
▁ఆచార	-7306
▁తరహా	-7307
▁నదుల	-7308
▁నీవు	-7309
▁ఫలిత	-7310
▁బాక్	-7311
▁శరత్	-7312
లనుండి	-7313
ాలయాలు	-7314
▁https	-7315
▁అక్షర	-7316
▁అరణ్య	-7317
▁ఏనుగు	-7318
▁చిట్ట	-7319
▁తగ్గి	-7320
▁తగ్గు	-7321
▁దేశపు	-7322
▁భిన్న	-7323
▁గోపాల్	-7324
▁పోర్ట్	-7325
▁వాయవ్య	-7326
కొన్నారు	-7327
ించేవాడు	-7328
▁అండమాన్	-7329
▁పల్నాడు	-7330
▁వారసత్వ	-7331
▁సిక్కిం	-7332
▁సినిమాల	-7333
▁దంపతులకు	-7334
▁వహించారు	-7335
▁వ్రాశారు	-7336
ోత్సవాన్ని	-7337
▁ఇస్లామిక్	-7338
▁ఆస్ట్రేలియా	-7339
61	-7340
ud	-7341
చర	-7342
18)	-7343
ies	-7344
క్ల	-7345
ధీశ	-7346
స్మ	-7347
▁గడ	-7348
▁ఫ్	-7349
కమ్మ	-7350
గుంట	-7351
దారి	-7352
ద్ధం	-7353
్రల్	-7354
▁31:	-7355
▁ఏడవ	-7356
▁గిం	-7357
▁చావ	-7358
▁శరణ	-7359
న్నవి	-7360
రచయిత	-7361
▁1984	-7362
▁పాటి	-7363
కానికి	-7364
వుల్లో	-7365
ేశ్వరీ	-7366
▁అవశేష	-7367
▁ఒడిషా	-7368
▁తమిళం	-7369
▁సంకలన	-7370
సంఖ్యలో	-7371
ార్లెస్	-7372
▁ఉండును	-7373
▁మహాభార	-7374
▁మైసూర్	-7375
▁విలియం	-7376
▁సాక్షి	-7377
ప్రతిష్ఠ	-7378
హారెడ్డి	-7379
▁అందరికీ	-7380
▁అందువలన	-7381
▁అల్లుడు	-7382
▁పాత్రలో	-7383
▁పొందారు	-7384
▁మొదట్లో	-7385
ించినట్లు	-7386
▁చెబుతాడు	-7387
▁జాగ్రత్త	-7388
▁తంజావూరు	-7389
▁నాయకత్వం	-7390
▁గణాంకాలను	-7391
▁శుక్రవారం	-7392
▁ఎన్నికల్లో	-7393
▁తొలిసారిగా	-7394
▁గృహాలున్నాయి	-7395
▁సామ్రాజ్యంలో	-7396
▁రైల్వేస్టేషన్	-7397
కమ	-7398
rit	-7399
కటి	-7400
కిన	-7401
వేష	-7402
ివీ	-7403
▁49	-7404
జాతి	-7405
డెన్	-7406
తమిళ	-7407
▁ఉంచ	-7408
▁చోట	-7409
▁ఫెడ	-7410
క్కుల	-7411
ద్దరూ	-7412
రాణిక	-7413
లేదని	-7414
వచ్చి	-7415
ురాలు	-7416
▁ఆధిక	-7417
▁టంగు	-7418
▁ట్రి	-7419
▁దృష్	-7420
▁నీతి	-7421
▁మీర్	-7422
▁వూరి	-7423
▁స్టీ	-7424
కుర్తి	-7425
దుర్తి	-7426
▁2008:	-7427
▁కాపాడ	-7428
▁గణనీయ	-7429
▁తాళ్ళ	-7430
▁భాషగా	-7431
▁విన్న	-7432
టప్పుడు	-7433
▁అరుదైన	-7434
▁అవధాని	-7435
▁చెన్నక	-7436
▁తెచ్చి	-7437
▁దానితో	-7438
▁పేరును	-7439
▁మిక్కి	-7440
▁యాత్రా	-7441
▁రేలంగి	-7442
మయ్యింది	-7443
వులపల్లి	-7444
ిస్తుంది	-7445
▁ఆహ్వాని	-7446
▁కనిపించ	-7447
▁భాషల్లో	-7448
▁మలేరియా	-7449
▁లెక్కలు	-7450
▁శ్రీలంక	-7451
▁సమాజంలో	-7452
▁మ్యూజియం	-7453
▁వాల్మీకి	-7454
▁వ్యాపారం	-7455
▁అద్భుతమైన	-7456
▁ప్రవహించి	-7457
▁మరికొన్ని	-7458
▁జరుగుతున్న	-7459
▁పార్లమెంట్	-7460
▁ఉద్యమకారుడు	-7461
▁చేసుకున్నారు	-7462
▁స్వీకరించాడు	-7463
▁తాడేపల్లిగూడెం	-7464
51	-7465
hi	-7466
గీ	-7467
art	-7468
చిక	-7469
బిం	-7470
రాగ	-7471
రావ	-7472
ీయా	-7473
ేరి	-7474
▁హొ	-7475
ణుకు	-7476
వర్మ	-7477
విల్	-7478
▁for	-7479
▁హాజ	-7480
శ్రమల	-7481
్యమైన	-7482
▁1949	-7483
▁ఆందో	-7484
▁గ్రా	-7485
▁చూపి	-7486
▁రాశి	-7487
▁వాదన	-7488
▁విధి	-7489
▁శివు	-7490
▁హస్త	-7491
పోయాయి	-7492
శాన్ని	-7493
ేద్కర్	-7494
▁అన్నా	-7495
▁ఎందరో	-7496
▁కట్టి	-7497
▁కలుసు	-7498
▁పక్కన	-7499
▁బానిస	-7500
▁మరియూ	-7501
▁వర్షా	-7502
▁శతదిన	-7503
▁సన్యా	-7504
వ్యవస్థ	-7505
▁అన్యాయ	-7506
▁కోస్తా	-7507
▁నాయకుల	-7508
▁ముగ్గు	-7509
▁రకరకాల	-7510
▁లక్షలు	-7511
▁శృంగార	-7512
▁ఏడుగురు	-7513
▁కొబ్బరి	-7514
▁క్రొత్త	-7515
▁గాంధీజీ	-7516
▁బళ్ళారి	-7517
▁బుర్రకథ	-7518
▁ఉద్యమంలో	-7519
▁కలెక్టర్	-7520
▁జ్ఞానపీఠ	-7521
▁ప్రొద్దు	-7522
▁కుటుంబంలో	-7523
▁అమ్మవారిని	-7524
▁చాళుక్యులు	-7525
▁స్టిట్యూట్	-7526
▁హనుమంతరావు	-7527
ించుకున్నారు	-7528
▁మల్లికార్జున	-7529
నవ	-7530
▁g	-7531
ord	-7532
డనే	-7533
బుల	-7534
లాగ	-7535
ారూ	-7536
ొని	-7537
▁టో	-7538
ఫిక్	-7539
రార్	-7540
ర్శి	-7541
వస్థ	-7542
▁ఆదో	-7543
▁ఉస్	-7544
▁గరి	-7545
▁గాథ	-7546
▁నలు	-7547
▁నేర	-7548
▁విఠ	-7549
▁శంఖ	-7550
ద్దరి	-7551
వైద్య	-7552
్యులు	-7553
▁1942	-7554
▁అంటు	-7555
▁అడ్డ	-7556
▁అర్హ	-7557
▁ధ్వజ	-7558
▁మహాల	-7559
▁వన్య	-7560
▁షాహీ	-7561
▁సహకర	-7562
▁సేవల	-7563
.2015)	-7564
పుల్స్	-7565
ాలలోను	-7566
▁అందాల	-7567
▁ఉనికి	-7568
▁ధర్మా	-7569
▁నన్ను	-7570
▁పాండు	-7571
ప్రతిని	-7572
▁తిరునా	-7573
▁దర్శనం	-7574
▁దారిలో	-7575
▁ప్రవాహ	-7576
▁బోర్డు	-7577
▁బ్రౌన్	-7578
▁వెంకటా	-7579
▁హీరోగా	-7580
చారాన్ని	-7581
▁కాంగ్రే	-7582
▁ఫ్రెంచ్	-7583
▁రచయితగా	-7584
▁సోమవారం	-7585
▁స్పీకర్	-7586
▁చెల్లెలు	-7587
▁వ్రాశాడు	-7588
▁ఆదిలాబాదు	-7589
▁పురావస్తు	-7590
▁పోషించాడు	-7591
▁సందర్భంలో	-7592
▁సాధించాడు	-7593
▁ఛాయాగ్రహణం	-7594
▁నిర్వహించి	-7595
▁రాజ్యానికి	-7596
ించుకున్నాడు	-7597
▁తెలుసుకున్న	-7598
▁లక్ష్మణరావు	-7599
▁ఇన్స్టిట్యూట్	-7600
-15	-7601
ine	-7602
మవు	-7603
వల్	-7604
ానై	-7605
ోజీ	-7606
▁52	-7607
▁ఇర	-7608
▁గ్	-7609
▁యజ	-7610
ఆంగ్	-7611
జిత్	-7612
నైనా	-7613
ప్పల	-7614
ఫీస్	-7615
లక్ష	-7616
లవరం	-7617
లోకం	-7618
▁110	-7619
▁ఊరగ	-7620
▁ఎఫ్	-7621
▁నీల	-7622
▁బర్	-7623
కార్య	-7624
తులైన	-7625
ర్వేద	-7626
లలోను	-7627
వెళ్ళ	-7628
ాన్స్	-7629
ిస్తూ	-7630
▁....	-7631
▁2002	-7632
▁దండె	-7633
▁మత్స	-7634
ట్టుగా	-7635
దారులు	-7636
బెట్టి	-7637
లిస్టు	-7638
▁అశోక్	-7639
▁ఆహారం	-7640
▁కాదని	-7641
▁దర్గా	-7642
▁నదిలో	-7643
▁పొన్న	-7644
▁వివరి	-7645
కోవాలని	-7646
గోదావరి	-7647
డుతుంది	-7648
▁ఆటగాడు	-7649
▁కాపాడు	-7650
▁ప్రామా	-7651
▁స్థాపన	-7652
▁అయ్యాయి	-7653
▁కేసీఆర్	-7654
▁క్రమంలో	-7655
▁అమలులోకి	-7656
▁ఎన్నికలు	-7657
▁పద్మావతి	-7658
▁పర్యావరణ	-7659
▁లభించాయి	-7660
▁శ్రీకాళహ	-7661
▁ప్రాచుర్యం	-7662
ించుచున్నారు	-7663
▁చేసుకుంటాడు	-7664
▁పేర్కొన్నారు	-7665
▁సంస్కృతాంధ్ర	-7666
.[	-7667
69	-7668
all	-7669
her	-7670
our	-7671
ేర్	-7672
▁39	-7673
▁ఆఖ	-7674
▁కఠ	-7675
జవాడ	-7676
యిల్	-7677
ాండు	-7678
▁14,	-7679
▁అదృ	-7680
▁ఉపన	-7681
▁కాశ	-7682
▁జ్వ	-7683
▁పొర	-7684
▁బసవ	-7685
▁రకం	-7686
▁సతీ	-7687
▁సుమ	-7688
ంగానే	-7689
ద్గీత	-7690
విధ్య	-7691
వెంకట	-7692
ేశాడు	-7693
▁అతడి	-7694
▁కోపం	-7695
▁గూర్	-7696
▁తుని	-7697
▁పత్ర	-7698
▁మీరు	-7699
▁రంగం	-7700
▁శరీర	-7701
▁సంకే	-7702
▁సభకు	-7703
▁2009:	-7704
▁అవినీ	-7705
▁ఉపాధి	-7706
▁దేశీయ	-7707
▁హరిహర	-7708
పడ్డాడు	-7709
సముద్రం	-7710
▁అస్సాం	-7711
▁ఇస్లాం	-7712
▁కొట్టు	-7713
▁జూలైలో	-7714
▁బీహార్	-7715
▁రాజవంశ	-7716
▁రుక్మి	-7717
▁స్థాని	-7718
బడుతున్న	-7719
▁అటువంటి	-7720
▁ఇటువంటి	-7721
▁కర్నాటక	-7722
▁తాండూరు	-7723
▁పొందాయి	-7724
▁సౌందర్య	-7725
▁కాశ్మీర్	-7726
▁కేంద్రము	-7727
▁చేసుకొని	-7728
▁ప్రాతిని	-7729
▁సంస్కృతం	-7730
▁అనుగుణంగా	-7731
▁గ్రామాలకు	-7732
▁చాళుక్యుల	-7733
▁తత్వవేత్త	-7734
▁విజయవాడలో	-7735
▁వినాయకుని	-7736
▁మహబూబాబాద్	-7737
▁సముద్రమట్ట	-7738
▁ప్రకటించాడు	-7739
-8	-7740
-12	-7741
-18	-7742
గ్న	-7743
దలి	-7744
దుర	-7745
భక్	-7746
మతం	-7747
▁7.	-7748
▁77	-7749
▁ఏట	-7750
ందనీ	-7751
క్లి	-7752
డిలో	-7753
్వంచ	-7754
▁130	-7755
▁250	-7756
▁అలి	-7757
▁ఒకట	-7758
▁గరు	-7759
గుండం	-7760
ములతో	-7761
య్యను	-7762
రంగజే	-7763
సమితి	-7764
▁ఉంటూ	-7765
▁క్యూ	-7766
▁గండి	-7767
▁తోడ్	-7768
▁దోహద	-7769
▁పాడి	-7770
▁బాలా	-7771
▁బుక్	-7772
▁మనుమ	-7773
▁వాసి	-7774
▁షేక్	-7775
ప్రధాన	-7776
మునందు	-7777
ేశ్వరు	-7778
▁1985:	-7779
▁ఆదర్శ	-7780
▁కళింగ	-7781
▁జయసుధ	-7782
▁తరపున	-7783
▁నిమిష	-7784
▁పరిష్	-7785
▁మండలి	-7786
▁రాళ్ళ	-7787
▁వివరణ	-7788
▁ఉద్యాన	-7789
▁కాలేజ్	-7790
▁కిన్నె	-7791
▁చెట్లు	-7792
▁దూరంగా	-7793
▁దేశాలు	-7794
▁పదవికి	-7795
▁పేరుపొ	-7796
▁భవిష్య	-7797
▁వాటికి	-7798
▁వార్డు	-7799
▁పౌరాణిక	-7800
▁ప్రేమలో	-7801
▁యూనివర్	-7802
▁విస్తరణ	-7803
▁అనుసంధాని	-7804
▁చిత్రాలలో	-7805
▁పెరిగింది	-7806
▁దేవులపల్లి	-7807
▁అలెగ్జాండర్	-7808
▁హైదరాబాదుకు	-7809
▁అందుకున్నాడు	-7810
▁పనిచేస్తున్న	-7811
▁విస్తీర్ణంలో	-7812
గూ	-7813
డక	-7814
▁?	-7815
అంత	-7816
కరు	-7817
కావ	-7818
కూర	-7819
జేయ	-7820
డ్ర	-7821
మనే	-7822
యని	-7823
▁63	-7824
▁డో	-7825
▁బన	-7826
▁మఠ	-7827
▁యీ	-7828
కోటి	-7829
క్షే	-7830
ద్వి	-7831
భ్యా	-7832
వేరి	-7833
▁170	-7834
▁ఆడి	-7835
▁ఛంద	-7836
▁జిం	-7837
▁తిర	-7838
▁మరీ	-7839
కేషన్	-7840
వన్నీ	-7841
వర్శి	-7842
స్ట్ర	-7843
ునికి	-7844
▁1940	-7845
▁1954	-7846
▁1993	-7847
▁1996	-7848
▁కోట్	-7849
▁చిలు	-7850
▁పారా	-7851
▁ప్రణ	-7852
▁భూకం	-7853
▁వాగు	-7854
▁వాడి	-7855
▁శ్రా	-7856
▁హోదా	-7857
గృహాలు	-7858
▁ఆదోని	-7859
▁ఆయనను	-7860
▁కనీసం	-7861
▁నదిపై	-7862
▁సున్న	-7863
▁స్వీయ	-7864
▁అనారోగ	-7865
▁గాంచిన	-7866
▁త్రాగు	-7867
▁దేవతలు	-7868
▁దేశాయ్	-7869
▁బాపట్ల	-7870
▁బెజవాడ	-7871
▁మార్కా	-7872
పురంలోను	-7873
స్థాయిలో	-7874
▁అనువాదం	-7875
▁అబ్దుల్	-7876
▁జయశంకర్	-7877
▁నిర్మల్	-7878
▁పెట్టిన	-7879
▁భాస్కర్	-7880
▁లినక్స్	-7881
▁శివాలయం	-7882
▁అందువల్ల	-7883
▁ఉండవచ్చు	-7884
▁ఊరేగింపు	-7885
▁చంద్రుడు	-7886
▁పోరాటంలో	-7887
▁పోలీసులు	-7888
▁పరిధిలోని	-7889
▁ప్రామాణిక	-7890
▁ప్రోగ్రామ	-7891
▁రాజ్యాంగం	-7892
▁నరసరావుపేట	-7893
▁ప్రాంగణంలో	-7894
▁రాష్ట్రాలు	-7895
▁క్రియేషన్స్	-7896
▁ప్రపంచంలోని	-7897
▁విద్యార్థుల	-7898
▁సంజీవరెడ్డి	-7899
▁ప్రారంభించిన	-7900
▁సుబ్రహ్మణ్యం	-7901
▁విస్తరించింది	-7902
యీ	-7903
పటి	-7904
వసర	-7905
ారట	-7906
▁0.	-7907
▁వశ	-7908
కుంద	-7909
క్కా	-7910
గిలి	-7911
ద్వీ	-7912
పేట్	-7913
బండి	-7914
సంలో	-7915
స్వీ	-7916
▁ఏమీ	-7917
▁చెల	-7918
▁నెర	-7919
▁భోగ	-7920
▁వేష	-7921
క్ట్ర	-7922
హదూర్	-7923
ానందం	-7924
▁1917	-7925
▁1918	-7926
▁1967	-7927
▁బాబూ	-7928
▁మోహన	-7929
▁లాలి	-7930
▁లోపల	-7931
▁సందే	-7932
▁సన్న	-7933
▁హౌస్	-7934
కున్నా	-7935
న్నిస్	-7936
▁2016:	-7937
▁ఉడిపి	-7938
▁కుట్ర	-7939
▁కేటాయ	-7940
▁జమీంద	-7941
▁దేవతల	-7942
▁ధార్వ	-7943
▁నెల్ల	-7944
▁పాడిన	-7945
▁బరువు	-7946
▁వృత్త	-7947
తుంటాయి	-7948
▁అంకితం	-7949
▁ఉత్తరం	-7950
▁ఒప్పంద	-7951
▁ఔరంగజే	-7952
▁గోపన్న	-7953
▁తప్పని	-7954
▁దీనితో	-7955
▁మనస్సు	-7956
▁మార్చు	-7957
▁రాముని	-7958
▁అధీనంలో	-7959
▁ఎప్పుడూ	-7960
▁పరీవాహక	-7961
▁భావించి	-7962
▁రాబర్ట్	-7963
పెట్టింది	-7964
▁ఆత్మహత్య	-7965
▁ఇంగ్లీష్	-7966
▁రహదారిపై	-7967
▁స్ఫూర్తి	-7968
▁స్వర్ణలత	-7969
▁ఉష్ణోగ్రత	-7970
▁జన్మించిన	-7971
▁జరుపుతారు	-7972
▁నేపథ్యంలో	-7973
▁ప్రఖ్యాతి	-7974
▁ప్రదేశంలో	-7975
▁ప్రవహించే	-7976
▁శ్రీకాకుళ	-7977
▁సంబంధించి	-7978
ించుకుంటారు	-7979
▁కృష్ణంరాజు	-7980
▁పురపాలకసంఘ	-7981
▁విడుదలైంది	-7982
▁అవతరించింది	-7983
▁గ్రామోత్సవం	-7984
▁తెలుస్తోంది	-7985
▁రాజకీయవేత్త	-7986
▁చరిత్రకారుడు	-7987
▁శ్రీకృష్ణదేవ	-7988
తక	-7989
ial	-7990
ంతా	-7991
దంబ	-7992
మాయ	-7993
వగా	-7994
వేక	-7995
శిల	-7996
▁):	-7997
▁Ch	-7998
ంగల్	-7999
చాయి	-8000
శాసన	-8001
శ్వా	-8002
స్టి	-8003
▁19,	-8004
▁చవి	-8005
▁తాప	-8006
▁మౌర	-8007
▁రిజ	-8008
▁రోగ	-8009
కాంతం	-8010
క్ష్మ	-8011
చిన్న	-8012
పోవడం	-8013
య్యాల	-8014
రుద్ర	-8015
వేశాల	-8016
ాంతరం	-8017
ేశారు	-8018
▁గాంధ	-8019
▁పడిన	-8020
▁పెరి	-8021
▁మన్న	-8022
▁వంశీ	-8023
▁వర్ధ	-8024
▁వేడి	-8025
▁శ్రమ	-8026
డాన్ని	-8027
ుండును	-8028
▁అద్దం	-8029
▁ఉపదేశ	-8030
▁కత్తి	-8031
▁కావున	-8032
▁చండీగ	-8033
▁పరికర	-8034
▁భూపతి	-8035
▁రహస్య	-8036
▁లింగం	-8037
▁విరాళ	-8038
▁వెండి	-8039
వర్శిటీ	-8040
▁ఎందుకు	-8041
▁కనుగొన	-8042
▁దిక్కు	-8043
▁దేశంగా	-8044
▁ద్వారం	-8045
▁పుస్తక	-8046
▁వారితో	-8047
▁సంస్థల	-8048
▁హైస్కూ	-8049
పెట్టారు	-8050
▁దగ్గరగా	-8051
▁పాత్రను	-8052
▁పాలకులు	-8053
▁కాలంలోనే	-8054
▁గ్రంథాలు	-8055
▁ప్రభాకర్	-8056
▁మంగళగిరి	-8057
▁వెళ్ళాడు	-8058
▁సుమారుగా	-8059
▁గుర్తించి	-8060
▁తెలంగాణలో	-8061
▁ప్రముఖులు	-8062
▁సికింద్రా	-8063
▁సైన్యాన్ని	-8064
▁ఎన్నికైనాడు	-8065
▁చెప్పబడింది	-8066
▁పరిపాలించిన	-8067
▁ప్రపంచంలోనే	-8068
▁ఉపయోగిస్తారు	-8069
▁సామ్రాజ్యానికి	-8070
పణ	-8071
పథ	-8072
13.	-8073
ity	-8074
కను	-8075
జయ్	-8076
జుల	-8077
వటం	-8078
▁41	-8079
ందుల	-8080
కాదు	-8081
జ్యో	-8082
న్నర	-8083
లేటి	-8084
వర్ధ	-8085
వాసి	-8086
వోలు	-8087
షియా	-8088
స్పి	-8089
ామస్	-8090
ికోట	-8091
▁16,	-8092
▁184	-8093
▁600	-8094
▁కపి	-8095
▁డయా	-8096
▁తరి	-8097
▁పటే	-8098
▁పూల	-8099
▁సన్	-8100
పరిచి	-8101
ముఖ్య	-8102
▁2017	-8103
▁ఒకరి	-8104
▁కమ్మ	-8105
▁కారం	-8106
▁కోనే	-8107
▁గోరు	-8108
▁చాటు	-8109
▁పతనం	-8110
▁పోయి	-8111
▁బట్ట	-8112
▁మట్ట	-8113
▁యందు	-8114
▁స్కా	-8115
దక్షిణ	-8116
రాబాద్	-8117
వాదులు	-8118
ాంజనేయ	-8119
ిండియా	-8120
▁1972:	-8121
▁అనుసర	-8122
▁ఆకర్ష	-8123
▁ఊరిలో	-8124
▁ఏర్పడ	-8125
▁నంబరు	-8126
▁నిమ్మ	-8127
▁బలమైన	-8128
▁విఘ్న	-8129
▁వెడల్	-8130
▁సుజాత	-8131
▁స్నాన	-8132
▁ఆగ్నేయ	-8133
▁గూడూరు	-8134
▁చేర్చు	-8135
▁నిజాము	-8136
▁ప్రకటన	-8137
▁యేడాది	-8138
▁వాస్తు	-8139
▁సంగ్రహ	-8140
▁అరేబియా	-8141
▁కార్మిక	-8142
▁ధార్వాడ	-8143
▁పాలకుడు	-8144
▁బ్రిటన్	-8145
▁ముత్యాల	-8146
▁వస్తాడు	-8147
▁వస్తారు	-8148
▁హిందీలో	-8149
▁ఉండేవాడు	-8150
▁ఉన్నందున	-8151
▁చేసేవారు	-8152
▁తేదీనాడు	-8153
▁నిడమర్రు	-8154
▁పీపుల్స్	-8155
▁రచించారు	-8156
▁విశ్వాసం	-8157
▁చేరుకుంది	-8158
▁సత్యాగ్రహ	-8159
▁ఉన్నప్పుడు	-8160
▁ముఖ్యపాత్ర	-8161
▁అధికారికంగా	-8162
▁రూపొందించిన	-8163
▁విద్యార్థులకు	-8164
22)	-8165
ite	-8166
ric	-8167
ంటె	-8168
కైన	-8169
తావ	-8170
ువు	-8171
ment	-8172
జ్యం	-8173
నూరి	-8174
బాల్	-8175
లంతా	-8176
వరకూ	-8177
హాన్	-8178
▁(20	-8179
▁కదా	-8180
▁కాగ	-8181
▁తలె	-8182
▁పూర	-8183
▁శశి	-8184
▁శాం	-8185
▁హోం	-8186
కులతో	-8187
భక్తి	-8188
మండలి	-8189
▁1946	-8190
▁1965	-8191
▁ఆశ్చ	-8192
▁కస్త	-8193
▁చేయి	-8194
▁తిరగ	-8195
▁నచ్చ	-8196
▁పడమర	-8197
▁ముడి	-8198
▁మ్యా	-8199
▁యోగి	-8200
▁రమ్య	-8201
▁రోజూ	-8202
▁లీపు	-8203
▁వారే	-8204
▁విరు	-8205
▁హరిక	-8206
కుంట్ల	-8207
తులుగా	-8208
రాజులు	-8209
లిస్ట్	-8210
▁1990:	-8211
▁అదనపు	-8212
▁ఆలేరు	-8213
▁కదిరి	-8214
▁కాలము	-8215
▁తణుకు	-8216
▁నటులు	-8217
▁బోధన్	-8218
▁భాషకు	-8219
▁మధుసూ	-8220
బ్రహ్మం	-8221
▁అద్భుత	-8222
▁ఆంధ్రా	-8223
▁కన్నుల	-8224
▁కర్మాగ	-8225
▁కార్మి	-8226
▁చిన్నత	-8227
▁చైతన్య	-8228
▁నేటికీ	-8229
▁పొరుగు	-8230
▁బహదూర్	-8231
▁మానసిక	-8232
▁అత్తిలి	-8233
▁ఆంగ్లేయ	-8234
▁ఇస్తారు	-8235
▁కార్తీక	-8236
▁తర్వాతి	-8237
▁నారాయణ్	-8238
▁మద్రాస్	-8239
▁ముగింపు	-8240
▁విలువైన	-8241
▁అప్పటికి	-8242
▁దినోత్సవ	-8243
▁దేవస్థాన	-8244
▁వస్తున్న	-8245
▁వ్యవసాయా	-8246
▁సెంట్రల్	-8247
▁అబ్దుల్లా	-8248
▁చిత్రాలను	-8249
▁చుట్టుప్ర	-8250
▁ప్రతిష్ఠా	-8251
▁మద్రాసులో	-8252
▁వ్యక్తిగత	-8253
▁కథానాయకుడు	-8254
▁చెందినవారు	-8255
▁విజయవంతంగా	-8256
▁తజికిస్థాన్	-8257
▁నివాసగృహాలు	-8258
▁సామ్రాజ్యాన్ని	-8259
-9	-8260
యూ	-8261
ugu	-8262
ure	-8263
ఖిల	-8264
డిద	-8265
తరు	-8266
పము	-8267
భ్ర	-8268
లోయ	-8269
వనం	-8270
ృతి	-8271
▁78	-8272
▁st	-8273
▁ఖై	-8274
▁ధూ	-8275
▁ఫీ	-8276
జారు	-8277
ర్భవ	-8278
ింటి	-8279
▁గంధ	-8280
▁తరగ	-8281
▁తామ	-8282
▁మకు	-8283
▁వాన	-8284
ందేడ్	-8285
తల్లి	-8286
తోత్స	-8287
న్సర్	-8288
బెట్ట	-8289
మాత్ర	-8290
ారంలో	-8291
ాలన్న	-8292
ినేని	-8293
▁(198	-8294
▁1919	-8295
▁1957	-8296
▁1961	-8297
▁అంశం	-8298
▁ఆవరణ	-8299
▁కురి	-8300
▁చూడు	-8301
▁దిగి	-8302
▁ద్రో	-8303
▁నడిప	-8304
▁విమో	-8305
గోపాల్	-8306
రాముడు	-8307
ేపల్లి	-8308
▁1962:	-8309
▁ఉండదు	-8310
▁ఉపనది	-8311
▁గట్టి	-8312
▁పూర్ణ	-8313
▁విజ్ఞ	-8314
▁శంకరా	-8315
పతిరావు	-8316
▁ఆకర్షి	-8317
▁ఎలాంటి	-8318
▁కాశీయా	-8319
▁గురజాడ	-8320
▁మైక్రో	-8321
▁వీరుడు	-8322
▁సుత్తి	-8323
▁అభ్యుదయ	-8324
▁ఎయిడ్స్	-8325
▁దంపతులు	-8326
▁ప్రయాణి	-8327
▁వైవిధ్య	-8328
▁సోదరుడు	-8329
▁కనుగొన్న	-8330
▁శతాబ్దపు	-8331
▁కళాకారులు	-8332
▁చేసుకుంది	-8333
▁ప్రభావితం	-8334
▁కనుగొన్నాడు	-8335
▁సంస్థానాధీశ	-8336
▁వ్యాపారవేత్త	-8337
71	-8338
74	-8339
రక	-8340
రొ	-8341
-16	-8342
ంతు	-8343
గణం	-8344
పద్	-8345
పెడ	-8346
ాట్	-8347
▁ఖు	-8348
▁ఫౌ	-8349
ical	-8350
జ్ఞా	-8351
ద్యమ	-8352
నాల్	-8353
పార్	-8354
రాన్	-8355
శ్రే	-8356
▁182	-8357
▁మాద	-8358
▁వెళ	-8359
elugu	-8360
గుట్ట	-8361
ప్రగడ	-8362
ొచ్చు	-8363
▁అంగీ	-8364
▁ఇరవై	-8365
▁ఓటమి	-8366
▁కంటి	-8367
▁జననం	-8368
▁నీవే	-8369
▁పరశు	-8370
▁భోజన	-8371
▁మూలం	-8372
▁అంశాల	-8373
▁కాటన్	-8374
▁ధ్రువ	-8375
▁పోయిన	-8376
▁మహాసభ	-8377
▁వంతెన	-8378
▁వైశాఖ	-8379
మాచార్య	-8380
▁అడవులు	-8381
▁తుమ్మల	-8382
▁పూర్వీ	-8383
▁పోటీలు	-8384
▁సదస్సు	-8385
▁స్వర్గ	-8386
▁కావాలని	-8387
▁డాలర్లు	-8388
▁పాల్వంచ	-8389
▁విప్లవం	-8390
▁వెడల్పు	-8391
▁స్థలాలు	-8392
చక్రవర్తి	-8393
ామిరెడ్డి	-8394
▁ఔరంగజేబు	-8395
▁పెట్టాడు	-8396
▁రహదారులు	-8397
▁శతాబ్దాల	-8398
రాష్ట్రపతి	-8399
▁తోలుబొమ్మ	-8400
▁దినపత్రిక	-8401
▁పితామహుడు	-8402
▁రాష్ట్రకూ	-8403
▁తెలుసుకుని	-8404
▁ప్రారంభంలో	-8405
▁మధ్యకాలంలో	-8406
▁వీరభద్రరావు	-8407
▁అందుకున్నారు	-8408
▁నిర్మించింది	-8409
-5	-8410
00)	-8411
కుశ	-8412
గంగ	-8413
జలు	-8414
షల్	-8415
ైతే	-8416
▁74	-8417
▁ఛై	-8418
కంటి	-8419
చివే	-8420
జాద్	-8421
తువు	-8422
బోయే	-8423
భూతి	-8424
రాశి	-8425
రిలో	-8426
లాల్	-8427
వెల్	-8428
సార్	-8429
▁108	-8430
▁దిగ	-8431
క్రమే	-8432
నర్జీ	-8433
రాలకు	-8434
రాలలో	-8435
స్థుల	-8436
ృప్తి	-8437
▁(196	-8438
▁1830	-8439
▁ఆభరణ	-8440
▁కుంభ	-8441
▁కూలి	-8442
▁పునా	-8443
▁బార్	-8444
▁బూర్	-8445
▁రూపం	-8446
▁వేషం	-8447
▁సాధన	-8448
▁సైతం	-8449
తెలంగా	-8450
తోపాటు	-8451
సింజర్	-8452
▁1965:	-8453
▁1987:	-8454
▁ఆధారం	-8455
▁ఇంతలో	-8456
▁కచ్చి	-8457
▁కలామ్	-8458
▁కలిపే	-8459
▁కోటలో	-8460
▁జంధ్య	-8461
▁నిధుల	-8462
▁నెలలు	-8463
▁నేత్ర	-8464
▁పటేల్	-8465
▁పాండి	-8466
▁పిండి	-8467
▁సరిగా	-8468
▁సహస్ర	-8469
ప్రాంతం	-8470
ాల్లోని	-8471
▁అక్షరం	-8472
▁అధిపతి	-8473
▁ఇందుకు	-8474
▁గిడుగు	-8475
▁గెలుపొ	-8476
▁తీరంలో	-8477
▁మిగిలి	-8478
▁మునిగి	-8479
▁రిజర్వ	-8480
▁వేలాది	-8481
▁శతాబ్ధ	-8482
▁సంభాషణ	-8483
▁సారిగా	-8484
▁ఆఫ్రికా	-8485
▁దగ్గరకు	-8486
▁ప్రతీతి	-8487
▁రాఘవయ్య	-8488
▁రామాలయం	-8489
▁రోజులలో	-8490
▁శ్రీహరి	-8491
స్తుంటాయి	-8492
▁టంగుటూరి	-8493
▁నికోబార్	-8494
▁పిల్లలకు	-8495
▁పెనుగొండ	-8496
▁ప్రాంతము	-8497
▁భగవద్గీత	-8498
▁భాగమైంది	-8499
▁విముక్తి	-8500
▁వృత్తులు	-8501
▁వెంకటేష్	-8502
▁పురాతనమైన	-8503
▁ప్రతిపక్ష	-8504
▁ఏర్పడ్డాయి	-8505
▁చిత్రంలోని	-8506
▁జన్మించారు	-8507
▁వేంకటేశ్వర	-8508
▁దారితీసింది	-8509
▁కామేశ్వరరావు	-8510
▁బ్రహ్మోత్సవాలు	-8511
ok	-8512
ండో	-8513
చోట	-8514
జని	-8515
డను	-8516
డ్వ	-8517
తాం	-8518
మలు	-8519
యిక	-8520
సూర	-8521
ేడు	-8522
▁51	-8523
▁85	-8524
▁షె	-8525
గోలు	-8526
చేసే	-8527
టినీ	-8528
నాధ్	-8529
పాలా	-8530
రాతి	-8531
రిక్	-8532
ర్యా	-8533
వారే	-8534
వేలు	-8535
▁ధార	-8536
▁మైన	-8537
▁సంబ	-8538
క్టరీ	-8539
దిత్య	-8540
బజార్	-8541
రవాణి	-8542
ాహ్నం	-8543
▁కథాన	-8544
▁పీఠా	-8545
▁సుధా	-8546
▁హింస	-8547
క్తంగా	-8548
చెట్టు	-8549
యార్క్	-8550
లోనికి	-8551
వారిలో	-8552
ాలలోనూ	-8553
▁1960:	-8554
▁1973:	-8555
▁కన్నె	-8556
▁చింతల	-8557
▁నిబంధ	-8558
▁విరమణ	-8559
▁విశ్ర	-8560
▁వీరేశ	-8561
కేంద్రం	-8562
▁అధిష్ట	-8563
▁ఆకట్టు	-8564
▁కొంచెం	-8565
▁గ్రేడ్	-8566
▁పెన్నా	-8567
▁మందులు	-8568
▁వరల్డ్	-8569
▁ఇంజనీరు	-8570
▁క్రైస్త	-8571
▁జంక్షన్	-8572
▁నాటకాలు	-8573
▁ప్రపంచం	-8574
▁ప్రయాణీ	-8575
▁సమావేశం	-8576
▁సాగింది	-8577
▁చెప్పుకో	-8578
▁పిలువబడే	-8579
▁ప్రతిబిం	-8580
▁మదనపల్లె	-8581
▁చారిత్రిక	-8582
▁నాయకురాలు	-8583
▁పరిధిలోకి	-8584
▁చంద్రశేఖర్	-8585
▁చిత్రాల్లో	-8586
▁చేయబడ్డాయి	-8587
▁నిర్మాణంలో	-8588
▁వికారాబాదు	-8589
▁సరిహద్దులు	-8590
▁గ్రామస్థులు	-8591
▁తీర్చిదిద్ద	-8592
▁యూనివర్శిటీ	-8593
▁నివసిస్తున్న	-8594
hy	-8595
ియ	-8596
ate	-8597
డియ	-8598
మహి	-8599
సంత	-8600
ాగో	-8601
▁54	-8602
▁ధీ	-8603
ఉంది	-8604
కర్మ	-8605
జ్జి	-8606
టంలో	-8607
టులు	-8608
తమ్మ	-8609
థ్యం	-8610
యోగి	-8611
వార్	-8612
వాసు	-8613
సిన్	-8614
స్టీ	-8615
ాంతర	-8616
ీయుల	-8617
▁నెమ	-8618
▁భరత	-8619
▁రాక	-8620
▁వడ్	-8621
▁శతక	-8622
▁సభా	-8623
▁హృద	-8624
నింగ్	-8625
పిళ్ళ	-8626
యున్న	-8627
శిక్ష	-8628
సంచార	-8629
ెక్స్	-8630
్వస్థ	-8631
▁అమాయ	-8632
▁ఆదరణ	-8633
▁కలదు	-8634
▁కొంక	-8635
▁నీలం	-8636
▁ముంద	-8637
▁రీసె	-8638
▁రుచి	-8639
▁లభ్య	-8640
▁సంధి	-8641
▁సామె	-8642
ప్పుడే	-8643
వచ్చని	-8644
▁1984:	-8645
▁అక్రమ	-8646
▁ఆధారి	-8647
▁కళ్ళు	-8648
▁కావలి	-8649
▁గుమ్మ	-8650
▁ప్రసా	-8651
▁బుక్క	-8652
▁రావడం	-8653
▁సత్కర	-8654
ించారని	-8655
▁జర్మన్	-8656
▁నిర్జన	-8657
▁బీహారు	-8658
▁మత్స్య	-8659
▁ములుగు	-8660
▁వైష్ణవ	-8661
▁సీతమ్మ	-8662
కుంటున్న	-8663
▁అవినీతి	-8664
▁ఛందస్సు	-8665
▁తెచ్చిన	-8666
▁నిర్ణయం	-8667
▁విదేశాల	-8668
▁వెంకట్ర	-8669
▁ఢిల్లీలో	-8670
▁పత్రికలో	-8671
▁పరిశ్రమల	-8672
▁సత్యసాయి	-8673
▁కాశీయాత్ర	-8674
▁చేసేందుకు	-8675
▁పాలకొల్లు	-8676
▁పెట్టుబడి	-8677
▁ప్రతిపాదన	-8678
▁సుల్తానుల	-8679
ించినప్పుడు	-8680
▁పట్టణంలోని	-8681
▁సరిహద్దులో	-8682
▁గుర్తించారు	-8683
▁రాష్ట్రపతిగా	-8684
ac	-8685
గై	-8686
సహ	-8687
దనీ	-8688
నాం	-8689
ీలు	-8690
▁ఏల	-8691
▁సవ	-8692
తుడై	-8693
దుపు	-8694
దేవర	-8695
వేణి	-8696
శాలి	-8697
▁ఆన్	-8698
▁ఎగ్	-8699
▁కప్	-8700
▁డైర	-8701
▁తేజ	-8702
▁భుజ	-8703
▁మోహ	-8704
▁రక్	-8705
▁సరళ	-8706
కూడదు	-8707
గించి	-8708
దులను	-8709
పాక్ష	-8710
రులను	-8711
రోజుల	-8712
లింగ్	-8713
వాళ్ళ	-8714
వుంది	-8715
▁1916	-8716
▁1973	-8717
▁ఎదుర	-8718
▁తమకు	-8719
▁తొలు	-8720
▁నక్స	-8721
▁బండి	-8722
▁బాంబ	-8723
▁బీచ్	-8724
▁మహల్	-8725
▁మూడో	-8726
▁లోతు	-8727
▁వరాహ	-8728
▁శీర్	-8729
▁సులభ	-8730
జ్యోతి	-8731
ధురాలు	-8732
వంతంగా	-8733
సాన్ని	-8734
▁1975:	-8735
▁1986:	-8736
▁అభ్యస	-8737
▁అయ్యే	-8738
▁అసమాన	-8739
▁కల్పి	-8740
▁కూడలి	-8741
▁చిలకల	-8742
▁నున్న	-8743
▁పెన్న	-8744
▁భోజనం	-8745
▁ముచ్చ	-8746
▁ముప్ప	-8747
▁వృద్ధ	-8748
▁సమర్ధ	-8749
▁సమస్త	-8750
▁జార్జి	-8751
▁తరచుగా	-8752
▁దశకంలో	-8753
▁నటీమణి	-8754
▁ప్రశ్న	-8755
▁భాగాలు	-8756
▁మెట్రో	-8757
▁రచయితల	-8758
▁హరప్పా	-8759
▁ఆవిష్కర	-8760
▁చక్రవర్	-8761
▁ప్రమాదం	-8762
▁ప్రసన్న	-8763
▁సంబంధిత	-8764
▁కాలక్రమే	-8765
▁చేర్చారు	-8766
▁నిజానికి	-8767
▁బ్రహ్మంగ	-8768
▁భాగాన్ని	-8769
▁వరంగల్లో	-8770
శేఖరరెడ్డి	-8771
▁అంబేద్కర్	-8772
▁రామమూర్తి	-8773
▁వీరబ్రహ్మ	-8774
▁ప్రవేశించి	-8775
▁హాస్యనటుడు	-8776
▁కేంద్రపాలిత	-8777
▁చరిత్రకారులు	-8778
▁నిర్వహించాడు	-8779
▁పాల్గొన్నాడు	-8780
▁ప్రాతినిధ్యం	-8781
▁రాజేశ్వరరావు	-8782
▁విశాఖపట్నంలో	-8783
▁చుట్టుప్రక్కల	-8784
▁నివసిస్తున్నారు	-8785
కౌ	-8786
▁r	-8787
90)	-8788
est	-8789
కగా	-8790
కట్	-8791
మంగ	-8792
రవి	-8793
ష్క	-8794
ాదశ	-8795
▁95	-8796
▁ఎన	-8797
▁లం	-8798
డవైన	-8799
నుడి	-8800
ప్రభ	-8801
వేది	-8802
▁140	-8803
▁ఉభయ	-8804
▁కన్	-8805
▁తొల	-8806
▁మేక	-8807
▁యన్	-8808
▁వచన	-8809
▁శిర	-8810
▁సుగ	-8811
▁సెల	-8812
▁హోమ	-8813
జాతీయ	-8814
దుపరి	-8815
నులను	-8816
రసాని	-8817
ిల్లి	-8818
▁ఇసుక	-8819
▁కమిష	-8820
▁కాళి	-8821
▁క్వి	-8822
▁ఖాళీ	-8823
▁టన్న	-8824
▁డెల్	-8825
▁పంచు	-8826
▁పెరగ	-8827
▁బ్రె	-8828
▁భావం	-8829
▁మరణి	-8830
▁మాండ	-8831
▁ముసు	-8832
▁వాని	-8833
▁హార్	-8834
చ్చన్న	-8835
త్తులో	-8836
దిద్దు	-8837
పట్టణం	-8838
రాలిగా	-8839
▁1955:	-8840
▁1956:	-8841
▁అభయార	-8842
▁అరుణా	-8843
▁గుండు	-8844
▁తీరాన	-8845
▁దిశలో	-8846
▁నుంచే	-8847
▁నువ్వ	-8848
▁పువ్వ	-8849
▁రోదసీ	-8850
▁వర్క్	-8851
▁వాటర్	-8852
ించడంలో	-8853
▁అలవాటు	-8854
▁గుత్తి	-8855
▁జ్ఞాపక	-8856
▁నగరాలు	-8857
▁రోజును	-8858
▁వెళ్లే	-8859
▁స్టార్	-8860
విష్ణువు	-8861
▁ఆవిర్భవ	-8862
▁పనిచేసే	-8863
▁పెద్దలు	-8864
▁వ్యాసాల	-8865
▁కందుకూరి	-8866
▁ధర్మపురి	-8867
▁పత్రికలు	-8868
▁పద్ధతిలో	-8869
▁ఉపయోగించి	-8870
▁మొదటిసారి	-8871
▁విశ్వనాథ్	-8872
▁పెద్దపల్లి	-8873
▁స్నేహితుడు	-8874
▁యూనివర్సిటీ	-8875
▁శాసనసభ్యుడు	-8876
▁ఉపరాష్ట్రపతి	-8877
▁కృష్ణశాస్త్రి	-8878
▁ప్రభుత్వాన్ని	-8879
▁నాగార్జునసాగర్	-8880
SB	-8881
ah	-8882
హణ	-8883
ubl	-8884
కంఠ	-8885
తార	-8886
దనం	-8887
దార	-8888
వంశ	-8889
ాగం	-8890
▁73	-8891
▁En	-8892
▁యల	-8893
▁షూ	-8894
ందనే	-8895
కిల్	-8896
గాది	-8897
దుంప	-8898
పేస్	-8899
భక్త	-8900
మిడి	-8901
రాదు	-8902
శిల్	-8903
▁18,	-8904
▁21,	-8905
▁అమృ	-8906
▁కృత	-8907
▁ఖరీ	-8908
▁ఘోర	-8909
▁చదవ	-8910
▁దుర	-8911
▁పతన	-8912
▁పదే	-8913
▁బడి	-8914
▁మెడ	-8915
▁మేళ	-8916
▁రత్	-8917
▁లాం	-8918
▁హేమ	-8919
కల్లో	-8920
గొట్ట	-8921
జేషన్	-8922
షింగ్	-8923
సంబంధ	-8924
ాంశాల	-8925
ించని	-8926
ృత్తి	-8927
ోత్తమ	-8928
▁ఇటీవ	-8929
▁ఎవరూ	-8930
▁గొడవ	-8931
▁చిలక	-8932
▁చేపల	-8933
▁పరమా	-8934
▁మీనా	-8935
▁రేవు	-8936
▁వంశం	-8937
▁వివా	-8938
.2013)	-8939
కుమారు	-8940
జ్ఞానం	-8941
యోధులు	-8942
ించడమే	-8943
▁1945:	-8944
▁2010:	-8945
▁అంతటా	-8946
▁గుహలు	-8947
▁జీర్ణ	-8948
▁పండిత	-8949
▁పనికి	-8950
▁మాండల	-8951
▁వార్త	-8952
▁సోదరి	-8953
వరంలోను	-8954
▁అందంగా	-8955
▁అడవిలో	-8956
▁అధినేత	-8957
▁అలాంటి	-8958
▁కౌన్సి	-8959
▁చిన్ని	-8960
▁నాలుగవ	-8961
▁పార్క్	-8962
▁విద్యు	-8963
▁శైలిలో	-8964
▁హిరణ్య	-8965
........	-8966
పెట్టాడు	-8967
▁ఆధారపడి	-8968
▁ఆయకట్టు	-8969
▁ఎంపికైన	-8970
▁తెలియని	-8971
▁నగరాలలో	-8972
▁పెరిగిన	-8973
▁బుధవారం	-8974
▁వ్యతిరే	-8975
▁సదుపాయం	-8976
▁కథానాయిక	-8977
▁చరిత్రను	-8978
▁నిపుణులు	-8979
▁పోలిస్తే	-8980
▁బెంగళూరు	-8981
▁ముహమ్మద్	-8982
▁సింహాసనం	-8983
▁చెన్నకేశవ	-8984
▁చెబుతుంది	-8985
▁యూరోపియన్	-8986
▁పుట్టపర్తి	-8987
▁రుద్రమదేవి	-8988
▁విధానాన్ని	-8989
▁నరసింహారెడ్డి	-8990
చం	-8991
అమె	-8992
జనా	-8993
భవి	-8994
సుర	-8995
ాడట	-8996
ోదయ	-8997
జివీ	-8998
మంటే	-8999
▁179	-9000
▁ఒంట	-9001
▁కాట	-9002
▁దీప	-9003
▁నవర	-9004
▁ముర	-9005
▁మోస	-9006
▁వేగ	-9007
కత్వం	-9008
ధారిత	-9009
య్యకు	-9010
ేవారి	-9011
▁1910	-9012
▁1921	-9013
▁1932	-9014
▁2018	-9015
▁గన్న	-9016
▁గుడ్	-9017
▁దురా	-9018
▁నమోద	-9019
▁నీకు	-9020
▁నేనే	-9021
▁పాడే	-9022
▁బావి	-9023
▁బాహు	-9024
▁సయ్య	-9025
ంటున్న	-9026
భిషేకం	-9027
ించేది	-9028
▁2007.	-9029
▁2011:	-9030
▁అగ్రహ	-9031
▁కూటమి	-9032
▁గట్టు	-9033
▁గౌరవం	-9034
▁చోట్ల	-9035
▁జగపతి	-9036
▁నదిని	-9037
▁నియామ	-9038
▁రెండి	-9039
▁వల్లభ	-9040
▁వినిప	-9041
▁వైదిక	-9042
పాధ్యాయ	-9043
పోతున్న	-9044
ానాయుడు	-9045
ించుటకు	-9046
▁అభిషేక	-9047
▁ఉత్సవం	-9048
▁కావ్యం	-9049
▁కుదిరి	-9050
▁గుర్రం	-9051
▁తీసుకె	-9052
▁నెల్లి	-9053
▁నొప్పి	-9054
▁పండించ	-9055
▁ప్రసంగ	-9056
▁బాలికల	-9057
▁బ్లాక్	-9058
▁మంజూరు	-9059
▁వీటికి	-9060
▁సివిల్	-9061
పాలపల్లి	-9062
ఫిబ్రవరి	-9063
▁ఇబ్బంది	-9064
▁నాందేడ్	-9065
▁పెద్దది	-9066
▁రూపొంది	-9067
▁వెల్లడి	-9068
▁శీర్షిక	-9069
▁ఉంటుందని	-9070
▁వెలువడిన	-9071
▁కళాకారిణి	-9072
▁నటించింది	-9073
▁పెట్టింది	-9074
▁భావించారు	-9075
▁మొట్టమొదట	-9076
▁రోజులపాటు	-9077
▁వరలక్ష్మి	-9078
▁అనువాదకుడు	-9079
▁యుద్ధానికి	-9080
▁విభజించారు	-9081
▁సమకూర్చాడు	-9082
▁సమాచారాన్ని	-9083
▁వార్షికోత్సవం	-9084
▁వీరబ్రహ్మేంద్ర	-9085
యై	-9086
-13	-9087
-14	-9088
ith	-9089
దను	-9090
మిత	-9091
రన్	-9092
ాయో	-9093
▁(2	-9094
▁II	-9095
▁జట	-9096
▁పఠ	-9097
▁వధ	-9098
క్సు	-9099
జూన్	-9100
ప్ట్	-9101
బులు	-9102
బెట్	-9103
భూషణ	-9104
మెంట	-9105
రులో	-9106
లలిత	-9107
వేసి	-9108
సిస్	-9109
సెఫ్	-9110
ాయర్	-9111
▁119	-9112
▁515	-9113
▁అడు	-9114
▁కలం	-9115
▁గాక	-9116
▁తగ్	-9117
▁వసు	-9118
▁వీణ	-9119
▁శిల	-9120
▁హయా	-9121
గ్రంథ	-9122
గ్వేద	-9123
టట్లు	-9124
పట్టు	-9125
భిన్న	-9126
ముంది	-9127
ూర్లో	-9128
▁ఉంచి	-9129
▁డెవల	-9130
▁దక్ష	-9131
▁నష్ట	-9132
▁పాము	-9133
▁పులు	-9134
▁హాల్	-9135
చేశాడు	-9136
మార్గం	-9137
మీదుగా	-9138
ాలన్నీ	-9139
ేడ్కర్	-9140
▁1920:	-9141
▁1939:	-9142
▁1947:	-9143
▁అవధాన	-9144
▁చెరకు	-9145
▁డయాబె	-9146
▁దీంతో	-9147
▁నమ్ము	-9148
▁నాటకర	-9149
▁నివార	-9150
▁పడమటి	-9151
▁భాగ్య	-9152
▁వారసు	-9153
▁విటమి	-9154
▁సమగ్ర	-9155
▁సాధ్య	-9156
న్నింటి	-9157
శివరావు	-9158
▁అదనంగా	-9159
▁ఇంజినీ	-9160
▁కోట్లు	-9161
▁గ్రానై	-9162
▁తీసుకొ	-9163
▁నీటిలో	-9164
▁పనిచేయ	-9165
▁పాలకుల	-9166
▁పిచ్చి	-9167
▁బహుముఖ	-9168
▁బాక్సా	-9169
▁రాజరాజ	-9170
▁వర్గాల	-9171
▁విమానం	-9172
▁హక్కుల	-9173
ర్య్వస్థ	-9174
▁వస్తాయి	-9175
▁సముదాయం	-9176
▁స్థలంలో	-9177
స్టిండియా	-9178
▁తొలిసారి	-9179
▁ప్రదేశాల	-9180
▁మార్గాలు	-9181
▁వంశానికి	-9182
▁విమర్శలు	-9183
▁విశేషంగా	-9184
▁సన్నివేశ	-9185
▁అత్యుత్తమ	-9186
▁చిత్రాలకు	-9187
▁కల్వకుంట్ల	-9188
▁కృష్ణారావు	-9189
▁నాగిరెడ్డి	-9190
▁విస్తృతంగా	-9191
పబ్లికేషన్స్	-9192
▁అధికారంలోకి	-9193
▁గుంటూరులోను	-9194
▁విద్యాసంస్థ	-9195
▁చెన్నారెడ్డి	-9196
▁నియోజకవర్గంలో	-9197
లయ	-9198
వయ	-9199
-10	-9200
.16	-9201
SBN	-9202
out	-9203
పని	-9204
బిన	-9205
లోన	-9206
ేని	-9207
▁ఇల	-9208
▁ఏం	-9209
▁ఘో	-9210
▁చద	-9211
.185	-9212
డును	-9213
దలకు	-9214
దిలి	-9215
పోతే	-9216
బిక్	-9217
మాంబ	-9218
రేవు	-9219
ికల్	-9220
▁24,	-9221
▁ఆగి	-9222
▁ఆలం	-9223
▁ఏది	-9224
▁కలగ	-9225
▁కలప	-9226
▁తాళ	-9227
▁నను	-9228
▁పలక	-9229
▁భూష	-9230
▁సమూ	-9231
కోవటం	-9232
మర్తి	-9233
▁అనాథ	-9234
▁ఆద్య	-9235
▁కుండ	-9236
▁కోరి	-9237
▁చిక్	-9238
▁జమున	-9239
▁టాటా	-9240
▁దళిత	-9241
▁దాడు	-9242
▁దారు	-9243
▁భ్రమ	-9244
▁మంచు	-9245
▁మృతి	-9246
▁వడ్డ	-9247
▁వాగ్	-9248
▁హసన్	-9249
ఈశ్వరి	-9250
చేసారు	-9251
మార్చి	-9252
స్తూనే	-9253
▁1950:	-9254
▁అంకిత	-9255
▁కలిగే	-9256
▁కొండా	-9257
▁దిశగా	-9258
▁దేశము	-9259
▁పప్పు	-9260
▁పాతాళ	-9261
▁మల్లా	-9262
చున్నవి	-9263
లక్ష్మణ	-9264
▁అంజయ్య	-9265
▁అంశాలు	-9266
▁అభిమాన	-9267
▁జరిపిన	-9268
▁జైలులో	-9269
▁తదుపరి	-9270
▁పొడవైన	-9271
▁వీధిలో	-9272
▁History	-9273
▁అంతస్తు	-9274
▁అచ్యుతర	-9275
▁ఇంగ్లాం	-9276
▁కారాగార	-9277
▁కాలక్రమ	-9278
▁శ్రీశైల	-9279
▁సమస్యలు	-9280
▁అమ్మవారు	-9281
▁నాగేంద్ర	-9282
▁భగవంతుడు	-9283
▁భాగస్వామ	-9284
▁వేములవాడ	-9285
▁అమెరికాకు	-9286
▁ఆర్థికంగా	-9287
▁పరిపాలనలో	-9288
▁ప్రొఫెసర్	-9289
▁మరణానంతరం	-9290
▁సభ్యునిగా	-9291
▁అధికారాన్ని	-9292
▁ఉన్నప్పటికీ	-9293
▁రాష్ట్రాలలో	-9294
▁పుణ్యక్షేత్రాలు	-9295
గర	-9296
ana	-9297
గుళ	-9298
నరీ	-9299
లకి	-9300
ేశం	-9301
▁పల	-9302
ండరీ	-9303
కాశ్	-9304
గుండ	-9305
దేవ్	-9306
లాడు	-9307
వేర్	-9308
సీలు	-9309
▁17,	-9310
▁25,	-9311
▁అగు	-9312
▁అసి	-9313
▁ఉరి	-9314
▁ఛాన	-9315
▁లంక	-9316
▁వాక	-9317
▁వాస	-9318
▁శైవ	-9319
గ్గేయ	-9320
టింగు	-9321
విధాన	-9322
వులతో	-9323
స్తాం	-9324
▁1900	-9325
▁1937	-9326
▁1959	-9327
▁అమృత	-9328
▁చర్మ	-9329
▁తేడా	-9330
▁పెంప	-9331
▁మిరప	-9332
▁ముది	-9333
▁రోహి	-9334
▁సుదీ	-9335
▁సూచన	-9336
▁సైన్	-9337
పెట్టు	-9338
భాగంలో	-9339
▁1936:	-9340
▁1969:	-9341
▁1974:	-9342
▁2006:	-9343
▁2007:	-9344
▁2015:	-9345
▁అల్లా	-9346
▁కొలంబ	-9347
▁తొలుత	-9348
▁థామస్	-9349
▁నడిచే	-9350
▁పబ్లి	-9351
▁పరిమా	-9352
▁పీటర్	-9353
▁పేటెం	-9354
▁మధుమే	-9355
▁సాగిన	-9356
▁కోనసీమ	-9357
▁గూర్చి	-9358
▁చక్కగా	-9359
▁చేర్చి	-9360
▁జయప్రద	-9361
▁నాగయ్య	-9362
▁నిన్ను	-9363
▁నిర్మల	-9364
▁ప్రారం	-9365
▁బియ్యం	-9366
▁ముక్కు	-9367
▁యుగంలో	-9368
ందించారు	-9369
భాగాన్ని	-9370
ర్యాలగూడ	-9371
▁గ్రంథాల	-9372
▁డిగ్రీల	-9373
▁తద్వారా	-9374
▁వాగ్గేయ	-9375
▁గుర్తుగా	-9376
▁నృత్యాలు	-9377
▁ఫ్రాన్స్	-9378
▁బీజాపూర్	-9379
▁రామరాయలు	-9380
గ్రామానికి	-9381
▁కాంతారావు	-9382
▁గ్రామాలను	-9383
▁తీసుకున్న	-9384
▁నారాయణపేట	-9385
▁ప్రచారంలో	-9386
▁మండలాన్ని	-9387
▁వచ్చిందని	-9388
▁సముద్రంలో	-9389
▁ఈస్టిండియా	-9390
▁ఉద్యమాన్ని	-9391
▁పెంచడానికి	-9392
▁ముస్లిములు	-9393
▁సంస్కృతంలో	-9394
▁కేంద్రాన్ని	-9395
▁పేర్కొన్నాడు	-9396
▁ప్రచురించాడు	-9397
▁సాహిత్యాన్ని	-9398
▁సముద్రమట్టానికి	-9399
":	-9400
ip	-9401
ly	-9402
భౌ	-9403
సౌ	-9404
▁!	-9405
కామ	-9406
జిత	-9407
జిన	-9408
నంద	-9409
బండ	-9410
మత్	-9411
మరణ	-9412
వేళ	-9413
హ్య	-9414
ీతం	-9415
▁),	-9416
▁62	-9417
▁72	-9418
▁81	-9419
జిని	-9420
టెన్	-9421
ణిలో	-9422
ప్టు	-9423
ఫోర్	-9424
మన్న	-9425
మేక్	-9426
రూపం	-9427
లిక్	-9428
విడ్	-9429
ిండి	-9430
▁175	-9431
▁అప్	-9432
▁అహో	-9433
▁ఆసి	-9434
▁కదల	-9435
▁ఘనత	-9436
▁డీఏ	-9437
▁భజన	-9438
▁మెజ	-9439
▁హరీ	-9440
ందులో	-9441
మంత్ర	-9442
రులకు	-9443
ాంజలి	-9444
ోగ్రా	-9445
▁అనుచ	-9446
▁అమలా	-9447
▁అరుణ	-9448
▁కంచి	-9449
▁కమల్	-9450
▁కుంట	-9451
▁కుటు	-9452
▁చంపి	-9453
▁జరిప	-9454
▁టాకీ	-9455
▁టౌన్	-9456
▁నాల్	-9457
▁నైపు	-9458
▁రాసు	-9459
▁రెడ్	-9460
▁వదలి	-9461
▁వేయి	-9462
▁శాఖా	-9463
▁స్టు	-9464
▁స్థూ	-9465
గ్రామం	-9466
చుకొని	-9467
▁1931:	-9468
▁1948:	-9469
▁1961:	-9470
▁1971:	-9471
▁2019:	-9472
▁అమ్ము	-9473
▁ఎదుర్	-9474
▁కలిసే	-9475
▁నవ్వు	-9476
▁నిరోధ	-9477
▁నిలయం	-9478
▁పరుగు	-9479
▁మించి	-9480
▁వసూలు	-9481
▁వస్తే	-9482
▁స్నేహ	-9483
▁అతనుకు	-9484
▁నివాసం	-9485
▁నూజివీ	-9486
▁మారుతీ	-9487
▁మెరుగు	-9488
▁రచనలలో	-9489
▁వార్తా	-9490
▁సంరక్ష	-9491
▁సయ్యద్	-9492
▁హాస్పి	-9493
▁అనుగ్రహ	-9494
▁అనేవారు	-9495
▁ఆడపిల్ల	-9496
▁జంధ్యాల	-9497
▁తల్లికి	-9498
▁తీర్మాన	-9499
▁తొలితరం	-9500
▁ద్రావిడ	-9501
▁పరుచూరి	-9502
▁బహుభాషా	-9503
▁శక్తిని	-9504
▁సూక్ష్మ	-9505
▁నరసాపురం	-9506
▁మహాభారతం	-9507
▁రూపాంతరం	-9508
▁స్నేహితు	-9509
▁తాత్కాలిక	-9510
▁బ్రహ్మాండ	-9511
▁సాధించారు	-9512
▁కుటుంబరావు	-9513
▁తెలుగులోకి	-9514
▁వస్తుంటారు	-9515
▁పునర్య్వస్థ	-9516
▁సంవత్సరములు	-9517
▁నారాయణరెడ్డి	-9518
▁తల్లిదండ్రులు	-9519
▁పునర్నిర్మాణం	-9520
▁రాజమహేంద్రవరం	-9521
up	-9522
భో	-9523
ుడ	-9524
%),	-9525
ect	-9526
omp	-9527
ంసం	-9528
టమే	-9529
టాల	-9530
తతో	-9531
పదం	-9532
భ్య	-9533
మంట	-9534
యను	-9535
ర్ష	-9536
లస్	-9537
ికం	-9538
▁is	-9539
▁యమ	-9540
▁వో	-9541
▁శర	-9542
తత్వ	-9543
పెన్	-9544
మూడి	-9545
లినా	-9546
వాడి	-9547
ించె	-9548
▁101	-9549
▁20,	-9550
▁అరణ	-9551
▁ఉమా	-9552
▁కరా	-9553
▁ఖైద	-9554
▁జన్	-9555
▁డిజ	-9556
▁తెగ	-9557
▁బల్	-9558
▁యాం	-9559
▁యాజ	-9560
▁హెన	-9561
గట్టు	-9562
త్తున	-9563
ద్దరు	-9564
పాలలో	-9565
పుల్ల	-9566
భట్టు	-9567
రాజుల	-9568
ికంగా	-9569
ెట్లు	-9570
▁1945	-9571
▁ఆకలి	-9572
▁కంది	-9573
▁కఠిన	-9574
▁కర్ర	-9575
▁కవుల	-9576
▁కాండ	-9577
▁కిమీ	-9578
▁గుల్	-9579
▁నందు	-9580
▁నైరు	-9581
▁పంది	-9582
▁పగటి	-9583
▁మాసం	-9584
▁యక్ష	-9585
▁రాగి	-9586
▁రౌడీ	-9587
▁లాగా	-9588
▁వింత	-9589
▁శీతా	-9590
▁సేనా	-9591
▁హర్య	-9592
ందువలన	-9593
కారంలో	-9594
పూర్లో	-9595
మయింది	-9596
సెట్టి	-9597
▁2013:	-9598
▁కాస్త	-9599
▁గమనిక	-9600
▁టర్కీ	-9601
▁తట్టు	-9602
▁పలుకు	-9603
▁బహుశా	-9604
▁ముట్ట	-9605
▁మేనేజ	-9606
▁వైకుం	-9607
▁శరీరం	-9608
రాఘవులు	-9609
▁అధ్యయన	-9610
▁ఉపయోగి	-9611
▁కేసులో	-9612
▁దగ్గరి	-9613
▁ద్రవ్య	-9614
▁పిలిచే	-9615
▁పుట్టు	-9616
▁బొగ్గు	-9617
▁మాసంలో	-9618
▁వెయ్యి	-9619
▁వేగంగా	-9620
▁స్వల్ప	-9621
ప్రభుత్వ	-9622
రాజేంద్ర	-9623
విశ్వనాథ	-9624
▁కర్నూల్	-9625
▁చైర్మన్	-9626
▁తిరస్కర	-9627
▁నామకరణం	-9628
▁నిర్వాహ	-9629
▁పురస్కర	-9630
▁పోతుంది	-9631
▁యువరాజు	-9632
▁వేడుకలు	-9633
▁అక్షరాలు	-9634
▁కొనుగోలు	-9635
▁చూడవచ్చు	-9636
▁దుస్తులు	-9637
▁నాటకకర్త	-9638
▁ప్రాణాలు	-9639
▁మంత్రులు	-9640
▁రీసెర్చ్	-9641
▁శివలింగం	-9642
▁సుల్తానే	-9643
▁కొండపల్లి	-9644
▁న్యాయమూర్	-9645
▁మునిసిపల్	-9646
▁రామస్వామి	-9647
▁శివరాత్రి	-9648
▁సంపాదకులు	-9649
▁స్వతంత్రం	-9650
నరసింహారావు	-9651
▁న్యూయార్క్	-9652
▁ప్రారంభమైన	-9653
▁ప్రొడక్షన్	-9654
▁భౌగోళికంగా	-9655
▁మిర్యాలగూడ	-9656
▁వీరేశలింగం	-9657
▁కమ్యూనిస్ట్	-9658
▁ప్రభుత్వంలో	-9659
▁మధ్యప్రదేశ్	-9660
▁మార్చబడింది	-9661
▁చారిత్రాత్మక	-9662
▁ప్రొద్దుటూరు	-9663
▁తెలుస్తున్నది	-9664
ఫో	-9665
బర	-9666
ంస్	-9667
కస్	-9668
గాం	-9669
మాత	-9670
సభా	-9671
సరా	-9672
ాయన	-9673
ులై	-9674
▁68	-9675
▁69	-9676
▁తృ	-9677
over	-9678
కైనా	-9679
టారు	-9680
తాను	-9681
తాప్	-9682
పత్ర	-9683
మిది	-9684
మోహన	-9685
ర్పి	-9686
లేదా	-9687
లైట్	-9688
సారం	-9689
▁590	-9690
▁కంచ	-9691
▁గర్	-9692
▁ఛాం	-9693
▁పతి	-9694
▁మఠం	-9695
▁శకం	-9696
▁సమై	-9697
క్షలు	-9698
తుంటే	-9699
భారతి	-9700
మంతటా	-9701
విజయం	-9702
వున్న	-9703
సరస్వ	-9704
సరికి	-9705
▁1958	-9706
▁1963	-9707
▁అఖిల	-9708
▁ఆఖరి	-9709
▁ఎవరో	-9710
▁కలుగ	-9711
▁కొలి	-9712
▁గోధు	-9713
▁దానం	-9714
▁నాదె	-9715
▁బాటు	-9716
▁మనకి	-9717
▁మనము	-9718
▁మూసీ	-9719
▁మెక్	-9720
▁రాయబ	-9721
▁వికీ	-9722
.1920)	-9723
.2012)	-9724
.2017)	-9725
ందరికీ	-9726
భ్యాసం	-9727
లమడుగు	-9728
ష్టమైన	-9729
్యాలను	-9730
▁1949:	-9731
▁1952:	-9732
▁ఊరగాయ	-9733
▁చేయటం	-9734
▁తిప్ప	-9735
▁నిలువ	-9736
▁మల్లి	-9737
▁మహమ్మ	-9738
▁ముద్ద	-9739
▁రాధిక	-9740
▁వైరస్	-9741
▁సంతాన	-9742
భిప్రాయ	-9743
▁ఆశ్రమం	-9744
▁కమిషన్	-9745
▁కిందకు	-9746
▁చక్కెర	-9747
▁డెవలప్	-9748
▁పద్మనా	-9749
▁మాదిరి	-9750
▁ముద్రణ	-9751
▁మేనమామ	-9752
▁విచారణ	-9753
▁స్కూలు	-9754
▁స్నానం	-9755
త్యాన్ని	-9756
▁అందించే	-9757
▁ఒకేసారి	-9758
▁కస్తూరి	-9759
▁గుండమ్మ	-9760
▁దర్శనమి	-9761
▁ప్రెసిడ	-9762
▁భక్తుడు	-9763
▁మహారాజా	-9764
▁హనుమాన్	-9765
▁ఆలయంలోని	-9766
▁గ్రహించి	-9767
▁నిఘంటువు	-9768
▁మిక్కిలి	-9769
▁రామాయణము	-9770
▁శాసనసభకు	-9771
▁శాసనసభలో	-9772
▁స్టుడియో	-9773
రామిరెడ్డి	-9774
స్తున్నాడు	-9775
▁అంబేడ్కర్	-9776
▁పద్మభూషణ్	-9777
▁వ్యవస్థను	-9778
▁సంప్రదాయం	-9779
▁సంస్కృతము	-9780
▁సిద్ధిపేట	-9781
▁విగ్రహాలను	-9782
▁విమర్శకులు	-9783
▁విశ్వేశ్వర	-9784
▁రాధాకృష్ణన్	-9785
▁సంవత్సరాలకు	-9786
▁ప్రజాస్వామ్య	-9787
ణె	-9788
సొ	-9789
19)	-9790
end	-9791
fic	-9792
rom	-9793
ంతి	-9794
డన్	-9795
ధ్వ	-9796
రాధ	-9797
వెల	-9798
ికే	-9799
▁at	-9800
▁th	-9801
▁ఖో	-9802
▁భే	-9803
olog	-9804
గాకు	-9805
ణులు	-9806
తూనే	-9807
నియు	-9808
మురు	-9809
యేట్	-9810
రుసు	-9811
ర్గత	-9812
లుడు	-9813
ల్లీ	-9814
వాయు	-9815
ాలైన	-9816
▁176	-9817
▁22,	-9818
▁ఆచర	-9819
▁ఆదర	-9820
▁ఇవే	-9821
▁ఎలె	-9822
▁కథల	-9823
▁గాల	-9824
▁చిం	-9825
▁చీర	-9826
▁చెర	-9827
▁దృశ	-9828
▁నకు	-9829
▁నిమ	-9830
▁పటి	-9831
▁వాల	-9832
▁సీమ	-9833
ంచేసి	-9834
క్రియ	-9835
చందర్	-9836
టికల్	-9837
దవోలు	-9838
భద్రా	-9839
భూషణం	-9840
ల్సన్	-9841
▁1938	-9842
▁ఇంకో	-9843
▁కళలు	-9844
▁క్రా	-9845
▁దట్ట	-9846
▁బెర్	-9847
▁మూర్	-9848
▁మేరీ	-9849
▁విలా	-9850
▁సమూహ	-9851
▁సెల్	-9852
▁స్తు	-9853
జిల్లా	-9854
తరువాత	-9855
త్తిడి	-9856
రంగంలో	-9857
విధంగా	-9858
ించబడు	-9859
▁1946:	-9860
▁1964:	-9861
▁1970:	-9862
▁1980:	-9863
▁1981:	-9864
▁1983:	-9865
▁1991:	-9866
▁2018:	-9867
▁అద్దె	-9868
▁ఆవిష్	-9869
▁ఇన్సు	-9870
▁కన్యా	-9871
▁కాంతి	-9872
▁తిన్న	-9873
▁ధర్మం	-9874
▁పర్యట	-9875
▁బర్మా	-9876
▁వంకాయ	-9877
▁విభేద	-9878
▁వేంగి	-9879
▁సామంత	-9880
తెలంగాణ	-9881
సనాన్ని	-9882
▁అల్లరి	-9883
▁ఇతనికి	-9884
▁నృసింహ	-9885
▁పర్వతం	-9886
▁పర్వము	-9887
▁పోలవరం	-9888
▁రచించి	-9889
▁హిమాలయ	-9890
క్ట్రాని	-9891
▁ఎప్పుడు	-9892
▁బెంగాలు	-9893
▁విడుదలై	-9894
▁శరీరంలో	-9895
▁సుదీర్ఘ	-9896
ప్రాంతంలో	-9897
▁అనేకమంది	-9898
▁కూరగాయలు	-9899
▁గురువారం	-9900
▁త్రిపురా	-9901
▁నక్షత్రం	-9902
▁ప్రాంతపు	-9903
▁మెజారిటీ	-9904
▁రాజశేఖర్	-9905
▁విలసిల్ల	-9906
సత్యనారాయణ	-9907
▁చిత్రీకరణ	-9908
▁ప్రమాదంలో	-9909
▁ముస్లింలు	-9910
▁అసోసియేషన్	-9911
▁దర్శకుడిగా	-9912
▁నిర్వహించే	-9913
▁ప్యాసింజర్	-9914
▁ప్రదర్శనలు	-9915
▁కిన్నెరసాని	-9916
▁విద్వాంసులు	-9917
▁శక్తివంతమైన	-9918
▁పనిచేస్తుంది	-9919
▁ప్రచురించారు	-9920
▁సృష్టించింది	-9921
▁రామకృష్ణారావు	-9922
▁శాస్త్రవేత్తలు	-9923
0%	-9924
చక	-9925
దట	-9926
వళ	-9927
▁’	-9928
23)	-9929
ain	-9930
ell	-9931
శనగ	-9932
సమే	-9933
ాయా	-9934
ేలు	-9935
▁9.	-9936
▁97	-9937
▁అజ	-9938
▁జొ	-9939
క్వా	-9940
టంటే	-9941
డోస్	-9942
తుండ	-9943
త్రీ	-9944
దిలీ	-9945
ధిగా	-9946
ధిని	-9947
పిల్	-9948
లిని	-9949
ారంగ	-9950
▁588	-9951
▁ఋతు	-9952
▁కోయ	-9953
▁తరం	-9954
▁నవీ	-9955
▁పుం	-9956
▁మరె	-9957
▁మొహ	-9958
▁లక్	-9959
▁లఘు	-9960
ంద్రత	-9961
కన్నడ	-9962
చెన్న	-9963
భాషలో	-9964
ర్చిన	-9965
ారామం	-9966
్రాన్	-9967
▁1939	-9968
▁కాకర	-9969
▁కాఫీ	-9970
▁గుంత	-9971
▁చూచి	-9972
▁డిజి	-9973
▁తమ్మ	-9974
▁తిరి	-9975
▁దేవీ	-9976
▁పూజి	-9977
▁భీష్	-9978
▁రాయచ	-9979
▁రాసి	-9980
▁షిప్	-9981
దాద్రి	-9982
దూరంలో	-9983
పరేషన్	-9984
ేవారని	-9985
▁1953:	-9986
▁1982:	-9987
▁1989:	-9988
▁అధికం	-9989
▁ఒకటైన	-9990
▁చెళ్ళ	-9991
▁నవలలు	-9992
▁నాణ్య	-9993
▁నాశనం	-9994
▁మిషన్	-9995
▁వ్యంగ	-9996
▁సంచలన	-9997
▁సంతకం	-9998
తిరుపతి	-9999
ప్పటికి	-10000
▁కట్టిన	-10001
▁కోరాడు	-10002
▁చల్లని	-10003
▁చేసుకొ	-10004
▁జయించి	-10005
▁జోసెఫ్	-10006
▁దొరుకు	-10007
▁నిరంతర	-10008
▁నిలిపి	-10009
▁పదార్ధ	-10010
▁పుష్కర	-10011
▁భాగవతం	-10012
▁మహాకవి	-10013
▁మాధ్యమ	-10014
▁రాజును	-10015
▁వీడియో	-10016
▁శ్రావణ	-10017
ణిస్తారు	-10018
ోద్యమంలో	-10019
▁అత్యవసర	-10020
▁ఉదయగిరి	-10021
▁పనిచేసి	-10022
▁మీటర్లు	-10023
▁రూపకల్ప	-10024
▁వుంటాయి	-10025
▁అక్కడికి	-10026
▁ఆధిపత్యం	-10027
▁ఆయుర్వేద	-10028
▁ఇస్తుంది	-10029
▁చార్లెస్	-10030
▁చిలకలూరి	-10031
▁జిల్లాగా	-10032
▁దేశాన్ని	-10033
▁నిజాయితీ	-10034
▁నిపుణుడు	-10035
▁పర్యాటకు	-10036
▁పర్వతాలు	-10037
▁భూభాగంలో	-10038
▁ఇన్సులిన్	-10039
▁ఏర్పాటులో	-10040
▁కాంగ్రేసు	-10041
▁చేరుతుంది	-10042
▁నర్సాపూర్	-10043
▁పరిశోధనలు	-10044
▁మంచిర్యాల	-10045
▁సామర్థ్యం	-10046
▁హనుమంతుడు	-10047
▁పునర్నిర్మ	-10048
▁రామబ్రహ్మం	-10049
▁రూపుదిద్దు	-10050
▁ప్రారంభమైనది	-10051
▁వచ్చినప్పుడు	-10052
▁స్థాపించబడిన	-10053
▁రాజకీయనాయకుడు	-10054
▁లక్ష్మీనారాయణ	-10055
ec	-10056
గౌ	-10057
▁ఠ	-10058
orm	-10059
గిల	-10060
ఘంట	-10061
తమై	-10062
పత్	-10063
బల్	-10064
లంబ	-10065
వలస	-10066
ోత్	-10067
▁67	-10068
▁84	-10069
▁St	-10070
ఖాన్	-10071
గితే	-10072
చ్ఛి	-10073
డ్జి	-10074
తిన్	-10075
దేవు	-10076
నమ్మ	-10077
నామా	-10078
పిడి	-10079
మెన్	-10080
మైతే	-10081
యామి	-10082
రోజూ	-10083
ర్జీ	-10084
వికా	-10085
విన్	-10086
సర్వ	-10087
హుతి	-10088
▁అసా	-10089
▁ఆశీ	-10090
▁ఊర్	-10091
▁ఐటీ	-10092
▁కరి	-10093
▁కేశ	-10094
▁గల్	-10095
▁గావ	-10096
▁మళ్	-10097
▁మ్ర	-10098
▁లాభ	-10099
త్విక	-10100
పాలకు	-10101
ళ్లను	-10102
ానికై	-10103
ేషియా	-10104
▁1976	-10105
▁అసఫ్	-10106
▁క్షీ	-10107
▁చూసే	-10108
▁తుపా	-10109
▁ద్రవ	-10110
▁నడుమ	-10111
▁నారా	-10112
▁నైవే	-10113
▁పలిక	-10114
▁పునః	-10115
▁మాన్	-10116
▁రచనల	-10117
▁సైట్	-10118
.1928)	-10119
.1936)	-10120
కారాలు	-10121
త్తీస్	-10122
త్తుగా	-10123
త్తూరు	-10124
ద్వారం	-10125
నాటికి	-10126
నిర్జన	-10127
న్నపేట	-10128
సురుడు	-10129
▁ఇతివృ	-10130
▁చీకటి	-10131
▁చేయగా	-10132
▁తప్పి	-10133
▁తీసిక	-10134
▁నెమ్మ	-10135
▁నేర్ప	-10136
▁బహమనీ	-10137
▁బాంబే	-10138
▁మైళ్ళ	-10139
▁విడదీ	-10140
▁విహార	-10141
▁సీతను	-10142
▁సుమన్	-10143
ంబాన్ని	-10144
పోవడంతో	-10145
ాలీవుడ్	-10146
▁అప్పుడ	-10147
▁ఋగ్వేద	-10148
▁ఒకరోజు	-10149
▁కలిసిన	-10150
▁కీర్తన	-10151
▁కుంకుమ	-10152
▁గాంధేయ	-10153
▁గ్రీకు	-10154
▁గ్రేట్	-10155
▁చావ్లా	-10156
▁జార్జ్	-10157
▁టిప్పు	-10158
▁తత్త్వ	-10159
▁నిత్యం	-10160
▁నిశ్చయ	-10161
▁నువ్వు	-10162
▁పడతాడు	-10163
▁ప్రాణం	-10164
▁ప్రేరణ	-10165
▁బంగారం	-10166
▁మాస్కో	-10167
▁మొగుడు	-10168
▁యోధులు	-10169
▁రాసాడు	-10170
▁వ్రాసి	-10171
స్తుండగా	-10172
▁అయ్యప్ప	-10173
▁అర్జున్	-10174
▁ఆధిక్యత	-10175
▁ఉండేదని	-10176
▁ఛైర్మన్	-10177
▁దేవదాసు	-10178
▁దొరికిన	-10179
▁పరిష్కర	-10180
▁పాల్గొన	-10181
▁పీఠభూమి	-10182
▁పెద్దగా	-10183
▁ప్రక్కన	-10184
▁ప్రయోజన	-10185
▁ప్రశాంత	-10186
▁ప్రశ్ని	-10187
▁బదులుగా	-10188
▁భద్రాచల	-10189
▁మణిపూర్	-10190
▁లక్ష్యం	-10191
▁శేషగిరి	-10192
▁సంస్థను	-10193
▁సరిగ్గా	-10194
▁సరోజినీ	-10195
▁సర్దార్	-10196
▁స్వామివ	-10197
▁ఉన్నాయని	-10198
▁కంబైన్స్	-10199
▁నూజివీడు	-10200
▁యుద్ధాలు	-10201
▁వరంగల్లు	-10202
▁విధానాలు	-10203
▁గ్రామాలలో	-10204
▁తప్పనిసరి	-10205
▁ధర్మారావు	-10206
▁వ్యక్తిగా	-10207
▁సమావేశంలో	-10208
▁ఇంగ్లీషులో	-10209
▁నేతృత్వంలో	-10210
▁సంగీతాన్ని	-10211
▁కనుగొన్నారు	-10212
▁దేవాలయాన్ని	-10213
▁ఉత్తరప్రదేశ్	-10214
▁కార్యదర్శిగా	-10215
▁పరిపాలించారు	-10216
▁విడుదలయ్యాయి	-10217
▁శ్రీకాళహస్తి	-10218
▁పురపాలకసంఘంగా	-10219
▁ఐక్యరాజ్యసమితి	-10220
.3	-10221
డల	-10222
ast	-10223
htm	-10224
ook	-10225
ult	-10226
und	-10227
కోగ	-10228
బరి	-10229
మాం	-10230
హాయ	-10231
▁87	-10232
▁96	-10233
angu	-10234
ంగూర	-10235
క్ట్	-10236
గాలు	-10237
డూరు	-10238
దాకా	-10239
దికి	-10240
దినం	-10241
పాది	-10242
పైకి	-10243
ఫార్	-10244
బ్రా	-10245
రానా	-10246
వీడు	-10247
సిల్	-10248
స్తం	-10249
స్వత	-10250
▁గడు	-10251
▁మిష	-10252
▁లేన	-10253
కములు	-10254
పాలతో	-10255
మ్ముల	-10256
లవల్ల	-10257
ళ్లలో	-10258
ాలాది	-10259
▁(199	-10260
▁1951	-10261
▁ఇజ్ర	-10262
▁ఓరుగ	-10263
▁కళ్ళ	-10264
▁గద్ద	-10265
▁గుప్	-10266
▁గురి	-10267
▁తీర్	-10268
▁నానా	-10269
▁పోల్	-10270
▁ప్రై	-10271
▁ఫ్లా	-10272
▁మహామ	-10273
▁ల్యా	-10274
▁విఫల	-10275
▁విసి	-10276
.1924)	-10277
.2011)	-10278
జిక్యూ	-10279
వచ్చిన	-10280
వారిని	-10281
▁1925:	-10282
▁1928:	-10283
▁1942:	-10284
▁1954:	-10285
▁1963:	-10286
▁1977:	-10287
▁1992:	-10288
▁2012:	-10289
▁2023)	-10290
▁అంతగా	-10291
▁ఆజాద్	-10292
▁ఇష్టం	-10293
▁ఒంటరి	-10294
▁కొప్ప	-10295
▁గొర్ర	-10296
▁చతుర్	-10297
▁చీరాల	-10298
▁చేనేత	-10299
▁జనార్	-10300
▁తొలగి	-10301
▁పట్నం	-10302
▁బదిలీ	-10303
▁బాల్య	-10304
▁భరద్వ	-10305
▁వివేక	-10306
▁సమరయో	-10307
▁సాళువ	-10308
నిర్మాత	-10309
▁అనుకూల	-10310
▁అనుసరి	-10311
▁ఆంగ్లో	-10312
▁కావాలి	-10313
▁కోటయ్య	-10314
▁చెరుకు	-10315
▁డెల్టా	-10316
▁దుగ్గి	-10317
▁దొంగలు	-10318
▁నలుమూల	-10319
▁నివారణ	-10320
▁నీళ్ళు	-10321
▁పండ్లు	-10322
▁మూలంగా	-10323
▁రంగనాయ	-10324
▁రాక్షస	-10325
▁సంపన్న	-10326
▁స్వరూప	-10327
▁హెన్రీ	-10328
ించకుండా	-10329
▁అప్పుడే	-10330
▁ఉచితంగా	-10331
▁ధర్మవరం	-10332
▁నిర్దేశ	-10333
▁ప్రతాప్	-10334
▁మహేంద్ర	-10335
▁రజతోత్స	-10336
▁వాడతారు	-10337
▁విటమిన్	-10338
▁సోదరులు	-10339
▁హర్యానా	-10340
ాభివృద్ధి	-10341
▁దేవాలయము	-10342
▁విశాలమైన	-10343
▁విశేషాలు	-10344
▁శిల్పాలు	-10345
▁సినిమాకి	-10346
▁హైస్కూల్	-10347
▁పీఠాధిపతి	-10348
▁వ్యాపించి	-10349
▁శాస్త్రము	-10350
▁సదుపాయాలు	-10351
▁సమరయోధులు	-10352
▁కొల్లాపూర్	-10353
▁విజయవంతమైన	-10354
▁శ్రీరాముడు	-10355
▁సినిమాలోని	-10356
▁పట్టాభిషేకం	-10357
▁సంవత్సరాలుగా	-10358
▁మంత్రివర్గంలో	-10359
▁వ్యవసాయాధారిత	-10360
ik	-10361
ఆగ	-10362
థు	-10363
50)	-10364
ant	-10365
కిల	-10366
పాఠ	-10367
పాప	-10368
పాయ	-10369
రని	-10370
▁("	-10371
▁పట	-10372
.187	-10373
ence	-10374
కాలే	-10375
కోగా	-10376
ఖాతం	-10377
గానో	-10378
దుని	-10379
నగరం	-10380
మిక్	-10381
రామ్	-10382
సంపద	-10383
సిక్	-10384
ేటర్	-10385
▁(10	-10386
▁1,0	-10387
▁177	-10388
▁అరి	-10389
▁ఆనవ	-10390
▁కచే	-10391
▁కోప	-10392
▁జస్	-10393
▁తడి	-10394
▁దంత	-10395
▁దయా	-10396
▁ధరి	-10397
▁నటన	-10398
▁పదవ	-10399
▁యావ	-10400
▁రంజ	-10401
▁లలి	-10402
▁వరం	-10403
▁శాప	-10404
ప్పున	-10405
మాండ్	-10406
▁ఇటలీ	-10407
▁ఉచ్ఛ	-10408
▁కంభం	-10409
▁చాలు	-10410
▁తరచూ	-10411
▁తీరం	-10412
▁తుది	-10413
▁దివా	-10414
▁దీవి	-10415
▁పాక్	-10416
▁బోధన	-10417
▁వెర్	-10418
▁వైస్	-10419
ండ్లలో	-10420
తినేని	-10421
పూడిలో	-10422
మంచిలి	-10423
మానియా	-10424
మాసంలో	-10425
రించిన	-10426
ల్లుడు	-10427
హరించి	-10428
ారచయిత	-10429
ించుకొ	-10430
ింపబడు	-10431
ోగ్రఫీ	-10432
▁1922:	-10433
▁1930:	-10434
▁1976:	-10435
▁1979:	-10436
▁అభిమన	-10437
▁ఇతిహా	-10438
▁చక్రం	-10439
▁జలపాత	-10440
▁తీర్ధ	-10441
▁తుర్క	-10442
▁ప్రాస	-10443
▁మౌలిక	-10444
▁రాష్ట	-10445
▁వాహనం	-10446
▁సంగతి	-10447
స్తామని	-10448
్మూర్తి	-10449
▁అవతారం	-10450
▁ఉయ్యాల	-10451
▁కారణాల	-10452
▁గమనించ	-10453
▁చేయాలి	-10454
▁జలాశయం	-10455
▁తీశారు	-10456
▁దీనినే	-10457
▁పిలుపు	-10458
▁ప్రియు	-10459
▁యజమాని	-10460
▁రంగనాథ	-10461
▁రాజుగా	-10462
▁రీమేక్	-10463
▁శివారు	-10464
▁సాయంతో	-10465
▁స్క్రి	-10466
దర్శకుడు	-10467
లున్నాయి	-10468
ించుకునే	-10469
▁అస్సామీ	-10470
▁నిర్ధార	-10471
▁పల్నాటి	-10472
▁పునర్వి	-10473
▁ప్రయోగం	-10474
▁బిరుదాం	-10475
▁రంగాలలో	-10476
▁రాజశ్రీ	-10477
▁విభిన్న	-10478
▁శ్రీనాథ	-10479
▁సుధాకర్	-10480
ప్రభుత్వం	-10481
▁ఉత్తర్వు	-10482
▁చాలావరకు	-10483
▁పోషించిన	-10484
▁సమయంలోనే	-10485
▁స్వామిని	-10486
▁కాకతీయులు	-10487
▁కుటుంబాలు	-10488
▁చెప్పింది	-10489
▁భద్రాద్రి	-10490
▁భువనచంద్ర	-10491
▁ముఖ్యముగా	-10492
▁వెళుతుంది	-10493
▁క్షేత్రయ్య	-10494
▁నెల్లూరులో	-10495
▁భూపాలపల్లి	-10496
▁వాసిరెడ్డి	-10497
▁వ్యాప్తంగా	-10498
▁జాతీయస్థాయి	-10499
▁మున్సిపాలిటీ	-10500
▁స్వీకరించారు	-10501
▁ప్రతిష్ఠాత్మక	-10502
▁విభజించబడింది	-10503
31	-10504
::	-10505
pr	-10506
ఃఖ	-10507
దప	-10508
/20	-10509
ard	-10510
ont	-10511
ంటీ	-10512
అని	-10513
కండ	-10514
త్క	-10515
భామ	-10516
మంద	-10517
మరి	-10518
మార	-10519
ముగ	-10520
రహద	-10521
వరు	-10522
▁66	-10523
▁Ra	-10524
ates	-10525
ions	-10526
కిని	-10527
గానూ	-10528
చ్చె	-10529
పట్న	-10530
రాట్	-10531
ర్యు	-10532
వాని	-10533
శంకర	-10534
ామన్	-10535
▁0-6	-10536
▁220	-10537
▁23,	-10538
▁26,	-10539
▁అనూ	-10540
▁అహం	-10541
▁చాప	-10542
▁జమి	-10543
▁జాత	-10544
▁తాజ	-10545
▁మలి	-10546
ండీస్	-10547
ందాడు	-10548
ఇక్కడ	-10549
డిసెం	-10550
ధికార	-10551
రామన్	-10552
ీవుడ్	-10553
ుడికి	-10554
ుడిని	-10555
ెక్కి	-10556
▁ఆచంట	-10557
▁ఎంచు	-10558
▁గీతా	-10559
▁గౌడ్	-10560
▁చంపే	-10561
▁తరఫు	-10562
▁దాల్	-10563
▁దేవ్	-10564
▁నాథ్	-10565
▁పంపు	-10566
▁పొంగ	-10567
▁ఫ్రీ	-10568
▁మాని	-10569
▁ముఠా	-10570
▁మూసి	-10571
▁రచనా	-10572
▁వంతు	-10573
▁సాధు	-10574
▁సూరి	-10575
▁స్వి	-10576
.2010)	-10577
గొట్టు	-10578
దీనిని	-10579
నేషియా	-10580
పడతాడు	-10581
బ్రోలు	-10582
సిద్ధి	-10583
స్థానీ	-10584
▁1924:	-10585
▁1932:	-10586
▁1935:	-10587
▁1940:	-10588
▁1966:	-10589
▁అదుపు	-10590
▁ఉగాది	-10591
▁కపూర్	-10592
▁కష్టం	-10593
▁చదివే	-10594
▁ట్యాం	-10595
▁తపాలా	-10596
▁తెప్ప	-10597
▁ధైర్య	-10598
▁నాయకు	-10599
▁నిరసన	-10600
▁పంపిన	-10601
▁భట్టి	-10602
▁మౌర్య	-10603
▁రోమన్	-10604
▁విపరీ	-10605
▁వియత్	-10606
▁వ్రాత	-10607
▁సంచిక	-10608
▁సంధ్య	-10609
▁సీఆర్	-10610
▁హెచ్చ	-10611
archive	-10612
▁ఆవరణలో	-10613
▁కథకుడు	-10614
▁కోడూరు	-10615
▁గోంగూర	-10616
▁చర్యలు	-10617
▁దిగువన	-10618
▁నిరాకర	-10619
▁పచ్చని	-10620
▁పాలనకు	-10621
▁పెక్కు	-10622
▁భీమన్న	-10623
▁మరొకటి	-10624
▁లోనికి	-10625
▁వివాదం	-10626
▁వీరిని	-10627
▁వెలికి	-10628
▁సురవరం	-10629
▁స్థావర	-10630
ేశ్వర్లు	-10631
▁అన్నయ్య	-10632
▁ఆశ్చర్య	-10633
▁కూర్చిన	-10634
▁గురుకుల	-10635
▁దట్టమైన	-10636
▁ద్రాక్ష	-10637
▁బ్రతుకు	-10638
▁రావడంతో	-10639
▁వెనక్కి	-10640
▁సంఘసంస్	-10641
▁సంస్థకు	-10642
తుడయ్యాడు	-10643
▁అన్నదానం	-10644
▁అవశేషాలు	-10645
▁ఓరుగల్లు	-10646
▁కవయిత్రి	-10647
▁కాలేజీలో	-10648
▁చెందినవి	-10649
▁తిరుగుతూ	-10650
▁తీర్మానం	-10651
▁తీసుకువె	-10652
▁మంగళవారం	-10653
▁మిల్లులు	-10654
▁లక్ష్మణ్	-10655
▁విరివిగా	-10656
▁వ్యాప్తి	-10657
▁సంగీతంలో	-10658
▁స్వీకారం	-10659
▁ఉస్మానియా	-10660
▁గొల్లపూడి	-10661
▁మాయాబజార్	-10662
▁సంపాదించి	-10663
▁సంస్కరణలు	-10664
▁సినిమాలకు	-10665
▁హాస్పిటల్	-10666
▁జమ్మలమడుగు	-10667
▁ఉపాధ్యాయుడు	-10668
▁చిలకలూరిపేట	-10669
▁చేస్తుంటారు	-10670
▁ప్రసిద్ధిచె	-10671
▁ప్రాజెక్టులు	-10672
▁శ్రీకృష్ణుడు	-10673
▁వ్యవహరిస్తారు	-10674
||	-10675
ఘా	-10676
40)	-10677
గనై	-10678
భిన	-10679
వరో	-10680
ూలన	-10681
ేవీ	-10682
▁99	-10683
▁or	-10684
▁pr	-10685
▁అథ	-10686
కర్ల	-10687
కాండ	-10688
కుంత	-10689
క్కో	-10690
నిన్	-10691
మ్మట	-10692
యాన్	-10693
రును	-10694
వాయి	-10695
వాహన	-10696
షియం	-10697
స్రా	-10698
ాగ్ర	-10699
▁(15	-10700
▁10.	-10701
▁ఆము	-10702
▁తలు	-10703
▁పంద	-10704
▁ఫోట	-10705
▁బాట	-10706
▁మాఘ	-10707
▁శక్	-10708
▁సరా	-10709
▁సవర	-10710
ండేది	-10711
కన్నా	-10712
క్ష్య	-10713
జొన్న	-10714
దర్శన	-10715
ధునిక	-10716
పప్పు	-10717
బిడ్డ	-10718
రెండు	-10719
స్తాన	-10720
ాపూరు	-10721
ించగల	-10722
▁1929	-10723
▁ISBN	-10724
▁అంకు	-10725
▁కాస్	-10726
▁క్లా	-10727
▁ఖనిజ	-10728
▁జగదీ	-10729
▁జోన్	-10730
▁తీరా	-10731
▁దసరా	-10732
▁పరిగ	-10733
▁పైడి	-10734
▁బురు	-10735
▁రజనీ	-10736
▁వేలు	-10737
▁శతకం	-10738
▁హాయి	-10739
.2014)	-10740
ఆంగ్లం	-10741
కపోవడం	-10742
డ్డాయి	-10743
దర్శన్	-10744
రాజ్యం	-10745
సాఫ్ట్	-10746
సేవారు	-10747
▁1957:	-10748
▁1978:	-10749
▁అడ్డం	-10750
▁అయిదు	-10751
▁ఆకులు	-10752
▁ఆరాధన	-10753
▁ఇంకొక	-10754
▁ఏర్పా	-10755
▁కొలువ	-10756
▁కొవ్వ	-10757
▁క్యాం	-10758
▁క్లబ్	-10759
▁జాతుల	-10760
▁తరఫున	-10761
▁దగ్గు	-10762
▁దళాలు	-10763
▁దశాబ్	-10764
▁దౌత్య	-10765
▁నుంచీ	-10766
▁పోరాడ	-10767
▁బందరు	-10768
▁మెట్ట	-10769
▁వైపున	-10770
▁వ్యావ	-10771
▁హాసన్	-10772
కుంటాయి	-10773
కుండానే	-10774
చార్యుల	-10775
సాహిత్య	-10776
▁అచ్యుత	-10777
▁ఆధారిత	-10778
▁ఇద్దరి	-10779
▁ఉండేలా	-10780
▁తెస్తూ	-10781
▁ద్విపద	-10782
▁న్యాయం	-10783
▁పడింది	-10784
▁పర్యాయ	-10785
▁పాత్రల	-10786
▁పులివె	-10787
▁పెట్టే	-10788
▁పేరుగల	-10789
▁బొమ్మల	-10790
▁మంచిది	-10791
▁వైద్యం	-10792
▁శిల్పి	-10793
త్వానికి	-10794
▁ఇక్కడకు	-10795
▁ధరించిన	-10796
▁ప్రజ్ఞా	-10797
▁ప్రతిభా	-10798
▁ప్రభాకర	-10799
▁మనుషులు	-10800
▁వర్గాలు	-10801
▁వేరుశనగ	-10802
▁వ్యంగ్య	-10803
▁వ్యక్తం	-10804
▁శివలింగ	-10805
▁సినీనటి	-10806
▁కృష్ణుని	-10807
▁టెన్నిస్	-10808
▁నిలిచాయి	-10809
▁రహదారిలో	-10810
▁వెంకటరమణ	-10811
▁సుందరయ్య	-10812
▁అభిషేకాలు	-10813
▁ఉపయోగించే	-10814
▁త్యాగరాజు	-10815
▁దేవాలయంలో	-10816
▁ప్రారంభమై	-10817
▁బిరుదాంకి	-10818
▁వస్త్రాలు	-10819
▁విజయశాంతి	-10820
▁వ్యవస్థలో	-10821
▁సంభవించిన	-10822
▁ఉద్యమానికి	-10823
▁కలుగుతుంది	-10824
▁గుర్తించిన	-10825
▁దర్శకునిగా	-10826
▁నిర్మాణాలు	-10827
▁నిర్వహించు	-10828
▁పునరుద్ధరణ	-10829
▁ప్రభుత్వము	-10830
▁ప్రాంతములో	-10831
▁ప్రాజెక్ట్	-10832
▁బాక్సాఫీస్	-10833
▁మహాలక్ష్మి	-10834
▁స్టూడియోస్	-10835
▁స్వీకరించి	-10836
▁కుటుంబాన్ని	-10837
▁కేంద్రానికి	-10838
▁జారీచేసింది	-10839
▁శతాబ్దానికి	-10840
▁ఆంజనేయస్వామి	-10841
▁ఏర్పాటుచేసిన	-10842
▁ప్రజాప్రతిని	-10843
▁కార్యక్రమాలను	-10844
▁పుణ్యక్షేత్రం	-10845
▁హైదరాబాదులోను	-10846
▁గుర్తించబడింది	-10847
▁చిత్రీకరించారు	-10848
%)	-10849
AT	-10850
బం	-10851
-17	-10852
30)	-10853
గము	-10854
యాన	-10855
▁76	-10856
▁8.	-10857
▁ధో	-10858
ద్రో	-10859
నిలో	-10860
పచ్చ	-10861
పద్మ	-10862
పుల్	-10863
బ్రి	-10864
మిన్	-10865
రియం	-10866
రీర్	-10867
వతార	-10868
సుకు	-10869
ానొక	-10870
ారిన	-10871
▁అనా	-10872
▁ఆప్	-10873
▁ఈజి	-10874
▁కంఠ	-10875
▁కేల	-10876
▁ఖ్య	-10877
▁గండ	-10878
▁గోన	-10879
▁జంగ	-10880
▁జనం	-10881
▁తాగ	-10882
▁పడే	-10883
▁బోయ	-10884
▁మనవ	-10885
▁లోత	-10886
▁వదల	-10887
ంగానూ	-10888
మణ్యం	-10889
్యాణం	-10890
▁(197	-10891
▁ఎవ్వ	-10892
▁కుదు	-10893
▁దోచు	-10894
▁నర్త	-10895
▁నాయక	-10896
▁ఫౌండ	-10897
▁మాను	-10898
▁రాని	-10899
▁రాలే	-10900
▁వాణీ	-10901
▁వికా	-10902
▁హాజర	-10903
.1922)	-10904
.1931)	-10905
కుటుంబ	-10906
నిర్మల	-10907
పోతారు	-10908
ప్రపంచ	-10909
సినిమా	-10910
స్ట్రీ	-10911
ాలలోని	-10912
▁1914:	-10913
▁1933:	-10914
▁1967:	-10915
▁1994:	-10916
▁అట్టి	-10917
▁ఆర్మీ	-10918
▁ఊళ్ళో	-10919
▁కలయిక	-10920
▁కాళ్ళ	-10921
▁ఘర్షణ	-10922
▁చేపలు	-10923
▁జయప్ర	-10924
▁నేపాల	-10925
▁బజారు	-10926
▁మండపం	-10927
▁మళ్లీ	-10928
▁మృత్య	-10929
▁రావణా	-10930
▁రిజర్	-10931
▁స్వాగ	-10932
శ్చంద్ర	-10933
ిస్తాడు	-10934
▁అయోధ్య	-10935
▁ఉత్సాహ	-10936
▁కాపురం	-10937
▁కెరీర్	-10938
▁గణేశన్	-10939
▁జాతికి	-10940
▁జ్ఞానం	-10941
▁దీక్షి	-10942
▁సమర్పణ	-10943
▁సాధించ	-10944
▁సిద్ది	-10945
▁స్నేహం	-10946
▁అంకితమి	-10947
▁అంతేకాక	-10948
▁అందుకని	-10949
▁అద్దంకి	-10950
▁అబ్బాయి	-10951
▁ఆంధ్రుల	-10952
▁ఆసియాలో	-10953
▁ఉండటంతో	-10954
▁కారణాలు	-10955
▁చండీగఢ్	-10956
▁చెందాయి	-10957
▁చేపట్టి	-10958
▁చొప్పున	-10959
▁జంతువుల	-10960
▁దెబ్బతి	-10961
▁నాటకరంగ	-10962
▁నిరంకుశ	-10963
▁పదాన్ని	-10964
▁ప్రదానం	-10965
▁భరద్వాజ	-10966
▁యాక్షన్	-10967
▁వర్షాలు	-10968
▁వేసింది	-10969
▁శ్రీధర్	-10970
▁అనుసంధాన	-10971
▁కళాశాలఒక	-10972
▁కీర్తనలు	-10973
▁చంద్రుని	-10974
▁దండెత్తి	-10975
▁నిడదవోలు	-10976
▁పత్రికను	-10977
▁ప్రార్థన	-10978
▁రైలుబండి	-10979
▁వన్యప్రా	-10980
▁విజయవంతం	-10981
▁సమస్యలను	-10982
▁సముద్రపు	-10983
▁సాగునీటి	-10984
▁సుబ్బయ్య	-10985
కరిస్తుంది	-10986
▁అంగీకరించ	-10987
▁అమ్మాయిని	-10988
▁అర్జునుడు	-10989
▁ఎగ్జిక్యూ	-10990
▁చంద్రశేఖర	-10991
▁విజయాన్ని	-10992
▁ఉత్తర్వులు	-10993
▁కాలక్రమేణా	-10994
▁చంద్రమోహన్	-10995
▁పర్యవేక్షణ	-10996
▁బ్రహ్మానంద	-10997
▁విస్తారంగా	-10998
▁న్యాయస్థానం	-10999
▁ప్రతాపరుద్ర	-11000
▁విద్యాసాగర్	-11001
▁తీసుకున్నారు	-11002
▁ప్రతాపరెడ్డి	-11003
▁యాత్రాచరిత్ర	-11004
▁రూపొందించారు	-11005
▁రాఘవేంద్రరావు	-11006
gl	-11007
ru	-11008
ఖు	-11009
గళ	-11010
తమ	-11011
నొ	-11012
ోమ	-11013
80)	-11014
hem	-11015
కనే	-11016
కోశ	-11017
గంట	-11018
డలో	-11019
ణుల	-11020
దయా	-11021
▁ఆమ	-11022
▁ఐన	-11023
▁నల	-11024
▁వొ	-11025
గానీ	-11026
నుగు	-11027
ఫ్టు	-11028
భట్ట	-11029
వేషణ	-11030
▁116	-11031
▁178	-11032
▁28,	-11033
▁516	-11034
▁517	-11035
▁533	-11036
▁అడ్	-11037
▁ఆపై	-11038
▁ఖడ్	-11039
▁చలి	-11040
▁చిక	-11041
▁నాన	-11042
▁పడవ	-11043
▁మర్	-11044
▁మాగ	-11045
▁మాత	-11046
▁మూగ	-11047
▁యాన	-11048
▁రంప	-11049
▁హొయ	-11050
మున్న	-11051
వేసిన	-11052
▁1944	-11053
▁1968	-11054
▁కథలో	-11055
▁కొంగ	-11056
▁కోలు	-11057
▁క్రో	-11058
▁జంగ్	-11059
▁తొండ	-11060
▁నామం	-11061
▁పూలు	-11062
▁మీకు	-11063
▁మేడ్	-11064
▁యాదవ	-11065
▁రారా	-11066
▁లోకం	-11067
▁వెను	-11068
దానికి	-11069
బడినవి	-11070
యానికి	-11071
లావస్థ	-11072
వాసులు	-11073
ాంశాలు	-11074
్యాలతో	-11075
▁2017:	-11076
▁అదిలా	-11077
▁అధిగమ	-11078
▁అనబడే	-11079
▁ఆరంభం	-11080
▁ఎంటర్	-11081
▁ఎక్కి	-11082
▁కుప్ప	-11083
▁గదులు	-11084
▁గొంతు	-11085
▁జనగామ	-11086
▁బంగార	-11087
▁భక్తు	-11088
▁భాగము	-11089
▁మధ్యన	-11090
▁ముళ్ళ	-11091
▁మేజర్	-11092
▁యుగము	-11093
▁సామ్య	-11094
▁సెన్స	-11095
సిందిగా	-11096
▁ఎవరైనా	-11097
▁కొట్టి	-11098
▁కొన్నా	-11099
▁గ్యాస్	-11100
▁జాలాది	-11101
▁ద్వీపం	-11102
▁నగర్లో	-11103
▁నిప్పు	-11104
▁పదవిలో	-11105
▁ప్రగతి	-11106
▁భూకంపం	-11107
▁మగళూరు	-11108
▁లభించే	-11109
▁వెస్టీ	-11110
▁వేశారు	-11111
▁వైకుంఠ	-11112
▁శాసనము	-11113
▁స్పేస్	-11114
చార్యుడు	-11115
పురంలోనూ	-11116
బ్రమణ్యం	-11117
▁ఆయుధాలు	-11118
▁కష్టాలు	-11119
▁కీరవాణి	-11120
▁చెప్పడం	-11121
▁దర్శనీయ	-11122
▁నిర్బంధ	-11123
▁నెల్సన్	-11124
▁రావణుడు	-11125
▁వున్నది	-11126
▁సీతారాం	-11127
లింగాన్ని	-11128
▁కట్టడాలు	-11129
▁గణనీయమైన	-11130
▁గర్భగుడి	-11131
▁నివసించే	-11132
▁బలవంతంగా	-11133
▁బాలీవుడ్	-11134
▁వాణిశ్రీ	-11135
▁వేర్వేరు	-11136
▁సురేంద్ర	-11137
▁స్వామికి	-11138
▁ఆంజనేయులు	-11139
▁చల్లపల్లి	-11140
▁తప్పకుండా	-11141
▁పుట్టింది	-11142
▁రాజేశ్వరి	-11143
▁సిరిసిల్ల	-11144
▁అధ్యక్షులు	-11145
▁పండిస్తారు	-11146
▁ప్రేక్షకుల	-11147
▁సార్వత్రిక	-11148
▁ఇందిరాగాంధీ	-11149
▁ఎన్నికైనారు	-11150
▁ప్రచురణకర్త	-11151
▁వెస్టీండీస్	-11152
▁సాంబశివరావు	-11153
▁క్రీడాకారిణి	-11154
▁స్వామివారిని	-11155
▁అంతర్జాతీయంగా	-11156
▁విడుదలయ్యింది	-11157
▁హైదరాబాదులోని	-11158
▁ప్రెసిడెన్సీలో	-11159
1]	-11160
co	-11161
uc	-11162
చౌ	-11163
శే	-11164
70)	-11165
ber	-11166
ond	-11167
చనం	-11168
ణిమ	-11169
దిశ	-11170
పవన	-11171
మనం	-11172
సలి	-11173
ింట	-11174
▁71	-11175
▁As	-11176
▁గం	-11177
▁డొ	-11178
▁తజ	-11179
▁సత	-11180
▁హజ	-11181
form	-11182
కాన్	-11183
జెస్	-11184
టిగా	-11185
టుకు	-11186
డుతూ	-11187
తాలు	-11188
నందు	-11189
నేటి	-11190
పరచు	-11191
ప్స్	-11192
రమ్మ	-11193
రారు	-11194
ర్రి	-11195
వంతి	-11196
శీలి	-11197
స్తో	-11198
హిని	-11199
ాంక్	-11200
▁అడగ	-11201
▁ఆను	-11202
▁చాగ	-11203
▁చౌడ	-11204
▁ధను	-11205
▁నడవ	-11206
▁నదు	-11207
▁పిన	-11208
▁పెన	-11209
▁పోవ	-11210
▁భలే	-11211
▁రమా	-11212
▁లతా	-11213
▁లేఖ	-11214
కపోతే	-11215
గులకు	-11216
ట్లను	-11217
దర్స్	-11218
శాలలో	-11219
స్టల్	-11220
స్థిర	-11221
హారిక	-11222
ార్జు	-11223
▁1931	-11224
▁ఇస్ర	-11225
▁ఎఱ్ఱ	-11226
▁కూలీ	-11227
▁చమత్	-11228
▁ట్యూ	-11229
▁పీఠం	-11230
▁బారి	-11231
▁బోస్	-11232
▁మంజీ	-11233
▁రామా	-11234
▁హ్యూ	-11235
.1908)	-11236
.2006)	-11237
00,000	-11238
ట్లేదు	-11239
ణానికి	-11240
పాలుడు	-11241
మానులు	-11242
ములుగా	-11243
స్తుండ	-11244
ారాయణా	-11245
▁1915:	-11246
▁1927:	-11247
▁అత్యా	-11248
▁ఎడారి	-11249
▁ఎడ్యు	-11250
▁ఎర్రన	-11251
▁ఒడిశా	-11252
▁కన్నీ	-11253
▁కోయిల	-11254
▁గుప్త	-11255
▁చమురు	-11256
▁జమ్ము	-11257
▁దత్తత	-11258
▁పచ్చి	-11259
▁పుత్ర	-11260
▁ఫ్రెడ	-11261
▁మద్ది	-11262
▁లొంగి	-11263
▁శారదా	-11264
▁సోమయా	-11265
మునుండి	-11266
▁అంతర్భ	-11267
▁అతడిని	-11268
▁ఆక్రమణ	-11269
▁ఆత్మకథ	-11270
▁ఇవన్నీ	-11271
▁కొందరి	-11272
▁గుర్తి	-11273
▁నెంబరు	-11274
▁భర్తను	-11275
▁రాజుకు	-11276
▁రామాను	-11277
▁రికార్	-11278
▁శిల్పం	-11279
▁సమైక్య	-11280
పడుతున్న	-11281
ప్రస్తుత	-11282
ాంతాన్ని	-11283
▁ఇస్తాడు	-11284
▁కళాకారు	-11285
▁జగన్నాధ	-11286
▁నౌకాశ్ర	-11287
▁మల్లాది	-11288
▁ముఖర్జీ	-11289
▁మొక్కలు	-11290
▁యుద్ధము	-11291
▁లచ్చన్న	-11292
▁అవకాశాలు	-11293
▁ఆనవాయితీ	-11294
▁క్రిస్టి	-11295
▁చేసేవాడు	-11296
▁జంతువులు	-11297
▁తండ్రిని	-11298
▁దృష్టిలో	-11299
▁దేశంలోనే	-11300
▁పరిరక్షణ	-11301
▁పార్టీలు	-11302
▁పుస్తకాల	-11303
▁యాదాద్రి	-11304
▁రుక్మిణీ	-11305
▁వినుకొండ	-11306
▁వెళ్ళారు	-11307
▁సైనికులు	-11308
▁స్థానాలు	-11309
▁స్థాయికి	-11310
▁అందుకుంది	-11311
▁ఆపరేటింగ్	-11312
▁ఇబ్బందులు	-11313
▁డయాబెటిస్	-11314
▁ముగిసింది	-11315
▁సిద్ధాంతం	-11316
▁ఉత్పత్తులు	-11317
▁జిల్లాలోనే	-11318
▁రామానాయుడు	-11319
శాస్త్రవేత్త	-11320
▁క్రైస్తవులు	-11321
▁జన్మించింది	-11322
▁త్రిపురనేని	-11323
▁వినియోగదారు	-11324
▁సంప్రదాయాలు	-11325
▁ఉద్భవించింది	-11326
సృ	-11327
00,	-11328
oft	-11329
దీత	-11330
పది	-11331
బన్	-11332
బలి	-11333
విం	-11334
శిర	-11335
ానగ	-11336
ాలో	-11337
ేది	-11338
▁82	-11339
▁An	-11340
ంట్ల	-11341
అనగా	-11342
ఇంగ్	-11343
చంద్	-11344
నెస్	-11345
పిరి	-11346
బ్బా	-11347
భాగవ	-11348
యారు	-11349
యును	-11350
లాగే	-11351
వాటి	-11352
వేదన	-11353
సూరి	-11354
ాలకి	-11355
ొకటి	-11356
▁105	-11357
▁174	-11358
▁29,	-11359
▁30,	-11360
▁800	-11361
▁అక్	-11362
▁అపు	-11363
▁ఎండ	-11364
▁ఎక్	-11365
▁కమీ	-11366
▁కొమ	-11367
▁గజప	-11368
▁జయం	-11369
▁తండ	-11370
▁దృఢ	-11371
▁నమూ	-11372
▁పదు	-11373
▁మకర	-11374
▁మెం	-11375
▁హవే	-11376
ండేవి	-11377
కాలము	-11378
కుండి	-11379
ట్లకు	-11380
తాయని	-11381
భాషగా	-11382
యొక్క	-11383
స్తంభ	-11384
▁(195	-11385
▁అరబ్	-11386
▁అసంత	-11387
▁ఉప్ప	-11388
▁కెమె	-11389
▁కోలా	-11390
▁ఖర్చ	-11391
▁ఖైదీ	-11392
▁ఘాట్	-11393
▁నాణే	-11394
▁పతాక	-11395
▁పాదు	-11396
▁పోయే	-11397
▁బిర్	-11398
▁సంహర	-11399
▁సన్మ	-11400
▁సాను	-11401
ందరినీ	-11402
మార్లు	-11403
మెంటరీ	-11404
రాబాదు	-11405
ర్లకోట	-11406
శ్రద్ధ	-11407
సుందరి	-11408
ారులను	-11409
▁1926:	-11410
▁1938:	-11411
▁1958:	-11412
▁2002:	-11413
▁ఆనందం	-11414
▁ఆశ్రయ	-11415
▁కళారూ	-11416
▁కోరస్	-11417
▁గౌతమీ	-11418
▁చేయుట	-11419
▁తులసి	-11420
▁నెమలి	-11421
▁బుట్ట	-11422
▁రక్తం	-11423
▁రాజైన	-11424
▁రామన్	-11425
▁రాయచో	-11426
▁వస్తూ	-11427
▁విజేత	-11428
▁వేడుక	-11429
▁శుభ్ర	-11430
▁సెక్ర	-11431
▁సేకరణ	-11432
కొండూరు	-11433
ించినది	-11434
ించెదరు	-11435
▁Indian	-11436
▁ఆర్గనై	-11437
▁ఇటీవలి	-11438
▁ఎకరాలు	-11439
▁ఒకదాని	-11440
▁కట్టడం	-11441
▁కల్పనా	-11442
▁కవితలు	-11443
▁గ్రూప్	-11444
▁దక్కను	-11445
▁నిలుపు	-11446
▁పాత్రధ	-11447
▁పాలనను	-11448
▁పిడుగు	-11449
▁బుచ్చి	-11450
▁మంత్రం	-11451
▁మానవతా	-11452
▁రసాయనం	-11453
▁వనరులు	-11454
▁వహించి	-11455
▁విక్రమ	-11456
▁సంక్షో	-11457
▁సిక్కు	-11458
డిసెంబరు	-11459
పుల్లయ్య	-11460
▁అయ్యారు	-11461
▁ఆర్యసమా	-11462
▁ఎమ్మెల్	-11463
▁దేశాలకు	-11464
▁నటుడిగా	-11465
▁పురాణాల	-11466
▁పేర్లతో	-11467
▁ప్రయత్న	-11468
▁మతపరమైన	-11469
▁మరిన్ని	-11470
▁మాత్రము	-11471
▁మున్నగు	-11472
▁రాకుండా	-11473
▁రాజ్యము	-11474
▁శిల్పకళ	-11475
▁సమకాలీన	-11476
అక్కినేని	-11477
▁అంతర్జాల	-11478
▁అవసరాలకు	-11479
▁కలిగింది	-11480
▁కొండవీటి	-11481
▁గురువులు	-11482
▁గ్రానైట్	-11483
▁జాబితాలో	-11484
▁తాతినేని	-11485
▁మొత్తంలో	-11486
▁సరికొత్త	-11487
▁తాడిపత్రి	-11488
▁నెమ్మదిగా	-11489
▁ప్రతిరోజూ	-11490
▁ప్రాంతంగా	-11491
▁భాషావేత్త	-11492
▁మహాసముద్ర	-11493
▁వహించింది	-11494
▁వినాయకుడు	-11495
▁వ్యాఖ్యాత	-11496
▁శాతవాహనుల	-11497
▁సభ్యులుగా	-11498
▁సాగుతుంది	-11499
▁కుమార్తెలు	-11500
▁ప్రదేశాలలో	-11501
▁మొక్కజొన్న	-11502
▁వ్యాఖ్యాని	-11503
▁గోపాలరెడ్డి	-11504
▁దక్షిణాసియా	-11505
ించుకోవడానికి	-11506
▁వ్యవహరించాడు	-11507
▁కృష్ణదేవరాయలు	-11508
▁దక్షిణాఫ్రికా	-11509
.4	-11510
రథ	-11511
inu	-11512
ంటో	-11513
ఖాత	-11514
తగా	-11515
దన్	-11516
దీయ	-11517
నస్	-11518
ాపర	-11519
ాయీ	-11520
ూరీ	-11521
ెర్	-11522
▁re	-11523
▁టు	-11524
1.10	-11525
tern	-11526
గూరు	-11527
డివి	-11528
యిస్	-11529
ర్డీ	-11530
లాలు	-11531
లుకు	-11532
వోయి	-11533
వ్వా	-11534
ించడ	-11535
▁125	-11536
▁210	-11537
▁ఎలు	-11538
▁ఒరి	-11539
▁కిష	-11540
▁జవా	-11541
▁పృథ	-11542
▁మిల	-11543
▁లాగ	-11544
▁వన్	-11545
▁వేమ	-11546
▁హార	-11547
జనవరి	-11548
రుసటి	-11549
సూర్య	-11550
ాగ్రా	-11551
▁1925	-11552
▁ఎస్ట	-11553
▁కొల్	-11554
▁గడ్డ	-11555
▁గౌతమ	-11556
▁చార్	-11557
▁డిపో	-11558
▁తోటి	-11559
▁నగదు	-11560
▁లారీ	-11561
▁వితం	-11562
▁శేషా	-11563
▁శైలజ	-11564
▁సంగం	-11565
▁సంయు	-11566
▁సారా	-11567
చ్చేరి	-11568
ట్రిక్	-11569
పాత్రా	-11570
బెట్టు	-11571
వేశారు	-11572
శిల్పి	-11573
సాగారు	-11574
ించబడే	-11575
▁1908:	-11576
▁1923:	-11577
▁1988:	-11578
▁2004:	-11579
▁అతిథి	-11580
▁అనుమత	-11581
▁అర్హత	-11582
▁ఆర్కి	-11583
▁ఆహ్లా	-11584
▁ఎక్కు	-11585
▁కిరణ్	-11586
▁గణేష్	-11587
▁చవితి	-11588
▁తీర్చ	-11589
▁దత్తా	-11590
▁నాయిక	-11591
▁పలికి	-11592
▁మొల్ల	-11593
▁లైబ్ర	-11594
▁వదిలే	-11595
▁వాడిన	-11596
కాకుండా	-11597
తుంటాడు	-11598
సంస్కృత	-11599
్యానికి	-11600
▁ఆందోళన	-11601
▁ఏర్పరు	-11602
▁చేశాయి	-11603
▁టన్నుల	-11604
▁నాట్యం	-11605
▁నాల్గవ	-11606
▁నాస్తి	-11607
▁పాటుగా	-11608
▁పెద్దన	-11609
▁ప్రాబల	-11610
▁మరుసటి	-11611
▁మలయాళం	-11612
▁స్టాక్	-11613
▁స్వదేశ	-11614
▁అందరినీ	-11615
▁చదివాడు	-11616
▁జస్టిస్	-11617
▁ట్రస్ట్	-11618
▁పాత్రకు	-11619
▁బాలరాజు	-11620
▁బెనర్జీ	-11621
▁యాదగిరి	-11622
▁వర్గీకర	-11623
▁వార్తలు	-11624
▁విచిత్ర	-11625
▁విరుద్ధ	-11626
▁సంస్థలో	-11627
▁సమయములో	-11628
▁హిరణ్యక	-11629
కోవటానికి	-11630
ించినవారు	-11631
▁ఇప్పటికి	-11632
▁కొలంబియా	-11633
▁చేయవచ్చు	-11634
▁చేసుకునే	-11635
▁చేస్తాయి	-11636
▁తెలిపాడు	-11637
▁దశాబ్దాల	-11638
▁నాగభూషణం	-11639
▁నివృత్తి	-11640
▁పొందినది	-11641
▁మరణానికి	-11642
▁రాజ్యంగా	-11643
▁రాత్రికి	-11644
▁వున్నాయి	-11645
▁స్థితిలో	-11646
▁స్వచ్ఛంద	-11647
▁హిందువుల	-11648
రామచంద్రన్	-11649
స్తుంటుంది	-11650
▁అనుకూలంగా	-11651
▁అభయారణ్యం	-11652
▁కర్మాగారం	-11653
▁కుమారుడైన	-11654
▁తెలంగాణకు	-11655
▁దగ్గరలోని	-11656
▁నిర్మాతగా	-11657
▁పాల్గొన్న	-11658
▁ప్రసారాలు	-11659
▁మార్గదర్శ	-11660
▁రాజధానిని	-11661
▁విశ్రాంతి	-11662
▁ఇండోనేషియా	-11663
▁ఉండవచ్చును	-11664
▁ఎన్నికైంది	-11665
▁కాలక్రమంలో	-11666
▁ప్రస్తుతము	-11667
▁విశిష్టమైన	-11668
▁సీతారామయ్య	-11669
▁స్థానాన్ని	-11670
▁ఆమోదించింది	-11671
▁పరిస్థితులు	-11672
▁భట్టిప్రోలు	-11673
▁రాజమండ్రిలో	-11674
▁నరసింహస్వామి	-11675
▁దినోత్సవాన్ని	-11676
▁వెంకటేశ్వర్లు	-11677
▁శాస్త్రజ్ఞుడు	-11678
▁కార్యక్రమాన్ని	-11679
▁మహారాష్ట్రలోని	-11680
-4	-11681
ge	-11682
నక	-11683
పట	-11684
పన	-11685
మట	-11686
రమ	-11687
ఱు	-11688
.15	-11689
500	-11690
har	-11691
క్వ	-11692
చోడ	-11693
తడు	-11694
నిష	-11695
పంట	-11696
బలం	-11697
బాం	-11698
మిం	-11699
రలో	-11700
వేం	-11701
శార	-11702
సమర	-11703
హైద	-11704
▁89	-11705
▁మస	-11706
▁వూ	-11707
ంక్ష	-11708
క్కొ	-11709
గుప్	-11710
గ్గజ	-11711
డ్లీ	-11712
దంతా	-11713
ఫాను	-11714
ల్లే	-11715
వ్యవ	-11716
హారీ	-11717
ాయతి	-11718
ాలనూ	-11719
ుండి	-11720
ూర్జ	-11721
ేకర్	-11722
▁11.	-11723
▁అమి	-11724
▁గది	-11725
▁చిర	-11726
▁ధనం	-11727
▁నమః	-11728
▁మది	-11729
▁మౌల	-11730
▁సుం	-11731
▁స్ర	-11732
ండూరు	-11733
కాయలు	-11734
గలిగే	-11735
గ్రహం	-11736
త్రము	-11737
న్నిం	-11738
పత్రం	-11739
ప్పుడ	-11740
ములైన	-11741
వాడని	-11742
వాడలో	-11743
శ్వాస	-11744
సంగీత	-11745
ాగూర్	-11746
ామయ్య	-11747
ార్క్	-11748
▁1936	-11749
▁Publ	-11750
▁అమర్	-11751
▁అల్ప	-11752
▁ఆఫ్ర	-11753
▁కావే	-11754
▁కొడవ	-11755
▁కొలు	-11756
▁ఖైదు	-11757
▁ఛాయా	-11758
▁తినే	-11759
▁దాచు	-11760
▁దృక్	-11761
▁నేరం	-11762
▁పరాజ	-11763
▁పీవీ	-11764
▁మోసం	-11765
▁సత్త	-11766
▁సునీ	-11767
▁హన్మ	-11768
.1925)	-11769
కాల్లో	-11770
తమైనది	-11771
పోతాయి	-11772
రార్జీ	-11773
సామ్రా	-11774
▁1944:	-11775
▁1968:	-11776
▁1996:	-11777
▁1997:	-11778
▁2014:	-11779
▁2020:	-11780
▁అన్నం	-11781
▁అలియా	-11782
▁ఆయిల్	-11783
▁ఇరాక్	-11784
▁ఉక్కు	-11785
▁కుక్క	-11786
▁గోధుమ	-11787
▁చనిపో	-11788
▁త్రివ	-11789
▁బ్లాగ	-11790
▁మల్కా	-11791
▁వ్యయం	-11792
▁హైదర్	-11793
ational	-11794
మయ్యారు	-11795
సమారాధన	-11796
▁Telugu	-11797
▁అన్నది	-11798
▁అసిస్ట	-11799
▁ఉంచారు	-11800
▁కుమారి	-11801
▁క్రియా	-11802
▁చోళులు	-11803
▁నవగ్రహ	-11804
▁నాగూర్	-11805
▁నైరుతి	-11806
▁మించిన	-11807
▁వెలువర	-11808
▁శివాలయ	-11809
▁సంపుటి	-11810
▁సున్ని	-11811
గిరెడ్డి	-11812
▁అంతర్గత	-11813
▁ఆదుర్తి	-11814
▁ఉపన్యాస	-11815
▁ఎకరాలకు	-11816
▁గర్భవతి	-11817
▁నియామకం	-11818
▁ప్రభువు	-11819
▁బహిష్కర	-11820
▁భార్యను	-11821
▁మహారాణి	-11822
▁ముంబాయి	-11823
▁ముట్టడి	-11824
▁వహించగా	-11825
▁సుపరిచి	-11826
కేంద్రంగా	-11827
ప్రస్తుతం	-11828
▁అన్నింటి	-11829
▁ఆంగ్లంలో	-11830
▁ఆంధ్రదేశ	-11831
▁కుదుర్చు	-11832
▁కొద్దిగా	-11833
▁గ్రహీతలు	-11834
▁గ్రామపంచ	-11835
▁జటప్రోలు	-11836
▁ట్రాన్స్	-11837
▁దాదాపుగా	-11838
▁పద్యాలను	-11839
▁పాఠశాలను	-11840
▁ప్రక్కనే	-11841
▁ప్రతిజ్ఞ	-11842
▁ప్రవర్తన	-11843
▁ఫౌండేషన్	-11844
▁మొహమ్మద్	-11845
▁సమావేశాల	-11846
▁తెలుగునాట	-11847
▁దుగ్గిరాల	-11848
▁పవిత్రమైన	-11849
▁ఫ్యాక్టరీ	-11850
▁వంశస్థులు	-11851
▁తెలుసుకొని	-11852
▁పేరుగాంచిన	-11853
▁పేరుపొందిన	-11854
▁ప్రోగ్రాము	-11855
▁మారుతీరావు	-11856
▁మార్కాపురం	-11857
▁వెంకటాద్రి	-11858
▁వెలుగులోకి	-11859
▁సంస్కృతికి	-11860
▁సంస్థానంలో	-11861
▁అధికసంఖ్యలో	-11862
▁కమ్యూనిష్టు	-11863
▁పిల్లలమర్రి	-11864
▁ప్రభుత్వాలు	-11865
▁సంఘసంస్కర్త	-11866
▁సూచిస్తుంది	-11867
▁ఆఫ్ఘనిస్తాన్	-11868
▁కృష్ణదేవరాయల	-11869
▁ప్రేమిస్తాడు	-11870
▁రాష్ట్రాన్ని	-11871
02	-11872
05	-11873
కడ	-11874
గజ	-11875
హై	-11876
12.	-11877
22.	-11878
erv	-11879
ics	-11880
ort	-11881
ous	-11882
ram	-11883
కోన	-11884
ఖాన	-11885
తిమ	-11886
దలు	-11887
నాశ	-11888
పూర	-11889
లతా	-11890
ికీ	-11891
ులే	-11892
ెడు	-11893
ేవ్	-11894
▁86	-11895
▁93	-11896
▁98	-11897
▁ట్	-11898
▁త్	-11899
▁ధా	-11900
▁ఫొ	-11901
▁మమ	-11902
▁ర్	-11903
▁లౌ	-11904
▁సఖ	-11905
ansk	-11906
ంధము	-11907
జాన్	-11908
డ్లు	-11909
దనంత	-11910
దేవీ	-11911
దొంగ	-11912
బట్ట	-11913
భాను	-11914
యిర్	-11915
రాజన	-11916
వాడే	-11917
వూరు	-11918
శుల్	-11919
షువా	-11920
ాంగి	-11921
▁156	-11922
▁350	-11923
▁New	-11924
▁ఆమ్	-11925
▁ఏలు	-11926
▁కట్	-11927
▁కరు	-11928
▁బాబ	-11929
▁మైల	-11930
▁యము	-11931
▁రివ	-11932
▁లేద	-11933
▁వగై	-11934
▁వృష	-11935
▁సరు	-11936
glish	-11937
కవితా	-11938
క్టరు	-11939
మాన్య	-11940
షియల్	-11941
ానగర్	-11942
ార్ధం	-11943
▁1941	-11944
▁అంతం	-11945
▁అపార	-11946
▁అరకు	-11947
▁అలహా	-11948
▁అవకా	-11949
▁కుంద	-11950
▁గీతం	-11951
▁గోదా	-11952
▁చైర్	-11953
▁జగన్	-11954
▁ట్రై	-11955
▁తీసే	-11956
▁దుఃఖ	-11957
▁నదీత	-11958
▁పడకల	-11959
▁పదము	-11960
▁పయని	-11961
▁పురి	-11962
▁పెండ	-11963
▁బ్రౌ	-11964
▁విషా	-11965
▁వ్యూ	-11966
▁హిమా	-11967
.11.10	-11968
.1927)	-11969
కోలేదు	-11970
తుండగా	-11971
పేట్లో	-11972
మంతుడు	-11973
సేవాడు	-11974
▁1937:	-11975
▁1993:	-11976
▁1995:	-11977
▁అచ్చు	-11978
▁అనిల్	-11979
▁అబద్ధ	-11980
▁ఆండ్ర	-11981
▁ఆగ్రహ	-11982
▁ఆమోదం	-11983
▁ఉండుట	-11984
▁ఓపెన్	-11985
▁కల్లు	-11986
▁ఘరానా	-11987
▁చిక్క	-11988
▁చుక్క	-11989
▁చెలరే	-11990
▁చేయగల	-11991
▁తలసరి	-11992
▁దృశ్య	-11993
▁బనగాన	-11994
▁మొదలై	-11995
▁రంగుల	-11996
▁రాఘవా	-11997
▁రాధను	-11998
▁రెండూ	-11999
▁సింధూ	-12000
▁సెంటి	-12001
anskrit	-12002
చ్ఛిన్న	-12003
త్మకంగా	-12004
▁అనుభవం	-12005
▁అపురూప	-12006
▁ఇతరులు	-12007
▁కన్యకా	-12008
▁కోనేరు	-12009
▁నిధులు	-12010
▁నిబంధన	-12011
▁ప్రేమా	-12012
▁మనోహర్	-12013
▁రాయుడు	-12014
▁వేదాంత	-12015
▁సరాసరి	-12016
▁సుభాష్	-12017
▁సువర్ణ	-12018
▁సూర్యం	-12019
▁సేవలను	-12020
▁స్తంభం	-12021
భారతదేశం	-12022
▁అభ్యర్థ	-12023
▁ఆళ్వారు	-12024
▁ఉండాలని	-12025
▁కల్లూరు	-12026
▁క్షత్రి	-12027
▁జొన్నలు	-12028
▁నాగపూర్	-12029
▁పూజయామి	-12030
▁పేటెంట్	-12031
▁ప్రవాహం	-12032
▁ప్రేమను	-12033
▁భార్యలు	-12034
▁రేపల్లె	-12035
▁వెంకన్న	-12036
▁సమాధానం	-12037
పల్లిలోను	-12038
పాత్రాభిన	-12039
▁అంతర్భాగ	-12040
▁ఉద్యానవన	-12041
▁ఉన్నట్టు	-12042
▁కౌన్సిల్	-12043
▁చనిపోయిన	-12044
▁జన్మించి	-12045
▁తాలూకాలు	-12046
▁దేవరాయలు	-12047
▁ద్వీపాలు	-12048
▁నాదెండ్ల	-12049
▁నిర్మూలన	-12050
▁న్యూక్లి	-12051
▁ప్రారంభి	-12052
▁ఫెడరేషన్	-12053
▁భాగాలుగా	-12054
▁మందిరాలు	-12055
▁మొక్కులు	-12056
▁లేకపోవడం	-12057
▁విశ్వామి	-12058
▁సంజీవయ్య	-12059
▁స్థిరపడి	-12060
శాస్త్రంలో	-12061
▁అవసరమైంది	-12062
▁జిల్లాలను	-12063
▁దక్షిణాది	-12064
▁పాలించాడు	-12065
▁ప్రదర్శిత	-12066
▁ప్రేమించి	-12067
▁బ్రహ్మన్న	-12068
▁మారుతుంది	-12069
▁రావట్లేదు	-12070
▁రావడానికి	-12071
▁వారిద్దరి	-12072
.11.10.2016	-12073
ించుకుంటాడు	-12074
▁చిన్నతనంలో	-12075
▁చెళ్ళపిళ్ళ	-12076
▁విజయనగరంలో	-12077
▁వ్యావహారిక	-12078
▁శిథిలావస్థ	-12079
▁సృష్టికర్త	-12080
▁అనువదించాడు	-12081
▁కార్యాలయాలు	-12082
▁బ్రహ్మానందం	-12083
▁రాజకీయాల్లో	-12084
▁సమర్పించారు	-12085
▁మైక్రోసాఫ్ట్	-12086
▁ఎగ్జిక్యూటివ్	-12087
▁వాగ్గేయకారుడు	-12088
▁సికింద్రాబాదు	-12089
]]	-12090
na	-12091
ఛ్	-12092
జగ	-12093
ధవ	-12094
ఫై	-12095
వొ	-12096
-30	-12097
10.	-12098
చంద	-12099
జాం	-12100
డగు	-12101
త్థ	-12102
పాళ	-12103
పోష	-12104
బెం	-12105
మాడ	-12106
యాల	-12107
ామో	-12108
ేసి	-12109
ోయి	-12110
్వీ	-12111
▁(6	-12112
▁Dr	-12113
▁వడ	-12114
ware	-12115
క్షా	-12116
గోడు	-12117
డులు	-12118
ణుడు	-12119
తంలో	-12120
దురై	-12121
ద్వై	-12122
పంలో	-12123
బోస్	-12124
మాసం	-12125
లందు	-12126
లిపి	-12127
లులో	-12128
శైలజ	-12129
సురు	-12130
స్లో	-12131
ికలో	-12132
▁168	-12133
▁అమీ	-12134
▁అసం	-12135
▁ఎంబ	-12136
▁ఎరు	-12137
▁కంప	-12138
▁క్య	-12139
▁దోమ	-12140
▁ధోర	-12141
▁బలం	-12142
▁బాగ	-12143
▁మాడ	-12144
▁ముగ	-12145
▁విత	-12146
▁సగం	-12147
▁సరే	-12148
.2014	-12149
ivers	-12150
ట్లలో	-12151
ధులను	-12152
పురము	-12153
మురళీ	-12154
మొదటి	-12155
వృక్ష	-12156
ానంద్	-12157
▁1911	-12158
▁ఇస్మ	-12159
▁ఎండి	-12160
▁ఎలాగ	-12161
▁కపిల	-12162
▁కెప్	-12163
▁గరుడ	-12164
▁చురు	-12165
▁టీవీ	-12166
▁దాసు	-12167
▁దేశా	-12168
▁నినా	-12169
▁పిండ	-12170
▁పెడన	-12171
▁బండ్	-12172
▁బాస్	-12173
▁బెండ	-12174
▁మదన్	-12175
▁మహిమ	-12176
▁లోగడ	-12177
▁శతావ	-12178
▁శాఖల	-12179
▁శాలి	-12180
▁సజీవ	-12181
▁హెల్	-12182
.1921)	-12183
.1923)	-12184
ations	-12185
ఇంగ్లీ	-12186
గొట్టి	-12187
ఘంటసాల	-12188
చ్చాయి	-12189
ప్రత్య	-12190
బడతాయి	-12191
యుద్ధం	-12192
రహదారి	-12193
లాపూర్	-12194
శిక్షణ	-12195
ించుచు	-12196
ింటికి	-12197
▁1998:	-12198
▁ఈశ్వర	-12199
▁ఒక్కర	-12200
▁గంటలు	-12201
▁జరిపి	-12202
▁తన్నో	-12203
▁పాటను	-12204
▁ప్రాయ	-12205
▁రాజన్	-12206
▁వర్ణన	-12207
▁వాక్య	-12208
▁వాద్య	-12209
▁శ్యామ	-12210
▁సామూహ	-12211
వరపుకోట	-12212
ార్ఖండ్	-12213
▁అధ్యాయ	-12214
▁అనునది	-12215
▁అయినది	-12216
▁అవమాని	-12217
▁ఇంటిలో	-12218
▁కార్టూ	-12219
▁కాళోజీ	-12220
▁చేరారు	-12221
▁జాషువా	-12222
▁టెస్ట్	-12223
▁తక్కిన	-12224
▁దానిలో	-12225
▁ద్రవిడ	-12226
▁ధ్వంసం	-12227
▁నిర్వచ	-12228
▁పాటలకు	-12229
▁పొగాకు	-12230
▁పొద్దు	-12231
▁బ్రాడ్	-12232
▁మన్వంత	-12233
▁మెచ్చు	-12234
▁వేమూరి	-12235
▁సాహెబ్	-12236
▁సింగరే	-12237
▁సుందరి	-12238
▁సైన్సు	-12239
కిస్తాన్	-12240
ులక్ష్మి	-12241
▁అభివర్ణ	-12242
▁ఆరోపణలు	-12243
▁గ్రంథము	-12244
▁నందిగామ	-12245
▁నెలకొల్	-12246
▁పండితుల	-12247
▁పూర్వము	-12248
▁రచనల్లో	-12249
▁వారసుడు	-12250
▁విండోస్	-12251
▁శృంగేరి	-12252
▁సంకీర్త	-12253
▁చేబ్రోలు	-12254
▁తీసుకునే	-12255
▁తొలగించి	-12256
▁నగరంలోని	-12257
▁పాండవులు	-12258
▁ప్రిన్సి	-12259
▁బాబూరావు	-12260
▁బ్లాగులు	-12261
▁మొరార్జీ	-12262
▁వస్తువుల	-12263
▁విధానంలో	-12264
▁విభజించి	-12265
▁వియత్నాం	-12266
మాచార్యులు	-12267
▁ఇంగ్లాండు	-12268
▁ఉద్దేశంతో	-12269
▁పోలీసులకు	-12270
▁విదేశాలలో	-12271
▁వ్యతిరేకి	-12272
▁సాధించాయి	-12273
▁ఇవ్వబడింది	-12274
▁గాంధేయవాది	-12275
▁జాతీయోద్యమ	-12276
▁పర్యాటకులు	-12277
▁పులివెందుల	-12278
▁బంగాళాఖాతం	-12279
▁వహిస్తుంది	-12280
▁అన్నసమారాధన	-12281
▁ఆర్గనైజేషన్	-12282
▁పార్వతీపురం	-12283
▁పాల్గొంటారు	-12284
▁శతదినోత్సవం	-12285
▁సరిహద్దులుగా	-12286
▁ప్రవేశపెట్టిన	-12287
▁ప్రతిష్ఠించారు	-12288
")	-12289
ha	-12290
చై	-12291
హూ	-12292
ేట	-12293
▁ఢ	-12294
16.	-12295
17.	-12296
18.	-12297
ore	-12298
కన్	-12299
గను	-12300
చరణ	-12301
చిత	-12302
జల్	-12303
ల్య	-12304
సీత	-12305
ేస్	-12306
ోడు	-12307
▁79	-12308
▁తహ	-12309
▁రమ	-12310
▁శక	-12311
ఆర్య	-12312
జిల్	-12313
టాలు	-12314
ట్టం	-12315
ధాను	-12316
నాడే	-12317
నాతన	-12318
నులో	-12319
పర్య	-12320
పెంట	-12321
పోరా	-12322
భువన	-12323
భ్యస	-12324
మమ్మ	-12325
యుడు	-12326
రికే	-12327
వంగా	-12328
విడి	-12329
వీటి	-12330
వీధి	-12331
ాన్స	-12332
▁162	-12333
▁31,	-12334
▁523	-12335
▁ఎము	-12336
▁కలశ	-12337
▁ఘటో	-12338
▁తోక	-12339
▁పరం	-12340
▁బలూ	-12341
▁బాద	-12342
▁బీర	-12343
▁యేట	-12344
▁రబీ	-12345
▁రసం	-12346
▁లేత	-12347
▁శబ్	-12348
▁సమి	-12349
.....	-12350
కారము	-12351
కావ్య	-12352
కులైన	-12353
చోట్ల	-12354
పాటలు	-12355
పాలను	-12356
బడును	-12357
రోజున	-12358
లన్నీ	-12359
లలోనూ	-12360
ళ్ళతో	-12361
ాయిని	-12362
ేవరకు	-12363
▁1933	-12364
▁అంతః	-12365
▁అహిం	-12366
▁ఆచరణ	-12367
▁ఇక్ష	-12368
▁ఎగువ	-12369
▁కాసు	-12370
▁గౌరీ	-12371
▁చెడు	-12372
▁జాంబ	-12373
▁జీడి	-12374
▁తాటి	-12375
▁తులు	-12376
▁దోపి	-12377
▁ధారా	-12378
▁నివా	-12379
▁నూరు	-12380
▁పోతే	-12381
▁మాటల	-12382
▁రోజా	-12383
▁లక్క	-12384
.1918)	-12385
.1994)	-12386
.2007)	-12387
.2008)	-12388
కూరులో	-12389
మొత్తం	-12390
ల్లోని	-12391
ల్లోనే	-12392
వుతారు	-12393
వైపులా	-12394
▁1929:	-12395
▁అప్పల	-12396
▁ఇంతకు	-12397
▁ఈమెను	-12398
▁ఏళ్ళు	-12399
▁కప్పు	-12400
▁కైకాల	-12401
▁తదనంత	-12402
▁తేలిక	-12403
▁నరహరి	-12404
▁పదిహే	-12405
▁పెంపొ	-12406
▁బిజిన	-12407
▁మనువు	-12408
▁మన్యం	-12409
▁మినహా	-12410
▁మురళి	-12411
▁మెట్ల	-12412
▁యాదవ్	-12413
▁రిచర్	-12414
▁లోపలి	-12415
▁వెయ్య	-12416
▁శకుంత	-12417
▁సారథి	-12418
▁సెలవు	-12419
▁స్ట్ర	-12420
▁స్థూల	-12421
▁హరికథ	-12422
▁హింసా	-12423
▁హోటల్	-12424
గాయకుడు	-12425
భారతదేశ	-12426
▁ఆహ్లాద	-12427
▁ఎప్పటి	-12428
▁ఒకానొక	-12429
▁కొరియా	-12430
▁గుడిలో	-12431
▁డేవిడ్	-12432
▁దానిపై	-12433
▁పంపాడు	-12434
▁పరిగణన	-12435
▁పిమ్మట	-12436
▁ప్రయోజ	-12437
▁బహుమనీ	-12438
▁భావాలు	-12439
▁రఘుపతి	-12440
▁వాహినీ	-12441
▁విద్యన	-12442
▁శైలిని	-12443
▁శ్లోకం	-12444
▁సాక్షా	-12445
▁సుభద్ర	-12446
▁అభిమానం	-12447
▁అవతారము	-12448
▁ఆర్మూర్	-12449
▁ఎత్తయిన	-12450
▁ఎన్నికై	-12451
▁ఘనవిజయం	-12452
▁ద్వారకా	-12453
▁నారదుడు	-12454
▁నియమించ	-12455
▁పదానికి	-12456
▁పరశురామ	-12457
▁పల్లిలో	-12458
▁బూర్గుల	-12459
▁మధుసూదన	-12460
▁వాహనాలు	-12461
▁విలక్షణ	-12462
▁వ్యాకరణ	-12463
▁శక్తిగా	-12464
▁శాసనంలో	-12465
▁శ్రీరాం	-12466
▁సర్పంచ్	-12467
▁హక్కులు	-12468
చలపతిరావు	-12469
రాఘవేంద్ర	-12470
వరలక్ష్మి	-12471
▁కందుకూరు	-12472
▁కథారచయిత	-12473
▁కలెక్టరు	-12474
▁కాలాన్ని	-12475
▁చిహ్నంగా	-12476
▁తాలూకాలో	-12477
▁పన్నెండు	-12478
▁పాండురంగ	-12479
▁పాల్గొనే	-12480
▁ప్రహ్లాద	-12481
▁బయలుదేరి	-12482
▁వాడుతారు	-12483
▁వివాదాస్	-12484
▁సంస్థలలో	-12485
▁సుందరమ్మ	-12486
▁స్పెయిన్	-12487
▁హీరోయిన్	-12488
▁అవార్డును	-12489
▁ఏర్పాటుకు	-12490
▁చంద్రగిరి	-12491
▁చింతపల్లి	-12492
▁చేరుకున్న	-12493
▁పదార్థాలు	-12494
▁పరిజ్ఞానం	-12495
▁పార్వతమ్మ	-12496
▁భావించాడు	-12497
▁మున్సిపల్	-12498
▁విద్యాలయం	-12499
▁సంకలనకర్త	-12500
కుంటున్నారు	-12501
▁ఉత్పత్తిలో	-12502
▁ఉపయోగించిన	-12503
▁ఏర్పాటుచేయ	-12504
▁చేపట్టింది	-12505
▁తిమ్మాపూర్	-12506
▁ప్రకాశరావు	-12507
▁మంత్రివర్గ	-12508
▁మహోత్సవాలు	-12509
▁రాజకీయాలలో	-12510
▁వికారాబాద్	-12511
▁శాస్త్రజ్ఞ	-12512
▁సందర్శించి	-12513
▁స్థానికులు	-12514
▁హరిశ్చంద్ర	-12515
▁జ్ఞాపకార్థం	-12516
▁నెలకొల్పారు	-12517
▁న్యూక్లియర్	-12518
▁పరిస్థితిని	-12519
▁పాత్రధారులు	-12520
▁ప్రదేశాన్ని	-12521
▁పబ్లికేషన్స్	-12522
▁ప్రాముఖ్యతను	-12523
▁మహారాష్ట్రలో	-12524
▁మాట్లాడుతారు	-12525
▁రాజ్యలక్ష్మి	-12526
▁విద్యాభ్యాసం	-12527
▁వ్యవహరించారు	-12528
▁శ్రీకృష్ణుని	-12529
▁కార్యక్రమాలలో	-12530
▁తెలుసుకుంటాడు	-12531
▁కార్యక్రమానికి	-12532
▁నిర్మించబడ్డాయి	-12533
'.	-12534
0.	-12535
04	-12536
ld	-12537
pt	-12538
వూ	-12539
ౌక	-12540
▁k	-12541
.14	-12542
ందట	-12543
ఇవి	-12544
ణాల	-12545
ణ్ణ	-12546
దాల	-12547
నన్	-12548
న్య	-12549
మల్	-12550
వరూ	-12551
షత్	-12552
సైన	-12553
హము	-12554
ిన్	-12555
▁83	-12556
▁జమ	-12557
▁న్	-12558
▁లయ	-12559
▁హత	-12560
-200	-12561
ంటల్	-12562
అక్ష	-12563
ఇండి	-12564
కాగా	-12565
క్యూ	-12566
గాలి	-12567
జిన్	-12568
టిష్	-12569
టును	-12570
డితో	-12571
డ్ని	-12572
తలను	-12573
ప్రో	-12574
మియా	-12575
మెని	-12576
రూపి	-12577
ర్చీ	-12578
వులే	-12579
శాయి	-12580
స్పర	-12581
ొకరు	-12582
్రీయ	-12583
▁106	-12584
▁27,	-12585
▁700	-12586
▁తగు	-12587
▁పైల	-12588
▁భూత	-12589
▁ముహ	-12590
▁యశో	-12591
▁సహచ	-12592
కర్ణి	-12593
గ్యుల	-12594
జయంతి	-12595
జికల్	-12596
దయాత్	-12597
నట్లు	-12598
పనేని	-12599
వేంకట	-12600
్రాజు	-12601
▁1927	-12602
▁1928	-12603
▁from	-12604
▁అందం	-12605
▁అడ్వ	-12606
▁ఆజ్ఞ	-12607
▁కథకు	-12608
▁కామా	-12609
▁కులం	-12610
▁కొని	-12611
▁క్లై	-12612
▁చేజి	-12613
▁తాపీ	-12614
▁తాలు	-12615
▁తిని	-12616
▁దండి	-12617
▁దుంప	-12618
▁దైవం	-12619
▁నారద	-12620
▁నీలి	-12621
▁పవన్	-12622
▁పెరు	-12623
▁పోతి	-12624
▁ఫిరం	-12625
▁మరలా	-12626
▁మాడు	-12627
▁మూడి	-12628
▁రావే	-12629
▁రేణు	-12630
▁విద్	-12631
▁సంచల	-12632
▁స్కే	-12633
.1914)	-12634
.1929)	-12635
.1933)	-12636
.1940)	-12637
.2004)	-12638
కరించి	-12639
క్కుడు	-12640
గాంచిన	-12641
గొండలో	-12642
ప్రకాశ	-12643
ములందు	-12644
లపల్లి	-12645
సినారు	-12646
ించలేక	-12647
▁1934:	-12648
▁1951:	-12649
▁2000:	-12650
▁2001:	-12651
▁2013,	-12652
▁2023:	-12653
▁అంతటి	-12654
▁అనుకో	-12655
▁అన్నద	-12656
▁అబుల్	-12657
▁అమ్మా	-12658
▁ఆడియో	-12659
▁ఇస్రో	-12660
▁కట్టా	-12661
▁కాయలు	-12662
▁చూపిన	-12663
▁దిబ్బ	-12664
▁దుర్మ	-12665
▁నాయక్	-12666
▁బ్రతు	-12667
▁మనోహర	-12668
▁మాణిక	-12669
▁మిస్స	-12670
▁వట్టి	-12671
▁వెంగళ	-12672
▁వ్యోమ	-12673
▁సంజయ్	-12674
▁సమానం	-12675
▁సమూహం	-12676
▁సింహం	-12677
న్నట్లు	-12678
విత్తుల	-12679
శ్వరుడు	-12680
▁ఇవ్వడం	-12681
▁కాళ్ళు	-12682
▁కిషోర్	-12683
▁చర్చలు	-12684
▁చురుకు	-12685
▁చెల్లి	-12686
▁జగిత్య	-12687
▁తగినంత	-12688
▁తెలిపే	-12689
▁దాద్రా	-12690
▁దుర్గం	-12691
▁నిలబడి	-12692
▁నిలువు	-12693
▁పంజాబీ	-12694
▁పుచ్చు	-12695
▁మహాత్మ	-12696
▁మౌలానా	-12697
▁యూనిట్	-12698
▁రైళ్ళు	-12699
▁విధమైన	-12700
▁విమోచన	-12701
▁వెంబడి	-12702
▁సమాధాన	-12703
▁సైన్యా	-12704
▁స్వామీ	-12705
▁హాస్యం	-12706
కాలానికి	-12707
చెరువులో	-12708
ప్లెక్స్	-12709
▁ఆభరణాలు	-12710
▁గణతంత్ర	-12711
▁జగన్నాథ	-12712
▁దిగుమతి	-12713
▁నిరంతరం	-12714
▁నెలకొని	-12715
▁పక్షులు	-12716
▁పరిసరాల	-12717
▁పామర్రు	-12718
▁ప్రవర్త	-12719
▁బంధించి	-12720
▁ముగిసిన	-12721
▁రాజశేఖర	-12722
▁రాజ్యాల	-12723
▁రాయచూరు	-12724
▁రైతులకు	-12725
▁వుండేది	-12726
▁సమానంగా	-12727
▁సారస్వత	-12728
శివరాత్రి	-12729
▁కనకదుర్గ	-12730
▁కాలంనాటి	-12731
▁కొనసాగిన	-12732
▁చిక్కుడు	-12733
▁చిన్నారి	-12734
▁తాళ్ళపాక	-12735
▁పద్ధతిని	-12736
▁పిల్లలను	-12737
▁పెరుగుదల	-12738
▁పోగొట్టు	-12739
▁బాధ్యతను	-12740
▁బీజాపూరు	-12741
▁మండలాలతో	-12742
▁వర్ధిల్ల	-12743
▁సినిమాగా	-12744
▁సూర్యుని	-12745
▁అందుకున్న	-12746
▁అనుబంధంగా	-12747
▁ఇస్మాయిల్	-12748
▁ఉపాధ్యాయు	-12749
▁ఏర్పాట్లు	-12750
▁కచ్చితంగా	-12751
▁గవర్నరుగా	-12752
▁గుంతకల్లు	-12753
▁తెలిసింది	-12754
▁నివసించిన	-12755
▁పరిశ్రమకు	-12756
▁పల్లిలోను	-12757
▁బంగాళాఖాత	-12758
▁విద్యాశాఖ	-12759
▁శరీరానికి	-12760
▁సిద్దిపేట	-12761
▁కేంద్రాలలో	-12762
▁జగ్గయ్యపేట	-12763
▁జరుపుకుంది	-12764
▁తజకిస్థాన్	-12765
▁తెలుగువారి	-12766
▁దర్శకురాలు	-12767
▁న్యాయస్థాన	-12768
▁విజయనిర్మల	-12769
▁విస్తారమైన	-12770
▁సమకూర్చారు	-12771
ఆంధ్రప్రదేశ్	-12772
▁అప్పటినుండి	-12773
▁కర్ణాటకలోని	-12774
▁చెయ్యడానికి	-12775
▁చేరుకోవచ్చు	-12776
▁చేసుకుంటారు	-12777
▁పుస్తకాన్ని	-12778
▁ప్రపంచానికి	-12779
▁విష్ణుకుండి	-12780
▁అధ్యక్షునిగా	-12781
▁తీర్మానాన్ని	-12782
▁నిర్ణయించారు	-12783
▁పాలిటెక్నిక్	-12784
▁ప్రాజెక్టును	-12785
▁వ్యాపించింది	-12786
▁విద్యాసంస్థలు	-12787
▁రూపొందించబడింది	-12788
08	-12789
ub	-12790
డట	-12791
మృ	-12792
16)	-12793
ani	-12794
ati	-12795
ంటా	-12796
ంపి	-12797
ంపు	-12798
కరం	-12799
దాత	-12800
దొర	-12801
నగర	-12802
సుమ	-12803
▁(4	-12804
▁Ar	-12805
▁ఈయ	-12806
▁ఏజ	-12807
▁శూ	-12808
rict	-12809
క్యు	-12810
గిలో	-12811
టుగా	-12812
త్తె	-12813
బోర్	-12814
భరణం	-12815
మాడి	-12816
లికా	-12817
లిగి	-12818
వెన్	-12819
ష్యు	-12820
ానము	-12821
▁(17	-12822
▁115	-12823
▁165	-12824
▁79.	-12825
▁అస్	-12826
▁కలా	-12827
▁కాప	-12828
▁ఖాత	-12829
▁గతి	-12830
▁డచ్	-12831
▁తంగ	-12832
▁ధవళ	-12833
▁నీడ	-12834
▁పుల	-12835
▁మగధ	-12836
▁మరే	-12837
▁మేడ	-12838
▁యాగ	-12839
▁సొగ	-12840
ology	-12841
అక్టో	-12842
గ్గర్	-12843
త్రిమ	-12844
మ్మను	-12845
రింగు	-12846
ల్లంఘ	-12847
వేషన్	-12848
శుద్ధ	-12849
హిందీ	-12850
ాయుడు	-12851
ించాడ	-12852
ీయంగా	-12853
▁1908	-12854
▁1914	-12855
▁అడ్ర	-12856
▁ఇప్ప	-12857
▁క్లి	-12858
▁గనుక	-12859
▁చెలి	-12860
▁జనసా	-12861
▁జోడి	-12862
▁నిను	-12863
▁పనుల	-12864
▁పావు	-12865
▁పిదప	-12866
▁పీడి	-12867
▁పూడి	-12868
▁బయటి	-12869
▁బల్ల	-12870
▁బ్రూ	-12871
▁భగవా	-12872
▁మెగా	-12873
▁మెరి	-12874
▁రాసే	-12875
▁వక్త	-12876
▁వాది	-12877
▁విరమ	-12878
▁వేసే	-12879
▁సాధి	-12880
▁సాహస	-12881
▁స్తో	-12882
▁హాకీ	-12883
.1996)	-12884
.2002)	-12885
టిక్స్	-12886
ములోనే	-12887
మ్ములు	-12888
యుగంలో	-12889
రాయుడు	-12890
రిస్తూ	-12891
రెన్స్	-12892
ర్షులు	-12893
ళ్వార్	-12894
సంపన్న	-12895
సురుని	-12896
ించండి	-12897
▁1959:	-12898
▁అవమాన	-12899
▁ఆవిరి	-12900
▁ఇచ్చట	-12901
▁కోరిన	-12902
▁గబ్బి	-12903
▁గ్రాం	-12904
▁జయరాం	-12905
▁జెండా	-12906
▁డామన్	-12907
▁నాజర్	-12908
▁నామిన	-12909
▁నిండు	-12910
▁నింది	-12911
▁మహేష్	-12912
▁వాళ్ల	-12913
▁విలీన	-12914
▁వుండి	-12915
▁శిఖరం	-12916
పరిచారు	-12917
బ్రాహ్మ	-12918
▁అతనితో	-12919
▁అరబిక్	-12920
▁ఆశ్రయం	-12921
▁ఎవరికి	-12922
▁ఓడరేవు	-12923
▁కక్ష్య	-12924
▁చివరగా	-12925
▁చివరలో	-12926
▁చేయబడి	-12927
▁చేయమని	-12928
▁జాతులు	-12929
▁టిబెట్	-12930
▁ద్వాపర	-12931
▁నటించి	-12932
▁నల్లమల	-12933
▁నిజంగా	-12934
▁నేపాలీ	-12935
▁పువ్వు	-12936
▁పెట్రో	-12937
▁బయటికి	-12938
▁మందిని	-12939
▁మక్కువ	-12940
▁మహాదేవ	-12941
▁మినహాయ	-12942
▁మీడియం	-12943
▁వాయువు	-12944
▁విడిది	-12945
▁వీలుగా	-12946
▁శస్త్ర	-12947
▁సమస్యల	-12948
▁హయాంలో	-12949
కోడానికి	-12950
▁అంతర్యు	-12951
▁అవార్డ్	-12952
▁ఆపరేషన్	-12953
▁ఉన్నదని	-12954
▁ఎంతగానో	-12955
▁కనిగిరి	-12956
▁చేయడంలో	-12957
▁ఛత్తీస్	-12958
▁నిరాహార	-12959
▁నిరుద్య	-12960
▁పిలవబడే	-12961
▁ఫిలింస్	-12962
▁మలేషియా	-12963
▁మొదటిది	-12964
▁రాయచోటి	-12965
▁రెగ్యుల	-12966
▁వాయువ్య	-12967
▁వున్నవి	-12968
▁శాసనసభా	-12969
▁సరోజిని	-12970
కరిస్తాడు	-12971
కరిస్తారు	-12972
▁Sanskrit	-12973
▁చెపుతారు	-12974
▁చోటుచేసు	-12975
▁డైరక్టర్	-12976
▁తయారుచేయ	-12977
▁తీరాంధ్ర	-12978
▁దేవరకొండ	-12979
▁పురాణాలు	-12980
▁ప్రశంసలు	-12981
▁భిన్నంగా	-12982
▁రష్యన్లు	-12983
▁రికార్డ్	-12984
▁రూపకల్పన	-12985
▁వాణిజ్యం	-12986
▁ఏర్పరచారు	-12987
▁ఏలూరులోను	-12988
▁కన్యాశుల్	-12989
▁చేసినపుడు	-12990
▁పునరుద్ధర	-12991
▁ప్రోత్సాహ	-12992
▁మొదలగునవి	-12993
▁స్టేషన్లు	-12994
▁స్థలాన్ని	-12995
▁స్పష్టంగా	-12996
▁అధ్యాపకుడు	-12997
▁గ్రామంలోఒక	-12998
▁పరిగణనలోకి	-12999
▁బనగానపల్లె	-13000
▁మరణించింది	-13001
▁వర్ణించాడు	-13002
▁సుల్తానులు	-13003
▁స్నేహితులు	-13004
▁చెప్పడానికి	-13005
▁దేవాలయానికి	-13006
▁పురాతనమైనది	-13007
▁రాష్ట్రాలకు	-13008
▁సమరయోధురాలు	-13009
▁సృష్టించాడు	-13010
▁జొన్నవిత్తుల	-13011
▁తల్లిదండ్రుల	-13012
▁మూడుప్రైవేటు	-13013
▁చేసుకోవడానికి	-13014
▁ప్రచురించింది	-13015
▁లభిస్తున్నాయి	-13016
▁సంతరించుకుంది	-13017
03	-13018
1%	-13019
?)	-13020
cl	-13021
టల	-13022
నస	-13023
14.	-13024
40.	-13025
ide	-13026
ill	-13027
ఘటన	-13028
టుల	-13029
నగా	-13030
బాట	-13031
బ్ల	-13032
భజన	-13033
మహే	-13034
విష	-13035
సరో	-13036
ాయణ	-13037
ేల్	-13038
▁(9	-13039
▁88	-13040
▁92	-13041
▁as	-13042
▁గై	-13043
▁ఘట	-13044
కోడ్	-13045
క్షు	-13046
గామి	-13047
ఘ్ని	-13048
దశలో	-13049
నీతి	-13050
పూరి	-13051
బాయ్	-13052
యాస్	-13053
రాయ్	-13054
రీస్	-13055
సుని	-13056
స్వా	-13057
ించక	-13058
ింతు	-13059
▁524	-13060
▁595	-13061
▁are	-13062
▁ఆతి	-13063
▁కది	-13064
▁గార	-13065
▁దాట	-13066
▁పూస	-13067
▁పేష	-13068
▁ప్య	-13069
▁ఫార	-13070
▁మాచ	-13071
▁మూత	-13072
▁మేర	-13073
▁రంభ	-13074
▁వశి	-13075
▁సమే	-13076
▁సల్	-13077
కెక్క	-13078
కొంది	-13079
త్వము	-13080
దృష్ట	-13081
ద్వార	-13082
పాలని	-13083
ళ్లకు	-13084
వర్గం	-13085
హకుడు	-13086
్రిక్	-13087
▁1901	-13088
▁1915	-13089
▁1924	-13090
▁అతిశ	-13091
▁ఆపైన	-13092
▁ఒకటే	-13093
▁కలువ	-13094
▁కాళహ	-13095
▁కుదర	-13096
▁కూడు	-13097
▁కొమర	-13098
▁కోమల	-13099
▁దీపం	-13100
▁ధార్	-13101
▁నర్మ	-13102
▁పంత్	-13103
▁పూరి	-13104
▁పెళ్	-13105
▁పేరే	-13106
▁పోరు	-13107
▁బాగ్	-13108
▁మేధా	-13109
▁యర్ర	-13110
▁యువత	-13111
▁రాహు	-13112
▁లీగ్	-13113
▁విరూ	-13114
▁షాహి	-13115
▁సాగర	-13116
▁సైబీ	-13117
.1917)	-13118
.1935)	-13119
.2009)	-13120
ంపల్లి	-13121
గలిగిన	-13122
దర్శనం	-13123
నాత్మక	-13124
నెస్కో	-13125
భాన్ని	-13126
లినేని	-13127
విద్యా	-13128
వుతాడు	-13129
సినారె	-13130
సైన్స్	-13131
ోద్యమం	-13132
▁1918:	-13133
▁2005:	-13134
▁అంత్య	-13135
▁ఇటాలి	-13136
▁ఈయనకు	-13137
▁ఎద్దు	-13138
▁ఏమిటి	-13139
▁ఔరంగా	-13140
▁కోటకు	-13141
▁కోడలు	-13142
▁క్షీర	-13143
▁జమ్మి	-13144
▁జీవనం	-13145
▁తిక్క	-13146
▁నాగుల	-13147
▁నెలకు	-13148
▁పట్టా	-13149
▁పనిని	-13150
▁పొట్ట	-13151
▁బంగాళ	-13152
▁బీదర్	-13153
▁మంగళం	-13154
▁మెల్ల	-13155
▁లింగా	-13156
▁విత్త	-13157
▁సత్రం	-13158
▁సుగంధ	-13159
▁సెంటీ	-13160
istrict	-13161
మౌతుంది	-13162
స్తుంటే	-13163
ాధికారి	-13164
ామూర్తి	-13165
▁అణచివే	-13166
▁అనువైన	-13167
▁అలంకార	-13168
▁ఇతనిని	-13169
▁ఇష్టపడ	-13170
▁కాంస్య	-13171
▁గుండ్ర	-13172
▁చెక్కు	-13173
▁తొలినా	-13174
▁త్వరగా	-13175
▁పశువుల	-13176
▁పునాది	-13177
▁ప్రావి	-13178
▁బాలాజీ	-13179
▁భవనాలు	-13180
▁భూమికి	-13181
▁వినోద్	-13182
▁వెన్నె	-13183
▁వ్యక్త	-13184
▁సేవలకు	-13185
భాగానికి	-13186
మంత్రులు	-13187
▁English	-13188
▁అభిమాని	-13189
▁ఇక్ష్వా	-13190
▁ఏనుగులు	-13191
▁ఏమిటంటే	-13192
▁కావ్యము	-13193
▁కీలకమైన	-13194
▁కృత్రిమ	-13195
▁చెయ్యడం	-13196
▁తల్లిని	-13197
▁నార్కట్	-13198
▁నిధులతో	-13199
▁బిడ్డను	-13200
▁రిచర్డ్	-13201
▁రెండవది	-13202
▁లేకపోతే	-13203
▁విడదీసి	-13204
▁విస్తృత	-13205
▁వ్యత్యా	-13206
▁సన్నిహి	-13207
▁స్థితిగ	-13208
▁హిమాచల్	-13209
formation	-13210
శ్రద్ధలతో	-13211
▁అంతరించి	-13212
▁ఉపఖండంలో	-13213
▁కొడుకులు	-13214
▁గ్రంథంలో	-13215
▁చిత్రలేఖ	-13216
▁చూస్తాడు	-13217
▁చేర్చుతూ	-13218
▁ఛాయాగ్రా	-13219
▁దర్శించి	-13220
▁నెలకొన్న	-13221
▁పరీక్షలు	-13222
▁పురాతత్వ	-13223
▁పెళ్ళికి	-13224
▁బ్రదర్స్	-13225
▁మహోత్సవం	-13226
▁మార్క్సి	-13227
▁మిత్రులు	-13228
▁యలమంచిలి	-13229
▁విషయాలను	-13230
▁శిలాశాసన	-13231
▁సభ్యత్వం	-13232
▁సేకరించి	-13233
▁స్వరకర్త	-13234
▁హన్మకొండ	-13235
ప్రసాదరావు	-13236
▁ఉత్సవాలలో	-13237
▁కృష్ణవేణి	-13238
▁చంద్రబోస్	-13239
▁విచ్చేసిన	-13240
▁విద్వాంసు	-13241
▁వెనుకబడిన	-13242
▁వెళ్తుంది	-13243
▁హిరణ్యకశి	-13244
▁తెలియకుండా	-13245
▁త్రిపురాంత	-13246
▁నియమించాడు	-13247
▁ప్రయత్నంలో	-13248
▁రామిరెడ్డి	-13249
▁వివరించారు	-13250
▁అనుసంధానించ	-13251
▁ఆదివారంనాడు	-13252
▁ఇంజినీరింగ్	-13253
▁ఏర్పడుతుంది	-13254
▁ప్రజ్ఞాశాలి	-13255
▁ప్రతినిధులు	-13256
▁ప్రవేశించిన	-13257
▁విస్తరించిన	-13258
▁శేషగిరిరావు	-13259
▁సంవత్సరాలలో	-13260
▁రామలింగేశ్వర	-13261
▁రాష్ట్రంలోనే	-13262
▁సాహిత్యవేత్త	-13263
▁సింహాసనాన్ని	-13264
▁దేశవ్యాప్తంగా	-13265
▁స్వాతంత్ర్యసమర	-13266
07	-13267
ci	-13268
hm	-13269
pl	-13270
డొ	-13271
పత	-13272
▁;	-13273
ధ్ధ	-13274
నైన	-13275
ఫిక	-13276
వాల	-13277
సస్	-13278
సోమ	-13279
స్క	-13280
ెంత	-13281
ెడీ	-13282
▁(3	-13283
▁61	-13284
▁ఖి	-13285
▁టూ	-13286
▁తగ	-13287
▁నశ	-13288
▁షర	-13289
అన్న	-13290
కేట్	-13291
గిల్	-13292
టాను	-13293
డీలు	-13294
ణికి	-13295
తిపద	-13296
నియం	-13297
పంచు	-13298
మియో	-13299
ముఖి	-13300
లాడే	-13301
ళ్లో	-13302
సభ్య	-13303
సుంద	-13304
స్సీ	-13305
ెండ్	-13306
▁(16	-13307
▁129	-13308
▁172	-13309
▁215	-13310
▁218	-13311
▁507	-13312
▁ఎలి	-13313
▁గూఢ	-13314
▁జాల	-13315
▁జిన	-13316
▁టెం	-13317
▁తని	-13318
▁తనే	-13319
▁దరి	-13320
▁ప్ల	-13321
▁బాప	-13322
▁బేత	-13323
▁బోగ	-13324
▁భండ	-13325
▁మంథ	-13326
▁వసం	-13327
▁సౌర	-13328
కండేయ	-13329
కప్పు	-13330
కాలతో	-13331
కాలువ	-13332
జింగ్	-13333
డుగుల	-13334
దరికం	-13335
మండలం	-13336
యన్స్	-13337
ారేజి	-13338
ాలిన్	-13339
ెయిన్	-13340
▁1906	-13341
▁1926	-13342
▁అరవై	-13343
▁అర్ప	-13344
▁ఏళ్ల	-13345
▁ఒంటి	-13346
▁కుర్	-13347
▁గడియ	-13348
▁గర్వ	-13349
▁గురై	-13350
▁చంద్	-13351
▁చావు	-13352
▁డైలా	-13353
▁తరంగ	-13354
▁తాజా	-13355
▁దీపా	-13356
▁దొరక	-13357
▁పాదం	-13358
▁పీచు	-13359
▁పుదు	-13360
▁పొలి	-13361
▁పోతు	-13362
▁బందీ	-13363
▁బిల్	-13364
▁భవన్	-13365
▁భైరవ	-13366
▁మేడి	-13367
▁లీలా	-13368
▁లేచి	-13369
▁వరదల	-13370
▁సవతి	-13371
▁హంపి	-13372
▁హెడ్	-13373
.1904)	-13374
.1972)	-13375
కునికి	-13376
తిపదిక	-13377
ధరరావు	-13378
పాక్షి	-13379
ప్యూటీ	-13380
బినెట్	-13381
ల్లోను	-13382
స్త్రీ	-13383
ింపబడి	-13384
▁1910:	-13385
▁అనేకం	-13386
▁ఆవిర్	-13387
▁ఉపనిష	-13388
▁ఏమిటో	-13389
▁ఒడ్డు	-13390
▁కాలపు	-13391
▁కైలాస	-13392
▁కొయ్య	-13393
▁కోకిల	-13394
▁క్రమే	-13395
▁గడుపు	-13396
▁గ్రంధ	-13397
▁జంటగా	-13398
▁దోహదం	-13399
▁నరేష్	-13400
▁నిదుర	-13401
▁నెరవే	-13402
▁పాటకు	-13403
▁పిట్ట	-13404
▁ప్రచో	-13405
▁ప్రబల	-13406
▁బజార్	-13407
▁బాంబు	-13408
▁బూడిద	-13409
▁మహనీయ	-13410
▁మహాను	-13411
▁మహావీ	-13412
▁వంశము	-13413
▁వద్దు	-13414
▁వెన్న	-13415
▁స్తుత	-13416
▁హృదయం	-13417
కపోయినా	-13418
త్తులను	-13419
సెప్టెం	-13420
స్తారని	-13421
ాన్సలర్	-13422
▁అదృష్ట	-13423
▁ఆఫ్రిక	-13424
▁ఆసియన్	-13425
▁ఒకనాడు	-13426
▁క్విట్	-13427
▁గోపురం	-13428
▁చక్కటి	-13429
▁చూస్తూ	-13430
▁ట్రేడ్	-13431
▁నిన్నే	-13432
▁పిలిచి	-13433
▁పురుగు	-13434
▁పెంపకం	-13435
▁మహాప్ర	-13436
▁ముచ్చట	-13437
▁మొక్కు	-13438
▁రంపచోడ	-13439
▁రఘునాథ	-13440
▁రాచరిక	-13441
▁రామన్న	-13442
▁రుద్రా	-13443
▁వంటిది	-13444
▁వసతులు	-13445
▁వీటూరి	-13446
▁శిష్యు	-13447
▁షిర్డీ	-13448
▁సంప్రద	-13449
▁సభాపతి	-13450
▁సాధ్యం	-13451
▁సాఫ్టు	-13452
▁సేనాని	-13453
కారానికి	-13454
లవల్లేరు	-13455
విద్యుత్	-13456
▁అనుబంధం	-13457
▁ఆధిపత్య	-13458
▁ఒత్తిడి	-13459
▁గండికోట	-13460
▁చేజిక్క	-13461
▁జ్యోతిష	-13462
▁డిజిటల్	-13463
▁తయారుచే	-13464
▁నగరాలకు	-13465
▁నారాయణా	-13466
▁బృహత్తర	-13467
▁మండలంతో	-13468
▁మధ్యయుగ	-13469
▁మస్తాన్	-13470
▁మాంత్రి	-13471
▁యువకుడు	-13472
▁రోజులకు	-13473
▁వెర్షన్	-13474
▁వేదపండి	-13475
▁శ్రీమహా	-13476
▁సామూహిక	-13477
▁సిమెంటు	-13478
▁సురక్షి	-13479
ంటున్నారు	-13480
▁కొల్లేరు	-13481
▁చింతామణి	-13482
▁నిర్వర్త	-13483
▁బహుమతులు	-13484
▁రాజగోపాల	-13485
▁విభాగాలు	-13486
▁వేస్తారు	-13487
▁వ్యక్తుల	-13488
▁సముద్రము	-13489
▁సింగరేణి	-13490
▁సీతాదేవి	-13491
సుబ్రమణ్యం	-13492
▁అంతర్వేది	-13493
▁ఇంగ్లాండ్	-13494
▁కోల్పోయిన	-13495
▁గుంటూరులో	-13496
▁చేపట్టారు	-13497
▁జరిగిందని	-13498
▁పరిశ్రమలో	-13499
▁మద్యాహ్నం	-13500
▁రజతోత్సవం	-13501
▁వెంకటగిరి	-13502
▁సభ్యురాలు	-13503
▁సారవంతమైన	-13504
▁కన్నులపండు	-13505
▁గ్రంథాన్ని	-13506
▁చెందినవాడు	-13507
▁జర్నలిస్టు	-13508
▁ప్రచోదయాత్	-13509
▁ముఖ్యమైనది	-13510
▁యాత్రికుడు	-13511
▁స్థానికంగా	-13512
▁అన్నమాచార్య	-13513
▁కార్యాలయంలో	-13514
▁చేతులమీదుగా	-13515
▁చేసుకోవాలని	-13516
▁ప్రేక్షకులు	-13517
▁బ్రహ్మంగారి	-13518
▁భారతదేశములో	-13519
▁విజయలక్ష్మి	-13520
▁కార్యకలాపాలు	-13521
▁కృష్ణారెడ్డి	-13522
▁గుర్తించింది	-13523
▁నేతృత్వంలోని	-13524
▁సత్కరించింది	-13525
▁ఏర్పాటుచేశారు	-13526
▁ప్రయత్నిస్తాడు	-13527
▁భక్తిశ్రద్ధలతో	-13528
▁ప్రసిద్ధిచెందిన	-13529
2]	-13530
eg	-13531
ma	-13532
pe	-13533
అర	-13534
నృ	-13535
ఱి	-13536
శత	-13537
60)	-13538
:19	-13539
ala	-13540
ఉదా	-13541
జరు	-13542
నెల	-13543
సూయ	-13544
హాల	-13545
ుడై	-13546
ూన్	-13547
▁94	-13548
▁Of	-13549
▁[[	-13550
▁ఆం	-13551
▁ఉమ	-13552
▁తం	-13553
▁ధి	-13554
ages	-13555
ంగిమ	-13556
కాల్	-13557
గార్	-13558
గును	-13559
డార్	-13560
డ్జ్	-13561
తోనూ	-13562
దూర్	-13563
పోవు	-13564
మ్లా	-13565
రంతా	-13566
రాల్	-13567
లాకి	-13568
లాడి	-13569
వర్గ	-13570
వేశం	-13571
స్టో	-13572
స్పె	-13573
ుంటు	-13574
ెమ్మ	-13575
▁107	-13576
▁126	-13577
▁153	-13578
▁166	-13579
▁216	-13580
▁320	-13581
▁ఎకన	-13582
▁కండ	-13583
▁గఢ్	-13584
▁మఖ్	-13585
▁మెహ	-13586
▁లంచ	-13587
కాలనీ	-13588
కొమ్మ	-13589
కొరకు	-13590
గమాంబ	-13591
జెప్ప	-13592
డతాడు	-13593
ధులకు	-13594
న్నిక	-13595
మట్టి	-13596
యన్లు	-13597
య్యర్	-13598
ర్యోధ	-13599
వర్తన	-13600
వింద్	-13601
సాధార	-13602
ాన్సీ	-13603
ెస్టి	-13604
▁1857	-13605
▁1913	-13606
▁1935	-13607
▁with	-13608
▁అనిప	-13609
▁కలలో	-13610
▁కాపు	-13611
▁చంపు	-13612
▁చదివ	-13613
▁చీలి	-13614
▁తళ్ళ	-13615
▁తానీ	-13616
▁తేనె	-13617
▁నందా	-13618
▁నందీ	-13619
▁నేర్	-13620
▁నోరు	-13621
▁పతకం	-13622
▁ప్రహ	-13623
▁ఫుల్	-13624
▁మరచి	-13625
▁ముల్	-13626
▁రాగా	-13627
▁వావి	-13628
▁విలు	-13629
▁విస్	-13630
▁షాద్	-13631
▁సమర్	-13632
.1900)	-13633
.1902)	-13634
.1930)	-13635
.1939)	-13636
క్తులు	-13637
గ్రేడ్	-13638
చుకుని	-13639
చెన్నై	-13640
జేశాడు	-13641
టూరులో	-13642
తుర్తి	-13643
తులూరి	-13644
పడతాయి	-13645
పీడియా	-13646
బ్బాయి	-13647
భారతీయ	-13648
వంతులు	-13649
స్ట్రి	-13650
ీశ్వరి	-13651
▁1911:	-13652
▁1921:	-13653
▁1999:	-13654
▁అగస్త	-13655
▁అనురా	-13656
▁ఆరోజు	-13657
▁ఇడ్లీ	-13658
▁కచేరీ	-13659
▁కిష్ట	-13660
▁కుమ్మ	-13661
▁కొంగర	-13662
▁తుళువ	-13663
▁దుష్ట	-13664
▁ద్వేష	-13665
▁ధీమహి	-13666
▁నదీతీ	-13667
▁పండ్ల	-13668
▁పెదవే	-13669
▁ప్రిం	-13670
▁బస్తీ	-13671
▁మాధవి	-13672
▁మెప్ప	-13673
▁మొఘలు	-13674
▁వితరణ	-13675
▁వెచ్చ	-13676
▁శుక్ల	-13677
▁సందర్	-13678
anguage	-13679
క్కింది	-13680
డుతున్న	-13681
ించలేని	-13682
ించుకోవ	-13683
ూరులోను	-13684
్రాబాద్	-13685
▁అపూర్వ	-13686
▁ఆదిశేష	-13687
▁ఆర్థర్	-13688
▁ఋతుపవన	-13689
▁ఎక్కడా	-13690
▁ఎడిటర్	-13691
▁కంట్రో	-13692
▁కల్యాణ	-13693
▁కళాప్ర	-13694
▁కార్ల్	-13695
▁కావేరీ	-13696
▁కోరుతూ	-13697
▁క్రాస్	-13698
▁క్రికె	-13699
▁జనాదరణ	-13700
▁తుఫాను	-13701
▁దిద్దు	-13702
▁నాటికే	-13703
▁పదములు	-13704
▁పనులకు	-13705
▁పరస్పర	-13706
▁పరాజయం	-13707
▁పిలుచు	-13708
▁ఫోర్స్	-13709
▁మెట్లు	-13710
▁రాజన్న	-13711
▁రాలేదు	-13712
▁రూపాయి	-13713
▁లెనిన్	-13714
▁వారిచే	-13715
▁విధులు	-13716
▁విషయమై	-13717
▁విషయాల	-13718
▁సుందరా	-13719
▁స్వాతి	-13720
కపోవడంతో	-13721
మోహనరావు	-13722
▁కాంట్రా	-13723
▁కావచ్చు	-13724
▁కృష్ణకు	-13725
▁చెక్కిన	-13726
▁చేయించి	-13727
▁జరిపారు	-13728
▁డ్రైవర్	-13729
▁దేవతలకు	-13730
▁నేలకొండ	-13731
▁పరిమితం	-13732
▁పర్షియా	-13733
▁పాలమూరు	-13734
▁పెట్టడం	-13735
▁ప్రాకృత	-13736
▁మరణించే	-13737
▁రామరాయల	-13738
▁వచ్చినా	-13739
▁వచ్చును	-13740
▁విద్మహే	-13741
▁విప్లవా	-13742
▁వెళతాడు	-13743
▁షూటింగ్	-13744
▁సత్యభామ	-13745
▁సెకండరీ	-13746
న్నింటినీ	-13747
సముద్రంలో	-13748
▁అనుకున్న	-13749
▁కనిపించి	-13750
▁కొండవీడు	-13751
▁కొడుకును	-13752
▁కోదండరామ	-13753
▁క్షత్రియ	-13754
▁గణనీయంగా	-13755
▁గీతాంజలి	-13756
▁చెప్తారు	-13757
▁దుర్మార్	-13758
▁నిర్లక్ష	-13759
▁పట్టభద్ర	-13760
▁పెండ్యాల	-13761
▁ప్రచురిత	-13762
▁ప్రయోజనం	-13763
▁ప్రాంగణం	-13764
▁ఫ్రాన్సు	-13765
▁బిజినెస్	-13766
▁బౌద్ధమతం	-13767
▁మార్క్స్	-13768
▁ముస్లింల	-13769
▁సామ్యవాద	-13770
▁సౌకర్యము	-13771
క్ట్రానిక్	-13772
ప్రాంతాలలో	-13773
▁ఆస్థానంలో	-13774
▁గుండెపోటు	-13775
▁చింతలపూడి	-13776
▁జనసాంద్రత	-13777
▁నమ్ముతారు	-13778
▁పట్టణాలకు	-13779
▁పత్రికలలో	-13780
▁పర్వతశ్రే	-13781
▁పేర్కొంది	-13782
▁మేనల్లుడు	-13783
▁రమ్యకృష్ణ	-13784
▁రాజకీయంగా	-13785
▁లక్ష్మిని	-13786
▁వ్యాఖ్యలు	-13787
పాత్రాభినయం	-13788
▁అభ్యర్థిగా	-13789
▁అసిస్టెంట్	-13790
▁ఆత్మకూరులో	-13791
▁కార్యాలయాల	-13792
▁గ్రామాల్లో	-13793
▁చెందుతున్న	-13794
▁పూర్వీకులు	-13795
▁ప్రవహిస్తూ	-13796
▁రికార్డులు	-13797
▁వాతావరణంలో	-13798
▁వివాదాస్పద	-13799
▁వెంకటరత్నం	-13800
▁సందర్భాలలో	-13801
▁జాతీయరహదారి	-13802
▁గుడ్లవల్లేరు	-13803
▁జరుగుతున్నది	-13804
▁పరిగణిస్తారు	-13805
▁మచిలీపట్నంలో	-13806
▁రామచంద్రరావు	-13807
▁చెప్పుకోవచ్చు	-13808
▁జరుపుకున్నాయి	-13809
▁నిర్మించనున్న	-13810
▁పురస్కారానికి	-13811
▁భావించబడుతుంది	-13812
)-	-13813
ID	-13814
OS	-13815
aw	-13816
ya	-13817
నర	-13818
యొ	-13819
ోవ	-13820
00.	-13821
19.	-13822
ank	-13823
eop	-13824
tit	-13825
ంతం	-13826
కూల	-13827
టకై	-13828
దనే	-13829
ధీన	-13830
న్ల	-13831
పాన	-13832
యాళ	-13833
రపు	-13834
వతీ	-13835
సరు	-13836
ాకా	-13837
ీయం	-13838
ుడే	-13839
్మయ	-13840
్మశ	-13841
▁ఇద	-13842
▁ఏవ	-13843
▁ఛీ	-13844
▁డు	-13845
▁దహ	-13846
▁ల్	-13847
ated	-13848
అతను	-13849
గన్న	-13850
టీసీ	-13851
ద్రీ	-13852
నామం	-13853
నిస్	-13854
బద్ద	-13855
మానా	-13856
యానా	-13857
యేతర	-13858
ర్ని	-13859
వాల్	-13860
వికో	-13861
విక్	-13862
ష్ఠి	-13863
ీకృత	-13864
్యమి	-13865
్వాస	-13866
▁(12	-13867
▁360	-13868
▁ఏకీ	-13869
▁ఓహో	-13870
▁గంభ	-13871
▁గోర	-13872
▁జీత	-13873
▁తుం	-13874
▁దళం	-13875
▁బహూ	-13876
▁లవ్	-13877
▁విద	-13878
▁వీట	-13879
▁వెద	-13880
▁శాస	-13881
ంటిని	-13882
కల్పం	-13883
కొలను	-13884
ట్లతో	-13885
దీక్ష	-13886
పాఖ్య	-13887
రాస్య	-13888
రీకరణ	-13889
రులతో	-13890
శాలను	-13891
▁1860	-13892
▁1934	-13893
▁1943	-13894
▁అఖండ	-13895
▁ఆయనే	-13896
▁ఆవుల	-13897
▁ఇంతే	-13898
▁ఇన్ఫ	-13899
▁ఇళ్ళ	-13900
▁ఎడ్వ	-13901
▁కోదా	-13902
▁గద్య	-13903
▁చేశా	-13904
▁తేల్	-13905
▁ద్రౌ	-13906
▁నందన	-13907
▁నిము	-13908
▁ఫేర్	-13909
▁ఫోటో	-13910
▁బడిన	-13911
▁బద్ద	-13912
▁మురి	-13913
▁రాణీ	-13914
▁లాంగ	-13915
▁వెనక	-13916
▁వోల్	-13917
▁సిన్	-13918
▁హామీ	-13919
.1910)	-13920
.1975)	-13921
ficial	-13922
అందులో	-13923
చర్లలో	-13924
దుర్గం	-13925
బిల్లి	-13926
బ్బులు	-13927
మందికి	-13928
మూరులో	-13929
రోజులు	-13930
వాళ్లు	-13931
వుకారు	-13932
సాగాడు	-13933
స్టులు	-13934
ారోగ్య	-13935
ార్లలో	-13936
▁1943:	-13937
▁అంజలీ	-13938
▁ఆరోపణ	-13939
▁ఆలయము	-13940
▁ఇనుము	-13941
▁ఉప్పల	-13942
▁కాల్వ	-13943
▁కాస్ట	-13944
▁గిద్ద	-13945
▁గ్రహం	-13946
▁జమ్మూ	-13947
▁ట్రాం	-13948
▁డాలర్	-13949
▁తినడం	-13950
▁దొరిక	-13951
▁నష్టం	-13952
▁పనిము	-13953
▁పాటలో	-13954
▁పాదాల	-13955
▁పిచ్చ	-13956
▁పురోగ	-13957
▁యుక్త	-13958
▁రైతుల	-13959
▁లోతైన	-13960
▁వన్నె	-13961
▁విలాస	-13962
▁సంఘాల	-13963
▁సమ్మే	-13964
▁హవేలీ	-13965
▁హిట్ట	-13966
అమెరికా	-13967
కొంటారు	-13968
త్మకమైన	-13969
స్టాండ్	-13970
ాల్లోనూ	-13971
▁అయ్యర్	-13972
▁అష్టది	-13973
▁అష్టావ	-13974
▁ఆంగ్లం	-13975
▁ఏకాదశి	-13976
▁ఒక్కటే	-13977
▁కేరళలో	-13978
▁కొల్హా	-13979
▁కోపంతో	-13980
▁గుడికి	-13981
▁చేసాయి	-13982
▁జైలుకు	-13983
▁డాలర్ల	-13984
▁ధైర్యం	-13985
▁నిడివి	-13986
▁పోటీలో	-13987
▁ప్రేరే	-13988
▁భాగమైన	-13989
▁మాండ్య	-13990
▁ముక్తి	-13991
▁రచనలను	-13992
▁రాజాజీ	-13993
▁విక్రయ	-13994
▁వితంతు	-13995
▁వినోబా	-13996
▁వెలుపల	-13997
▁శశిరేఖ	-13998
▁శాసనాల	-13999
▁సంఘాలు	-14000
▁సహస్రా	-14001
▁సాలూరు	-14002
▁హుబ్లి	-14003
మిల్లిలో	-14004
స్వీకారం	-14005
ుడయ్యాడు	-14006
▁అక్షాంశ	-14007
▁అడవులలో	-14008
▁ఎనిమిదవ	-14009
▁ఎలాగైనా	-14010
▁ఖమ్మంలో	-14011
▁గంగానది	-14012
▁చిన్నది	-14013
▁డిమాండ్	-14014
▁దీపావళి	-14015
▁నన్నయ్య	-14016
▁నియమాలు	-14017
▁నిలిచిన	-14018
▁నైవేద్య	-14019
▁పత్రికల	-14020
▁పూర్ణిమ	-14021
▁ప్రక్కల	-14022
▁ప్రచురి	-14023
▁బీజపూర్	-14024
▁బౌద్ధమత	-14025
▁మహానుభా	-14026
▁మానవుడు	-14027
▁మేడ్చల్	-14028
▁మొత్తము	-14029
▁మొదలయిన	-14030
▁రంగనాథ్	-14031
▁రాజంపేట	-14032
▁రావణుని	-14033
▁లైబ్రరీ	-14034
▁విశ్వసి	-14035
▁విశ్వాస	-14036
▁సంతకాలు	-14037
▁సంస్కార	-14038
▁సమస్యను	-14039
▁హనుమంతు	-14040
ించినపుడు	-14041
▁అంతేకాదు	-14042
▁ఇండియాలో	-14043
▁ఇంద్రుడు	-14044
▁ఉన్నారని	-14045
▁ఏర్పాటైన	-14046
▁చిత్రంతో	-14047
▁త్రిలింగ	-14048
▁పద్యాలలో	-14049
▁పుత్రుడు	-14050
▁ప్రైజెస్	-14051
▁బిలియన్ల	-14052
▁ముసునూరి	-14053
▁లక్షద్వీ	-14054
▁విగ్రహాల	-14055
▁వెంకట్రా	-14056
▁వెంగమాంబ	-14057
▁వ్యాధులు	-14058
▁శతాబ్దము	-14059
▁శ్లోకాలు	-14060
▁షెడ్యూల్	-14061
▁సుసంపన్న	-14062
▁సూర్యుడు	-14063
మురళీకృష్ణ	-14064
▁ఉయ్యాలవాడ	-14065
▁చూస్తున్న	-14066
▁తిరుపతిలో	-14067
▁తీసుకోవడం	-14068
▁పేజీలున్న	-14069
▁ముళ్ళపూడి	-14070
▁లక్ష్యంగా	-14071
▁వ్యక్తిని	-14072
▁స్థానాలలో	-14073
▁హిందూపురం	-14074
▁హెక్టార్ల	-14075
▁కనిపెట్టిన	-14076
▁కలెక్టరేట్	-14077
▁కల్వకుర్తి	-14078
▁కావ్యాన్ని	-14079
▁కొత్తపల్లి	-14080
▁గ్రామాలుతో	-14081
▁తాలూకాలోని	-14082
▁నియమించారు	-14083
▁మహాభారతంలో	-14084
▁వచ్చినపుడు	-14085
▁వస్తువులను	-14086
▁విద్యనభ్యస	-14087
▁సంస్కృతిలో	-14088
▁అప్పలాచార్య	-14089
▁కృష్ణకుమారి	-14090
▁గ్రామములోని	-14091
▁చరిత్రకారుల	-14092
▁నియమించింది	-14093
▁ప్రధానమైనవి	-14094
▁మొదలవుతుంది	-14095
▁వాస్తవానికి	-14096
▁సూర్యకుమారి	-14097
రాఘవేంద్రరావు	-14098
▁అందుబాటులోకి	-14099
▁కన్నులపండువగా	-14100
▁కార్యక్రమాలకు	-14101
▁విశ్వేశ్వరయ్య	-14102
▁శతదినోత్సవాలు	-14103
▁నిజామాబాద్లోనూ	-14104
▁విశ్వవిద్యాలయము	-14105
▁వేణుగోపాలస్వామి	-14106
▁సుందరరామ్మూర్తి	-14107
09	-14108
ef	-14109
if	-14110
sp	-14111
ేం	-14112
’’	-14113
▁y	-14114
15.	-14115
80.	-14116
act	-14117
eng	-14118
ందె	-14119
కేశ	-14120
తర్	-14121
దము	-14122
పస్	-14123
ఫలం	-14124
భోగ	-14125
రంభ	-14126
రఘు	-14127
లాడ	-14128
సాధ	-14129
▁91	-14130
▁ఈత	-14131
▁ధృ	-14132
▁రక	-14133
▁రణ	-14134
rans	-14135
ందలి	-14136
అంటే	-14137
ఇతను	-14138
కీర్	-14139
కోల్	-14140
క్యం	-14141
గ్రి	-14142
జుడు	-14143
డాన్	-14144
తాన్	-14145
తిగా	-14146
మీడి	-14147
ముపై	-14148
యాను	-14149
యోగం	-14150
ర్థం	-14151
లిజం	-14152
వర్త	-14153
వియా	-14154
సికో	-14155
సిరి	-14156
ాంగం	-14157
ాలనీ	-14158
▁127	-14159
▁161	-14160
▁518	-14161
▁అంధ	-14162
▁అణి	-14163
▁అరా	-14164
▁ఐదే	-14165
▁ఐస్	-14166
▁ఓటు	-14167
▁కలన	-14168
▁ఖాన	-14169
▁గలవ	-14170
▁ఘన్	-14171
▁చీల	-14172
▁చోడ	-14173
▁జంబ	-14174
▁తగల	-14175
▁దోస	-14176
▁మడి	-14177
▁మూడ	-14178
▁రేవ	-14179
▁లిఖ	-14180
▁లేవ	-14181
▁లోన	-14182
▁వరు	-14183
title	-14184
ండ్రు	-14185
ందన్న	-14186
గులను	-14187
చింతల	-14188
జీపేట	-14189
నాలను	-14190
పర్రు	-14191
మ్మకు	-14192
సెంట్	-14193
ానిధి	-14194
ాలంలో	-14195
ాలిక్	-14196
ుండుట	-14197
▁1890	-14198
▁1909	-14199
▁అంజి	-14200
▁ఆదిక	-14201
▁ఎదుట	-14202
▁కాకు	-14203
▁కాను	-14204
▁ఖండి	-14205
▁గానూ	-14206
▁గులా	-14207
▁చరణ్	-14208
▁జక్క	-14209
▁జాక్	-14210
▁జులై	-14211
▁తనతో	-14212
▁తేది	-14213
▁నిధి	-14214
▁బచ్చ	-14215
▁బావా	-14216
▁మందా	-14217
▁మాధు	-14218
▁ముఖం	-14219
▁మెన్	-14220
▁మెమో	-14221
▁రాగం	-14222
▁వాన్	-14223
▁వాలీ	-14224
▁సాటి	-14225
▁సేన్	-14226
.1901)	-14227
.1909)	-14228
.1915)	-14229
.1926)	-14230
.1937)	-14231
.1974)	-14232
.2005)	-14233
కుడిని	-14234
కొన్ని	-14235
క్సెస్	-14236
టిల్స్	-14237
త్రాలు	-14238
నోద్యమ	-14239
పరిచిన	-14240
పరిషత్	-14241
రాజుకు	-14242
విధానం	-14243
వ్యాధి	-14244
స్తంభం	-14245
స్థితి	-14246
▁1901:	-14247
▁1917:	-14248
▁2003:	-14249
▁అంతిమ	-14250
▁ఉత్తే	-14251
▁ఒకరైన	-14252
▁కల్పన	-14253
▁కిట్ట	-14254
▁గణాలు	-14255
▁గదిలో	-14256
▁గురైన	-14257
▁చిదంబ	-14258
▁చిరుత	-14259
▁చెట్ల	-14260
▁తజిక్	-14261
▁తొక్క	-14262
▁దువ్వ	-14263
▁దొంగల	-14264
▁ధూర్జ	-14265
▁ధ్యాన	-14266
▁నర్సీ	-14267
▁నాంది	-14268
▁పాలెం	-14269
▁పునరా	-14270
▁పెంచి	-14271
▁మద్యం	-14272
▁మాతృక	-14273
▁ముంపు	-14274
▁మొగల్	-14275
▁రబీలో	-14276
▁రెండే	-14277
▁రొయ్య	-14278
▁లలితా	-14279
▁వనవాస	-14280
▁విధ్వ	-14281
▁సందేశ	-14282
▁సత్తు	-14283
సరస్వతి	-14284
▁అలంకరణ	-14285
▁ఇంటిని	-14286
▁కార్పో	-14287
▁కాల్చి	-14288
▁గోవాలో	-14289
▁గ్రీన్	-14290
▁తెలివి	-14291
▁పటిష్ఠ	-14292
▁పద్మవి	-14293
▁పూర్ణా	-14294
▁పెట్టె	-14295
▁ప్రీతి	-14296
▁ఫిర్యా	-14297
▁బట్టలు	-14298
▁భగవాన్	-14299
▁భద్రతా	-14300
▁మనుషుల	-14301
▁మీడియా	-14302
▁యూదులు	-14303
▁రాళ్ళు	-14304
▁రీతిలో	-14305
▁విక్టో	-14306
▁వేంకటా	-14307
▁శకుంతల	-14308
▁సంఖ్యా	-14309
▁సంఘసేవ	-14310
▁సత్తెన	-14311
▁సుందర్	-14312
▁సైనికా	-14313
అక్టోబరు	-14314
ఇంగ్లీషు	-14315
సుబ్బయ్య	-14316
▁అంటరాని	-14317
▁అంతకంటే	-14318
▁అక్షరాల	-14319
▁అన్వేషణ	-14320
▁అవుతాడు	-14321
▁అవుతాయి	-14322
▁ఉండడంతో	-14323
▁కన్నుమూ	-14324
▁కల్యాణం	-14325
▁కొనసాగి	-14326
▁గడిపాడు	-14327
▁చేయడంతో	-14328
▁జనవరిలో	-14329
▁జీవించి	-14330
▁తుర్కమే	-14331
▁దక్షిణం	-14332
▁దేవాదాయ	-14333
▁ధార్మిక	-14334
▁నరసింహం	-14335
▁నాటకంలో	-14336
▁నిర్మూల	-14337
▁పండుగలు	-14338
▁పాండవుల	-14339
▁పెద్దయె	-14340
▁పేరుమీద	-14341
▁ఫలితాలు	-14342
▁భారతంలో	-14343
▁మల్లయ్య	-14344
▁రకాలుగా	-14345
▁సాంప్రద	-14346
▁స్వయంభు	-14347
తులయ్యారు	-14348
▁ఇతివృత్త	-14349
▁ఉత్తరంగా	-14350
▁ఉద్యోగుల	-14351
▁ఓడించాడు	-14352
▁కలిగించే	-14353
▁కెప్టెన్	-14354
▁కొవ్వూరు	-14355
▁క్రీడలలో	-14356
▁చేరుకుని	-14357
▁డిప్యూటీ	-14358
▁తండ్రికి	-14359
▁తగ్గింది	-14360
▁తళ్ళికోట	-14361
▁తీసికొని	-14362
▁దేవాలయాల	-14363
▁దేశమంతటా	-14364
▁దేశాల్లో	-14365
▁నిలిచారు	-14366
▁పాలనలోకి	-14367
▁పాలుపంచు	-14368
▁పుత్రులు	-14369
▁ప్రతినాయ	-14370
▁భవనాన్ని	-14371
▁యునెస్కో	-14372
▁విధాలుగా	-14373
▁విరాళంగా	-14374
▁వ్రాసాడు	-14375
▁సినిమాతో	-14376
▁స్టేడియం	-14377
▁స్థలపురా	-14378
▁ఆంగ్లేయుల	-14379
▁ఆర్యభట్టు	-14380
▁ఉద్యోగాలు	-14381
▁ఔరంగాబాద్	-14382
▁కావచ్చును	-14383
▁కుదిరింది	-14384
▁గాయకురాలు	-14385
▁చిన్ననాటి	-14386
▁చూడటానికి	-14387
▁చేసినట్లు	-14388
▁చేసుకోవడం	-14389
▁డాక్టరేట్	-14390
▁పురాణాలలో	-14391
▁పుస్తకంలో	-14392
▁భారతీయులు	-14393
▁మంత్రిత్వ	-14394
▁మధ్యాహ్నం	-14395
▁మొదలుకొని	-14396
▁రఘురామయ్య	-14397
▁వారపత్రిక	-14398
▁విచ్ఛిన్న	-14399
▁విజయానికి	-14400
▁శ్రీకాంత్	-14401
▁సముద్రతీర	-14402
▁సృష్టించి	-14403
▁కల్పించారు	-14404
▁జాగ్రత్తగా	-14405
▁తీసుకోలేదు	-14406
▁నిర్మితమైన	-14407
▁వరంగల్లోనూ	-14408
▁సృష్టించిన	-14409
▁స్వామివారు	-14410
▁ఉష్ణోగ్రతలు	-14411
▁కనిపించింది	-14412
▁కాంప్లెక్స్	-14413
▁చేసుకోవచ్చు	-14414
▁తమ్మారెడ్డి	-14415
▁పుట్టినరోజు	-14416
▁రవీంద్రనాథ్	-14417
▁శనివారంనాడు	-14418
▁ఆంధ్రరాష్ట్ర	-14419
▁ఇబ్రహీంపట్నం	-14420
▁కలిగిస్తుంది	-14421
▁కోటేశ్వరరావు	-14422
▁చిత్రాల్లోనూ	-14423
▁ప్రయత్నించిన	-14424
▁మహాశివరాత్రి	-14425
▁విష్ణుమూర్తి	-14426
▁సంవత్సరాల్లో	-14427
▁సాహిత్యానికి	-14428
▁స్థిరపడ్డారు	-14429
▁కార్యాలయాన్ని	-14430
▁జరుగుతున్నాయి	-14431
▁నిర్వహించింది	-14432
▁మొదలుపెట్టారు	-14433
▁శ్రీరామమూర్తి	-14434
▁సికింద్రాబాద్	-14435
▁తెలియజేస్తుంది	-14436
▁ప్రమాణస్వీకారం	-14437
▁చంద్రబాబునాయుడు	-14438
▁చెన్నకేశవస్వామి	-14439
▁పనిచేస్తున్నారు	-14440
▁పురస్కరించుకొని	-14441
▁ప్రవేశపెట్టింది	-14442
?"	-14443
AN	-14444
ph	-14445
ఖో	-14446
బయ	-14447
మళ	-14448
.10	-14449
13,	-14450
70.	-14451
90.	-14452
ara	-14453
arn	-14454
ism	-14455
ost	-14456
అను	-14457
కిక	-14458
తేజ	-14459
నవం	-14460
మరా	-14461
లకం	-14462
శాం	-14463
సాన	-14464
ూరో	-14465
▁Sh	-14466
▁గద	-14467
▁డం	-14468
▁షీ	-14469
.177	-14470
orld	-14471
కద్ర	-14472
కన్య	-14473
గుణం	-14474
చైనా	-14475
జంతా	-14476
జాక్	-14477
టికా	-14478
ట్టో	-14479
తాండ	-14480
త్వా	-14481
నుకు	-14482
పరచి	-14483
పాయి	-14484
పేజీ	-14485
పైగా	-14486
భర్త	-14487
మూడు	-14488
రిన్	-14489
లోగా	-14490
ల్పు	-14491
వయ్య	-14492
వెంట	-14493
వేదం	-14494
షీద్	-14495
ైనర్	-14496
▁(1,	-14497
▁109	-14498
▁118	-14499
▁135	-14500
▁Sar	-14501
▁[1]	-14502
▁అరె	-14503
▁అవే	-14504
▁ఆలప	-14505
▁ఎగి	-14506
▁కోవ	-14507
▁ఘటన	-14508
▁చిట	-14509
▁జరప	-14510
▁టమో	-14511
▁తీగ	-14512
▁తేట	-14513
▁తేమ	-14514
▁నాద	-14515
▁ఫైన	-14516
▁భట్	-14517
▁వేర	-14518
▁శంక	-14519
▁సద్	-14520
ండును	-14521
ందురు	-14522
కాలకు	-14523
కాలపు	-14524
పడుతూ	-14525
పరచిన	-14526
పాకలో	-14527
మనిషి	-14528
మల్లి	-14529
రాజన్	-14530
లలోనే	-14531
శేఖరం	-14532
ినీడు	-14533
ీయమైన	-14534
▁(194	-14535
▁1800	-14536
▁comp	-14537
▁కనుల	-14538
▁కలది	-14539
▁కలలు	-14540
▁కలాం	-14541
▁కీసర	-14542
▁గానే	-14543
▁గోపు	-14544
▁గ్లా	-14545
▁చీఫ్	-14546
▁జాగీ	-14547
▁జోషి	-14548
▁టాక్	-14549
▁తిలక	-14550
▁తెరి	-14551
▁నాగా	-14552
▁నోటి	-14553
▁పంపే	-14554
▁పదాల	-14555
▁పాతి	-14556
▁పులక	-14557
▁పూను	-14558
▁పోసి	-14559
▁ఫ్లో	-14560
▁బాపి	-14561
▁బాపూ	-14562
▁బెలూ	-14563
▁భగీర	-14564
▁భరత్	-14565
▁మతాల	-14566
▁మినీ	-14567
▁యురే	-14568
▁వాటా	-14569
▁వేగం	-14570
▁వేదం	-14571
▁వ్లా	-14572
▁సాగే	-14573
▁సెట్	-14574
.1907)	-14575
.2018)	-14576
ionary	-14577
nivers	-14578
గోపురం	-14579
టిగంటి	-14580
తండ్రి	-14581
త్రపతి	-14582
దేవిని	-14583
ద్వేలు	-14584
పరిశోధ	-14585
పూర్వం	-14586
రూపంలో	-14587
ల్లారా	-14588
వృత్తి	-14589
సరించి	-14590
ాంటిక్	-14591
ింట్లో	-14592
ిక్యుల	-14593
ెంట్స్	-14594
▁కాన్ఫ	-14595
▁ఖరీఫ్	-14596
▁గూడెం	-14597
▁గోడకు	-14598
▁చైత్ర	-14599
▁ఛంధము	-14600
▁జడ్జి	-14601
▁జవాబు	-14602
▁డచ్చి	-14603
▁తృతీయ	-14604
▁దీవుల	-14605
▁నడిబొ	-14606
▁పాక్ష	-14607
▁ఫంక్ష	-14608
▁ఫర్డ్	-14609
▁బాలుర	-14610
▁ముత్త	-14611
▁లీడర్	-14612
▁వాస్త	-14613
▁శోభనా	-14614
▁సుమతీ	-14615
▁స్వర్	-14616
జిస్ట్ర	-14617
భవాన్ని	-14618
వంతుడైన	-14619
▁ఆదేశాల	-14620
▁ఎక్కడి	-14621
▁కలుగజే	-14622
▁కవులలో	-14623
▁కొలువై	-14624
▁కొల్లి	-14625
▁కోర్సు	-14626
▁ఖ్యాతి	-14627
▁గింజలు	-14628
▁గ్రూపు	-14629
▁చదరంగం	-14630
▁చైనీస్	-14631
▁డాన్స్	-14632
▁దేవరాయ	-14633
▁దొరికే	-14634
▁నందిని	-14635
▁నగరపంచ	-14636
▁నటీనటు	-14637
▁నర్తకి	-14638
▁నిజమైన	-14639
▁నిర్దో	-14640
▁పండిట్	-14641
▁పిల్లి	-14642
▁పెద్దల	-14643
▁పోయాయి	-14644
▁ప్రకటి	-14645
▁బురుజు	-14646
▁బుల్లి	-14647
▁భార్యా	-14648
▁మంజీరా	-14649
▁మాల్దీ	-14650
▁రంగులో	-14651
▁రోహిణి	-14652
▁విజయభా	-14653
▁వివక్ష	-14654
▁సంకల్ప	-14655
▁సంక్రమ	-14656
నున్నారు	-14657
▁అందుకనే	-14658
▁అందుచేత	-14659
▁అలియాస్	-14660
▁ఆద్యుడు	-14661
▁ఇల్లాలు	-14662
▁ఉద్యోగి	-14663
▁ఏలూరులో	-14664
▁జనార్ధన	-14665
▁జరుగుతూ	-14666
▁తాత్విక	-14667
▁దిగుబడి	-14668
▁నాగరాజు	-14669
▁పన్నులు	-14670
▁పాపఘ్ని	-14671
▁పుష్కరి	-14672
▁పేదరికం	-14673
▁ఫాల్గుణ	-14674
▁భేదములు	-14675
▁మహదేవన్	-14676
▁మార్షల్	-14677
▁వామపక్ష	-14678
▁వాయిద్య	-14679
▁వేసవిలో	-14680
▁స్పీకరు	-14681
▁స్వాగతం	-14682
వారిపాలెం	-14683
▁అందులోని	-14684
▁అవసరాలను	-14685
▁ఆనవాళ్ళు	-14686
▁కమలాబాయి	-14687
▁కాంచనమాల	-14688
▁కావ్యాలు	-14689
▁కుటుంబము	-14690
▁గాంచింది	-14691
▁గూడవల్లి	-14692
▁చెరువులో	-14693
▁ఛాంపియన్	-14694
▁జలపాతాలు	-14695
▁తెలిపారు	-14696
▁నమోదైంది	-14697
▁పాఠశాలకు	-14698
▁పోతులూరి	-14699
▁భక్తులను	-14700
▁ముదిగొండ	-14701
▁రామగుండం	-14702
▁రూపాన్ని	-14703
▁శిష్యుడు	-14704
▁శ్రీనివా	-14705
▁సంస్థలకు	-14706
▁సుందరమైన	-14707
సుబ్బారావు	-14708
▁అదిలాబాదు	-14709
▁అద్భుతంగా	-14710
▁అవార్డులు	-14711
▁ఆచార్యుడు	-14712
▁ఇండస్ట్రీ	-14713
▁ఉపయోగించు	-14714
▁కాకినాడలో	-14715
▁కార్యనిర్	-14716
▁చెప్పబడిన	-14717
▁జయప్రకాశ్	-14718
▁పట్టణాలలో	-14719
▁పనిచేసారు	-14720
▁ప్రతిబింబ	-14721
▁భానుప్రియ	-14722
▁మార్కండేయ	-14723
▁మెమోరియల్	-14724
▁రాష్ట్రీయ	-14725
▁లభిస్తాయి	-14726
▁వెళ్ళింది	-14727
▁వ్యవస్థకు	-14728
▁సీతారాముల	-14729
ాలనుకుంటాడు	-14730
▁ఉత్తరాఖండ్	-14731
▁కరీంనగర్లో	-14732
▁తయారుచేసిన	-14733
▁పురుషోత్తమ	-14734
▁పోషించింది	-14735
▁ప్రయత్నించ	-14736
▁శతాబ్దాలలో	-14737
▁శాస్త్రంలో	-14738
▁సంగీతానికి	-14739
▁సంయుక్తంగా	-14740
▁సంస్కృతిని	-14741
▁సముద్రతీరం	-14742
▁సాంప్రదాయం	-14743
▁సిద్ధేంద్ర	-14744
నాగేశ్వరరావు	-14745
▁అనుభవించాడు	-14746
▁అనువదించారు	-14747
▁కన్యాశుల్కం	-14748
▁క్రిస్టియన్	-14749
▁పెరుగుతున్న	-14750
▁ప్రసిద్ధుడు	-14751
▁ప్రహ్లాదుని	-14752
▁సంపాదించాడు	-14753
▁అప్పుడప్పుడు	-14754
▁ఎన్నికయ్యారు	-14755
▁గురువారంనాడు	-14756
▁చెప్పవచ్చును	-14757
▁చెప్పుకోదగిన	-14758
▁తీసుకున్నాడు	-14759
▁ప్రాజెక్టుకు	-14760
▁మహాత్మాగాంధీ	-14761
▁మునిసిపాలిటీ	-14762
▁రంగాచార్యులు	-14763
▁వాడుతున్నారు	-14764
▁ఛాయాగ్రాహకుడు	-14765
▁ముఖ్యమంత్రులు	-14766
▁సంప్రదాయానికి	-14767
▁అందిస్తున్నాయి	-14768
▁ప్రవేశపెట్టారు	-14769
▁తుర్కమేనిస్తాన్	-14770
▁ప్రారంభమవుతుంది	-14771
▁రాజేంద్రప్రసాద్	-14772
cy	-14773
జై	-14774
థో	-14775
పౌ	-14776
ూప	-14777
-21	-14778
10,	-14779
50.	-14780
ita	-14781
oog	-14782
ree	-14783
ంకు	-14784
ందల	-14785
ఇన్	-14786
ఋతి	-14787
కిట	-14788
గడి	-14789
గన్	-14790
ఘ్ర	-14791
జ్వ	-14792
తెర	-14793
నార	-14794
పార	-14795
భవన	-14796
యంబ	-14797
యాగ	-14798
వంక	-14799
వరీ	-14800
వాచ	-14801
సాం	-14802
ాయల	-14803
ికూ	-14804
▁Bh	-14805
▁Th	-14806
▁ఊర	-14807
▁ఎద	-14808
▁కట	-14809
▁సన	-14810
.180	-14811
000)	-14812
iter	-14813
ంగిక	-14814
ంద్వ	-14815
టులో	-14816
ట్టె	-14817
డాలు	-14818
డీస్	-14819
దుకు	-14820
నీస్	-14821
నేట్	-14822
పారం	-14823
పీఠం	-14824
పోతల	-14825
బేజీ	-14826
మాలి	-14827
మిర్	-14828
రాసు	-14829
రికం	-14830
రోహి	-14831
ర్రె	-14832
వాలో	-14833
షిక్	-14834
సెను	-14835
సెల్	-14836
ాయణం	-14837
ోదరం	-14838
▁112	-14839
▁114	-14840
▁149	-14841
▁154	-14842
▁157	-14843
▁167	-14844
▁169	-14845
▁365	-14846
▁505	-14847
▁900	-14848
▁con	-14849
▁అకా	-14850
▁ఇంక	-14851
▁కలవ	-14852
▁చామ	-14853
▁మొర	-14854
▁రథం	-14855
▁రస్	-14856
▁రాణ	-14857
▁రైత	-14858
▁లోహ	-14859
▁వయో	-14860
▁వాజ	-14861
▁విప	-14862
▁శోధ	-14863
▁షాజ	-14864
▁సొర	-14865
eople	-14866
overn	-14867
కెళ్ళ	-14868
కోలేక	-14869
క్కడా	-14870
గల్లు	-14871
గాయని	-14872
చెర్ల	-14873
తానని	-14874
తుందో	-14875
పార్వ	-14876
ప్పన్	-14877
బుంటు	-14878
మానము	-14879
మిత్ర	-14880
ములపై	-14881
మేషన్	-14882
రేటరీ	-14883
విందు	-14884
శాసనం	-14885
్యూరి	-14886
▁1912	-14887
▁Linu	-14888
▁అజ్ఞ	-14889
▁ఇలవే	-14890
▁ఊరేగ	-14891
▁కంచు	-14892
▁కర్ణ	-14893
▁కలవు	-14894
▁కిరీ	-14895
▁కోడు	-14896
▁గలదు	-14897
▁గోర్	-14898
▁జరుగ	-14899
▁టైప్	-14900
▁తేలి	-14901
▁దళాల	-14902
▁దేశ్	-14903
▁ద్వా	-14904
▁నగలు	-14905
▁నవీన	-14906
▁నాన్	-14907
▁ప్రధ	-14908
▁ఫెర్	-14909
▁భట్ట	-14910
▁మనసే	-14911
▁మహ్మ	-14912
▁ముఖ్	-14913
▁వారీ	-14914
▁శారీ	-14915
▁శిఖర	-14916
▁శిబి	-14917
▁శ్మశ	-14918
▁హోల్	-14919
.1986)	-14920
.1992)	-14921
.1998)	-14922
కళాశాల	-14923
కుందాం	-14924
కుల్లో	-14925
గ్గయ్య	-14926
చేసాడు	-14927
జిత్తు	-14928
టాన్ని	-14929
పూర్ణా	-14930
మానాలు	-14931
లోకంలో	-14932
వస్త్ర	-14933
విధ్యం	-14934
విశ్వా	-14935
సంఖ్యా	-14936
హక్కుల	-14937
ేష్కర్	-14938
▁2023,	-14939
▁అండగా	-14940
▁అందరు	-14941
▁అనేవి	-14942
▁అల్లం	-14943
▁కథలను	-14944
▁కానుక	-14945
▁కుండల	-14946
▁కుందే	-14947
▁కెర్న	-14948
▁కొద్ద	-14949
▁చలపతి	-14950
▁జ్వరం	-14951
▁తియ్య	-14952
▁దేవతా	-14953
▁ధాన్య	-14954
▁నంద్య	-14955
▁నిరాశ	-14956
▁పట్టే	-14957
▁పరిమళ	-14958
▁పెండ్	-14959
▁బియ్య	-14960
▁భవాని	-14961
▁మర్యా	-14962
▁మల్లు	-14963
▁మిరియ	-14964
▁యానాం	-14965
▁యువతి	-14966
▁రాయల్	-14967
▁రావుల	-14968
▁విమోచ	-14969
▁శ్వాస	-14970
▁సవాలు	-14971
▁స్టాం	-14972
ట్లయితే	-14973
దర్శిని	-14974
బద్ధమైన	-14975
మయ్యాడు	-14976
▁ఇండోర్	-14977
▁ఎనలేని	-14978
▁ఎవరికీ	-14979
▁కొవ్వు	-14980
▁ఘగ్గర్	-14981
▁ఘటోత్క	-14982
▁చిన్నా	-14983
▁జన్మని	-14984
▁జయలలిత	-14985
▁తానీషా	-14986
▁దీనిపై	-14987
▁దీవులు	-14988
▁దేవిని	-14989
▁నిక్షే	-14990
▁పక్షుల	-14991
▁పచ్చడి	-14992
▁పర్యటన	-14993
▁పారిస్	-14994
▁పాలేరు	-14995
▁పిల్లా	-14996
▁పేదలకు	-14997
▁ఫ్లాష్	-14998
▁బాలుడు	-14999
▁బుక్కర	-15000
▁బొర్రా	-15001
▁భారీగా	-15002
▁మరణించ	-15003
▁ముప్పు	-15004
▁రాకెట్	-15005
▁రాగానే	-15006
▁రాహుల్	-15007
▁వీటితో	-15008
▁వెంపటి	-15009
▁వ్యవధి	-15010
▁సంపాది	-15011
▁సమీపాన	-15012
▁సొమ్ము	-15013
▁సౌకర్య	-15014
▁స్మృతి	-15015
▁హరికథా	-15016
కునేవారు	-15017
కొనేవారు	-15018
స్తున్నా	-15019
▁అందించి	-15020
▁ఆలంపూర్	-15021
▁ఉపనదులు	-15022
▁ఎడమవైపు	-15023
▁ఎన్నుకో	-15024
▁ఒరిస్సా	-15025
▁కలివికో	-15026
▁గట్టిగా	-15027
▁గాంధీని	-15028
▁గాయత్రీ	-15029
▁చురుకైన	-15030
▁దుర్యోధ	-15031
▁దేశాలతో	-15032
▁ధర్మారం	-15033
▁ధూర్జటి	-15034
▁నైపుణ్య	-15035
▁పెడతాడు	-15036
▁పోరాడిన	-15037
▁భాగాలను	-15038
▁భావించే	-15039
▁మధుమేహం	-15040
▁మసీదులు	-15041
▁మార్గము	-15042
▁వందలాది	-15043
▁వచ్చేది	-15044
▁వల్లూరు	-15045
▁వ్యాసము	-15046
▁సంఘర్షణ	-15047
▁సన్నిధి	-15048
▁సిమెంట్	-15049
మిస్తుంది	-15050
▁అరుణాచల్	-15051
▁ఇటాలియన్	-15052
▁ఉదాహరణలు	-15053
▁కొల్లూరు	-15054
▁గణాంకాలు	-15055
▁చరిత్రకు	-15056
▁త్యాగయ్య	-15057
▁దీనివల్ల	-15058
▁దురదృష్ట	-15059
▁పద్ధతులు	-15060
▁పాత్రలలో	-15061
▁పారిపోయి	-15062
▁ప్రయోక్త	-15063
▁బాలచంద్ర	-15064
▁భారతీయుల	-15065
▁మ్యూజిక్	-15066
▁యోగ్యమైన	-15067
▁రాజకీయాల	-15068
▁లక్షలాది	-15069
▁వయస్సులో	-15070
▁విద్వాన్	-15071
▁సత్యజిత్	-15072
▁సింగపూర్	-15073
▁సెక్రటరీ	-15074
▁అధికారాలు	-15075
▁అధీనంలోకి	-15076
▁అసోసియేట్	-15077
▁ఉద్యోగులు	-15078
▁కట్టించిన	-15079
▁కావడానికి	-15080
▁గ్రంథాలను	-15081
▁గ్రంథాలయో	-15082
▁నాగరికతకు	-15083
▁పనిచేస్తూ	-15084
▁పొందుతాడు	-15085
▁ప్రముఖమైన	-15086
▁బాధ్యతలను	-15087
▁ముగింపుకు	-15088
▁రజనీకాంత్	-15089
▁లింగాన్ని	-15090
▁విధానాలను	-15091
▁సభ్యుడిగా	-15092
▁సాహిత్యము	-15093
▁స్థిరపడిన	-15094
స్తున్నట్లు	-15095
▁క్షేత్రాలు	-15096
▁చదువుచున్న	-15097
▁జిల్లాల్లో	-15098
▁తిరునాళ్ళు	-15099
▁పట్టణాన్ని	-15100
▁పరిస్థితుల	-15101
▁పుస్తకాలను	-15102
▁పూజిస్తారు	-15103
▁పెద్దాపురం	-15104
▁భవిష్యత్తు	-15105
▁భూభాగాన్ని	-15106
▁మాట్లాడుతూ	-15107
▁రిజర్వాయర్	-15108
▁విఠలాచార్య	-15109
▁వివరించాడు	-15110
▁వెంకట్రావు	-15111
▁వ్యవహారాలు	-15112
▁అందజేసినారు	-15113
▁కనిపిస్తాడు	-15114
▁గెలుచుకుంది	-15115
▁తత్త్వవేత్త	-15116
▁తీర్ధప్రసాద	-15117
▁పార్లమెంటరీ	-15118
▁ప్రధానపాత్ర	-15119
▁ప్రెసిడెంట్	-15120
▁బ్రహ్మంగారు	-15121
▁బ్రాహ్మణులు	-15122
▁భాగస్వామ్యం	-15123
▁మొదలయ్యింది	-15124
▁రాష్ట్రములో	-15125
▁రెండుసార్లు	-15126
▁వెన్నెలకంటి	-15127
▁కృష్ణమాచార్య	-15128
▁కొనసాగించారు	-15129
▁కొన్నిసార్లు	-15130
▁పరిపాలించాడు	-15131
▁పరిస్థితులలో	-15132
▁పెద్దయెత్తున	-15133
▁కల్పించడానికి	-15134
▁బాలమురళీకృష్ణ	-15135
▁రైల్వేస్టేషను	-15136
▁నిర్వహించడానికి	-15137
!!	-15138
06	-15139
AR	-15140
ai	-15141
డౌ	-15142
రష	-15143
షో	-15144
-25	-15145
4).	-15146
60.	-15147
The	-15148
ass	-15149
ebs	-15150
hra	-15151
oci	-15152
ంకా	-15153
అర్	-15154
ఇంట	-15155
చడం	-15156
తాయ	-15157
థర్	-15158
ధిర	-15159
మధు	-15160
యిం	-15161
రగా	-15162
వశా	-15163
ేయు	-15164
▁కణ	-15165
▁జత	-15166
▁జర	-15167
▁జహ	-15168
▁మయ	-15169
▁షు	-15170
html	-15171
line	-15172
క్తా	-15173
క్షీ	-15174
జన్మ	-15175
జాలం	-15176
నక్ష	-15177
నుంచ	-15178
పద్య	-15179
పుని	-15180
పోగా	-15181
ప్పీ	-15182
ప్రథ	-15183
బ్యూ	-15184
భాయి	-15185
భాయ్	-15186
మున్	-15187
మేమి	-15188
రావ్	-15189
రుచి	-15190
లోచన	-15191
శాతం	-15192
సాను	-15193
స్లా	-15194
హరణం	-15195
ావతి	-15196
ెండవ	-15197
ేవని	-15198
▁104	-15199
▁113	-15200
▁145	-15201
▁163	-15202
▁181	-15203
▁212	-15204
▁213	-15205
▁589	-15206
▁అసు	-15207
▁ఆడే	-15208
▁ఆరో	-15209
▁ఉడు	-15210
▁ఏల్	-15211
▁ఐటి	-15212
▁కమా	-15213
▁జని	-15214
▁తాన	-15215
▁నాం	-15216
▁పరవ	-15217
▁మతా	-15218
▁యజు	-15219
▁లగ్	-15220
▁వాగ	-15221
▁సలీ	-15222
5,000	-15223
istry	-15224
ంగారు	-15225
ఈనాడు	-15226
ఉత్తర	-15227
చుక్క	-15228
చెప్ప	-15229
తరగతి	-15230
త్తడి	-15231
దారుల	-15232
నకొండ	-15233
పతులు	-15234
పిళ్ల	-15235
ప్పుల	-15236
ప్రభా	-15237
బాంబు	-15238
బోయిన	-15239
మగును	-15240
మించు	-15241
[...]
