<unk>	0
<s>	0
</s>	0
్ర	-0
▁ప	-1
▁క	-2
▁స	-3
ార	-4
▁వ	-5
ని	-6
్య	-7
లో	-8
న్	-9
ాల	-10
ంద	-11
▁మ	-12
ర్	-13
▁అ	-14
లు	-15
స్	-16
▁న	-17
▁ర	-18
▁గ	-19
▁ఉ	-20
క్	-21
▁ప్ర	-22
ంది	-23
▁చ	-24
న్న	-25
రు	-26
ాయ	-27
డి	-28
ామ	-29
డు	-30
▁త	-31
కు	-32
ిం	-33
ల్	-34
▁ద	-35
▁ఆ	-36
ంలో	-37
▁జ	-38
గా	-39
త్	-40
▁బ	-41
ను	-42
▁1	-43
ించ	-44
కి	-45
రి	-46
ారు	-47
▁వి	-48
▁గ్ర	-49
తు	-50
ట్	-51
టి	-52
ాయి	-53
▁గ్రామ	-54
తి	-55
▁భ	-56
▁ఇ	-57
గు	-58
త్ర	-59
ండ	-60
▁సం	-61
ిన	-62
▁ఉన్న	-63
ాలు	-64
▁శ	-65
్వ	-66
టు	-67
ము	-68
ల్ల	-69
ార్	-70
రా	-71
వు	-72
▁ల	-73
ిక	-74
ద్	-75
ుం	-76
ాం	-77
మీ	-78
ది	-79
ష్	-80
ాని	-81
ాన	-82
వి	-83
▁(	-84
▁ఈ	-85
సు	-86
▁రా	-87
▁హ	-88
పు	-89
▁ని	-90
▁నుం	-91
ాడు	-92
ంగా	-93
▁ఎ	-94
▁చే	-95
తో	-96
లి	-97
▁ఒ	-98
డ్	-99
▁నుండి	-100
▁ఉంది	-101
▁2	-102
ంట	-103
ారి	-104
▁ఉన్నాయి	-105
▁పా	-106
ైన	-107
శాల	-108
దు	-109
వా	-110
▁కి	-111
కర	-112
▁వ్య	-113
డా	-114
ంద్ర	-115
▁ఒక	-116
ప్	-117
క్ట	-118
ద్య	-119
ేశ	-120
ానికి	-121
క్ష	-122
నే	-123
మా	-124
▁19	-125
మి	-126
న్ని	-127
▁-	-128
▁సి	-129
ెం	-130
ూర	-131
చి	-132
బ్	-133
ేంద్ర	-134
గ్	-135
స్తు	-136
స్త	-137
▁తె	-138
▁గ్రామంలో	-139
▁గ్రామం	-140
వే	-141
చ్	-142
▁ము	-143
ిల్ల	-144
మ్	-145
్రీ	-146
▁చె	-147
్యం	-148
▁కేంద్ర	-149
క్క	-150
▁కొ	-151
స్థ	-152
ందు	-153
▁దూర	-154
ారా	-155
▁స్	-156
▁వ్యవ	-157
జు	-158
త్వ	-159
సి	-160
నా	-161
రం	-162
▁దూరంలో	-163
▁పో	-164
త్త	-165
▁య	-166
▁జిల్ల	-167
▁లో	-168
▁చి	-169
▁ఏ	-170
▁10	-171
ారం	-172
ాగ	-173
ోగ	-174
యం	-175
ట్ట	-176
ళ్	-177
▁కూ	-178
ించి	-179
▁భూ	-180
▁లే	-181
▁మొ	-182
తా	-183
▁20	-184
▁జిల్లా	-185
ూర్	-186
ట్ర	-187
రుగు	-188
▁కో	-189
▁నిర్	-190
ప్ర	-191
గి	-192
▁పు	-193
▁కు	-194
▁హె	-195
▁రో	-196
కా	-197
ఖ్య	-198
▁భార	-199
త్య	-200
ీయ	-201
బడి	-202
చ్చ	-203
▁కా	-204
▁మా	-205
ంచ	-206
▁సౌ	-207
▁వా	-208
▁ప్రభ	-209
▁5	-210
ద్ధ	-211
నీ	-212
ద్ద	-213
లా	-214
▁హెక్ట	-215
ంత	-216
పి	-217
▁హెక్టార్	-218
▁సౌకర	-219
పా	-220
▁కూడా	-221
▁కేంద్రం	-222
▁గు	-223
ించిన	-224
▁వై	-225
▁పాఠ	-226
హి	-227
ధ్య	-228
▁ప్రభు	-229
▁కళ	-230
▁ద్వ	-231
సాయ	-232
▁సమీ	-233
▁పాఠశాల	-234
య్య	-235
తం	-236
మైన	-237
▁సిని	-238
త్స	-239
▁ప్రభుత్వ	-240
లుగు	-241
▁భారత	-242
ేవ	-243
▁రాజ	-244
మ్మ	-245
ప్ప	-246
▁వ్యవసాయ	-247
▁సా	-248
▁ఫ	-249
మిక	-250
▁హెక్టార్లు	-251
▁స్వ	-252
▁ప్రా	-253
ంగ	-254
యి	-255
▁పె	-256
▁శ్రీ	-257
త్రి	-258
▁కళా	-259
దేశ	-260
▁నీ	-261
బా	-262
ళ్ళ	-263
ష్ట్ర	-264
▁ద్వారా	-265
▁సమీప	-266
టీ	-267
ంధ	-268
▁సు	-269
▁వే	-270
ండల	-271
▁విద్య	-272
ూరు	-273
ర్శ	-274
ివ	-275
▁భూమి	-276
▁3	-277
▁కళాశాల	-278
ైవే	-279
యా	-280
్రా	-281
▁తెలుగు	-282
▁రాష్ట్ర	-283
ష్ణ	-284
▁డి	-285
కొ	-286
ేష	-287
▁సర	-288
ైవేటు	-289
న్నాయి	-290
ీసు	-291
ుల	-292
▁బా	-293
▁చిత్ర	-294
▁రోజు	-295
▁సినిమా	-296
▁సామ	-297
్యా	-298
▁తి	-299
▁పరి	-300
దల	-301
ాంత	-302
ాల్	-303
▁మండల	-304
ుడు	-305
19	-306
బ్బ	-307
దా	-308
▁పై	-309
▁శా	-310
ణి	-311
▁వె	-312
ించారు	-313
కో	-314
లలో	-315
▁పే	-316
▁రచ	-317
▁వైద్య	-318
▁సౌకర్యం	-319
▁జన	-320
్రి	-321
సం	-322
నియ	-323
రణ	-324
▁భా	-325
▁డా	-326
థమిక	-327
ులు	-328
ధాన	-329
్యూ	-330
▁ప్రైవేటు	-331
ందిన	-332
భా	-333
ట్టి	-334
▁వీ	-335
తుంది	-336
బడిన	-337
కృ	-338
రాల	-339
కం	-340
▁పి	-341
లను	-342
▁పొ	-343
▁కార	-344
▁సంఖ్య	-345
నం	-346
డం	-347
డ్డి	-348
క్కు	-349
తర	-350
▁అనే	-351
త్తి	-352
▁నా	-353
స్తుంది	-354
హద	-355
▁సరఫ	-356
సిన	-357
న్నారు	-358
వం	-359
▁మార్	-360
▁డాక్ట	-361
▁ఆర	-362
ింగ్	-363
▁ఇం	-364
▁ఇది	-365
వత్స	-366
రావు	-367
లకు	-368
ించాడు	-369
ల్లి	-370
▁201	-371
▁రామ	-372
ర్లు	-373
▁ప్రాథమిక	-374
▁అత	-375
హా	-376
▁తన	-377
▁ఉన్నారు	-378
పో	-379
▁స్థ	-380
ాలను	-381
రీ	-382
▁"	-383
పతి	-384
లే	-385
మె	-386
▁శి	-387
టె	-388
దే	-389
▁రహద	-390
▁సమ	-391
ంటే	-392
00	-393
▁సంవత్స	-394
్రహ	-395
▁ప్రాంత	-396
▁పార	-397
▁గో	-398
▁రహదారి	-399
జీ	-400
కుడు	-401
వాత	-402
▁చెందిన	-403
ల్లో	-404
లీ	-405
నూ	-406
ాత	-407
వులు	-408
▁కాల	-409
ండ్	-410
వరి	-411
▁ప్రక	-412
▁ఆరోగ	-413
▁అవ	-414
▁పైబడిన	-415
చు	-416
రకు	-417
ీత	-418
▁దర్శ	-419
▁మే	-420
▁మీ	-421
స్ట	-422
▁నే	-423
▁ష	-424
ెడ్డి	-425
▁సరఫరా	-426
చే	-427
ప్పు	-428
▁4	-429
ద్ధి	-430
ర్త	-431
▁ప్రధాన	-432
పై	-433
్యాం	-434
▁వ్యవస్థ	-435
శా	-436
క్ర	-437
▁పం	-438
పాల	-439
▁సంగ	-440
..	-441
ేషన్	-442
▁విజ	-443
▁కార్య	-444
▁ఉండ	-445
లోని	-446
ఫీసు	-447
పె	-448
▁పట్ట	-449
ాప	-450
కాల	-451
▁జూ	-452
▁పాల	-453
▁కృ	-454
శ్వ	-455
▁ఆల	-456
ంధ్ర	-457
కల్	-458
ణా	-459
ేశ్వ	-460
▁అభ	-461
▁చేయ	-462
▁జరి	-463
జి	-464
▁18	-465
ాలయం	-466
▁అందు	-467
ణం	-468
▁మూ	-469
తోంది	-470
డే	-471
▁ప్రత్య	-472
ఫ్	-473
యన	-474
▁బాల	-475
ాజ	-476
ంబ	-477
▁7	-478
దలైన	-479
క్కువ	-480
శు	-481
▁సహ	-482
ద్ర	-483
▁అను	-484
▁అని	-485
వల	-486
.19	-487
సా	-488
కీ	-489
▁జరుగు	-490
▁ఆంధ్ర	-491
▁ఆర్	-492
స్తారు	-493
వారి	-494
▁కలి	-495
ెండు	-496
రో	-497
ట్టు	-498
▁దీ	-499
▁లేదు	-500
్మ	-501
▁తరు	-502
▁రూ	-503
▁పాఠశాలలు	-504
▁బి	-505
▁కె	-506
ానం	-507
తులు	-508
ామి	-509
ండా	-510
ాలలో	-511
ేక	-512
ధి	-513
ధిక	-514
▁జనా	-515
▁ఉప	-516
▁పేరు	-517
▁రెండు	-518
్యాలు	-519
క్షి	-520
లతో	-521
ెడి	-522
రించి	-523
నరు	-524
స్సు	-525
యిత	-526
▁ధ	-527
▁6	-528
ాతీయ	-529
▁నిర్మ	-530
▁జనాభా	-531
జ్	-532
మే	-533
గిన	-534
ోన్	-535
మం	-536
▁వారి	-537
ాజిక	-538
ైల్	-539
▁,	-540
గణ	-541
▁దేవ	-542
▁ఆరోగ్య	-543
▁సామాజిక	-544
ెడికల్	-545
▁సిబ్బ	-546
▁తరువాత	-547
▁కృష్ణ	-548
ైద	-549
రంగ	-550
వర్	-551
▁ఎక్కువ	-552
▁మి	-553
చ్చి	-554
లంగా	-555
▁యు	-556
ెట్	-557
ర్వ	-558
▁గ్రామానికి	-559
తీ	-560
క్షణ	-561
▁పారామ	-562
▁సంస్థ	-563
▁పారామెడికల్	-564
జ్య	-565
ాన్	-566
స్వ	-567
▁స్ట	-568
▁ఇతర	-569
ారాయ	-570
▁ప్రవ	-571
ించే	-572
బు	-573
▁డాక్టర్లు	-574
▁పర	-575
▁విద్యా	-576
▁మొద	-577
▁ఘ	-578
▁కింది	-579
▁ప్రతి	-580
▁భాష	-581
తున్నాయి	-582
నీరు	-583
▁మహ	-584
▁చూ	-585
▁నట	-586
దేశ్	-587
▁8	-588
లం	-589
▁నిర్వ	-590
▁ఏర్	-591
ర్మ	-592
▁డ	-593
రియ	-594
పే	-595
▁సౌకర్యాలు	-596
జా	-597
▁పాటు	-598
ంటు	-599
▁మురుగు	-600
▁నగ	-601
▁నీటి	-602
పల్లి	-603
ంలోని	-604
ందీ	-605
▁తీ	-606
పూర్	-607
యిన	-608
భి	-609
యో	-610
క్కడ	-611
▁టె	-612
గొ	-613
బర్	-614
డానికి	-615
▁దా	-616
ించింది	-617
ములో	-618
▁200	-619
▁ప్రకారం	-620
ైన్	-621
ించు	-622
▁తెలంగా	-623
దీ	-624
▁ఎస్	-625
ేశ్వర	-626
▁సే	-627
▁ఖ	-628
గ్రీ	-629
మో	-630
▁వం	-631
▁అంత	-632
▁ఒకటి	-633
▁నీరు	-634
చార	-635
నికి	-636
గ్గ	-637
ూర్తి	-638
▁దేశ	-639
ష్ట	-640
▁లేని	-641
ీల	-642
▁వచ్చ	-643
ూరి	-644
డ్డ	-645
▁కథ	-646
ంటారు	-647
ండి	-648
▁ముఖ్య	-649
ారాయణ	-650
స్త్ర	-651
▁రె	-652
స్తున్న	-653
▁పోష	-654
డుగు	-655
▁నె	-656
్రహ్మ	-657
▁రోడ్	-658
▁డిగ్రీ	-659
కులు	-660
▁జాతీయ	-661
▁మం	-662
ొక్క	-663
▁ఐ	-664
కార	-665
▁కం	-666
ెడ	-667
త్రిక	-668
▁రచన	-669
▁హి	-670
),	-671
బో	-672
ృద్ధి	-673
▁ప్రత్యేక	-674
కట	-675
కత్వ	-676
▁ఆట	-677
బరు	-678
ాన్ని	-679
▁ఉత్	-680
▁మంది	-681
▁నిర్మా	-682
▁సంఘ	-683
యోగ	-684
▁పట్టణ	-685
20	-686
▁'	-687
ములు	-688
▁వ్యవసాయం	-689
▁9	-690
▁మొదలైన	-691
ెస్	-692
▁ఇంట	-693
క్తి	-694
▁బస్సు	-695
▁గణ	-696
ారావు	-697
▁ఓ	-698
ినీ	-699
గణన	-700
▁పెద్ద	-701
క్ష్	-702
పం	-703
▁నాయ	-704
▁అధిక	-705
బ్లి	-706
▁బ్యాం	-707
▁నిర్వహ	-708
▁సె	-709
▁భాగ	-710
▁దు	-711
ాలి	-712
▁మరణ	-713
▁కంటే	-714
ంగ్	-715
రిత్ర	-716
ాలా	-717
శ్	-718
▁జనగణన	-719
రే	-720
ివృద్ధి	-721
గ్ర	-722
▁తెలంగాణ	-723
ుత్	-724
ర్థ	-725
కే	-726
▁మధ్య	-727
నియోగ	-728
▁గంట	-729
▁అన	-730
▁వాణి	-731
త్తం	-732
యంలో	-733
▁భారతదేశ	-734
▁ఇద్ద	-735
▁తా	-736
లన	-737
▁15	-738
▁వినియోగ	-739
▁ఉత్త	-740
రామ	-741
▁సంవత్సర	-742
ారంభ	-743
▁జీ	-744
▁వెం	-745
వర	-746
పత్రి	-747
▁అన్న	-748
ల్డ్	-749
▁విస్త	-750
▁తొ	-751
▁వనరు	-752
గం	-753
బడింది	-754
బ్లిక్	-755
నో	-756
▁లోని	-757
▁విద్యుత్	-758
▁198	-759
▁పథ	-760
▁చేసిన	-761
వుల	-762
▁అమ	-763
▁ప్రారంభ	-764
▁కాలు	-765
రాజు	-766
రిగి	-767
కున్న	-768
▁ఆసు	-769
చ్చు	-770
ప్పటి	-771
▁ఉండే	-772
▁కోసం	-773
ందుకు	-774
▁ప్రజ	-775
▁ఆసుపత్రి	-776
▁/	-777
▁రచయిత	-778
▁11	-779
▁నాగ	-780
▁టెలి	-781
▁మొదటి	-782
▁అభివృద్ధి	-783
▁బ్యాంకు	-784
పాద	-785
వ్వ	-786
శ్ర	-787
సే	-788
▁వాణిజ్య	-789
స్తున్నారు	-790
ధార	-791
▁199	-792
ీకర	-793
ంజ	-794
ంథ	-795
ట్ల	-796
▁చరిత్ర	-797
▁విడు	-798
యు	-799
సెం	-800
షి	-801
▁కల	-802
▁యొక్క	-803
▁షెడ	-804
కె	-805
▁షెడ్యూ	-806
▁దర్శకత్వ	-807
▁వనరుల	-808
కృష్ణ	-809
స్టా	-810
▁పథకం	-811
పంచ	-812
సరాల	-813
▁పార్	-814
ట్లు	-815
▁ఆమె	-816
▁ఇద్దరు	-817
▁సాగు	-818
ేమ	-819
ప్పుడు	-820
టుంబ	-821
▁పబ్లిక్	-822
▁వైద్యశాల	-823
▁షెడ్యూల్డ్	-824
▁వారం	-825
ుని	-826
▁ఆయన	-827
సన	-828
▁ఫోన్	-829
▁గ్రంథ	-830
▁గంటల	-831
ఎస్	-832
▁కవి	-833
▁రోడ్లు	-834
విధ	-835
▁ఆఫీసు	-836
▁12	-837
▁పద	-838
వీ	-839
కూ	-840
హార	-841
సీ	-842
▁విధ	-843
▁విజయ	-844
త్రం	-845
▁విశ్వ	-846
▁197	-847
కృత	-848
▁కుటుంబ	-849
స్టాఫీసు	-850
ందం	-851
▁పోస్టాఫీసు	-852
▁మె	-853
▁సాగ	-854
▁వ్యవసాయానికి	-855
నాయ	-856
కర్	-857
న్నత	-858
ొక	-859
రాబా	-860
▁తే	-861
▁చాలా	-862
▁నుంచి	-863
▁మూడు	-864
గల	-865
ల్లు	-866
▁హైద	-867
స్తూ	-868
నకు	-869
▁వరకు	-870
▁పని	-871
18	-872
ప్రదేశ్	-873
▁మండలం	-874
టం	-875
ంటుంది	-876
▁16	-877
బి	-878
మెం	-879
ందించ	-880
▁పాట	-881
▁వృ	-882
ాలకు	-883
▁సిబ్బందీ	-884
▁ది	-885
▁సినిమ	-886
▁తో	-887
▁నటించిన	-888
కుని	-889
▁196	-890
▁జరిగిన	-891
కారు	-892
▁రూప	-893
గో	-894
▁ఎం	-895
టక	-896
లిం	-897
కుండా	-898
▁గా	-899
▁ఫి	-900
ైల్వే	-901
▁195	-902
▁సాహి	-903
▁రంగ	-904
▁టి	-905
▁మహా	-906
▁ఇక్కడ	-907
▁కుమ	-908
▁చేసి	-909
▁జరుగుతోంది	-910
వేత్త	-911
▁బృ	-912
▁హైదరాబా	-913
▁17	-914
▁రైల్వే	-915
పాటు	-916
తంత్ర	-917
▁వార్	-918
).	-919
పురం	-920
ోత్స	-921
తున్న	-922
▁దీని	-923
▁ముందు	-924
▁దే	-925
ౌర	-926
టర్	-927
▁తిరిగి	-928
▁ప్రపంచ	-929
ఆర్	-930
టిని	-931
పడి	-932
▁సో	-933
లవ	-934
కర్త	-935
యన్	-936
సాల	-937
హిస్తుంది	-938
▁వివిధ	-939
▁పూ	-940
▁కోడ్	-941
▁పుర	-942
▁సంస్	-943
మై	-944
త్తు	-945
▁రాజు	-946
గుల	-947
▁లా	-948
తన	-949
▁వర్	-950
డీ	-951
▁చేసు	-952
▁మాధ్య	-953
▁సభ	-954
బంధ	-955
ైనా	-956
శీల	-957
▁బో	-958
నియర్	-959
▁క్ర	-960
▁లభి	-961
▁వ్యా	-962
▁.	-963
▁దక్షి	-964
రువు	-965
స్ట్	-966
ాల్లో	-967
▁మో	-968
దులు	-969
▁స్టేషన్	-970
వన	-971
▁ఆంధ్రప్రదేశ్	-972
ట్స్	-973
▁చెప్ప	-974
▁కేంద్రంలో	-975
దం	-976
▁డాక్టరు	-977
an	-978
▁ఊ	-979
ానీ	-980
సభ	-981
▁2011	-982
▁వంటి	-983
▁14	-984
రస	-985
తే	-986
గురు	-987
కోవ	-988
▁చిన్న	-989
▁స్వా	-990
▁ట్ర	-991
▁అవు	-992
▁వచ్చి	-993
ోన్నత	-994
స్తాడు	-995
▁బహి	-996
పత్తి	-997
▁ఆలయం	-998
ణీ	-999
వె	-1000
లై	-1001
ళ్ళు	-1002
▁మాధ్యమిక	-1003
▁క్	-1004
డాది	-1005
శం	-1006
▁ట	-1007
▁గృ	-1008
▁వెంకట	-1009
స్య	-1010
▁కాని	-1011
▁ప్రాథమికోన్నత	-1012
లోను	-1013
▁అతను	-1014
▁సహాయ	-1015
▁194	-1016
▁:	-1017
▁అతని	-1018
▁బీ	-1019
▁బస్సులు	-1020
▁శాస్త్ర	-1021
ర్భ	-1022
ాలయ	-1023
తాబ్	-1024
▁సమా	-1025
▁కొన్ని	-1026
వాడ	-1027
▁వారు	-1028
రూ	-1029
▁వహ	-1030
క్టో	-1031
▁కాం	-1032
▁పోల	-1033
▁శాసన	-1034
▁బావులు	-1035
పేట	-1036
పూ	-1037
▁13	-1038
▁ప్రవహిస్తుంది	-1039
▁మర	-1040
▁పారి	-1041
రెడ్డి	-1042
▁జూనియర్	-1043
▁తీసు	-1044
▁జిల్లాలో	-1045
ర్య	-1046
▁చేశ	-1047
▁బహిరంగ	-1048
▁సొ	-1049
బ్రహ్మ	-1050
▁ఘంట	-1051
▁నది	-1052
▁శతాబ్	-1053
లూ	-1054
▁కర్	-1055
▁ఏడాది	-1056
▁బృందం	-1057
▁ఎన్ని	-1058
▁మన	-1059
బడు	-1060
▁బు	-1061
▁కాగా	-1062
మెంటు	-1063
▁దర్శకత్వం	-1064
శి	-1065
▁అంగ	-1066
ధీ	-1067
▁రాయ	-1068
▁సంత	-1069
▁పంపి	-1070
▁పున	-1071
▁భారతీయ	-1072
క్రమ	-1073
▁ఉద్య	-1074
ముఖ	-1075
ాన్య	-1076
▁సంగీత	-1077
▁తిరు	-1078
▁కాలువల	-1079
▁మండలానికి	-1080
హు	-1081
▁అక్టో	-1082
▁దక్షిణ	-1083
▁నిజ	-1084
▁అన్ని	-1085
▁ఇంజ	-1086
▁తెలి	-1087
ార్థ	-1088
▁అందుతుంది	-1089
ామ్	-1090
▁రోజులు	-1091
▁సంగీ	-1092
▁లక్ష్	-1093
▁వద్ద	-1094
డుగునా	-1095
దర్శ	-1096
▁కుల	-1097
▁రెండ	-1098
▁అల	-1099
ర్న	-1100
▁నటు	-1101
తుల	-1102
▁అనేక	-1103
బ్ర	-1104
▁రీ	-1105
▁తిరుగు	-1106
in	-1107
ధు	-1108
▁గణాం	-1109
▁ఘంటసాల	-1110
▁పొడుగునా	-1111
▁ఆడ	-1112
క్కి	-1113
మని	-1114
▁యుద్ధ	-1115
▁ఆగ	-1116
▁మురుగునీరు	-1117
▁పాత్ర	-1118
▁విధంగా	-1119
▁ఔ	-1120
్లా	-1121
▁ఎన్నిక	-1122
▁జా	-1123
▁ఉంటుంది	-1124
దాయ	-1125
రిక	-1126
▁సంఘం	-1127
ళ్ళి	-1128
మంత్రి	-1129
▁అయిన	-1130
ర్ర	-1131
వాణా	-1132
త్మ	-1133
కీయ	-1134
▁మీద	-1135
స్వామి	-1136
నగ	-1137
▁సిబ్బంది	-1138
▁వస్తు	-1139
▁ఉండేది	-1140
▁చిత్రం	-1141
▁సినిమాలు	-1142
▁కన్న	-1143
▁ఆఫ్	-1144
▁నాలు	-1145
▁శు	-1146
▁విస్తరించి	-1147
తారు	-1148
▁లోపు	-1149
ముద్ర	-1150
రుష	-1151
▁మురుగునీ	-1152
న్స	-1153
▁కే	-1154
▁అండ్	-1155
నారాయణ	-1156
టికి	-1157
▁193	-1158
గిరి	-1159
ల్లె	-1160
▁వచ్చిన	-1161
ద్వ	-1162
▁రై	-1163
▁బంజ	-1164
▁విష	-1165
▁స్వాతంత్ర	-1166
మిళ	-1167
ైన్స్	-1168
▁గొ	-1169
పూర్ణ	-1170
▁రాజకీయ	-1171
మాన	-1172
▁తర్	-1173
▁రవాణా	-1174
సై	-1175
న్స్	-1176
ద్దు	-1177
▁అంద	-1178
▁రే	-1179
▁కొత్త	-1180
గ్రహ	-1181
▁దివ	-1182
నాథ	-1183
కొండ	-1184
▁క్రీ	-1185
▁కోట	-1186
▁ప్రాం	-1187
▁భక్	-1188
▁పూర్	-1189
▁మగ	-1190
▁బంజరు	-1191
▁తొలి	-1192
▁స్థాప	-1193
▁హైదరాబాదు	-1194
ధుల	-1195
▁తేదీ	-1196
▁కొరకు	-1197
ారెడ్డి	-1198
▁జరుగుతుంది	-1199
▁విడుదలైన	-1200
వాస	-1201
▁లేదా	-1202
▁ప్రసి	-1203
నాడు	-1204
▁అమ్మ	-1205
▁సంద	-1206
వచ్చు	-1207
▁ఉత్పత్తి	-1208
స్థాన్	-1209
ణ్యం	-1210
▁సాం	-1211
▁ప్రభుత్వం	-1212
▁లేరు	-1213
er	-1214
ింహ	-1215
ాలని	-1216
టింగ్	-1217
▁అధ్య	-1218
▁ముగ్	-1219
▁బొ	-1220
కారం	-1221
ేశ్వరరావు	-1222
తాప	-1223
▁నమో	-1224
on	-1225
ండ్రి	-1226
▁గణాంకాల	-1227
ar	-1228
▁చేతి	-1229
▁అమె	-1230
▁తెలు	-1231
▁పార్టీ	-1232
తూ	-1233
▁సభ్య	-1234
గింది	-1235
▁చంద్ర	-1236
ఫె	-1237
▁సాధ	-1238
▁సత్య	-1239
▁ఇంజనీ	-1240
▁కాలంలో	-1241
▁వృత్తి	-1242
▁ఏర్పాటు	-1243
్యాల	-1244
భాగ	-1245
▁ప్రాంతాల	-1246
▁వు	-1247
రింగ్	-1248
బీ	-1249
ారీ	-1250
తాడు	-1251
రంలో	-1252
▁చేస	-1253
▁ఆర్ట్స్	-1254
దొ	-1255
టెం	-1256
▁పురా	-1257
కుల	-1258
వాహ	-1259
కొని	-1260
ేయ	-1261
▁అం	-1262
ీకరణ	-1263
్యవ	-1264
▁పురస్	-1265
▁స్వామి	-1266
కల	-1267
నిక్	-1268
▁శిక్షణ	-1269
22	-1270
▁తమ	-1271
▁నటుడు	-1272
ద్రా	-1273
ాయిల	-1274
▁శివ	-1275
ోధ	-1276
యింది	-1277
టికీ	-1278
▁పక్క	-1279
▁వినో	-1280
▁సామాన్య	-1281
పుల	-1282
ందని	-1283
సాద్	-1284
్యాయ	-1285
▁తమిళ	-1286
ట్టిన	-1287
▁బ్రి	-1288
బె	-1289
▁స్వయం	-1290
టెక్	-1291
రాలు	-1292
రుగా	-1293
పాడు	-1294
▁నారాయణ	-1295
▁కొండ	-1296
▁సేకర	-1297
▁కావ	-1298
▁కుళ	-1299
▁ఇదే	-1300
తంగా	-1301
▁గుండా	-1302
జె	-1303
▁పశు	-1304
మూర్తి	-1305
▁పురుష	-1306
▁కేంద్రాలు	-1307
ర్చ	-1308
పీ	-1309
మతి	-1310
▁ను	-1311
▁మేనే	-1312
▁సైన్స్	-1313
▁కుళాయిల	-1314
జన	-1315
ణంగా	-1316
ించడం	-1317
at	-1318
శ్రీ	-1319
రక్షణ	-1320
▁నాలుగు	-1321
▁మొత్తం	-1322
▁కని	-1323
▁నిమి	-1324
▁మైద	-1325
▁ఒకరు	-1326
▁తర్వాత	-1327
▁ఇంజనీరింగ్	-1328
▁పౌర	-1329
▁సీత	-1330
▁దాని	-1331
న్మ	-1332
▁ఆలయ	-1333
వారు	-1334
▁కానీ	-1335
ించబడింది	-1336
కారుడు	-1337
▁గురించి	-1338
▁గాయ	-1339
▁జనవరి	-1340
తిక	-1341
▁సంక్ష	-1342
▁కార్యాలయం	-1343
▁కను	-1344
ప్టెం	-1345
▁ఇందు	-1346
▁ట్రా	-1347
▁గాం	-1348
ూర్పు	-1349
▁నమోదు	-1350
▁పంపిణీ	-1351
▁ముగ్గురు	-1352
స్టు	-1353
▁సహకార	-1354
ంచి	-1355
5:	-1356
క్కడి	-1357
త్తిన	-1358
▁గ్రామాల	-1359
▁చిత్రాలు	-1360
కరంగా	-1361
▁శిశు	-1362
ణాలు	-1363
ధాని	-1364
▁బహు	-1365
పర	-1366
త్యం	-1367
▁ఆటో	-1368
▁మంచ	-1369
డింగ్	-1370
▁(19	-1371
లిన	-1372
▁ఉంట	-1373
▁ఇంటర్న	-1374
▁జూన్	-1375
▁యా	-1376
▁కార్యకర్త	-1377
▁క్ష	-1378
▁జూలై	-1379
బ్రవరి	-1380
▁రోజున	-1381
వ్	-1382
▁ఇళ్	-1383
▁వల్ల	-1384
▁నిర్మించిన	-1385
▁బ్రహ్మ	-1386
16	-1387
ఎమ్	-1388
▁గ్రంథాలయం	-1389
▁సూ	-1390
గ్రా	-1391
▁తర	-1392
ేతర	-1393
ల్ప	-1394
▁సంపూర్ణ	-1395
▁సెప్టెం	-1396
▁వినియోగం	-1397
▁ఛ	-1398
▁వర	-1399
▁డిస్	-1400
▁తూర్పు	-1401
▁ఇంటర్నెట్	-1402
▁జి	-1403
▁జనాభాతో	-1404
▁రాష్ట్రం	-1405
ాను	-1406
▁దగ్గ	-1407
▁స్త్ర	-1408
▁పంచ	-1409
▁జీవి	-1410
▁మాజీ	-1411
స్త్రి	-1412
షధ	-1413
లోకి	-1414
▁సాహిత్య	-1415
సారి	-1416
▁సేవా	-1417
▁అతి	-1418
▁ఆది	-1419
▁సంబంధ	-1420
టెక్నిక్	-1421
ూరులో	-1422
▁చక్ర	-1423
ప్రి	-1424
▁పట్టణమైన	-1425
భవ	-1426
▁మట్టి	-1427
▁చేస్తున్నారు	-1428
▁మగవారి	-1429
▁ఆరోగ్యం	-1430
లేదు	-1431
▁హెక్టార్లలో	-1432
▁30	-1433
ఫోన్	-1434
▁సబ్	-1435
్యాస్	-1436
▁ప్రస్తు	-1437
▁సై	-1438
▁దిన	-1439
ేవారు	-1440
▁ప్రముఖ	-1441
కిస్థాన్	-1442
▁సంక్షేమ	-1443
▁సొసై	-1444
▁దొ	-1445
తుడు	-1446
▁లైన్	-1447
▁ఇళ్లతో	-1448
మల	-1449
▁రెడ్డి	-1450
లవు	-1451
▁స్వాతంత్ర్య	-1452
▁కులాల	-1453
▁రెండవ	-1454
▁ఆడవారి	-1455
▁సంరక్షణ	-1456
▁దర్శకుడు	-1457
▁గుర్త	-1458
▁సొసైటీ	-1459
17	-1460
్యవస్థ	-1461
▁ఔషధ	-1462
▁సిం	-1463
విద్య	-1464
▁వినోద	-1465
బ్రహ్మణ్యం	-1466
▁అనియ	-1467
▁తెగల	-1468
▁పూర్తి	-1469
బైల్	-1470
▁అవసరాల	-1471
ూడ	-1472
తున్నారు	-1473
▁లభిస్తున్న	-1474
పట్	-1475
▁ఆశా	-1476
▁ఆధార	-1477
▁బాలల	-1478
or	-1479
▁పోషణ	-1480
రాయ	-1481
కుంట	-1482
▁జనన	-1483
కాహార	-1484
▁జరిగింది	-1485
్యాంగుల	-1486
▁రు	-1487
▁మేనేజి	-1488
పాదక	-1489
▁ఐదు	-1490
▁పాలీ	-1491
▁మైదానం	-1492
▁విత్తిన	-1493
▁సాగునీరు	-1494
▁దివ్యాంగుల	-1495
al	-1496
ళి	-1497
తాపత్రిక	-1498
▁నిమిత్తం	-1499
ర్తి	-1500
▁సామ్రా	-1501
▁నికరంగా	-1502
▁వార్తాపత్రిక	-1503
బ్లీ	-1504
▁క్రి	-1505
▁అనియత	-1506
▁మార్కె	-1507
బడ్డ	-1508
ామ్నాయ	-1509
▁మరుగు	-1510
▁సమీకృత	-1511
▁లక్ష	-1512
▁మేనేజిమెంటు	-1513
4:	-1514
▁సూర	-1515
పద	-1516
▁మాతా	-1517
▁మొబైల్	-1518
▁కలిగి	-1519
▁వినియోగంలో	-1520
ప్రా	-1521
▁హాలు	-1522
▁టెలిఫోన్	-1523
▁ప్రత్యామ్నాయ	-1524
హావ	-1525
ామా	-1526
▁పాలీటెక్నిక్	-1527
▁ఆటల	-1528
సమీ	-1529
యితే	-1530
▁లొక	-1531
▁అక్ష	-1532
▁ఫిబ్రవరి	-1533
దేవ	-1534
తె	-1535
2:	-1536
▁ఇత	-1537
▁మహి	-1538
▁చలన	-1539
▁వ్యర్థ	-1540
▁లొకేషన్	-1541
▁కొరియ	-1542
▁నిర్మాణ	-1543
▁వ్యవసాయేతర	-1544
చె	-1545
▁పారిశు	-1546
▁ట్రాక్ట	-1547
3:	-1548
6:	-1549
▁సీ	-1550
▁సహాయక	-1551
10	-1552
చార్య	-1553
యే	-1554
▁అలో	-1555
▁రూం	-1556
దొడ్డి	-1557
తలు	-1558
ింప	-1559
మయ్య	-1560
▁ఉత్తర	-1561
▁ఉత్పాదక	-1562
▁పరపతి	-1563
షా	-1564
▁ఇంటిం	-1565
▁పోలింగ్	-1566
▁వస్తువులు	-1567
ెండ	-1568
▁చు	-1569
▁పోస్ట్	-1570
▁మార్కెటింగ్	-1571
విజ	-1572
ష్ఠ	-1573
▁పలు	-1574
సెంబ్లీ	-1575
▁తారు	-1576
▁మరణాల	-1577
▁రీడింగ్	-1578
బాటు	-1579
▁పారిశుధ్య	-1580
ముల	-1581
▁లె	-1582
సమీప	-1583
ామివ	-1584
▁వాడీ	-1585
▁జయ	-1586
7:	-1587
పెన్స	-1588
సుశీల	-1589
▁అంగన్	-1590
▁అందించ	-1591
▁సముద్ర	-1592
▁పోషకాహార	-1593
1:	-1594
▁కంకర	-1595
▁సరఫరాల	-1596
ుంట	-1597
▁పండి	-1598
▁ఇందులో	-1599
▁డిసెం	-1600
▁మార్చి	-1601
▁రోజుకు	-1602
గ్రాఫ్	-1603
▁కొరియర్	-1604
▁సేకరించే	-1605
▁వ్యర్థాలను	-1606
▁చా	-1607
▁కెఫె	-1608
▁టెలిగ్రాఫ్	-1609
టా	-1610
జ్ఞ	-1611
▁అసెంబ్లీ	-1612
▁మరుగుదొడ్డి	-1613
▁నవం	-1614
▁బయోగ	-1615
▁వాడే	-1616
▁గృహావ	-1617
పెన్సరీ	-1618
▁గృహావసరాల	-1619
ణు	-1620
▁అది	-1621
▁రావు	-1622
▁ఇంటింటికీ	-1623
▁బయోగ్యాస్	-1624
మొ	-1625
.18	-1626
బాద్	-1627
ష్టు	-1628
▁పిల్ల	-1629
▁లాండ్	-1630
▁రష	-1631
ల్లా	-1632
▁వీధుల	-1633
▁న్యాయ	-1634
▁అలోపతి	-1635
▁పక్కనే	-1636
▁పనిచే	-1637
8:	-1638
▁అర్	-1639
▁నరస	-1640
క్స్	-1641
దావరి	-1642
▁డిస్పెన్సరీ	-1643
▁ఇంకా	-1644
▁పునర్వ	-1645
.20	-1646
▁సరి	-1647
టీఎమ్	-1648
మును	-1649
▁ఆర్థ	-1650
▁మందు	-1651
నలు	-1652
ోత్సవం	-1653
నేని	-1654
న్నా	-1655
సుబ్రహ్మణ్యం	-1656
వారం	-1657
వరం	-1658
▁సర్	-1659
▁సంవత్సరాల	-1660
▁సంవత్సరములో	-1661
లాం	-1662
▁తిరుగుతున్నాయి	-1663
▁అనంత	-1664
▁సంగీతం	-1665
సర	-1666
▁వీర	-1667
▁మురుగునీటిని	-1668
▁మై	-1669
▁మంచినీ	-1670
్ఞ	-1671
▁బె	-1672
▁మంచి	-1673
▁ఏటీఎమ్	-1674
▁సమయంలో	-1675
రికా	-1676
త్తను	-1677
▁కాంగ్ర	-1678
బూ	-1679
శాఖ	-1680
▁నూ	-1681
డిగా	-1682
▁గ్రహ	-1683
▁రక్షి	-1684
లువ	-1685
మణ	-1686
▁పునర్వ్యవస్థ	-1687
థి	-1688
మున	-1689
▁వార	-1690
▁మిగి	-1691
▁అమలవు	-1692
15	-1693
▁సంచార	-1694
▁శ్రీని	-1695
▁అమలవుతోంది	-1696
డైన	-1697
▁పారబో	-1698
▁సినిమాకు	-1699
టలు	-1700
ర్ల	-1701
▁మండలంలో	-1702
ింత	-1703
నగర్	-1704
▁అక్టోబరు	-1705
యనగ	-1706
▁25	-1707
చంద్ర	-1708
▁చరిత్రలో	-1709
▁మంచినీటి	-1710
▁పారబోస్తారు	-1711
రోడ్	-1712
▁తండ్రి	-1713
న్ను	-1714
మునకు	-1715
▁అంతర్	-1716
▁ఏర్పడి	-1717
es	-1718
000	-1719
ామివారి	-1720
▁ప్రదేశ్	-1721
్యు	-1722
▁మొదలైనవి	-1723
ద్ది	-1724
▁అయితే	-1725
▁ఆన	-1726
ాలతో	-1727
▁కాక	-1728
▁చెత్తను	-1729
డవ	-1730
▁చైనా	-1731
▁పత్రిక	-1732
is	-1733
తిని	-1734
శ్చి	-1735
▁నిర్వహించారు	-1736
▁రి	-1737
▁ఉపయోగ	-1738
▁విజయనగ	-1739
▁పరిపాల	-1740
▁వ్రా	-1741
▁అవుతున్నాయి	-1742
లోనూ	-1743
దని	-1744
▁అభి	-1745
▁సినీ	-1746
భూ	-1747
▁తల్లి	-1748
ాము	-1749
▁192	-1750
9:	-1751
▁ప్రజలు	-1752
▁మంత్రి	-1753
ర్చు	-1754
▁అంటారు	-1755
▁చేతిపం	-1756
▁పేరుతో	-1757
ర్లున్నాయి	-1758
▁రక్షిత	-1759
స్తే	-1760
▁ఆరు	-1761
▁అప్పటి	-1762
క్కల	-1763
▁మాన	-1764
▁ఆర్థిక	-1765
ముగా	-1766
▁అత్య	-1767
వై	-1768
▁ఆధ	-1769
చన	-1770
▁కమ	-1771
▁వాడేందుకు	-1772
ప్రిల్	-1773
కాలు	-1774
డంతో	-1775
▁ఎమ్	-1776
▁రాజ్య	-1777
▁గోదావరి	-1778
ందూ	-1779
▁జన్మ	-1780
▁చేతిపంపుల	-1781
దేవి	-1782
రోడ్లూ	-1783
ల్లోకి	-1784
▁మట్టిరోడ్లూ	-1785
▁నెల	-1786
▁మహిళ	-1787
▁పీ	-1788
▁అధ్యక్ష	-1789
ార్డు	-1790
▁జిల్లాలోని	-1791
▁2016	-1792
▁ప్రవేశ	-1793
▁గల	-1794
ండే	-1795
▁ప్రసాద్	-1796
▁అమెరికా	-1797
▁తయ	-1798
he	-1799
రియన్	-1800
▁తు	-1801
క్త	-1802
▁పాల్	-1803
▁అయ్య	-1804
▁పాటలు	-1805
▁ముఖ్యమంత్రి	-1806
13	-1807
ంతో	-1808
యత్	-1809
▁మాత్ర	-1810
ళ్ల	-1811
▁విగ్రహ	-1812
▁ఏప్రిల్	-1813
▁భావ	-1814
తాన్ని	-1815
▁చెరువు	-1816
▁శాసనసభ	-1817
ీన	-1818
▁లభ	-1819
ారామ	-1820
▁గి	-1821
▁పశ్చి	-1822
▁24	-1823
▁నేరుగా	-1824
12	-1825
▁ఇండి	-1826
సాగ	-1827
రాజ	-1828
▁కార్	-1829
▁ధర్మ	-1830
14	-1831
శోధ	-1832
▁సేవ	-1833
ర్ణ	-1834
▁శతాబ్ద	-1835
షు	-1836
▁అర	-1837
తాయి	-1838
▁నేప	-1839
▁పద్య	-1840
▁నిర్మాత	-1841
▁యూ	-1842
ారులు	-1843
▁దుకా	-1844
▁వైద్యశాలలో	-1845
శేష	-1846
▁కుమార్	-1847
▁దగ్గర	-1848
▁మిగిలిన	-1849
▁వచ్చింది	-1850
▁కాకుండా	-1851
▁దీనిని	-1852
200	-1853
డిన	-1854
▁వేద	-1855
ాడ	-1856
రుపు	-1857
▁ప్రాంతం	-1858
లె	-1859
▁సుబ్బ	-1860
▁నాయకుడు	-1861
బాల	-1862
▁పట్టణం	-1863
ళు	-1864
క్య	-1865
దరు	-1866
లింగ	-1867
రికి	-1868
▁శం	-1869
▁వ్యాప	-1870
షణ	-1871
సె	-1872
గే	-1873
▁I	-1874
ింపు	-1875
▁చేశారు	-1876
ించడానికి	-1877
▁పాత	-1878
▁విడుదల	-1879
▁వలన	-1880
▁జిల్లాల	-1881
of	-1882
▁స్థాన	-1883
▁విశ్వవిద్య	-1884
చిత్ర	-1885
ణ్య	-1886
▁వదులు	-1887
కున్నారు	-1888
▁సౌకర్యాలున్నాయి	-1889
మారు	-1890
▁చది	-1891
▁శాఖ	-1892
▁గాంధీ	-1893
వర్తి	-1894
▁వెళ్ళ	-1895
▁హిందూ	-1896
జాతీయ	-1897
మైంది	-1898
ప్రదాయ	-1899
▁అస	-1900
ందే	-1901
ోలు	-1902
▁కన	-1903
టిలో	-1904
సింది	-1905
▁గ్రె	-1906
▁తెలియ	-1907
it	-1908
బోరు	-1909
శ్రమ	-1910
ాలుగా	-1911
23	-1912
▁కార్యక్రమ	-1913
▁పద్	-1914
▁కట్ట	-1915
▁పరిశోధ	-1916
▁సంవత్సరం	-1917
▁అదే	-1918
ప్రాథమిక	-1919
▁నాటక	-1920
▁ఆగష్టు	-1921
ప్రైవేటు	-1922
...	-1923
ాయు	-1924
▁23	-1925
▁ప్రాంతంలో	-1926
▁t	-1927
ందింది	-1928
న్నది	-1929
▁పాలన	-1930
ానా	-1931
▁పూజ	-1932
▁ప్రకట	-1933
విన	-1934
▁బయ	-1935
మార్	-1936
▁పోతున్నాయి	-1937
▁వేం	-1938
కున్నాడు	-1939
ట్లో	-1940
ప్పటికీ	-1941
▁వదులుతున్నారు	-1942
▁S	-1943
వరణ	-1944
▁నవ	-1945
▁ప్రొ	-1946
ాగే	-1947
▁విజయవాడ	-1948
థ్య	-1949
▁జలవ	-1950
▁మందుల	-1951
▁జలవనరు	-1952
▁మాత్రమే	-1953
▁మహారా	-1954
మూ	-1955
▁శాస్త్రవేత్త	-1956
ర్స్	-1957
▁ఎదు	-1958
▁అంటే	-1959
లుగా	-1960
▁ఇచ్చ	-1961
▁ప్రేమ	-1962
▁భారతదేశంలో	-1963
గొండ	-1964
▁ఒక్క	-1965
▁చారి	-1966
6)	-1967
ెల	-1968
▁భార్య	-1969
▁నియ	-1970
▁పతా	-1971
▁జాన	-1972
ic	-1973
▁)	-1974
త్మక	-1975
జే	-1976
బీయ	-1977
▁22	-1978
▁సంస్కృత	-1979
▁సుంద	-1980
▁పెళ్ళి	-1981
▁ఒకప్రాథమిక	-1982
en	-1983
▁అడ	-1984
▁వాడు	-1985
ీకరణకు	-1986
పొ	-1987
▁జలవనరుల్లోకి	-1988
ింగ	-1989
ానిక	-1990
బీబీయ	-1991
▁ప్రభా	-1992
▁మార్గ	-1993
బీబీయెస్	-1994
▁26	-1995
▁లి	-1996
డుకు	-1997
▁రాజధాని	-1998
▁గుంట	-1999
▁ప్రసిద్ధి	-2000
▁హా	-2001
▁బెం	-2002
▁కొంత	-2003
▁చేసే	-2004
▁ఎమ్బీబీయెస్	-2005
పట్నం	-2006
▁ఇక్కడి	-2007
▁ప్రయత్	-2008
▁నటి	-2009
▁పర్వ	-2010
▁లక్ష్మీ	-2011
1)	-2012
▁బాలబడి	-2013
▁ప్రాంతాలు	-2014
▁కీ	-2015
▁చేప	-2016
▁జిల్లాకు	-2017
దగ్గ	-2018
▁నంద	-2019
▁జరుపు	-2020
1.	-2021
▁చేరు	-2022
▁చో	-2023
న్నో	-2024
▁స్త్రీ	-2025
దన	-2026
▁36	-2027
వుడు	-2028
ారము	-2029
▁శాల	-2030
▁భూములు	-2031
▁పాకిస్థాన్	-2032
నులు	-2033
▁సర్వ	-2034
▁ప్రచు	-2035
వంత	-2036
▁హో	-2037
▁పొంద	-2038
▁పెట్ట	-2039
▁సిస్ట	-2040
పరి	-2041
యాన్ని	-2042
▁పశ్చిమ	-2043
0:	-2044
తము	-2045
▁పాల్గొ	-2046
లక్ష్	-2047
▁పచ్చ	-2048
▁జై	-2049
▁50	-2050
▁భాగంగా	-2051
▁of	-2052
కెట్	-2053
▁దాదా	-2054
▁ఉంటాయి	-2055
▁బ్రిటి	-2056
▁28	-2057
ాంతి	-2058
స్తాయి	-2059
▁దేవాలయం	-2060
భార	-2061
▁జె	-2062
చిన	-2063
▁190	-2064
▁ఇరా	-2065
▁చివరి	-2066
▁చేసింది	-2067
▁ప్రదర్శ	-2068
▁గుడి	-2069
▁కలిసి	-2070
ష్ణు	-2071
▁పెం	-2072
▁హిందీ	-2073
5,	-2074
▁నివ	-2075
గూడ	-2076
జెక్	-2077
▁మహబూ	-2078
▁ప్రస్తుతం	-2079
మొద	-2080
▁రాజా	-2081
▁వరంగ	-2082
▁మొట్ట	-2083
▁పడ	-2084
▁భీ	-2085
▁భూము	-2086
▁కుమారు	-2087
ింది	-2088
▁కాలం	-2089
▁మద్రా	-2090
▁వ్యక్తి	-2091
యోజ	-2092
టర్ల	-2093
▁మధు	-2094
్యాన్ని	-2095
▁సందర్భ	-2096
స్థి	-2097
▁నలుగు	-2098
▁సాగని	-2099
▁అక్కడ	-2100
▁ప్రజా	-2101
▁ప్రాజెక్	-2102
▁వహించాడు	-2103
▁అంతర్జాతీయ	-2104
▁జల	-2105
▁ప్రదేశ	-2106
▁నాటి	-2107
న్నాడు	-2108
▁కామ	-2109
▁పోరా	-2110
కపో	-2111
కరణ	-2112
రుడు	-2113
▁బ్ర	-2114
ేఖ	-2115
▁ఎన్	-2116
కుంటారు	-2117
▁ఉద	-2118
▁అప్ప	-2119
4)	-2120
▁కిలో	-2121
▁అందుబాటు	-2122
ంప	-2123
▁రావ	-2124
నుండి	-2125
▁అధికార	-2126
▁కొన	-2127
రె	-2128
▁షా	-2129
▁సంపాద	-2130
▁రైలు	-2131
▁నగర్	-2132
▁వ్యతి	-2133
చ్చా	-2134
▁మొదల	-2135
8)	-2136
ర్కొ	-2137
కృతి	-2138
టానికి	-2139
మ్ము	-2140
▁పతాకం	-2141
▁సూర్య	-2142
లిక	-2143
▁27	-2144
▁ఆంగ్	-2145
▁సిద్ధ	-2146
వాద	-2147
5)	-2148
▁ఉన్నత	-2149
4,	-2150
చ్ఛ	-2151
▁నో	-2152
వాలు	-2153
భు	-2154
▁విద్యార్థ	-2155
▁సైన	-2156
▁కాలువ	-2157
ion	-2158
▁బహిరంగంగా	-2159
▁కలు	-2160
ేత్ర	-2161
▁ఆలయంలో	-2162
▁దుకాణాలు	-2163
▁విమ	-2164
ాయం	-2165
పూడి	-2166
▁వేంకట	-2167
▁ఆధారంగా	-2168
▁సంవత్సరా	-2169
2)	-2170
9)	-2171
▁చారిత్ర	-2172
30	-2173
50	-2174
ెను	-2175
డ్డు	-2176
ప్పి	-2177
▁చేశాడు	-2178
▁సాగులో	-2179
స్తా	-2180
▁ముఖ్యమైన	-2181
▁సెప్టెంబర్	-2182
▁చక్రవర్తి	-2183
7)	-2184
ారని	-2185
▁బ్లా	-2186
బడ్డాయి	-2187
▁నలుగురు	-2188
▁మొట్టమొద	-2189
దో	-2190
నంలో	-2191
వతి	-2192
▁సమర	-2193
▁చేయదగ్గ	-2194
నల్	-2195
న్నీ	-2196
▁భూముల్లో	-2197
వాడు	-2198
శీ	-2199
తీయ	-2200
డియో	-2201
▁నిలి	-2202
▁బీడు	-2203
▁సీతారామ	-2204
▁గ్రామాలు	-2205
తమైన	-2206
▁థ	-2207
న్యూ	-2208
▁కానివి	-2209
నది	-2210
కుంది	-2211
▁నియోజ	-2212
సరి	-2213
పల్లె	-2214
హాలు	-2215
▁హరి	-2216
▁లోనూ	-2217
▁నియోజక	-2218
▁శ్రీరామ	-2219
▁ప్రాజెక్టు	-2220
▁ఉత్స	-2221
▁కృష్ణా	-2222
▁నాట	-2223
▁గోపాల	-2224
▁నేపథ్య	-2225
▁పొందిన	-2226
▁గుంటూరు	-2227
▁|	-2228
▁గొప్ప	-2229
▁శక్తి	-2230
పిన్	-2231
▁29	-2232
▁మరో	-2233
▁నరసింహ	-2234
▁అందుబాటులో	-2235
7.	-2236
శాస్త్రి	-2237
▁తెలుసు	-2238
ల్లూరు	-2239
వాన్ని	-2240
▁డివిజ	-2241
▁శాశ్వ	-2242
▁శుద్ధి	-2243
రేక	-2244
▁రూపొ	-2245
1,	-2246
▁వీరి	-2247
▁విభ	-2248
పుడు	-2249
▁ప్రే	-2250
▁కచ్చా	-2251
▁పుస్త	-2252
▁సుమారు	-2253
▁నృ	-2254
▁భగ	-2255
▁స్థి	-2256
▁విశేష	-2257
▁సాధార	-2258
▁A	-2259
తను	-2260
▁బోరు	-2261
▁జీవిత	-2262
హ్మ	-2263
▁అలాగే	-2264
▁కలిగిన	-2265
▁మద్రాసు	-2266
చేశ	-2267
ధా	-2268
బాదు	-2269
షన్	-2270
హన్	-2271
▁కాదు	-2272
▁బాగా	-2273
హన	-2274
▁చూడ	-2275
బాలసుబ్రహ్మణ్యం	-2276
్ఞాన	-2277
▁తప్ప	-2278
▁భాషా	-2279
▁వీరు	-2280
▁ఉద్యమ	-2281
▁వారికి	-2282
▁తిరుపతి	-2283
నె	-2284
టకు	-2285
▁ఈయన	-2286
▁మరియ	-2287
▁దేశాల	-2288
ర్టు	-2289
▁ప్రయా	-2290
▁C	-2291
పడ	-2292
▁సృ	-2293
▁చదు	-2294
▁డిసెంబర్	-2295
▁వ్యతిరేక	-2296
▁2001	-2297
▁కాలే	-2298
▁మహబూబ్	-2299
ేత	-2300
కాశం	-2301
వెన్యూ	-2302
రగ	-2303
హె	-2304
▁నగరం	-2305
▁కారణంగా	-2306
స్థాన	-2307
ించగా	-2308
▁పోటీ	-2309
▁బాబు	-2310
▁పరిధి	-2311
▁విధాన	-2312
▁కిలోమీ	-2313
▁P	-2314
▁ప్	-2315
▁క్యాల	-2316
▁గ్రహీత	-2317
మంది	-2318
▁విశాఖ	-2319
▁బోరుబా	-2320
▁తల	-2321
▁మత	-2322
,000	-2323
శాస్త్ర	-2324
▁పతాకంపై	-2325
▁రెవెన్యూ	-2326
మన	-2327
హర	-2328
▁గురు	-2329
▁ముస్	-2330
▁దర్శకత్వంలో	-2331
5.	-2332
త్వం	-2333
్యంత	-2334
▁ఇలా	-2335
▁మంగ	-2336
▁సత్యనారాయణ	-2337
వాది	-2338
కాశ	-2339
ప్యూ	-2340
▁అడుగు	-2341
▁సంగతులు	-2342
▁జో	-2343
▁పర్యా	-2344
▁దినోత్సవం	-2345
లోనే	-2346
▁క్యాలెండ	-2347
▁సంప్రదాయ	-2348
▁కడ	-2349
▁దశ	-2350
▁వివాహ	-2351
▁పురస్కారం	-2352
2.	-2353
వ్ర	-2354
▁జగ	-2355
▁దో	-2356
లూరు	-2357
▁రష్యా	-2358
▁పరిశ్రమ	-2359
▁వహించిన	-2360
టే	-2361
ళం	-2362
కవి	-2363
▁చెబు	-2364
▁ఉత్తమ	-2365
▁లభిస్తుంది	-2366
7,	-2367
▁189	-2368
▁త్ర	-2369
▁పద్మ	-2370
▁దాదాపు	-2371
▁దేవాలయ	-2372
▁అవార్డు	-2373
▁అమ్మవారి	-2374
▁రామకృష్ణ	-2375
▁మొట్టమొదటి	-2376
4.	-2377
ఠా	-2378
ాయ్	-2379
▁మార్కెట్	-2380
▁--	-2381
కునే	-2382
ులకు	-2383
▁సుల్	-2384
▁భు	-2385
నాటి	-2386
▁త్రి	-2387
▁భావి	-2388
▁విష్ణు	-2389
తులకు	-2390
▁రూపాయ	-2391
▁నవంబర్	-2392
▁విజయనగర	-2393
▁బోరుబావుల	-2394
▁T	-2395
▁సార	-2396
▁అర్థ	-2397
▁చెన్న	-2398
▁శాశ్వత	-2399
▁అక్టోబర్	-2400
▁ప్రతిష్ఠ	-2401
వేశ	-2402
▁తాగు	-2403
ములోని	-2404
▁ఎన్నో	-2405
▁చారిత్రక	-2406
▁శ్రీనివాస	-2407
▁మారి	-2408
▁దీనికి	-2409
▁ఎక్కువగా	-2410
▁అవి	-2411
▁భక్తులు	-2412
జం	-2413
▁నిర్వహించ	-2414
ర్గ	-2415
హం	-2416
శేఖ	-2417
▁విమర్శ	-2418
▁స్థానిక	-2419
▁జం	-2420
▁కన్నడ	-2421
▁కాంగ్రెస్	-2422
9.	-2423
▁చీ	-2424
▁శత	-2425
ట్లా	-2426
▁నిర్మించారు	-2427
▁బల	-2428
▁ఇంగ్	-2429
హ్	-2430
and	-2431
▁గీత	-2432
▁శ్ర	-2433
▁అత్యంత	-2434
▁వంశ	-2435
▁కర్ణా	-2436
3)	-2437
▁మరొక	-2438
రత్	-2439
▁ఎల్	-2440
▁ఇండియా	-2441
▁క్రీడా	-2442
▁క్యాలెండర్	-2443
▁విషయ	-2444
▁లెక్కల	-2445
▁పుట్టిన	-2446
భద్ర	-2447
▁నగర	-2448
om	-2449
పెట్ట	-2450
▁మల్ల	-2451
తల	-2452
ఇది	-2453
▁వయ	-2454
టూరి	-2455
డిని	-2456
ించాయి	-2457
▁ప్రజల	-2458
ఎం	-2459
ాంబ	-2460
▁ఏమి	-2461
ేవాడు	-2462
▁అక్షరా	-2463
▁గుర	-2464
▁సుశీల	-2465
▁నియోజకవర్	-2466
as	-2467
ణ్	-2468
▁40	-2469
▁యుద్ధం	-2470
▁చిత్రానికి	-2471
ండు	-2472
బాబు	-2473
ర్చి	-2474
్యూని	-2475
ర్షి	-2476
▁పిలు	-2477
▁రాష్ట్రంలోని	-2478
▁ఖమ్మ	-2479
▁నాగేశ్వరరావు	-2480
ర్ప	-2481
▁వస	-2482
మైనది	-2483
▁కర్నూ	-2484
▁వచ్చే	-2485
▁చదివిన	-2486
▁కర్ణాటక	-2487
▁సామ్రాజ	-2488
ళా	-2489
▁కనిపి	-2490
▁తయారు	-2491
▁మాత్రం	-2492
జున	-2493
వుతున్న	-2494
స్తున్నాయి	-2495
8.	-2496
ాంటి	-2497
▁పూర్వ	-2498
▁పురాతన	-2499
6.	-2500
....	-2501
ునిక	-2502
▁కొడుకు	-2503
లక	-2504
▁59	-2505
ల్స్	-2506
▁విమాన	-2507
▁హైదరాబాద్	-2508
40	-2509
ండ్ర	-2510
ద్రి	-2511
ర్గా	-2512
వుని	-2513
▁కరీ	-2514
ిల్లీ	-2515
▁ప్రకారము	-2516
3.	-2517
షిక	-2518
ంనగర్	-2519
యోధ	-2520
▁57	-2521
ర్మా	-2522
వరకు	-2523
▁లోను	-2524
▁ఎత్తు	-2525
▁సుందర	-2526
▁సామ్రాజ్య	-2527
▁రాష్ట్రంలో	-2528
80	-2529
నేయ	-2530
గానే	-2531
ఎన్	-2532
▁0	-2533
ికా	-2534
▁దృ	-2535
▁వల	-2536
స్కర	-2537
▁క్రిక	-2538
▁‘	-2539
▁శై	-2540
▁ప్రస	-2541
▁చేసారు	-2542
▁బస్సులుప్రైవేటు	-2543
డె	-2544
▁1,	-2545
▁నంది	-2546
▁ప్రమా	-2547
ారాన్ని	-2548
శ్చ	-2549
▁ఒకే	-2550
లియన్	-2551
▁అల్లు	-2552
▁తోటలు	-2553
▁బొమ్మ	-2554
▁కర్నూలు	-2555
పడ్డ	-2556
వాస్	-2557
ైంది	-2558
▁ప్రసిద్ధ	-2559
టో	-2560
ంద్	-2561
▁గె	-2562
▁హై	-2563
చారు	-2564
డికి	-2565
బడుతుంది	-2566
▁బౌ	-2567
▁బావుల	-2568
▁ఇవ్వ	-2569
స్తాన్	-2570
▁పార్ల	-2571
▁వరంగల్	-2572
▁స్వామివారి	-2573
▁M	-2574
▁పచ్చిక	-2575
సన్	-2576
పాటి	-2577
ార్లు	-2578
▁నిజాం	-2579
▁కంప్యూ	-2580
▁కుమారుడు	-2581
కోట	-2582
▁అనుస	-2583
▁కరీంనగర్	-2584
8,	-2585
మ్మి	-2586
▁ఉపా	-2587
▁బెంగ	-2588
పోయ	-2589
నాథ్	-2590
పెనీ	-2591
▁డబ్బ	-2592
▁కమ్యూని	-2593
జర్	-2594
▁నామ	-2595
▁రామలింగ	-2596
వ్య	-2597
భాష	-2598
రూప	-2599
మ్మా	-2600
▁బంగ	-2601
▁వాడ	-2602
▁చేరి	-2603
▁సంఘట	-2604
ఘవ	-2605
రళ	-2606
పుర	-2607
పులు	-2608
▁మేత	-2609
▁కంపెనీ	-2610
▁రాష్ట్రపతి	-2611
చో	-2612
దవ	-2613
ాలూ	-2614
▁ఏక	-2615
▁భౌ	-2616
▁పంట	-2617
▁బ్రా	-2618
లక్ష్మి	-2619
▁తేదీలు	-2620
ంటి	-2621
ానే	-2622
సియా	-2623
▁జీవ	-2624
మ్మడి	-2625
▁చిత్రంలో	-2626
మర	-2627
▁గౌ	-2628
లీపు	-2629
వాదం	-2630
పురంలో	-2631
▁నివాస	-2632
▁విజయం	-2633
▁పరిస్థి	-2634
▁ఎంతో	-2635
▁భాగం	-2636
▁బ్లాగు	-2637
▁మిగిలినవి	-2638
▁విశ్వవిద్యాలయం	-2639
▁R	-2640
ంగు	-2641
▁ఆస్	-2642
▁నడి	-2643
రులు	-2644
▁ఈమె	-2645
▁ఫ్ర	-2646
▁హను	-2647
▁గానం	-2648
▁సరిహ	-2649
▁వెళ్ళి	-2650
కము	-2651
తిలో	-2652
▁ఇవి	-2653
▁బాలు	-2654
▁తీవ్ర	-2655
▁నాటికి	-2656
▁పురుషులు	-2657
నుల	-2658
ప్త	-2659
నాలు	-2660
ష్టి	-2661
ఢిల్లీ	-2662
పోయింది	-2663
▁గ్రెగొ	-2664
▁రామారావు	-2665
60	-2666
▁సంవత్సరాంత	-2667
▁మండ	-2668
▁లక్షల	-2669
▁పురుషుల	-2670
▁అక్షరాస్య	-2671
ఘు	-2672
ధం	-2673
▁గ్రెగొరియన్	-2674
▁సంవత్సరాంతమునకు	-2675
▁తాను	-2676
▁నల్ల	-2677
▁వర్ణ	-2678
▁నిర్ణ	-2679
▁అందులో	-2680
▁సెప్టెంబరు	-2681
am	-2682
▁s	-2683
పాలక	-2684
స్థల	-2685
▁మాధ	-2686
▁స్థాయి	-2687
క్కినేని	-2688
▁హు	-2689
▁సోమ	-2690
వంటి	-2691
ేషను	-2692
నియన్	-2693
▁శాస్త్రి	-2694
▁క్రికెట్	-2695
▁స్థానంలో	-2696
ఫీ	-2697
▁పదవి	-2698
▁బ్రిటిష్	-2699
▁సందర్భంగా	-2700
▁ఘన	-2701
▁నర	-2702
▁చదువు	-2703
▁తక్కువ	-2704
▁పోలీసు	-2705
▁సమీపంలో	-2706
▁పురస్కార	-2707
ed	-2708
ur	-2709
.200	-2710
▁పరీ	-2711
▁మాట	-2712
:-	-2713
దిన	-2714
జీవి	-2715
▁గౌర	-2716
తికి	-2717
చింది	-2718
▁దేశంలో	-2719
▁పట్టు	-2720
▁తీసుకు	-2721
▁కౌ	-2722
▁మల	-2723
▁సాగవుతున్న	-2724
సులు	-2725
▁మరి	-2726
▁వెళ్	-2727
య్యాడు	-2728
▁తాగునీరు	-2729
కాలం	-2730
▁ఏడు	-2731
▁విడి	-2732
▁చెయ్య	-2733
▁ఆగస్టు	-2734
▁సుల్తా	-2735
▁చలనచిత్ర	-2736
▁D	-2737
క్టర్	-2738
▁దారి	-2739
టన్	-2740
▁సైని	-2741
ల్లూరి	-2742
▁నవంబరు	-2743
ెదరు	-2744
్యన్	-2745
▁భారతదేశం	-2746
▁58	-2747
11	-2748
▁కనిప	-2749
▁సంకల	-2750
కుంటాడు	-2751
▁చేసాడు	-2752
▁సాహితీ	-2753
టెడ్	-2754
▁కల్ప	-2755
▁విభాగ	-2756
ధన	-2757
▁మార	-2758
డో	-2759
కుమ	-2760
▁2022	-2761
▁బౌద్ధ	-2762
▁మరియు	-2763
▁కొనసాగ	-2764
▁పేర్కొ	-2765
▁భీమ	-2766
▁క్రమ	-2767
రానికి	-2768
▁ఇరాన్	-2769
▁మొదలు	-2770
▁సమస్య	-2771
స్వామివారి	-2772
ధ్ర	-2773
ంటాడు	-2774
▁నూతన	-2775
ందరు	-2776
దాసు	-2777
ులను	-2778
▁ఆధునిక	-2779
▁బహుమతి	-2780
దూ	-2781
వార	-2782
మ్స్	-2783
▁యువ	-2784
▁నియమ	-2785
ార్జున	-2786
▁సంకలనం	-2787
▁35	-2788
▁60	-2789
రియా	-2790
▁తెలుగులో	-2791
శై	-2792
ీర్	-2793
తాన్న	-2794
▁శతాబ్దం	-2795
ంచు	-2796
్లో	-2797
▁లు	-2798
గాన్ని	-2799
▁గూ	-2800
▁పౌ	-2801
▁the	-2802
▁వివర	-2803
ించబడిన	-2804
el	-2805
కాం	-2806
పోయిన	-2807
▁పండు	-2808
▁లోక్	-2809
▁కడప	-2810
▁దండ	-2811
▁మను	-2812
▁నాడు	-2813
ోగ్ర	-2814
▁చేత	-2815
చ్చిన	-2816
▁స్నే	-2817
▁వన	-2818
వారీ	-2819
▁పర్వత	-2820
పల్లిలో	-2821
▁వ్యాపార	-2822
పడు	-2823
దేశాల	-2824
▁గుండ	-2825
యోధుడు	-2826
▁డిసెంబరు	-2827
▁అధ్యక్షుడు	-2828
బడ	-2829
▁చక్క	-2830
చిత్రం	-2831
▁ఆంగ్ల	-2832
▁తెలంగాణా	-2833
▁సంగీతాన్న	-2834
3,	-2835
భం	-2836
.193	-2837
గంలో	-2838
▁చాళు	-2839
▁ప్రాచ	-2840
▁చెప్పు	-2841
▁ఢిల్లీ	-2842
▁నెల్లూరు	-2843
ఎల్	-2844
హరి	-2845
▁అధికంగా	-2846
▁ఏర్పడిన	-2847
▁కల్	-2848
▁నిల	-2849
▁కింద	-2850
▁రాజమ	-2851
▁అత్యధిక	-2852
కలు	-2853
▁వైపు	-2854
▁ఖమ్మం	-2855
▁పురపాలక	-2856
దుగా	-2857
▁అనగా	-2858
▁తిరుమల	-2859
▁గజ	-2860
▁ప్రి	-2861
▁అక్షరాస్యత	-2862
70	-2863
ీణ	-2864
పాలు	-2865
▁నల్	-2866
పెద్ద	-2867
▁రష్యన్	-2868
▁శ్రీకా	-2869
ందించాడు	-2870
షే	-2871
ష్య	-2872
హరణ	-2873
.192	-2874
▁అక్కినేని	-2875
▁కిలోమీటర్ల	-2876
▁ఓడి	-2877
▁ఆమెను	-2878
▁కళ్యా	-2879
▁రోడ్డు	-2880
▁నిర్మాణం	-2881
దర	-2882
▁చాల	-2883
స్థానం	-2884
▁సభ్యులు	-2885
▁సంబంధించిన	-2886
90	-2887
ంటూ	-2888
యట్	-2889
▁చట్ట	-2890
▁మాట్లా	-2891
6,	-2892
▁B	-2893
చారం	-2894
వ్యా	-2895
లగ	-2896
ళూరు	-2897
▁నడు	-2898
▁కూతు	-2899
▁ముస్లిం	-2900
▁కళాశాలలు	-2901
స్స	-2902
గ్రామ	-2903
▁తారా	-2904
▁సినిమాలో	-2905
▁మహారాష్ట్ర	-2906
▁మురుగునీటి	-2907
24	-2908
nd	-2909
తృ	-2910
▁ఋ	-2911
▁వున్న	-2912
▁నల్గొండ	-2913
ఫి	-2914
▁దేవి	-2915
రుగురు	-2916
▁పార్వ	-2917
▁నాయుడు	-2918
ండ్ల	-2919
▁మరా	-2920
స్వామ	-2921
▁గిరి	-2922
కాలంలో	-2923
▁పరిపాలన	-2924
▁కుమార్తె	-2925
నై	-2926
ిత	-2927
న్నె	-2928
▁విప్	-2929
▁జానకి	-2930
ందా	-2931
శివ	-2932
వలసిన	-2933
▁రోజువారీ	-2934
దయ	-2935
కరి	-2936
నుక	-2937
వల్ల	-2938
ాయని	-2939
▁సామ్రాజ్యం	-2940
రల్	-2941
▁డై	-2942
▁ముం	-2943
▁పిలి	-2944
▁రామాయ	-2945
▁రచించిన	-2946
▁ఏర్పడింది	-2947
9,	-2948
ేద	-2949
▁యే	-2950
చ్చే	-2951
భారత	-2952
▁కమి	-2953
▁రాఘవ	-2954
చూ	-2955
మీద	-2956
గాడు	-2957
▁కెన	-2958
తులను	-2959
▁ఆరుగురు	-2960
నని	-2961
సీమ	-2962
ళ్లు	-2963
▁అరు	-2964
▁ఆవి	-2965
ాపూర్	-2966
సారిగా	-2967
▁ప్రొడ	-2968
▁బాధ్య	-2969
▁చేస్తారు	-2970
▁సరిహద్దు	-2971
హో	-2972
▁డె	-2973
▁పైగా	-2974
▁భర్త	-2975
▁చిత్త	-2976
▁పనిచేశ	-2977
▁ప్రాచీన	-2978
▁రంగస్థల	-2979
▁21	-2980
▁మామ	-2981
▁క్షేత్ర	-2982
▁[	-2983
ండో	-2984
▁and	-2985
▁వాటి	-2986
▁పురాణ	-2987
▁శతాబ్దంలో	-2988
ad	-2989
మాన్	-2990
రుకు	-2991
లేని	-2992
▁188	-2993
▁అంచ	-2994
▁ద్ర	-2995
▁లోక	-2996
▁కనుగొ	-2997
ఒక	-2998
క్చ	-2999
సాడు	-3000
ెంట్	-3001
▁స్త్రీలు	-3002
le	-3003
▁లీ	-3004
ాయతీ	-3005
▁ఉదా	-3006
▁మూల	-3007
▁వ్ర	-3008
పాలెం	-3009
▁దేశం	-3010
▁మద్య	-3011
వచ్చును	-3012
▁ప్రపంచంలో	-3013
2,	-3014
▁ఇంత	-3015
▁సంవత్సరంలో	-3016
నాల	-3017
▁కృషి	-3018
▁మారు	-3019
టువంటి	-3020
ట్టింది	-3021
▁అనంతరం	-3022
▁కాకతీయ	-3023
▁c	-3024
కలో	-3025
బడే	-3026
మన్	-3027
ాడని	-3028
రికన్	-3029
▁వెంట	-3030
▁కోట్ల	-3031
ందో	-3032
ాలీ	-3033
.190	-3034
▁అవత	-3035
▁ఎంత	-3036
▁కుం	-3037
▁వైభవ	-3038
▁భక్తి	-3039
▁చాళుక్య	-3040
జూ	-3041
ళిక	-3042
▁గంగ	-3043
▁ముఖ	-3044
▁ఆత్మ	-3045
▁రుద్ర	-3046
▁గృహాలు	-3047
నర్	-3048
▁పాప	-3049
▁ఇప్పుడు	-3050
▁N	-3051
ist	-3052
పర్	-3053
▁నై	-3054
న్సి	-3055
▁పరమ	-3056
రాన్ని	-3057
▁ఏలూరు	-3058
▁నృత్య	-3059
▁ప్రధానమంత్రి	-3060
వత	-3061
ధ్యా	-3062
▁అంది	-3063
▁ఉండి	-3064
▁పద్ధ	-3065
కాయ	-3066
▁అధి	-3067
▁స్త్రీల	-3068
25	-3069
వేద	-3070
ందరి	-3071
గులు	-3072
న్నే	-3073
రోజు	-3074
▁రిక	-3075
▁ఒప్ప	-3076
▁నమ్మ	-3077
▁విభజ	-3078
▁ఇంగ్లీ	-3079
పారు	-3080
క్షన్	-3081
▁ఎన్నికలలో	-3082
వో	-3083
వంతు	-3084
శారు	-3085
గూడెం	-3086
సంవత్స	-3087
బొ	-3088
పిన	-3089
లిత	-3090
▁ఎడ	-3091
.199	-3092
▁మెద	-3093
▁వంద	-3094
▁మానవ	-3095
▁సోవి	-3096
▁శ్రీనివాసరావు	-3097
ht	-3098
తరం	-3099
నాడ	-3100
▁బ్య	-3101
▁మూడవ	-3102
▁వెంక	-3103
▁విశాఖపట్నం	-3104
గర్భ	-3105
▁ఎకర	-3106
▁భాస్కర	-3107
▁బే	-3108
లికి	-3109
▁యోగ	-3110
▁అతనికి	-3111
▁బ్రాహ్మ	-3112
▁బాలసుబ్రహ్మణ్యం	-3113
ంగి	-3114
బ్ద	-3115
▁చుట్టు	-3116
ెంలో	-3117
▁బంధ	-3118
▁గవర్	-3119
▁గాయకుడు	-3120
▁సభ్యుడు	-3121
▁పార్లమెంటు	-3122
▁హీ	-3123
▁చంద	-3124
పర్తి	-3125
▁ఇంది	-3126
▁వారిని	-3127
సూ	-3128
▁).	-3129
▁చై	-3130
▁అలా	-3131
▁నవల	-3132
▁దిగు	-3133
▁సందర్శ	-3134
మామ	-3135
▁డే	-3136
▁మంత్ర	-3137
▁నిజామా	-3138
▁సుబ్బారావు	-3139
ేట్	-3140
సారు	-3141
▁కేవ	-3142
▁ద్వీ	-3143
▁పుష్	-3144
▁సత్యం	-3145
▁అభిప్ర	-3146
▁డాక్టర్	-3147
▁ప్రయత్ని	-3148
▁పాలీటెక్నిక్లు	-3149
చేయ	-3150
▁33	-3151
దేశం	-3152
వాతి	-3153
▁ఇస్	-3154
▁కనుక	-3155
▁రాయలు	-3156
▁వ్యాస	-3157
▁చెందింది	-3158
▁రఘు	-3159
▁గోల్	-3160
▁లింగ	-3161
▁వరకూ	-3162
▁వర్గ	-3163
▁స్వీకర	-3164
▁ప్రారంభించారు	-3165
్రూ	-3166
మెంట్	-3167
▁వినాయ	-3168
▁ఉద్యోగ	-3169
చీ	-3170
ల్ని	-3171
ానాయ	-3172
▁శరీ	-3173
▁తాలూ	-3174
▁దేవత	-3175
▁మాధవ	-3176
▁రాజ్యాం	-3177
▁p	-3178
▁2,	-3179
▁సగ	-3180
శాడు	-3181
▁100	-3182
తావరణ	-3183
▁ఇంటి	-3184
▁భువన	-3185
▁ఇచ్చి	-3186
▁మోహన్	-3187
▁పెట్టు	-3188
▁సోవియట్	-3189
▁స్టేషను	-3190
ణము	-3191
రాన	-3192
ూలు	-3193
ేష్	-3194
▁అప	-3195
గ్ని	-3196
▁పుణ్య	-3197
ol	-3198
పిక	-3199
త్తా	-3200
నుడు	-3201
▁పడి	-3202
ation	-3203
▁స్థల	-3204
▁పోరాట	-3205
▁శాలలో	-3206
▁శ్రీకృష్ణ	-3207
▁G	-3208
ట్యూ	-3209
పోయి	-3210
▁చేయడం	-3211
▁రాసిన	-3212
▁వార్షిక	-3213
▁సంవత్సరాలు	-3214
ారక	-3215
▁in	-3216
▁చేర	-3217
▁కలిపి	-3218
స్తోంది	-3219
▁రాత్రి	-3220
▁ఐదుగురు	-3221
దరి	-3222
సనం	-3223
▁చౌ	-3224
▁పది	-3225
▁సుర	-3226
త్రేయ	-3227
వరంలో	-3228
▁పరిచ	-3229
▁స్కూ	-3230
క్చర్స్	-3231
▁పంచాయతీ	-3232
▁పూర్తిగా	-3233
▁మండలంలోని	-3234
సుడు	-3235
▁దొంగ	-3236
▁అమెరికన్	-3237
▁సమరయోధుడు	-3238
▁పిలుస్తారు	-3239
▁నిర్వహించెదరు	-3240
జయ	-3241
టరు	-3242
ాంధ్ర	-3243
కారులు	-3244
▁చేయని	-3245
ప్రసాద్	-3246
▁వస్తుంది	-3247
▁ప్రాంతాలలో	-3248
గారి	-3249
ధ్యాయ	-3250
▁కెనడా	-3251
▁విషయం	-3252
▁లోక్సభ	-3253
▁అప్పుడు	-3254
▁వ్రాసిన	-3255
▁చలనచిత్రం	-3256
▁క్రీడాకారుడు	-3257
కాడ	-3258
▁ధర	-3259
ానని	-3260
▁ఉర్	-3261
▁జ్ఞాన	-3262
▁ప్రతీ	-3263
▁స్థిర	-3264
▁నటించారు	-3265
▁L	-3266
సిక	-3267
చాడు	-3268
కినాడ	-3269
▁ఎమ్మ	-3270
▁గంగా	-3271
▁గుర్తింపు	-3272
ండీ	-3273
వలన	-3274
్రియ	-3275
▁ఆకర్	-3276
▁వేటూరి	-3277
గడ	-3278
చల	-3279
▁మనో	-3280
గణంగా	-3281
▁గుర్	-3282
▁పేజీ	-3283
▁ఇంద్ర	-3284
▁వ్యక్	-3285
▁వాతావరణ	-3286
▁వైభవంగా	-3287
▁అవుతోంది	-3288
▁ప్రస్తుత	-3289
▁సంస్కృతి	-3290
21	-3291
గ్గు	-3292
త్రా	-3293
సులో	-3294
ాశ్ర	-3295
▁చింత	-3296
▁రాజ్	-3297
▁వేరు	-3298
▁సాయి	-3299
▁ఆసియా	-3300
▁వైశాల	-3301
▁సాధారణంగా	-3302
డూ	-3303
ోద్య	-3304
▁పాకి	-3305
▁కొద్ది	-3306
▁నగరంలో	-3307
▁పరీక్ష	-3308
▁భూగర్భ	-3309
▁సిస్టం	-3310
▁తారాగణంగా	-3311
ారె	-3312
▁ఆహ	-3313
డంలో	-3314
▁పాడ	-3315
▁చూసి	-3316
▁దూరం	-3317
▁ప్లాం	-3318
▁ప్రయోగ	-3319
▁సంవత్సరము	-3320
▁1:	-3321
దారు	-3322
మాని	-3323
ామిక	-3324
▁సమయ	-3325
▁గణపతి	-3326
▁చుట్ట	-3327
▁స్వతంత్ర	-3328
▁ప్రాంతాన్ని	-3329
ంచే	-3330
దరణ	-3331
దుల	-3332
ద్యం	-3333
బడులు	-3334
▁ఈశ్వ	-3335
▁హాస్య	-3336
▁పిక్చర్స్	-3337
▁నిర్మించాడు	-3338
ch	-3339
▁గడి	-3340
రాయలు	-3341
ేషనల్	-3342
▁పరిష	-3343
▁వర్ష	-3344
▁పూర్వం	-3345
సంవత్సరం	-3346
▁లక్ష్మణ	-3347
ంచిన	-3348
ర్పు	-3349
ానంద	-3350
్యము	-3351
▁బోధ	-3352
▁వరి	-3353
ంజనేయ	-3354
▁మళ్ళ	-3355
▁బ్రిటీ	-3356
▁లేకుండా	-3357
▁శ్రీనివాస్	-3358
ందున	-3359
దిరి	-3360
బెల్	-3361
మూరి	-3362
▁న్యూ	-3363
నాన్ని	-3364
రంజీవి	-3365
స్థాయి	-3366
▁సృష్ట	-3367
▁గురువు	-3368
▁వివాహం	-3369
▁పరిధిలో	-3370
▁సంఘటనలు	-3371
మాల	-3372
ర్డ్	-3373
ేత్రం	-3374
▁కొండల	-3375
▁కాంగ్రె	-3376
▁నాయకత్వ	-3377
▁H	-3378
్యత	-3379
వ్వు	-3380
స్కృ	-3381
▁ఎగు	-3382
▁పాద	-3383
▁ఇతని	-3384
▁సెంట	-3385
డని	-3386
సర్	-3387
▁భర	-3388
▁మృ	-3389
▁వేల	-3390
▁ఖాన్	-3391
▁సిరి	-3392
▁కేవలం	-3393
▁అక్కడి	-3394
▁లక్ష్మి	-3395
ేరు	-3396
▁టీ	-3397
కూరు	-3398
▁బిరు	-3399
▁దానికి	-3400
il	-3401
▁=	-3402
ent	-3403
్యో	-3404
▁నౌ	-3405
▁హే	-3406
▁రాయల	-3407
▁సమాజ	-3408
▁మరింత	-3409
▁సమర్ప	-3410
▁నిర్ణయ	-3411
▁ప్రచుర	-3412
▁వీటిలో	-3413
▁శ్రీకాకు	-3414
▁కేంద్రంగా	-3415
▁నారాయణరావు	-3416
▁రాష్ట్రములోని	-3417
▁ఆలో	-3418
▁స్ప	-3419
▁అక్క	-3420
▁ఎర్ర	-3421
▁వేణు	-3422
▁స్కో	-3423
ర్యంలో	-3424
▁అనేది	-3425
▁భూభాగ	-3426
▁లాంటి	-3427
▁శాంతి	-3428
▁ప్రస్తా	-3429
▁భాస్కరరావు	-3430
▁వ్యతిరేకంగా	-3431
ut	-3432
డై	-3433
రవ	-3434
ణిక	-3435
రుగ	-3436
▁గత	-3437
▁ఫో	-3438
▁శో	-3439
క్రీ	-3440
న్యా	-3441
▁జాబి	-3442
▁ముని	-3443
▁మొదట	-3444
▁అర్థం	-3445
▁భౌతిక	-3446
▁అయింది	-3447
▁ఉదాహరణ	-3448
▁తమిళనాడు	-3449
యస్	-3450
▁53	-3451
ండగా	-3452
▁అలం	-3453
▁రాధ	-3454
▁జైలు	-3455
▁ఆక్రమ	-3456
▁మహిళా	-3457
▁కాకినాడ	-3458
శో	-3459
▁b	-3460
ామం	-3461
కూర్	-3462
▁నర్	-3463
▁పేర	-3464
▁అష్ట	-3465
▁అతిపెద్ద	-3466
▁పండితుడు	-3467
▁విమానాశ్ర	-3468
ra	-3469
పాట	-3470
▁మౌ	-3471
ుండు	-3472
▁లేక	-3473
లాంటి	-3474
▁కష్ట	-3475
▁కేరళ	-3476
▁ద్వి	-3477
గోరియన్	-3478
▁విగ్రహం	-3479
శర	-3480
ెన	-3481
రుస	-3482
▁తది	-3483
▁భారత్	-3484
▁సరస్వ	-3485
▁డివిజన్	-3486
▁కై	-3487
▁అమలు	-3488
▁ఆదిలా	-3489
▁ఉర్దూ	-3490
▁సాంకే	-3491
▁కొందరు	-3492
చార్యులు	-3493
▁డివిజను	-3494
26	-3495
29	-3496
ాపన	-3497
ామృ	-3498
▁భవ	-3499
చేసి	-3500
ధులు	-3501
పాల్	-3502
▁186	-3503
▁366	-3504
సంఖ్య	-3505
▁మద్ద	-3506
▁పుట్ట	-3507
▁మెదక్	-3508
▁ఆరుద్ర	-3509
▁చేస్తూ	-3510
▁దానిని	-3511
▁వాటిని	-3512
ia	-3513
డవు	-3514
నాధ	-3515
మంత	-3516
కంటే	-3517
▁పెద	-3518
▁మైస	-3519
▁ఉదయం	-3520
▁ఫిల్	-3521
▁యూని	-3522
▁రోజుల	-3523
క్షన్స్	-3524
స్కృతిక	-3525
▁డిగ్రీలు	-3526
▁అందించాడు	-3527
యర్	-3528
▁ఆప	-3529
.197	-3530
టంతో	-3531
▁అవసర	-3532
▁శాతం	-3533
▁హిందు	-3534
ారాయుడు	-3535
▁సిస్టమ్	-3536
డలు	-3537
▁అంబ	-3538
▁అయి	-3539
▁వలస	-3540
కోవడం	-3541
ాయితీ	-3542
▁ఘట్ట	-3543
▁విద్వ	-3544
▁సింగ్	-3545
స్తుంటారు	-3546
▁రామచంద్ర	-3547
▁–	-3548
శ్య	-3549
▁ఆరం	-3550
ోత్సవ	-3551
▁జరిగే	-3552
▁కొత్తగా	-3553
▁చిరంజీవి	-3554
జాన	-3555
వులను	-3556
▁చెరు	-3557
▁మధుర	-3558
▁పెరుగు	-3559
▁రామలింగయ్య	-3560
▁జరుపుకుంటారు	-3561
రాం	-3562
▁80	-3563
కంలో	-3564
నిమి	-3565
▁నెహ	-3566
▁అడవి	-3567
▁కూతురు	-3568
▁ముఖ్యంగా	-3569
▁రాజేంద్ర	-3570
iv	-3571
ing	-3572
యంగా	-3573
▁బాధ	-3574
టర్లు	-3575
బట్టి	-3576
విత్ర	-3577
▁అంతే	-3578
▁పంజా	-3579
▁పండుగ	-3580
▁కాలెండ	-3581
▁మీదుగా	-3582
▁గోల్కొండ	-3583
▁పట్టణంలో	-3584
▁గ్రెగోరియన్	-3585
నరస	-3586
్యే	-3587
హెచ్	-3588
▁ఇన్	-3589
▁ఊరి	-3590
▁మాయ	-3591
ములను	-3592
▁2013	-3593
▁చల్ల	-3594
యిత్రి	-3595
▁పునర్	-3596
▁జిల్లాలు	-3597
▁పొందింది	-3598
▁కాంగ్రెసు	-3599
48	-3600
గతి	-3601
లేక	-3602
వడం	-3603
ాలే	-3604
ానర్	-3605
▁చూప	-3606
▁లిం	-3607
▁రచనలు	-3608
▁చెప్పిన	-3609
కోవడానికి	-3610
▁చిత్తూరు	-3611
డమే	-3612
▁జే	-3613
కట్ట	-3614
స్తి	-3615
▁పడు	-3616
కాన్ని	-3617
హాన్ని	-3618
రాష్ట్ర	-3619
▁నాగరిక	-3620
▁బంగారు	-3621
▁ప్రతిపాద	-3622
▁సాంకేతిక	-3623
▁సాహిత్యం	-3624
్వా	-3625
▁1.	-3626
ార్ల	-3627
▁185	-3628
ర్మన్	-3629
▁టెక్	-3630
▁సర్పం	-3631
▁స్కోప్	-3632
▁సాంస్కృతిక	-3633
హీ	-3634
లేరు	-3635
ల్లం	-3636
▁ఆరా	-3637
▁భద్ర	-3638
▁మరాఠ	-3639
▁నోబెల్	-3640
▁మారింది	-3641
▁నిర్మించ	-3642
కథ	-3643
▁F	-3644
పురా	-3645
రుని	-3646
వాగు	-3647
▁బయట	-3648
▁భవన	-3649
▁మని	-3650
సరాజు	-3651
▁గారి	-3652
▁నేను	-3653
▁నెలకొ	-3654
శ్రామిక	-3655
▁ఆత్రేయ	-3656
▁నెహ్రూ	-3657
▁ప్రఖ్య	-3658
▁రాజ్యం	-3659
▁ప్రజలకు	-3660
▁నాగార్జున	-3661
▁జన్మించాడు	-3662
కళ	-3663
నీయ	-3664
సాద	-3665
▁భో	-3666
క్కన	-3667
లిలో	-3668
వాణి	-3669
వైపు	-3670
▁ఉజ్	-3671
ందారు	-3672
▁2000	-3673
▁ఆహార	-3674
▁తనకు	-3675
▁పక్ష	-3676
▁ఎంపిక	-3677
▁క్రింద	-3678
▁నేషనల్	-3679
▁పిల్లల	-3680
▁కాలెండరు	-3681
▁ప్రొడక్షన్స్	-3682
ంక	-3683
ేడ్	-3684
డియా	-3685
స్తవ	-3686
▁రవి	-3687
చున్న	-3688
న్నెల	-3689
▁రంగు	-3690
▁ఇన్స్	-3691
▁మార్గం	-3692
▁వ్యాధి	-3693
▁పరిశోధన	-3694
▁ప్రకాశం	-3695
▁అన్నమయ్య	-3696
us	-3697
ద్భు	-3698
ంటాయి	-3699
లాండ్	-3700
▁గమని	-3701
▁దాడి	-3702
▁సగటు	-3703
వంతమైన	-3704
▁పర్యాటక	-3705
▁అనుసరించి	-3706
▁రూపొందించ	-3707
ag	-3708
ాంగ	-3709
▁ఆయు	-3710
▁ఎలా	-3711
▁నేల	-3712
కోర్టు	-3713
▁అంచనా	-3714
▁భద్రా	-3715
▁ముద్ర	-3716
▁విదేశ	-3717
▁అతన్ని	-3718
▁కెనడాలో	-3719
▁జనాభాలో	-3720
▁బ్యానర్	-3721
▁గీ	-3722
▁అలీ	-3723
ంచారు	-3724
ంలోకి	-3725
క్కలు	-3726
యాత్ర	-3727
కురాలు	-3728
ేషన్స్	-3729
▁మళ్ళీ	-3730
▁ఇప్పటి	-3731
▁స్వర్ణ	-3732
▁మండలాలు	-3733
▁కేంద్రమైన	-3734
▁చేయడానికి	-3735
▁నియోజకవర్గం	-3736
▁టా	-3737
త్యాల	-3738
▁నియం	-3739
▁భాషలలో	-3740
▁స్నేహి	-3741
.198	-3742
ార్ధ	-3743
▁వేయ	-3744
త్మిక	-3745
▁దాశర	-3746
▁శిల్ప	-3747
వుతుంది	-3748
▁చేపట్ట	-3749
▁బాలబడులు	-3750
▁పారిశ్రామిక	-3751
బాయి	-3752
▁ఏను	-3753
డ్డున	-3754
▁భాను	-3755
త్తులు	-3756
▁చుట్టూ	-3757
▁సమావేశ	-3758
గాయ	-3759
▁38	-3760
తుబ్	-3761
▁అనువ	-3762
▁ఇతను	-3763
▁గౌరవ	-3764
▁జంతు	-3765
▁రసాయ	-3766
మయ్యాయి	-3767
▁చేస్తుంది	-3768
పల	-3769
▁V	-3770
జాల	-3771
ెల్	-3772
▁చం	-3773
కంగా	-3774
▁నార	-3775
▁కోరు	-3776
కుమారి	-3777
టిట్యూ	-3778
సముద్ర	-3779
▁బ్రాహ్మణ	-3780
▁యుద్ధంలో	-3781
▁f	-3782
బుల్	-3783
శేఖర	-3784
శ్మీ	-3785
▁ఇండో	-3786
కుడిగా	-3787
▁దాసరి	-3788
▁బట్టి	-3789
▁చెప్పి	-3790
▁రాజులు	-3791
▁వ్యాఖ్య	-3792
▁కార్యక్ర	-3793
▁భావిస్తున్నారు	-3794
▁సహజ	-3795
స్టర్	-3796
▁ఆదాయ	-3797
▁కారణ	-3798
▁భారీ	-3799
▁ఆధ్యా	-3800
▁భాషలో	-3801
▁ఇండియన్	-3802
▁ఇంగ్లీషు	-3803
.,	-3804
27	-3805
46	-3806
ఫ్ర	-3807
▁గళ	-3808
▁తప	-3809
ప్రీ	-3810
రంగా	-3811
▁అభ్య	-3812
▁ఆనంద	-3813
▁నిరా	-3814
▁హీరో	-3815
ాలయంలో	-3816
▁వెనుక	-3817
▁ప్రచురణ	-3818
▁అధికారిక	-3819
et	-3820
ww	-3821
మత	-3822
తన్	-3823
దైన	-3824
▁ఎవ	-3825
▁యం	-3826
చారి	-3827
ద్దీ	-3828
▁కలె	-3829
▁చని	-3830
మ్మద్	-3831
రాజ్య	-3832
▁లక్షణ	-3833
▁గుర్తు	-3834
▁జాబితా	-3835
▁పాలనలో	-3836
▁నిర్వహి	-3837
సో	-3838
-19	-3839
▁ఛాయ	-3840
▁శేష	-3841
▁అకాడ	-3842
▁తగ్గ	-3843
▁ఫైల్	-3844
▁మంగళ	-3845
ప్రాంత	-3846
▁ఉంటారు	-3847
▁పవిత్ర	-3848
▁గ్రామీణ	-3849
▁ప్లాంట్	-3850
▁కొల్లూరి	-3851
▁రాజమండ్రి	-3852
పూజ	-3853
గానం	-3854
మితి	-3855
▁కూర	-3856
▁ఆర్ట్	-3857
▁సోదరు	-3858
▁ఆంజనేయ	-3859
వృ	-3860
తనం	-3861
▁టై	-3862
రాజా	-3863
రేషన్	-3864
▁కోటి	-3865
▁రకాల	-3866
▁శిక్ష	-3867
▁ఇప్పటికీ	-3868
▁2.	-3869
ఫ్ట్	-3870
రాడు	-3871
▁గూడ	-3872
గానికి	-3873
▁ప్రవహ	-3874
▁విజయనగరం	-3875
▁సుబ్బారాయుడు	-3876
▁దె	-3877
▁Ind	-3878
పద్యం	-3879
▁అతడు	-3880
▁అర్ధ	-3881
▁సింహా	-3882
్వర్యంలో	-3883
▁ఎన్నికైన	-3884
దశ	-3885
.17	-3886
▁రజ	-3887
▁గుహ	-3888
▁నిష్	-3889
▁రక్ష	-3890
▁విలువ	-3891
▁కుతుబ్	-3892
▁సంస్కృ	-3893
▁సాధారణ	-3894
▁ప్రభావం	-3895
▁అనంతపురం	-3896
▁విశ్వనాథ	-3897
▁ప్రధానంగా	-3898
▁మరణించాడు	-3899
చలం	-3900
నము	-3901
▁లై	-3902
కోసం	-3903
▁అవస	-3904
పేటలో	-3905
▁వెబ్	-3906
▁మూర్తి	-3907
▁వీటిని	-3908
▁సంస్థాన	-3909
45	-3910
కై	-3911
ుంగ	-3912
లియా	-3913
▁జమీ	-3914
▁స్మ	-3915
దర్శి	-3916
▁సింగ	-3917
స్థాపన	-3918
▁ఉండేవి	-3919
▁చేయబడింది	-3920
▁ప్రారంభించాడు	-3921
43	-3922
▁E	-3923
కారి	-3924
▁ఆల్	-3925
కుంటూ	-3926
పాత్ర	-3927
▁2014,	-3928
▁అద్భు	-3929
▁ఉజ్బె	-3930
▁గళామృ	-3931
▁చేర్చ	-3932
▁లభించింది	-3933
▁ఆధ్యాత్మిక	-3934
79	-3935
re	-3936
ోప	-3937
టమి	-3938
ర్ధ	-3939
ాభి	-3940
▁70	-3941
▁షి	-3942
▁ఊరు	-3943
▁వెల	-3944
▁కోల్	-3945
▁గర్భ	-3946
కునిగా	-3947
▁ఫ్రెం	-3948
▁శ్రీశ్రీ	-3949
▁నిర్వహించిన	-3950
28	-3951
ాంతం	-3952
▁దంప	-3953
▁ఫలి	-3954
▁ప్రథ	-3955
▁అందరి	-3956
▁కారణం	-3957
▁పల్లె	-3958
▁సైనిక	-3959
▁అకాడమీ	-3960
▁కోర్టు	-3961
▁మామూలు	-3962
▁గుర్తించ	-3963
▁ప్రదర్శన	-3964
▁రాజధానిగా	-3965
▁కార్యక్రమాలు	-3966
▁వెంకటేశ్వరరావు	-3967
63	-3968
స్ర	-3969
చిగా	-3970
్యాగ	-3971
▁వది	-3972
▁జ్యో	-3973
▁ఎనిమి	-3974
▁కోరిక	-3975
▁మాటలు	-3976
▁పెరిగి	-3977
▁విప్లవ	-3978
▁రంగారావు	-3979
tp	-3980
బై	-3981
్వే	-3982
పన్న	-3983
▁విర	-3984
▁అరటి	-3985
▁గద్వ	-3986
▁దక్క	-3987
▁పారు	-3988
▁రాతి	-3989
ప్తంగా	-3990
ించేవారు	-3991
ేశ్వరస్వామి	-3992
.)	-3993
ళీ	-3994
సల	-3995
▁31	-3996
▁శృ	-3997
.196	-3998
ునిగా	-3999
▁2014	-4000
కేంద్ర	-4001
నిర్మా	-4002
▁2015,	-4003
▁అత్యు	-4004
▁పూజలు	-4005
▁దాశరథి	-4006
▁విజ్ఞాన	-4007
▁ప్రక్రియ	-4008
▁చేస్తున్న	-4009
//	-4010
65	-4011
75	-4012
og	-4013
మణి	-4014
ినే	-4015
పాతం	-4016
యిన్	-4017
ర్రు	-4018
▁దశా	-4019
▁తాలూకా	-4020
త్వాన్ని	-4021
▁తిరుగుబాటు	-4022
49	-4023
▁3,	-4024
▁హృ	-4025
http	-4026
త్రు	-4027
ొన్న	-4028
▁రాం	-4029
ంలోనూ	-4030
▁ఇష్ట	-4031
క్షేత్ర	-4032
▁సుప్రీ	-4033
టిట్యూట్	-4034
▁కొసరాజు	-4035
▁నాగరికత	-4036
▁యూనియన్	-4037
▁రికార్డు	-4038
▁విశ్వవిద్యాలయ	-4039
://	-4040
జ్ర	-4041
నాలి	-4042
ర్ట్	-4043
▁191	-4044
▁చోళ	-4045
▁సహా	-4046
కులను	-4047
జానకి	-4048
మనేని	-4049
▁గాని	-4050
▁గోవి	-4051
పెద్ది	-4052
▁వస్త్ర	-4053
▁సైన్యం	-4054
జీవ	-4055
త్న	-4056
పిల్ల	-4057
▁నివస	-4058
▁పెను	-4059
▁మలయా	-4060
▁గాయని	-4061
▁వుంది	-4062
▁జీవితం	-4063
▁ప్రయాణ	-4064
▁గళామృతము	-4065
▁పాఠశాలలో	-4066
85	-4067
ul	-4068
డల్	-4069
లపై	-4070
సేవ	-4071
.189	-4072
.194	-4073
న్సీ	-4074
మూర్	-4075
కాలను	-4076
సాగర్	-4077
▁అద్ద	-4078
▁క్రై	-4079
▁పాలు	-4080
య్యారు	-4081
▁పొందు	-4082
▁తరువాతి	-4083
ాలున్నాయి	-4084
మహ	-4085
నాగ	-4086
▁45	-4087
▁ఆశ	-4088
▁నొ	-4089
గ్గి	-4090
▁మొఘ	-4091
▁వంట	-4092
▁శుభ	-4093
▁శోభ	-4094
▁సము	-4095
చరిత్ర	-4096
నరసింహ	-4097
▁అగ్ని	-4098
▁జానపద	-4099
▁నివసి	-4100
▁రెండో	-4101
▁సింధు	-4102
కోవచ్చు	-4103
▁అనువాద	-4104
▁అవకాశం	-4105
▁వారిలో	-4106
▁తెలియదు	-4107
▁దూరంలోనూ	-4108
▁స్వాతంత్ర్యం	-4109
ంభ	-4110
▁w	-4111
రస్	-4112
▁దై	-4113
గాయి	-4114
▁వెలు	-4115
▁పొడవు	-4116
▁శ్రీశై	-4117
▁విద్వాం	-4118
▁పనిచేశాడు	-4119
▁చిత్రాన్ని	-4120
▁ఆచ	-4121
దిగా	-4122
▁పాం	-4123
▁మనం	-4124
గోపాల	-4125
▁జాతి	-4126
▁పట్ల	-4127
▁లేవు	-4128
▁వీటి	-4129
▁హత్య	-4130
▁మనిషి	-4131
▁వ్రాయ	-4132
▁దీన్ని	-4133
▁ప్రాము	-4134
▁మార్పు	-4135
ోత్సవాలు	-4136
▁సుప్రీం	-4137
▁చెరువులు	-4138
%.	-4139
▁ఖా	-4140
టిక్	-4141
సాయి	-4142
▁కథా	-4143
▁పిలువ	-4144
▁మహిళల	-4145
▁సన్ని	-4146
▁కంప్యూటరు	-4147
47	-4148
గత	-4149
టల్	-4150
గారు	-4151
పురి	-4152
ింగు	-4153
▁జ్ఞ	-4154
▁నవా	-4155
ోద్యమ	-4156
▁కథలు	-4157
తెలుగు	-4158
▁డబ్బు	-4159
▁ఇంటికి	-4160
▁కమ్యూనిస్టు	-4161
దృ	-4162
గలి	-4163
ల్వ	-4164
▁దళ	-4165
▁కూడ	-4166
▁పంప	-4167
నున్న	-4168
ార్డ్	-4169
▁తత్వ	-4170
ంచింది	-4171
▁చెన్నై	-4172
▁మార్గంలో	-4173
▁న్యాయమూర్తి	-4174
▁ప్లాంట్లోకి	-4175
▁ముఖ్యమంత్రిగా	-4176
▁పంపిస్తున్నారు	-4177
సము	-4178
▁అబ్	-4179
▁వుం	-4180
సిద్ధ	-4181
ెల్యే	-4182
▁అంతా	-4183
▁ఆరంభ	-4184
▁పర్య	-4185
▁ప్రె	-4186
▁లాల్	-4187
▁అప్పు	-4188
▁ఉత్సవ	-4189
▁జనరల్	-4190
▁ప్రాణ	-4191
▁బిడ్డ	-4192
▁ఇందిరా	-4193
▁కాశ్మీ	-4194
▁మిలియన్	-4195
స్తున్నది	-4196
▁కార్యాలయ	-4197
▁కార్యక్రమంలో	-4198
ఠం	-4199
▁యె	-4200
నియా	-4201
ప్తి	-4202
▁కాయ	-4203
▁రిప	-4204
▁సరో	-4205
▁అయినా	-4206
▁చేసుకుని	-4207
▁ప్రాంతానికి	-4208
33	-4209
95	-4210
పుణ	-4211
ామీ	-4212
ర్యం	-4213
▁2023	-4214
▁రాధా	-4215
▁సమేత	-4216
▁రాష్ట్రాల	-4217
▁ఆధ్వర్యంలో	-4218
టరీ	-4219
ాంశ	-4220
▁అచ	-4221
ట్రి	-4222
పేరు	-4223
▁ఆమో	-4224
▁మణి	-4225
కులకు	-4226
▁అశ్వ	-4227
▁ఆశ్ర	-4228
▁వరుస	-4229
▁రాజవం	-4230
▁వాళ్ళ	-4231
▁ఉద్యమం	-4232
▁మొదలగు	-4233
రామారావు	-4234
▁వీరభద్ర	-4235
టివ్	-4236
ముతో	-4237
మేష్	-4238
వాన్	-4239
చల్లా	-4240
▁1990	-4241
▁విని	-4242
త్రులు	-4243
▁చెల్ల	-4244
▁జట్టు	-4245
▁ఆచార్య	-4246
▁తెనాలి	-4247
▁విదేశీ	-4248
▁పిల్లలు	-4249
▁ఎమ్మెల్యే	-4250
▁ప్రాముఖ్య	-4251
▁పాకిస్తాన్	-4252
",	-4253
కుం	-4254
దర్	-4255
చర్ల	-4256
మయిన	-4257
లుపు	-4258
వలసి	-4259
ాంగ్	-4260
▁ఇటీ	-4261
▁ధ్వ	-4262
▁బీజ	-4263
▁యోధ	-4264
ప్రతి	-4265
ములలో	-4266
శిష్ట	-4267
▁నక్ష	-4268
రాత్రి	-4269
▁అర్జు	-4270
▁ఆయనకు	-4271
తున్నది	-4272
▁స్వాధీ	-4273
కుంటుంది	-4274
▁నాయకులు	-4275
87	-4276
em	-4277
గాన	-4278
క్రి	-4279
పడిన	-4280
ప్పా	-4281
బ్బి	-4282
▁అణు	-4283
▁ఎయి	-4284
▁దొర	-4285
ంచాడు	-4286
▁మండే	-4287
▁రాణి	-4288
ఘిక	-4289
▁జాగ	-4290
▁ఆకాశ	-4291
▁ఉండగా	-4292
▁కూడిన	-4293
▁అడుగుల	-4294
▁కథానాయ	-4295
వారంనాడు	-4296
▁మాధవపెద్ది	-4297
ఘ్	-4298
షనల్	-4299
▁రమణ	-4300
▁కలిగ	-4301
▁జగ్గ	-4302
▁విలీ	-4303
ణాన్ని	-4304
ేశ్వరి	-4305
▁హక్కు	-4306
ానువాదం	-4307
▁ఉన్నాడు	-4308
▁ఘట్టమనేని	-4309
య్	-4310
జరా	-4311
▁8,	-4312
▁అధ	-4313
దానం	-4314
బద్ధ	-4315
యంతి	-4316
రాజ్	-4317
▁దాన	-4318
▁సూచ	-4319
లింగం	-4320
శక్తి	-4321
▁కమిటీ	-4322
▁దివ్య	-4323
▁పద్యం	-4324
▁ఒకసారి	-4325
▁రేడియో	-4326
▁అమ్మాయి	-4327
▁అందించిన	-4328
▁ఉత్సవాలు	-4329
35	-4330
66	-4331
ధిప	-4332
రము	-4333
లైన	-4334
సార	-4335
ండర్	-4336
ందర్	-4337
ష్కర	-4338
▁ఎవర	-4339
చేసిన	-4340
రిక్ష	-4341
ాగ్రహ	-4342
▁కాల్	-4343
▁చేయు	-4344
▁నన్న	-4345
▁రక్త	-4346
▁శ్లో	-4347
▁స్టే	-4348
▁ఒడ్డున	-4349
▁సంస్థలు	-4350
▁బ్రిటిషు	-4351
▁రచయిత్రి	-4352
▁కేంద్రాల్లో	-4353
▁d	-4354
▁ఆయ	-4355
▁ఆస	-4356
కొనే	-4357
త్మా	-4358
వును	-4359
▁క్వ	-4360
▁తొలగ	-4361
▁పాటల	-4362
▁పులి	-4363
మాన్ని	-4364
▁పర్షి	-4365
▁ఇంట్లో	-4366
▁భారతదేశపు	-4367
▁శ్రీకాకుళం	-4368
ct	-4369
ot	-4370
దుప	-4371
ర్ఘ	-4372
దాస్	-4373
ానది	-4374
▁శని	-4375
▁అల్ల	-4376
▁మార్చ	-4377
▁స్థానం	-4378
▁నియంత్ర	-4379
▁పొందాడు	-4380
▁సాధించి	-4381
▁అభిప్రాయ	-4382
▁చేస్తాడు	-4383
▁వైశాల్యం	-4384
▁మొదటిసారిగా	-4385
లమ	-4386
గుల్	-4387
▁ఒడి	-4388
.2016	-4389
▁2019	-4390
▁కాశీ	-4391
▁సంభా	-4392
నైటెడ్	-4393
▁అనుభవ	-4394
▁ఆత్మక	-4395
▁కవులు	-4396
▁జ్యోతి	-4397
▁సాంఘిక	-4398
▁మరణించారు	-4399
99	-4400
సిం	-4401
ుడి	-4402
ేశవ	-4403
▁ధన	-4404
కూరి	-4405
గాని	-4406
▁150	-4407
▁డ్ర	-4408
▁దాం	-4409
▁నదీ	-4410
▁మాస	-4411
కుంటు	-4412
▁గారు	-4413
▁మనసు	-4414
▁వీధి	-4415
గుళూరు	-4416
పత్రిక	-4417
▁ఆమెకు	-4418
▁ఇంటర్	-4419
▁వెలువ	-4420
▁పొట్టి	-4421
▁కాబట్టి	-4422
▁ఆలయాన్ని	-4423
▁తెలుస్తుంది	-4424
44	-4425
77	-4426
eb	-4427
ఖండ	-4428
పట్ట	-4429
ంగోలు	-4430
గింపు	-4431
▁జాన్	-4432
▁బంగా	-4433
▁వెలి	-4434
▁శృంగ	-4435
▁ప్రియ	-4436
▁లేకపో	-4437
డేపల్లి	-4438
▁ఉమ్మడి	-4439
▁ఎదుర్కొ	-4440
▁నటించగా	-4441
▁దక్షిణాన	-4442
▁రంగారెడ్డి	-4443
▁శ్రీరాములు	-4444
▁చిత్రానువాదం	-4445
op	-4446
దండ	-4447
కట్టు	-4448
ుడిగా	-4449
▁గాను	-4450
▁మ్యూ	-4451
కుమార్	-4452
▁ప్రథమ	-4453
▁అంగీకర	-4454
▁నీటిని	-4455
▁పేర్లు	-4456
▁మద్దతు	-4457
▁దక్షిణా	-4458
▁దేశాలలో	-4459
▁ఉపాధ్యాయ	-4460
▁పట్టణానికి	-4461
▁m	-4462
వని	-4463
హర్	-4464
ీస్	-4465
ౌన్	-4466
దురు	-4467
పాలి	-4468
రణ్య	-4469
ర్తన	-4470
హదేవ	-4471
▁జైన	-4472
▁మరణం	-4473
▁లిపి	-4474
ట్లుగా	-4475
వారికి	-4476
▁ఘనంగా	-4477
▁ప్రశ్	-4478
పట్నంలో	-4479
▁మండేలా	-4480
▁రూపాయల	-4481
▁రోజుల్లో	-4482
▁విద్యార్థులు	-4483
ay	-4484
▁భి	-4485
.195	-4486
డుపు	-4487
నాలజీ	-4488
▁ఎవరి	-4489
▁చర్చ	-4490
▁పరిణ	-4491
▁పేరొ	-4492
▁సాయం	-4493
▁భాషలు	-4494
పోతుంది	-4495
▁ప్రార్థ	-4496
▁సాధించింది	-4497
గోళ	-4498
చర్	-4499
చేత	-4500
▁ఇక	-4501
డండి	-4502
▁గణి	-4503
శేఖర్	-4504
▁నిరం	-4505
▁పల్ల	-4506
▁బయలు	-4507
దాన్ని	-4508
చున్నది	-4509
▁రాముడు	-4510
▁పోతోంది	-4511
▁అంతరిక్ష	-4512
▁కార్యక్రమం	-4513
ృత	-4514
పరు	-4515
ారో	-4516
▁బై	-4517
టూరు	-4518
పట్ల	-4519
బ్రహ	-4520
రాయల	-4521
లిన్	-4522
ాయుధ	-4523
ాలనే	-4524
▁ఉచి	-4525
▁సుఖ	-4526
విశ్వ	-4527
▁గెలు	-4528
▁రావి	-4529
▁వేడు	-4530
▁తమ్ము	-4531
▁రమేష్	-4532
▁రాజుల	-4533
ించలేదు	-4534
▁గద్వాల	-4535
▁నంద్యాల	-4536
▁విజయవంత	-4537
▁సంఖ్యలో	-4538
▁స్వయంగా	-4539
▁భక్తులకు	-4540
▁సల	-4541
యినా	-4542
▁కాళ	-4543
▁గోడ	-4544
▁వరద	-4545
▁శార	-4546
▁సంచ	-4547
▁1980	-4548
▁అసలు	-4549
▁చర్య	-4550
▁సదుప	-4551
వీంద్ర	-4552
▁అనువద	-4553
▁ప్రశం	-4554
చ్చింది	-4555
▁ఒంగోలు	-4556
▁కాలేజీ	-4557
▁ప్రకృతి	-4558
.5	-4559
జో	-4560
లీల	-4561
ికో	-4562
చక్ర	-4563
ానంత	-4564
▁పైన	-4565
వులలో	-4566
▁ఆర్య	-4567
▁వీరా	-4568
▁సింహ	-4569
ధీనంలో	-4570
విత్రి	-4571
▁త్యాగ	-4572
ించడంతో	-4573
▁అందుకే	-4574
▁వ్యాసం	-4575
▁నందమూరి	-4576
▁పార్వతీ	-4577
▁ప్రాధాన	-4578
▁ప్రోత్స	-4579
▁నిర్మించబడింది	-4580
',	-4581
93	-4582
పాక	-4583
పక్ష	-4584
మంచి	-4585
హార్	-4586
▁తీర	-4587
పియన్	-4588
మోహన్	-4589
▁విరా	-4590
▁కూర్చ	-4591
▁రక్షణ	-4592
▁వైఎస్	-4593
▁ఆనకట్ట	-4594
▁పెట్టి	-4595
▁ప్రెసి	-4596
▁రాజ్యాంగ	-4597
▁ఆదిలాబాద్	-4598
ఖి	-4599
బే	-4600
య్యా	-4601
▁తీయ	-4602
▁పదం	-4603
▁మాల	-4604
▁కందు	-4605
▁పారుదల	-4606
▁మధ్యలో	-4607
▁మీటర్ల	-4608
▁రూపంలో	-4609
ించుకొని	-4610
▁అయ్యాడు	-4611
▁పట్టాభి	-4612
▁ప్రాంతీయ	-4613
▁విద్యార్థి	-4614
76	-4615
83	-4616
బల	-4617
నటు	-4618
▁షే	-4619
ింట్	-4620
▁పల్	-4621
▁విల	-4622
▁శిఖ	-4623
ూడియో	-4624
▁ఉద్ద	-4625
▁రంగా	-4626
▁వాయు	-4627
▁శిల్	-4628
లాన్ని	-4629
▁గుర్ర	-4630
▁ద్వార	-4631
▁నగరాల	-4632
▁రాక్ష	-4633
▁స్కూల్	-4634
చున్నారు	-4635
▁రాయలసీమ	-4636
▁దేశానికి	-4637
▁కనిపిస్తుంది	-4638
గవ	-4639
▁యి	-4640
చిలీ	-4641
▁అంజ	-4642
▁కొల	-4643
▁మసీ	-4644
తులలో	-4645
▁ఉష్ణ	-4646
▁సప్త	-4647
ించాలి	-4648
▁అబ్దు	-4649
▁తయారీ	-4650
▁స్వంత	-4651
▁చూడండి	-4652
▁వ్యవహర	-4653
▁గుమ్మడి	-4654
▁చివరికి	-4655
▁క్షేత్రం	-4656
▁సర్పంచిగా	-4657
▁సాంప్రదాయ	-4658
▁గ్రామంలోని	-4659
▁భారతదేశంలోని	-4660
షం	-4661
▁రొ	-4662
శర్మ	-4663
▁15:	-4664
▁ఆకు	-4665
▁ఉద్	-4666
▁దిశ	-4667
ళ్ళలో	-4668
ీర్ణం	-4669
▁అగ్ర	-4670
▁ఉండటం	-4671
▁డివిజనులో	-4672
▁రిపబ్లిక్	-4673
▁విమానాశ్రయం	-4674
▁ప్రారంభమైంది	-4675
▁స్థాపించబడింది	-4676
పైన	-4677
కార్	-4678
ామని	-4679
▁గృహ	-4680
▁తోట	-4681
▁ధార	-4682
▁వేస	-4683
▁చిరు	-4684
▁జీవన	-4685
▁గుండె	-4686
▁ఇచ్చిన	-4687
▁పాత్రలు	-4688
▁యునైటెడ్	-4689
▁సినిమాను	-4690
▁ఇన్స్టిట్యూట్	-4691
గమ	-4692
దె	-4693
ధ్	-4694
గర్	-4695
యల్	-4696
ళ్వ	-4697
▁హర	-4698
▁చతు	-4699
▁పామ	-4700
▁యుగ	-4701
▁విన	-4702
మైనవి	-4703
్యుడు	-4704
▁కలసి	-4705
▁నవలా	-4706
▁హెచ్	-4707
య్యాయి	-4708
స్తులు	-4709
ిస్తారు	-4710
▁ఉంటాడు	-4711
▁వాటిలో	-4712
భివృద్ధి	-4713
▁టెక్నాలజీ	-4714
▁పాల్గొన్నారు	-4715
▁ఉజ్బెకిస్థాన్	-4716
ెర	-4717
కూడ	-4718
లర్	-4719
▁యో	-4720
నీటి	-4721
▁The	-4722
వులకు	-4723
▁సారి	-4724
▁ఎక్స్	-4725
▁గుజరా	-4726
▁సాగర్	-4727
▁అందుకు	-4728
▁స్టూడియో	-4729
▁గోపాలరావు	-4730
▁విస్తీర్ణం	-4731
39	-4732
ri	-4733
పల్	-4734
చయిత	-4735
భూమి	-4736
ులలో	-4737
▁విం	-4738
ామిడి	-4739
▁అవగా	-4740
▁అవతర	-4741
▁ఎత్త	-4742
▁అవసరం	-4743
▁ఈనాడు	-4744
▁కలుపు	-4745
▁మొఘల్	-4746
పెట్టిన	-4747
▁అనుసంధ	-4748
▁సంభాషణ	-4749
▁సమకూర్	-4750
▁క్రమంగా	-4751
42	-4752
కన	-4753
సమ	-4754
వేల	-4755
్రు	-4756
త్తమ	-4757
లువు	-4758
▁తెర	-4759
తులతో	-4760
▁ఉంటు	-4761
▁కమలా	-4762
▁పిఠా	-4763
▁ముగి	-4764
▁సంతో	-4765
▁సమాన	-4766
▁మచిలీ	-4767
▁భగవంతు	-4768
▁వెంటనే	-4769
ించుకుని	-4770
▁ఫలితంగా	-4771
▁అధికారులు	-4772
▁వ్యవస్థాప	-4773
▁శాస్త్రీయ	-4774
▁భారతదేశానికి	-4775
96	-4776
ab	-4777
ఫల	-4778
ీం	-4779
తకు	-4780
▁4,	-4781
▁9,	-4782
త్యా	-4783
సింహ	-4784
హ్లా	-4785
▁నటీ	-4786
ాలంటే	-4787
▁గోవా	-4788
▁నాటు	-4789
▁లోకి	-4790
▁నిపుణ	-4791
▁ప్రణా	-4792
▁అనుమతి	-4793
▁చివరకు	-4794
▁పరిచయం	-4795
▁మహర్షి	-4796
▁విశ్వా	-4797
▁అధికారి	-4798
▁ఒప్పందం	-4799
▁ప్రోగ్ర	-4800
▁సంస్కరణ	-4801
▁దర్శకులు	-4802
▁నిష్పత్తి	-4803
చా	-4804
ధర	-4805
గల్	-4806
పోవ	-4807
ారే	-4808
▁32	-4809
▁బూ	-4810
నిగా	-4811
లీస్	-4812
వాసం	-4813
▁చంప	-4814
▁పిం	-4815
క్కిన	-4816
▁2004	-4817
▁డైరె	-4818
▁పదవీ	-4819
▁లోనే	-4820
▁వందే	-4821
చ్చాడు	-4822
▁దాంతో	-4823
▁పెళ్ళ	-4824
▁శుక్ర	-4825
▁నేర్చు	-4826
▁మందిరం	-4827
▁సార్లు	-4828
▁ప్రదేశం	-4829
▁దేవస్థానం	-4830
▁ప్రత్యేకంగా	-4831
ాంజ	-4832
▁రథ	-4833
రత్న	-4834
రేష్	-4835
▁లలో	-4836
▁1950	-4837
▁అంకి	-4838
▁గోపి	-4839
▁తగిన	-4840
▁పోలి	-4841
▁స్తం	-4842
▁చట్టం	-4843
▁తిమ్మ	-4844
▁నదులు	-4845
▁పనులు	-4846
▁మొత్త	-4847
▁ఆలయానికి	-4848
▁పండితులు	-4849
యము	-4850
హిత	-4851
▁జు	-4852
▁పగ	-4853
వాజీ	-4854
▁పాండ	-4855
▁తెల్ల	-4856
▁చెల్లె	-4857
▁బిరుదు	-4858
▁మ్యూజి	-4859
▁వెలుగు	-4860
▁ఉత్తరాన	-4861
▁కుటుంబం	-4862
▁జరిగాయి	-4863
▁బాలకృష్ణ	-4864
▁సంపాదకుడు	-4865
▁రాష్ట్రానికి	-4866
72	-4867
ce	-4868
రిన	-4869
రుల	-4870
▁బస	-4871
ప్రద	-4872
బాబా	-4873
భూషణ	-4874
▁కనక	-4875
▁ఎందు	-4876
పడింది	-4877
▁సుప్ర	-4878
▁చెట్టు	-4879
▁దుర్గా	-4880
▁ప్రచార	-4881
▁వాడుకలో	-4882
▁రాధాకృష్ణ	-4883
▁కార్యదర్శి	-4884
86	-4885
టన	-4886
ండం	-4887
ంబు	-4888
కొన	-4889
మనీ	-4890
▁ఫు	-4891
మానం	-4892
▁పసు	-4893
▁సిన	-4894
▁1991	-4895
▁ఉంటే	-4896
▁జర్మ	-4897
▁జార్	-4898
▁వయసు	-4899
పాడులో	-4900
▁దెబ్బ	-4901
▁పునరు	-4902
▁అవగాహన	-4903
▁ఉండాలి	-4904
శాస్త్రం	-4905
▁ఎనిమిది	-4906
▁పాత్రిక	-4907
▁మహాత్మా	-4908
▁వివరాలు	-4909
▁విశిష్ట	-4910
▁అవుతుంది	-4911
▁తీసుకుని	-4912
▁పెట్టారు	-4913
▁సావిత్రి	-4914
▁సుందరరామ	-4915
▁అందించారు	-4916
▁అయినప్పటికీ	-4917
88	-4918
్రో	-4919
▁55	-4920
యంతో	-4921
▁ఉదయ	-4922
▁జరగ	-4923
▁యూర	-4924
▁లోయ	-4925
కిత్స	-4926
్యంలో	-4927
▁ఇక్క	-4928
▁పన్న	-4929
▁మనకు	-4930
▁సీతా	-4931
▁పరిగణ	-4932
▁మరాఠీ	-4933
▁ప్రేమి	-4934
▁శివుడు	-4935
▁చెబుతారు	-4936
."	-4937
రణం	-4938
క్కర	-4939
శ్చా	-4940
▁12:	-4941
▁మాం	-4942
▁మేన	-4943
▁సత్	-4944
▁సదా	-4945
టీఆర్	-4946
ారాలు	-4947
▁గాలి	-4948
▁భక్త	-4949
▁మాతృ	-4950
▁ఎకరాల	-4951
▁సూపర్	-4952
▁ఉన్నది	-4953
▁విశేషం	-4954
▁వెళ్ళే	-4955
కారాన్ని	-4956
స్థానంలో	-4957
▁రవీంద్ర	-4958
ించేందుకు	-4959
▁మాట్లాడే	-4960
▁న్యాయవాది	-4961
▁పాత్రల్లో	-4962
▁వెంకటేశ్వర	-4963
%,	-4964
ైక	-4965
కలి	-4966
రచన	-4967
▁65	-4968
ట్రో	-4969
న్లో	-4970
పాణి	-4971
భాషా	-4972
షేకం	-4973
ీర్ణ	-4974
▁అశో	-4975
▁గణప	-4976
కొన్న	-4977
ధిపతి	-4978
వల్లి	-4979
▁1956	-4980
▁ఉండు	-4981
▁చెంద	-4982
▁మూవీ	-4983
కారిణి	-4984
▁విక్ర	-4985
ించాలని	-4986
▁కళ్యాణ	-4987
▁నిర్మి	-4988
▁విధానం	-4989
▁సముదాయ	-4990
▁ప్రేక్ష	-4991
▁చెప్పాడు	-4992
▁పిఠాపురం	-4993
▁వైద్యులు	-4994
▁తాడేపల్లి	-4995
▁గోపాలకృష్ణ	-4996
▁నిజామాబాదు	-4997
st	-4998
ఖా	-4999
com	-5000
గీత	-5001
ాలపై	-5002
▁అనీ	-5003
▁గుం	-5004
▁గేయ	-5005
▁శాత	-5006
కొత్త	-5007
నుంచి	-5008
▁జాతర	-5009
▁జారీ	-5010
▁తుంగ	-5011
▁అనుబంధ	-5012
▁చందమామ	-5013
▁తొమ్మి	-5014
▁తూర్పున	-5015
▁వచ్చాయి	-5016
▁డబ్బింగ్	-5017
▁భువనగిరి	-5018
▁పరిశ్రమలు	-5019
క్స	-5020
గతా	-5021
ర్థి	-5022
వరపు	-5023
స్కో	-5024
హెబ్	-5025
▁183	-5026
▁చిన	-5027
యుక్త	-5028
ాపురం	-5029
్యంతో	-5030
▁1992	-5031
▁శిథి	-5032
తుందని	-5033
స్థులు	-5034
్లాండ్	-5035
▁అంతకు	-5036
▁దాన్ని	-5037
▁వయస్సు	-5038
▁జరుగుతాయి	-5039
▁పాత్రికేయ	-5040
un	-5041
ఫు	-5042
రై	-5043
కళా	-5044
జ్జ	-5045
▁3:	-5046
▁అట	-5047
ాయిక	-5048
▁అమర	-5049
▁అల్	-5050
▁నిడ	-5051
▁అంటూ	-5052
▁శంకర	-5053
▁సొంత	-5054
ప్రోలు	-5055
▁తప్పు	-5056
▁నివేద	-5057
▁మొక్క	-5058
▁చేతిలో	-5059
▁పదవిని	-5060
▁వంటివి	-5061
▁చిత్రాల	-5062
▁ప్రధాని	-5063
▁మహారాజు	-5064
▁వచ్చాడు	-5065
బ్రహ్మణ్య	-5066
id	-5067
సుల	-5068
▁థి	-5069
దాని	-5070
ర్రా	-5071
ళ్లి	-5072
▁187	-5073
▁22:	-5074
▁కలక	-5075
▁డాల	-5076
▁వివ	-5077
▁1947	-5078
▁http	-5079
▁కాపా	-5080
▁తాండ	-5081
▁శర్మ	-5082
▁బుద్ధ	-5083
▁పనిచేసిన	-5084
▁సాధించిన	-5085
▁స్వాధీనం	-5086
▁స్థాపించారు	-5087
▁ప్రకటించింది	-5088
ఫో	-5089
రాస	-5090
▁46	-5091
▁తం	-5092
▁దూ	-5093
క్సి	-5094
గడ్డ	-5095
ముని	-5096
ులతో	-5097
▁10:	-5098
▁కీల	-5099
▁జంట	-5100
▁నేత	-5101
▁స్న	-5102
రావతి	-5103
రిగిన	-5104
▁అస్స	-5105
▁ఇబ్బ	-5106
▁కుడి	-5107
▁ప్రో	-5108
▁ఫాల్	-5109
▁శైలి	-5110
కోవాలి	-5111
▁గొల్ల	-5112
▁మరికొ	-5113
▁యంత్ర	-5114
▁పుట్టి	-5115
▁విషయంలో	-5116
▁సుల్తాన్	-5117
▁కళాకారుడు	-5118
84	-5119
లత	-5120
కాక	-5121
మండ	-5122
మ్య	-5123
▁చొ	-5124
▁ఫల	-5125
ంపేట	-5126
చేసు	-5127
డ్స్	-5128
తుకు	-5129
▁థాయ	-5130
▁విక	-5131
▁విడ	-5132
ండ్లు	-5133
శంకర్	-5134
ార్థం	-5135
▁2020	-5136
▁అచ్చ	-5137
▁ఆమోద	-5138
▁ఎక్క	-5139
▁దుర్	-5140
పోయాడు	-5141
రామయ్య	-5142
శ్రీని	-5143
▁ఎన్ను	-5144
▁పరిసర	-5145
▁రాజీన	-5146
▁శ్రీమ	-5147
▁చక్కని	-5148
▁బయలుదే	-5149
▁రంగంలో	-5150
గ్రహాన్ని	-5151
▁పరిస్థితి	-5152
▁భావిస్తారు	-5153
od	-5154
ాతి	-5155
ినా	-5156
▁బహ	-5157
ట్రే	-5158
బాల్	-5159
షులు	-5160
▁జగి	-5161
▁పీఠ	-5162
▁హిం	-5163
తుడైన	-5164
బొమ్మ	-5165
▁1920	-5166
▁వాహన	-5167
ట్లాడు	-5168
నేషనల్	-5169
▁శాసనం	-5170
▁సహకారం	-5171
▁జగ్గయ్య	-5172
▁వనపర్తి	-5173
▁ఒక్కొక్క	-5174
▁నిలిచింది	-5175
▁పోషించారు	-5176
▁హైదరాబాదులో	-5177
▁నిర్మాణానికి	-5178
ang	-5179
జన్	-5180
లాగ	-5181
సలు	-5182
▁2:	-5183
▁90	-5184
ణ్ణి	-5185
▁25:	-5186
▁జపా	-5187
▁తిన	-5188
దండ్ర	-5189
ాత్మక	-5190
▁గణిత	-5191
▁స్పీ	-5192
▁స్వీ	-5193
▁నియమి	-5194
▁నూతన్	-5195
▁మలయాళ	-5196
▁ఉద్దేశ	-5197
▁శివాజీ	-5198
▁అన్నాడు	-5199
▁క్రింది	-5200
▁నిర్వహణ	-5201
▁పుస్తకం	-5202
▁పరిపాలనా	-5203
▁సముద్రాల	-5204
▁థాయ్లాండ్	-5205
ak	-5206
షీ	-5207
ోర	-5208
▁a	-5209
దిక	-5210
లంక	-5211
▁చల	-5212
కల్ప	-5213
కాష్	-5214
టిస్	-5215
ధానం	-5216
నూరు	-5217
మంతా	-5218
▁23:	-5219
▁అడి	-5220
▁ఊరే	-5221
ానికీ	-5222
▁2009	-5223
▁ఐక్య	-5224
▁చిహ్	-5225
▁నవ్వ	-5226
▁రేటు	-5227
▁అందరూ	-5228
▁పరిమి	-5229
పాలెంలో	-5230
▁బంగాళా	-5231
▁విలీనం	-5232
▁విస్తర	-5233
ించవచ్చు	-5234
▁బ్యాంక్	-5235
▁శతాబ్ది	-5236
▁రచించాడు	-5237
▁నిజామాబాద్	-5238
73	-5239
మౌ	-5240
పడే	-5241
▁5:	-5242
▁బ్	-5243
గంగా	-5244
ధారి	-5245
లాది	-5246
వేర్	-5247
సంస్	-5248
▁180	-5249
▁24:	-5250
▁వాయ	-5251
▁1970	-5252
▁2008	-5253
▁2012	-5254
▁ఎల్ల	-5255
▁పాలి	-5256
▁రాము	-5257
▁రూపు	-5258
▁ఏర్పర	-5259
▁చర్చి	-5260
▁అందమైన	-5261
▁ముద్దు	-5262
▁కాలువలు	-5263
▁కళాశాలలో	-5264
▁వైఎస్ఆర్	-5265
▁రాష్ట్రంగా	-5266
97	-5267
సామ	-5268
▁3.	-5269
▁6:	-5270
▁నడ	-5271
.188	-5272
గుడి	-5273
పర్వ	-5274
▁అదన	-5275
▁కోడ	-5276
▁తాత	-5277
▁తుల	-5278
▁వాహ	-5279
ెట్టి	-5280
▁1989	-5281
▁కాలి	-5282
▁తనను	-5283
▁పెంచ	-5284
పెట్టి	-5285
▁ద్వీప	-5286
▁రద్దు	-5287
డయ్యాడు	-5288
▁జర్మనీ	-5289
▁తపస్సు	-5290
▁సూర్యా	-5291
రంగారావు	-5292
▁ఆదివారం	-5293
▁రూపొందిన	-5294
▁స్థాయిలో	-5295
,,	-5296
um	-5297
కలా	-5298
గార	-5299
▁75	-5300
▁7:	-5301
▁||	-5302
▁కర	-5303
▁జవ	-5304
కమైన	-5305
▁తార	-5306
ామంది	-5307
▁బాగు	-5308
▁వసతి	-5309
ద్వారా	-5310
▁అడ్డు	-5311
▁జరిగి	-5312
▁తేదీన	-5313
▁వృక్ష	-5314
▁అతనిని	-5315
▁కార్పొ	-5316
▁తిక్కన	-5317
▁భక్తుల	-5318
▁అధికారం	-5319
▁మాట్లాడ	-5320
▁పరిషత్తు	-5321
▁పర్షియన్	-5322
▁రాజీనామా	-5323
▁బెంగుళూరు	-5324
▁వ్యక్తులు	-5325
▁ప్రాంతాలను	-5326
▁ప్రాముఖ్యత	-5327
▁సుబ్రహ్మణ్య	-5328
థ్	-5329
ూల	-5330
ory	-5331
మాట	-5332
రుణ	-5333
▁ఈశ	-5334
ట్రా	-5335
ంబాయి	-5336
టుంది	-5337
▁(200	-5338
త్రుడు	-5339
సార్లు	-5340
▁ఆదిల్	-5341
▁ఉప్పు	-5342
▁కొల్ల	-5343
▁జొన్న	-5344
▁తీర్మ	-5345
▁పాలనా	-5346
▁పెంచు	-5347
బడ్డాడు	-5348
య్యింది	-5349
▁ఈశ్వరి	-5350
▁తెలియజే	-5351
▁శ్రీరంగ	-5352
▁దండయాత్ర	-5353
▁పాలించిన	-5354
▁ప్రఖ్యాత	-5355
▁రూపాయలతో	-5356
▁తెలుగుదేశం	-5357
▁కృష్ణమూర్తి	-5358
ఖ్	-5359
పున	-5360
మర్	-5361
లాస	-5362
యార్	-5363
ించుట	-5364
▁వేమన	-5365
▁శంకు	-5366
▁సహాయం	-5367
▁పంతులు	-5368
▁ప్రాచు	-5369
▁ప్రైవే	-5370
▁మైసూరు	-5371
▁పత్రికా	-5372
▁బాధ్యతలు	-5373
▁అత్యున్నత	-5374
▁పాలించారు	-5375
▁ప్రత్యేకత	-5376
▁ప్రదేశాలు	-5377
▁సీతారామరాజు	-5378
-6	-5379
లభ	-5380
ీర	-5381
డ్ల	-5382
దాన	-5383
నామ	-5384
్మా	-5385
▁4.	-5386
▁8:	-5387
▁రహ	-5388
త్తర	-5389
▁27:	-5390
▁శిలా	-5391
హదేవన్	-5392
▁ఉద్యో	-5393
▁ప్రమాణ	-5394
▁సంబంధం	-5395
▁సినారె	-5396
కున్నాయి	-5397
▁మంత్రిగా	-5398
▁మాట్లాడు	-5399
▁వాతావరణం	-5400
▁తల్లిదండ్ర	-5401
▁ప్రాంతాల్లో	-5402
15)	-5403
ers	-5404
వెం	-5405
సంఘ	-5406
ముడు	-5407
య్యం	-5408
▁2010	-5409
▁చివర	-5410
▁తారక	-5411
▁దేవు	-5412
▁వేసి	-5413
▁కల్యా	-5414
▁రసాయన	-5415
▁వేసవి	-5416
▁శిష్య	-5417
▁ఆలయాలు	-5418
▁గోవింద	-5419
▁ప్రమాద	-5420
▁సమాచార	-5421
▁చికిత్స	-5422
▁వ్యవహార	-5423
▁ప్రజాదరణ	-5424
▁ప్రణాళిక	-5425
▁బ్రిటీషు	-5426
▁సిద్ధాంత	-5427
▁కంప్యూటర్	-5428
▁నిర్మాతలు	-5429
▁అత్యధికంగా	-5430
నారాయణరెడ్డి	-5431
oc	-5432
ాహ	-5433
▁l	-5434
-20	-5435
గుణ	-5436
తామ	-5437
లక్	-5438
▁4:	-5439
▁56	-5440
జార్	-5441
వూరు	-5442
▁10,	-5443
▁కోర	-5444
నిర్మ	-5445
మాతరం	-5446
ర్యాల	-5447
▁2005	-5448
▁2006	-5449
▁ఇస్ల	-5450
▁కర్మ	-5451
▁సంపద	-5452
▁తరగతి	-5453
ామంత్రి	-5454
▁పోలీస్	-5455
▁రామాయణ	-5456
▁చేయబడిన	-5457
▁సమీపంలోని	-5458
41	-5459
విడ	-5460
ఘంటు	-5461
మండల	-5462
య్యే	-5463
రక్ష	-5464
సేన్	-5465
్యుల	-5466
▁జలా	-5467
▁కారు	-5468
▁కురు	-5469
▁నిషే	-5470
▁పిలవ	-5471
▁బ్రహ	-5472
▁భావన	-5473
▁రైతు	-5474
▁వాల్	-5475
▁శబ్ద	-5476
▁సంభవ	-5477
చ్చారు	-5478
▁చెక్క	-5479
▁తదితర	-5480
▁మహిళలు	-5481
▁సాఫ్ట్	-5482
కొన్నాడు	-5483
పడుతుంది	-5484
రించింది	-5485
▁నరేంద్ర	-5486
▁కృష్ణదేవ	-5487
▁స్థాపకుడు	-5488
▁ప్రారంభమయ్యాయి	-5489
ళయ	-5490
నను	-5491
యనం	-5492
రళీ	-5493
▁9:	-5494
▁18:	-5495
▁30:	-5496
▁ఎడమ	-5497
▁బావ	-5498
కాలలో	-5499
▁చూపు	-5500
▁తరలి	-5501
▁ఫ్రా	-5502
▁శాంత	-5503
ానంతరం	-5504
▁ఉందని	-5505
▁క్రీడ	-5506
▁గుట్ట	-5507
▁మిగతా	-5508
▁సాయుధ	-5509
▁సేవలు	-5510
▁తీర్పు	-5511
▁నివేదిక	-5512
వ్యాప్తంగా	-5513
▁స్థాపించాడు	-5514
డము	-5515
పాత	-5516
▁7,	-5517
▁భయ	-5518
▁తను	-5519
▁పెడ	-5520
▁మంద	-5521
▁మతం	-5522
▁మల్	-5523
▁యాద	-5524
▁వేశ	-5525
ప్రభు	-5526
బ్లిక	-5527
సింగ్	-5528
ులుగా	-5529
▁1962	-5530
▁ఇతడు	-5531
▁చైతన	-5532
▁బాల్	-5533
▁బోర్	-5534
▁వందల	-5535
▁హేతు	-5536
దేవుడు	-5537
పడ్డారు	-5538
▁ఇక్కడే	-5539
▁గూగుల్	-5540
▁ప్రసాద	-5541
▁చేసుకోవ	-5542
▁ముందుగా	-5543
▁సీనియర్	-5544
▁విష్ణువు	-5545
▁శ్రీశైలం	-5546
▁చిత్రకారుడు	-5547
▁డిస్పెన్సరీలో	-5548
36	-5549
82	-5550
ూహ	-5551
▁37	-5552
తేదీ	-5553
పోయే	-5554
భాగం	-5555
▁గుణ	-5556
▁తజి	-5557
▁పర్	-5558
గోళిక	-5559
▁నార్	-5560
నాయుడు	-5561
ప్పుడూ	-5562
▁చేరిన	-5563
▁శంకర్	-5564
పడ్డాయి	-5565
▁దుకాణం	-5566
▁యోధుడు	-5567
▁రాశాడు	-5568
ాలయాన్ని	-5569
▁ఒకప్పుడు	-5570
▁గురించిన	-5571
▁ప్రారంభం	-5572
ov	-5573
ug	-5574
జల	-5575
ish	-5576
ధర్	-5577
భావ	-5578
వేయ	-5579
▁(18	-5580
▁17:	-5581
▁క్ల	-5582
▁గౌత	-5583
▁పట్	-5584
▁సెం	-5585
త్తుల	-5586
పూజలు	-5587
▁కావు	-5588
▁గానీ	-5589
▁పాడు	-5590
▁ప్రశ	-5591
▁వెళు	-5592
▁ఎక్కడ	-5593
▁కవితా	-5594
▁కావ్య	-5595
▁మసీదు	-5596
తుంటారు	-5597
▁జగన్నా	-5598
▁తెలుపు	-5599
▁పరిశీల	-5600
▁ఫిల్మ్	-5601
▁ముస్లి	-5602
▁కలకత్తా	-5603
▁గాయకులు	-5604
▁ప్రచారం	-5605
▁ఫ్రెంచి	-5606
▁భౌగోళిక	-5607
▁మహాభారత	-5608
▁ఇక్కడికి	-5609
▁వైద్యుడు	-5610
▁శంకుస్థాపన	-5611
▁ప్రవేశపెట్ట	-5612
▁ఎన్నికయ్యాడు	-5613
▁సుప్రీంకోర్టు	-5614
ir	-5615
జాత	-5616
యైన	-5617
▁లూ	-5618
డులో	-5619
ధారణ	-5620
బార్	-5621
వుగా	-5622
▁అలె	-5623
▁లిన	-5624
▁దాటి	-5625
▁ద్రా	-5626
▁బహుళ	-5627
▁బాపు	-5628
▁వుండ	-5629
▁సంపు	-5630
చెరువు	-5631
పోయారు	-5632
▁అచ్యు	-5633
▁అర్ధం	-5634
▁ఎదురు	-5635
▁కుమార	-5636
▁నిల్వ	-5637
▁బాలిక	-5638
▁శుద్ధ	-5639
వెన్నెల	-5640
▁బాధ్యత	-5641
▁బిల్లు	-5642
▁మామిడి	-5643
ేశ్వరుడు	-5644
▁బెంగాల్	-5645
▁సరస్వతి	-5646
▁బ్రిటీష్	-5647
▁ప్రత్యక్ష	-5648
▁వందేమాతరం	-5649
▁నాయకత్వంలో	-5650
▁నేపథ్యగానం	-5651
▁నరసింహారావు	-5652
ేశ్వరస్వామివారి	-5653
55	-5654
దూర	-5655
మను	-5656
రిత	-5657
తుని	-5658
నిని	-5659
వేరు	-5660
హారం	-5661
▁14:	-5662
▁అసో	-5663
కుంటే	-5664
చ్చని	-5665
▁అహ్మ	-5666
▁యజ్ఞ	-5667
▁రత్న	-5668
▁లిమి	-5669
▁సమయం	-5670
▁స్వర	-5671
ఫ్రికా	-5672
హమ్మద్	-5673
▁చెందు	-5674
▁నిత్య	-5675
▁వదిలి	-5676
▁వేసిన	-5677
▁ఆకర్షణ	-5678
▁జిక్కి	-5679
▁దీనిలో	-5680
▁భాగంలో	-5681
▁అమరావతి	-5682
▁జమీందారు	-5683
▁నిర్వహిస్తుంది	-5684
89	-5685
ారణ	-5686
▁అగ	-5687
య్యి	-5688
▁వలె	-5689
నులకు	-5690
▁ఆదేశ	-5691
▁కనుమ	-5692
▁వుంట	-5693
పూర్లో	-5694
▁అన్నీ	-5695
▁ఇటీవల	-5696
▁కొనసా	-5697
▁చౌదరి	-5698
▁పట్టి	-5699
▁విశాల	-5700
▁హనుమం	-5701
▁ఆసక్తి	-5702
▁ఎగుమతి	-5703
▁కవిత్వ	-5704
▁ప్రతాప	-5705
▁ప్రతిభ	-5706
▁అల్లూరి	-5707
▁ప్రత్తి	-5708
▁ప్రైవేట్	-5709
▁లిమిటెడ్	-5710
ించబడ్డాయి	-5711
▁చేపట్టాడు	-5712
▁విస్తీర్ణ	-5713
▁గ్రామాన్ని	-5714
▁సాహితీవేత్త	-5715
▁చేసుకున్నాడు	-5716
-2	-5717
94	-5718
ంబా	-5719
యుగ	-5720
లేష	-5721
సమా	-5722
నంగా	-5723
రాయి	-5724
రాలి	-5725
విగా	-5726
ారోగ	-5727
▁13:	-5728
▁20:	-5729
▁ఆయా	-5730
▁ఖండ	-5731
▁నంబ	-5732
▁మిన	-5733
▁రాగ	-5734
ంలోను	-5735
ఆంధ్ర	-5736
కరమైన	-5737
జ్ఞాన	-5738
వస్తు	-5739
▁నాకు	-5740
బ్రహీం	-5741
▁నన్నయ	-5742
▁నాటకం	-5743
▁పొంది	-5744
కాపల్లి	-5745
శ్చాత్య	-5746
▁ఇలాంటి	-5747
▁ఈశాన్య	-5748
▁పరిషత్	-5749
▁సృష్టి	-5750
▁బెంగాలీ	-5751
▁బ్రహ్మా	-5752
▁జిల్లాను	-5753
▁ప్రస్తావన	-5754
▁విమర్శకుడు	-5755
32	-5756
ఫా	-5757
▁O	-5758
గలు	-5759
నాట	-5760
వళి	-5761
స్ప	-5762
▁గే	-5763
మట్ట	-5764
ుడైన	-5765
▁అండ	-5766
▁పొల	-5767
కాంత్	-5768
▁1952	-5769
▁క్యా	-5770
▁గ్రీ	-5771
ద్దులు	-5772
పారుదల	-5773
▁శత్రు	-5774
ేశ్వరాల	-5775
▁నిలిచి	-5776
▁ప్రక్క	-5777
▁నూతనంగా	-5778
▁మెడికల్	-5779
▁అప్పట్లో	-5780
▁అప్పారావు	-5781
-0	-5782
లొ	-5783
కరా	-5784
కొక	-5785
ోగి	-5786
▁5,	-5787
▁నమ	-5788
తిరు	-5789
విజయ	-5790
▁16:	-5791
▁28:	-5792
▁దాత	-5793
▁వెన	-5794
ాల్సి	-5795
▁1982	-5796
▁అభిన	-5797
▁ఆలోచ	-5798
▁ఆహ్వ	-5799
▁ఖగోళ	-5800
▁బంధు	-5801
▁బ్యా	-5802
▁వారస	-5803
క్ష్మి	-5804
పాన్ని	-5805
▁ఆనంద్	-5806
▁కన్నా	-5807
▁ముంబై	-5808
▁వెల్ల	-5809
▁వేదిక	-5810
కున్నది	-5811
స్తానని	-5812
▁తెచ్చు	-5813
▁మూవీస్	-5814
▁వాళ్ళు	-5815
▁వెళ్లి	-5816
▁శివుని	-5817
▁తమ్ముడు	-5818
▁దూరములో	-5819
▁పద్యాలు	-5820
▁భానుమతి	-5821
▁సముద్రం	-5822
▁వ్యాసాలు	-5823
▁రైల్వేస్ట	-5824
▁సంవత్సరానికి	-5825
యె	-5826
హే	-5827
ian	-5828
ంటె	-5829
రణ్	-5830
విక	-5831
సంగ	-5832
ియా	-5833
▁ఓడ	-5834
▁దయ	-5835
సాలు	-5836
సిటీ	-5837
▁11:	-5838
▁ఎది	-5839
▁ఏదో	-5840
▁త్వ	-5841
▁లండ	-5842
డింది	-5843
ప్రియ	-5844
▁కొడు	-5845
▁బాబా	-5846
▁శ్రే	-5847
▁ఆదాయం	-5848
▁ఉన్నా	-5849
▁సంఘటన	-5850
చేసింది	-5851
▁ఒకటిగా	-5852
▁చేరాడు	-5853
▁దారితీ	-5854
మవుతుంది	-5855
▁గుజరాత్	-5856
▁నగరానికి	-5857
▁జిల్లాలలో	-5858
▁నిర్మించి	-5859
▁పాశ్చాత్య	-5860
ించబడుతుంది	-5861
▁పురస్కారాలు	-5862
".	-5863
ap	-5864
ావ	-5865
షేక	-5866
ాలం	-5867
టిల్	-5868
ట్టే	-5869
▁పరా	-5870
▁పేద	-5871
ంగ్లా	-5872
పరంగా	-5873
పురుష	-5874
ెస్టు	-5875
▁1985	-5876
▁కులీ	-5877
▁కోడి	-5878
▁నికో	-5879
విన్యూ	-5880
ించెను	-5881
▁ఇల్లు	-5882
▁పద్మా	-5883
▁పిలిచ	-5884
▁వచ్చు	-5885
దేశాలలో	-5886
▁ఉత్తర్	-5887
▁గవర్నర్	-5888
▁ప్రభావి	-5889
▁ప్రహ్లా	-5890
పిస్తుంది	-5891
▁తీసుకొని	-5892
▁నిర్వహిస్తారు	-5893
గృ	-5894
రప	-5895
▁n	-5896
org	-5897
నిక	-5898
ఫర్	-5899
ఖండ్	-5900
గంటి	-5901
లియం	-5902
వుడ్	-5903
ులైన	-5904
ంలోనే	-5905
లింపి	-5906
సిల్ల	-5907
▁గణేశ	-5908
▁వర్త	-5909
▁సామం	-5910
▁సూచి	-5911
▁హుస్	-5912
▁India	-5913
▁కట్టు	-5914
▁గిరిజ	-5915
▁చూసిన	-5916
▁నెలలో	-5917
▁వుండే	-5918
▁సైన్య	-5919
ించాడని	-5920
▁కీర్తి	-5921
▁క్రితం	-5922
▁పోరాటం	-5923
▁పోర్చు	-5924
▁బొంబాయి	-5925
▁లభించిన	-5926
స్తుంటాడు	-5927
▁మరణించిన	-5928
▁రెవిన్యూ	-5929
▁మంత్రివర్	-5930
▁సంగారెడ్డి	-5931
▁పుణ్యక్షేత్ర	-5932
56	-5933
98	-5934
ig	-5935
అన	-5936
ter	-5937
ందర	-5938
వలె	-5939
▁6,	-5940
▁అణ	-5941
రేట్	-5942
ష్టం	-5943
▁19:	-5944
▁21:	-5945
▁అంశ	-5946
▁ఇతి	-5947
▁చెం	-5948
▁టర్	-5949
▁నిర	-5950
▁దత్త	-5951
▁మును	-5952
▁రావణ	-5953
వంతుడు	-5954
▁ఆస్తి	-5955
▁కలుగు	-5956
గూడెంలో	-5957
▁ఇద్దరూ	-5958
▁నమ్మకం	-5959
▁ఆధారాలు	-5960
▁వెళ్ళిన	-5961
▁ఉష్ణోగ్ర	-5962
▁*	-5963
డర్	-5964
పీఠ	-5965
▁పత	-5966
▁మద	-5967
క్షా	-5968
గుడు	-5969
యందు	-5970
స్తీ	-5971
▁500	-5972
▁ధాన	-5973
▁పరు	-5974
ీయులు	-5975
▁1969	-5976
▁1999	-5977
▁అబ్బ	-5978
▁ఆరోప	-5979
▁కర్త	-5980
▁గోపీ	-5981
ద్దీన్	-5982
▁ఆలోచన	-5983
▁కాలనీ	-5984
▁జపాన్	-5985
▁జ్ఞాప	-5986
▁తీసిన	-5987
▁దుర్గ	-5988
▁పసుపు	-5989
▁ప్రయో	-5990
▁ఒలింపి	-5991
▁దేవుడు	-5992
▁పదార్థ	-5993
▁సెంటర్	-5994
▁ఇచ్చారు	-5995
▁ఉద్యోగం	-5996
▁గవర్నరు	-5997
▁కృష్ణుడు	-5998
▁తొమ్మిది	-5999
▁ప్రస్తావ	-6000
శ్రీనివాస్	-6001
▁ప్రాధాన్యత	-6002
▁రాజ్యాన్ని	-6003
II	-6004
గె	-6005
ాక	-6006
డ్జ	-6007
తాళ	-6008
ోజు	-6009
▁by	-6010
▁ఊహ	-6011
▁దౌ	-6012
దగిన	-6013
మూరు	-6014
వర్ణ	-6015
ాంశం	-6016
▁అభయ	-6017
మర్రి	-6018
లేకపో	-6019
ళ్ళను	-6020
సంస్థ	-6021
ామిక్	-6022
▁1988	-6023
▁ఏకైక	-6024
▁కేసు	-6025
▁జనతా	-6026
▁లలిత	-6027
▁వేసు	-6028
▁స్వే	-6029
విష్ణు	-6030
▁2016,	-6031
▁అనుకూ	-6032
▁అవతార	-6033
▁నరసిం	-6034
రావుపేట	-6035
▁కూరగాయ	-6036
▁దశాబ్ద	-6037
▁బంగ్లా	-6038
▁వీరిలో	-6039
▁వృద్ధి	-6040
▁ఇబ్రహీం	-6041
▁తెలిసిన	-6042
▁సమాచారం	-6043
▁పాల్గొని	-6044
▁మార్పులు	-6045
▁సాయంత్రం	-6046
▁అన్నపూర్ణ	-6047
బడుతున్నాయి	-6048
▁అమ్మవారికి	-6049
▁ప్రాంతాలకు	-6050
38	-6051
ఢ్	-6052
థా	-6053
చల్	-6054
▁హం	-6055
▁ఆగ్	-6056
దక్షి	-6057
యింట్	-6058
ళ్ళకు	-6059
▁థియే	-6060
▁ప్లే	-6061
▁ముగు	-6062
▁మెట్	-6063
▁రాజీ	-6064
▁వసంత	-6065
▁సరోజ	-6066
గుణంగా	-6067
ధికారి	-6068
▁కొమ్మ	-6069
▁ఖర్చు	-6070
▁పూర్త	-6071
▁రకాలు	-6072
▁వేముల	-6073
▁సమితి	-6074
▁ప్రవహి	-6075
▁రైతులు	-6076
▁త్రిపుర	-6077
▁ప్రతిని	-6078
▁అప్పటికే	-6079
▁భారతరత్న	-6080
▁సాయిబాబా	-6081
▁విగ్రహాలు	-6082
▁కామారెడ్డి	-6083
▁విద్యుత్తు	-6084
▁సిరివెన్నెల	-6085
▁పాత్రికేయుడు	-6086
52	-6087
os	-6088
వణ	-6089
జిక	-6090
▁రౌ	-6091
ందరూ	-6092
క్రో	-6093
దైనా	-6094
నిర్	-6095
మందు	-6096
▁ఇరు	-6097
▁ఒకర	-6098
▁చలం	-6099
▁రేఖ	-6100
▁హిమ	-6101
పూర్వ	-6102
▁ఆపరే	-6103
▁చెప్	-6104
▁దశలో	-6105
▁దేవర	-6106
▁వజ్ర	-6107
▁సమ్మ	-6108
క్కులు	-6109
▁ఉద్భవ	-6110
▁పలువు	-6111
▁మర్రి	-6112
▁విప్ల	-6113
▁కలెక్ట	-6114
▁కాలేజి	-6115
▁గీతాలు	-6116
▁పాడారు	-6117
▁మందికి	-6118
▁యాత్రి	-6119
▁అవసరమైన	-6120
▁ముందుకు	-6121
▁వచ్చారు	-6122
▁జీవితంలో	-6123
▁సుల్తాను	-6124
▁నియోజకవర్గ	-6125
▁రెండుప్రైవేటు	-6126
37	-6127
59	-6128
68	-6129
గామ	-6130
రోధ	-6131
్వి	-6132
▁తూ	-6133
▁హౌ	-6134
సిని	-6135
▁29:	-6136
▁కనీ	-6137
▁లను	-6138
▁వంగ	-6139
▁సకల	-6140
పుత్ర	-6141
ారిటీ	-6142
ించటం	-6143
▁1930	-6144
▁1977	-6145
▁2007	-6146
▁ఆయుధ	-6147
▁జర్న	-6148
▁నేతృ	-6149
▁ప్లా	-6150
▁సలహా	-6151
బ్బిలి	-6152
▁అవకాశ	-6153
▁ఇచ్చే	-6154
▁కరువు	-6155
▁కర్మా	-6156
▁కీర్త	-6157
▁తీర్థ	-6158
▁పుష్ప	-6159
▁ముక్క	-6160
▁మేరకు	-6161
▁తీర్చు	-6162
▁పంజాబు	-6163
▁వికారా	-6164
▁స్వచ్ఛ	-6165
▁ఎన్నికల	-6166
▁గుడివాడ	-6167
▁సరస్వతీ	-6168
▁శాస్త్రం	-6169
▁పనిచేశారు	-6170
▁సాహిత్యంలో	-6171
▁నిర్మించబడిన	-6172
▁పురస్కారాన్ని	-6173
.1	-6174
FS	-6175
ణే	-6176
14)	-6177
ary	-6178
www	-6179
కూడా	-6180
గాను	-6181
డియం	-6182
ల్చి	-6183
▁కంబ	-6184
▁దైవ	-6185
▁బలి	-6186
▁బస్	-6187
▁వంత	-6188
పించి	-6189
▁1978	-6190
▁దేవా	-6191
▁భాగవత	-6192
▁యాత్ర	-6193
▁వెళ్ల	-6194
▁వైష్ణ	-6195
▁సంక్ర	-6196
▁నిఘంటు	-6197
▁ప్రబంధ	-6198
▁భీమవరం	-6199
▁మిల్లు	-6200
▁సదాశివ	-6201
▁చేయాలని	-6202
▁ప్రయాణం	-6203
▁అయ్యింది	-6204
▁కొంతమంది	-6205
▁చెప్పారు	-6206
▁చేపట్టిన	-6207
▁వరంగల్లో	-6208
▁అభిప్రాయం	-6209
▁ఆర్థికవేత్త	-6210
▁విగ్రహాన్ని	-6211
''	-6212
):	-6213
▁42	-6214
▁ఓం	-6215
కుడి	-6216
దిలో	-6217
దుడు	-6218
న్సు	-6219
▁ఇటు	-6220
▁చదర	-6221
▁భగవ	-6222
▁1979	-6223
▁1983	-6224
▁జలాశ	-6225
▁తోలు	-6226
▁పడ్డ	-6227
▁వేరే	-6228
ేశ్వరం	-6229
▁2017,	-6230
▁అత్తి	-6231
▁జయంతి	-6232
▁పత్తి	-6233
▁ముందే	-6234
▁జైపూర్	-6235
▁నేపాల్	-6236
▁రాశారు	-6237
▁వాస్తవ	-6238
▁వీరికి	-6239
రామచంద్ర	-6240
▁ఎటువంటి	-6241
▁తీసుకువ	-6242
▁నక్షత్ర	-6243
▁పోర్చుగ	-6244
▁రాజ్యసభ	-6245
ేంద్రరావు	-6246
▁చాలామంది	-6247
▁స్థాపించిన	-6248
▁అధ్యక్షుడిగా	-6249
67	-6250
bl	-6251
12)	-6252
రమణ	-6253
లోక	-6254
▁షో	-6255
గాంధ	-6256
చూరి	-6257
మల్ల	-6258
మిని	-6259
రేబి	-6260
లోపు	-6261
వాహక	-6262
▁...	-6263
▁రాచ	-6264
▁వామ	-6265
▁సెక	-6266
కుడైన	-6267
రాలను	-6268
▁1960	-6269
▁అటవీ	-6270
▁కథను	-6271
▁తవ్వ	-6272
▁పేరి	-6273
▁వేర్	-6274
▁మిత్ర	-6275
▁మోక్ష	-6276
▁విజయ్	-6277
ింపబడిన	-6278
▁చెప్పే	-6279
▁వరుసగా	-6280
▁స్థితి	-6281
▁ప్రజలను	-6282
▁వెంకయ్య	-6283
▁వ్యవహరి	-6284
▁స్వేచ్ఛ	-6285
▁ఇరానియన్	-6286
▁దేశంలోని	-6287
▁పేరొందిన	-6288
▁ప్రయత్నం	-6289
▁చంద్రబాబు	-6290
34	-6291
58	-6292
ంట్	-6293
ఎఫ్	-6294
హీన	-6295
▁రస	-6296
తోనే	-6297
యాలు	-6298
స్యం	-6299
హారు	-6300
▁బండ	-6301
▁మంజ	-6302
▁మేఘ	-6303
నటుడు	-6304
మ్మని	-6305
వతేదీ	-6306
ాల్ని	-6307
▁ఆధిప	-6308
▁ఉచిత	-6309
▁కవిత	-6310
▁తయార	-6311
▁ధ్రు	-6312
▁భవనం	-6313
▁భాషల	-6314
▁శారద	-6315
▁హనుమ	-6316
▁నదికి	-6317
▁నవాబు	-6318
▁పంటలు	-6319
▁పన్ను	-6320
▁సంతోష	-6321
▁సిద్ద	-6322
▁అధ్యాప	-6323
▁ఎత్తైన	-6324
▁ఓడించి	-6325
▁విడిచి	-6326
▁వెళ్ళు	-6327
▁శాతవాహ	-6328
▁రచయితలు	-6329
▁రామాయణం	-6330
▁క్రైస్తవ	-6331
▁చిత్రీకర	-6332
▁పార్టీకి	-6333
▁పునరుద్ధ	-6334
▁మొదలైంది	-6335
▁సూర్యాపేట	-6336
▁ఆసుపత్రిలో	-6337
▁పరిశోధకులు	-6338
▁కనిపిస్తాయి	-6339
92	-6340
టూ	-6341
10)	-6342
11)	-6343
17)	-6344
ంగం	-6345
▁టే	-6346
▁లొ	-6347
ందరో	-6348
కాని	-6349
నాటక	-6350
న్లు	-6351
రాని	-6352
రిని	-6353
▁సాహ	-6354
పింది	-6355
బర్ట్	-6356
▁1998	-6357
▁తదిత	-6358
▁నౌకా	-6359
▁పింగ	-6360
▁పొడి	-6361
▁యూరో	-6362
కొల్లు	-6363
సాహెబ్	-6364
ాల్సిన	-6365
▁ఆనాటి	-6366
▁నృత్యం	-6367
▁ప్రొఫె	-6368
▁సరస్సు	-6369
▁ఇచ్చింది	-6370
▁చేసుకున్న	-6371
▁సుప్రసిద్ధ	-6372
▁కార్పొరేషన్	-6373
im	-6374
దాం	-6375
నలో	-6376
ుంప	-6377
▁అంట	-6378
▁కమల	-6379
పక్కల	-6380
ర్ణమి	-6381
ిల్లా	-6382
▁1995	-6383
▁ఉత్ప	-6384
▁గెలి	-6385
▁చండీ	-6386
▁నేటి	-6387
▁భాగవ	-6388
▁మహాన	-6389
▁మాల్	-6390
▁వర్మ	-6391
▁స్టా	-6392
▁హిట్	-6393
ేశ్వర్	-6394
▁అలంకర	-6395
▁గతంలో	-6396
▁చెంది	-6397
▁దర్శన	-6398
▁చిక్కు	-6399
▁దృష్టి	-6400
▁మున్సి	-6401
▁సదుపాయ	-6402
▁సిద్ధి	-6403
▁కావలసిన	-6404
▁పోటీలలో	-6405
▁ప్రజలలో	-6406
▁ఉండేవారు	-6407
▁వుంటుంది	-6408
▁సినిమాలలో	-6409
▁సీతారామశాస్త్రి	-6410
ోద	-6411
ాగి	-6412
ోల్	-6413
డ్డం	-6414
దార్	-6415
▁11,	-6416
▁300	-6417
▁గాన	-6418
▁మంట	-6419
▁మదన	-6420
కల్లు	-6421
దుర్గ	-6422
్యంగా	-6423
▁1000	-6424
▁1948	-6425
▁1997	-6426
▁ఆరాధ	-6427
▁ఒకడు	-6428
▁చూసు	-6429
▁తరచు	-6430
▁బాని	-6431
▁యుగం	-6432
▁సంతర	-6433
చేశారు	-6434
డెన్సీ	-6435
తుల్లో	-6436
ించమని	-6437
▁పరంగా	-6438
▁భాషను	-6439
▁రాజమహ	-6440
ిరెడ్డి	-6441
▁గంటలకు	-6442
▁పేజీలు	-6443
▁బెల్లం	-6444
▁సహాయంతో	-6445
▁ఉన్నట్లు	-6446
▁ఎన్టీఆర్	-6447
▁బొబ్బిలి	-6448
▁హైకోర్టు	-6449
▁విషయాన్ని	-6450
బ్లికేషన్స్	-6451
▁జీవితాన్ని	-6452
▁శాఖామంత్రి	-6453
▁ఇంటర్నేషనల్	-6454
▁ముగుస్తుంది	-6455
▁విద్యావేత్త	-6456
▁సూర్యనారాయణ	-6457
ew	-6458
నటి	-6459
ికొ	-6460
▁Pr	-6461
కన్న	-6462
కాంత	-6463
గ్జా	-6464
రంగం	-6465
వద్ద	-6466
▁120	-6467
▁202	-6468
▁అటు	-6469
▁పాయ	-6470
▁పేట	-6471
▁పోయ	-6472
▁భేద	-6473
▁లకు	-6474
▁లోప	-6475
▁సాల	-6476
స్కర్	-6477
▁1987	-6478
▁1994	-6479
▁ఎవరు	-6480
▁పిన్	-6481
▁హృదయ	-6482
దేవుని	-6483
మిల్లి	-6484
శెట్టి	-6485
▁అరేబి	-6486
▁ఊరికి	-6487
▁కన్ను	-6488
▁చదరపు	-6489
▁తెరాస	-6490
▁నాట్య	-6491
▁సమాజం	-6492
మహదేవన్	-6493
▁రామయ్య	-6494
▁సురేష్	-6495
▁స్క్రీ	-6496
▁స్టేట్	-6497
స్తుందని	-6498
▁కళ్యాణం	-6499
▁కొనసాగు	-6500
▁గ్రంథాలయ	-6501
▁సంస్థానం	-6502
▁గ్రామములో	-6503
▁డైరెక్టర్	-6504
▁పంచాయతీకి	-6505
▁పనిచేసాడు	-6506
▁హిందువులు	-6507
▁మచిలీపట్నం	-6508
▁విద్వాంసుడు	-6509
▁స్వామివారికి	-6510
--	-6511
av	-6512
టై	-6513
తని	-6514
నవి	-6515
మిన	-6516
లేఖ	-6517
▁In	-6518
▁కవ	-6519
▁ఫా	-6520
▁శీ	-6521
కొను	-6522
పండు	-6523
బాలు	-6524
మాను	-6525
సత్య	-6526
▁తత్	-6527
▁దామ	-6528
▁రకర	-6529
కింగ్	-6530
గాంధీ	-6531
శ్లేష	-6532
శ్వరి	-6533
▁అర్చ	-6534
▁క్రొ	-6535
▁పోతన	-6536
▁బృంద	-6537
▁సంజీ	-6538
▁సవరణ	-6539
▁స్పె	-6540
దేశంలో	-6541
▁అప్పగ	-6542
▁కింగ్	-6543
▁క్రియ	-6544
▁దిగువ	-6545
▁బుర్ర	-6546
▁మల్లె	-6547
▁గ్రంథం	-6548
▁చేస్తే	-6549
▁పురాణం	-6550
▁మల్లిక	-6551
▁రుద్రమ	-6552
▁కాలములో	-6553
▁దగ్గరలో	-6554
ింపబడింది	-6555
▁ఆకాశవాణి	-6556
▁చిత్రంగా	-6557
▁ఛాయాగ్రహ	-6558
▁జగిత్యాల	-6559
▁నియంత్రణ	-6560
▁నెలకొల్ప	-6561
▁భద్రాచలం	-6562
▁మార్చారు	-6563
▁రాజ్యాలు	-6564
▁వర్షపాతం	-6565
78	-6566
91	-6567
భై	-6568
▁e	-6569
ess	-6570
▁44	-6571
▁48	-6572
కరణం	-6573
కుండ	-6574
చింత	-6575
డిపి	-6576
ణంలో	-6577
పూరు	-6578
సాని	-6579
▁ఆలీ	-6580
▁ఇళయ	-6581
▁తిం	-6582
వడంతో	-6583
వలెను	-6584
▁1922	-6585
▁2003	-6586
▁ఆఫ్ఘ	-6587
▁కల్వ	-6588
▁తంజా	-6589
▁నెట్	-6590
▁నేడు	-6591
జ్ఞుడు	-6592
స్తాను	-6593
ించబడి	-6594
▁పదాలు	-6595
▁పితామ	-6596
▁లెక్క	-6597
▁వాడుక	-6598
▁ఉపగ్రహ	-6599
▁చూస్తే	-6600
▁తీసుకో	-6601
▁ఫాల్కే	-6602
గ్రామంలో	-6603
▁ప్రకాష్	-6604
▁రూపాయలు	-6605
▁క్రీస్తు	-6606
▁చెందినది	-6607
▁సహకారంతో	-6608
▁హేతువాది	-6609
▁ట్రాక్టరు	-6610
▁ప్రభుత్వానికి	-6611
▁లక్ష్మీనరసింహ	-6612
.(	-6613
ow	-6614
జనం	-6615
పరచ	-6616
భరణ	-6617
భవం	-6618
రాహ	-6619
లకల	-6620
లియ	-6621
▁34	-6622
▁ఫై	-6623
▁రం	-6624
ట్లే	-6625
నుని	-6626
స్సా	-6627
▁కోన	-6628
▁ధ్య	-6629
▁అలవా	-6630
▁ఇల్ల	-6631
▁పూజా	-6632
▁పేర్	-6633
▁బడ్జ	-6634
▁మాయా	-6635
▁రామ్	-6636
▁రుక్	-6637
▁వాసు	-6638
▁సాంబ	-6639
ించినా	-6640
▁ఒక్కో	-6641
▁భారతి	-6642
▁లేదని	-6643
▁వేత్త	-6644
లక్ష్మీ	-6645
▁ఆర్ధిక	-6646
▁ఏర్పాట	-6647
▁కొండవీ	-6648
▁దొరికి	-6649
▁పింగళి	-6650
▁భూమిని	-6651
▁విస్తృ	-6652
▁సభ్యుల	-6653
▁అలెగ్జా	-6654
▁తమిళంలో	-6655
ించుకున్న	-6656
▁ఉదాహరణకు	-6657
▁కార్యకలా	-6658
▁కాలానికి	-6659
▁కొంతకాలం	-6660
▁అనకాపల్లి	-6661
▁వేణుగోపాల	-6662
▁కలుస్తుంది	-6663
▁రాజమహేంద్ర	-6664
▁ప్రాంతంలోని	-6665
th	-6666
20)	-6667
ind	-6668
నేత	-6669
మగు	-6670
మూల	-6671
▁భై	-6672
▁సద	-6673
బ్బు	-6674
మైనా	-6675
▁26:	-6676
▁చైన	-6677
▁దళి	-6678
▁బృహ	-6679
▁యతి	-6680
▁వాద	-6681
ముందు	-6682
సీఆర్	-6683
ెస్ట్	-6684
▁2021	-6685
▁థాయ్	-6686
▁నెలల	-6687
▁సరైన	-6688
▁అసోసి	-6689
▁ఉండడం	-6690
▁ఎయిర్	-6691
▁నిద్ర	-6692
పల్లెలో	-6693
▁ఏనుగుల	-6694
▁చిట్టి	-6695
▁తీర్చి	-6696
▁మునిసి	-6697
▁ఇళయరాజా	-6698
▁భాషల్లో	-6699
▁కాకతీయుల	-6700
▁తుంగభద్ర	-6701
▁కృష్ణానది	-6702
▁డివిజన్లు	-6703
▁పిలిచేవారు	-6704
▁కిలోమీటర్లు	-6705
▁ప్రెసిడెన్సీ	-6706
▁సుందరరామమూర్తి	-6707
కత	-6708
లజ	-6709
ive	-6710
web	-6711
గాక	-6712
లని	-6713
ెలు	-6714
▁:-	-6715
▁ఇట	-6716
జులు	-6717
ర్లో	-6718
ెండి	-6719
▁12,	-6720
▁కేట	-6721
▁మరు	-6722
ంద్రా	-6723
ంరాజు	-6724
దిద్ద	-6725
రత్నం	-6726
విజన్	-6727
▁1971	-6728
▁2015	-6729
▁ప్యా	-6730
▁విను	-6731
▁సౌంద	-6732
▁స్థా	-6733
istory	-6734
పాలిటీ	-6735
పోతాడు	-6736
వాళ్ళు	-6737
▁ఎత్తి	-6738
▁తుమ్మ	-6739
▁నాగర్	-6740
▁నిండి	-6741
▁పుల్ల	-6742
▁మైదాన	-6743
▁మోడల్	-6744
▁సమాధి	-6745
▁అక్కడే	-6746
▁చైనాలో	-6747
▁పర్యాట	-6748
▁రాజీవ్	-6749
క్షేత్రం	-6750
▁ఎత్తులో	-6751
▁కవిత్వం	-6752
▁క్రీడలు	-6753
▁సెయింట్	-6754
ించుకుంది	-6755
▁ఒలింపిక్	-6756
▁కనిపించే	-6757
▁తదితరులు	-6758
▁సముద్రతీ	-6759
▁హెక్టారులు	-6760
▁చుట్టుపక్కల	-6761
57	-6762
▁h	-6763
కని	-6764
ెడ్	-6765
▁(1	-6766
క్రా	-6767
మధ్య	-6768
మీకి	-6769
రోపా	-6770
లంగి	-6771
▁ఇను	-6772
▁ఎడి	-6773
▁ఏటా	-6774
▁వహి	-6775
▁శేఖ	-6776
ములకు	-6777
▁1964	-6778
▁ఉంచు	-6779
▁కప్ప	-6780
▁కూచి	-6781
▁కొను	-6782
▁చోటు	-6783
▁దాకా	-6784
▁ఫార్	-6785
ించును	-6786
▁ఏడుగు	-6787
▁కోటను	-6788
▁నిరూప	-6789
▁శిథిల	-6790
నాయకుడు	-6791
ప్రస్తు	-6792
ూరులోనూ	-6793
▁ఉపన్యా	-6794
▁ఉపాధ్య	-6795
▁ప్రకాశ	-6796
▁భూభాగం	-6797
▁మండలాల	-6798
▁అడుగులు	-6799
▁అన్నారు	-6800
▁చేరింది	-6801
▁జనసంఖ్య	-6802
▁పేర్కొన	-6803
▁పౌర్ణమి	-6804
▁ప్రాంగణ	-6805
▁బొమ్మలు	-6806
▁విస్తార	-6807
▁వ్యయంతో	-6808
▁శ్రీమతి	-6809
▁తక్కువగా	-6810
▁పట్టణాలు	-6811
▁ఫిల్మ్స్	-6812
▁సమయానికి	-6813
▁ఐక్యరాజ్య	-6814
▁దేవాలయాలు	-6815
▁ప్రకటించారు	-6816
▁ప్రత్యేకపూజలు	-6817
53	-6818
దై	-6819
13)	-6820
age	-6821
డ్ర	-6822
పరీ	-6823
సుధ	-6824
▁అహ	-6825
▁తై	-6826
ధ్యం	-6827
భావం	-6828
హుడు	-6829
ాయలు	-6830
ారాం	-6831
▁అన్	-6832
▁ఆడు	-6833
▁కాన	-6834
▁కొడ	-6835
▁బుధ	-6836
▁వేళ	-6837
▁1981	-6838
▁అత్త	-6839
▁గూడా	-6840
▁తాము	-6841
▁నిలు	-6842
▁ఫిలి	-6843
▁ఫుట్	-6844
▁రాయి	-6845
క్షుడు	-6846
తోపాటు	-6847
ప్రసాద	-6848
▁అందజే	-6849
▁కావడం	-6850
▁కొబ్బ	-6851
▁బలహీన	-6852
▁శోభన్	-6853
▁దక్కన్	-6854
▁పార్కు	-6855
▁పెళ్లి	-6856
▁ప్రసార	-6857
▁వెలసిన	-6858
▁సమాఖ్య	-6859
▁స్పష్ట	-6860
▁ఇచ్చాడు	-6861
▁నేతృత్వ	-6862
▁మహమ్మద్	-6863
ేశ్వరాలయం	-6864
▁కాశ్మీరు	-6865
▁చక్రపాణి	-6866
▁శ్రీదేవి	-6867
▁సంక్రాంతి	-6868
▁చెప్పవచ్చు	-6869
▁ప్రధానమంత్రిగా	-6870
-7	-6871
తొ	-6872
దళ	-6873
మటి	-6874
ేశ్	-6875
▁to	-6876
▁టం	-6877
▁డీ	-6878
arch	-6879
లాగా	-6880
▁ఏకా	-6881
▁యస్	-6882
▁లీల	-6883
క్కిం	-6884
సుబ్బ	-6885
▁1975	-6886
▁ఉగ్ర	-6887
▁కథనం	-6888
▁తాత్	-6889
▁తీసి	-6890
▁నిజం	-6891
▁మీర్	-6892
▁కట్టడ	-6893
▁పక్షి	-6894
▁సార్వ	-6895
▁తిమ్మా	-6896
▁త్రవ్వ	-6897
▁బుద్ధి	-6898
▁విచ్చే	-6899
▁సారథ్య	-6900
▁ఎదురుగా	-6901
▁థియేటర్	-6902
▁పూర్వపు	-6903
▁ప్రవేశం	-6904
▁రాజవంశం	-6905
▁రామదాసు	-6906
▁ఆత్మకూరు	-6907
▁కుమారులు	-6908
▁తీవ్రమైన	-6909
▁పంచాయితీ	-6910
▁పరిశోధనా	-6911
▁సంబంధాలు	-6912
▁నీటిపారుదల	-6913
లాట	-6914
ిని	-6915
▁5.	-6916
▁పృ	-6917
టిన్	-6918
పేట్	-6919
పోటు	-6920
లవంత	-6921
ళ్ళో	-6922
▁13,	-6923
▁ఐదవ	-6924
▁రోద	-6925
▁సేన	-6926
కులలో	-6927
ానికే	-6928
ించబడ	-6929
▁కేశవ	-6930
▁కొంచ	-6931
▁గార్	-6932
▁చెపు	-6933
▁తాడి	-6934
▁తీరు	-6935
▁త్రా	-6936
▁వీలు	-6937
▁సికి	-6938
కొండలో	-6939
గిరిలో	-6940
ఫూర్తి	-6941
ీకరణలో	-6942
▁కొట్ట	-6943
▁చదివి	-6944
▁నిశ్చ	-6945
▁పల్లి	-6946
▁విచార	-6947
▁విభజన	-6948
▁శతకము	-6949
▁సమకాల	-6950
▁సర్వే	-6951
▁స్తంభ	-6952
మంతరావు	-6953
స్వామ్య	-6954
▁ఎత్తున	-6955
▁కొండపై	-6956
▁జలపాతం	-6957
▁ధరించి	-6958
▁పద్ధతి	-6959
▁ప్రశంస	-6960
▁మహబూబా	-6961
▁వినాయక	-6962
▁వెబ్సై	-6963
▁సామర్థ	-6964
▁అధ్యయనం	-6965
▁విద్యను	-6966
▁వెన్నెల	-6967
▁అభ్యర్థి	-6968
▁ఎందుకంటే	-6969
▁ప్రోత్సహ	-6970
▁మిలియన్ల	-6971
▁రాజస్థాన్	-6972
▁స్థాపించి	-6973
81	-6974
మయ	-6975
ఱ్	-6976
ans	-6977
క్ల	-6978
వనం	-6979
్రమ	-6980
▁47	-6981
▁6.	-6982
▁64	-6983
▁on	-6984
▁ఆవ	-6985
▁ఫె	-6986
ంటర్	-6987
గ్గా	-6988
ర్మం	-6989
హత్య	-6990
▁ఆరవ	-6991
▁నెం	-6992
▁మలే	-6993
▁వేట	-6994
▁సోష	-6995
ప్రాయ	-6996
భూషణ్	-6997
ారాణి	-6998
▁కోయి	-6999
▁గ్రూ	-7000
▁తానే	-7001
▁వాయి	-7002
▁2022:	-7003
▁ఆశ్రమ	-7004
▁ఉపఖండ	-7005
▁ఒప్పు	-7006
▁కోదండ	-7007
▁దీర్ఘ	-7008
▁ఫిలిం	-7009
▁వివాద	-7010
▁సంజీవ	-7011
▁చేసుకో	-7012
▁పేరుగా	-7013
▁ప్రభావ	-7014
▁మైళ్ళు	-7015
▁వయసులో	-7016
నిస్తాన్	-7017
స్వామయ్య	-7018
▁ఆస్ట్రే	-7019
▁గాయత్రి	-7020
▁రష్యాలో	-7021
▁విషయాలు	-7022
▁శాసనాలు	-7023
▁నటించాడు	-7024
▁పడుతుంది	-7025
▁పద్మశ్రీ	-7026
▁భగవంతుని	-7027
▁స్క్రీన్	-7028
▁అమెరికాలో	-7029
▁పుస్తకాలు	-7030
▁సాఫ్ట్వేర్	-7031
▁అందిస్తుంది	-7032
▁వ్యవస్థాపకుడు	-7033
-3	-7034
62	-7035
64	-7036
are	-7037
ందన	-7038
జాడ	-7039
నిజ	-7040
ళువ	-7041
వన్	-7042
షుల	-7043
సేన	-7044
ేద్	-7045
▁..	-7046
▁43	-7047
▁ధై	-7048
▁15,	-7049
▁కంట	-7050
▁పసి	-7051
▁శ్య	-7052
▁సంక	-7053
ందులు	-7054
పరమైన	-7055
లలోని	-7056
శాంతి	-7057
్యుదయ	-7058
▁1955	-7059
▁ఆళ్వ	-7060
▁కన్య	-7061
▁కాంత	-7062
▁కోర్	-7063
▁తోడు	-7064
▁దినం	-7065
.2016)	-7066
▁క్షీణ	-7067
▁చేతుల	-7068
▁జాగ్ర	-7069
▁నుండే	-7070
▁పేరిట	-7071
▁లోకసభ	-7072
▁విజయా	-7073
▁సురభి	-7074
వరెడ్డి	-7075
▁గెలుచు	-7076
▁స్మారక	-7077
రామకృష్ణ	-7078
▁విశ్లేష	-7079
ించటానికి	-7080
▁విభాగంలో	-7081
▁సంభాషణలు	-7082
▁సంస్థానా	-7083
▁కొండలరావు	-7084
▁సారథ్యంలో	-7085
▁అభివృద్ధికి	-7086
మగ	-7087
▁v	-7088
గఢ్	-7089
ణలు	-7090
రేఖ	-7091
ఱ్ఱ	-7092
వీర	-7093
సంచ	-7094
స్మ	-7095
▁లత	-7096
పాలన	-7097
సాహి	-7098
సెస్	-7099
స్కూ	-7100
ామణి	-7101
▁అయో	-7102
▁ఐతే	-7103
▁కొర	-7104
▁జడ్	-7105
▁పాన	-7106
▁బాం	-7107
▁భయం	-7108
▁సాయ	-7109
రియల్	-7110
ారాధన	-7111
ింపజే	-7112
▁1986	-7113
▁అట్ల	-7114
▁ఎంపీ	-7115
▁కరుణ	-7116
▁కీలక	-7117
▁డ్రై	-7118
▁తుర్	-7119
▁త్వర	-7120
▁నూనె	-7121
▁పవర్	-7122
▁బెల్	-7123
▁మేలు	-7124
▁విము	-7125
▁సంకీ	-7126
▁సభలో	-7127
తంత్రం	-7128
▁కాంచన	-7129
▁దీక్ష	-7130
▁నడుపు	-7131
▁నిషేధ	-7132
ాలనుండి	-7133
▁కార్తీ	-7134
▁కొండలు	-7135
▁కొలువు	-7136
▁గణపవరం	-7137
▁గిరిజన	-7138
▁పరిణామ	-7139
▁పాటలను	-7140
▁వద్దకు	-7141
▁సంతానం	-7142
▁అరెస్టు	-7143
▁ఆధీనంలో	-7144
▁కావడంతో	-7145
▁బిలియన్	-7146
▁శనివారం	-7147
▁సంయుక్త	-7148
▁తీవ్రంగా	-7149
▁పశ్చిమాన	-7150
▁సంస్కర్త	-7151
▁స్టేట్స్	-7152
▁కొత్తగూడెం	-7153
▁పరిశోధకుడు	-7154
▁పునర్నిర్మా	-7155
-1	-7156
54	-7157
ep	-7158
ev	-7159
ధూ	-7160
భీ	-7161
ళన	-7162
దశి	-7163
మహా	-7164
లేయ	-7165
ామల	-7166
రాణి	-7167
ర్షణ	-7168
లాస్	-7169
ికలు	-7170
ెంటు	-7171
▁400	-7172
▁అఫ్	-7173
▁కంద	-7174
▁నాశ	-7175
▁నౌక	-7176
▁పండ	-7177
▁మరల	-7178
యేషన్	-7179
స్తుల	-7180
స్థలం	-7181
▁అభివ	-7182
▁ఏళ్ళ	-7183
▁జమ్మ	-7184
▁నిరు	-7185
▁ప్రీ	-7186
▁రాయ్	-7187
▁సాగి	-7188
▁సుభా	-7189
కులుగా	-7190
ళ్ళారి	-7191
సాపురం	-7192
▁ఈస్ట్	-7193
▁ఐరోపా	-7194
▁తిలక్	-7195
▁దర్గా	-7196
▁పరిచయ	-7197
▁బదులు	-7198
▁మురళీ	-7199
▁సూత్ర	-7200
▁స్థలం	-7201
బడ్డారు	-7202
లాచార్య	-7203
▁ఆస్థాన	-7204
▁కూర్చు	-7205
▁కూర్పు	-7206
▁జేమ్స్	-7207
▁దేవుని	-7208
▁పర్యవే	-7209
▁విభాగం	-7210
▁శ్రద్ధ	-7211
ేశ్వరుని	-7212
▁పలువురు	-7213
▁పోయింది	-7214
▁బడ్జెట్	-7215
▁సర్వీసు	-7216
▁కూచిపూడి	-7217
▁లక్షణాలు	-7218
▁టెలివిజన్	-7219
▁ప్రధానమైన	-7220
▁కొనసాగింది	-7221
▁దాదాసాహెబ్	-7222
▁ప్రయత్నాలు	-7223
▁కుటుంబానికి	-7224
▁ప్రారంభించి	-7225
.2	-7226
ry	-7227
భయ	-7228
టము	-7229
డితే	-7230
దేవత	-7231
ధర్మ	-7232
యుగం	-7233
ారుల	-7234
▁ఆవు	-7235
▁ఇండ	-7236
▁తరల	-7237
▁దిగ	-7238
▁1966	-7239
▁1972	-7240
▁1974	-7241
▁కాన్	-7242
▁కారా	-7243
▁నర్స	-7244
▁ఫ్యా	-7245
▁విరి	-7246
▁సంగమ	-7247
ించుకో	-7248
▁ఇందిర	-7249
▁ఎస్పీ	-7250
▁ఏదైనా	-7251
▁కడుపు	-7252
▁కొలను	-7253
▁గజపతి	-7254
▁తిరుమ	-7255
▁బయటకు	-7256
▁బలవంత	-7257
▁మరాఠా	-7258
▁మారిన	-7259
▁వర్గం	-7260
▁సమర్థ	-7261
▁సుల్త	-7262
▁అహ్మద్	-7263
▁ఉత్తరా	-7264
▁కాలేదు	-7265
▁చేతులు	-7266
▁తెలిసి	-7267
▁పంజాబ్	-7268
▁ద్వితీయ	-7269
▁పార్వతి	-7270
▁వారసత్వ	-7271
▁నగరాన్ని	-7272
▁పార్టీలో	-7273
▁రాజ్యంలో	-7274
▁హుస్సేన్	-7275
▁ఎన్నికల్లో	-7276
▁పోర్చుగీసు	-7277
▁బంగ్లాదేశ్	-7278
▁ముఖ్యమైనవి	-7279
▁సినిమాల్లో	-7280
▁ప్రత్యేకమైన	-7281
▁వీరాస్వామయ్య	-7282
▁ప్రారంభించింది	-7283
ళహ	-7284
ఘ్న	-7285
బోధ	-7286
వైన	-7287
ాహ్	-7288
▁ఎల	-7289
.186	-7290
డ్డా	-7291
పండి	-7292
రీలు	-7293
ర్చ్	-7294
ల్క్	-7295
విలో	-7296
శ్వర	-7297
స్లో	-7298
ినేత	-7299
▁160	-7300
▁ఆంధ	-7301
▁ఇసు	-7302
▁గోప	-7303
▁భవి	-7304
కారుల	-7305
కాలిక	-7306
పాలిత	-7307
మతులు	-7308
మయ్యే	-7309
మర్రు	-7310
ాయిల్	-7311
▁1953	-7312
▁ఆచార	-7313
▁తరహా	-7314
▁నదుల	-7315
▁నీవు	-7316
▁పైకి	-7317
▁ఫలిత	-7318
▁శరత్	-7319
▁సిటీ	-7320
లనుండి	-7321
ాలయాలు	-7322
▁https	-7323
▁అక్షర	-7324
▁అరణ్య	-7325
▁ఏనుగు	-7326
▁చిట్ట	-7327
▁తగ్గి	-7328
▁తగ్గు	-7329
▁దేశపు	-7330
▁భిన్న	-7331
▁యాత్రా	-7332
▁వాయవ్య	-7333
కొన్నారు	-7334
ించేవాడు	-7335
▁పల్నాడు	-7336
▁మాస్టర్	-7337
▁సిక్కిం	-7338
▁సినిమాల	-7339
▁దంపతులకు	-7340
▁వహించారు	-7341
▁వ్రాశారు	-7342
ోత్సవాన్ని	-7343
▁ఇస్లామిక్	-7344
▁ఆస్ట్రేలియా	-7345
61	-7346
ud	-7347
కమ	-7348
18)	-7349
ies	-7350
ధీశ	-7351
▁గడ	-7352
▁డో	-7353
కమ్మ	-7354
గుంట	-7355
దారి	-7356
దుర్	-7357
ద్ధం	-7358
▁31:	-7359
▁ఏడవ	-7360
▁గిం	-7361
▁చావ	-7362
▁శరణ	-7363
న్నవి	-7364
రచయిత	-7365
▁1984	-7366
▁పాటి	-7367
కానికి	-7368
వుల్లో	-7369
ేశ్వరీ	-7370
▁అవశేష	-7371
▁ఒడిషా	-7372
▁తమిళం	-7373
▁సంకలన	-7374
సంఖ్యలో	-7375
ార్లెస్	-7376
▁ఉండును	-7377
▁మహాభార	-7378
▁మైసూర్	-7379
▁లక్షలు	-7380
▁విలియం	-7381
▁సాక్షి	-7382
ప్రతిష్ఠ	-7383
హారెడ్డి	-7384
▁అండమాన్	-7385
▁అందరికీ	-7386
▁అందువలన	-7387
▁అల్లుడు	-7388
▁పాత్రలో	-7389
▁పొందారు	-7390
▁మొదట్లో	-7391
ించినట్లు	-7392
▁చెబుతాడు	-7393
▁జాగ్రత్త	-7394
▁తంజావూరు	-7395
▁నాయకత్వం	-7396
▁గణాంకాలను	-7397
▁శుక్రవారం	-7398
▁జరుగుతున్న	-7399
▁తొలిసారిగా	-7400
▁గృహాలున్నాయి	-7401
▁సామ్రాజ్యంలో	-7402
▁రైల్వేస్టేషన్	-7403
rit	-7404
కటి	-7405
ివీ	-7406
ేరి	-7407
▁49	-7408
జాతి	-7409
తమిళ	-7410
మెన్	-7411
్వాడ	-7412
▁ఉంచ	-7413
▁చోట	-7414
▁ఫెడ	-7415
ద్దరూ	-7416
రాణిక	-7417
లేదని	-7418
వచ్చి	-7419
ురాలు	-7420
▁ఆధిక	-7421
▁టంగు	-7422
▁ట్రి	-7423
▁దృష్	-7424
▁నీతి	-7425
▁వూరి	-7426
▁హార్	-7427
కుర్తి	-7428
దుర్తి	-7429
▁2008:	-7430
▁కాపాడ	-7431
▁గణనీయ	-7432
▁తాళ్ళ	-7433
▁భాషగా	-7434
▁విన్న	-7435
టప్పుడు	-7436
▁అరుదైన	-7437
▁అవధాని	-7438
▁చెన్నక	-7439
▁తెచ్చి	-7440
▁పేరును	-7441
▁మిక్కి	-7442
▁రేలంగి	-7443
మయ్యింది	-7444
వులపల్లి	-7445
ిస్తుంది	-7446
▁ఆహ్వాని	-7447
▁కనిపించ	-7448
▁మలేరియా	-7449
▁లెక్కలు	-7450
▁శ్రీలంక	-7451
▁సమాజంలో	-7452
▁మ్యూజియం	-7453
▁వాల్మీకి	-7454
▁వ్యాపారం	-7455
▁అద్భుతమైన	-7456
▁ప్రవహించి	-7457
▁మరికొన్ని	-7458
▁అమ్మవారిని	-7459
▁ఉద్యమకారుడు	-7460
▁చేసుకున్నారు	-7461
▁స్వీకరించాడు	-7462
▁తాడేపల్లిగూడెం	-7463
51	-7464
hi	-7465
గూ	-7466
art	-7467
చిక	-7468
బిం	-7469
బుల	-7470
రాగ	-7471
ీయా	-7472
▁హొ	-7473
ణుకు	-7474
వర్మ	-7475
వస్థ	-7476
విల్	-7477
▁for	-7478
▁సంప	-7479
▁హాజ	-7480
క్కుల	-7481
లలోను	-7482
శ్రమల	-7483
్యమైన	-7484
▁1949	-7485
▁ఆందో	-7486
▁చూపి	-7487
▁రాశి	-7488
▁వాదన	-7489
▁విధి	-7490
▁శివు	-7491
▁హస్త	-7492
పోయాయి	-7493
శాన్ని	-7494
ేద్కర్	-7495
▁అన్నా	-7496
▁ఎందరో	-7497
▁కట్టి	-7498
▁కలుసు	-7499
▁పక్కన	-7500
▁బానిస	-7501
▁మరియూ	-7502
▁మేనేజ	-7503
▁వర్షా	-7504
▁శతదిన	-7505
▁శేఖర్	-7506
▁సన్యా	-7507
ప్రతిని	-7508
వ్యవస్థ	-7509
▁అన్యాయ	-7510
▁కోస్తా	-7511
▁నాయకుల	-7512
▁ముగ్గు	-7513
▁రకరకాల	-7514
▁శృంగార	-7515
▁ఏడుగురు	-7516
▁కొబ్బరి	-7517
▁క్రొత్త	-7518
▁గాంధీజీ	-7519
▁బళ్ళారి	-7520
▁బుర్రకథ	-7521
▁ఉద్యమంలో	-7522
▁జ్ఞానపీఠ	-7523
▁ప్రొద్దు	-7524
▁కుటుంబంలో	-7525
▁చాళుక్యులు	-7526
▁హనుమంతరావు	-7527
ించుకున్నారు	-7528
▁మల్లికార్జున	-7529
▁g	-7530
ord	-7531
డనే	-7532
వసర	-7533
ారూ	-7534
ొని	-7535
▁టో	-7536
నైనా	-7537
ఫిక్	-7538
ర్శి	-7539
▁ఆదో	-7540
▁ఉస్	-7541
▁గరి	-7542
▁గాథ	-7543
▁నలు	-7544
▁నేర	-7545
▁విఠ	-7546
▁శంఖ	-7547
ద్గీత	-7548
ద్దరి	-7549
వైద్య	-7550
్యులు	-7551
▁1942	-7552
▁అంటు	-7553
▁అడ్డ	-7554
▁అర్హ	-7555
▁బాక్	-7556
▁మహాల	-7557
▁వన్య	-7558
▁సహకర	-7559
▁సేవల	-7560
.2015)	-7561
లిస్టు	-7562
ాలలోను	-7563
▁అందాల	-7564
▁ఉనికి	-7565
▁ధర్మా	-7566
▁నన్ను	-7567
▁పాండు	-7568
▁తిరునా	-7569
▁దర్శనం	-7570
▁దారిలో	-7571
▁ప్రవాహ	-7572
▁వెంకటా	-7573
▁హీరోగా	-7574
చారాన్ని	-7575
▁కాంగ్రే	-7576
▁క్రమంలో	-7577
▁ఫ్రెంచ్	-7578
▁రచయితగా	-7579
▁సోమవారం	-7580
▁స్పీకర్	-7581
▁చెల్లెలు	-7582
▁వ్రాశాడు	-7583
▁ఆదిలాబాదు	-7584
▁పురావస్తు	-7585
▁పోషించాడు	-7586
▁సందర్భంలో	-7587
▁సాధించాడు	-7588
▁ఛాయాగ్రహణం	-7589
▁నిర్వహించి	-7590
▁పార్లమెంట్	-7591
▁రాజ్యానికి	-7592
ించుకున్నాడు	-7593
▁తెలుసుకున్న	-7594
▁లక్ష్మణరావు	-7595
గీ	-7596
-15	-7597
ine	-7598
మవు	-7599
ానై	-7600
ెన్	-7601
▁52	-7602
▁ఇర	-7603
▁యజ	-7604
ఆంగ్	-7605
డెన్	-7606
ప్పల	-7607
ఫీస్	-7608
రార్	-7609
లవరం	-7610
షాలు	-7611
్రల్	-7612
▁110	-7613
▁ఊరగ	-7614
▁నీల	-7615
కార్య	-7616
తులైన	-7617
ర్వేద	-7618
వెళ్ళ	-7619
ాన్స్	-7620
ిస్తూ	-7621
▁....	-7622
▁2002	-7623
▁దండె	-7624
▁ధ్వజ	-7625
▁మత్స	-7626
ట్టుగా	-7627
దారులు	-7628
బెట్టి	-7629
▁ఆహారం	-7630
▁కాదని	-7631
▁నదిలో	-7632
▁పొన్న	-7633
▁వివరి	-7634
కోవాలని	-7635
గోదావరి	-7636
డుతుంది	-7637
▁ఆటగాడు	-7638
▁కాపాడు	-7639
▁ప్రామా	-7640
▁బ్రౌన్	-7641
▁స్థాపన	-7642
▁అయ్యాయి	-7643
▁ఆదిల్షా	-7644
▁కేసీఆర్	-7645
▁శివాలయం	-7646
▁అమలులోకి	-7647
▁ఎన్నికలు	-7648
▁పద్మావతి	-7649
▁పర్యావరణ	-7650
▁లభించాయి	-7651
▁శ్రీకాళహ	-7652
▁తత్వవేత్త	-7653
▁ప్రాచుర్యం	-7654
ించుచున్నారు	-7655
▁చేసుకుంటాడు	-7656
▁హైదరాబాదుకు	-7657
▁పేర్కొన్నారు	-7658
▁సంస్కృతాంధ్ర	-7659
.[	-7660
69	-7661
షో	-7662
-12	-7663
all	-7664
her	-7665
our	-7666
రావ	-7667
వల్	-7668
ేర్	-7669
ోజీ	-7670
▁39	-7671
▁ఆఖ	-7672
▁కఠ	-7673
క్లి	-7674
జవాడ	-7675
యిల్	-7676
లక్ష	-7677
లాల్	-7678
వెల్	-7679
వోలు	-7680
▁14,	-7681
▁అదృ	-7682
▁ఉపన	-7683
▁జ్వ	-7684
▁పొర	-7685
▁ఫర్	-7686
▁బసవ	-7687
▁రకం	-7688
▁సతీ	-7689
ంగానే	-7690
విధ్య	-7691
వెంకట	-7692
ేశాడు	-7693
▁అతడి	-7694
▁కోపం	-7695
▁గూర్	-7696
▁తుని	-7697
▁దాస్	-7698
▁పత్ర	-7699
▁మీరు	-7700
▁రంగం	-7701
▁శరీర	-7702
▁సంకే	-7703
పుల్స్	-7704
▁2009:	-7705
▁అవినీ	-7706
▁ఉపాధి	-7707
▁హరిహర	-7708
పడ్డాడు	-7709
సముద్రం	-7710
▁అస్సాం	-7711
▁ఇస్లాం	-7712
▁కొట్టు	-7713
▁గోపాల్	-7714
▁జూలైలో	-7715
▁దానితో	-7716
▁బీహార్	-7717
▁బోర్డు	-7718
▁రాజవంశ	-7719
▁రుక్మి	-7720
▁స్థాని	-7721
బడుతున్న	-7722
▁అటువంటి	-7723
▁ఇటువంటి	-7724
▁కర్నాటక	-7725
▁తాండూరు	-7726
▁పొందాయి	-7727
▁సౌందర్య	-7728
▁కలెక్టర్	-7729
▁కేంద్రము	-7730
▁చేసుకొని	-7731
▁ప్రాతిని	-7732
▁సంస్కృతం	-7733
▁అనుగుణంగా	-7734
▁గ్రామాలకు	-7735
▁చాళుక్యుల	-7736
▁విజయవాడలో	-7737
▁వినాయకుని	-7738
▁మహబూబాబాద్	-7739
▁సముద్రమట్ట	-7740
▁ప్రకటించాడు	-7741
-8	-7742
-18	-7743
కరు	-7744
దలి	-7745
దుర	-7746
భక్	-7747
మతం	-7748
▁7.	-7749
▁77	-7750
▁ఏట	-7751
▁గ్	-7752
▁బన	-7753
ందనీ	-7754
జిత్	-7755
డిలో	-7756
్వంచ	-7757
▁130	-7758
▁250	-7759
▁అలి	-7760
▁ఒకట	-7761
▁కాశ	-7762
▁గరు	-7763
▁మన్	-7764
గుండం	-7765
ములతో	-7766
య్యను	-7767
రంగజే	-7768
సమితి	-7769
▁ఉంటూ	-7770
▁గండి	-7771
▁తోడ్	-7772
▁దోహద	-7773
▁పాడి	-7774
▁ప్రణ	-7775
▁బాలా	-7776
▁మనుమ	-7777
▁వాసి	-7778
ప్రధాన	-7779
మునందు	-7780
ేశ్వరు	-7781
▁1985:	-7782
▁అశోక్	-7783
▁ఆదర్శ	-7784
▁కళింగ	-7785
▁జయసుధ	-7786
▁తరపున	-7787
▁దేశీయ	-7788
▁పరిష్	-7789
▁మండలి	-7790
▁రాళ్ళ	-7791
▁వివరణ	-7792
▁కాలేజ్	-7793
▁కిన్నె	-7794
▁చెట్లు	-7795
▁దూరంగా	-7796
▁దేశాలు	-7797
▁పదవికి	-7798
▁పేరుపొ	-7799
▁భవిష్య	-7800
▁వాటికి	-7801
▁నెట్వర్	-7802
▁పౌరాణిక	-7803
▁ప్రేమలో	-7804
▁యూనివర్	-7805
▁విస్తరణ	-7806
▁అనుసంధాని	-7807
▁చిత్రాలలో	-7808
▁పరిధిలోని	-7809
▁పెరిగింది	-7810
▁దేవులపల్లి	-7811
▁అలెగ్జాండర్	-7812
▁అందుకున్నాడు	-7813
▁పనిచేస్తున్న	-7814
▁విస్తీర్ణంలో	-7815
డక	-7816
▁?	-7817
అంత	-7818
కూర	-7819
గ్న	-7820
జేయ	-7821
మంగ	-7822
మనే	-7823
యని	-7824
▁63	-7825
▁మఠ	-7826
▁యీ	-7827
కోటి	-7828
క్కా	-7829
క్షే	-7830
ద్వి	-7831
భ్యా	-7832
వేరి	-7833
ాండు	-7834
▁170	-7835
▁ఆడి	-7836
▁ఛంద	-7837
▁జిం	-7838
▁తిర	-7839
▁మరీ	-7840
కేషన్	-7841
క్ట్ర	-7842
ఘవులు	-7843
వన్నీ	-7844
వర్శి	-7845
స్ట్ర	-7846
ునికి	-7847
▁1940	-7848
▁1954	-7849
▁1993	-7850
▁1996	-7851
▁క్యూ	-7852
▁చిలు	-7853
▁పారా	-7854
▁భూకం	-7855
▁మోహన	-7856
▁రాయచ	-7857
▁లోపల	-7858
▁వాగు	-7859
▁శ్రా	-7860
▁సన్న	-7861
▁హోదా	-7862
గృహాలు	-7863
▁ఆదోని	-7864
▁ఆయనను	-7865
▁కనీసం	-7866
▁నదిపై	-7867
▁సున్న	-7868
▁స్వీయ	-7869
▁అనారోగ	-7870
▁ఉద్యాన	-7871
▁గాంచిన	-7872
▁త్రాగు	-7873
▁దేవతలు	-7874
▁దేశాయ్	-7875
▁బాపట్ల	-7876
▁బెజవాడ	-7877
▁మార్కా	-7878
పురంలోను	-7879
స్థాయిలో	-7880
▁అనువాదం	-7881
▁అబ్దుల్	-7882
▁జయశంకర్	-7883
▁పెట్టిన	-7884
▁లినక్స్	-7885
▁అందువల్ల	-7886
▁ఉండవచ్చు	-7887
▁ఊరేగింపు	-7888
▁కాశ్మీర్	-7889
▁చంద్రుడు	-7890
▁పోరాటంలో	-7891
▁పోలీసులు	-7892
▁ప్రామాణిక	-7893
▁ప్రోగ్రామ	-7894
▁రాజ్యాంగం	-7895
▁నరసరావుపేట	-7896
▁ప్రాంగణంలో	-7897
▁రాష్ట్రాలు	-7898
▁క్రియేషన్స్	-7899
▁ప్రపంచంలోని	-7900
▁విద్యార్థుల	-7901
▁సంజీవరెడ్డి	-7902
▁ప్రారంభించిన	-7903
▁సుబ్రహ్మణ్యం	-7904
▁విస్తరించింది	-7905
చర	-7906
యీ	-7907
జయ్	-7908
జుల	-7909
పటి	-7910
▁0.	-7911
▁వశ	-7912
కుంద	-7913
గిలి	-7914
బండి	-7915
లోకం	-7916
సంలో	-7917
స్వీ	-7918
▁ఏమీ	-7919
▁చెల	-7920
▁నెర	-7921
▁భోగ	-7922
హదూర్	-7923
ానందం	-7924
▁1917	-7925
▁1918	-7926
▁1967	-7927
▁బాబూ	-7928
▁లాలి	-7929
▁వాడి	-7930
▁సందే	-7931
కున్నా	-7932
▁2016:	-7933
▁ఉడిపి	-7934
▁కుట్ర	-7935
▁కేటాయ	-7936
▁జమీంద	-7937
▁దేవతల	-7938
▁నెల్ల	-7939
▁పాడిన	-7940
▁బరువు	-7941
▁వృత్త	-7942
తుంటాయి	-7943
▁అంకితం	-7944
▁ఉత్తరం	-7945
▁ఒప్పంద	-7946
▁ఔరంగజే	-7947
▁గోపన్న	-7948
▁తప్పని	-7949
▁మనస్సు	-7950
▁మార్చు	-7951
▁మైక్రో	-7952
▁రాముని	-7953
▁అధీనంలో	-7954
▁ఎప్పుడూ	-7955
▁పరీవాహక	-7956
▁భావించి	-7957
▁రాబర్ట్	-7958
పెట్టింది	-7959
▁ఆత్మహత్య	-7960
▁ఇంగ్లీష్	-7961
▁రహదారిపై	-7962
▁సుమారుగా	-7963
▁స్ఫూర్తి	-7964
▁స్వర్ణలత	-7965
▁ఉష్ణోగ్రత	-7966
▁జన్మించిన	-7967
▁జరుపుతారు	-7968
▁తెలంగాణలో	-7969
▁నేపథ్యంలో	-7970
▁ప్రఖ్యాతి	-7971
▁ప్రదేశంలో	-7972
▁ప్రవహించే	-7973
▁శ్రీకాకుళ	-7974
▁సంబంధించి	-7975
ించుకుంటారు	-7976
▁కృష్ణంరాజు	-7977
▁పురపాలకసంఘ	-7978
▁విడుదలైంది	-7979
▁అవతరించింది	-7980
▁గ్రామోత్సవం	-7981
▁తెలుస్తోంది	-7982
▁రాజకీయవేత్త	-7983
▁చరిత్రకారుడు	-7984
▁శ్రీకృష్ణదేవ	-7985
కౌ	-7986
తక	-7987
ial	-7988
తావ	-7989
దంబ	-7990
మాయ	-7991
వగా	-7992
వటం	-7993
వేక	-7994
శిల	-7995
ారట	-7996
▁Ch	-7997
చాయి	-7998
ద్వీ	-7999
న్నర	-8000
శాసన	-8001
శ్వా	-8002
స్టి	-8003
స్పి	-8004
▁19,	-8005
▁ఎఫ్	-8006
▁చవి	-8007
▁డయా	-8008
▁తాప	-8009
▁పటే	-8010
▁మౌర	-8011
▁రిజ	-8012
▁రోగ	-8013
కర్నూ	-8014
కాంతం	-8015
క్ష్మ	-8016
చిన్న	-8017
ట్లకు	-8018
పోవడం	-8019
య్యాల	-8020
రుద్ర	-8021
వేశాల	-8022
ాంతరం	-8023
ేశారు	-8024
▁గాంధ	-8025
▁గ్రా	-8026
▁పడిన	-8027
▁పెరి	-8028
▁మన్న	-8029
▁వర్ధ	-8030
▁వేడి	-8031
▁శ్రమ	-8032
డాన్ని	-8033
న్నిస్	-8034
ుండును	-8035
▁అద్దం	-8036
▁ఉపదేశ	-8037
▁కత్తి	-8038
▁కావున	-8039
▁భూపతి	-8040
▁రహస్య	-8041
▁విరాళ	-8042
▁వెండి	-8043
వర్శిటీ	-8044
▁ఎందుకు	-8045
▁కనుగొన	-8046
▁దిక్కు	-8047
▁దేశంగా	-8048
▁ద్వారం	-8049
▁పుస్తక	-8050
▁సంస్థల	-8051
▁హైస్కూ	-8052
పెట్టారు	-8053
▁దగ్గరగా	-8054
▁నిర్మల్	-8055
▁పాత్రను	-8056
▁పాలకులు	-8057
▁కాలంలోనే	-8058
▁గ్రంథాలు	-8059
▁మంగళగిరి	-8060
▁వెళ్ళాడు	-8061
▁గుర్తించి	-8062
▁ప్రముఖులు	-8063
▁సికింద్రా	-8064
▁సైన్యాన్ని	-8065
▁ఎన్నికైనాడు	-8066
▁చెప్పబడింది	-8067
▁పరిపాలించిన	-8068
▁ప్రపంచంలోనే	-8069
▁ఉపయోగిస్తారు	-8070
▁సామ్రాజ్యానికి	-8071
పణ	-8072
పథ	-8073
13.	-8074
ity	-8075
కను	-8076
▁):	-8077
▁41	-8078
ంగల్	-8079
ందుల	-8080
కాదు	-8081
జ్యో	-8082
లంతా	-8083
లేటి	-8084
వాసి	-8085
షియా	-8086
సిస్	-8087
ామస్	-8088
ికోట	-8089
▁16,	-8090
▁184	-8091
▁600	-8092
▁కపి	-8093
▁తరి	-8094
▁దీప	-8095
▁పూల	-8096
పరిచి	-8097
ముఖ్య	-8098
▁2017	-8099
▁ఒకరి	-8100
▁కమ్మ	-8101
▁కోనే	-8102
▁గోరు	-8103
▁చాటు	-8104
▁పతనం	-8105
▁పోయి	-8106
▁బట్ట	-8107
▁మట్ట	-8108
▁యందు	-8109
▁షేక్	-8110
కుంట్ల	-8111
దక్షిణ	-8112
ప్రెస్	-8113
రాబాద్	-8114
వాదులు	-8115
ాంజనేయ	-8116
ిండియా	-8117
▁1972:	-8118
▁అనుసర	-8119
▁ఆకర్ష	-8120
▁ఊరిలో	-8121
▁ఏర్పడ	-8122
▁నంబరు	-8123
▁నిమ్మ	-8124
▁పరికర	-8125
▁బలమైన	-8126
▁లింగం	-8127
▁విఘ్న	-8128
▁వెడల్	-8129
▁సుజాత	-8130
▁స్నాన	-8131
▁ఆగ్నేయ	-8132
▁గూడూరు	-8133
▁చేర్చు	-8134
▁నిజాము	-8135
▁ప్రకటన	-8136
▁యేడాది	-8137
▁వాస్తు	-8138
▁అరేబియా	-8139
▁కార్మిక	-8140
▁ధార్వాడ	-8141
▁పాలకుడు	-8142
▁బ్రిటన్	-8143
▁ముత్యాల	-8144
▁వస్తాడు	-8145
▁వస్తారు	-8146
▁హిందీలో	-8147
▁ఉండేవాడు	-8148
▁ఉన్నందున	-8149
▁చేసేవారు	-8150
▁తేదీనాడు	-8151
▁నిడమర్రు	-8152
▁రచించారు	-8153
▁విశ్వాసం	-8154
▁చేరుకుంది	-8155
▁సత్యాగ్రహ	-8156
▁ఉన్నప్పుడు	-8157
▁ముఖ్యపాత్ర	-8158
▁అధికారికంగా	-8159
▁రూపొందించిన	-8160
▁విద్యార్థులకు	-8161
22)	-8162
ite	-8163
ric	-8164
కావ	-8165
కైన	-8166
గ్వ	-8167
ువు	-8168
ment	-8169
జాద్	-8170
జ్యం	-8171
నూరి	-8172
వరకూ	-8173
▁(20	-8174
▁కదా	-8175
▁కాగ	-8176
▁తలె	-8177
▁శశి	-8178
కులతో	-8179
భక్తి	-8180
మండలి	-8181
▁1946	-8182
▁1965	-8183
▁ఆశ్చ	-8184
▁కస్త	-8185
▁కారం	-8186
▁తిరగ	-8187
▁నచ్చ	-8188
▁పడమర	-8189
▁ముడి	-8190
▁యోగి	-8191
▁రమ్య	-8192
▁రోజూ	-8193
▁లీపు	-8194
▁వంశీ	-8195
▁వారే	-8196
▁విరు	-8197
▁స్కా	-8198
▁హరిక	-8199
గోపాల్	-8200
తులుగా	-8201
రాజులు	-8202
లిస్ట్	-8203
ేపల్లి	-8204
▁1990:	-8205
▁అదనపు	-8206
▁కదిరి	-8207
▁కాలము	-8208
▁తణుకు	-8209
▁నటులు	-8210
▁భాషకు	-8211
▁మధుసూ	-8212
బ్రహ్మం	-8213
▁అద్భుత	-8214
▁ఆంధ్రా	-8215
▁ఆకర్షి	-8216
▁కన్నుల	-8217
▁కర్మాగ	-8218
▁కార్మి	-8219
▁చిన్నత	-8220
▁చైతన్య	-8221
▁నేటికీ	-8222
▁పొరుగు	-8223
▁వారితో	-8224
▁సంగ్రహ	-8225
▁అత్తిలి	-8226
▁ఆంగ్లేయ	-8227
▁ఇస్తారు	-8228
▁కార్తీక	-8229
▁తర్వాతి	-8230
▁భాస్కర్	-8231
▁ముగింపు	-8232
▁విలువైన	-8233
▁అప్పటికి	-8234
▁దినోత్సవ	-8235
▁దేవస్థాన	-8236
▁ప్రభాకర్	-8237
▁వస్తున్న	-8238
▁వ్యవసాయా	-8239
▁సెంట్రల్	-8240
▁అబ్దుల్లా	-8241
▁చిత్రాలను	-8242
▁చుట్టుప్ర	-8243
▁ప్రతిష్ఠా	-8244
▁మద్రాసులో	-8245
▁వ్యక్తిగత	-8246
▁కథానాయకుడు	-8247
▁చెందినవారు	-8248
▁విజయవంతంగా	-8249
▁నివాసగృహాలు	-8250
▁సామ్రాజ్యాన్ని	-8251
-9	-8252
ఘా	-8253
యూ	-8254
ugu	-8255
ure	-8256
ఖిల	-8257
గంగ	-8258
డిద	-8259
భ్ర	-8260
లోయ	-8261
ృతి	-8262
▁78	-8263
▁st	-8264
▁ఖై	-8265
▁ధూ	-8266
▁ఫ్	-8267
జారు	-8268
నాల్	-8269
పార్	-8270
ర్భవ	-8271
వర్ధ	-8272
హాన్	-8273
ింటి	-8274
▁గంధ	-8275
▁తరగ	-8276
▁తామ	-8277
▁పూర	-8278
▁మకు	-8279
▁మోహ	-8280
▁వాన	-8281
▁స్క	-8282
▁హోం	-8283
ందేడ్	-8284
తల్లి	-8285
తోత్స	-8286
బెట్ట	-8287
మాత్ర	-8288
ాలన్న	-8289
ినేని	-8290
▁(198	-8291
▁1919	-8292
▁1957	-8293
▁1961	-8294
▁అంశం	-8295
▁ఆవరణ	-8296
▁కురి	-8297
▁చూడు	-8298
▁చేయి	-8299
▁దిగి	-8300
▁ద్రో	-8301
▁నడిప	-8302
▁విమో	-8303
▁వెల్	-8304
రాముడు	-8305
▁1962:	-8306
▁ఉండదు	-8307
▁ఉపనది	-8308
▁పూర్ణ	-8309
▁లండన్	-8310
▁విజ్ఞ	-8311
▁శంకరా	-8312
▁సాక్ష	-8313
పతిరావు	-8314
▁ఎలాంటి	-8315
▁కాశీయా	-8316
▁గురజాడ	-8317
▁దీనితో	-8318
▁మానసిక	-8319
▁వీరుడు	-8320
▁సుత్తి	-8321
▁అభ్యుదయ	-8322
▁ఎయిడ్స్	-8323
▁దంపతులు	-8324
▁ప్రయాణి	-8325
▁వైవిధ్య	-8326
▁సోదరుడు	-8327
▁కనుగొన్న	-8328
▁పీపుల్స్	-8329
▁శతాబ్దపు	-8330
▁కళాకారులు	-8331
▁చేసుకుంది	-8332
▁ప్రభావితం	-8333
▁కనుగొన్నాడు	-8334
▁తజికిస్థాన్	-8335
▁సంస్థానాధీశ	-8336
▁వ్యాపారవేత్త	-8337
-5	-8338
71	-8339
74	-8340
రక	-8341
రొ	-8342
-16	-8343
గణం	-8344
జలు	-8345
తరు	-8346
పద్	-8347
పెడ	-8348
లస్	-8349
▁ఖు	-8350
ical	-8351
క్ట్	-8352
జ్ఞా	-8353
ద్యమ	-8354
నాధ్	-8355
వేలు	-8356
శ్రే	-8357
▁182	-8358
▁మాద	-8359
▁వెళ	-8360
▁హోమ	-8361
elugu	-8362
గుట్ట	-8363
ప్రగడ	-8364
ారంలో	-8365
ొచ్చు	-8366
▁అంగీ	-8367
▁ఇరవై	-8368
▁ఓటమి	-8369
▁కంటి	-8370
▁జననం	-8371
▁నీవే	-8372
▁పరశు	-8373
▁బుక్	-8374
▁భోజన	-8375
▁మూలం	-8376
▁అంశాల	-8377
▁కాటన్	-8378
▁గట్టి	-8379
▁ధ్రువ	-8380
▁పటేల్	-8381
▁పోయిన	-8382
▁మహాసభ	-8383
▁వంతెన	-8384
▁వైశాఖ	-8385
మాచార్య	-8386
▁అడవులు	-8387
▁తుమ్మల	-8388
▁పూర్వీ	-8389
▁పోటీలు	-8390
▁రిజర్వ	-8391
▁సదస్సు	-8392
▁స్వర్గ	-8393
▁ఆఫ్రికా	-8394
▁కావాలని	-8395
▁డాలర్లు	-8396
▁నారాయణ్	-8397
▁పాల్వంచ	-8398
▁మద్రాస్	-8399
▁రామాలయం	-8400
▁విప్లవం	-8401
▁వెంకట్ర	-8402
▁వెడల్పు	-8403
▁స్థలాలు	-8404
చక్రవర్తి	-8405
ామిరెడ్డి	-8406
▁ఔరంగజేబు	-8407
▁పెట్టాడు	-8408
▁భగవద్గీత	-8409
▁రహదారులు	-8410
▁శతాబ్దాల	-8411
రాష్ట్రపతి	-8412
▁తోలుబొమ్మ	-8413
▁దినపత్రిక	-8414
▁పితామహుడు	-8415
▁రాష్ట్రకూ	-8416
▁తెలుసుకుని	-8417
▁ప్రారంభంలో	-8418
▁మధ్యకాలంలో	-8419
▁మహబూబ్నగర్	-8420
▁వీరభద్రరావు	-8421
▁అందుకున్నారు	-8422
▁నిర్మించింది	-8423
గై	-8424
00)	-8425
ంతా	-8426
కుశ	-8427
▁74	-8428
▁ఛై	-8429
▁ఫౌ	-8430
కంటి	-8431
క్సు	-8432
చివే	-8433
టులు	-8434
తువు	-8435
బోయే	-8436
భూతి	-8437
రాఘవ	-8438
రాతి	-8439
రాశి	-8440
వారే	-8441
సార్	-8442
▁108	-8443
▁శాం	-8444
క్రమే	-8445
నర్జీ	-8446
న్సర్	-8447
బజార్	-8448
రాలకు	-8449
రాలలో	-8450
స్థుల	-8451
ృప్తి	-8452
▁(196	-8453
▁1830	-8454
▁ఆభరణ	-8455
▁కుంభ	-8456
▁కూలి	-8457
▁పునా	-8458
▁బూర్	-8459
▁రూపం	-8460
▁వేషం	-8461
▁సాధన	-8462
▁సైతం	-8463
తెలంగా	-8464
సింజర్	-8465
▁1965:	-8466
▁1987:	-8467
▁ఆధారం	-8468
▁ఇంతలో	-8469
▁కచ్చి	-8470
▁కలామ్	-8471
▁కలిపే	-8472
▁చింతల	-8473
▁జంధ్య	-8474
▁నిధుల	-8475
▁నెలలు	-8476
▁పాండి	-8477
▁పిండి	-8478
▁మున్న	-8479
▁సరిగా	-8480
▁సహస్ర	-8481
ప్రాంతం	-8482
ాల్లోని	-8483
▁అక్షరం	-8484
▁అధిపతి	-8485
▁ఇందుకు	-8486
▁గిడుగు	-8487
▁గెలుపొ	-8488
▁తీరంలో	-8489
▁బహదూర్	-8490
▁మిగిలి	-8491
▁మునిగి	-8492
▁వార్డు	-8493
▁వేలాది	-8494
▁శతాబ్ధ	-8495
▁సారిగా	-8496
▁దగ్గరకు	-8497
▁ప్రతీతి	-8498
▁రాఘవయ్య	-8499
▁రోజులలో	-8500
▁శ్రీహరి	-8501
స్తుంటాయి	-8502
▁టంగుటూరి	-8503
▁నికోబార్	-8504
▁పిల్లలకు	-8505
▁పెనుగొండ	-8506
▁ప్రాంతము	-8507
▁భాగమైంది	-8508
▁విముక్తి	-8509
▁వృత్తులు	-8510
▁వెంకటేష్	-8511
▁పురాతనమైన	-8512
▁ప్రతిపక్ష	-8513
▁ఏర్పడ్డాయి	-8514
▁చిత్రంలోని	-8515
▁జన్మించారు	-8516
▁వేంకటేశ్వర	-8517
▁దారితీసింది	-8518
▁కామేశ్వరరావు	-8519
▁బ్రహ్మోత్సవాలు	-8520
ok	-8521
చోట	-8522
జని	-8523
డను	-8524
డియ	-8525
తాం	-8526
మలు	-8527
యిక	-8528
షల్	-8529
సుర	-8530
సూర	-8531
ేడు	-8532
ైతే	-8533
▁51	-8534
▁85	-8535
▁షె	-8536
గోలు	-8537
చేసే	-8538
టినీ	-8539
పాలా	-8540
రిక్	-8541
రిలో	-8542
ర్యా	-8543
సిన్	-8544
▁సంబ	-8545
▁సుగ	-8546
క్టరీ	-8547
దిత్య	-8548
రవాణి	-8549
లింగ్	-8550
ాహ్నం	-8551
▁కథాన	-8552
▁కమిష	-8553
▁పీఠా	-8554
▁మ్యా	-8555
▁సుధా	-8556
▁స్టీ	-8557
▁హింస	-8558
క్తంగా	-8559
చెట్టు	-8560
లోనికి	-8561
వారిలో	-8562
ాలలోనూ	-8563
▁1960:	-8564
▁1973:	-8565
▁కన్నె	-8566
▁కోటలో	-8567
▁నిబంధ	-8568
▁విరమణ	-8569
▁విశ్ర	-8570
▁వీరేశ	-8571
కేంద్రం	-8572
▁అధిష్ట	-8573
▁ఆకట్టు	-8574
▁కొంచెం	-8575
▁పెన్నా	-8576
▁మందులు	-8577
▁వరల్డ్	-8578
▁ఇంజనీరు	-8579
▁క్రైస్త	-8580
▁జంక్షన్	-8581
▁నాటకాలు	-8582
▁ప్రపంచం	-8583
▁ప్రయాణీ	-8584
▁సమావేశం	-8585
▁సాగింది	-8586
▁చెప్పుకో	-8587
▁పిలువబడే	-8588
▁ప్రతిబిం	-8589
▁మదనపల్లె	-8590
▁సత్యసాయి	-8591
▁చారిత్రిక	-8592
▁నాయకురాలు	-8593
▁పరిధిలోకి	-8594
▁చిత్రాల్లో	-8595
▁చేయబడ్డాయి	-8596
▁నిర్మాణంలో	-8597
▁వికారాబాదు	-8598
▁సరిహద్దులు	-8599
▁గ్రామస్థులు	-8600
▁తీర్చిదిద్ద	-8601
▁యూనివర్శిటీ	-8602
▁నివసిస్తున్న	-8603
hy	-8604
ియ	-8605
ate	-8606
ంతు	-8607
భూష	-8608
మహి	-8609
సంత	-8610
▁54	-8611
ఉంది	-8612
కర్మ	-8613
జ్జి	-8614
టంలో	-8615
టెన్	-8616
తమ్మ	-8617
థ్యం	-8618
యోగి	-8619
వార్	-8620
శాలి	-8621
ాంతర	-8622
ీయుల	-8623
▁నెమ	-8624
▁బర్	-8625
▁భరత	-8626
▁మైన	-8627
▁రాక	-8628
▁వడ్	-8629
▁శతక	-8630
▁హృద	-8631
కల్లో	-8632
నింగ్	-8633
పిళ్ళ	-8634
యున్న	-8635
సంచార	-8636
్రావు	-8637
్వస్థ	-8638
▁అమాయ	-8639
▁ఆదరణ	-8640
▁కలదు	-8641
▁కొంక	-8642
▁నీలం	-8643
▁బార్	-8644
▁ముంద	-8645
▁రీసె	-8646
▁రుచి	-8647
▁లభ్య	-8648
▁సంధి	-8649
▁సామె	-8650
ప్పుడే	-8651
వచ్చని	-8652
▁1984:	-8653
▁అక్రమ	-8654
▁ఆధారి	-8655
▁కళ్ళు	-8656
▁కావలి	-8657
▁గుమ్మ	-8658
▁ప్రసా	-8659
▁బుక్క	-8660
▁భోజనం	-8661
▁రావడం	-8662
▁సత్కర	-8663
ించారని	-8664
▁జర్మన్	-8665
▁నిర్జన	-8666
▁బీహారు	-8667
▁మత్స్య	-8668
▁ములుగు	-8669
▁వైష్ణవ	-8670
▁సీతమ్మ	-8671
▁అవినీతి	-8672
▁ఛందస్సు	-8673
▁తెచ్చిన	-8674
▁నిర్ణయం	-8675
▁విదేశాల	-8676
▁ఢిల్లీలో	-8677
▁పత్రికలో	-8678
▁పరిశ్రమల	-8679
▁ఫుట్బాల్	-8680
▁కాశీయాత్ర	-8681
▁చేసేందుకు	-8682
▁పాలకొల్లు	-8683
▁పెట్టుబడి	-8684
▁ప్రతిపాదన	-8685
▁సుల్తానుల	-8686
ించినప్పుడు	-8687
▁పట్టణంలోని	-8688
▁సరిహద్దులో	-8689
▁గుర్తించారు	-8690
▁రాష్ట్రపతిగా	-8691
ac	-8692
సహ	-8693
దనీ	-8694
నాం	-8695
న్ల	-8696
పము	-8697
ీలు	-8698
▁ఏల	-8699
▁ధీ	-8700
తుడై	-8701
దుపు	-8702
దేవర	-8703
దేవ్	-8704
వేణి	-8705
▁ఎగ్	-8706
▁కప్	-8707
▁తొల	-8708
▁రక్	-8709
▁సభా	-8710
▁సరళ	-8711
▁హరీ	-8712
కూడదు	-8713
గించి	-8714
దులను	-8715
పాక్ష	-8716
రులను	-8717
రోజుల	-8718
వాళ్ళ	-8719
వుంది	-8720
▁1916	-8721
▁1973	-8722
▁ఎదుర	-8723
▁తమకు	-8724
▁తొలు	-8725
▁నక్స	-8726
▁బండి	-8727
▁బాంబ	-8728
▁బీచ్	-8729
▁మూడో	-8730
▁లోతు	-8731
▁వరాహ	-8732
▁శీర్	-8733
▁సులభ	-8734
జ్యోతి	-8735
ధురాలు	-8736
యార్క్	-8737
వంతంగా	-8738
సాన్ని	-8739
▁1975:	-8740
▁1986:	-8741
▁అభ్యస	-8742
▁అయ్యే	-8743
▁అసమాన	-8744
▁కల్పి	-8745
▁కూడలి	-8746
▁చిలకల	-8747
▁నేత్ర	-8748
▁ముచ్చ	-8749
▁ముప్ప	-8750
▁వృద్ధ	-8751
▁సమర్ధ	-8752
▁సమస్త	-8753
▁జార్జి	-8754
▁తరచుగా	-8755
▁దశకంలో	-8756
▁నటీమణి	-8757
▁ప్రశ్న	-8758
▁భాగాలు	-8759
▁మెట్రో	-8760
▁రచయితల	-8761
▁హరప్పా	-8762
▁ఆవిష్కర	-8763
▁ప్రమాదం	-8764
▁ప్రసన్న	-8765
▁సంబంధిత	-8766
▁కాలక్రమే	-8767
▁చేర్చారు	-8768
▁నిజానికి	-8769
▁బ్రహ్మంగ	-8770
▁భాగాన్ని	-8771
శేఖరరెడ్డి	-8772
▁అంబేద్కర్	-8773
▁రామమూర్తి	-8774
▁విశ్వనాథ్	-8775
▁వీరబ్రహ్మ	-8776
▁చంద్రశేఖర్	-8777
▁ప్రవేశించి	-8778
▁హాస్యనటుడు	-8779
▁కేంద్రపాలిత	-8780
▁చరిత్రకారులు	-8781
▁నిర్వహించాడు	-8782
▁పాల్గొన్నాడు	-8783
▁ప్రాతినిధ్యం	-8784
▁రాజేశ్వరరావు	-8785
▁విశాఖపట్నంలో	-8786
▁చుట్టుప్రక్కల	-8787
▁నివసిస్తున్నారు	-8788
▁r	-8789
90)	-8790
est	-8791
కంఠ	-8792
కగా	-8793
కట్	-8794
దనం	-8795
రవి	-8796
వంశ	-8797
వేష	-8798
ష్క	-8799
ాదశ	-8800
▁95	-8801
▁ఎన	-8802
▁ఫీ	-8803
▁సవ	-8804
డవైన	-8805
నుడి	-8806
ప్రభ	-8807
రులో	-8808
వాసు	-8809
వేది	-8810
స్టీ	-8811
▁140	-8812
▁ఉభయ	-8813
▁బడి	-8814
▁మేక	-8815
▁యన్	-8816
▁వచన	-8817
▁శిర	-8818
జేషన్	-8819
దుపరి	-8820
నులను	-8821
రసాని	-8822
శిక్ష	-8823
ిల్లి	-8824
▁ఇసుక	-8825
▁కాళి	-8826
▁క్వి	-8827
▁ఖాళీ	-8828
▁టన్న	-8829
▁డెల్	-8830
▁పంచు	-8831
▁పెరగ	-8832
▁భావం	-8833
▁మరణి	-8834
▁మాండ	-8835
▁ముసు	-8836
▁వాని	-8837
ంటున్న	-8838
చ్చన్న	-8839
త్తులో	-8840
దిద్దు	-8841
పట్టణం	-8842
రాలిగా	-8843
▁1955:	-8844
▁1956:	-8845
▁అభయార	-8846
▁అరుణా	-8847
▁గుండు	-8848
▁తీరాన	-8849
▁దిశలో	-8850
▁నుంచే	-8851
▁నువ్వ	-8852
▁పువ్వ	-8853
▁రోదసీ	-8854
ించడంలో	-8855
▁అలవాటు	-8856
▁గుత్తి	-8857
▁జ్ఞాపక	-8858
▁నగరాలు	-8859
▁రోజును	-8860
▁వెళ్లే	-8861
కుంటున్న	-8862
విష్ణువు	-8863
▁ఆవిర్భవ	-8864
▁పనిచేసే	-8865
▁పెద్దలు	-8866
▁వ్యాసాల	-8867
▁సదుపాయం	-8868
▁కందుకూరి	-8869
▁ధర్మపురి	-8870
▁పత్రికలు	-8871
▁పద్ధతిలో	-8872
▁బెంగళూరు	-8873
▁ఉపయోగించి	-8874
▁మొదటిసారి	-8875
▁పెద్దపల్లి	-8876
▁స్నేహితుడు	-8877
▁యూనివర్సిటీ	-8878
▁శాసనసభ్యుడు	-8879
▁ఉపరాష్ట్రపతి	-8880
▁కృష్ణశాస్త్రి	-8881
▁ప్రభుత్వాన్ని	-8882
SB	-8883
ah	-8884
చం	-8885
నవ	-8886
హణ	-8887
ubl	-8888
దార	-8889
ర్ష	-8890
ాగం	-8891
▁73	-8892
▁En	-8893
▁యల	-8894
▁షూ	-8895
ందనే	-8896
ఖాన్	-8897
గాది	-8898
దుంప	-8899
పేస్	-8900
భక్త	-8901
మిడి	-8902
రాదు	-8903
రాన్	-8904
శిల్	-8905
▁18,	-8906
▁21,	-8907
▁అమృ	-8908
▁కృత	-8909
▁ఖరీ	-8910
▁ఘోర	-8911
▁చదవ	-8912
▁తేజ	-8913
▁దుర	-8914
▁పతన	-8915
▁పదే	-8916
▁మేళ	-8917
▁రత్	-8918
▁సుమ	-8919
▁హేమ	-8920
గొట్ట	-8921
షింగ్	-8922
సంబంధ	-8923
ాంశాల	-8924
ించని	-8925
ూర్లో	-8926
ృత్తి	-8927
ోత్తమ	-8928
▁ఇటీవ	-8929
▁ఎవరూ	-8930
▁గొడవ	-8931
▁చిలక	-8932
▁చేపల	-8933
▁పరమా	-8934
▁మీనా	-8935
▁రేవు	-8936
▁వంశం	-8937
▁వివా	-8938
.2013)	-8939
కుమారు	-8940
జ్ఞానం	-8941
యోధులు	-8942
ించడమే	-8943
▁1945:	-8944
▁2010:	-8945
▁అంతటా	-8946
▁గుహలు	-8947
▁జీర్ణ	-8948
▁నున్న	-8949
▁పండిత	-8950
▁పనికి	-8951
▁మాండల	-8952
▁వార్త	-8953
▁సోదరి	-8954
వరంలోను	-8955
▁అందంగా	-8956
▁అడవిలో	-8957
▁అధినేత	-8958
▁అలాంటి	-8959
▁చిన్ని	-8960
▁నాలుగవ	-8961
▁బాలికల	-8962
▁విద్యు	-8963
▁హిరణ్య	-8964
........	-8965
పెట్టాడు	-8966
▁ఆధారపడి	-8967
▁ఆయకట్టు	-8968
▁ఎంపికైన	-8969
▁చక్రవర్	-8970
▁తెలియని	-8971
▁నగరాలలో	-8972
▁పెరిగిన	-8973
▁బుధవారం	-8974
▁వ్యతిరే	-8975
▁కథానాయిక	-8976
▁చరిత్రను	-8977
▁నిపుణులు	-8978
▁పోలిస్తే	-8979
▁ముహమ్మద్	-8980
▁సింహాసనం	-8981
▁చెన్నకేశవ	-8982
▁చెబుతుంది	-8983
▁యూరోపియన్	-8984
▁పుట్టపర్తి	-8985
▁రుద్రమదేవి	-8986
▁విధానాన్ని	-8987
▁నరసింహారెడ్డి	-8988
▁ఆంధ్రప్రదేశ్లో	-8989
▁నాగార్జునసాగర్	-8990
అమె	-8991
జనా	-8992
పార	-8993
భవి	-8994
ర్బ	-8995
ాడట	-8996
▁లం	-8997
జివీ	-8998
మంటే	-8999
మెంట	-9000
▁179	-9001
▁కాట	-9002
▁నవర	-9003
▁భుజ	-9004
▁మెడ	-9005
▁మోస	-9006
▁వేగ	-9007
▁సెల	-9008
కత్వం	-9009
ట్లతో	-9010
ధారిత	-9011
య్యకు	-9012
ేవారి	-9013
▁1910	-9014
▁1921	-9015
▁1932	-9016
▁2018	-9017
▁దురా	-9018
▁నమోద	-9019
▁నీకు	-9020
▁నేనే	-9021
▁పాడే	-9022
▁బావి	-9023
▁బాహు	-9024
▁మహల్	-9025
▁సయ్య	-9026
▁హౌస్	-9027
భిషేకం	-9028
ాలన్నీ	-9029
ించేది	-9030
▁2007.	-9031
▁2011:	-9032
▁అగ్రహ	-9033
▁ఆలేరు	-9034
▁కూటమి	-9035
▁గట్టు	-9036
▁గౌరవం	-9037
▁చోట్ల	-9038
▁జగపతి	-9039
▁నదిని	-9040
▁నిమిష	-9041
▁నియామ	-9042
▁పడమటి	-9043
▁రెండి	-9044
▁వల్లభ	-9045
▁వినిప	-9046
▁వైదిక	-9047
పాధ్యాయ	-9048
పోతున్న	-9049
ానాయుడు	-9050
ించుటకు	-9051
▁అభిషేక	-9052
▁ఉత్సవం	-9053
▁కావ్యం	-9054
▁కుదిరి	-9055
▁కౌన్సి	-9056
▁గుర్రం	-9057
▁తీసుకె	-9058
▁నెల్లి	-9059
▁నొప్పి	-9060
▁పండించ	-9061
▁ప్రసంగ	-9062
▁మంజూరు	-9063
▁వీటికి	-9064
▁శైలిలో	-9065
▁సివిల్	-9066
▁స్టార్	-9067
పాలపల్లి	-9068
ఫిబ్రవరి	-9069
▁ఇబ్బంది	-9070
▁నాందేడ్	-9071
▁పెద్దది	-9072
▁రూపొంది	-9073
▁వెల్లడి	-9074
▁శీర్షిక	-9075
▁ఉంటుందని	-9076
▁వెలువడిన	-9077
▁అత్యుత్తమ	-9078
▁కళాకారిణి	-9079
▁నటించింది	-9080
▁నెట్వర్క్	-9081
▁పెట్టింది	-9082
▁భావించారు	-9083
▁మొట్టమొదట	-9084
▁రోజులపాటు	-9085
▁వరలక్ష్మి	-9086
▁అనువాదకుడు	-9087
▁యుద్ధానికి	-9088
▁విభజించారు	-9089
▁సమకూర్చాడు	-9090
▁సమాచారాన్ని	-9091
▁పాకిస్థాన్లో	-9092
▁వార్షికోత్సవం	-9093
▁వీరబ్రహ్మేంద్ర	-9094
యై	-9095
-13	-9096
-14	-9097
ith	-9098
దను	-9099
మిత	-9100
రన్	-9101
లోన	-9102
ాయో	-9103
▁(2	-9104
▁II	-9105
▁జట	-9106
▁పఠ	-9107
▁వధ	-9108
కిల్	-9109
బులు	-9110
బెట్	-9111
లలిత	-9112
వేసి	-9113
సెఫ్	-9114
▁119	-9115
▁515	-9116
▁అడు	-9117
▁ఒంట	-9118
▁కలం	-9119
▁గాక	-9120
▁తగ్	-9121
▁ముర	-9122
▁వసు	-9123
▁వీణ	-9124
▁శిల	-9125
▁హయా	-9126
గ్రంథ	-9127
గ్వేద	-9128
టట్లు	-9129
పట్టు	-9130
భిన్న	-9131
ముంది	-9132
▁ఉంచి	-9133
▁డెవల	-9134
▁నష్ట	-9135
▁పాము	-9136
▁పులు	-9137
చేశాడు	-9138
మార్గం	-9139
మీదుగా	-9140
ేడ్కర్	-9141
▁1920:	-9142
▁1939:	-9143
▁1947:	-9144
▁అవధాన	-9145
▁చెరకు	-9146
▁డయాబె	-9147
▁దీంతో	-9148
▁నమ్ము	-9149
▁నాటకర	-9150
▁పెన్న	-9151
▁భాగ్య	-9152
▁వారసు	-9153
▁విటమి	-9154
▁సమగ్ర	-9155
▁సాధ్య	-9156
న్నింటి	-9157
లక్ష్మణ	-9158
శివరావు	-9159
▁అదనంగా	-9160
▁ఇంజినీ	-9161
▁కోట్లు	-9162
▁గ్రానై	-9163
▁తీసుకొ	-9164
▁నీటిలో	-9165
▁పనిచేయ	-9166
▁పార్క్	-9167
▁పాలకుల	-9168
▁పిచ్చి	-9169
▁బహుముఖ	-9170
▁బాక్సా	-9171
▁బ్లాక్	-9172
▁వర్గాల	-9173
▁విమానం	-9174
▁హక్కుల	-9175
ర్య్వస్థ	-9176
▁వస్తాయి	-9177
▁సముదాయం	-9178
▁స్థలంలో	-9179
స్టిండియా	-9180
▁తొలిసారి	-9181
▁ప్రదేశాల	-9182
▁మార్గాలు	-9183
▁విమర్శలు	-9184
▁విశేషంగా	-9185
▁సన్నివేశ	-9186
▁చిత్రాలకు	-9187
▁కల్వకుంట్ల	-9188
▁కృష్ణారావు	-9189
▁నాగిరెడ్డి	-9190
▁విస్తృతంగా	-9191
పబ్లికేషన్స్	-9192
▁అధికారంలోకి	-9193
▁గుంటూరులోను	-9194
▁రాష్ట్రాలలో	-9195
▁విద్యాసంస్థ	-9196
▁చెన్నారెడ్డి	-9197
▁నియోజకవర్గంలో	-9198
లయ	-9199
వయ	-9200
-10	-9201
.16	-9202
SBN	-9203
out	-9204
డ్వ	-9205
పని	-9206
బిన	-9207
ాగో	-9208
ీతం	-9209
ేని	-9210
▁ఆమ	-9211
▁ఇల	-9212
▁ఏం	-9213
▁చద	-9214
.185	-9215
డును	-9216
దలకు	-9217
దిలి	-9218
పోతే	-9219
ప్ట్	-9220
మాంబ	-9221
రేవు	-9222
▁24,	-9223
▁ఆగి	-9224
▁ఆలం	-9225
▁ఏది	-9226
▁కలగ	-9227
▁కలప	-9228
▁తాళ	-9229
▁నను	-9230
▁పలక	-9231
▁మెజ	-9232
▁లతో	-9233
▁సమూ	-9234
కోవటం	-9235
మర్తి	-9236
ల్సన్	-9237
సిస్ట	-9238
▁అనాథ	-9239
▁ఆద్య	-9240
▁కుండ	-9241
▁కోరి	-9242
▁గన్న	-9243
▁గుడ్	-9244
▁చిక్	-9245
▁జమున	-9246
▁టాటా	-9247
▁దక్ష	-9248
▁దళిత	-9249
▁దాడు	-9250
▁భ్రమ	-9251
▁మంచు	-9252
▁మృతి	-9253
▁వడ్డ	-9254
▁వాగ్	-9255
▁హసన్	-9256
ఈశ్వరి	-9257
చేసారు	-9258
మార్చి	-9259
స్తూనే	-9260
▁1950:	-9261
▁అంకిత	-9262
▁కలిగే	-9263
▁కొండా	-9264
▁దిశగా	-9265
▁దేశము	-9266
▁పప్పు	-9267
▁పాతాళ	-9268
▁బోధన్	-9269
▁మల్లా	-9270
చున్నవి	-9271
▁అంజయ్య	-9272
▁అంశాలు	-9273
▁అభిమాన	-9274
▁జరిపిన	-9275
▁జైలులో	-9276
▁తదుపరి	-9277
▁పొడవైన	-9278
▁ముక్కు	-9279
▁రాజరాజ	-9280
▁వీధిలో	-9281
▁History	-9282
▁అంతస్తు	-9283
▁అచ్యుతర	-9284
▁ఇంగ్లాం	-9285
▁కారాగార	-9286
▁కాలక్రమ	-9287
▁శ్రీశైల	-9288
▁సమస్యలు	-9289
▁అమ్మవారు	-9290
▁భగవంతుడు	-9291
▁భాగస్వామ	-9292
▁వంశానికి	-9293
▁వేములవాడ	-9294
▁అమెరికాకు	-9295
▁ఆర్థికంగా	-9296
▁పరిపాలనలో	-9297
▁ప్రచారంలో	-9298
▁మరణానంతరం	-9299
▁సభ్యునిగా	-9300
▁అధికారాన్ని	-9301
▁ఉన్నప్పటికీ	-9302
▁పుణ్యక్షేత్రాలు	-9303
గర	-9304
ana	-9305
గుళ	-9306
డీఏ	-9307
నరీ	-9308
మత్	-9309
లకి	-9310
ేశం	-9311
ోదయ	-9312
▁పల	-9313
ండరీ	-9314
గుండ	-9315
జూన్	-9316
బిక్	-9317
లాడు	-9318
సీలు	-9319
ాయర్	-9320
▁17,	-9321
▁25,	-9322
▁అగు	-9323
▁అప్	-9324
▁ఉరి	-9325
▁కన్	-9326
▁ఛాన	-9327
▁లంక	-9328
▁లాం	-9329
▁వాక	-9330
▁వాస	-9331
▁శైవ	-9332
గ్గేయ	-9333
టింగు	-9334
విధాన	-9335
వులతో	-9336
స్తాం	-9337
▁1900	-9338
▁1937	-9339
▁1959	-9340
▁అమృత	-9341
▁చర్మ	-9342
▁తేడా	-9343
▁దారు	-9344
▁మిరప	-9345
▁ముది	-9346
▁రోహి	-9347
▁సుదీ	-9348
▁సూచన	-9349
▁సైన్	-9350
పెట్టు	-9351
భాగంలో	-9352
▁1936:	-9353
▁1969:	-9354
▁1974:	-9355
▁2006:	-9356
▁2007:	-9357
▁2015:	-9358
▁అల్లా	-9359
▁కొలంబ	-9360
▁తొలుత	-9361
▁థామస్	-9362
▁నడిచే	-9363
▁నివార	-9364
▁పబ్లి	-9365
▁పరిమా	-9366
▁పీటర్	-9367
▁పేటెం	-9368
▁మధుమే	-9369
▁సాగిన	-9370
▁కోనసీమ	-9371
▁గూర్చి	-9372
▁చక్కగా	-9373
▁చేర్చి	-9374
▁జయప్రద	-9375
▁నాగయ్య	-9376
▁నిన్ను	-9377
▁నిర్మల	-9378
▁ప్రారం	-9379
▁బియ్యం	-9380
▁యుగంలో	-9381
ందించారు	-9382
భాగాన్ని	-9383
ర్యాలగూడ	-9384
▁డిగ్రీల	-9385
▁తద్వారా	-9386
▁వాగ్గేయ	-9387
▁అంతర్జాల	-9388
▁గుర్తుగా	-9389
▁నృత్యాలు	-9390
▁ఫ్రాన్స్	-9391
▁బీజాపూర్	-9392
▁రామరాయలు	-9393
గ్రామానికి	-9394
▁కాంతారావు	-9395
▁గ్రామాలను	-9396
▁తీసుకున్న	-9397
▁నారాయణపేట	-9398
▁మండలాన్ని	-9399
▁వచ్చిందని	-9400
▁శివరాత్రి	-9401
▁సముద్రంలో	-9402
▁ఈస్టిండియా	-9403
▁ఉద్యమాన్ని	-9404
▁పెంచడానికి	-9405
▁ముస్లిములు	-9406
▁సంస్కృతంలో	-9407
▁ఎక్స్ప్రెస్	-9408
▁కేంద్రాన్ని	-9409
▁పేర్కొన్నాడు	-9410
▁ప్రచురించాడు	-9411
▁సాహిత్యాన్ని	-9412
▁సముద్రమట్టానికి	-9413
":	-9414
ip	-9415
ly	-9416
భౌ	-9417
సౌ	-9418
కామ	-9419
జిత	-9420
జిన	-9421
నంద	-9422
బండ	-9423
వేళ	-9424
హ్య	-9425
▁62	-9426
▁72	-9427
▁81	-9428
▁ఘో	-9429
జిని	-9430
ణిలో	-9431
తాను	-9432
ప్టు	-9433
మన్న	-9434
మేక్	-9435
మోహన	-9436
రూపం	-9437
లైట్	-9438
వాడి	-9439
విడ్	-9440
ాలైన	-9441
ిండి	-9442
ికల్	-9443
▁175	-9444
▁అహో	-9445
▁ఆసి	-9446
▁కదల	-9447
▁ఘనత	-9448
▁భజన	-9449
▁హెన	-9450
ందులో	-9451
మంత్ర	-9452
రులకు	-9453
ాంజలి	-9454
ోగ్రా	-9455
▁1945	-9456
▁అనుచ	-9457
▁అమలా	-9458
▁అరుణ	-9459
▁ఎన్న	-9460
▁కంచి	-9461
▁కుటు	-9462
▁చంపి	-9463
▁జరిప	-9464
▁టాకీ	-9465
▁నాల్	-9466
▁నైపు	-9467
▁పెంప	-9468
▁బ్రె	-9469
▁రాసు	-9470
▁వదలి	-9471
▁వేయి	-9472
▁శాఖా	-9473
▁షాహీ	-9474
▁స్టు	-9475
▁స్థూ	-9476
గ్రామం	-9477
చుకొని	-9478
▁1931:	-9479
▁1948:	-9480
▁1961:	-9481
▁1971:	-9482
▁2019:	-9483
▁అమ్ము	-9484
▁ఎదుర్	-9485
▁కలిసే	-9486
▁నవ్వు	-9487
▁నిరోధ	-9488
▁నిలయం	-9489
▁పరుగు	-9490
▁మించి	-9491
▁వసూలు	-9492
▁వస్తే	-9493
▁వాటర్	-9494
▁స్నేహ	-9495
క్కింది	-9496
▁అతనుకు	-9497
▁నివాసం	-9498
▁నూజివీ	-9499
▁మారుతీ	-9500
▁మెరుగు	-9501
▁రచనలలో	-9502
▁వార్తా	-9503
▁సంరక్ష	-9504
▁సయ్యద్	-9505
▁హాస్పి	-9506
▁అనుగ్రహ	-9507
▁అనేవారు	-9508
▁ఆడపిల్ల	-9509
▁చైర్మన్	-9510
▁జంధ్యాల	-9511
▁తల్లికి	-9512
▁తీర్మాన	-9513
▁తొలితరం	-9514
▁ద్రావిడ	-9515
▁నామకరణం	-9516
▁పరుచూరి	-9517
▁బహుభాషా	-9518
▁రాయచూరు	-9519
▁శక్తిని	-9520
▁సూక్ష్మ	-9521
▁నరసాపురం	-9522
▁మహాభారతం	-9523
▁రూపాంతరం	-9524
▁స్నేహితు	-9525
▁తాత్కాలిక	-9526
▁బ్రహ్మాండ	-9527
▁సాధించారు	-9528
▁కుటుంబరావు	-9529
▁తెలుగులోకి	-9530
▁నాగర్కర్నూ	-9531
▁వస్తుంటారు	-9532
▁పునర్య్వస్థ	-9533
▁సంవత్సరములు	-9534
▁నారాయణరెడ్డి	-9535
▁తల్లిదండ్రులు	-9536
▁పునర్నిర్మాణం	-9537
▁రాజమహేంద్రవరం	-9538
up	-9539
భో	-9540
ుడ	-9541
%),	-9542
ect	-9543
omp	-9544
ంసం	-9545
టమే	-9546
టాల	-9547
తతో	-9548
పదం	-9549
భ్య	-9550
మంట	-9551
యను	-9552
సభా	-9553
సరా	-9554
ికం	-9555
▁is	-9556
▁ఘా	-9557
▁యమ	-9558
▁శర	-9559
తత్వ	-9560
మూడి	-9561
లినా	-9562
ించె	-9563
▁101	-9564
▁20,	-9565
▁అరణ	-9566
▁ఉమా	-9567
▁కరా	-9568
▁ఖైద	-9569
▁గర్	-9570
▁డిజ	-9571
▁తెగ	-9572
▁యాం	-9573
▁యాజ	-9574
▁సన్	-9575
గట్టు	-9576
త్తున	-9577
ద్దరు	-9578
పాలలో	-9579
పుల్ల	-9580
భట్టు	-9581
రాజుల	-9582
ికంగా	-9583
▁ఆకలి	-9584
▁కంది	-9585
▁కఠిన	-9586
▁కమల్	-9587
▁కర్ర	-9588
▁కలుగ	-9589
▁కవుల	-9590
▁కాండ	-9591
▁కిమీ	-9592
▁కుంట	-9593
▁నందు	-9594
▁నైరు	-9595
▁పంది	-9596
▁పగటి	-9597
▁యక్ష	-9598
▁రెడ్	-9599
▁వింత	-9600
▁శీతా	-9601
▁సేనా	-9602
▁హర్య	-9603
ందువలన	-9604
కారంలో	-9605
మయింది	-9606
సెట్టి	-9607
▁2013:	-9608
▁కాస్త	-9609
▁గమనిక	-9610
▁గవర్న	-9611
▁జనార్	-9612
▁టర్కీ	-9613
▁తట్టు	-9614
▁పలుకు	-9615
▁బహుశా	-9616
▁ముట్ట	-9617
▁వైకుం	-9618
▁శరీరం	-9619
రాఘవులు	-9620
▁అధ్యయన	-9621
▁ఉపయోగి	-9622
▁కేసులో	-9623
▁దగ్గరి	-9624
▁ద్రవ్య	-9625
▁పిలిచే	-9626
▁పోర్ట్	-9627
▁బొగ్గు	-9628
▁మాసంలో	-9629
▁వెయ్యి	-9630
▁వేగంగా	-9631
▁స్వల్ప	-9632
ప్రభుత్వ	-9633
రాజేంద్ర	-9634
విశ్వనాథ	-9635
▁తిరస్కర	-9636
▁నిర్వాహ	-9637
▁పురస్కర	-9638
▁పోతుంది	-9639
▁యువరాజు	-9640
▁వేడుకలు	-9641
▁అక్షరాలు	-9642
▁కొనుగోలు	-9643
▁చూడవచ్చు	-9644
▁దుస్తులు	-9645
▁నాటకకర్త	-9646
▁ప్రాణాలు	-9647
▁మంత్రులు	-9648
▁రీసెర్చ్	-9649
▁వెబ్సైటు	-9650
▁శివలింగం	-9651
▁సుల్తానే	-9652
▁కొండపల్లి	-9653
▁న్యాయమూర్	-9654
▁మునిసిపల్	-9655
▁రామస్వామి	-9656
▁సంపాదకులు	-9657
▁స్వతంత్రం	-9658
నరసింహారావు	-9659
▁ప్రారంభమైన	-9660
▁ప్రొడక్షన్	-9661
▁భౌగోళికంగా	-9662
▁మిర్యాలగూడ	-9663
▁వీరేశలింగం	-9664
▁కమ్యూనిస్ట్	-9665
▁ప్రభుత్వంలో	-9666
▁మధ్యప్రదేశ్	-9667
▁మార్చబడింది	-9668
▁చారిత్రాత్మక	-9669
▁ప్రొద్దుటూరు	-9670
▁తెలుస్తున్నది	-9671
బర	-9672
సొ	-9673
ంస్	-9674
కస్	-9675
గాం	-9676
మాత	-9677
వెల	-9678
ాయన	-9679
ులై	-9680
ేలు	-9681
▁68	-9682
▁69	-9683
▁తృ	-9684
over	-9685
కైనా	-9686
క్వా	-9687
టారు	-9688
తాప్	-9689
పత్ర	-9690
బ్రా	-9691
మిది	-9692
ర్పి	-9693
లిక్	-9694
లేదా	-9695
వతార	-9696
సారం	-9697
స్తో	-9698
▁590	-9699
▁కంచ	-9700
▁ఛాం	-9701
▁పతి	-9702
▁బల్	-9703
▁మఠం	-9704
▁శకం	-9705
▁సమై	-9706
క్షలు	-9707
తుంటే	-9708
భారతి	-9709
మంతటా	-9710
విజయం	-9711
వున్న	-9712
సరస్వ	-9713
సరికి	-9714
▁1958	-9715
▁1963	-9716
▁అఖిల	-9717
▁ఆఖరి	-9718
▁ఎవరో	-9719
▁గోధు	-9720
▁నాదె	-9721
▁బాటు	-9722
▁మనకి	-9723
▁మనము	-9724
▁మూసీ	-9725
▁రాగి	-9726
▁రాయబ	-9727
▁రౌడీ	-9728
▁లాగా	-9729
▁వికీ	-9730
▁సైటు	-9731
.1920)	-9732
.2012)	-9733
.2017)	-9734
ందరికీ	-9735
భ్యాసం	-9736
లమడుగు	-9737
ష్టమైన	-9738
్యాలను	-9739
▁1949:	-9740
▁1952:	-9741
▁ఇన్సు	-9742
▁ఊరగాయ	-9743
▁చేయటం	-9744
▁తిప్ప	-9745
▁నిలువ	-9746
▁మల్లి	-9747
▁మహమ్మ	-9748
▁ముద్ద	-9749
▁రాధిక	-9750
▁వైరస్	-9751
▁సంతాన	-9752
▁సుమన్	-9753
భిప్రాయ	-9754
▁ఆశ్రమం	-9755
▁కిందకు	-9756
▁గ్రేడ్	-9757
▁చక్కెర	-9758
▁డెవలప్	-9759
▁పద్మనా	-9760
▁పుట్టు	-9761
▁మాదిరి	-9762
▁ముద్రణ	-9763
▁మేనమామ	-9764
▁విచారణ	-9765
▁స్కూలు	-9766
▁స్నానం	-9767
త్యాన్ని	-9768
▁అందించే	-9769
▁ఒకేసారి	-9770
▁కస్తూరి	-9771
▁గుండమ్మ	-9772
▁దర్శనమి	-9773
▁ప్రెసిడ	-9774
▁భక్తుడు	-9775
▁మహారాజా	-9776
▁హనుమాన్	-9777
▁ఆలయంలోని	-9778
▁గ్రహించి	-9779
▁నిఘంటువు	-9780
▁మిక్కిలి	-9781
▁రామాయణము	-9782
▁శాసనసభకు	-9783
▁శాసనసభలో	-9784
▁స్టుడియో	-9785
రామిరెడ్డి	-9786
స్తున్నాడు	-9787
▁అంబేడ్కర్	-9788
▁పద్మభూషణ్	-9789
▁వ్యవస్థను	-9790
▁సంప్రదాయం	-9791
▁సంస్కృతము	-9792
▁సిద్ధిపేట	-9793
▁విగ్రహాలను	-9794
▁విమర్శకులు	-9795
▁విశ్వేశ్వర	-9796
▁సంవత్సరాలకు	-9797
▁ప్రజాస్వామ్య	-9798
గౌ	-9799
ణె	-9800
▁!	-9801
end	-9802
fic	-9803
rom	-9804
తార	-9805
బరి	-9806
రాధ	-9807
▁at	-9808
▁th	-9809
▁భే	-9810
▁వో	-9811
olog	-9812
గాకు	-9813
ణులు	-9814
తూనే	-9815
నియు	-9816
ఫార్	-9817
మురు	-9818
రుసు	-9819
ర్జీ	-9820
లుడు	-9821
ల్లీ	-9822
వాయు	-9823
సర్వ	-9824
▁176	-9825
▁22,	-9826
▁ఆచర	-9827
▁ఆదర	-9828
▁ఇవే	-9829
▁ఎలె	-9830
▁కథల	-9831
▁గాల	-9832
▁చిం	-9833
▁చెర	-9834
▁జన్	-9835
▁తరం	-9836
▁దృశ	-9837
▁నకు	-9838
▁నిమ	-9839
▁పటి	-9840
▁రాఘ	-9841
▁సీమ	-9842
▁హార	-9843
ంచేసి	-9844
క్రియ	-9845
చందర్	-9846
టికల్	-9847
దవోలు	-9848
భద్రా	-9849
భూషణం	-9850
ెట్లు	-9851
▁1938	-9852
▁ఇంకో	-9853
▁కళలు	-9854
▁కొలి	-9855
▁గుల్	-9856
▁దట్ట	-9857
▁దానం	-9858
▁మాసం	-9859
▁మేరీ	-9860
▁విలా	-9861
▁సమూహ	-9862
▁సెల్	-9863
▁హాల్	-9864
జిల్లా	-9865
తరువాత	-9866
త్తిడి	-9867
పరేషన్	-9868
రంగంలో	-9869
ర్లాల్	-9870
విధంగా	-9871
ించబడు	-9872
▁1946:	-9873
▁1964:	-9874
▁1970:	-9875
▁1980:	-9876
▁1981:	-9877
▁1983:	-9878
▁1991:	-9879
▁2018:	-9880
▁అద్దె	-9881
▁ఆవిష్	-9882
▁కన్యా	-9883
▁కాంతి	-9884
▁తిన్న	-9885
▁ధర్మం	-9886
▁పర్యట	-9887
▁బర్మా	-9888
▁వంకాయ	-9889
▁విభేద	-9890
▁వేంగి	-9891
▁సామంత	-9892
తెలంగాణ	-9893
సనాన్ని	-9894
▁అల్లరి	-9895
▁ఇతనికి	-9896
▁కమిషన్	-9897
▁నృసింహ	-9898
▁పర్వతం	-9899
▁పర్వము	-9900
▁పోలవరం	-9901
▁రచించి	-9902
▁హిమాలయ	-9903
క్ట్రాని	-9904
▁ఎప్పుడు	-9905
▁గ్రంథాల	-9906
▁బెంగాలు	-9907
▁విడుదలై	-9908
▁శరీరంలో	-9909
▁సుదీర్ఘ	-9910
ప్రాంతంలో	-9911
▁అనేకమంది	-9912
▁కూరగాయలు	-9913
▁గురువారం	-9914
▁త్రిపురా	-9915
▁నక్షత్రం	-9916
▁ప్రాంతపు	-9917
▁మెజారిటీ	-9918
▁రాజశేఖర్	-9919
▁విలసిల్ల	-9920
సత్యనారాయణ	-9921
▁చిత్రీకరణ	-9922
▁ప్రమాదంలో	-9923
▁ప్రొఫెసర్	-9924
▁ముస్లింలు	-9925
▁అసోసియేషన్	-9926
▁దర్శకుడిగా	-9927
▁నిర్వహించే	-9928
▁న్యూయార్క్	-9929
▁ప్యాసింజర్	-9930
▁ప్రదర్శనలు	-9931
▁కిన్నెరసాని	-9932
▁రాధాకృష్ణన్	-9933
▁విద్వాంసులు	-9934
▁శక్తివంతమైన	-9935
▁పనిచేస్తుంది	-9936
▁ప్రచురించారు	-9937
▁సృష్టించింది	-9938
▁రామకృష్ణారావు	-9939
▁శాస్త్రవేత్తలు	-9940
0%	-9941
చక	-9942
దట	-9943
19)	-9944
23)	-9945
ain	-9946
ell	-9947
మాం	-9948
శనగ	-9949
సమే	-9950
ాయా	-9951
ికే	-9952
▁9.	-9953
▁97	-9954
▁ఖో	-9955
▁జొ	-9956
కాశ్	-9957
చంద్	-9958
టంటే	-9959
డోస్	-9960
తుండ	-9961
త్రీ	-9962
దిలీ	-9963
ధిగా	-9964
ధిని	-9965
పిల్	-9966
యేట్	-9967
లిని	-9968
ారంగ	-9969
▁588	-9970
▁ఋతు	-9971
▁కోయ	-9972
▁చీర	-9973
▁నవీ	-9974
▁పుం	-9975
▁మరె	-9976
▁మొహ	-9977
▁లక్	-9978
▁లఘు	-9979
▁వాల	-9980
ంద్రత	-9981
కన్నడ	-9982
చెన్న	-9983
భాషలో	-9984
ర్చిన	-9985
ారామం	-9986
▁1939	-9987
▁కాకర	-9988
▁కాఫీ	-9989
▁గుంత	-9990
▁చూచి	-9991
▁తమ్మ	-9992
▁తిరి	-9993
▁దేవీ	-9994
▁నానా	-9995
▁పూజి	-9996
▁భీష్	-9997
▁మూర్	-9998
▁రాసి	-9999
▁స్తు	-10000
దాద్రి	-10001
దూరంలో	-10002
ల్లోనూ	-10003
ేవారని	-10004
▁1953:	-10005
▁1982:	-10006
▁1989:	-10007
▁అధికం	-10008
▁ఒకటైన	-10009
▁చెళ్ళ	-10010
▁జవహర్	-10011
▁నవలలు	-10012
▁నాణ్య	-10013
▁నాశనం	-10014
▁వ్యంగ	-10015
▁సంచలన	-10016
▁సంతకం	-10017
తిరుపతి	-10018
ప్పటికి	-10019
▁కట్టిన	-10020
▁కోరాడు	-10021
▁చల్లని	-10022
▁చేసుకొ	-10023
▁జయించి	-10024
▁జోసెఫ్	-10025
▁దొరుకు	-10026
▁నిరంతర	-10027
▁నిలిపి	-10028
▁నివారణ	-10029
▁పదార్ధ	-10030
▁పుష్కర	-10031
▁భాగవతం	-10032
▁మహాకవి	-10033
▁మాధ్యమ	-10034
▁రాజును	-10035
▁వీడియో	-10036
▁శ్రావణ	-10037
ణిస్తారు	-10038
ోద్యమంలో	-10039
▁అత్యవసర	-10040
▁అయ్యప్ప	-10041
▁ఉదయగిరి	-10042
▁పనిచేసి	-10043
▁మీటర్లు	-10044
▁రూపకల్ప	-10045
▁వుంటాయి	-10046
▁అక్కడికి	-10047
▁ఆధిపత్యం	-10048
▁ఆయుర్వేద	-10049
▁ఇస్తుంది	-10050
▁చార్లెస్	-10051
▁చిలకలూరి	-10052
▁జిల్లాగా	-10053
▁దేశాన్ని	-10054
▁నిజాయితీ	-10055
▁నిపుణుడు	-10056
▁పర్యాటకు	-10057
▁పర్వతాలు	-10058
▁భూభాగంలో	-10059
▁ఏర్పాటులో	-10060
▁కాంగ్రేసు	-10061
▁చేరుతుంది	-10062
▁నర్సాపూర్	-10063
▁పరిశోధనలు	-10064
▁మంచిర్యాల	-10065
▁సదుపాయాలు	-10066
▁సామర్థ్యం	-10067
▁హనుమంతుడు	-10068
▁పునర్నిర్మ	-10069
▁రామబ్రహ్మం	-10070
▁రూపుదిద్దు	-10071
▁ప్రారంభమైనది	-10072
▁వచ్చినప్పుడు	-10073
▁స్థాపించబడిన	-10074
▁రాజకీయనాయకుడు	-10075
▁లక్ష్మీనారాయణ	-10076
ec	-10077
వళ	-10078
▁ఠ	-10079
orm	-10080
కిన	-10081
గిల	-10082
ఘంట	-10083
తమై	-10084
పత్	-10085
బల్	-10086
లంబ	-10087
వలస	-10088
▁67	-10089
▁84	-10090
▁St	-10091
▁అజ	-10092
గితే	-10093
చ్ఛి	-10094
డ్జి	-10095
తిన్	-10096
దేవు	-10097
నమ్మ	-10098
నామా	-10099
పిడి	-10100
పెన్	-10101
పైకి	-10102
మైతే	-10103
యామి	-10104
రోజూ	-10105
వికా	-10106
విన్	-10107
స్తం	-10108
హుతి	-10109
▁అసా	-10110
▁ఆశీ	-10111
▁కరి	-10112
▁కేశ	-10113
▁గడు	-10114
▁గావ	-10115
▁డైర	-10116
▁మళ్	-10117
▁మ్ర	-10118
▁లాభ	-10119
త్విక	-10120
పాలకు	-10121
ళ్లను	-10122
ానికై	-10123
ేషియా	-10124
▁1976	-10125
▁అసఫ్	-10126
▁ఎలాగ	-10127
▁క్షీ	-10128
▁చూసే	-10129
▁తుపా	-10130
▁ద్రవ	-10131
▁నడుమ	-10132
▁నారా	-10133
▁నైవే	-10134
▁పలిక	-10135
▁పునః	-10136
▁రచనల	-10137
.1928)	-10138
.1936)	-10139
కారాలు	-10140
త్తీస్	-10141
త్తుగా	-10142
త్తూరు	-10143
ద్వారం	-10144
నాటికి	-10145
నిర్జన	-10146
న్నపేట	-10147
సురుడు	-10148
్యాండ్	-10149
▁ఇతివృ	-10150
▁చతుర్	-10151
▁చీకటి	-10152
▁చేయగా	-10153
▁తప్పి	-10154
▁తీసిక	-10155
▁నెమ్మ	-10156
▁నేర్ప	-10157
▁బహమనీ	-10158
▁బాంబే	-10159
▁మిషన్	-10160
▁మైళ్ళ	-10161
▁విడదీ	-10162
▁విహార	-10163
▁సీతను	-10164
ంబాన్ని	-10165
పోవడంతో	-10166
ాలీవుడ్	-10167
్రెడ్డి	-10168
▁అప్పుడ	-10169
▁ఋగ్వేద	-10170
▁ఒకరోజు	-10171
▁కలిసిన	-10172
▁కీర్తన	-10173
▁కుంకుమ	-10174
▁గాంధేయ	-10175
▁గ్రీకు	-10176
▁గ్రేట్	-10177
▁చావ్లా	-10178
▁జార్జ్	-10179
▁టిప్పు	-10180
▁తత్త్వ	-10181
▁నిత్యం	-10182
▁నిశ్చయ	-10183
▁నువ్వు	-10184
▁పడతాడు	-10185
▁ప్రాణం	-10186
▁ప్రేరణ	-10187
▁బంగారం	-10188
▁మాస్కో	-10189
▁మొగుడు	-10190
▁యోధులు	-10191
▁రాసాడు	-10192
▁వ్రాసి	-10193
స్తుండగా	-10194
▁ఆధిక్యత	-10195
▁ఉండేదని	-10196
▁ఛైర్మన్	-10197
▁దేవదాసు	-10198
▁దొరికిన	-10199
▁పరిష్కర	-10200
▁పాల్గొన	-10201
▁పీఠభూమి	-10202
▁పెద్దగా	-10203
▁ప్రక్కన	-10204
▁ప్రయోజన	-10205
▁ప్రశాంత	-10206
▁ప్రశ్ని	-10207
▁బదులుగా	-10208
▁భద్రాచల	-10209
▁లక్ష్యం	-10210
▁శేషగిరి	-10211
▁సంస్థను	-10212
▁సరిగ్గా	-10213
▁సరోజినీ	-10214
▁సర్దార్	-10215
▁స్వామివ	-10216
▁ఉన్నాయని	-10217
▁కంబైన్స్	-10218
▁నూజివీడు	-10219
▁యుద్ధాలు	-10220
▁వరంగల్లు	-10221
▁విధానాలు	-10222
▁గ్రామాలలో	-10223
▁తప్పనిసరి	-10224
▁ధర్మారావు	-10225
▁వ్యక్తిగా	-10226
▁సమావేశంలో	-10227
▁ఇంగ్లీషులో	-10228
▁నేతృత్వంలో	-10229
▁సంగీతాన్ని	-10230
▁కనుగొన్నారు	-10231
▁దేవాలయాన్ని	-10232
▁ఉత్తరప్రదేశ్	-10233
▁కార్యదర్శిగా	-10234
▁పరిపాలించారు	-10235
▁విడుదలయ్యాయి	-10236
▁శ్రీకాళహస్తి	-10237
▁పురపాలకసంఘంగా	-10238
▁ఐక్యరాజ్యసమితి	-10239
.3	-10240
డల	-10241
బం	-10242
ast	-10243
htm	-10244
ook	-10245
ult	-10246
und	-10247
కోగ	-10248
డన్	-10249
హాయ	-10250
ోత్	-10251
▁87	-10252
▁96	-10253
▁ఐన	-10254
angu	-10255
ంగూర	-10256
గాలు	-10257
డూరు	-10258
దాకా	-10259
దికి	-10260
దినం	-10261
పాది	-10262
రానా	-10263
వీడు	-10264
సిరి	-10265
స్వత	-10266
▁ఆనవ	-10267
▁ఐటీ	-10268
ండీస్	-10269
కములు	-10270
ట్లను	-10271
పాలతో	-10272
మ్ముల	-10273
లవల్ల	-10274
ళ్లలో	-10275
స్తాన	-10276
ాలాది	-10277
▁(199	-10278
▁1951	-10279
▁ఇజ్ర	-10280
▁ఓరుగ	-10281
▁కళ్ళ	-10282
▁గద్ద	-10283
▁టౌన్	-10284
▁తీర్	-10285
▁ఫ్లా	-10286
▁మహామ	-10287
▁విఫల	-10288
.1924)	-10289
.2011)	-10290
జాన్ని	-10291
జిక్యూ	-10292
మగళూరు	-10293
వచ్చిన	-10294
వారిని	-10295
్మెంట్	-10296
▁1925:	-10297
▁1928:	-10298
▁1942:	-10299
▁1954:	-10300
▁1963:	-10301
▁1977:	-10302
▁1992:	-10303
▁2012:	-10304
▁2023)	-10305
▁అంతగా	-10306
▁ఆజాద్	-10307
▁ఇష్టం	-10308
▁ఒంటరి	-10309
▁కాంప్	-10310
▁కొప్ప	-10311
▁గొర్ర	-10312
▁చీరాల	-10313
▁చేనేత	-10314
▁తొలగి	-10315
▁పట్నం	-10316
▁బదిలీ	-10317
▁బాల్య	-10318
▁భరద్వ	-10319
▁వివేక	-10320
▁సమరయో	-10321
▁సాళువ	-10322
నిర్మాత	-10323
హర్లాల్	-10324
▁అనుకూల	-10325
▁అనుసరి	-10326
▁ఆంగ్లో	-10327
▁కావాలి	-10328
▁కోటయ్య	-10329
▁చెరుకు	-10330
▁డెల్టా	-10331
▁దుగ్గి	-10332
▁దొంగలు	-10333
▁నలుమూల	-10334
▁నీళ్ళు	-10335
▁పండ్లు	-10336
▁మూలంగా	-10337
▁రంగనాయ	-10338
▁రాక్షస	-10339
▁సంపన్న	-10340
▁స్వరూప	-10341
▁హెన్రీ	-10342
ించకుండా	-10343
▁అప్పుడే	-10344
▁అర్జున్	-10345
▁ఉచితంగా	-10346
▁ధర్మవరం	-10347
▁నిర్దేశ	-10348
▁ప్రతాప్	-10349
▁ప్రభాకర	-10350
▁మహేంద్ర	-10351
▁రజతోత్స	-10352
▁వాడతారు	-10353
▁సోదరులు	-10354
▁హర్యానా	-10355
ాభివృద్ధి	-10356
▁దేవాలయము	-10357
▁విశాలమైన	-10358
▁విశేషాలు	-10359
▁శిల్పాలు	-10360
▁సినిమాకి	-10361
▁పీఠాధిపతి	-10362
▁వ్యాపించి	-10363
▁శాస్త్రము	-10364
▁సమరయోధులు	-10365
▁కొల్లాపూర్	-10366
▁విజయవంతమైన	-10367
▁శ్రీరాముడు	-10368
▁సినిమాలోని	-10369
▁పట్టాభిషేకం	-10370
▁సంవత్సరాలుగా	-10371
▁మంత్రివర్గంలో	-10372
▁వ్యవసాయాధారిత	-10373
ik	-10374
ఆగ	-10375
థు	-10376
50)	-10377
ant	-10378
కండ	-10379
కిల	-10380
త్క	-10381
పాఠ	-10382
పాప	-10383
రని	-10384
▁("	-10385
▁పట	-10386
.187	-10387
ence	-10388
కాలే	-10389
కోగా	-10390
ఖాతం	-10391
గానూ	-10392
గానో	-10393
చ్చె	-10394
దుని	-10395
నగరం	-10396
నెస్	-10397
మిక్	-10398
రును	-10399
సంపద	-10400
సిక్	-10401
స్రా	-10402
ేటర్	-10403
▁(10	-10404
▁1,0	-10405
▁177	-10406
▁అరి	-10407
▁కచే	-10408
▁కోప	-10409
▁జస్	-10410
▁తడి	-10411
▁దంత	-10412
▁ధరి	-10413
▁నటన	-10414
▁పదవ	-10415
▁బీర	-10416
▁మిష	-10417
▁యావ	-10418
▁రంజ	-10419
▁లలి	-10420
▁శాప	-10421
ప్పున	-10422
మాండ్	-10423
▁ఇటలీ	-10424
▁ఉచ్ఛ	-10425
▁కంభం	-10426
▁గురి	-10427
▁చాలు	-10428
▁డిజి	-10429
▁తరచూ	-10430
▁తీరం	-10431
▁తుది	-10432
▁దివా	-10433
▁దీవి	-10434
▁బోధన	-10435
▁వైస్	-10436
ండ్లలో	-10437
తినేని	-10438
పూడిలో	-10439
మంచిలి	-10440
మానియా	-10441
మాసంలో	-10442
రించిన	-10443
ల్లుడు	-10444
హరించి	-10445
ారచయిత	-10446
ించుకొ	-10447
ింపబడు	-10448
ోగ్రఫీ	-10449
▁1922:	-10450
▁1930:	-10451
▁1976:	-10452
▁1979:	-10453
▁అభిమన	-10454
▁ఇతిహా	-10455
▁చక్రం	-10456
▁జలపాత	-10457
▁తీర్ధ	-10458
▁తుర్క	-10459
▁ప్రాస	-10460
▁మౌలిక	-10461
▁రాష్ట	-10462
▁వాహనం	-10463
▁సంగతి	-10464
స్తామని	-10465
్మూర్తి	-10466
▁అవతారం	-10467
▁ఉయ్యాల	-10468
▁కారణాల	-10469
▁గమనించ	-10470
▁చేయాలి	-10471
▁జలాశయం	-10472
▁తీశారు	-10473
▁దీనినే	-10474
▁పచ్చని	-10475
▁పిలుపు	-10476
▁ప్రియు	-10477
▁యజమాని	-10478
▁రంగనాథ	-10479
▁రాజుగా	-10480
▁రీమేక్	-10481
▁శివారు	-10482
▁సాయంతో	-10483
దర్శకుడు	-10484
ించుకునే	-10485
▁అస్సామీ	-10486
▁నిర్ధార	-10487
▁పల్నాటి	-10488
▁పునర్వి	-10489
▁ప్రయోగం	-10490
▁బిరుదాం	-10491
▁రంగాలలో	-10492
▁రాజశ్రీ	-10493
▁విభిన్న	-10494
▁శ్రీనాథ	-10495
ప్రభుత్వం	-10496
▁ఉత్తర్వు	-10497
▁చాలావరకు	-10498
▁పోషించిన	-10499
▁సమయంలోనే	-10500
▁స్వామిని	-10501
▁హైస్కూల్	-10502
▁కాకతీయులు	-10503
▁కుటుంబాలు	-10504
▁చెప్పింది	-10505
▁జవహర్లాల్	-10506
▁భద్రాద్రి	-10507
▁భువనచంద్ర	-10508
▁ముఖ్యముగా	-10509
▁వెళుతుంది	-10510
▁హాస్పిటల్	-10511
▁క్షేత్రయ్య	-10512
▁నెల్లూరులో	-10513
▁భూపాలపల్లి	-10514
▁వాసిరెడ్డి	-10515
▁వ్యాప్తంగా	-10516
▁జాతీయస్థాయి	-10517
▁ఆంజనేయస్వామి	-10518
▁ప్రాజెక్టులు	-10519
▁మున్సిపాలిటీ	-10520
▁స్వీకరించారు	-10521
▁ప్రతిష్ఠాత్మక	-10522
▁విభజించబడింది	-10523
31	-10524
::	-10525
pr	-10526
ఃఖ	-10527
దప	-10528
/20	-10529
ard	-10530
ont	-10531
ంటీ	-10532
అని	-10533
గనై	-10534
భామ	-10535
మంద	-10536
మరి	-10537
మార	-10538
ముగ	-10539
రహద	-10540
వంద	-10541
▁66	-10542
▁Ra	-10543
ates	-10544
ions	-10545
కిని	-10546
క్కో	-10547
పట్న	-10548
రాట్	-10549
రామ్	-10550
ర్యు	-10551
వాని	-10552
శంకర	-10553
సిల్	-10554
▁0-6	-10555
▁220	-10556
▁23,	-10557
▁26,	-10558
▁అనూ	-10559
▁అహం	-10560
▁జమి	-10561
▁తాజ	-10562
▁దయా	-10563
▁మలి	-10564
▁లేన	-10565
▁వరం	-10566
▁వేష	-10567
ందాడు	-10568
ఇక్కడ	-10569
డిసెం	-10570
ధికార	-10571
రామన్	-10572
ీవుడ్	-10573
ుడికి	-10574
ుడిని	-10575
▁ఆచంట	-10576
▁ఎంచు	-10577
▁కాస్	-10578
▁క్రా	-10579
▁గీతా	-10580
▁చంపే	-10581
▁తరఫు	-10582
▁దసరా	-10583
▁దాల్	-10584
▁పొంగ	-10585
▁మాని	-10586
▁ముఠా	-10587
▁మూసి	-10588
▁మెక్	-10589
▁రచనా	-10590
▁రామా	-10591
▁వంతు	-10592
▁సాధు	-10593
▁సూరి	-10594
▁స్వి	-10595
.2010)	-10596
గొట్టు	-10597
దీనిని	-10598
నేషియా	-10599
పడతాడు	-10600
బ్రోలు	-10601
సాఫ్ట్	-10602
సిద్ధి	-10603
స్థానీ	-10604
▁1924:	-10605
▁1932:	-10606
▁1935:	-10607
▁1940:	-10608
▁1966:	-10609
▁అదుపు	-10610
▁ఉగాది	-10611
▁కష్టం	-10612
▁చదివే	-10613
▁ట్యాం	-10614
▁తపాలా	-10615
▁తెప్ప	-10616
▁ధైర్య	-10617
▁నాయకు	-10618
▁నిరసన	-10619
▁పంపిన	-10620
▁భట్టి	-10621
▁మౌర్య	-10622
▁రోమన్	-10623
▁విపరీ	-10624
▁వియత్	-10625
▁వ్రాత	-10626
▁సంచిక	-10627
▁సీఆర్	-10628
▁హెచ్చ	-10629
archive	-10630
▁ఆవరణలో	-10631
▁కథకుడు	-10632
▁కోడూరు	-10633
▁గోంగూర	-10634
▁చర్యలు	-10635
▁దిగువన	-10636
▁నిరాకర	-10637
▁పాలనకు	-10638
▁పెక్కు	-10639
▁భీమన్న	-10640
▁మరొకటి	-10641
▁లోనికి	-10642
▁వివాదం	-10643
▁వీరిని	-10644
▁వెలికి	-10645
▁సురవరం	-10646
▁స్థావర	-10647
ేశ్వర్లు	-10648
▁అన్నయ్య	-10649
▁ఆశ్చర్య	-10650
▁ఇన్స్పె	-10651
▁ఇరాన్లో	-10652
▁కూర్చిన	-10653
▁గురుకుల	-10654
▁దట్టమైన	-10655
▁బ్రతుకు	-10656
▁రావడంతో	-10657
▁విటమిన్	-10658
▁వెనక్కి	-10659
▁సంఘసంస్	-10660
▁సంస్థకు	-10661
తుడయ్యాడు	-10662
▁అన్నదానం	-10663
▁అవశేషాలు	-10664
▁ఓరుగల్లు	-10665
▁కవయిత్రి	-10666
▁కాలేజీలో	-10667
▁చెందినవి	-10668
▁తిరుగుతూ	-10669
▁తీర్మానం	-10670
▁తీసుకువె	-10671
▁మంగళవారం	-10672
▁విరివిగా	-10673
▁వ్యాప్తి	-10674
▁సంగీతంలో	-10675
▁స్వీకారం	-10676
▁ఇన్సులిన్	-10677
▁ఉస్మానియా	-10678
▁గొల్లపూడి	-10679
▁చంద్రశేఖర	-10680
▁మాయాబజార్	-10681
▁సంపాదించి	-10682
▁సంస్కరణలు	-10683
▁సినిమాలకు	-10684
▁జమ్మలమడుగు	-10685
▁ఉపాధ్యాయుడు	-10686
▁చిలకలూరిపేట	-10687
▁చేస్తుంటారు	-10688
▁ప్రసిద్ధిచె	-10689
▁ప్రజాప్రతిని	-10690
▁శ్రీకృష్ణుడు	-10691
▁కార్యక్రమాలను	-10692
▁వ్యవహరిస్తారు	-10693
||	-10694
40)	-10695
దయా	-10696
ధ్వ	-10697
భిన	-10698
వరు	-10699
వరో	-10700
ూలన	-10701
ేవీ	-10702
▁99	-10703
▁or	-10704
▁pr	-10705
▁అథ	-10706
కర్ల	-10707
కాండ	-10708
కుంత	-10709
ద్రో	-10710
నిన్	-10711
పుల్	-10712
మ్మట	-10713
యాన్	-10714
వాయి	-10715
వాహన	-10716
షియం	-10717
స్రో	-10718
▁(15	-10719
▁10.	-10720
▁ఆప్	-10721
▁ఆము	-10722
▁ఎక్	-10723
▁చాప	-10724
▁జాత	-10725
▁తలు	-10726
▁పంద	-10727
▁ఫోట	-10728
▁బాట	-10729
▁మాఘ	-10730
▁శక్	-10731
▁సరా	-10732
▁సవర	-10733
ండేది	-10734
కన్నా	-10735
క్ష్య	-10736
జొన్న	-10737
దర్శన	-10738
ధునిక	-10739
పప్పు	-10740
బిడ్డ	-10741
రెండు	-10742
ాపూరు	-10743
ించగల	-10744
▁1929	-10745
▁ISBN	-10746
▁అంకు	-10747
▁క్లా	-10748
▁ఖనిజ	-10749
▁గుప్	-10750
▁జగదీ	-10751
▁జోన్	-10752
▁తీరా	-10753
▁పంపు	-10754
▁పరిగ	-10755
▁పాక్	-10756
▁పైడి	-10757
▁బురు	-10758
▁రజనీ	-10759
▁శతకం	-10760
▁హాయి	-10761
.2014)	-10762
ఆంగ్లం	-10763
కపోవడం	-10764
రాజ్యం	-10765
సేవారు	-10766
స్ట్రీ	-10767
▁1957:	-10768
▁1978:	-10769
▁అడ్డం	-10770
▁అయిదు	-10771
▁ఆకులు	-10772
▁ఆరాధన	-10773
▁ఇంకొక	-10774
▁ఏర్పా	-10775
▁కొలువ	-10776
▁కొవ్వ	-10777
▁క్యాం	-10778
▁క్లబ్	-10779
▁జాతుల	-10780
▁తరఫున	-10781
▁దగ్గు	-10782
▁దళాలు	-10783
▁దశాబ్	-10784
▁దౌత్య	-10785
▁నుంచీ	-10786
▁పోరాడ	-10787
▁బందరు	-10788
▁మెట్ట	-10789
▁వైపున	-10790
▁వ్యావ	-10791
▁హాసన్	-10792
కుంటాయి	-10793
కుండానే	-10794
చార్యుల	-10795
సాహిత్య	-10796
▁అచ్యుత	-10797
▁ఆధారిత	-10798
▁ఇద్దరి	-10799
▁ఉండేలా	-10800
▁తెస్తూ	-10801
▁ద్విపద	-10802
▁న్యాయం	-10803
▁పడింది	-10804
▁పర్యాయ	-10805
▁పాత్రల	-10806
▁పులివె	-10807
▁పెట్టే	-10808
▁పేరుగల	-10809
▁బొమ్మల	-10810
▁మంచిది	-10811
▁వైద్యం	-10812
▁శిల్పి	-10813
త్వానికి	-10814
లున్నాయి	-10815
▁ఇక్కడకు	-10816
▁ద్రాక్ష	-10817
▁ధరించిన	-10818
▁ప్రజ్ఞా	-10819
▁ప్రతిభా	-10820
▁ప్రదానం	-10821
▁మనుషులు	-10822
▁వర్గాలు	-10823
▁వేరుశనగ	-10824
▁వ్యంగ్య	-10825
▁వ్యక్తం	-10826
▁శివలింగ	-10827
▁సినీనటి	-10828
▁సుధాకర్	-10829
▁కృష్ణుని	-10830
▁నిలిచాయి	-10831
▁మిల్లులు	-10832
▁రహదారిలో	-10833
▁వెంకటరమణ	-10834
▁సీఆర్డీఏ	-10835
▁సుందరయ్య	-10836
▁అభిషేకాలు	-10837
▁ఉపయోగించే	-10838
▁త్యాగరాజు	-10839
▁దేవాలయంలో	-10840
▁ప్రారంభమై	-10841
▁బిరుదాంకి	-10842
▁వస్త్రాలు	-10843
▁విజయశాంతి	-10844
▁వ్యవస్థలో	-10845
▁సంభవించిన	-10846
▁ఉత్తర్వులు	-10847
▁ఉద్యమానికి	-10848
▁కలుగుతుంది	-10849
▁గుర్తించిన	-10850
▁దర్శకునిగా	-10851
▁నిర్మాణాలు	-10852
▁నిర్వహించు	-10853
▁పునరుద్ధరణ	-10854
▁ప్రభుత్వము	-10855
▁ప్రాంతములో	-10856
▁బాక్సాఫీస్	-10857
▁మహాలక్ష్మి	-10858
▁స్వీకరించి	-10859
▁కుటుంబాన్ని	-10860
▁కేంద్రానికి	-10861
▁జారీచేసింది	-10862
▁శతాబ్దానికి	-10863
▁ఏర్పాటుచేసిన	-10864
▁పుణ్యక్షేత్రం	-10865
▁హైదరాబాదులోను	-10866
▁గుర్తించబడింది	-10867
▁చిత్రీకరించారు	-10868
%)	-10869
AT	-10870
తమ	-10871
-17	-10872
30)	-10873
గము	-10874
జాం	-10875
పాయ	-10876
యాన	-10877
▁76	-10878
▁8.	-10879
▁ధో	-10880
జాన్	-10881
పచ్చ	-10882
పద్మ	-10883
బ్రి	-10884
రియం	-10885
హిని	-10886
ాగ్ర	-10887
ానొక	-10888
ామన్	-10889
▁అనా	-10890
▁ఈజి	-10891
▁కేల	-10892
▁ఖ్య	-10893
▁గండ	-10894
▁గోన	-10895
▁జనం	-10896
▁తాగ	-10897
▁పడే	-10898
▁బోయ	-10899
▁మనవ	-10900
▁లోత	-10901
▁వదల	-10902
ంగానూ	-10903
మణ్యం	-10904
్యాణం	-10905
్రాన్	-10906
▁(197	-10907
▁ఎవ్వ	-10908
▁కుదు	-10909
▁కెరీ	-10910
▁గౌడ్	-10911
▁దోచు	-10912
▁నర్త	-10913
▁నాయక	-10914
▁పోల్	-10915
▁బెర్	-10916
▁మాను	-10917
▁రాని	-10918
▁రాలే	-10919
▁వాణీ	-10920
▁వికా	-10921
▁హాజర	-10922
.1922)	-10923
.1931)	-10924
కుటుంబ	-10925
డ్డాయి	-10926
దర్శన్	-10927
నిర్మల	-10928
పోతారు	-10929
ప్రపంచ	-10930
సినిమా	-10931
ాలలోని	-10932
▁1914:	-10933
▁1933:	-10934
▁1967:	-10935
▁1994:	-10936
▁అట్టి	-10937
▁ఆర్మీ	-10938
▁ఊళ్ళో	-10939
▁కలయిక	-10940
▁కాళ్ళ	-10941
▁ఘర్షణ	-10942
▁చేపలు	-10943
▁జయప్ర	-10944
▁నేపాల	-10945
▁బజారు	-10946
▁మండపం	-10947
▁మళ్లీ	-10948
▁మృత్య	-10949
▁రావణా	-10950
▁రిజర్	-10951
▁స్వాగ	-10952
శ్చంద్ర	-10953
ిస్తాడు	-10954
▁అయోధ్య	-10955
▁ఉత్సాహ	-10956
▁కాపురం	-10957
▁గణేశన్	-10958
▁జాతికి	-10959
▁జ్ఞానం	-10960
▁దీక్షి	-10961
▁విక్రమ	-10962
▁సమర్పణ	-10963
▁సాధించ	-10964
▁సిద్ది	-10965
▁స్క్రి	-10966
▁స్నేహం	-10967
▁అంకితమి	-10968
▁అంతేకాక	-10969
▁అందుకని	-10970
▁అద్దంకి	-10971
▁అబ్బాయి	-10972
▁ఆంధ్రుల	-10973
▁ఆసియాలో	-10974
▁ఉండటంతో	-10975
▁కారణాలు	-10976
▁చెందాయి	-10977
▁చేపట్టి	-10978
▁చొప్పున	-10979
▁జంతువుల	-10980
▁దెబ్బతి	-10981
▁నాటకరంగ	-10982
▁నిరంకుశ	-10983
▁పదాన్ని	-10984
▁భరద్వాజ	-10985
▁యాక్షన్	-10986
▁వర్షాలు	-10987
▁వేసింది	-10988
▁అనుసంధాన	-10989
▁కళాశాలఒక	-10990
▁కీర్తనలు	-10991
▁కుతుబ్షా	-10992
▁చంద్రుని	-10993
▁టెన్నిస్	-10994
▁దండెత్తి	-10995
▁నిడదవోలు	-10996
▁పత్రికను	-10997
▁ప్రార్థన	-10998
▁రైలుబండి	-10999
▁లక్ష్మణ్	-11000
▁వన్యప్రా	-11001
▁విజయవంతం	-11002
▁సమస్యలను	-11003
▁సముద్రపు	-11004
▁సాగునీటి	-11005
▁సుబ్బయ్య	-11006
కరిస్తుంది	-11007
▁అంగీకరించ	-11008
▁అమ్మాయిని	-11009
▁అర్జునుడు	-11010
▁ఎగ్జిక్యూ	-11011
▁రాఘవేంద్ర	-11012
▁విజయాన్ని	-11013
▁కాలక్రమేణా	-11014
▁చంద్రమోహన్	-11015
▁పర్యవేక్షణ	-11016
▁ప్రాజెక్ట్	-11017
▁విస్తారంగా	-11018
▁న్యాయస్థానం	-11019
▁ప్రతాపరుద్ర	-11020
▁విద్యాసాగర్	-11021
▁తీసుకున్నారు	-11022
▁ప్రతాపరెడ్డి	-11023
▁యాత్రాచరిత్ర	-11024
▁రూపొందించారు	-11025
▁రాఘవేంద్రరావు	-11026
gl	-11027
ru	-11028
ఖు	-11029
గళ	-11030
చౌ	-11031
నొ	-11032
80)	-11033
hem	-11034
కనే	-11035
కోశ	-11036
గంట	-11037
డలో	-11038
ణుల	-11039
పవన	-11040
మరణ	-11041
▁నల	-11042
▁వొ	-11043
ంట్ల	-11044
గానీ	-11045
జెస్	-11046
తాలు	-11047
నుగు	-11048
ప్స్	-11049
ఫ్టు	-11050
భట్ట	-11051
మిన్	-11052
వేషణ	-11053
సుకు	-11054
▁116	-11055
▁178	-11056
▁28,	-11057
▁516	-11058
▁517	-11059
▁533	-11060
▁అడ్	-11061
▁ఆపై	-11062
▁కంఠ	-11063
▁ఖడ్	-11064
▁చలి	-11065
▁చిక	-11066
▁జంగ	-11067
▁పడవ	-11068
▁మాగ	-11069
▁మాత	-11070
▁మూగ	-11071
▁యాన	-11072
▁రంప	-11073
▁హొయ	-11074
ట్లలో	-11075
మున్న	-11076
వేసిన	-11077
▁1944	-11078
▁1968	-11079
▁కథలో	-11080
▁కొంగ	-11081
▁కోలు	-11082
▁తొండ	-11083
▁త్రో	-11084
▁నామం	-11085
▁పూలు	-11086
▁ఫౌండ	-11087
▁బిర్	-11088
▁మీకు	-11089
▁మేడ్	-11090
▁యాదవ	-11091
▁రారా	-11092
▁లోకం	-11093
▁వెను	-11094
▁వేలు	-11095
▁వ్యో	-11096
దానికి	-11097
పోర్ట్	-11098
బడినవి	-11099
యానికి	-11100
లావస్థ	-11101
వాసులు	-11102
ాంశాలు	-11103
్యాలతో	-11104
▁2017:	-11105
▁అదిలా	-11106
▁అధిగమ	-11107
▁అనబడే	-11108
▁ఆరంభం	-11109
▁ఎంటర్	-11110
▁కుప్ప	-11111
▁గదులు	-11112
▁గొంతు	-11113
▁జనగామ	-11114
▁బంగార	-11115
▁భక్తు	-11116
▁భాగము	-11117
▁మధ్యన	-11118
▁ముళ్ళ	-11119
▁మేజర్	-11120
▁యుగము	-11121
▁సామ్య	-11122
▁సెన్స	-11123
సిందిగా	-11124
▁ఎవరైనా	-11125
▁కొట్టి	-11126
▁కొన్నా	-11127
▁జాలాది	-11128
▁ద్వీపం	-11129
▁నగర్లో	-11130
▁నిప్పు	-11131
▁పదవిలో	-11132
▁ప్రగతి	-11133
▁భూకంపం	-11134
▁లభించే	-11135
▁వెస్టీ	-11136
▁వేశారు	-11137
▁వైకుంఠ	-11138
▁శాసనము	-11139
చార్యుడు	-11140
పురంలోనూ	-11141
బ్రమణ్యం	-11142
ాంతాన్ని	-11143
▁ఆయుధాలు	-11144
▁కష్టాలు	-11145
▁కీరవాణి	-11146
▁చెప్పడం	-11147
▁దర్శనీయ	-11148
▁నిర్బంధ	-11149
▁నెల్సన్	-11150
▁మణిపూర్	-11151
▁ముఖర్జీ	-11152
▁రావణుడు	-11153
▁వున్నది	-11154
లింగాన్ని	-11155
▁అవకాశాలు	-11156
▁ఆనవాయితీ	-11157
▁కట్టడాలు	-11158
▁గణనీయమైన	-11159
▁గర్భగుడి	-11160
▁నివసించే	-11161
▁బలవంతంగా	-11162
▁బాలీవుడ్	-11163
▁వాణిశ్రీ	-11164
▁వేర్వేరు	-11165
▁సురేంద్ర	-11166
▁స్వామికి	-11167
▁ఆంజనేయులు	-11168
▁చల్లపల్లి	-11169
▁తప్పకుండా	-11170
▁పుట్టింది	-11171
▁రాజేశ్వరి	-11172
▁సిరిసిల్ల	-11173
▁అధ్యక్షులు	-11174
▁పండిస్తారు	-11175
▁ప్రేక్షకుల	-11176
▁సార్వత్రిక	-11177
▁స్టూడియోస్	-11178
▁ఇందిరాగాంధీ	-11179
▁ఎన్నికైనారు	-11180
▁ప్రచురణకర్త	-11181
▁వెస్టీండీస్	-11182
▁సాంబశివరావు	-11183
▁క్రీడాకారిణి	-11184
▁స్వామివారిని	-11185
▁అంతర్జాతీయంగా	-11186
▁విడుదలయ్యింది	-11187
▁హైదరాబాదులోని	-11188
▁ప్రెసిడెన్సీలో	-11189
1]	-11190
co	-11191
uc	-11192
పత	-11193
శే	-11194
70)	-11195
ber	-11196
ond	-11197
ంతి	-11198
చనం	-11199
ణిమ	-11200
దిశ	-11201
నార	-11202
మనం	-11203
సలి	-11204
▁71	-11205
▁As	-11206
▁గం	-11207
▁డొ	-11208
▁తజ	-11209
▁సత	-11210
▁హజ	-11211
form	-11212
గుప్	-11213
టిగా	-11214
డ్లు	-11215
నందు	-11216
నేటి	-11217
పరచు	-11218
రమ్మ	-11219
రారు	-11220
ర్రి	-11221
వంతి	-11222
వోయి	-11223
శీలి	-11224
ాంక్	-11225
ారిన	-11226
▁అడగ	-11227
▁ఆను	-11228
▁చాగ	-11229
▁చౌడ	-11230
▁ధను	-11231
▁నడవ	-11232
▁నదు	-11233
▁పిన	-11234
▁పెన	-11235
▁పోవ	-11236
▁భలే	-11237
▁మర్	-11238
▁రమా	-11239
▁లతా	-11240
▁లేఖ	-11241
కపోతే	-11242
గులకు	-11243
స్టల్	-11244
స్థిర	-11245
హారిక	-11246
ార్జు	-11247
▁1931	-11248
▁ఎఱ్ఱ	-11249
▁కూలీ	-11250
▁క్రో	-11251
▁చమత్	-11252
▁పీఠం	-11253
▁ఫ్రీ	-11254
▁బారి	-11255
▁మంజీ	-11256
▁వెర్	-11257
▁హ్యూ	-11258
.1908)	-11259
.2006)	-11260
00,000	-11261
గ్రేడ్	-11262
ట్లేదు	-11263
ణానికి	-11264
పాలుడు	-11265
మానులు	-11266
ములుగా	-11267
స్తుండ	-11268
ారాయణా	-11269
▁1915:	-11270
▁1927:	-11271
▁అత్యా	-11272
▁ఎడారి	-11273
▁ఎడ్యు	-11274
▁ఎర్రన	-11275
▁ఒడిశా	-11276
▁కన్నీ	-11277
▁కపూర్	-11278
▁కోయిల	-11279
▁గుప్త	-11280
▁చమురు	-11281
▁జమ్ము	-11282
▁దత్తత	-11283
▁పచ్చి	-11284
▁పుత్ర	-11285
▁ఫ్రెడ	-11286
▁మద్ది	-11287
▁లొంగి	-11288
▁శారదా	-11289
▁సోమయా	-11290
మునుండి	-11291
▁అంతర్భ	-11292
▁అతడిని	-11293
▁ఆక్రమణ	-11294
▁ఆత్మకథ	-11295
▁ఆర్గనై	-11296
▁ఇవన్నీ	-11297
▁కొందరి	-11298
▁గుర్తి	-11299
▁నెంబరు	-11300
▁భర్తను	-11301
▁రాజుకు	-11302
▁రామాను	-11303
▁రికార్	-11304
▁శిల్పం	-11305
▁సమైక్య	-11306
పడుతున్న	-11307
ప్రస్తుత	-11308
▁ఇస్తాడు	-11309
▁కళాకారు	-11310
▁జగన్నాధ	-11311
▁నౌకాశ్ర	-11312
▁మల్లాది	-11313
▁మొక్కలు	-11314
▁యుద్ధము	-11315
▁లచ్చన్న	-11316
▁శ్రీధర్	-11317
▁సీతారాం	-11318
▁క్రిస్టి	-11319
▁చేసేవాడు	-11320
▁జంతువులు	-11321
▁తండ్రిని	-11322
▁దృష్టిలో	-11323
▁దేశంలోనే	-11324
▁పరిరక్షణ	-11325
▁పార్టీలు	-11326
▁పుస్తకాల	-11327
▁యాదాద్రి	-11328
▁రుక్మిణీ	-11329
▁వినుకొండ	-11330
▁వెళ్ళారు	-11331
▁సైనికులు	-11332
▁స్థానాలు	-11333
▁స్థాయికి	-11334
▁అందుకుంది	-11335
▁ఆపరేటింగ్	-11336
▁ఇబ్బందులు	-11337
▁డయాబెటిస్	-11338
▁ముగిసింది	-11339
▁సిద్ధాంతం	-11340
▁ఉత్పత్తులు	-11341
▁చిక్మగళూరు	-11342
▁జిల్లాలోనే	-11343
▁బ్రహ్మానంద	-11344
▁రామానాయుడు	-11345
శాస్త్రవేత్త	-11346
▁క్రైస్తవులు	-11347
▁జన్మించింది	-11348
▁డెవలప్మెంట్	-11349
▁త్రిపురనేని	-11350
▁వినియోగదారు	-11351
▁సంప్రదాయాలు	-11352
▁ఉద్భవించింది	-11353
సృ	-11354
00,	-11355
oft	-11356
దీత	-11357
పది	-11358
బలి	-11359
విం	-11360
శిర	-11361
ానగ	-11362
ూరీ	-11363
ేది	-11364
▁),	-11365
▁82	-11366
▁An	-11367
అనగా	-11368
ఇంగ్	-11369
కాన్	-11370
టాలు	-11371
టుకు	-11372
డుతూ	-11373
పిరి	-11374
బ్బా	-11375
భాగవ	-11376
ముఖ్	-11377
యారు	-11378
యును	-11379
లాగే	-11380
వాటి	-11381
వేదన	-11382
సూరి	-11383
ాలకి	-11384
ొకటి	-11385
▁105	-11386
▁174	-11387
▁29,	-11388
▁30,	-11389
▁800	-11390
▁అక్	-11391
▁అపు	-11392
▁ఎండ	-11393
▁కమీ	-11394
▁కొమ	-11395
▁గజప	-11396
▁జయం	-11397
▁దర్	-11398
▁దృఢ	-11399
▁నమూ	-11400
▁నాన	-11401
▁పదు	-11402
▁మకర	-11403
▁హవే	-11404
ండేవి	-11405
కాలము	-11406
కుండి	-11407
తాయని	-11408
భాషగా	-11409
యొక్క	-11410
శాలలో	-11411
స్తంభ	-11412
ాగ్రా	-11413
▁(195	-11414
▁అరబ్	-11415
▁అసంత	-11416
▁ఉప్ప	-11417
▁కెమె	-11418
▁కోలా	-11419
▁ఖర్చ	-11420
▁ఖైదీ	-11421
▁గౌతమ	-11422
▁ట్యూ	-11423
▁నాణే	-11424
▁పతాక	-11425
▁పాదు	-11426
▁పోయే	-11427
▁బోస్	-11428
▁శేషా	-11429
▁సంహర	-11430
▁సన్మ	-11431
▁సాను	-11432
ందరినీ	-11433
మార్లు	-11434
మెంటరీ	-11435
రాబాదు	-11436
ర్లకోట	-11437
ల్లోని	-11438
శ్రద్ధ	-11439
సుందరి	-11440
ారులను	-11441
▁1926:	-11442
▁1938:	-11443
▁1958:	-11444
▁2002:	-11445
▁ఆనందం	-11446
▁ఆశ్రయ	-11447
▁కళారూ	-11448
▁కోరస్	-11449
▁గౌతమీ	-11450
▁చేయుట	-11451
▁తులసి	-11452
▁నెమలి	-11453
▁బుట్ట	-11454
▁బ్లాగ	-11455
▁రక్తం	-11456
▁రాజైన	-11457
▁రాయచో	-11458
▁వస్తూ	-11459
▁విజేత	-11460
▁వేడుక	-11461
▁శుభ్ర	-11462
▁సెక్ర	-11463
▁సేకరణ	-11464
కొండూరు	-11465
ించినది	-11466
ించెదరు	-11467
▁Indian	-11468
▁ఇటీవలి	-11469
▁ఎకరాలు	-11470
▁ఒకదాని	-11471
▁కట్టడం	-11472
▁కల్పనా	-11473
▁కవితలు	-11474
▁గ్యాస్	-11475
▁గ్రూప్	-11476
▁దక్కను	-11477
▁నిలుపు	-11478
▁పాత్రధ	-11479
▁పాలనను	-11480
▁పిడుగు	-11481
▁ప్రెస్	-11482
▁బుచ్చి	-11483
▁మంత్రం	-11484
▁మానవతా	-11485
▁రసాయనం	-11486
▁వనరులు	-11487
▁వహించి	-11488
▁సంక్షో	-11489
▁సిక్కు	-11490
▁స్పేస్	-11491
డిసెంబరు	-11492
పుల్లయ్య	-11493
▁అయ్యారు	-11494
▁ఆర్యసమా	-11495
▁ఎమ్మెల్	-11496
▁దేశాలకు	-11497
▁నటుడిగా	-11498
▁పురాణాల	-11499
▁పేర్లతో	-11500
▁ప్రయత్న	-11501
▁మతపరమైన	-11502
▁మరిన్ని	-11503
▁మాత్రము	-11504
▁మున్నగు	-11505
▁యాదగిరి	-11506
▁రాకుండా	-11507
▁రాజ్యము	-11508
▁శిల్పకళ	-11509
▁సమకాలీన	-11510
అక్కినేని	-11511
▁అవసరాలకు	-11512
▁కలిగింది	-11513
▁కొండవీటి	-11514
▁గురువులు	-11515
▁గ్రానైట్	-11516
▁జాబితాలో	-11517
▁ట్రాన్స్	-11518
▁తాతినేని	-11519
▁మొత్తంలో	-11520
▁సరికొత్త	-11521
▁తాడిపత్రి	-11522
▁నెమ్మదిగా	-11523
▁ప్రతిరోజూ	-11524
▁ప్రాంతంగా	-11525
▁భాషావేత్త	-11526
▁మహాసముద్ర	-11527
▁వహించింది	-11528
▁వినాయకుడు	-11529
▁వ్యాఖ్యాత	-11530
▁శాతవాహనుల	-11531
▁సభ్యులుగా	-11532
▁సాగుతుంది	-11533
▁కుమార్తెలు	-11534
▁ప్రదేశాలలో	-11535
▁మొక్కజొన్న	-11536
▁వ్యాఖ్యాని	-11537
▁గోపాలరెడ్డి	-11538
▁దక్షిణాసియా	-11539
ించుకోవడానికి	-11540
▁వ్యవహరించాడు	-11541
▁కృష్ణదేవరాయలు	-11542
▁దక్షిణాఫ్రికా	-11543
.4	-11544
రథ	-11545
inu	-11546
ంటో	-11547
కోన	-11548
ఖాత	-11549
తగా	-11550
దీయ	-11551
మిం	-11552
వేం	-11553
ాపర	-11554
ాయీ	-11555
▁re	-11556
1.10	-11557
tern	-11558
గూరు	-11559
డివి	-11560
నిలో	-11561
యిస్	-11562
ర్డీ	-11563
లాలు	-11564
లుకు	-11565
వ్వా	-11566
స్టో	-11567
ించడ	-11568
ుండి	-11569
▁125	-11570
▁210	-11571
▁ఎలు	-11572
▁ఒరి	-11573
▁జవా	-11574
▁పృథ	-11575
▁మిల	-11576
▁లాగ	-11577
▁వేమ	-11578
జనవరి	-11579
రుసటి	-11580
వాడలో	-11581
సూర్య	-11582
▁1925	-11583
▁కొల్	-11584
▁చార్	-11585
▁తోటి	-11586
▁నగదు	-11587
▁లారీ	-11588
▁వితం	-11589
▁శైలజ	-11590
▁సంగం	-11591
▁సంయు	-11592
▁సారా	-11593
చ్చేరి	-11594
ట్రిక్	-11595
పాత్రా	-11596
పేట్లో	-11597
బెట్టు	-11598
వేశారు	-11599
శిల్పి	-11600
సాగారు	-11601
ించబడే	-11602
▁1908:	-11603
▁1923:	-11604
▁1988:	-11605
▁2004:	-11606
▁అతిథి	-11607
▁అనుమత	-11608
▁అర్హత	-11609
▁ఆర్కి	-11610
▁ఆహ్లా	-11611
▁ఎక్కు	-11612
▁కిరణ్	-11613
▁గణేష్	-11614
▁చవితి	-11615
▁తీర్చ	-11616
▁దత్తా	-11617
▁నాయిక	-11618
▁పలికి	-11619
▁మొల్ల	-11620
▁రామన్	-11621
▁లైబ్ర	-11622
▁వదిలే	-11623
▁వాడిన	-11624
కాకుండా	-11625
తుంటాడు	-11626
సంస్కృత	-11627
్యానికి	-11628
▁ఆందోళన	-11629
▁ఏర్పరు	-11630
▁చేశాయి	-11631
▁టన్నుల	-11632
▁నాట్యం	-11633
▁నాల్గవ	-11634
▁నాస్తి	-11635
▁పాటుగా	-11636
▁ప్రాబల	-11637
▁మరుసటి	-11638
▁మలయాళం	-11639
▁స్టాక్	-11640
▁స్వదేశ	-11641
▁అందరినీ	-11642
▁చండీగఢ్	-11643
▁చదివాడు	-11644
▁జస్టిస్	-11645
▁పాత్రకు	-11646
▁బాలరాజు	-11647
▁బెనర్జీ	-11648
▁వర్గీకర	-11649
▁వార్తలు	-11650
▁విచిత్ర	-11651
▁విరుద్ధ	-11652
▁సంస్థలో	-11653
▁సమయములో	-11654
▁సూపర్హి	-11655
▁హిరణ్యక	-11656
కోవటానికి	-11657
ించినవారు	-11658
▁ఇప్పటికి	-11659
▁కొలంబియా	-11660
▁చేయవచ్చు	-11661
▁చేసుకునే	-11662
▁చేస్తాయి	-11663
▁తెలిపాడు	-11664
▁దశాబ్దాల	-11665
▁నాగభూషణం	-11666
▁నివృత్తి	-11667
▁పొందినది	-11668
▁మరణానికి	-11669
▁రాజ్యంగా	-11670
▁రాత్రికి	-11671
▁వున్నాయి	-11672
▁స్థితిలో	-11673
▁స్వచ్ఛంద	-11674
▁హిందువుల	-11675
రామచంద్రన్	-11676
స్తుంటుంది	-11677
▁అనుకూలంగా	-11678
▁అభయారణ్యం	-11679
▁కర్మాగారం	-11680
▁కుమారుడైన	-11681
▁తెలంగాణకు	-11682
▁దగ్గరలోని	-11683
▁నిర్మాతగా	-11684
▁పాల్గొన్న	-11685
▁ప్రసారాలు	-11686
▁మార్గదర్శ	-11687
▁రాజధానిని	-11688
▁విశ్రాంతి	-11689
▁ఇండోనేషియా	-11690
▁ఉండవచ్చును	-11691
▁ఎన్నికైంది	-11692
▁కాలక్రమంలో	-11693
▁ప్రస్తుతము	-11694
▁విశిష్టమైన	-11695
▁సీతారామయ్య	-11696
▁స్థానాన్ని	-11697
▁ఆమోదించింది	-11698
▁పరిస్థితులు	-11699
▁భట్టిప్రోలు	-11700
▁రాజమండ్రిలో	-11701
▁నరసింహస్వామి	-11702
▁దినోత్సవాన్ని	-11703
▁వెంకటేశ్వర్లు	-11704
▁శాస్త్రజ్ఞుడు	-11705
▁కార్యక్రమాన్ని	-11706
▁మహారాష్ట్రలోని	-11707
-4	-11708
ge	-11709
కడ	-11710
మట	-11711
ఱు	-11712
.15	-11713
500	-11714
har	-11715
క్వ	-11716
ఖాన	-11717
చోడ	-11718
తడు	-11719
దన్	-11720
నస్	-11721
నిష	-11722
పంట	-11723
బలం	-11724
బాం	-11725
లము	-11726
శార	-11727
సమర	-11728
హైద	-11729
▁89	-11730
▁టు	-11731
▁మస	-11732
▁వూ	-11733
▁సన	-11734
ంక్ష	-11735
క్కొ	-11736
జన్మ	-11737
డ్లీ	-11738
దంతా	-11739
ఫాను	-11740
మాసం	-11741
లికా	-11742
వ్యవ	-11743
హారీ	-11744
ాయతి	-11745
ాలనూ	-11746
ూర్జ	-11747
ేకర్	-11748
▁11.	-11749
▁అమి	-11750
▁కట్	-11751
▁గది	-11752
▁చిర	-11753
▁ధనం	-11754
▁నమః	-11755
▁మది	-11756
▁మౌల	-11757
▁సుం	-11758
▁స్ర	-11759
ండూరు	-11760
కాయలు	-11761
గలిగే	-11762
గ్రహం	-11763
త్రము	-11764
న్నిం	-11765
పత్రం	-11766
ప్పుడ	-11767
ములైన	-11768
వాడని	-11769
శ్వాస	-11770
సంగీత	-11771
ాగూర్	-11772
ానగర్	-11773
ామయ్య	-11774
ార్క్	-11775
▁1936	-11776
▁Publ	-11777
▁అమర్	-11778
▁అల్ప	-11779
▁కావే	-11780
▁కొడవ	-11781
▁కొలు	-11782
▁ఖైదు	-11783
▁గడ్డ	-11784
▁ఛాయా	-11785
▁తినే	-11786
▁దాచు	-11787
▁దృక్	-11788
▁దేవ్	-11789
▁దేశా	-11790
▁నేరం	-11791
▁పడకల	-11792
▁పరాజ	-11793
▁పీవీ	-11794
▁బ్రౌ	-11795
▁మోసం	-11796
▁సత్త	-11797
▁సునీ	-11798
▁హన్మ	-11799
.1925)	-11800
కాల్లో	-11801
తమైనది	-11802
పోతాయి	-11803
రార్జీ	-11804
రెన్స్	-11805
సామ్రా	-11806
▁1944:	-11807
▁1968:	-11808
▁1996:	-11809
▁1997:	-11810
▁2014:	-11811
▁2020:	-11812
▁అన్నం	-11813
▁అలియా	-11814
▁ఉక్కు	-11815
▁కుక్క	-11816
▁గోధుమ	-11817
▁చనిపో	-11818
▁త్రివ	-11819
▁మల్కా	-11820
▁వ్యయం	-11821
ational	-11822
మయ్యారు	-11823
సమారాధన	-11824
▁Telugu	-11825
▁అన్నది	-11826
▁అసిస్ట	-11827
▁ఉంచారు	-11828
▁కన్యకా	-11829
▁కుమారి	-11830
▁క్రియా	-11831
▁చోళులు	-11832
▁నవగ్రహ	-11833
▁నాగూర్	-11834
▁నైరుతి	-11835
▁మించిన	-11836
▁వెలువర	-11837
▁శివాలయ	-11838
▁సంపుటి	-11839
▁సున్ని	-11840
గిరెడ్డి	-11841
▁అంతర్గత	-11842
▁ఆదుర్తి	-11843
▁ఉపన్యాస	-11844
▁ఎకరాలకు	-11845
▁గర్భవతి	-11846
▁ట్రస్ట్	-11847
▁నియామకం	-11848
▁ప్రభువు	-11849
▁బహిష్కర	-11850
▁భార్యను	-11851
▁మహారాణి	-11852
▁ముంబాయి	-11853
▁ముట్టడి	-11854
▁వహించగా	-11855
▁సుపరిచి	-11856
కేంద్రంగా	-11857
ప్రస్తుతం	-11858
▁అన్నింటి	-11859
▁ఆంగ్లంలో	-11860
▁ఆంధ్రదేశ	-11861
▁కుదుర్చు	-11862
▁కొద్దిగా	-11863
▁గ్రహీతలు	-11864
▁గ్రామపంచ	-11865
▁జటప్రోలు	-11866
▁దాదాపుగా	-11867
▁పద్యాలను	-11868
▁పాఠశాలను	-11869
▁ప్రక్కనే	-11870
▁ప్రతిజ్ఞ	-11871
▁ప్రవర్తన	-11872
▁ఫౌండేషన్	-11873
▁మొహమ్మద్	-11874
▁సమావేశాల	-11875
▁తెలుగునాట	-11876
▁దుగ్గిరాల	-11877
▁పవిత్రమైన	-11878
▁ఫ్యాక్టరీ	-11879
▁వంశస్థులు	-11880
▁తెలుసుకొని	-11881
▁పేరుగాంచిన	-11882
▁పేరుపొందిన	-11883
▁ప్రోగ్రాము	-11884
▁మారుతీరావు	-11885
▁మార్కాపురం	-11886
▁వెంకటాద్రి	-11887
▁వెలుగులోకి	-11888
▁సంస్కృతికి	-11889
▁సంస్థానంలో	-11890
▁అధికసంఖ్యలో	-11891
▁కమ్యూనిష్టు	-11892
▁పిల్లలమర్రి	-11893
▁ప్రభుత్వాలు	-11894
▁సంఘసంస్కర్త	-11895
▁సూచిస్తుంది	-11896
▁ఆఫ్ఘనిస్తాన్	-11897
▁కృష్ణదేవరాయల	-11898
▁ప్రేమిస్తాడు	-11899
▁రాష్ట్రాన్ని	-11900
02	-11901
05	-11902
గజ	-11903
చై	-11904
రమ	-11905
హై	-11906
12.	-11907
22.	-11908
erv	-11909
ics	-11910
ort	-11911
ous	-11912
ram	-11913
తిమ	-11914
దలు	-11915
నాశ	-11916
పూర	-11917
యాల	-11918
రలో	-11919
లతా	-11920
ికీ	-11921
ులే	-11922
ెడు	-11923
ేవ్	-11924
▁86	-11925
▁93	-11926
▁98	-11927
▁ధా	-11928
▁ఫొ	-11929
▁మమ	-11930
▁లౌ	-11931
▁సఖ	-11932
ansk	-11933
ంధము	-11934
ఇండి	-11935
డులు	-11936
దనంత	-11937
దేవీ	-11938
దొంగ	-11939
బట్ట	-11940
బోర్	-11941
భాను	-11942
వాడే	-11943
శుల్	-11944
షువా	-11945
షోర్	-11946
ాంగి	-11947
▁156	-11948
▁350	-11949
▁New	-11950
▁ఆమ్	-11951
▁ఏలు	-11952
▁మైల	-11953
▁యము	-11954
▁రివ	-11955
▁లేద	-11956
▁వగై	-11957
▁వృష	-11958
glish	-11959
కవితా	-11960
క్టరు	-11961
మాన్య	-11962
వేషన్	-11963
షియల్	-11964
ార్ధం	-11965
▁1941	-11966
▁అంతం	-11967
▁అపార	-11968
▁అరకు	-11969
▁అలహా	-11970
▁అవకా	-11971
▁ఆఫ్ర	-11972
▁కపిల	-11973
▁కుంద	-11974
▁కెప్	-11975
▁గీతం	-11976
▁గోదా	-11977
▁జంగ్	-11978
▁జగన్	-11979
▁ట్రై	-11980
▁తీసే	-11981
▁దుఃఖ	-11982
▁నదీత	-11983
▁పదము	-11984
▁పయని	-11985
▁పెండ	-11986
▁విషా	-11987
▁హిమా	-11988
.11.10	-11989
.1927)	-11990
కోలేదు	-11991
తుండగా	-11992
మంతుడు	-11993
లెక్స్	-11994
సేవాడు	-11995
▁1937:	-11996
▁1993:	-11997
▁1995:	-11998
▁అచ్చు	-11999
▁అనిల్	-12000
▁అబద్ధ	-12001
▁ఆండ్ర	-12002
▁ఆగ్రహ	-12003
▁ఆమోదం	-12004
▁ఆయిల్	-12005
▁ఇరాక్	-12006
▁ఉండుట	-12007
▁ఎక్కి	-12008
▁కల్లు	-12009
▁ఘరానా	-12010
▁చిక్క	-12011
▁చుక్క	-12012
▁చెలరే	-12013
▁చేయగల	-12014
▁తన్నో	-12015
▁తలసరి	-12016
▁దృశ్య	-12017
▁బనగాన	-12018
▁మొదలై	-12019
▁రంగుల	-12020
▁రాఘవా	-12021
▁రాధను	-12022
▁రెండూ	-12023
▁సింధూ	-12024
▁సెంటి	-12025
anskrit	-12026
చ్ఛిన్న	-12027
త్మకంగా	-12028
▁అనుభవం	-12029
▁అపురూప	-12030
▁ఇతరులు	-12031
▁కోనేరు	-12032
▁నిధులు	-12033
▁నిబంధన	-12034
▁ప్రేమా	-12035
▁రాయుడు	-12036
▁వేదాంత	-12037
▁సరాసరి	-12038
▁సుభాష్	-12039
▁సువర్ణ	-12040
▁సూర్యం	-12041
▁సేవలను	-12042
▁స్తంభం	-12043
భారతదేశం	-12044
▁అభ్యర్థ	-12045
▁ఆళ్వారు	-12046
▁ఉండాలని	-12047
▁కల్లూరు	-12048
▁క్షత్రి	-12049
▁జొన్నలు	-12050
▁పూజయామి	-12051
▁పేటెంట్	-12052
▁ప్రవాహం	-12053
▁ప్రేమను	-12054
▁భార్యలు	-12055
▁రేపల్లె	-12056
▁వెంకన్న	-12057
▁సమాధానం	-12058
పల్లిలోను	-12059
పాత్రాభిన	-12060
▁అంతర్భాగ	-12061
▁ఉన్నట్టు	-12062
▁చనిపోయిన	-12063
▁జన్మించి	-12064
▁తాలూకాలు	-12065
▁దేవరాయలు	-12066
▁ద్వీపాలు	-12067
▁నగరంలోని	-12068
▁నాదెండ్ల	-12069
▁నిర్మూలన	-12070
▁న్యూక్లి	-12071
▁ప్రారంభి	-12072
▁ఫెడరేషన్	-12073
▁భాగాలుగా	-12074
▁మందిరాలు	-12075
▁మొక్కులు	-12076
▁లేకపోవడం	-12077
▁విశ్వామి	-12078
▁సంజీవయ్య	-12079
▁స్థిరపడి	-12080
శాస్త్రంలో	-12081
▁అవసరమైంది	-12082
▁జిల్లాలను	-12083
▁దక్షిణాది	-12084
▁పాలించాడు	-12085
▁పోలీసులకు	-12086
▁ప్రదర్శిత	-12087
▁ప్రేమించి	-12088
▁బ్యానర్పై	-12089
▁బ్రహ్మన్న	-12090
▁మారుతుంది	-12091
▁మున్సిపల్	-12092
▁రావట్లేదు	-12093
▁రావడానికి	-12094
▁వారిద్దరి	-12095
.11.10.2016	-12096
ించుకుంటాడు	-12097
▁చిన్నతనంలో	-12098
▁చెళ్ళపిళ్ళ	-12099
▁విజయనగరంలో	-12100
▁వ్యావహారిక	-12101
▁శిథిలావస్థ	-12102
▁సృష్టికర్త	-12103
▁అనువదించాడు	-12104
▁ఆర్గనైజేషన్	-12105
▁కార్యాలయాలు	-12106
▁బ్రహ్మానందం	-12107
▁రాజకీయాల్లో	-12108
▁సమర్పించారు	-12109
▁నాగర్కర్నూల్	-12110
▁మైక్రోసాఫ్ట్	-12111
▁ఎగ్జిక్యూటివ్	-12112
▁వాగ్గేయకారుడు	-12113
▁సికింద్రాబాదు	-12114
]]	-12115
na	-12116
ఛ్	-12117
జగ	-12118
ధవ	-12119
ఫై	-12120
వొ	-12121
-30	-12122
10.	-12123
గడ్	-12124
చరణ	-12125
టను	-12126
డగు	-12127
త్థ	-12128
పాళ	-12129
పోష	-12130
బెం	-12131
మాడ	-12132
సీత	-12133
ామో	-12134
్వీ	-12135
▁(6	-12136
▁Dr	-12137
▁రమ	-12138
▁వడ	-12139
ware	-12140
గోడు	-12141
గ్గజ	-12142
ణుడు	-12143
తంలో	-12144
దురై	-12145
ద్వై	-12146
బాయ్	-12147
బోస్	-12148
లందు	-12149
లిపి	-12150
లులో	-12151
ల్లే	-12152
శైలజ	-12153
సురు	-12154
ికలో	-12155
▁168	-12156
▁అమీ	-12157
▁అసం	-12158
▁ఎంబ	-12159
▁ఎరు	-12160
▁కంప	-12161
▁కరు	-12162
▁క్య	-12163
▁దోమ	-12164
▁ధోర	-12165
▁బలం	-12166
▁బాగ	-12167
▁మాడ	-12168
▁ముగ	-12169
▁వన్	-12170
▁సగం	-12171
▁సరే	-12172
.2014	-12173
ivers	-12174
జికల్	-12175
ధులను	-12176
పాలను	-12177
పురము	-12178
మురళీ	-12179
మొదటి	-12180
వృక్ష	-12181
ానంద్	-12182
▁1911	-12183
▁ఇస్మ	-12184
▁గరుడ	-12185
▁చురు	-12186
▁టీవీ	-12187
▁డిపో	-12188
▁నినా	-12189
▁పిండ	-12190
▁పెడన	-12191
▁బెండ	-12192
▁మహిమ	-12193
▁లోగడ	-12194
▁వ్యూ	-12195
▁శతావ	-12196
▁శాఖల	-12197
▁సజీవ	-12198
.1921)	-12199
.1923)	-12200
ations	-12201
ఇంగ్లీ	-12202
గొట్టి	-12203
ఘంటసాల	-12204
చ్చాయి	-12205
ప్రత్య	-12206
బడతాయి	-12207
యుద్ధం	-12208
రహదారి	-12209
లాపూర్	-12210
ల్లోనే	-12211
శిక్షణ	-12212
ించుచు	-12213
ింటికి	-12214
▁1998:	-12215
▁ఈశ్వర	-12216
▁ఒక్కర	-12217
▁గంటలు	-12218
▁జరిపి	-12219
▁పాటను	-12220
▁బృందా	-12221
▁మాస్ట	-12222
▁వర్ణన	-12223
▁వాక్య	-12224
▁వాద్య	-12225
▁శ్యామ	-12226
▁సామూహ	-12227
▁హైదర్	-12228
వరపుకోట	-12229
ార్ఖండ్	-12230
▁అధ్యాయ	-12231
▁అనునది	-12232
▁అయినది	-12233
▁అవమాని	-12234
▁ఇంటిలో	-12235
▁కార్టూ	-12236
▁కాళోజీ	-12237
▁చేరారు	-12238
▁జాషువా	-12239
▁తక్కిన	-12240
▁దానిలో	-12241
▁ద్రవిడ	-12242
▁ధ్వంసం	-12243
▁నిర్వచ	-12244
▁పరిగణన	-12245
▁పాటలకు	-12246
▁పొగాకు	-12247
▁పొద్దు	-12248
▁బ్రాడ్	-12249
▁మన్వంత	-12250
▁మెచ్చు	-12251
▁వేమూరి	-12252
▁సాహెబ్	-12253
▁సింగరే	-12254
▁సుందరి	-12255
▁సైన్సు	-12256
కిస్తాన్	-12257
ులక్ష్మి	-12258
▁అభివర్ణ	-12259
▁ఆరోపణలు	-12260
▁గ్రంథము	-12261
▁నందిగామ	-12262
▁నెలకొల్	-12263
▁పండితుల	-12264
▁పూర్వము	-12265
▁రచనల్లో	-12266
▁వారసుడు	-12267
▁విండోస్	-12268
▁శృంగేరి	-12269
▁సంకీర్త	-12270
▁ఉద్యానవన	-12271
▁చేబ్రోలు	-12272
▁తీసుకునే	-12273
▁తొలగించి	-12274
▁పాండవులు	-12275
▁బాబూరావు	-12276
▁బ్లాగులు	-12277
▁మొరార్జీ	-12278
▁లోక్సభకు	-12279
▁వస్తువుల	-12280
▁విధానంలో	-12281
▁విభజించి	-12282
▁వియత్నాం	-12283
మాచార్యులు	-12284
▁ఇంగ్లాండు	-12285
▁ఉద్దేశంతో	-12286
▁విదేశాలలో	-12287
▁వ్యతిరేకి	-12288
▁సాధించాయి	-12289
▁ఇవ్వబడింది	-12290
▁గాంధేయవాది	-12291
▁జాతీయోద్యమ	-12292
▁పర్యాటకులు	-12293
▁పులివెందుల	-12294
▁బంగాళాఖాతం	-12295
▁వహిస్తుంది	-12296
▁అన్నసమారాధన	-12297
▁పార్వతీపురం	-12298
▁పాల్గొంటారు	-12299
▁శతదినోత్సవం	-12300
▁సరిహద్దులుగా	-12301
▁ప్రవేశపెట్టిన	-12302
▁కార్యక్రమానికి	-12303
▁ప్రతిష్ఠించారు	-12304
")	-12305
ha	-12306
హూ	-12307
▁ఢ	-12308
16.	-12309
17.	-12310
18.	-12311
ore	-12312
కన్	-12313
చిత	-12314
బన్	-12315
మల్	-12316
ల్య	-12317
ేసి	-12318
▁79	-12319
▁తహ	-12320
▁లయ	-12321
▁శక	-12322
ఆర్య	-12323
క్యు	-12324
క్యూ	-12325
జిల్	-12326
ట్టం	-12327
ధాను	-12328
నాడే	-12329
నాతన	-12330
పంలో	-12331
పర్య	-12332
పెంట	-12333
పోరా	-12334
భువన	-12335
భ్యస	-12336
మమ్మ	-12337
రాయ్	-12338
రికే	-12339
విడి	-12340
వీటి	-12341
వీధి	-12342
్రీయ	-12343
▁162	-12344
▁31,	-12345
▁523	-12346
▁ఎము	-12347
▁కలశ	-12348
▁గల్	-12349
▁ఘటో	-12350
▁తోక	-12351
▁పరం	-12352
▁బలూ	-12353
▁బాద	-12354
▁యేట	-12355
▁రబీ	-12356
▁రసం	-12357
▁లేత	-12358
▁విత	-12359
▁శబ్	-12360
▁సమి	-12361
.....	-12362
కారము	-12363
కావ్య	-12364
కులైన	-12365
చోట్ల	-12366
దర్స్	-12367
పాటలు	-12368
బడును	-12369
రోజున	-12370
లన్నీ	-12371
లలోనూ	-12372
ళ్ళతో	-12373
వేంకట	-12374
ాయిని	-12375
ేవరకు	-12376
్రాజు	-12377
▁1933	-12378
▁అంతః	-12379
▁అహిం	-12380
▁ఆచరణ	-12381
▁ఇక్ష	-12382
▁ఎండి	-12383
▁ఎగువ	-12384
▁కాసు	-12385
▁గౌరీ	-12386
▁చెడు	-12387
▁జాంబ	-12388
▁జీడి	-12389
▁తాటి	-12390
▁తులు	-12391
▁దోపి	-12392
▁ధారా	-12393
▁నందన	-12394
▁నివా	-12395
▁నూరు	-12396
▁పోతే	-12397
▁మాన్	-12398
▁రోజా	-12399
▁లక్క	-12400
▁శాలి	-12401
.1918)	-12402
.1994)	-12403
.2007)	-12404
.2008)	-12405
కూరులో	-12406
మొత్తం	-12407
వుతారు	-12408
వైపులా	-12409
▁1929:	-12410
▁అప్పల	-12411
▁ఇంతకు	-12412
▁ఈమెను	-12413
▁ఏళ్ళు	-12414
▁కప్పు	-12415
▁కైకాల	-12416
▁తదనంత	-12417
▁తేలిక	-12418
▁నరహరి	-12419
▁పదిహే	-12420
▁పెంపొ	-12421
▁బిజిన	-12422
▁మనువు	-12423
▁మన్యం	-12424
▁మాణిక	-12425
▁మినహా	-12426
▁మురళి	-12427
▁మెట్ల	-12428
▁యాదవ్	-12429
▁లోపలి	-12430
▁వెయ్య	-12431
▁శకుంత	-12432
▁సారథి	-12433
▁సెలవు	-12434
▁స్థూల	-12435
▁హరికథ	-12436
▁హింసా	-12437
గాయకుడు	-12438
భారతదేశ	-12439
▁ఆహ్లాద	-12440
▁ఎప్పటి	-12441
▁ఒకానొక	-12442
▁కొరియా	-12443
▁గుడిలో	-12444
▁దానిపై	-12445
▁పంపాడు	-12446
▁పిమ్మట	-12447
▁పెద్దన	-12448
▁ప్రయోజ	-12449
▁బహుమనీ	-12450
▁భావాలు	-12451
▁రఘుపతి	-12452
▁వాహినీ	-12453
▁విద్యన	-12454
▁శైలిని	-12455
▁శ్లోకం	-12456
▁సాక్షా	-12457
▁సుభద్ర	-12458
▁అభిమానం	-12459
▁అవతారము	-12460
▁ఆర్మూర్	-12461
▁ఎత్తయిన	-12462
▁ఎన్నికై	-12463
▁ఘనవిజయం	-12464
▁డిజిటల్	-12465
▁ద్వారకా	-12466
▁నాగపూర్	-12467
▁నారదుడు	-12468
▁నియమించ	-12469
▁పదానికి	-12470
▁పరశురామ	-12471
▁బూర్గుల	-12472
▁మధుసూదన	-12473
▁రాజశేఖర	-12474
▁వాహనాలు	-12475
▁విలక్షణ	-12476
▁వ్యాకరణ	-12477
▁శక్తిగా	-12478
▁శాసనంలో	-12479
▁శ్రీరాం	-12480
▁సర్పంచ్	-12481
▁హక్కులు	-12482
చలపతిరావు	-12483
వరలక్ష్మి	-12484
▁కందుకూరు	-12485
▁కథారచయిత	-12486
▁కలెక్టరు	-12487
▁కాలాన్ని	-12488
▁కౌన్సిల్	-12489
▁చిహ్నంగా	-12490
▁తాలూకాలో	-12491
▁పన్నెండు	-12492
▁పాండురంగ	-12493
▁పాల్గొనే	-12494
▁ప్రహ్లాద	-12495
▁ప్రిన్సి	-12496
▁బయలుదేరి	-12497
▁వాడుతారు	-12498
▁వివాదాస్	-12499
▁సంస్థలలో	-12500
▁సుందరమ్మ	-12501
▁స్పెయిన్	-12502
▁అవార్డును	-12503
▁ఏర్పాటుకు	-12504
▁చంద్రగిరి	-12505
▁చింతపల్లి	-12506
▁చేరుకున్న	-12507
▁పదార్థాలు	-12508
▁పరిజ్ఞానం	-12509
▁పార్వతమ్మ	-12510
▁భావించాడు	-12511
▁విద్యాలయం	-12512
▁సంకలనకర్త	-12513
▁ఉత్పత్తిలో	-12514
▁ఉపయోగించిన	-12515
▁ఏర్పాటుచేయ	-12516
▁చేపట్టింది	-12517
▁తిమ్మాపూర్	-12518
▁ప్రకాశరావు	-12519
▁మంత్రివర్గ	-12520
▁మహోత్సవాలు	-12521
▁రాజకీయాలలో	-12522
▁వికారాబాద్	-12523
▁శాస్త్రజ్ఞ	-12524
▁సందర్శించి	-12525
▁స్థానికులు	-12526
▁హరిశ్చంద్ర	-12527
▁జ్ఞాపకార్థం	-12528
▁నెలకొల్పారు	-12529
▁న్యూక్లియర్	-12530
▁పరిస్థితిని	-12531
▁పాత్రధారులు	-12532
▁ప్రదేశాన్ని	-12533
▁పబ్లికేషన్స్	-12534
▁ప్రాముఖ్యతను	-12535
▁మహారాష్ట్రలో	-12536
▁మాట్లాడుతారు	-12537
▁రాజ్యలక్ష్మి	-12538
▁విద్యాభ్యాసం	-12539
▁వ్యవహరించారు	-12540
▁శ్రీకృష్ణుని	-12541
▁కార్యక్రమాలలో	-12542
▁తెలుసుకుంటాడు	-12543
▁నిర్మించబడ్డాయి	-12544
'.	-12545
0.	-12546
04	-12547
ld	-12548
pt	-12549
పట	-12550
మృ	-12551
వూ	-12552
ౌక	-12553
▁k	-12554
.14	-12555
ంటా	-12556
ందట	-12557
ఇవి	-12558
గను	-12559
చంద	-12560
జల్	-12561
ణాల	-12562
ణ్ణ	-12563
దాల	-12564
వరూ	-12565
షత్	-12566
సైన	-12567
హము	-12568
ోడు	-12569
▁83	-12570
▁జమ	-12571
▁హత	-12572
-200	-12573
అక్ష	-12574
కాగా	-12575
గాలి	-12576
చెరు	-12577
జిన్	-12578
డితో	-12579
డ్ని	-12580
తలను	-12581
త్తె	-12582
ప్రో	-12583
మియా	-12584
మెని	-12585
రూపి	-12586
ర్చీ	-12587
వులే	-12588
శాయి	-12589
స్టే	-12590
స్పర	-12591
ొకరు	-12592
▁106	-12593
▁27,	-12594
▁700	-12595
▁తగు	-12596
▁పైల	-12597
▁ఫార	-12598
▁బాప	-12599
▁భూత	-12600
▁ముహ	-12601
▁మెం	-12602
▁యశో	-12603
▁రిచ	-12604
▁సహచ	-12605
కర్ణి	-12606
గ్యుల	-12607
జయంతి	-12608
దయాత్	-12609
నట్లు	-12610
పనేని	-12611
▁1927	-12612
▁1928	-12613
▁from	-12614
▁అందం	-12615
▁అడ్వ	-12616
▁ఆజ్ఞ	-12617
▁కథకు	-12618
▁కామా	-12619
▁కులం	-12620
▁కొని	-12621
▁క్లి	-12622
▁క్లై	-12623
▁చేజి	-12624
▁తాపీ	-12625
▁దండి	-12626
▁దాసు	-12627
▁దుంప	-12628
▁నారద	-12629
▁నీలి	-12630
▁పెరు	-12631
▁పోతి	-12632
▁ఫిరం	-12633
▁మరలా	-12634
▁మాటల	-12635
▁మాడు	-12636
▁మూడి	-12637
▁రేణు	-12638
▁విద్	-12639
▁సంచల	-12640
▁సభకు	-12641
▁స్కే	-12642
.1914)	-12643
.1929)	-12644
.1933)	-12645
.1940)	-12646
.2004)	-12647
కరించి	-12648
క్కుడు	-12649
గొండలో	-12650
ప్రకాశ	-12651
ములందు	-12652
లపల్లి	-12653
ళ్వార్	-12654
సినారు	-12655
ించలేక	-12656
▁1934:	-12657
▁1951:	-12658
▁2000:	-12659
▁2001:	-12660
▁2013,	-12661
▁2023:	-12662
▁అంతటి	-12663
▁అనుకో	-12664
▁అన్నద	-12665
▁అబుల్	-12666
▁అమ్మా	-12667
▁ఆడియో	-12668
▁ఇస్రో	-12669
▁కట్టా	-12670
▁కాయలు	-12671
▁చూపిన	-12672
▁దిబ్బ	-12673
▁దుర్మ	-12674
▁ప్రాయ	-12675
▁బ్రతు	-12676
▁మనోహర	-12677
▁మిస్స	-12678
▁వట్టి	-12679
▁వెంగళ	-12680
▁సంజయ్	-12681
▁సమానం	-12682
▁సమూహం	-12683
▁సింహం	-12684
న్నట్లు	-12685
విత్తుల	-12686
శ్వరుడు	-12687
▁ఇవ్వడం	-12688
▁కాళ్ళు	-12689
▁కెరీర్	-12690
▁చర్చలు	-12691
▁చురుకు	-12692
▁చెల్లి	-12693
▁జగిత్య	-12694
▁టెస్ట్	-12695
▁తగినంత	-12696
▁తెలిపే	-12697
▁దాద్రా	-12698
▁దుర్గం	-12699
▁నిలబడి	-12700
▁నిలువు	-12701
▁పంజాబీ	-12702
▁పుచ్చు	-12703
▁మనోహర్	-12704
▁మహాత్మ	-12705
▁మౌలానా	-12706
▁యూనిట్	-12707
▁రైళ్ళు	-12708
▁విధమైన	-12709
▁విమోచన	-12710
▁వెంబడి	-12711
▁సమాధాన	-12712
▁సైన్యా	-12713
▁స్వామీ	-12714
▁హాస్యం	-12715
కాలానికి	-12716
చెరువులో	-12717
▁ఆపరేషన్	-12718
▁ఆభరణాలు	-12719
▁గణతంత్ర	-12720
▁జగన్నాథ	-12721
▁దిగుమతి	-12722
▁నిరంతరం	-12723
▁నెలకొని	-12724
▁పక్షులు	-12725
▁పరిసరాల	-12726
▁పామర్రు	-12727
▁ప్రవర్త	-12728
▁బంధించి	-12729
▁ముగిసిన	-12730
▁రాజ్యాల	-12731
▁రైతులకు	-12732
▁వుండేది	-12733
▁సమానంగా	-12734
▁సారస్వత	-12735
శివరాత్రి	-12736
▁కనకదుర్గ	-12737
▁కాలంనాటి	-12738
▁కొనసాగిన	-12739
▁చిక్కుడు	-12740
▁చిన్నారి	-12741
▁తాళ్ళపాక	-12742
▁నాగేంద్ర	-12743
▁పద్ధతిని	-12744
▁పిల్లలను	-12745
▁పెరుగుదల	-12746
▁పోగొట్టు	-12747
▁బాధ్యతను	-12748
▁బీజాపూరు	-12749
▁మండలాలతో	-12750
▁వర్ధిల్ల	-12751
▁సినిమాగా	-12752
▁సూర్యుని	-12753
▁హీరోయిన్	-12754
▁అందుకున్న	-12755
▁అనుబంధంగా	-12756
▁ఇస్మాయిల్	-12757
▁ఉపాధ్యాయు	-12758
▁ఏర్పాట్లు	-12759
▁కచ్చితంగా	-12760
▁గవర్నరుగా	-12761
▁గుంతకల్లు	-12762
▁తెలిసింది	-12763
▁నివసించిన	-12764
▁పరిశ్రమకు	-12765
▁పల్లిలోను	-12766
▁బంగాళాఖాత	-12767
▁విద్యాశాఖ	-12768
▁శరీరానికి	-12769
▁సిద్దిపేట	-12770
కుంటున్నారు	-12771
▁కేంద్రాలలో	-12772
▁జగ్గయ్యపేట	-12773
▁జరుపుకుంది	-12774
▁తజకిస్థాన్	-12775
▁తెలుగువారి	-12776
▁దర్శకురాలు	-12777
▁న్యాయస్థాన	-12778
▁పరిగణనలోకి	-12779
▁విజయనిర్మల	-12780
▁విస్తారమైన	-12781
▁సమకూర్చారు	-12782
ఆంధ్రప్రదేశ్	-12783
▁అప్పటినుండి	-12784
▁కర్ణాటకలోని	-12785
▁చెయ్యడానికి	-12786
▁చేరుకోవచ్చు	-12787
▁చేసుకుంటారు	-12788
▁పుస్తకాన్ని	-12789
▁ప్రపంచానికి	-12790
▁మేనేజ్మెంట్	-12791
▁విష్ణుకుండి	-12792
▁అధ్యక్షునిగా	-12793
▁తీర్మానాన్ని	-12794
▁నిర్ణయించారు	-12795
▁పాలిటెక్నిక్	-12796
▁ప్రాజెక్టును	-12797
▁వ్యాపించింది	-12798
▁విద్యాసంస్థలు	-12799
▁రూపొందించబడింది	-12800
08	-12801
ub	-12802
డట	-12803
నస	-12804
16)	-12805
ani	-12806
ati	-12807
ంపి	-12808
ంపు	-12809
కరం	-12810
దాత	-12811
దొర	-12812
నగర	-12813
న్య	-12814
పాన	-12815
సుమ	-12816
స్క	-12817
ాలో	-12818
ింట	-12819
ెర్	-12820
▁(4	-12821
▁Ar	-12822
▁ఈయ	-12823
▁ఏజ	-12824
▁శూ	-12825
rict	-12826
ంటల్	-12827
కోడ్	-12828
గిలో	-12829
టిష్	-12830
టుగా	-12831
ట్గా	-12832
భరణం	-12833
మాడి	-12834
యుడు	-12835
లిగి	-12836
వంగా	-12837
వెన్	-12838
ష్యు	-12839
స్వా	-12840
▁(17	-12841
▁115	-12842
▁165	-12843
▁79.	-12844
▁అస్	-12845
▁ఆన్	-12846
▁కలా	-12847
▁కాప	-12848
▁ఖాత	-12849
▁గతి	-12850
▁తంగ	-12851
▁ధవళ	-12852
▁నీడ	-12853
▁పుల	-12854
▁భూష	-12855
▁మగధ	-12856
▁మరే	-12857
▁మేడ	-12858
▁యాగ	-12859
▁సొగ	-12860
ology	-12861
అక్టో	-12862
గ్గర్	-12863
త్రిమ	-12864
మ్మను	-12865
రింగు	-12866
ల్లంఘ	-12867
శుద్ధ	-12868
స్తార	-12869
హిందీ	-12870
ాయుడు	-12871
ించాడ	-12872
ీయంగా	-12873
▁1908	-12874
▁1914	-12875
▁అడ్ర	-12876
▁ఇప్ప	-12877
▁గనుక	-12878
▁ఘాట్	-12879
▁చెలి	-12880
▁జనసా	-12881
▁జోడి	-12882
▁తాలు	-12883
▁తిని	-12884
▁దైవం	-12885
▁నిను	-12886
▁పనుల	-12887
▁పావు	-12888
▁పిదప	-12889
▁పూడి	-12890
▁బయటి	-12891
▁బల్ల	-12892
▁బాస్	-12893
▁భగవా	-12894
▁మదన్	-12895
▁మెగా	-12896
▁మెరి	-12897
▁రాసే	-12898
▁వక్త	-12899
▁విరమ	-12900
▁వేసే	-12901
▁సాధి	-12902
▁సాహస	-12903
▁స్తో	-12904
▁హాకీ	-12905
▁హెల్	-12906
.1996)	-12907
.2002)	-12908
టిక్స్	-12909
ములోనే	-12910
మ్ములు	-12911
యుగంలో	-12912
రాయుడు	-12913
రిస్తూ	-12914
ర్షులు	-12915
విద్యా	-12916
సంపన్న	-12917
సురుని	-12918
ించండి	-12919
▁1959:	-12920
▁అవమాన	-12921
▁ఆవిరి	-12922
▁ఇచ్చట	-12923
▁కోరిన	-12924
▁గబ్బి	-12925
▁గ్రాం	-12926
▁జయరాం	-12927
▁జెండా	-12928
▁నాజర్	-12929
▁నామిన	-12930
▁నిండు	-12931
▁నింది	-12932
▁మహేష్	-12933
▁వాళ్ల	-12934
▁విలీన	-12935
▁వుండి	-12936
▁శిఖరం	-12937
పరిచారు	-12938
బ్రాహ్మ	-12939
▁అతనితో	-12940
▁ఆశ్రయం	-12941
▁ఎవరికి	-12942
▁ఓడరేవు	-12943
▁కక్ష్య	-12944
▁కిషోర్	-12945
▁చివరగా	-12946
▁చివరలో	-12947
▁చేయబడి	-12948
▁చేయమని	-12949
▁జాతులు	-12950
▁టిబెట్	-12951
▁డేవిడ్	-12952
▁ద్వాపర	-12953
▁నటించి	-12954
▁నల్లమల	-12955
▁నిజంగా	-12956
▁నేపాలీ	-12957
▁పువ్వు	-12958
▁పెట్రో	-12959
▁బయటికి	-12960
▁మందిని	-12961
▁మక్కువ	-12962
▁మహాదేవ	-12963
▁మినహాయ	-12964
▁మీడియం	-12965
▁రామన్న	-12966
▁వాయువు	-12967
▁విడిది	-12968
▁వీలుగా	-12969
▁శస్త్ర	-12970
▁సమస్యల	-12971
▁హయాంలో	-12972
కోడానికి	-12973
▁అంతర్యు	-12974
▁అవార్డ్	-12975
▁ఉన్నదని	-12976
▁ఎంతగానో	-12977
▁కంప్యూట	-12978
▁కనిగిరి	-12979
▁కీలకమైన	-12980
▁చేయడంలో	-12981
▁ఛత్తీస్	-12982
▁నిరాహార	-12983
▁నిరుద్య	-12984
▁పిలవబడే	-12985
▁ఫిలింస్	-12986
▁మలేషియా	-12987
▁మొదటిది	-12988
▁రాయచోటి	-12989
▁రిచర్డ్	-12990
▁వాయువ్య	-12991
▁వున్నవి	-12992
▁శాసనసభా	-12993
▁సరోజిని	-12994
కరిస్తాడు	-12995
కరిస్తారు	-12996
▁Sanskrit	-12997
▁చెపుతారు	-12998
▁చోటుచేసు	-12999
▁తయారుచేయ	-13000
▁తీరాంధ్ర	-13001
▁దేవరకొండ	-13002
▁పురాణాలు	-13003
▁ప్రశంసలు	-13004
▁భిన్నంగా	-13005
▁రష్యన్లు	-13006
▁రికార్డ్	-13007
▁రూపకల్పన	-13008
▁వాణిజ్యం	-13009
▁విభాగాలు	-13010
▁ఏర్పరచారు	-13011
▁ఏలూరులోను	-13012
▁కన్యాశుల్	-13013
▁చేసినపుడు	-13014
▁పునరుద్ధర	-13015
▁ప్రోత్సాహ	-13016
▁మొదలగునవి	-13017
▁స్థలాన్ని	-13018
▁స్పష్టంగా	-13019
▁అధ్యాపకుడు	-13020
▁కరీంనగర్లో	-13021
▁గ్రామంలోఒక	-13022
▁బనగానపల్లె	-13023
▁మరణించింది	-13024
▁వర్ణించాడు	-13025
▁సుల్తానులు	-13026
▁స్నేహితులు	-13027
▁చెప్పడానికి	-13028
▁దేవాలయానికి	-13029
▁పురాతనమైనది	-13030
▁రాష్ట్రాలకు	-13031
▁సమరయోధురాలు	-13032
▁సృష్టించాడు	-13033
▁జొన్నవిత్తుల	-13034
▁తల్లిదండ్రుల	-13035
▁మూడుప్రైవేటు	-13036
▁చేసుకోవడానికి	-13037
▁ప్రచురించింది	-13038
▁లభిస్తున్నాయి	-13039
▁సంతరించుకుంది	-13040
03	-13041
1%	-13042
?)	-13043
cl	-13044
టల	-13045
14.	-13046
40.	-13047
ide	-13048
ill	-13049
నగా	-13050
నన్	-13051
ప్ల	-13052
బ్ల	-13053
భజన	-13054
మహే	-13055
విష	-13056
సరో	-13057
ాయణ	-13058
ేస్	-13059
ోయి	-13060
▁(9	-13061
▁88	-13062
▁92	-13063
▁as	-13064
▁ఘట	-13065
క్షు	-13066
గ్రి	-13067
ఘ్ని	-13068
టును	-13069
తిగా	-13070
దశలో	-13071
నీతి	-13072
పూరి	-13073
ఫ్లో	-13074
ముఖి	-13075
యిర్	-13076
రాల్	-13077
సుని	-13078
ించక	-13079
ింతు	-13080
▁524	-13081
▁595	-13082
▁are	-13083
▁ఆతి	-13084
▁కది	-13085
▁గార	-13086
▁డచ్	-13087
▁దాట	-13088
▁పూస	-13089
▁పేష	-13090
▁ప్య	-13091
▁బాబ	-13092
▁మాచ	-13093
▁మూడ	-13094
▁మూత	-13095
▁మేర	-13096
▁రంభ	-13097
▁వశి	-13098
▁సమే	-13099
▁సల్	-13100
కెక్క	-13101
కొంది	-13102
జింగ్	-13103
త్వము	-13104
దృష్ట	-13105
ద్వార	-13106
పాలని	-13107
ళ్లకు	-13108
వతారం	-13109
వర్గం	-13110
హకుడు	-13111
▁1901	-13112
▁1915	-13113
▁1924	-13114
▁అతిశ	-13115
▁ఆపైన	-13116
▁ఒకటే	-13117
▁కలువ	-13118
▁కాళహ	-13119
▁కుదర	-13120
▁కూడు	-13121
▁కొమర	-13122
▁కోమల	-13123
▁గర్వ	-13124
▁దీపం	-13125
▁నర్మ	-13126
▁పంత్	-13127
▁పవన్	-13128
▁పీడి	-13129
▁పూరి	-13130
▁పెళ్	-13131
▁పేరే	-13132
▁పోరు	-13133
▁ప్రై	-13134
▁బాగ్	-13135
▁మేధా	-13136
▁యర్ర	-13137
▁యువత	-13138
▁రావే	-13139
▁రాహు	-13140
▁వాది	-13141
▁విరూ	-13142
▁సాగర	-13143
▁సైబీ	-13144
.1917)	-13145
.1935)	-13146
.2009)	-13147
ంపల్లి	-13148
గలిగిన	-13149
గాంచిన	-13150
జెన్సీ	-13151
దర్శనం	-13152
ద్నగర్	-13153
నాత్మక	-13154
నెస్కో	-13155
భాన్ని	-13156
లినేని	-13157
ల్లోను	-13158
వుతాడు	-13159
సినారె	-13160
సైన్స్	-13161
స్ట్రి	-13162
ోద్యమం	-13163
▁1918:	-13164
▁2005:	-13165
▁అంత్య	-13166
▁ఇటాలి	-13167
▁ఈయనకు	-13168
▁ఎద్దు	-13169
▁ఏమిటి	-13170
▁ఓపెన్	-13171
▁ఔరంగా	-13172
▁కోడలు	-13173
▁క్షీర	-13174
▁జమ్మి	-13175
▁జీవనం	-13176
▁డామన్	-13177
▁తిక్క	-13178
▁నాగుల	-13179
▁నాయక్	-13180
▁నెలకు	-13181
▁పట్టా	-13182
▁పనిని	-13183
▁పొట్ట	-13184
▁బంగాళ	-13185
▁బీదర్	-13186
▁మంగళం	-13187
▁మెల్ల	-13188
▁రాజన్	-13189
▁లింగా	-13190
▁విత్త	-13191
▁విలాస	-13192
▁సత్రం	-13193
▁సుగంధ	-13194
▁సెంటీ	-13195
▁హోటల్	-13196
istrict	-13197
మౌతుంది	-13198
స్తుంటే	-13199
ాధికారి	-13200
ామూర్తి	-13201
▁అణచివే	-13202
▁అనువైన	-13203
▁అరబిక్	-13204
▁అలంకార	-13205
▁ఇతనిని	-13206
▁ఇష్టపడ	-13207
▁కాంస్య	-13208
▁గుండ్ర	-13209
▁చెక్కు	-13210
▁తొలినా	-13211
▁త్వరగా	-13212
▁పశువుల	-13213
▁పునాది	-13214
▁ప్రావి	-13215
▁బాలాజీ	-13216
▁భవనాలు	-13217
▁భూమికి	-13218
▁వినోద్	-13219
▁వెన్నె	-13220
▁వ్యక్త	-13221
▁సేవలకు	-13222
భాగానికి	-13223
మంత్రులు	-13224
▁English	-13225
▁అభిమాని	-13226
▁ఇక్ష్వా	-13227
▁ఏనుగులు	-13228
▁ఏమిటంటే	-13229
▁కావ్యము	-13230
▁కృత్రిమ	-13231
▁చెయ్యడం	-13232
▁జనార్ధన	-13233
▁తల్లిని	-13234
▁నార్కట్	-13235
▁నిధులతో	-13236
▁బిడ్డను	-13237
▁రెండవది	-13238
▁లేకపోతే	-13239
▁విడదీసి	-13240
▁విస్తృత	-13241
▁వ్యత్యా	-13242
▁సన్నిహి	-13243
▁స్థితిగ	-13244
▁హిమాచల్	-13245
formation	-13246
శ్రద్ధలతో	-13247
▁అంతరించి	-13248
▁ఉపఖండంలో	-13249
▁కొడుకులు	-13250
▁గ్రంథంలో	-13251
▁చిత్రలేఖ	-13252
▁చూస్తాడు	-13253
▁చేర్చుతూ	-13254
▁ఛాయాగ్రా	-13255
▁డైరక్టర్	-13256
▁దర్శించి	-13257
▁నెలకొన్న	-13258
▁పరీక్షలు	-13259
▁పురాతత్వ	-13260
▁పెళ్ళికి	-13261
▁మహోత్సవం	-13262
▁మార్క్సి	-13263
▁మిత్రులు	-13264
▁యలమంచిలి	-13265
▁విషయాలను	-13266
▁శిలాశాసన	-13267
▁సభ్యత్వం	-13268
▁సేకరించి	-13269
▁స్వరకర్త	-13270
▁హన్మకొండ	-13271
ప్రసాదరావు	-13272
▁ఉత్సవాలలో	-13273
▁కృష్ణవేణి	-13274
▁విచ్చేసిన	-13275
▁విద్వాంసు	-13276
▁వెనుకబడిన	-13277
▁వెళ్తుంది	-13278
▁హిరణ్యకశి	-13279
▁కలెక్టరేట్	-13280
▁తెలియకుండా	-13281
▁త్రిపురాంత	-13282
▁నియమించాడు	-13283
▁ప్రయత్నంలో	-13284
▁రామిరెడ్డి	-13285
▁వివరించారు	-13286
▁అనుసంధానించ	-13287
▁ఆదివారంనాడు	-13288
▁ఇంజినీరింగ్	-13289
▁ఏర్పడుతుంది	-13290
▁ప్రజ్ఞాశాలి	-13291
▁ప్రతినిధులు	-13292
▁ప్రవేశించిన	-13293
▁విస్తరించిన	-13294
▁శేషగిరిరావు	-13295
▁సంవత్సరాలలో	-13296
▁కార్యకలాపాలు	-13297
▁రామలింగేశ్వర	-13298
▁రాష్ట్రంలోనే	-13299
▁సాహిత్యవేత్త	-13300
▁సింహాసనాన్ని	-13301
▁దేశవ్యాప్తంగా	-13302
▁స్వాతంత్ర్యసమర	-13303
07	-13304
ci	-13305
hm	-13306
pl	-13307
’’	-13308
టుల	-13309
ధ్ధ	-13310
నైన	-13311
ఫిక	-13312
బాట	-13313
వాల	-13314
సాధ	-13315
సోమ	-13316
ెడీ	-13317
ేల్	-13318
▁(3	-13319
▁61	-13320
▁టూ	-13321
▁తగ	-13322
▁నశ	-13323
▁షర	-13324
అన్న	-13325
కేట్	-13326
క్సీ	-13327
గార్	-13328
గిల్	-13329
గును	-13330
టాను	-13331
డీలు	-13332
ణికి	-13333
తిపద	-13334
నియం	-13335
పంచు	-13336
ప్లే	-13337
మియో	-13338
రీస్	-13339
ర్ని	-13340
లాడే	-13341
ళ్లో	-13342
వర్గ	-13343
వ్స్	-13344
సభ్య	-13345
సుంద	-13346
స్సీ	-13347
ానము	-13348
ెండ్	-13349
▁(16	-13350
▁129	-13351
▁172	-13352
▁215	-13353
▁218	-13354
▁507	-13355
▁ఎలి	-13356
▁గూఢ	-13357
▁జిన	-13358
▁టెం	-13359
▁తని	-13360
▁తనే	-13361
▁దరి	-13362
▁బేత	-13363
▁బోగ	-13364
▁భండ	-13365
▁మంథ	-13366
▁మెహ	-13367
▁వసం	-13368
▁సరు	-13369
▁సౌర	-13370
కండేయ	-13371
కప్పు	-13372
కాలతో	-13373
కాలువ	-13374
డుగుల	-13375
దరికం	-13376
మండలం	-13377
యన్స్	-13378
ాన్సల	-13379
ారేజి	-13380
ాలిన్	-13381
▁1906	-13382
▁1926	-13383
▁అరవై	-13384
▁అర్ప	-13385
▁ఏళ్ల	-13386
▁ఒంటి	-13387
▁గడియ	-13388
▁గురై	-13389
▁చావు	-13390
▁డైలా	-13391
▁తరంగ	-13392
▁తాజా	-13393
▁దీపా	-13394
▁దొరక	-13395
▁ధార్	-13396
▁పాదం	-13397
▁పీచు	-13398
▁పుదు	-13399
▁పొలి	-13400
▁పోతు	-13401
▁భూషణ	-13402
▁భైరవ	-13403
▁మేడి	-13404
▁లీగ్	-13405
▁లీలా	-13406
▁లేచి	-13407
▁వరదల	-13408
▁సవతి	-13409
▁స్టో	-13410
▁హంపి	-13411
.1904)	-13412
.1972)	-13413
కునికి	-13414
తిపదిక	-13415
ధరరావు	-13416
పాక్షి	-13417
ప్యూటీ	-13418
బినెట్	-13419
స్త్రీ	-13420
ింపబడి	-13421
▁1910:	-13422
▁అనేకం	-13423
▁ఉపనిష	-13424
▁ఏమిటో	-13425
▁ఒడ్డు	-13426
▁కాలపు	-13427
▁కైలాస	-13428
▁కొయ్య	-13429
▁కోకిల	-13430
▁కోటకు	-13431
▁క్రమే	-13432
▁గడుపు	-13433
▁గ్రంధ	-13434
▁జంటగా	-13435
▁దోహదం	-13436
▁నరేష్	-13437
▁నిదుర	-13438
▁నెరవే	-13439
▁పాటకు	-13440
▁పిట్ట	-13441
▁ప్రచో	-13442
▁ప్రబల	-13443
▁బస్తీ	-13444
▁బాంబు	-13445
▁బూడిద	-13446
▁మహనీయ	-13447
▁మహాను	-13448
▁వంశము	-13449
▁వద్దు	-13450
▁వెన్న	-13451
▁హృదయం	-13452
కపోయినా	-13453
త్తులను	-13454
సెప్టెం	-13455
స్తారని	-13456
▁అదృష్ట	-13457
▁ఆసియన్	-13458
▁ఒకనాడు	-13459
▁క్విట్	-13460
▁గోపురం	-13461
▁చక్కటి	-13462
▁చూస్తూ	-13463
▁ట్రేడ్	-13464
▁నిన్నే	-13465
▁పిలిచి	-13466
▁పురుగు	-13467
▁పెంపకం	-13468
▁మహాప్ర	-13469
▁ముచ్చట	-13470
▁మొక్కు	-13471
▁రంపచోడ	-13472
▁రఘునాథ	-13473
▁రాచరిక	-13474
▁రుద్రా	-13475
▁వంటిది	-13476
▁వసతులు	-13477
▁వీటూరి	-13478
▁శిష్యు	-13479
▁షిర్డీ	-13480
▁సంప్రద	-13481
▁సభాపతి	-13482
▁సాధ్యం	-13483
▁సాఫ్టు	-13484
▁సేనాని	-13485
కారానికి	-13486
లవల్లేరు	-13487
విద్యుత్	-13488
▁అనుబంధం	-13489
▁ఆధిపత్య	-13490
▁ఒత్తిడి	-13491
▁గండికోట	-13492
▁చేజిక్క	-13493
▁తయారుచే	-13494
▁నగరాలకు	-13495
▁నారాయణా	-13496
▁బృహత్తర	-13497
▁మండలంతో	-13498
▁మధ్యయుగ	-13499
▁మాంత్రి	-13500
▁యువకుడు	-13501
▁రోజులకు	-13502
▁వేదపండి	-13503
▁శ్రీమహా	-13504
▁సామూహిక	-13505
▁సిమెంటు	-13506
▁సురక్షి	-13507
ంటున్నారు	-13508
▁కొల్లేరు	-13509
▁చింతామణి	-13510
▁నిర్వర్త	-13511
▁బహుమతులు	-13512
▁బ్రదర్స్	-13513
▁రాజగోపాల	-13514
▁వేస్తారు	-13515
▁సముద్రము	-13516
▁సింగరేణి	-13517
▁సీతాదేవి	-13518
సుబ్రమణ్యం	-13519
▁అంతర్వేది	-13520
▁ఇంగ్లాండ్	-13521
▁కోల్పోయిన	-13522
▁గుంటూరులో	-13523
▁చేపట్టారు	-13524
▁జరిగిందని	-13525
▁పరిశ్రమలో	-13526
▁మద్యాహ్నం	-13527
▁రజతోత్సవం	-13528
▁వెంకటగిరి	-13529
▁సభ్యురాలు	-13530
▁సారవంతమైన	-13531
▁స్టేషన్లు	-13532
▁కన్నులపండు	-13533
▁గ్రంథాన్ని	-13534
▁చెందినవాడు	-13535
▁జర్నలిస్టు	-13536
▁ప్రచోదయాత్	-13537
▁ముఖ్యమైనది	-13538
▁యాత్రికుడు	-13539
▁స్థానికంగా	-13540
▁అన్నమాచార్య	-13541
▁కార్యాలయంలో	-13542
▁చేతులమీదుగా	-13543
▁చేసుకోవాలని	-13544
▁ప్రేక్షకులు	-13545
▁బ్రహ్మంగారి	-13546
▁భారతదేశములో	-13547
▁విజయలక్ష్మి	-13548
▁ఇన్స్పెక్టర్	-13549
▁కృష్ణారెడ్డి	-13550
▁గుర్తించింది	-13551
▁నేతృత్వంలోని	-13552
▁సత్కరించింది	-13553
▁ఏర్పాటుచేశారు	-13554
▁ప్రయత్నిస్తాడు	-13555
▁భక్తిశ్రద్ధలతో	-13556
▁ప్రసిద్ధిచెందిన	-13557
2]	-13558
eg	-13559
ma	-13560
pe	-13561
అర	-13562
నర	-13563
నృ	-13564
ఱి	-13565
శత	-13566
▁;	-13567
60)	-13568
:19	-13569
ala	-13570
ఉదా	-13571
జరు	-13572
నెల	-13573
సస్	-13574
సూయ	-13575
హాల	-13576
ాకా	-13577
ుడై	-13578
ెంత	-13579
▁94	-13580
▁Of	-13581
▁[[	-13582
▁ఆం	-13583
▁ఉమ	-13584
▁ఖి	-13585
▁గై	-13586
▁త్	-13587
▁ధి	-13588
ages	-13589
ంగిమ	-13590
కాల్	-13591
టీసీ	-13592
డార్	-13593
డ్జ్	-13594
తోనూ	-13595
దూర్	-13596
నిస్	-13597
పోవు	-13598
మానా	-13599
మ్లా	-13600
రంతా	-13601
ర్సు	-13602
లాకి	-13603
లాడి	-13604
వాల్	-13605
వేశం	-13606
ుంటు	-13607
ెమ్మ	-13608
▁107	-13609
▁126	-13610
▁153	-13611
▁166	-13612
▁216	-13613
▁320	-13614
▁ఎకన	-13615
▁మఖ్	-13616
▁లంచ	-13617
కాలనీ	-13618
కొమ్మ	-13619
కొరకు	-13620
గమాంబ	-13621
జెప్ప	-13622
డతాడు	-13623
ధులకు	-13624
న్నిక	-13625
మట్టి	-13626
యన్లు	-13627
ర్యోధ	-13628
వర్తన	-13629
సాధార	-13630
ాన్సీ	-13631
ెస్టి	-13632
్రిక్	-13633
▁1857	-13634
▁1913	-13635
▁1935	-13636
▁with	-13637
▁అనిప	-13638
▁కలలో	-13639
▁కాపు	-13640
▁చంపు	-13641
▁చదివ	-13642
▁చీలి	-13643
▁చైర్	-13644
▁తళ్ళ	-13645
▁తానీ	-13646
▁తేనె	-13647
▁నందా	-13648
▁నందీ	-13649
▁నేర్	-13650
▁నోరు	-13651
▁పతకం	-13652
▁ప్రహ	-13653
▁బిల్	-13654
▁బ్రూ	-13655
▁మరచి	-13656
▁ముల్	-13657
▁రాగా	-13658
▁లాహో	-13659
▁వావి	-13660
▁విలు	-13661
▁విస్	-13662
▁సమర్	-13663
.1900)	-13664
.1902)	-13665
.1930)	-13666
.1939)	-13667
క్తులు	-13668
చుకుని	-13669
చెన్నై	-13670
జేశాడు	-13671
టూరులో	-13672
తుర్తి	-13673
తులూరి	-13674
పడతాయి	-13675
పీడియా	-13676
బ్బాయి	-13677
భారతీయ	-13678
వంతులు	-13679
ించేలా	-13680
ీశ్వరి	-13681
▁1911:	-13682
▁1921:	-13683
▁1999:	-13684
▁అగస్త	-13685
▁అనురా	-13686
▁ఆరోజు	-13687
▁ఇడ్లీ	-13688
▁కచేరీ	-13689
▁కిష్ట	-13690
▁కుమ్మ	-13691
▁కొంగర	-13692
▁తుళువ	-13693
▁దుష్ట	-13694
▁ద్వేష	-13695
▁ధీమహి	-13696
▁నదీతీ	-13697
▁పండ్ల	-13698
▁పెదవే	-13699
▁బజార్	-13700
▁మహావీ	-13701
▁మాధవి	-13702
▁మెప్ప	-13703
▁మొఘలు	-13704
▁వితరణ	-13705
▁వెచ్చ	-13706
▁శుక్ల	-13707
▁స్తుత	-13708
anguage	-13709
డుతున్న	-13710
ించలేని	-13711
ించుకోవ	-13712
ూరులోను	-13713
్రాబాద్	-13714
▁అపూర్వ	-13715
▁ఆదిశేష	-13716
▁ఆఫ్రిక	-13717
▁ఋతుపవన	-13718
▁ఎక్కడా	-13719
▁ఎడిటర్	-13720
▁కంట్రో	-13721
▁కళాప్ర	-13722
▁కావేరీ	-13723
▁కోరుతూ	-13724
▁క్రికె	-13725
▁చిత్రా	-13726
▁జనాదరణ	-13727
▁తుఫాను	-13728
▁దిద్దు	-13729
▁నాటికే	-13730
▁పదములు	-13731
▁పనులకు	-13732
▁పరస్పర	-13733
▁పరాజయం	-13734
▁పిలుచు	-13735
▁మెట్లు	-13736
▁రాజన్న	-13737
▁రాలేదు	-13738
▁రూపాయి	-13739
▁లెనిన్	-13740
▁వారిచే	-13741
▁విధులు	-13742
▁విషయమై	-13743
▁విషయాల	-13744
▁సుందరా	-13745
▁స్వాతి	-13746
కపోవడంతో	-13747
మోహనరావు	-13748
స్తున్నా	-13749
▁కావచ్చు	-13750
▁కృష్ణకు	-13751
▁చెక్కిన	-13752
▁చేయించి	-13753
▁జరిపారు	-13754
▁జ్యోతిష	-13755
▁డ్రైవర్	-13756
▁దేవతలకు	-13757
▁నేలకొండ	-13758
▁పరిమితం	-13759
▁పర్షియా	-13760
▁పాలమూరు	-13761
▁పెట్టడం	-13762
▁ప్రాకృత	-13763
▁రామరాయల	-13764
▁వచ్చినా	-13765
▁వచ్చును	-13766
▁విద్మహే	-13767
▁విప్లవా	-13768
▁వెర్షన్	-13769
▁వెళతాడు	-13770
▁షూటింగ్	-13771
▁సత్యభామ	-13772
▁సెకండరీ	-13773
న్నింటినీ	-13774
సముద్రంలో	-13775
▁అనుకున్న	-13776
▁కనిపించి	-13777
▁కొండవీడు	-13778
▁కొడుకును	-13779
▁కోదండరామ	-13780
▁క్షత్రియ	-13781
▁గణనీయంగా	-13782
▁గీతాంజలి	-13783
▁చెప్తారు	-13784
▁దుర్మార్	-13785
▁నిర్లక్ష	-13786
▁పట్టభద్ర	-13787
▁పెండ్యాల	-13788
▁ప్రచురిత	-13789
▁ప్రయోజనం	-13790
▁ప్రాంగణం	-13791
▁ఫ్రాన్సు	-13792
▁బిజినెస్	-13793
▁బిలియన్ల	-13794
▁బౌద్ధమతం	-13795
▁మార్క్స్	-13796
▁ముస్లింల	-13797
▁విద్యార్	-13798
▁వ్యక్తుల	-13799
▁సామ్యవాద	-13800
▁సౌకర్యము	-13801
క్ట్రానిక్	-13802
ప్రాంతాలలో	-13803
▁ఆస్థానంలో	-13804
▁గుండెపోటు	-13805
▁చంద్రబోస్	-13806
▁చింతలపూడి	-13807
▁జనసాంద్రత	-13808
▁నమ్ముతారు	-13809
▁పట్టణాలకు	-13810
▁పత్రికలలో	-13811
▁పర్వతశ్రే	-13812
▁పేర్కొంది	-13813
▁ప్రదేశ్లో	-13814
▁మేనల్లుడు	-13815
▁రమ్యకృష్ణ	-13816
▁రాజకీయంగా	-13817
▁లక్ష్మిని	-13818
▁వ్యాఖ్యలు	-13819
పాత్రాభినయం	-13820
▁అభ్యర్థిగా	-13821
▁అసిస్టెంట్	-13822
▁ఆత్మకూరులో	-13823
▁కార్యాలయాల	-13824
▁గ్రామాల్లో	-13825
▁చెందుతున్న	-13826
▁పూర్వీకులు	-13827
▁ప్రవహిస్తూ	-13828
▁రికార్డులు	-13829
▁వాతావరణంలో	-13830
▁వివాదాస్పద	-13831
▁వెంకటరత్నం	-13832
▁సందర్భాలలో	-13833
▁జాతీయరహదారి	-13834
▁గుడ్లవల్లేరు	-13835
▁జరుగుతున్నది	-13836
▁పరిగణిస్తారు	-13837
▁మచిలీపట్నంలో	-13838
▁రామచంద్రరావు	-13839
▁చెప్పుకోవచ్చు	-13840
▁జరుపుకున్నాయి	-13841
▁నిర్మించనున్న	-13842
▁పురస్కారానికి	-13843
▁నిజామాబాద్లోనూ	-13844
▁భావించబడుతుంది	-13845
)-	-13846
ID	-13847
OS	-13848
aw	-13849
ya	-13850
జై	-13851
నక	-13852
యొ	-13853
00.	-13854
19.	-13855
ank	-13856
eop	-13857
tit	-13858
ంతం	-13859
కూల	-13860
జ్వ	-13861
టకై	-13862
తర్	-13863
తేజ	-13864
దనే	-13865
ధీన	-13866
యాళ	-13867
రపు	-13868
వతీ	-13869
వలో	-13870
సరు	-13871
ీయం	-13872
ుడే	-13873
్మయ	-13874
్మశ	-13875
▁ఇద	-13876
▁ఏవ	-13877
▁ఛీ	-13878
▁దహ	-13879
▁రణ	-13880
ated	-13881
అతను	-13882
టికా	-13883
టీన్	-13884
ద్రీ	-13885
నామం	-13886
నులో	-13887
బద్ద	-13888
యానా	-13889
యేతర	-13890
ల్పు	-13891
వికో	-13892
ష్ఠి	-13893
సికో	-13894
ీకృత	-13895
్యమి	-13896
్వాస	-13897
▁(12	-13898
▁360	-13899
▁అవే	-13900
▁ఊర్	-13901
▁ఏకీ	-13902
▁ఓహో	-13903
▁కండ	-13904
▁గంభ	-13905
▁గోర	-13906
▁జాల	-13907
▁జీత	-13908
▁తండ	-13909
▁తుం	-13910
▁దళం	-13911
▁ప్ల	-13912
▁బహూ	-13913
▁లవ్	-13914
▁విద	-13915
▁వీట	-13916
▁వెద	-13917
ంటిని	-13918
అంతర్	-13919
ఎల్వి	-13920
కల్పం	-13921
కొలను	-13922
దీక్ష	-13923
పాఖ్య	-13924
బర్గ్	-13925
య్యర్	-13926
రాస్య	-13927
రీకరణ	-13928
రులతో	-13929
వింద్	-13930
శాలను	-13931
స్టన్	-13932
▁1860	-13933
▁1934	-13934
▁1943	-13935
▁అఖండ	-13936
▁ఆయనే	-13937
▁ఆవుల	-13938
▁ఇంతే	-13939
▁ఇళ్ళ	-13940
▁కోదా	-13941
▁గద్య	-13942
▁చేశా	-13943
▁తేల్	-13944
▁ద్రౌ	-13945
▁నిము	-13946
▁పురి	-13947
▁ఫోటో	-13948
▁బందీ	-13949
▁బడిన	-13950
▁బద్ద	-13951
▁మురి	-13952
▁రాణీ	-13953
▁లాంగ	-13954
▁విసి	-13955
▁వెనక	-13956
▁షాహి	-13957
▁హామీ	-13958
.1910)	-13959
.1975)	-13960
ficial	-13961
అందులో	-13962
చర్లలో	-13963
దుర్గం	-13964
న్నేరు	-13965
బిల్లి	-13966
బ్బులు	-13967
మందికి	-13968
మూరులో	-13969
రోజులు	-13970
వాళ్లు	-13971
వుకారు	-13972
సాగాడు	-13973
స్టులు	-13974
ాంతర్గ	-13975
ారోగ్య	-13976
ార్లలో	-13977
▁1943:	-13978
▁అంజలీ	-13979
▁ఆరోపణ	-13980
▁ఆలయము	-13981
▁ఇనుము	-13982
▁ఉప్పల	-13983
▁గిద్ద	-13984
▁గ్రహం	-13985
▁జమ్మూ	-13986
▁డాలర్	-13987
▁తినడం	-13988
▁దొరిక	-13989
▁నష్టం	-13990
▁పనిము	-13991
▁పాటలో	-13992
▁పాదాల	-13993
▁పురోగ	-13994
▁ప్రిం	-13995
▁యుక్త	-13996
▁రైతుల	-13997
▁లోతైన	-13998
▁వన్నె	-13999
▁సంఘాల	-14000
▁సమ్మే	-14001
▁హవేలీ	-14002
అమెరికా	-14003
కొంటారు	-14004
త్మకమైన	-14005
స్టాండ్	-14006
ాల్లోనూ	-14007
▁అష్టది	-14008
▁అష్టావ	-14009
▁ఆంగ్లం	-14010
▁ఆర్థర్	-14011
▁ఏకాదశి	-14012
▁ఒక్కటే	-14013
▁కల్యాణ	-14014
▁కేరళలో	-14015
▁కొల్హా	-14016
▁కోపంతో	-14017
▁ఖ్యాతి	-14018
▁గుడికి	-14019
▁చేసాయి	-14020
▁జైలుకు	-14021
▁డాలర్ల	-14022
▁ధైర్యం	-14023
▁నిడివి	-14024
▁పోటీలో	-14025
▁ప్రతిఘ	-14026
▁ప్రేరే	-14027
▁భాగమైన	-14028
▁మాండ్య	-14029
▁ముక్తి	-14030
▁రచనలను	-14031
▁రాజాజీ	-14032
▁విక్రయ	-14033
▁వితంతు	-14034
▁వినోబా	-14035
▁వెలుపల	-14036
▁శశిరేఖ	-14037
▁శాసనాల	-14038
▁సంఘాలు	-14039
▁సంధ్యా	-14040
▁సహస్రా	-14041
▁సాలూరు	-14042
▁హుబ్లి	-14043
మిల్లిలో	-14044
స్వీకారం	-14045
ుడయ్యాడు	-14046
▁అక్షాంశ	-14047
▁అడవులలో	-14048
▁ఎనిమిదవ	-14049
▁ఎలాగైనా	-14050
▁కల్యాణం	-14051
▁కాంట్రా	-14052
▁ఖమ్మంలో	-14053
▁గంగానది	-14054
▁చిన్నది	-14055
▁చేయడంతో	-14056
▁డిమాండ్	-14057
▁దీపావళి	-14058
▁నన్నయ్య	-14059
▁నియమాలు	-14060
▁నిలిచిన	-14061
▁నైవేద్య	-14062
▁పత్రికల	-14063
▁పూర్ణిమ	-14064
▁ప్రక్కల	-14065
▁ప్రచురి	-14066
▁బౌద్ధమత	-14067
▁భారతంలో	-14068
▁మరణించే	-14069
▁మహానుభా	-14070
▁మానవుడు	-14071
▁మొత్తము	-14072
▁మొదలయిన	-14073
▁రంగనాథ్	-14074
▁రాజంపేట	-14075
▁రావణుని	-14076
▁లైబ్రరీ	-14077
▁విశ్వసి	-14078
▁విశ్వాస	-14079
▁సంతకాలు	-14080
▁సంస్కార	-14081
▁సమస్యను	-14082
▁హనుమంతు	-14083
ించినపుడు	-14084
▁అంతేకాదు	-14085
▁ఇండియాలో	-14086
▁ఇంద్రుడు	-14087
▁ఉన్నారని	-14088
▁ఏర్పాటైన	-14089
▁చిత్రంతో	-14090
▁త్రిలింగ	-14091
▁పద్యాలలో	-14092
▁పుత్రుడు	-14093
▁ముసునూరి	-14094
▁లక్షద్వీ	-14095
▁విగ్రహాల	-14096
▁వెంకట్రా	-14097
▁వెంగమాంబ	-14098
▁వ్యాధులు	-14099
▁శతాబ్దము	-14100
▁శ్లోకాలు	-14101
▁షాద్నగర్	-14102
▁సుసంపన్న	-14103
▁సూర్యుడు	-14104
మురళీకృష్ణ	-14105
▁ఉయ్యాలవాడ	-14106
▁తిరుపతిలో	-14107
▁తీసుకోవడం	-14108
▁పేజీలున్న	-14109
▁ముళ్ళపూడి	-14110
▁లక్ష్యంగా	-14111
▁వ్యక్తిని	-14112
▁స్థానాలలో	-14113
▁స్పీకర్గా	-14114
▁హిందూపురం	-14115
▁హెక్టార్ల	-14116
▁కనిపెట్టిన	-14117
▁కల్వకుర్తి	-14118
▁కావ్యాన్ని	-14119
▁కొత్తపల్లి	-14120
▁గ్రామాలుతో	-14121
▁తాలూకాలోని	-14122
▁నియమించారు	-14123
▁మహాభారతంలో	-14124
▁వచ్చినపుడు	-14125
▁వస్తువులను	-14126
▁విద్యనభ్యస	-14127
▁సంస్కృతిలో	-14128
▁అప్పలాచార్య	-14129
▁కృష్ణకుమారి	-14130
▁గ్రామములోని	-14131
▁చరిత్రకారుల	-14132
▁నియమించింది	-14133
▁ప్రధానమైనవి	-14134
▁మొదలవుతుంది	-14135
▁వాస్తవానికి	-14136
▁సూర్యకుమారి	-14137
రాఘవేంద్రరావు	-14138
▁అందుబాటులోకి	-14139
▁కన్నులపండువగా	-14140
▁కార్యక్రమాలకు	-14141
▁విశ్వేశ్వరయ్య	-14142
▁శతదినోత్సవాలు	-14143
▁విశ్వవిద్యాలయము	-14144
▁వేణుగోపాలస్వామి	-14145
▁సుందరరామ్మూర్తి	-14146
09	-14147
ef	-14148
if	-14149
sp	-14150
ఖో	-14151
డొ	-14152
పౌ	-14153
ేం	-14154
▁y	-14155
15.	-14156
80.	-14157
act	-14158
eng	-14159
ందె	-14160
కేశ	-14161
టలో	-14162
డమ్	-14163
దము	-14164
పస్	-14165
ఫలం	-14166
భోగ	-14167
రంభ	-14168
రఘు	-14169
లాడ	-14170
ష్వ	-14171
▁91	-14172
▁ఈత	-14173
▁ధృ	-14174
▁రక	-14175
rans	-14176
ందలి	-14177
అంటే	-14178
ఇతను	-14179
కీర్	-14180
కోల్	-14181
క్యం	-14182
క్లో	-14183
గన్న	-14184
గావ్	-14185
జుడు	-14186
ట్టె	-14187
ట్టో	-14188
డాన్	-14189
త్వా	-14190
పాయి	-14191
పేజీ	-14192
ఫోర్	-14193
బ్యూ	-14194
భాయి	-14195
ముపై	-14196
యాను	-14197
యోగం	-14198
ర్థం	-14199
లిజం	-14200
వర్త	-14201
విక్	-14202
వియా	-14203
షెడ్	-14204
ాంగం	-14205
▁127	-14206
▁161	-14207
▁518	-14208
▁అంధ	-14209
▁అణి	-14210
▁అరా	-14211
▁అరె	-14212
▁ఆలప	-14213
▁ఐదే	-14214
▁ఐస్	-14215
▁ఓటు	-14216
▁కలన	-14217
▁గలవ	-14218
▁ఘన్	-14219
▁చీల	-14220
▁చోడ	-14221
▁జంబ	-14222
▁తగల	-14223
▁దోస	-14224
▁మడి	-14225
▁రేవ	-14226
▁లిఖ	-14227
▁లేవ	-14228
▁వరు	-14229
▁శాస	-14230
title	-14231
ండ్రు	-14232
ందన్న	-14233
గులను	-14234
చింతల	-14235
జీపేట	-14236
నాలను	-14237
పడుతూ	-14238
పర్రు	-14239
మ్మకు	-14240
ానిధి	-14241
ాలంలో	-14242
ాలిక్	-14243
ెయిన్	-14244
్విన్	-14245
▁1890	-14246
▁1909	-14247
▁అంజి	-14248
▁ఎదుట	-14249
▁కాకు	-14250
▁కాను	-14251
▁కుర్	-14252
▁ఖండి	-14253
▁గులా	-14254
▁జక్క	-14255
▁జాక్	-14256
▁జులై	-14257
▁తనతో	-14258
▁తేది	-14259
▁నిధి	-14260
▁బచ్చ	-14261
▁బావా	-14262
▁మందా	-14263
▁మాధు	-14264
▁ముఖం	-14265
▁మెమో	-14266
▁రాగం	-14267
▁ల్యా	-14268
▁వాన్	-14269
▁వాలీ	-14270
▁వోల్	-14271
▁సాటి	-14272
▁సేన్	-14273
.1901)	-14274
.1909)	-14275
.1915)	-14276
.1926)	-14277
.1937)	-14278
.1974)	-14279
.2005)	-14280
కుడిని	-14281
కొన్ని	-14282
క్సెస్	-14283
టిల్స్	-14284
త్రాలు	-14285
నోద్యమ	-14286
పరిచిన	-14287
పరిషత్	-14288
రాజుకు	-14289
విధానం	-14290
వ్యాధి	-14291
స్తంభం	-14292
స్థితి	-14293
్వర్డ్	-14294
▁1901:	-14295
▁1917:	-14296
▁2003:	-14297
▁అంతిమ	-14298
▁ఉత్తే	-14299
▁ఒకరైన	-14300
▁కల్పన	-14301
▁కాన్ఫ	-14302
▁కిట్ట	-14303
▁గణాలు	-14304
▁గదిలో	-14305
▁గురైన	-14306
▁చిదంబ	-14307
▁చిరుత	-14308
▁చెట్ల	-14309
▁ట్రాం	-14310
▁తజిక్	-14311
▁తొక్క	-14312
▁దువ్వ	-14313
▁ధూర్జ	-14314
▁ధ్యాన	-14315
▁నర్సీ	-14316
▁నాంది	-14317
▁పాలెం	-14318
▁పిచ్చ	-14319
▁పునరా	-14320
▁పెంచి	-14321
▁మద్యం	-14322
▁మాతృక	-14323
▁ముంపు	-14324
▁మొగల్	-14325
▁రబీలో	-14326
▁రెండే	-14327
▁రొయ్య	-14328
▁లలితా	-14329
▁వనవాస	-14330
▁విధ్వ	-14331
▁సందేశ	-14332
▁సత్తు	-14333
▁హెచ్ఐ	-14334
సరస్వతి	-14335
▁అలంకరణ	-14336
▁ఇంటిని	-14337
▁కాల్చి	-14338
▁గోవాలో	-14339
▁తెలివి	-14340
▁పటిష్ఠ	-14341
▁పద్మవి	-14342
▁పూర్ణా	-14343
▁పెట్టె	-14344
▁ప్రీతి	-14345
▁ఫిర్యా	-14346
▁బట్టలు	-14347
▁భగవాన్	-14348
▁భద్రతా	-14349
▁మనుషుల	-14350
▁మీడియా	-14351
▁యూదులు	-14352
▁రాళ్ళు	-14353
▁రీతిలో	-14354
▁విక్టో	-14355
▁వేంకటా	-14356
▁శకుంతల	-14357
▁సంఖ్యా	-14358
▁సంఘసేవ	-14359
▁సత్తెన	-14360
▁సైనికా	-14361
అక్టోబరు	-14362
ఇంగ్లీషు	-14363
నున్నారు	-14364
సుబ్బయ్య	-14365
▁అంటరాని	-14366
▁అంతకంటే	-14367
▁అక్షరాల	-14368
▁అన్వేషణ	-14369
▁అవుతాడు	-14370
▁అవుతాయి	-14371
▁ఉండడంతో	-14372
▁కన్నుమూ	-14373
▁కొనసాగి	-14374
▁గడిపాడు	-14375
▁జనవరిలో	-14376
▁జీవించి	-14377
▁తుర్కమే	-14378
▁దక్షిణం	-14379
▁దేవాదాయ	-14380
▁ధార్మిక	-14381
▁నరసింహం	-14382
▁నాటకంలో	-14383
▁నిర్మూల	-14384
▁పండుగలు	-14385
▁పాండవుల	-14386
▁పెద్దయె	-14387
▁పేరుమీద	-14388
▁ఫలితాలు	-14389
▁మల్లయ్య	-14390
▁మస్తాన్	-14391
▁మేడ్చల్	-14392
▁రకాలుగా	-14393
▁సాంప్రద	-14394
▁స్వయంభు	-14395
తులయ్యారు	-14396
▁ఇతివృత్త	-14397
▁ఉత్తరంగా	-14398
▁ఉద్యోగుల	-14399
▁ఓడించాడు	-14400
▁కెప్టెన్	-14401
▁కొవ్వూరు	-14402
▁క్రీడలలో	-14403
▁చేరుకుని	-14404
▁డిప్యూటీ	-14405
▁తండ్రికి	-14406
▁తగ్గింది	-14407
▁తళ్ళికోట	-14408
▁తీసికొని	-14409
▁దేవాలయాల	-14410
▁దేశమంతటా	-14411
▁దేశాల్లో	-14412
▁నిలిచారు	-14413
▁పాలనలోకి	-14414
▁పాలుపంచు	-14415
▁పుత్రులు	-14416
▁ప్రతినాయ	-14417
▁భవనాన్ని	-14418
▁యునెస్కో	-14419
▁విధాలుగా	-14420
▁విరాళంగా	-14421
▁వ్రాసాడు	-14422
▁సినిమాతో	-14423
▁స్టేడియం	-14424
▁స్థలపురా	-14425
▁ఆంగ్లేయుల	-14426
▁ఆర్యభట్టు	-14427
▁ఉద్యోగాలు	-14428
▁ఔరంగాబాద్	-14429
▁కావచ్చును	-14430
▁కుదిరింది	-14431
▁గాయకురాలు	-14432
▁చిన్ననాటి	-14433
▁చూడటానికి	-14434
▁చేసినట్లు	-14435
▁చేసుకోవడం	-14436
▁డాక్టరేట్	-14437
▁పురాణాలలో	-14438
▁పుస్తకంలో	-14439
▁భారతీయులు	-14440
▁మధ్యాహ్నం	-14441
▁మొదలుకొని	-14442
▁రఘురామయ్య	-14443
▁వారపత్రిక	-14444
▁విచ్ఛిన్న	-14445
▁విజయానికి	-14446
▁శ్రీకాంత్	-14447
▁సముద్రతీర	-14448
▁సృష్టించి	-14449
▁కల్పించారు	-14450
▁జాగ్రత్తగా	-14451
▁తీసుకోలేదు	-14452
▁నిర్మితమైన	-14453
▁వరంగల్లోనూ	-14454
▁సృష్టించిన	-14455
▁స్వామివారు	-14456
▁ఉష్ణోగ్రతలు	-14457
▁కనిపించింది	-14458
▁కాంప్లెక్స్	-14459
▁చేసుకోవచ్చు	-14460
▁తమ్మారెడ్డి	-14461
▁పుట్టినరోజు	-14462
▁రవీంద్రనాథ్	-14463
▁శనివారంనాడు	-14464
▁ఆంధ్రరాష్ట్ర	-14465
▁ఇబ్రహీంపట్నం	-14466
▁కలిగిస్తుంది	-14467
▁కోటేశ్వరరావు	-14468
▁చిత్రాల్లోనూ	-14469
▁ప్రయత్నించిన	-14470
▁మహాశివరాత్రి	-14471
▁విష్ణుమూర్తి	-14472
▁సంవత్సరాల్లో	-14473
▁సాహిత్యానికి	-14474
▁స్థిరపడ్డారు	-14475
▁కార్యాలయాన్ని	-14476
▁జరుగుతున్నాయి	-14477
▁నిర్వహించింది	-14478
▁మొదలుపెట్టారు	-14479
▁శ్రీరామమూర్తి	-14480
▁సికింద్రాబాద్	-14481
▁తెలియజేస్తుంది	-14482
▁ప్రమాణస్వీకారం	-14483
▁ఉజ్బెకిస్థాన్లో	-14484
▁చంద్రబాబునాయుడు	-14485
▁చెన్నకేశవస్వామి	-14486
▁పనిచేస్తున్నారు	-14487
▁పురస్కరించుకొని	-14488
▁ప్రవేశపెట్టింది	-14489
▁ప్రారంభమవుతుంది	-14490
?"	-14491
AN	-14492
ph	-14493
థో	-14494
బయ	-14495
మళ	-14496
.10	-14497
13,	-14498
70.	-14499
90.	-14500
ara	-14501
arn	-14502
ism	-14503
ost	-14504
అను	-14505
కిక	-14506
నవం	-14507
మరా	-14508
యిం	-14509
లకం	-14510
శాం	-14511
సాన	-14512
ాజ్	-14513
ూన్	-14514
ూరో	-14515
▁Sh	-14516
▁గద	-14517
▁డు	-14518
.177	-14519
orld	-14520
కద్ర	-14521
కన్య	-14522
గుణం	-14523
చైనా	-14524
జంతా	-14525
జాక్	-14526
జాలం	-14527
తాండ	-14528
పరచి	-14529
పైగా	-14530
పోతల	-14531
భర్త	-14532
మీడి	-14533
మూడు	-14534
లోగా	-14535
వెంట	-14536
వేదం	-14537
షిప్	-14538
షీద్	-14539
స్పె	-14540
ాలనీ	-14541
ైనర్	-14542
▁(1,	-14543
▁109	-14544
▁118	-14545
▁135	-14546
▁Sar	-14547
▁[1]	-14548
▁ఎగి	-14549
▁కమా	-14550
▁ఖాన	-14551
▁ఘటన	-14552
▁చిట	-14553
▁జరప	-14554
▁టమో	-14555
▁తీగ	-14556
▁తేట	-14557
▁తేమ	-14558
▁నాద	-14559
▁ఫైన	-14560
▁భట్	-14561
▁రస్	-14562
▁లోన	-14563
▁వేర	-14564
▁శంక	-14565
▁సద్	-14566
ండును	-14567
ందురు	-14568
కాలకు	-14569
కాలపు	-14570
పరచిన	-14571
పాకలో	-14572
పియర్	-14573
మనిషి	-14574
మల్లి	-14575
రాజన్	-14576
లలోనే	-14577
శేఖరం	-14578
సెంట్	-14579
ినీడు	-14580
ీయమైన	-14581
ుండుట	-14582
▁(194	-14583
▁1800	-14584
▁comp	-14585
▁ఇన్ఫ	-14586
▁కలది	-14587
▁కలలు	-14588
▁కలాం	-14589
▁కీసర	-14590
▁గానూ	-14591
▁గోపు	-14592
▁జాగీ	-14593
▁జోషి	-14594
▁తిలక	-14595
▁తెరి	-14596
▁నోటి	-14597
▁పంపే	-14598
▁పదాల	-14599
▁పాతి	-14600
▁పులక	-14601
▁పూను	-14602
▁పోసి	-14603
▁బాపి	-14604
▁బాపూ	-14605
▁బెలూ	-14606
▁భగీర	-14607
▁భరత్	-14608
▁మతాల	-14609
▁మినీ	-14610
▁యురే	-14611
▁వాటా	-14612
▁వేదం	-14613
▁వ్లా	-14614
▁సాగే	-14615
.1907)	-14616
.2018)	-14617
ionary	-14618
nivers	-14619
గోపురం	-14620
టిగంటి	-14621
తండ్రి	-14622
త్రపతి	-14623
దేవిని	-14624
ద్వేలు	-14625
పరిశోధ	-14626
పూర్వం	-14627
రూపంలో	-14628
ల్లారా	-14629
వృత్తి	-14630
సరించి	-14631
ాంటిక్	-14632
ిక్యుల	-14633
ెంట్స్	-14634
▁కాల్వ	-14635
▁గద్దె	-14636
▁గూడెం	-14637
▁గోడకు	-14638
▁చైత్ర	-14639
▁ఛంధము	-14640
▁జడ్జి	-14641
▁జవాబు	-14642
▁డచ్చి	-14643
▁తృతీయ	-14644
▁దీవుల	-14645
▁దొంగల	-14646
▁నడిబొ	-14647
▁పట్టే	-14648
▁పాక్ష	-14649
▁ఫంక్ష	-14650
▁బాలుర	-14651
▁ముత్త	-14652
▁వాస్త	-14653
▁శోభనా	-14654
▁సుమతీ	-14655
జిస్ట్ర	-14656
భవాన్ని	-14657
వంతుడైన	-14658
▁ఆదేశాల	-14659
▁ఎక్కడి	-14660
▁కలుగజే	-14661
▁కవులలో	-14662
▁కార్పో	-14663
▁కార్ల్	-14664
▁కూర్చో	-14665
▁కొలువై	-14666
▁కొల్లి	-14667
▁గింజలు	-14668
▁గ్రీన్	-14669
▁గ్రూపు	-14670
▁చదరంగం	-14671
▁చైనీస్	-14672
▁డాన్స్	-14673
▁దేవరాయ	-14674
▁దొరికే	-14675
▁నందిని	-14676
▁నగరపంచ	-14677
▁నటీనటు	-14678
▁నర్తకి	-14679
▁నిజమైన	-14680
▁నిర్దో	-14681
▁పండిట్	-14682
▁పిల్లి	-14683
▁పెద్దల	-14684
▁పోయాయి	-14685
▁ప్రకటి	-14686
▁ఫోర్స్	-14687
▁బురుజు	-14688
▁బుల్లి	-14689
▁భార్యా	-14690
▁మంజీరా	-14691
▁మాల్దీ	-14692
▁రంగులో	-14693
▁రోహిణి	-14694
▁విజయభా	-14695
▁వివక్ష	-14696
▁సంకల్ప	-14697
▁సంక్రమ	-14698
▁అందుకనే	-14699
▁అందుచేత	-14700
▁అలియాస్	-14701
▁ఆద్యుడు	-14702
▁ఇల్లాలు	-14703
▁ఉద్యోగి	-14704
▁ఏలూరులో	-14705
▁ఒరిస్సా	-14706
▁జరుగుతూ	-14707
▁తాత్విక	-14708
▁దిగుబడి	-14709
▁నాగరాజు	-14710
▁పన్నులు	-14711
▁పాపఘ్ని	-14712
▁పుష్కరి	-14713
▁పేదరికం	-14714
▁ఫాల్గుణ	-14715
▁బీజపూర్	-14716
▁భేదములు	-14717
▁మహదేవన్	-14718
▁మార్షల్	-14719
▁వామపక్ష	-14720
▁వాయిద్య	-14721
▁వేసవిలో	-14722
▁స్పీకరు	-14723
▁స్వాగతం	-14724
వారిపాలెం	-14725
▁అందులోని	-14726
▁అవసరాలను	-14727
▁ఆనవాళ్ళు	-14728
▁కమలాబాయి	-14729
▁కాంచనమాల	-14730
▁కావ్యాలు	-14731
▁కుటుంబము	-14732
▁గాంచింది	-14733
▁గూడవల్లి	-14734
▁చెరువులో	-14735
▁ఛాంపియన్	-14736
▁జలపాతాలు	-14737
▁తెలిపారు	-14738
▁నమోదైంది	-14739
▁పాఠశాలకు	-14740
▁పోతులూరి	-14741
▁భక్తులను	-14742
▁ముదిగొండ	-14743
▁రామగుండం	-14744
▁రూపాన్ని	-14745
▁శిష్యుడు	-14746
▁శ్రీనివా	-14747
▁సంస్థలకు	-14748
▁సుందరమైన	-14749
సుబ్బారావు	-14750
▁అదిలాబాదు	-14751
▁అద్భుతంగా	-14752
▁అవార్డులు	-14753
▁ఆచార్యుడు	-14754
▁ఇండస్ట్రీ	-14755
▁ఉపయోగించు	-14756
▁కాకినాడలో	-14757
▁కార్యనిర్	-14758
▁చూస్తున్న	-14759
▁చెప్పబడిన	-14760
▁పట్టణాలలో	-14761
▁పనిచేసారు	-14762
▁ప్రతిబింబ	-14763
▁భానుప్రియ	-14764
▁మంత్రిత్వ	-14765
▁మార్కండేయ	-14766
▁మెమోరియల్	-14767
▁రాష్ట్రీయ	-14768
▁లభిస్తాయి	-14769
▁వెళ్ళింది	-14770
▁వ్యవస్థకు	-14771
▁సీతారాముల	-14772
ాలనుకుంటాడు	-14773
▁ఉత్తరాఖండ్	-14774
▁తయారుచేసిన	-14775
▁పురుషోత్తమ	-14776
▁పోషించింది	-14777
▁ప్రయత్నించ	-14778
▁రిజర్వాయర్	-14779
▁శతాబ్దాలలో	-14780
▁శాస్త్రంలో	-14781
▁సంగీతానికి	-14782
▁సంయుక్తంగా	-14783
▁సంస్కృతిని	-14784
▁సముద్రతీరం	-14785
▁సాంప్రదాయం	-14786
▁సిద్ధేంద్ర	-14787
నాగేశ్వరరావు	-14788
▁అనుభవించాడు	-14789
▁అనువదించారు	-14790
▁కన్యాశుల్కం	-14791
▁క్రిస్టియన్	-14792
▁పెరుగుతున్న	-14793
▁ప్రసిద్ధుడు	-14794
▁ప్రహ్లాదుని	-14795
▁సంపాదించాడు	-14796
▁అప్పుడప్పుడు	-14797
▁ఎన్నికయ్యారు	-14798
▁గురువారంనాడు	-14799
▁చెప్పవచ్చును	-14800
▁చెప్పుకోదగిన	-14801
▁తీసుకున్నాడు	-14802
▁ప్రాజెక్టుకు	-14803
▁మహాత్మాగాంధీ	-14804
▁మునిసిపాలిటీ	-14805
▁రంగాచార్యులు	-14806
▁వాడుతున్నారు	-14807
▁ఛాయాగ్రాహకుడు	-14808
▁ముఖ్యమంత్రులు	-14809
▁సంప్రదాయానికి	-14810
▁అందిస్తున్నాయి	-14811
▁ప్రవేశపెట్టారు	-14812
▁తుర్కమేనిస్తాన్	-14813
▁రాజేంద్రప్రసాద్	-14814
cy	-14815
ూప	-14816
-21	-14817
-25	-14818
10,	-14819
50.	-14820
ita	-14821
oog	-14822
ree	-14823
ంకు	-14824
ఋతి	-14825
కిట	-14826
గడి	-14827
గన్	-14828
ఘ్ర	-14829
తెర	-14830
భవన	-14831
యంబ	-14832
యాగ	-14833
వంక	-14834
వరీ	-14835
వాచ	-14836
సాం	-14837
ాయల	-14838
ికూ	-14839
▁Bh	-14840
▁Th	-14841
▁ఊర	-14842
▁ఎద	-14843
▁కట	-14844
▁షీ	-14845
.180	-14846
000)	-14847
iter	-14848
ంగిక	-14849
ంద్వ	-14850
జీవన	-14851
డాలు	-14852
దుకు	-14853
నీస్	-14854
నుకు	-14855
పారం	-14856
పీఠం	-14857
ఫేర్	-14858
బేజీ	-14859
భాయ్	-14860
మండ్	-14861
మాలి	-14862
మిర్	-14863
రాజన	-14864
రాసు	-14865
రికం	-14866
రిన్	-14867
రోహి	-14868
ర్రె	-14869
వాలా	-14870
వాలో	-14871
షిక్	-14872
సెను	-14873
ాయణం	-14874
ోదరం	-14875
▁112	-14876
▁114	-14877
▁149	-14878
▁154	-14879
▁157	-14880
▁167	-14881
▁169	-14882
▁365	-14883
▁505	-14884
▁900	-14885
▁con	-14886
▁అకా	-14887
▁ఇంక	-14888
▁కలవ	-14889
▁కోవ	-14890
▁చామ	-14891
▁మొర	-14892
▁రథం	-14893
▁రాణ	-14894
▁రైత	-14895
▁లోహ	-14896
▁వయో	-14897
▁వాజ	-14898
▁విప	-14899
▁శోధ	-14900
▁షాజ	-14901
▁సొర	-14902
eople	-14903
overn	-14904
కెళ్ళ	-14905
కోలేక	-14906
క్కడా	-14907
గల్లు	-14908
గాయని	-14909
చెర్ల	-14910
తానని	-14911
తుందో	-14912
పార్వ	-14913
ప్పన్	-14914
బుంటు	-14915
మానము	-14916
మిత్ర	-14917
ములపై	-14918
రేటరీ	-14919
విందు	-14920
శాసనం	-14921
్యూరి	-14922
▁1912	-14923
▁Linu	-14924
▁అజ్ఞ	-14925
▁ఇలవే	-14926
▁ఉపసం	-14927
▁ఊరేగ	-14928
▁కంచు	-14929
▁కనుల	-14930
▁కర్ణ	-14931
▁కలవు	-14932
▁కిరీ	-14933
▁కోడు	-14934
▁గలదు	-14935
▁గానే	-14936
▁గ్లా	-14937
▁చరణ్	-14938
▁జరుగ	-14939
▁తేలి	-14940
▁దళాల	-14941
▁ద్వా	-14942
▁నగలు	-14943
▁నవీన	-14944
▁నాగా	-14945
▁నాన్	-14946
▁ప్రధ	-14947
▁ఫెర్	-14948
▁భట్ట	-14949
▁మనసే	-14950
▁మహ్మ	-14951
▁వారీ	-14952
▁వేగం	-14953
▁శారీ	-14954
▁శిఖర	-14955
▁శిబి	-14956
▁శ్మశ	-14957
▁సోదర	-14958
.1986)	-14959
.1992)	-14960
.1998)	-14961
కళాశాల	-14962
కుందాం	-14963
కుల్లో	-14964
గ్గయ్య	-14965
చేసాడు	-14966
జిత్తు	-14967
టాన్ని	-14968
పూర్ణా	-14969
మానాలు	-14970
లోకంలో	-14971
ల్పూర్	-14972
వస్త్ర	-14973
విధ్యం	-14974
విశ్వా	-14975
సంఖ్యా	-14976
హక్కుల	-14977
ింట్లో	-14978
ేష్కర్	-14979
▁2023,	-14980
▁అండగా	-14981
▁అందరు	-14982
▁అనేవి	-14983
▁అల్లం	-14984
▁ఆవిర్	-14985
▁కథలను	-14986
▁కానుక	-14987
▁కుండల	-14988
▁కుందే	-14989
▁కెర్న	-14990
▁కొద్ద	-14991
▁చలపతి	-14992
▁జ్వరం	-14993
▁తియ్య	-14994
▁దేవతా	-14995
▁ధాన్య	-14996
▁నంద్య	-14997
▁నిరాశ	-14998
▁పరిమళ	-14999
▁పెండ్	-15000
▁బియ్య	-15001
▁భవాని	-15002
▁మర్యా	-15003
▁మల్లు	-15004
▁మిరియ	-15005
▁యానాం	-15006
▁యువతి	-15007
▁రాయల్	-15008
▁రావుల	-15009
▁విమోచ	-15010
▁శ్వాస	-15011
▁సంధ్య	-15012
▁సవాలు	-15013
▁స్ట్ర	-15014
ట్లయితే	-15015
దర్శిని	-15016
బద్ధమైన	-15017
మయ్యాడు	-15018
▁అయ్యర్	-15019
▁ఎనలేని	-15020
▁ఎవరికీ	-15021
▁కొవ్వు	-15022
▁కోర్సు	-15023
▁ఘగ్గర్	-15024
▁ఘటోత్క	-15025
▁చిన్నా	-15026
▁జన్మని	-15027
▁జయలలిత	-15028
▁తానీషా	-15029
▁దీనిపై	-15030
▁దీవులు	-15031
▁దేవిని	-15032
▁నిక్షే	-15033
▁పక్షుల	-15034
▁పచ్చడి	-15035
▁పర్యటన	-15036
▁పాలేరు	-15037
▁పిల్లా	-15038
▁పేదలకు	-15039
▁ఫ్లాష్	-15040
▁బాలుడు	-15041
▁బుక్కర	-15042
▁బొర్రా	-15043
▁భారీగా	-15044
▁మరణించ	-15045
▁ముప్పు	-15046
▁రాకెట్	-15047
▁రాగానే	-15048
▁రాహుల్	-15049
▁వీటితో	-15050
▁వెంపటి	-15051
▁వ్యవధి	-15052
▁సంపాది	-15053
▁సమీపాన	-15054
▁సొమ్ము	-15055
▁సౌకర్య	-15056
▁స్మృతి	-15057
▁హరికథా	-15058
కునేవారు	-15059
కొనేవారు	-15060
▁అందించి	-15061
▁ఉపనదులు	-15062
▁ఎడమవైపు	-15063
▁ఎన్నుకో	-15064
▁కలివికో	-15065
▁గట్టిగా	-15066
▁గాంధీని	-15067
▁గాయత్రీ	-15068
▁చురుకైన	-15069
▁దుర్యోధ	-15070
▁దేశాలతో	-15071
▁ధర్మారం	-15072
▁ధూర్జటి	-15073
▁నైపుణ్య	-15074
▁పెడతాడు	-15075
▁పోరాడిన	-15076
▁భాగాలను	-15077
▁భావించే	-15078
▁మధుమేహం	-15079
▁మసీదులు	-15080
▁మార్గము	-15081
▁లండన్లో	-15082
▁వందలాది	-15083
▁వచ్చేది	-15084
▁వల్లూరు	-15085
▁వ్యాసము	-15086
▁సంఘర్షణ	-15087
▁సన్నిధి	-15088
▁సిమెంట్	-15089
మిస్తుంది	-15090
▁అరుణాచల్	-15091
▁ఇటాలియన్	-15092
▁ఉదాహరణలు	-15093
▁కలిగించే	-15094
▁కొల్లూరు	-15095
▁గణాంకాలు	-15096
▁చరిత్రకు	-15097
▁త్యాగయ్య	-15098
▁దీనివల్ల	-15099
▁దురదృష్ట	-15100
▁పద్ధతులు	-15101
▁పాత్రలలో	-15102
▁పారిపోయి	-15103
▁ప్రయోక్త	-15104
▁బాలచంద్ర	-15105
▁భారతీయుల	-15106
▁మ్యూజిక్	-15107
▁యోగ్యమైన	-15108
▁రాజకీయాల	-15109
▁లక్షలాది	-15110
▁వయస్సులో	-15111
▁విద్వాన్	-15112
▁సెక్రటరీ	-15113
▁అధికారాలు	-15114
▁అధీనంలోకి	-15115
▁అసోసియేట్	-15116
▁ఉద్యోగులు	-15117
▁కట్టించిన	-15118
▁కావడానికి	-15119
▁గ్రంథాలను	-15120
▁గ్రంథాలయో	-15121
▁నాగరికతకు	-15122
▁పనిచేస్తూ	-15123
▁పొందుతాడు	-15124
▁ప్రముఖమైన	-15125
▁బాధ్యతలను	-15126
▁ముగింపుకు	-15127
▁రజనీకాంత్	-15128
▁లింగాన్ని	-15129
▁విధానాలను	-15130
▁సభ్యుడిగా	-15131
▁సాహిత్యము	-15132
▁స్థిరపడిన	-15133
స్తున్నట్లు	-15134
▁క్షేత్రాలు	-15135
▁చదువుచున్న	-15136
▁జిల్లాల్లో	-15137
▁తిరునాళ్ళు	-15138
▁పట్టణాన్ని	-15139
▁పరిస్థితుల	-15140
▁పుస్తకాలను	-15141
▁పూజిస్తారు	-15142
▁పెద్దాపురం	-15143
▁భవిష్యత్తు	-15144
▁భూభాగాన్ని	-15145
▁మాట్లాడుతూ	-15146
▁విఠలాచార్య	-15147
▁వివరించాడు	-15148
▁వెంకట్రావు	-15149
▁వ్యవహారాలు	-15150
▁అందజేసినారు	-15151
▁కనిపిస్తాడు	-15152
▁గెలుచుకుంది	-15153
▁తత్త్వవేత్త	-15154
▁తీర్ధప్రసాద	-15155
▁పార్లమెంటరీ	-15156
▁ప్రధానపాత్ర	-15157
▁ప్రెసిడెంట్	-15158
▁బ్రహ్మంగారు	-15159
▁బ్రాహ్మణులు	-15160
▁భాగస్వామ్యం	-15161
▁మొదలయ్యింది	-15162
▁రాష్ట్రములో	-15163
▁రెండుసార్లు	-15164
▁వెన్నెలకంటి	-15165
▁కృష్ణమాచార్య	-15166
▁కొనసాగించారు	-15167
▁కొన్నిసార్లు	-15168
▁పరిపాలించాడు	-15169
▁పరిస్థితులలో	-15170
▁పెద్దయెత్తున	-15171
▁కల్పించడానికి	-15172
▁బాలమురళీకృష్ణ	-15173
▁రైల్వేస్టేషను	-15174
▁నిర్వహించడానికి	-15175
!!	-15176
06	-15177
AR	-15178
ai	-15179
డౌ	-15180
పన	-15181
రష	-15182
4).	-15183
60.	-15184
The	-15185
ass	-15186
ebs	-15187
hra	-15188
oci	-15189
ంకా	-15190
అర్	-15191
ఇంట	-15192
చడం	-15193
జార	-15194
థర్	-15195
ధిర	-15196
మధు	-15197
రగా	-15198
వడి	-15199
వశా	-15200
ేయు	-15201
▁కణ	-15202
▁జత	-15203
▁జర	-15204
▁జహ	-15205
▁మయ	-15206
html	-15207
line	-15208
క్తా	-15209
క్షీ	-15210
టులో	-15211
తాన్	-15212
నక్ష	-15213
నుంచ	-15214
నేట్	-15215
పద్య	-15216
పుని	-15217
పోగా	-15218
ప్పీ	-15219
ప్రథ	-15220
మేమి	-15221
యాస్	-15222
రావ్	-15223
రుచి	-15224
లోచన	-15225
శాతం	-15226
సాను	-15227
సెల్	-15228
స్మి	-15229
[...]
