<unk>	0
<s>	0
</s>	0
.	-2.58205
,	-3.03414
▁	-4.29851
లో	-4.71656
:	-4.80998
▁(	-5.01816
▁ఈ	-5.03392
▁నుండి	-5.08368
▁ఉంది	-5.09724
▁ఉన్నాయి	-5.13343
ను	-5.22984
)	-5.37072
గా	-5.37961
▁-	-5.40869
▁గ్రామం	-5.42845
▁గ్రామంలో	-5.45451
▁కి	-5.47867
ు	-5.49878
ని	-5.51936
మీ	-5.53507
▁ఒక	-5.56414
కి	-5.57736
▁దూరంలో	-5.64883
కు	-5.66103
ం	-5.71804
▁10	-5.75103
న	-5.80356
ి	-5.84297
్	-5.85007
ా	-5.85758
▁కేంద్రం	-5.95084
▁కూడా	-5.95489
తో	-5.95622
లు	-5.97237
▁హెక్టార్లు	-6.07778
▁జిల్లా	-6.12944
▁ద్వారా	-6.14564
▁ఆ	-6.19135
వ	-6.19958
▁భూమి	-6.2419
▁ప్రభుత్వ	-6.24728
మ	-6.25378
▁సమీప	-6.25561
▁లో	-6.27955
▁కళాశాల	-6.30844
ీ	-6.32918
ల	-6.33383
▁ఉన్న	-6.34455
▁5	-6.36427
▁సౌకర్యం	-6.37074
▁తెలుగు	-6.3905
▁ప్రైవేటు	-6.41238
▁సంఖ్య	-6.47632
ము	-6.50445
▁ఇది	-6.51546
ే	-6.53736
ాన్ని	-6.54164
జ	-6.54619
▁సినిమా	-6.54747
▁ఉన్నారు	-6.55302
▁పాఠశాల	-6.56893
▁"	-6.57633
-	-6.61082
▁తన	-6.62586
▁రహదారి	-6.63556
ారు	-6.65662
▁పైబడిన	-6.66959
▁సరఫరా	-6.69264
వి	-6.70112
▁చెందిన	-6.70299
▁భారత	-6.70691
ాడు	-6.71052
"	-6.75964
▁వ్యవస్థ	-6.76156
ానికి	-6.81746
▁శ్రీ	-6.84106
▁అని	-6.85778
▁లేదు	-6.86398
▁వ్యవసాయ	-6.88602
స్	-6.88789
డ్	-6.88839
▁అనే	-6.89817
▁రెండు	-6.91714
క	-6.91774
▁పాఠశాలలు	-6.92537
నే	-6.92921
▁ప్రధాన	-6.93346
▁వైద్య	-6.93494
▁ప్రాథమిక	-6.94062
▁న	-6.94239
▁సామాజిక	-6.95857
▁ఆరోగ్య	-6.95873
▁తరువాత	-6.95968
ూ	-6.97043
▁పారా	-6.97071
▁వ	-6.9854
మెడికల్	-6.99008
▁గ్రామానికి	-6.99422
▁జనాభా	-6.99537
ంది	-6.99913
▁ఇతర	-7.01353
▁డాక్టర్లు	-7.02824
▁కింది	-7.04089
▁పి	-7.0459
డి	-7.05061
ది	-7.07872
▁సౌకర్యాలు	-7.0842
▁పాటు	-7.0981
▁ప్రకారం	-7.11891
రు	-7.11917
▁నీరు	-7.1476
ంగా	-7.14909
▁ఎక్కువ	-7.14944
పి	-7.15538
▁లేని	-7.15752
▁ఎస్	-7.16238
▁విద్యా	-7.1791
▁రాష్ట్ర	-7.18738
▁ఒకటి	-7.20528
పై	-7.20983
▁'	-7.22248
న్నాయి	-7.23636
▁నీటి	-7.2364
▁వ్యవసాయం	-7.23788
'	-7.24119
▁లోని	-7.24416
న్	-7.26545
▁కంటే	-7.27666
▁జనగణన	-7.27972
▁జాతీయ	-7.28027
ాయి	-7.28294
/	-7.31477
▁బి	-7.32312
▁డిగ్రీ	-7.3279
▁7	-7.3292
▁తెలంగాణ	-7.33499
▁బ్యాంకు	-7.35766
▁కోసం	-7.35934
▁సంస్థ	-7.36104
▁వనరుల	-7.36148
డు	-7.36597
ల్	-7.36804
▁/	-7.37663
▁వాణిజ్య	-7.37938
ర్	-7.38142
ాలు	-7.38446
▁పథకం	-7.39043
▁యొక్క	-7.3914
▁పేరు	-7.39539
▁విద్యుత్	-7.3969
▁షెడ్యూల్	-7.39996
ుడు	-7.40216
▁వారం	-7.40449
▁ఇద్దరు	-7.40733
మైన	-7.41166
▁ఆసుపత్రి	-7.41361
పబ్లిక్	-7.41561
▁గంటల	-7.41664
▁వైద్యశాల	-7.42007
▁అభివృద్ధి	-7.42132
▁రచన	-7.42281
▁వారి	-7.42322
▁చేసిన	-7.42619
▁ఫోన్	-7.42755
▁రోడ్లు	-7.43687
▁ఆఫీసు	-7.43787
త	-7.44799
▁పోస్టాఫీసు	-7.45614
▁మంది	-7.45832
▁వ్యవసాయానికి	-7.46124
▁నుంచి	-7.47497
▁మూడు	-7.47564
▁మండలం	-7.48547
▁వరకు	-7.48738
▁సిబ్బంద	-7.49846
▁చాలా	-7.50139
▁ప్రత్యేక	-7.50328
▁కె	-7.50855
▁నటించిన	-7.50902
▁రచయిత	-7.51049
ర	-7.51233
▁ఇక్కడ	-7.5207
లోని	-7.52139
పు	-7.5306
▁జరుగుతోంది	-7.53809
▁మొదటి	-7.53854
▁కు	-7.53991
▁జరిగిన	-7.54332
సి	-7.55079
▁గా	-7.55568
▁తిరిగి	-7.56772
▁వివిధ	-7.56968
▁కోడ్	-7.57014
ఎస్	-7.5768
▁ఆయన	-7.5772
ులు	-7.57725
▁పెద్ద	-7.58267
▁అ	-7.59161
▁మధ్య	-7.59478
లను	-7.59557
▁రోజు	-7.60951
▁ఆంధ్రప్రదేశ్	-7.61209
▁డాక్టరు	-7.61467
రా	-7.61509
▁2011	-7.62116
▁రైల్వే	-7.62691
య	-7.62906
▁స్టేషన్	-7.63047
▁టి	-7.63797
▁ఆలయం	-7.64322
▁4	-7.64439
▁ఆంధ్ర	-7.64743
▁మాధ్యమిక	-7.64794
▁11	-7.6528
▁కేంద్రంలో	-7.65393
▁వి	-7.65445
▁ప్రాథమికోన్నత	-7.65644
నా	-7.65647
శ	-7.65935
▁ముందు	-7.67479
▁బస్సులు	-7.67511
గ	-7.68106
▁వారు	-7.68317
▁కొన్ని	-7.69149
▁బావులు	-7.69174
▁2	-7.69223
టి	-7.69372
▁ప్రవహిస్తుంది	-7.69598
▁మీ	-7.7031
▁జూనియర్	-7.70424
▁అతను	-7.70786
▁అతని	-7.70879
▁మొదలైన	-7.71588
▁సి	-7.71609
▁ఏ	-7.71772
▁బృందం	-7.72076
లోనూ	-7.72321
▁దర్శకత్వం	-7.72817
▁ఏడాది	-7.72878
▁6	-7.7309
▁కాలువల	-7.73623
▁15	-7.73697
▁8	-7.73833
▁ఉప	-7.74291
▁ఆమె	-7.74879
▁మండలానికి	-7.7531
▁కాగా	-7.75445
▁3	-7.75937
▁జిల్లాలో	-7.76362
▁అందుతుంది	-7.7679
ో	-7.76932
▁ఘంటసాల	-7.77182
▁12	-7.7749
▁రోజులు	-7.77662
▁సంఘం	-7.77823
▁వంటి	-7.78039
▁పొడుగున	-7.78469
▁మీద	-7.78482
▁గ్రామ	-7.7979
▁మురుగునీర	-7.7998
▁విధంగా	-7.80199
),	-7.80241
▁ఉంటుంది	-7.80881
▁వద్ద	-7.82107
▁భూ	-7.82425
నీ	-7.82636
▁భారతీయ	-7.82711
▁అనేక	-7.82921
▁నా	-7.83058
లా	-7.83144
▁కుటుంబ	-7.83188
▁ఉండేది	-7.83275
▁సిబ్బంది	-7.83667
▁అన్ని	-7.83862
రి	-7.84136
▁ఎ	-7.8435
▁సినిమాలు	-7.845
▁చిన్న	-7.84548
▁లోపు	-7.84562
▁మురుగునీటి	-7.84633
▁అండ్	-7.84651
▁మే	-7.84794
▁చిత్రం	-7.85159
▁కవి	-7.85422
▁రవాణా	-7.85895
▁కృష్ణ	-7.86721
▁సంవత్సరము	-7.86729
ట	-7.86912
▁బంజరు	-7.87387
▁సంగీత	-7.8745
▁జరుగుతుంది	-7.88068
▁కొరకు	-7.8813
▁లేదా	-7.88159
▁విడుదలైన	-7.88299
▁గురించి	-7.88793
ప	-7.88909
క్	-7.89342
మే	-7.89353
▁గణాంకాల	-7.89361
▁ప్రభుత్వం	-7.89445
▁ఉత్పత్తి	-7.89531
▁16	-7.89596
s	-7.89774
▁ప్రాంతాల	-7.90437
▁లేరు	-7.90465
ట్	-7.90939
లకు	-7.91393
ఆర్	-7.91604
▁విస్తరించి	-7.91642
▁ఆఫ్	-7.91701
▁ప్రతి	-7.91921
▁వృత్తి	-7.92276
హార	-7.92965
▁దివ్య	-7.93152
డానికి	-7.93521
స	-7.9357
▁ఆర్ట్స్	-7.93572
స్తారు	-7.93719
న్న	-7.93753
▁గుండా	-7.93857
డం	-7.94966
▁కథ	-7.9507
▁చిత్ర	-7.95342
▁శిక్షణ	-7.95347
▁నటుడు	-7.95578
▁9	-7.95617
▁సామాన్య	-7.96203
▁ఓ	-7.9657
▁మొత్తం	-7.96625
▁ను	-7.97516
లలో	-7.97656
▁లాండ్	-7.9825
▁కేంద్రాలు	-7.98349
▁కుళాయిల	-7.98811
▁కాలంలో	-7.98824
▁సైన్స్	-7.99296
▁ఇదే	-7.99347
▁నాలుగు	-7.99397
▁తర్వాత	-7.99411
▁చేసి	-7.99427
▁1	-7.99506
▁పౌర	-7.99517
▁ఇంజనీరింగ్	-7.99792
▁సా	-7.99844
▁తమ	-7.99974
▁కార్యాలయం	-8.00053
▁గ్రామాల	-8.00183
▁ఒకరు	-8.0039
▁:	-8.00578
▁వినోద	-8.00778
▁వచ్చిన	-8.00995
▁కానీ	-8.01066
▁సహకార	-8.01207
▁జనవరి	-8.01502
▁స్వామి	-8.01713
ేతర	-8.01885
▁నది	-8.02116
▁పంపిణీ	-8.0233
ోంది	-8.02341
▁నమోదు	-8.02554
▁ముగ్గురు	-8.02684
▁దక్షిణ	-8.02719
▁లైన్	-8.02787
▁తొలి	-8.02792
▁గ్రంథాలయం	-8.02813
▁చిత్రాలు	-8.03185
ిన	-8.03328
▁రెడ్డి	-8.03542
▁14	-8.03583
▁రోజున	-8.03739
▁సేవా	-8.0402
▁ఎం	-8.04169
▁జూన్	-8.04235
▁కార్యకర్త	-8.04251
▁చేయ	-8.04442
▁వినియోగం	-8.04774
▁కులాల	-8.0501
▁సంత	-8.05044
▁రాష్ట్రం	-8.0514
▁సంపూర్ణ	-8.05398
▁ఇంటర్నెట్	-8.05527
▁తెగల	-8.06078
▁పై	-8.06159
▁ఆటో	-8.06323
▁సబ్	-8.06761
▁సంక్షేమ	-8.068
▁సంరక్షణ	-8.06911
▁మగవారి	-8.0703
▁పట్టణమైన	-8.07176
▁నిర్మించిన	-8.07183
▁ఆరోగ్యం	-8.07183
▁మైదానం	-8.07282
▁చేస్తున్నారు	-8.0731
▁స్వయం	-8.07399
▁మట్టి	-8.0771
▁మాజీ	-8.07784
▁ఔషధ	-8.08088
▁జనన	-8.082
ాల	-8.08215
▁ఇళ్లతో	-8.08216
▁రావు	-8.08263
ాంగుల	-8.08311
న్నారు	-8.08349
ింది	-8.08364
▁లు	-8.0845
▁ఆడవారి	-8.0857
▁ఆటల	-8.08618
▁దర్శకుడు	-8.08619
▁సొసైటీ	-8.08683
▁బాలల	-8.08904
యాస్	-8.08975
▁పశు	-8.0898
▁శాల	-8.09222
▁లభిస్తున్న	-8.09452
▁పోషణ	-8.09643
▁శిశు	-8.09643
మ్మ	-8.09734
▁ఆశా	-8.09833
’	-8.09853
▁క	-8.10173
మా	-8.10271
▁జరిగింది	-8.10501
▁సాగునీరు	-8.10609
▁నిమిత్తం	-8.10734
▁విత్తి	-8.10737
కే	-8.10739
▁వార్తాపత్రిక	-8.10853
▁అనియత	-8.10859
▁సహాయక	-8.10867
▁మాతా	-8.11042
▁సమీకృత	-8.11116
▁మేనేజిమెంటు	-8.11219
▁మొబైల్	-8.11464
▁మరణాల	-8.11495
బి	-8.11647
▁ప్రత్యామ్నాయ	-8.11709
▁టెలిఫోన్	-8.11715
▁హాలు	-8.11789
▁పాలీటెక్నిక్	-8.1184
▁ప్రపంచ	-8.11897
ికరంగా	-8.11994
▁ఇందులో	-8.12138
▁ఫిబ్రవరి	-8.1218
▁జూలై	-8.1221
▁పోషకా	-8.12274
లోను	-8.12307
▁వినియోగంలో	-8.12629
▁లొకేషన్	-8.12698
సుశీల	-8.1283
▁రెండవ	-8.12878
▁మార్చి	-8.12898
సమీప	-8.13209
▁వీధుల	-8.13216
▁ఉత్పాదక	-8.1332
▁రూం	-8.13426
▁మార్కెటింగ	-8.1357
▁పరపతి	-8.13697
▁పోలింగ్	-8.13823
▁వస్తువులు	-8.13874
▁పోస్ట్	-8.13956
హెక్టార్లలో	-8.14044
▁రీడింగ	-8.14122
▁పారిశుధ్య	-8.14199
▁మరుగుదొడ్	-8.14208
▁భాష	-8.14363
▁ఏర్పాటు	-8.14403
లి	-8.14414
;	-8.14451
▁వ్యర్థాల	-8.14514
▁కంకర	-8.14706
▁అంగన్	-8.14716
▁సేకరించే	-8.14735
▁కాని	-8.14771
మ్	-8.15007
▁అవసరాల	-8.15091
▁కొరియర్	-8.15212
▁టెలిగ్రాఫ్	-8.15467
▁కెఫె	-8.15472
▁సరఫరాల	-8.15481
▁తారు	-8.15538
▁రోజుకు	-8.15578
▁ఇంటింటిక	-8.15609
▁అసెంబ్లీ	-8.15615
▁రాజు	-8.15666
▁గృహావసరాల	-8.15723
▁స్వాతంత్ర్య	-8.1584
▁బయోగ్	-8.15972
▁అలోపతి	-8.16504
▁పక్కనే	-8.16516
▁డిస్పెన్సరీ	-8.17026
▁ఇంకా	-8.17311
▁సంగీతం	-8.17393
ద	-8.1769
▁20	-8.17827
ైన	-8.18188
వాడీ	-8.18551
▁తిరుగుతున్నాయ	-8.18878
మని	-8.19017
▁హైదరాబాదు	-8.19213
▁సంచార	-8.19497
▁ఏటీఎమ్	-8.19665
ెస్	-8.20337
▁17	-8.2043
లే	-8.20496
▁అమలవుత	-8.20575
▁మండల	-8.20731
▁18	-8.20916
▁మంచినీటి	-8.21113
▁కలిగి	-8.21284
▁పారబో	-8.21383
▁అక్టోబరు	-8.2171
▁అది	-8.21724
▁రాజకీయ	-8.21809
▁చెత్త	-8.21836
▁చరిత్రలో	-8.22308
▁ప్రదేశ్	-8.22543
తి	-8.22731
▁వల్ల	-8.23172
▁మొదలైనవి	-8.23227
▁సినిమాకు	-8.23248
▁అయితే	-8.23327
▁మండలంలో	-8.23397
▁13	-8.23626
▁నిర్వహించారు	-8.24009
▁అవుతున్నాయి	-8.24408
▁పార్టీ	-8.24437
▁ఉత్తర	-8.24679
▁చ	-8.24686
▁బహిరంగ	-8.25027
నూ	-8.25137
▁అయిన	-8.25282
య్య	-8.25295
▁ప్రజలు	-8.25575
▁రక్షిత	-8.25671
▁చేతిపంపుల	-8.25812
▁అంటారు	-8.25835
వే	-8.25891
రోడ్ల	-8.26008
▁ఎమ్	-8.26522
▁పేరుతో	-8.26593
▁సమయంలో	-8.27086
▁ట్రాక్టర్లు	-8.27168
▁గోదావరి	-8.27568
▁కోట	-8.27793
▁గల	-8.2787
డ	-8.28025
▁స	-8.28032
మునకు	-8.28319
▁తూర్పు	-8.2885
ంలో	-8.28904
▁చరిత్ర	-8.29523
▁ప్రసాద్	-8.29568
▁సంవత్సరాల	-8.29617
ుల	-8.29666
▁జిల్లాలోని	-8.29722
▁ఏప్రిల్	-8.30061
▁పాటలు	-8.30709
త్	-8.30908
▁తండ్రి	-8.31332
▁నగర్	-8.31608
2	-8.31776
▁నేరు	-8.31782
▁పట్టణం	-8.32194
6	-8.32703
▁ప్రముఖ	-8.33002
▁కాకుండా	-8.33202
▁ప్రాంతం	-8.33439
▁వచ్చింది	-8.34045
▁పాత	-8.34237
వు	-8.34301
ాడేందుకు	-8.34362
▁దీనిని	-8.34652
▁వలన	-8.34737
▁ఇ	-8.34767
▁మహా	-8.34805
వారు	-8.3515
▁నాయకుడు	-8.35665
▁నీ	-8.35677
▁చైనా	-8.35753
్లోకి	-8.35845
▁చెరువు	-8.36195
రాజు	-8.363
▁జిల్లాల	-8.36369
ఈ	-8.36381
▁మంచి	-8.36485
▁బస్సు	-8.36657
▁చేశారు	-8.36724
లతో	-8.36969
▁25	-8.37332
కా	-8.37572
నుండి	-8.37882
బోరు	-8.3789
▁మా	-8.38354
▁సంవత్సరం	-8.38698
ల్లో	-8.38876
▁మందుల	-8.39014
▁నిర్మాత	-8.39033
ప్రాథమిక	-8.39048
ుని	-8.39219
జ్	-8.39343
ప్రైవేటు	-8.3954
చ	-8.39607
▁2016	-8.39811
వా	-8.39828
▁అన్న	-8.40163
దు	-8.40448
సు	-8.4079
్లో	-8.4081
▁ఆగష్టు	-8.40967
▁ని	-8.41303
▁ల	-8.41317
?	-8.41556
▁అదే	-8.41597
▁ఆర్	-8.42364
▁పోతున్నాయి	-8.42407
▁సినీ	-8.42472
▁జి	-8.42646
▁వదులుతు	-8.42737
అ	-8.42839
▁జలవనరుల	-8.43409
▁మాత్రమే	-8.43429
▁డి	-8.43502
▁వచ్చి	-8.43545
జి	-8.43699
▁మన	-8.43746
▁అంటే	-8.44022
రావు	-8.44203
లేదు	-8.44299
రీ	-8.44958
▁30	-8.45404
ె	-8.45563
▁ప్రాంతాలు	-8.45629
▁ప్రాంతంలో	-8.46023
బీబీయ	-8.46146
▁పెళ్ళి	-8.46305
▁మ	-8.46308
▁పాకిస్థాన్	-8.47231
▁అను	-8.47421
▁తో	-8.47456
▁బాలబడి	-8.47678
యా	-8.47876
మి	-8.47912
▁కొత్త	-8.47961
▁దేవాలయం	-8.48153
చే	-8.48458
▁భూములు	-8.485
▁భారతదేశంలో	-8.48672
▁ప	-8.48788
యు	-8.48827
▁పలు	-8.48932
▁అప్పటి	-8.49009
▁ఐదు	-8.49336
సా	-8.49739
%	-8.50311
▁ఉంటాయి	-8.50405
▁భాగంగా	-8.50468
▁నటి	-8.51211
▁చేసింది	-8.51357
▁జిల్లాకు	-8.51443
5	-8.51446
▁of	-8.51532
▁ప్రస్తుతం	-8.51933
కో	-8.52025
4	-8.52255
▁కా	-8.52366
▁బ	-8.5238
▁సాహిత్య	-8.52511
!	-8.52653
▁శాస్త్రవేత్త	-8.52963
▁సాగని	-8.53048
▁వహించాడు	-8.53539
3	-8.5381
దగ్గ	-8.54517
▁పశ్చిమ	-8.54556
▁కాలం	-8.54775
▁దాని	-8.54928
▁రాజా	-8.55105
▁కలిసి	-8.55375
▁దీని	-8.55654
▁భార్య	-8.55949
▁అమెరికా	-8.55973
ియన్	-8.56004
▁)	-8.56053
ాలను	-8.56098
ణకు	-8.56279
కె	-8.56513
▁పునర్వ్యవస్థీకర	-8.56783
▁నిర్మాణ	-8.56784
ములు	-8.5682
▁కేంద్ర	-8.57322
▁అందుబాటులో	-8.5735
బ	-8.57405
7	-8.58312
▁చక్రవర్తి	-8.58485
▁తమిళ	-8.59185
▁బహిరంగంగా	-8.59204
యి	-8.59315
▁సాగులో	-8.59382
▁ఉన్నత	-8.59415
▁ఐ	-8.59427
▁దుకాణాలు	-8.59501
▁అక్కడ	-8.59639
▁తల్లి	-8.59853
▁ఆధారంగా	-8.59963
▁కృష్ణా	-8.60276
▁చేశాడు	-8.60429
▁బాబు	-8.60708
▁సెప్టెంబర్	-8.6071
ణ	-8.60852
▁గాంధీ	-8.60904
ంత	-8.60929
▁2001	-8.60951
ద్	-8.6106
▁నలుగురు	-8.61113
▁ప్రసిద్ధి	-8.61181
▁ఆర్థిక	-8.6136
▁భూముల్లో	-8.61491
▁హిందూ	-8.61515
▁అంతర్జాతీయ	-8.61808
▁ముఖ్యమంత్రి	-8.62044
▁బీడు	-8.62112
నది	-8.62259
▁ఆలయంలో	-8.62274
▁గ్రామాలు	-8.62392
పిన్	-8.6264
▁కానివి	-8.62706
▁చేసే	-8.62909
▁అతి	-8.63561
▁రైలు	-8.63667
▁కచ్చ	-8.64195
▁సభ	-8.64213
▁రా	-8.64544
▁డా	-8.64698
గల	-8.64771
▁22	-8.65237
▁హిందీ	-8.65252
▁లోనూ	-8.65363
▁శుద్ధి	-8.6548
▁21	-8.65595
▁24	-8.65739
▁గొప్ప	-8.65857
▁29	-8.65893
▁దగ్గర	-8.65894
▁ముఖ్య	-8.65985
▁బాగా	-8.66023
▁పూర్తి	-8.66314
▁సుమారు	-8.66532
బాలసుబ్రహ్మణ్యం	-8.66593
▁దినోత్సవం	-8.66631
▁షా	-8.6676
▁విజయవాడ	-8.67001
▁అలాగే	-8.67175
పూ	-8.67932
▁కాదు	-8.67942
▁నగరం	-8.68511
ాలి	-8.68916
▁జె	-8.69246
▁డిసెంబర్	-8.69485
▁ఆరు	-8.69513
▁మహబూబ్	-8.69704
▁వారికి	-8.69747
రెడ్డి	-8.69886
▁య	-8.70269
▁మరో	-8.70393
▁కారణంగా	-8.70512
ఎ	-8.70582
▁దేశ	-8.70641
▁పొందిన	-8.70642
▁ది	-8.70726
తా	-8.70735
▁ప్రజల	-8.70799
▁ఎన్	-8.70918
▁గుంటూరు	-8.71027
▁బోరుబావుల	-8.71056
▁ఇలా	-8.71097
ప్ప	-8.71206
▁రెవెన్యూ	-8.71264
▁పతాకంపై	-8.71265
▁శాశ్వత	-8.71322
▁ఇక్కడి	-8.71437
▁26	-8.71476
▁పట్టణ	-8.7154
వాడు	-8.71634
▁కొండ	-8.71664
▁విశ్వవిద్యాలయం	-8.71889
▁పురస్కారం	-8.71972
▁సంగతులు	-8.72149
▁కలిగిన	-8.72173
▁శాసనసభ	-8.72318
▁28	-8.7241
ంచ	-8.73069
▁సత్యనారాయణ	-8.73279
▁వహించిన	-8.73605
▁లభిస్తుంది	-8.7374
▁మార్కెట్	-8.73931
▁విజయనగర	-8.73952
▁దర్శకత్వంలో	-8.73969
కీ	-8.74179
రే	-8.74501
▁ఉత్తమ	-8.74568
19	-8.74724
▁నవంబర్	-8.74904
▁ఆలయ	-8.7496
▁ఈయన	-8.75019
▁అక్టోబర్	-8.75129
హ	-8.75206
▁ఎన్నో	-8.75365
▁పాత్ర	-8.75557
▁తేదీ	-8.7584
▁వరంగల్	-8.75861
▁ప్ర	-8.75866
▁దీనికి	-8.76134
▁భక్తులు	-8.76226
స్వామి	-8.76293
ముగా	-8.76313
▁యుద్ధం	-8.76499
▁అత్యంత	-8.76769
▁కాంగ్రెస్	-8.7679
▁నాటి	-8.76865
▁సుశీల	-8.76978
▁నిర్మించారు	-8.77029
▁క్యాలెండర్	-8.77225
దే	-8.77367
▁చారిత్రక	-8.77619
▁ఎల్	-8.77706
డా	-8.7772
▁లెక్కల	-8.77819
▁సం	-8.77929
▁19	-8.78197
▁ఎక్కువగా	-8.78304
▁కన్నడ	-8.78702
గు	-8.78708
▁కొడుకు	-8.78937
టం	-8.78964
▁నాటక	-8.78969
ఇది	-8.79169
▁బ్రహ్మ	-8.79531
▁--	-8.79593
రో	-8.79762
▁గ్రహీత	-8.80119
▁కర్ణాటక	-8.80152
▁23	-8.80534
▁చిత్రానికి	-8.80607
▁మాత్రం	-8.80612
గ్	-8.80747
▁నాగేశ్వరరావు	-8.81188
▁కాక	-8.81327
▁రాష్ట్రంలోని	-8.81327
▁స్థానిక	-8.81511
▁చదివిన	-8.81519
లీ	-8.8177
▁రాజ	-8.82367
బడింది	-8.82479
▁హైదరాబాద్	-8.82609
▁భాషా	-8.8263
▁మంత్రి	-8.82817
▁ప్రకారము	-8.82831
జీ	-8.83116
▁బావుల	-8.83173
▁దాదాపు	-8.83423
ప్	-8.83526
▁మొట్టమొదటి	-8.83617
▁వీరి	-8.83815
▁తిరుపతి	-8.84055
ట్లు	-8.84152
▁సు	-8.8419
ఎన్	-8.84299
▁వీరు	-8.84342
చి	-8.84346
▁చేసారు	-8.84429
▁మద్రాసు	-8.84653
▁కల	-8.84788
▁ఇండియా	-8.84792
వారి	-8.85027
▁విడుదల	-8.85056
నో	-8.85161
▁తోటలు	-8.85238
▁రాజధాని	-8.85443
ష్	-8.85517
ండి	-8.85862
▁లక్షల	-8.85863
▁పుట్టిన	-8.85925
▁విజయ	-8.8593
తే	-8.8618
మై	-8.86187
▁అందులో	-8.86318
పల్లి	-8.86347
▁చివరి	-8.86615
▁కుమారుడు	-8.86677
▁శివ	-8.86776
▁పచ్చిక	-8.86889
▁భారతదేశ	-8.87074
యే	-8.8713
▁భాగం	-8.87351
▁ప్రాజెక్టు	-8.874
▁జ	-8.87743
ప్ర	-8.87744
▁రామ	-8.87833
▁ముఖ్యమైన	-8.8807
▁వచ్చే	-8.88397
▁కుమార్	-8.8851
8	-8.88576
▁మేత	-8.88721
▁విజయం	-8.88868
▁వెంకట	-8.89052
▁బ్రిటిష్	-8.89083
ాలని	-8.89106
లీపు	-8.89356
▁గానం	-8.89379
▁తేదీలు	-8.89576
▁27	-8.89654
▁ద	-8.89748
▁నారాయణ	-8.89827
సీ	-8.8985
▁త	-8.89913
▁మిగిలినవి	-8.90182
లోనే	-8.9056
ళ్ళ	-8.90726
తు	-8.90786
▁ఇవి	-8.90882
▁క్రికెట్	-8.90921
▁కర్నూలు	-8.9098
▁పురుషుల	-8.91058
▁తెలుగులో	-8.91087
▁గ్రెగొర	-8.91172
▁రాష్ట్రపతి	-8.91203
▁వాడ	-8.91311
▁పురుషులు	-8.91394
▁లోను	-8.91416
ఎం	-8.91443
▁సంవత్సరాంత	-8.91445
▁నాటికి	-8.91547
▁రామారావు	-8.91595
ేందుకు	-8.918
▁కాలువ	-8.91965
▁సంకలనం	-8.92026
▁సెప్టెంబరు	-8.92355
1	-8.92368
▁తాను	-8.92636
▁శాస్త్రి	-8.9313
a	-8.93396
▁మరొక	-8.93437
▁చిత్రంలో	-8.93779
▁పాట	-8.93861
▁ప్రేమ	-8.93902
▁భారతదేశం	-8.93972
▁అవి	-8.93998
▁ఇరాన్	-8.94215
▁సందర్భంగా	-8.94224
▁సమీపంలో	-8.9426
▁ఖమ్మం	-8.94621
▁రష్యా	-8.94793
▁‘	-8.94809
బ్	-8.94943
ఆ	-8.95237
▁రాష్ట్రంలో	-8.9533
▁సాగవుతున్న	-8.95339
▁నిజాం	-8.95365
మో	-8.95716
▁|	-8.9589
▁తాగునీరు	-8.95908
▁గుడి	-8.96045
▁ఆగస్టు	-8.96263
▁వీటి	-8.96273
▁అవార్డు	-8.96317
▁శ	-8.96364
ాయ	-8.96618
▁పని	-8.96709
▁దేశంలో	-8.96831
▁నవంబరు	-8.96861
▁ఆధునిక	-8.97243
▁సంస్కృత	-8.97355
▁స్థానంలో	-8.97444
▁చేత	-8.97448
▁50	-8.97698
ఐ	-8.97722
▁చేసాడు	-8.9774
▁ఎంతో	-8.97788
ై	-8.97863
ళ	-8.97928
▁లోకి	-8.98253
▁అక్షరాస్యత	-8.98271
▁40	-8.98295
కూ	-8.98414
▁ఏడు	-8.98469
▁మరియు	-8.98539
▁2022	-8.98604
▁the	-8.98619
ుడైన	-8.98757
ష	-8.98918
▁శతాబ్దం	-8.99097
▁నూతన	-8.99114
▁బహుమతి	-8.99392
▁అనగా	-8.99804
▁తల	-8.99863
▁శాఖ	-8.99873
టు	-8.99971
▁కరీంనగర్	-9.00184
▁ఉండే	-9.00589
ప్పుడు	-9.00734
▁హ	-9.00802
▁ఈమె	-9.01626
▁లోక్	-9.01631
(	-9.01875
▁రోడ్డు	-9.01881
▁అధ్యక్షుడు	-9.02402
దా	-9.02617
▁ర	-9.02808
▁నాడు	-9.02825
▁డిసెంబరు	-9.02874
▁సామ్రాజ్యం	-9.03231
▁అధికంగా	-9.03463
▁పో	-9.03538
▁చలనచిత్ర	-9.03614
▁తిరుమల	-9.03638
▁అక్కినేని	-9.03797
▁నెల్లూరు	-9.03914
▁నిర్మాణం	-9.03919
▁రామకృష్ణ	-9.03942
▁కో	-9.04038
▁ఒకే	-9.04045
▁సంగీతాన్నందించ	-9.04234
:-	-9.04392
e	-9.04622
▁కిలోమీటర్ల	-9.04625
▁2013	-9.04663
▁గ	-9.0517
▁క్రీ	-9.0521
▁బాల	-9.05355
▁పాలన	-9.05763
▁సంబంధించిన	-9.0604
i	-9.06054
▁దేవి	-9.06205
▁రంగస్థల	-9.06434
ధ	-9.06729
▁పత్రిక	-9.0731
మును	-9.07391
▁ఆమెను	-9.07448
▁దేశం	-9.07452
కుండా	-9.07494
▁తెలంగాణా	-9.07625
▁నల్గొండ	-9.07742
▁కింద	-9.07897
▁చంద్ర	-9.0797
▁శక్తి	-9.07984
▁వ్యక్తి	-9.08092
▁స్త్రీల	-9.08122
▁ఉ	-9.08414
10	-9.08449
▁వై	-9.08625
▁అమ్మ	-9.08705
ిక	-9.08788
ః	-9.09233
టీ	-9.09242
▁రోజువారీ	-9.09353
▁చెప్ప	-9.09425
▁కోట్ల	-9.09433
ఫ్	-9.0946
▁కంపెనీ	-9.09531
వ్	-9.09651
ఇ	-9.09734
▁జానకి	-9.09912
▁ఏర్పడింది	-9.10019
▁విశాఖపట్నం	-9.10195
▁కాల	-9.10334
నారాయణ	-9.10357
ఎల్	-9.10417
▁నివాస	-9.10437
▁రచించిన	-9.10443
▁బ్లాగు	-9.10605
▁ఆరుగురు	-9.1064
▁31	-9.10884
30	-9.10895
▁లా	-9.11126
భ	-9.11254
▁కడప	-9.1133
▁చేస్తారు	-9.11355
▁విద్య	-9.1156
o	-9.11801
▁అంత	-9.11877
పో	-9.12135
▁సంవత్సరంలో	-9.12172
▁కొంత	-9.12313
▁నాయుడు	-9.12373
▁and	-9.12519
▁పైగా	-9.12745
y	-9.12794
▁పురాతన	-9.12906
▁అల్లు	-9.12952
ంటే	-9.13065
▁శతాబ్దంలో	-9.13086
ఒక	-9.1315
▁స్త్రీలు	-9.13271
గి	-9.13402
▁సర్వ	-9.13503
▁ప్రపంచంలో	-9.14344
▁స్వామివారి	-9.1436
▁అనంతరం	-9.14375
జా	-9.14452
▁గో	-9.14829
ంగ	-9.15187
▁ఏమి	-9.15357
▁వేల	-9.154
▁ఇప్పుడు	-9.15528
▁60	-9.15605
ఏ	-9.15749
9	-9.15778
13	-9.15963
ుంది	-9.16086
ంచి	-9.16216
▁స్టేషను	-9.1648
16	-9.16544
ాలలో	-9.16561
▁రష్యన్	-9.16588
▁మాట	-9.16776
ెను	-9.16948
బా	-9.16979
మున	-9.1724
▁ఎన్నికలలో	-9.17659
▁శ్రీనివాసరావు	-9.17878
▁ఏర్పడిన	-9.17896
గిరి	-9.18193
▁సినిమాలో	-9.18255
▁మిగిలిన	-9.18259
ాలకు	-9.18411
▁మోహన్	-9.18502
ళ్ళు	-9.18513
▁అధిక	-9.18673
కొ	-9.1887
ంతో	-9.1901
▁తక్కువ	-9.19202
ించి	-9.1925
▁తారాగణం	-9.19262
▁కనుక	-9.19337
యో	-9.19353
▁నగర	-9.19471
▁విషయం	-9.19626
▁పాల	-9.1965
▁సభ్యుడు	-9.19651
▁చెందింది	-9.19683
▁అలా	-9.19718
▁గాయకుడు	-9.19731
కం	-9.19738
శ్రీ	-9.19767
▁మి	-9.20103
▁సుబ్బారావు	-9.20134
ంద	-9.20184
u	-9.203
▁యుద్ధ	-9.20536
▁బాలసుబ్రహ్మణ్యం	-9.2086
▁డాక్టర్	-9.20891
▁కళాశాలలు	-9.20932
▁ధర్మ	-9.20974
▁అతనికి	-9.21025
▁సభ్యులు	-9.21178
▁రాత్రి	-9.21286
క్ష	-9.2136
▁ప్రాచీన	-9.21632
▁వీర	-9.21638
t	-9.21658
▁సత్యం	-9.21769
▁సోవియట్	-9.21817
▁ప్రారంభించారు	-9.21853
▁చేయడం	-9.21945
12	-9.22038
▁వరకూ	-9.22059
▁రాయలు	-9.22083
▁తయారు	-9.22146
▁వారిని	-9.22341
▁మత	-9.22389
వచ్చు	-9.22523
▁రాజ్	-9.22525
▁ము	-9.22625
▁ఇన్	-9.22714
టానికి	-9.2277
▁పట్టణంలో	-9.22812
m	-9.23038
▁జన	-9.23137
▁వాటి	-9.23197
▁లక్ష్మీ	-9.23328
యం	-9.23423
▁కుమార్తె	-9.23433
పురం	-9.23588
▁వైభవం	-9.23937
20	-9.24004
▁కేవల	-9.24063
ందని	-9.24065
▁రాసిన	-9.24173
▁లేక	-9.2439
▁ఐదుగురు	-9.24444
▁జయ	-9.24495
▁అర్థం	-9.24629
▁చలనచిత్రం	-9.24639
▁సంవత్సరాలు	-9.24677
▁వివాహం	-9.24697
▁యు	-9.24964
సంవత్సరం	-9.25003
▁57	-9.25015
▁రాష్ట్రములో	-9.25152
▁పిలుస్తారు	-9.25214
▁సమరయోధుడు	-9.25331
▁అమెరికన్	-9.25337
▁ఆంగ్ల	-9.25393
▁ఖాన్	-9.25439
▁గురువు	-9.25441
▁వస్తుంది	-9.25672
▁పూర్తిగా	-9.25722
▁దూరం	-9.25799
ుగా	-9.25834
▁క్రీడాకారుడు	-9.25969
▁అప్పుడు	-9.26065
▁లేకుండా	-9.26114
▁నెల	-9.26173
▁మండలంలోని	-9.26288
▁నటించారు	-9.26384
▁వ్రాసిన	-9.26385
▁సత్య	-9.26412
▁నిర్వహించెద	-9.26515
▁చూసి	-9.26565
▁దేవ	-9.26612
క్క	-9.26704
▁వేటూరి	-9.26779
▁ప్రాంతాలలో	-9.26781
▁వేద	-9.26869
▁వైపు	-9.27073
పాటి	-9.27082
▁చేయని	-9.271
▁అమ్మవారి	-9.27143
▁ఏలూరు	-9.27225
▁ప్రస్తుత	-9.27229
▁వెళ్ళి	-9.27304
▁రూ	-9.27495
▁పార్లమెంటు	-9.27522
▁అవుతోంది	-9.27523
▁కలిపి	-9.27569
▁వున్న	-9.27642
▁2014	-9.27871
▁సిస్టం	-9.27914
▁సింగ్	-9.27956
▁సాధారణంగా	-9.28032
▁గీత	-9.2809
పా	-9.28216
ాన	-9.28326
ములో	-9.28418
▁మహారాష్ట్ర	-9.28506
బడ్డాయి	-9.28508
▁పరిధిలో	-9.28612
▁ప్రాంతాన్ని	-9.28796
్య	-9.28902
al	-9.28924
▁ఉండి	-9.28989
ేవారు	-9.29034
▁మూడవ	-9.29055
▁పంచ	-9.29118
▁శాసన	-9.29187
▁వరి	-9.29327
థ	-9.29408
▁పిక్చర్స్	-9.29543
▁నిర్మించాడు	-9.29556
టా	-9.29556
▁కట్ట	-9.29638
▁ప్రజా	-9.29693
గానే	-9.29745
▁ఒక్క	-9.29832
▁ప్రసిద్ధ	-9.29857
మీద	-9.29945
ళ్ల	-9.29976
▁నంది	-9.30084
0	-9.30096
▁పూర్వం	-9.30315
▁నాగ	-9.30417
▁మధుర	-9.30467
ింప	-9.30486
▁శ్రీనివాస్	-9.30647
▁నగరంలో	-9.30681
▁పురపాలక	-9.30702
▁మె	-9.30712
▁సంఘటనలు	-9.30849
నాడు	-9.30866
*	-9.30957
▁1990	-9.31192
నేషనల్	-9.31289
▁రాయ	-9.313
▁ఇతని	-9.31307
▁భూగర్భ	-9.31366
▁బాలు	-9.31572
▁కే	-9.31717
ముల	-9.31773
▁1:	-9.3186
బడి	-9.32199
▁శాతం	-9.32632
▁విగ్రహం	-9.32686
50	-9.32754
▁మరింత	-9.32756
▁నారాయణరావు	-9.32777
▁నేపథ్య	-9.32815
▁=	-9.33035
▁పిల్లల	-9.33153
▁భాస్కరరావు	-9.33161
▁వ్యతిరేకంగా	-9.33209
▁వీటిలో	-9.3328
▁S	-9.3329
▁ఇంటి	-9.33355
▁35	-9.33368
లూ	-9.33465
వీ	-9.33531
లుగా	-9.33551
▁మార్గం	-9.33574
▁ఢిల్లీ	-9.3365
▁అయింది	-9.33664
▁మహిళా	-9.33724
▁దానికి	-9.33795
మూ	-9.33939
▁మెదక్	-9.34078
▁అనేది	-9.34133
▁పూర్వ	-9.34496
▁పండితుడు	-9.345
నె	-9.34597
▁పరిపాలన	-9.34746
▁మీదుగా	-9.3489
ారని	-9.34983
పేట	-9.35114
రె	-9.35138
▁సిస్టమ్	-9.35145
▁భాషలో	-9.35257
▁కాంగ్రెసు	-9.3527
ొ	-9.3546
▁పర్యాటక	-9.35475
▁లాల్	-9.35631
▁కొందరు	-9.35674
▁స్థాయి	-9.35727
▁ఉర్దూ	-9.35729
▁చేస్తూ	-9.35793
▁58	-9.35841
ౌ	-9.35853
▁100	-9.35989
▁366	-9.36039
ెడ్	-9.36088
▁ఆరుద్ర	-9.36133
▁పా	-9.36193
▁అందించాడు	-9.36565
▁చిత్తూరు	-9.36591
▁జా	-9.36597
▁కూతురు	-9.36624
▁వాటిని	-9.36629
▁ఉదయం	-9.36666
15	-9.36705
బు	-9.3672
▁రే	-9.36929
▁జాతి	-9.36962
ాల్లో	-9.37007
▁పాటల	-9.37025
▁అక్కడి	-9.37073
▁దానిని	-9.37121
▁సాహిత్యం	-9.37152
▁మండలాలు	-9.37176
ేశ్వర	-9.37374
▁చిరంజీవి	-9.37484
▁కృషి	-9.37587
▁మూల	-9.3764
గో	-9.37759
▁–	-9.3776
కర	-9.37998
▁రామలింగయ్య	-9.38254
▁జరుపుకుంటారు	-9.38259
▁నవల	-9.3827
▁భక్తి	-9.38438
▁డిగ్రీలు	-9.386
▁వా	-9.38612
▁తప్ప	-9.38612
పునర్వ్యవస్థీకరణ	-9.38617
▁అంద	-9.38661
▁వ్యాపార	-9.38684
▁అనుసరించి	-9.38878
▁ముఖ్యంగా	-9.39016
d	-9.39052
▁A	-9.39115
▁ఎంత	-9.39133
▁గ్రెగోరియన్	-9.39138
▁పొందింది	-9.3919
ాడని	-9.39321
▁కొత్తగా	-9.39402
▁వేంకట	-9.39415
దని	-9.39509
▁గోల్కొండ	-9.39604
▁నియోజకవర్గం	-9.39647
▁శాంతి	-9.39682
▁చే	-9.39826
▁తీర	-9.39863
ుట	-9.39898
్ని	-9.39951
▁ఆనంద	-9.39972
▁స్కోప్	-9.40012
▁2009	-9.40039
▁స్వతంత్ర	-9.40135
వర్	-9.40139
లేని	-9.40168
ులకు	-9.4019
▁భారత్	-9.40265
▁రాష్ట్రాల	-9.40314
▁ఆడ	-9.40356
దీ	-9.40402
▁రాజ్యం	-9.40419
▁సాంస్కృతిక	-9.40496
▁థాయ్	-9.4051
▁అంచనా	-9.40512
▁మానవ	-9.40541
▁అధికార	-9.41047
▁రచనలు	-9.41181
▁).	-9.41333
▁కాలెండరు	-9.41351
▁నెహ్రూ	-9.41351
▁నోబెల్	-9.41352
ిత	-9.41411
▁మారింది	-9.41433
▁సేవ	-9.41446
▁ముస్లిం	-9.41582
▁జన్మించాడు	-9.41817
▁ప్రకాశం	-9.41831
▁ప్రొడక్షన్స్	-9.41861
▁అన్నమయ్య	-9.41865
▁ఖ	-9.41866
▁పాలనలో	-9.41906
C	-9.41937
ంగ్	-9.41954
▁అతన్న	-9.4208
▁ఎలా	-9.42356
▁మొదట	-9.42377
▁నేను	-9.42379
A	-9.42494
▁ప్రజలకు	-9.42517
▁అత్యధిక	-9.42592
▁వలస	-9.42594
▁భర్త	-9.42612
▁అతిపెద్ద	-9.42658
▁చేర	-9.42781
▁విజయనగరం	-9.42843
సం	-9.42889
తాయి	-9.42902
▁క్రింద	-9.4296
▁సగటు	-9.43196
▁కెనడాలో	-9.43349
ిస్తూ	-9.43525
కొండ	-9.43541
▁ఉద్యమ	-9.43615
▁బ్యానర్	-9.43625
▁పాప	-9.43644
ంబ	-9.43691
▁నరసింహ	-9.43792
▁జీవిత	-9.43833
కోట	-9.43992
▁మళ్ళీ	-9.44085
▁తమిళనాడు	-9.44122
▁సూర్య	-9.44149
▁కళా	-9.44151
ాలతో	-9.44194
▁కేంద్రమైన	-9.44246
▁చేయడానికి	-9.44374
▁32	-9.4448
▁ఒ	-9.44502
▁రంగ	-9.4453
▁గుర్తింపు	-9.44536
▁ప్లాంట్	-9.44549
ుతుంది	-9.44574
▁బాలబడ	-9.44727
▁అనంతపురం	-9.44769
ట్ల	-9.44921
▁సాధారణ	-9.44941
▁మామూలు	-9.45013
▁భౌతిక	-9.45085
▁1956	-9.45108
వై	-9.45217
▁బట్టి	-9.45486
▁1980	-9.45496
లేక	-9.45555
▁చుట్టూ	-9.4557
60	-9.4558
▁2008	-9.45689
ూరి	-9.45734
17	-9.45918
హెచ్	-9.45952
▁చేస్తుంది	-9.45967
▁పోలీసు	-9.46112
కోసం	-9.46173
▁ఇతను	-9.46261
▁భాషలలో	-9.46317
▁ఆత్రేయ	-9.46339
▁దాసరి	-9.46431
▁1991	-9.46467
▁పెట్ట	-9.4649
▁గణపతి	-9.46524
▁లింగ	-9.46549
n	-9.46722
▁స్త్రీ	-9.46845
▁భావిస్తున్నారు	-9.46909
▁భారీ	-9.46939
వాగు	-9.4697
పద్యం	-9.46986
వో	-9.47002
రం	-9.47106
▁భ	-9.47334
11	-9.4734
▁రాజులు	-9.47347
▁గృహాలు	-9.47386
▁తనకు	-9.47416
▁యుద్ధంలో	-9.47452
ూర్	-9.47482
▁డబ్బు	-9.47643
ట్టు	-9.47686
▁జిల్లాలు	-9.47813
▁కొల్లూర	-9.47815
▁సంఘ	-9.47848
కాల	-9.47869
▁సీత	-9.47934
▁హరి	-9.4797
▁ఇండియన్	-9.47975
▁1947	-9.4799
▁in	-9.48229
▁ఫైల్	-9.48353
80	-9.48628
▁గ్రామీణ	-9.48668
▁ఉంటారు	-9.48834
కై	-9.48889
01	-9.48926
పూర్	-9.48933
▁మహిళల	-9.49283
▁ఆర్ట్	-9.49308
▁కేంద్రంగా	-9.49522
▁లాంటి	-9.49581
▁ఇప్పటికీ	-9.49812
▁జానపద	-9.49839
తీ	-9.49967
▁సుబ్బారాయుడు	-9.50278
▁జల	-9.50598
▁కేరళ	-9.50614
▁ఊరు	-9.50619
▁అతడు	-9.50836
ించిన	-9.50899
ుకొని	-9.50958
పాల	-9.50976
▁అన	-9.51021
మె	-9.51023
స్త	-9.51052
18	-9.51099
▁సాంకేతిక	-9.511
▁లక్ష్మి	-9.51256
▁రూపాయల	-9.51286
▁మరణించాడు	-9.51292
.18	-9.51367
▁బంగారు	-9.51429
న్నీ	-9.51597
▁మద్య	-9.51619
▁కారణం	-9.51641
స్తుంది	-9.51774
▁కుతుబ్	-9.51807
▁స్	-9.52005
▁పురస్కార	-9.52028
నం	-9.52029
డంతో	-9.52085
కర్	-9.5224
▁చలన	-9.52249
▁ప్రారంభించాడు	-9.5231
▁ప్రధానంగా	-9.52322
▁ప్రధానమంత్రి	-9.52326
▁సమేత	-9.52352
▁చేయబడింది	-9.5247
▁ఉండేవి	-9.52473
ష్ట	-9.5249
▁గళామృత	-9.52765
▁లభించింది	-9.52781
▁1985	-9.52864
c	-9.53038
▁మూర్తి	-9.53107
డీ	-9.53128
25	-9.53136
కవి	-9.5322
▁సైనిక	-9.53222
▁శ్రీకాకుళం	-9.53288
▁జీవితం	-9.53373
▁చూడ	-9.53478
▁నే	-9.53551
▁హై	-9.53661
▁రి	-9.53703
▁ఆది	-9.53727
▁అకాడమీ	-9.53778
మూర్తి	-9.53813
▁2012	-9.53819
ఉ	-9.53839
▁అవకాశం	-9.53869
▁వెంకటేశ్వరరావు	-9.53884
▁కార్యక్రమాలు	-9.53903
▁గారి	-9.53939
▁జనాభాలో	-9.53942
▁పంట	-9.5399
▁నిర్వహించిన	-9.54036
వ్వ	-9.54081
▁సాహితీ	-9.54132
బడిన	-9.54185
▁దాడి	-9.54188
జె	-9.54192
▁కాకినాడ	-9.54251
▁యూనియన్	-9.54289
▁జీవ	-9.54322
▁C	-9.54354
▁59	-9.54367
▁కొ	-9.54467
యస్	-9.5452
సె	-9.54536
▁రంగారావు	-9.54658
▁ఆసియా	-9.54668
▁రాజధానిగా	-9.54698
▁గంగ	-9.54812
▁డే	-9.54913
▁మాటలు	-9.54925
ధి	-9.54977
▁పరిశ్రమ	-9.55037
▁రాణి	-9.55086
▁గురు	-9.55136
▁విశేషం	-9.55184
▁ఎత్తు	-9.55258
g	-9.55295
▁దాశరథి	-9.55341
h	-9.55477
జానకి	-9.55511
▁పర్వత	-9.5562
ూరు	-9.55663
▁బౌద్ధ	-9.55669
▁సె	-9.55722
ింగ్	-9.55976
ండ	-9.56009
▁శ్రీశ్రీ	-9.56025
▁పోటీ	-9.56067
▁పూజలు	-9.56078
▁రాజుల	-9.56124
▁38	-9.56206
://	-9.56359
▁జరిగే	-9.56374
▁కొసరాజు	-9.56426
ద్ద	-9.56507
S	-9.56876
▁అడుగుల	-9.57065
ున్న	-9.57102
▁హైదరాబాదులో	-9.5713
▁నాగరికత	-9.57161
00	-9.57161
▁బె	-9.57169
▁చెప్పిన	-9.5733
▁ప్రభావం	-9.57366
▁M	-9.57424
▁పరిశోధన	-9.57477
పీ	-9.57602
▁విజ్ఞాన	-9.57692
నకు	-9.57717
▁ఉద్యమం	-9.57785
▁కథలు	-9.578
▁రకాల	-9.57858
శాస్త్రి	-9.57896
▁వుంది	-9.57903
▁తెలియదు	-9.57952
▁రెండో	-9.57954
05	-9.58013
▁కోటి	-9.58047
▁పండుగ	-9.58059
పాడు	-9.58071
టర్	-9.58174
▁రాజేంద్ర	-9.58469
షన్	-9.58471
▁నృత్య	-9.58551
▁నల్ల	-9.58696
22	-9.58718
రామారావు	-9.58746
ందుకు	-9.58747
▁మనం	-9.58819
▁చాల	-9.58881
న్ని	-9.58936
▁రాతి	-9.5894
▁ఆధ్వర్యంలో	-9.59003
▁పనిచేశాడు	-9.59007
▁ఆధ్యాత్మిక	-9.59027
మైంది	-9.59058
▁2014,	-9.59167
▁ఒడ్డున	-9.59275
▁2015,	-9.59398
r	-9.59454
షా	-9.59464
ంతా	-9.59555
▁మార్గంలో	-9.59556
▁దీన్ని	-9.5957
▁2010	-9.59681
▁రోజుల	-9.59758
▁లేవు	-9.59803
▁స్వాతంత్ర్యం	-9.59842
▁దూరంలోనూ	-9.59903
▁2000	-9.59945
ల్లా	-9.60065
▁సంస్కృతి	-9.60101
▁పట్ల	-9.60152
▁సీ	-9.60182
38	-9.60233
▁సహా	-9.6025
స్తూ	-9.60287
రామ	-9.60295
ుకుని	-9.60386
▁తిరుగుబాటు	-9.60395
59	-9.60398
వాడ	-9.60415
ఘ	-9.60434
99	-9.60478
ించాడు	-9.60528
▁చెరువులు	-9.60567
▁జనరల్	-9.60626
▁1969	-9.60744
▁ఇంట్లో	-9.60751
▁రాజ్య	-9.60767
▁సముద్ర	-9.60768
చె	-9.60961
▁వ్యాసం	-9.61076
▁ఇంటికి	-9.61124
▁న్యాయమూర్తి	-9.61174
▁గాని	-9.61215
▁నంద్యాల	-9.61218
▁వెబ్	-9.61235
▁పరిస్థితి	-9.61244
▁విష్ణు	-9.61279
▁(1	-9.6128
▁చెన్నై	-9.61421
▁అంతా	-9.61598
▁అయినా	-9.61618
▁జైలు	-9.61741
14	-9.61839
42	-9.61898
▁కొద్ది	-9.62015
▁2023	-9.62042
▁తరువాతి	-9.62047
40	-9.62158
▁చేసుకుని	-9.62346
▁ప్రాంతానికి	-9.62363
▁వంశ	-9.62367
23	-9.62369
వారికి	-9.62395
▁ముఖ్యమంత్రిగా	-9.62423
చల్లా	-9.62483
▁పూ	-9.62609
▁గత	-9.62634
er	-9.62704
▁పాకిస్తాన్	-9.629
▁స్థానం	-9.62946
▁80	-9.63014
▁కథా	-9.63166
▁అందుకు	-9.63189
▁జాబితా	-9.63399
▁గద్వాల	-9.63565
▁ఆయనకు	-9.63595
యిన	-9.63691
తెలుగు	-9.6371
▁పంపిస్తున్నా	-9.63799
▁దేవత	-9.63935
▁జట్టు	-9.63965
పల్లె	-9.63974
▁పదం	-9.64037
▁విశ్వ	-9.6406
55	-9.64256
▁మొదలు	-9.64338
▁పిల్లలు	-9.64382
▁కంప్యూటరు	-9.64402
చ్	-9.64446
▁పద్యం	-9.64503
శాల	-9.64585
▁బ్రాహ్మణ	-9.64608
ఖ	-9.64694
రాజ	-9.6471
21	-9.6484
▁1,	-9.64898
in	-9.65026
యూ	-9.65331
▁పది	-9.65375
▁నాయకులు	-9.65509
హా	-9.65536
62	-9.65591
▁మాధవపెద్ది	-9.65687
▁అరటి	-9.65742
▁విమానాశ్రయం	-9.65775
▁కూడిన	-9.65798
▁రాధ	-9.65854
▁2005	-9.65865
▁కలసి	-9.65948
▁ఉండగా	-9.65998
▁సాధించి	-9.66071
▁పేర్లు	-9.66084
లీల	-9.66144
▁2007	-9.66155
▁ఘట్టమనేని	-9.66226
▁అలీ	-9.66237
▁1952	-9.6633
▁సింధు	-9.6634
▁బొమ్మ	-9.66367
▁గాయని	-9.66412
26	-9.66416
▁బా	-9.66656
▁క్షేత్రం	-9.66683
▁లలో	-9.66742
ed	-9.66779
▁1982	-9.66822
▁వారిలో	-9.66902
▁45	-9.66932
▁సైన్యం	-9.66949
▁అందించిన	-9.67049
▁రవి	-9.67072
▁కార్యక్రమంలో	-9.67086
▁ఒకసారి	-9.67131
▁దేశాలలో	-9.67151
▁వైశాల్యం	-9.6717
▁కోరిక	-9.6722
బో	-9.67321
లె	-9.67322
▁బ్రిటిషు	-9.67386
▁ఉమ్మడి	-9.67386
▁రచయిత్రి	-9.67411
70	-9.67475
64	-9.67504
▁జో	-9.6754
06	-9.67568
▁కేంద్రాల్లో	-9.67572
▁ఇచ్చి	-9.67578
ంట	-9.67717
▁లే	-9.67852
▁చూప	-9.67864
▁సాంఘిక	-9.67999
32	-9.68018
24	-9.68264
▁ఉండ	-9.68264
▁సమ	-9.6833
ిని	-9.6835
96	-9.68434
▁స్కూల్	-9.68506
నుంచి	-9.68561
▁1972	-9.68574
▁1983	-9.68607
▁ఉత్సవాలు	-9.68644
▁పొందాడు	-9.68666
▁మొదటిసారిగా	-9.6873
▁చేస్తాడు	-9.68731
P	-9.68753
దో	-9.68793
▁ప్రారంభ	-9.68794
▁సో	-9.68948
45	-9.68964
సే	-9.6897
▁సంస్థలు	-9.69031
▁42	-9.69034
పాలెం	-9.69038
పోతోంది	-9.6907
స్వామివారి	-9.69098
▁మరణించారు	-9.69199
43	-9.69199
▁2019	-9.69222
35	-9.69468
కల	-9.69491
]	-9.69493
హి	-9.69617
▁భాషలు	-9.69626
▁విదేశీ	-9.69627
▁వేరు	-9.6964
చేసి	-9.69668
ుడి	-9.69672
04	-9.69707
▁ఉన్నాడు	-9.69712
▁కవులు	-9.69729
▁తెలుస్తుంది	-9.69755
▁కాబట్టి	-9.69769
గారి	-9.69788
▁సమస్య	-9.69796
▁దక్షిణాన	-9.69797
▁గారు	-9.69798
చేత	-9.69801
▁పొట్టి	-9.69834
▁ప్రథమ	-9.69845
▁రో	-9.6989
▁పంచాయతీ	-9.69963
పుడు	-9.7001
▁పూజ	-9.70067
▁కమ్యూనిస్టు	-9.70083
92	-9.70084
▁ఆలయాన్ని	-9.70119
▁పర	-9.70165
▁యా	-9.70167
▁36	-9.7017
▁తి	-9.70193
▁చెప్పి	-9.70361
▁చిత్రానువాదం	-9.7039
▁మరణం	-9.70401
▁ప్రకృతి	-9.7041
ును	-9.70444
▁శ్రీరాములు	-9.70454
ిస్తాడు	-9.70456
b	-9.70461
▁నటించగా	-9.70479
▁రంగారెడ్డి	-9.70571
▁ఇక	-9.70654
రచన	-9.70684
టో	-9.70706
▁మనిషి	-9.70729
▁మనసు	-9.70742
▁చి	-9.7075
▁చదువు	-9.70755
▁ఆమెకు	-9.70806
89	-9.70827
ాం	-9.70836
▁ఉపయోగించ	-9.709
▁1960	-9.7098
▁వెనుక	-9.71009
▁33	-9.71024
▁B	-9.71131
▁పట్టణానికి	-9.71244
p	-9.7133
▁కార్యక్రమం	-9.71341
▁అడవి	-9.71465
▁చె	-9.71466
ులను	-9.71556
▁కాశీ	-9.71586
▁రూపంలో	-9.71623
▁సాగర్	-9.71649
▁1975	-9.71661
▁సరిహద్దు	-9.71669
68	-9.7169
న్నది	-9.71695
▁ఇవ్వ	-9.71748
నప్పుడు	-9.71769
▁విద్యార్థులు	-9.71828
ట్ట	-9.71867
ాలయం	-9.71963
▁మందిరం	-9.72014
▁2004	-9.72152
▁ప్రచురణ	-9.72202
▁హాస్య	-9.72228
33	-9.72259
▁సాధించింది	-9.72282
ికి	-9.72435
97	-9.7259
▁రాముడు	-9.72592
▁దేవస్థానం	-9.72913
▁ఎర్ర	-9.72928
▁చిత్రాల	-9.73033
▁మీటర్ల	-9.73052
▁దేశాల	-9.73243
▁పాత్రలు	-9.73268
▁ఎకరాల	-9.73278
▁వార్షిక	-9.73389
▁1948	-9.7341
ుటకు	-9.73478
▁రమేష్	-9.73484
▁1971	-9.73498
పొ	-9.7357
ెన్	-9.7363
▁భక్తులకు	-9.73733
▁పెట్టి	-9.73746
ంబు	-9.7377
▁నవ	-9.73875
▁గంగా	-9.73882
▁పరి	-9.73897
▁రిపబ్లిక్	-9.74094
▁2015	-9.74218
39	-9.74255
▁ఎన్నికల	-9.74285
▁రక్షణ	-9.74314
కంటే	-9.74333
▁పాలు	-9.74376
▁విప్లవ	-9.74507
▁ఉండటం	-9.74517
▁చట్టం	-9.74538
53	-9.74577
▁సాగు	-9.74607
పూడి	-9.74627
▁అందుకే	-9.74655
▁నిర్మించబడింది	-9.7467
▁నాగార్జున	-9.74694
▁నందమూరి	-9.747
కృష్ణ	-9.74786
▁పొడవు	-9.7485
81	-9.74875
స్ట్	-9.7489
▁వ్యతిరేక	-9.74956
77	-9.74967
▁రాజ్యాంగ	-9.75172
▁పైన	-9.75242
▁The	-9.75255
▁కళ	-9.7526
▁ఆనకట్ట	-9.75269
▁రాజమండ్రి	-9.75292
త్య	-9.7532
▁వే	-9.75324
▁నదీ	-9.75351
▁సామ్రాజ్య	-9.75357
▁శాస్త్ర	-9.75435
▁లోక	-9.75455
31	-9.75501
▁కమిటీ	-9.75509
27	-9.75518
▁మరి	-9.75555
▁కుల	-9.75572
▁వాటిలో	-9.75585
▁పాఠశాలలో	-9.756
▁గాను	-9.75822
▁వాడుకలో	-9.75823
కుల	-9.75861
▁పారుదల	-9.75901
▁ఆచార్య	-9.75954
▁రాయలసీమ	-9.75959
▁అయ్యాడు	-9.75996
▁ప్రాంతీయ	-9.76003
▁ఆహార	-9.76003
ించారు	-9.76111
▁శిక్ష	-9.76156
షి	-9.76259
▁నీటిని	-9.76345
▁చేస్తున్న	-9.76367
83	-9.76377
▁గు	-9.76454
▁చెంద	-9.76478
▁స్వయంగా	-9.76493
▁కనిపిస్తుంది	-9.76542
కులు	-9.76552
▁పంప	-9.76616
ంటారు	-9.76631
▁1992	-9.76666
56	-9.76812
▁నేల	-9.76842
బీ	-9.7687
51	-9.76893
▁70	-9.76929
▁దేశానికి	-9.77053
▁డివిజనులో	-9.77076
▁పు	-9.77191
▁చూడండి	-9.77198
వరకు	-9.77232
▁తెలియ	-9.77244
▁సర్పంచిగా	-9.77268
▁యునైట	-9.77302
▁విశ్వనాథ	-9.77409
▁రేడియో	-9.77461
టే	-9.77543
▁సంప్రదాయ	-9.77601
▁ఇంగ్లీషు	-9.77708
ిస్తుంది	-9.77751
90	-9.77754
▁చేరి	-9.77785
▁స్థాపించబడింది	-9.77836
l	-9.77843
▁1999	-9.77844
▁ప్రారంభమైంది	-9.77862
▁వాళ్ళ	-9.77961
ాక	-9.77962
▁విస్తీర్ణం	-9.78069
▁P	-9.7807
▁వెంకటేశ్వర	-9.78111
▁చివరికి	-9.78126
▁ఎమ్మెల్యే	-9.78215
▁కీ	-9.78243
డో	-9.78278
88	-9.78298
▁ఉజ్బెకిస్థాన్	-9.78474
▁టెక్నాలజీ	-9.78474
▁1955	-9.78494
▁అవసరం	-9.78585
భాష	-9.78637
పతి	-9.78723
an	-9.7882
▁భారతదేశంలోని	-9.78825
ునిగా	-9.78922
▁పెద	-9.78968
▁విశేష	-9.79024
▁మధ్యలో	-9.79081
▁1964	-9.79146
▁ఉంటాడు	-9.79146
▁1994	-9.79154
▁పాల్గొన్నారు	-9.79165
▁భక్తుల	-9.79169
▁గౌరవ	-9.79173
37	-9.79249
▁రోజుల్లో	-9.7935
▁రంగంలో	-9.79351
▁లోనే	-9.7938
వల్ల	-9.79421
▁చేతిలో	-9.79535
95	-9.79647
▁పొంద	-9.79725
▁గోపాలరావు	-9.79801
▁ప్రదేశం	-9.79811
వర	-9.79856
పె	-9.79863
▁పరిచయం	-9.79874
▁అసలు	-9.79978
▁తారక	-9.79989
లైన	-9.80081
▁ప్రాంత	-9.80171
63	-9.80224
డే	-9.80232
జన	-9.80273
▁బాల్	-9.8031
▁ఒప్పందం	-9.80315
▁తెనాలి	-9.80316
▁మొఘల్	-9.80448
36	-9.80463
▁44	-9.80508
▁క్రమంగా	-9.80555
28	-9.80619
29	-9.80738
02	-9.80898
పద	-9.80935
▁ఘనం	-9.80991
▁జాన్	-9.81049
▁మండేలా	-9.81113
▁అవగాహన	-9.81114
▁శాస్త్రీయ	-9.81185
▁వెంటనే	-9.81193
▁మరాఠీ	-9.81221
హ్	-9.81222
▁ఫలితంగా	-9.81229
87	-9.81244
▁మహర్షి	-9.81293
▁అధికారులు	-9.81368
▁చంప	-9.81378
▁భారతదేశానికి	-9.81414
▁ప్రఖ్యాత	-9.81464
▁1965	-9.81482
చ్చ	-9.81596
▁2006	-9.81692
ణి	-9.81707
74	-9.81757
B	-9.81758
▁1998	-9.81801
▁నిష్పత్తి	-9.81809
▁ఈనాడు	-9.8183
▁దర్శకులు	-9.81889
▁చివరకు	-9.81923
వేల	-9.81953
▁కుటుంబం	-9.82013
▁బిరుదు	-9.82087
E	-9.82256
త్వం	-9.8227
▁G	-9.82288
▁200	-9.82385
91	-9.82394
▁1950	-9.82425
▁దాంతో	-9.82473
▁దొర	-9.82711
▁సిద్ధ	-9.82776
▁గ్రంథ	-9.82823
▁కోర్టు	-9.83045
▁1930	-9.83174
72	-9.83179
▁స్వాధీనం	-9.83215
▁48	-9.83268
▁ప్రత్యేకంగా	-9.83277
ప్రసాద్	-9.83284
▁పనులు	-9.83294
▁ఆత్మ	-9.83313
46	-9.83326
▁సహాయ	-9.83362
▁విధానం	-9.83366
▁సార్లు	-9.83376
▁వ్యాధి	-9.8342
▁పండితులు	-9.8343
▁పవిత్ర	-9.83454
రాల	-9.8357
▁ఎనిమిది	-9.83574
న్నా	-9.83576
▁పద్య	-9.83578
ర్ల	-9.83615
సారి	-9.83631
ాను	-9.83632
శి	-9.83635
పర	-9.8373
▁హిట్	-9.8383
▁సంపాదకుడు	-9.83835
▁ఉత్తరాన	-9.8384
▁జరిగాయి	-9.83843
▁15:	-9.83866
▁వివరాలు	-9.83996
57	-9.84005
▁నాటు	-9.84053
▁నదులు	-9.84072
ారెడ్డి	-9.84089
▁ఆలయానికి	-9.84153
▁సముద్రాల	-9.84303
కాలంలో	-9.84391
▁అధికారి	-9.84404
▁తిక్కన	-9.84531
▁ఉండాలి	-9.84537
▁ఉంటే	-9.84539
ing	-9.84543
▁దారి	-9.84613
▁బాలకృష్ణ	-9.8463
చేయ	-9.84633
▁1997	-9.84635
▁పేజీ	-9.84648
ar	-9.84684
▁2018	-9.8469
79	-9.84728
▁మో	-9.84773
తోపాటు	-9.84835
▁చెట్టు	-9.84841
▁కార్	-9.84855
▁సోమ	-9.84956
54	-9.85022
చిత్ర	-9.85036
డమే	-9.85036
నట్లు	-9.85071
▁37	-9.85103
▁1974	-9.85107
ీయ	-9.85177
▁గవర్నర్	-9.85215
ుతూ	-9.85223
▁అయినప్పటికీ	-9.85233
▁జీవన	-9.8524
▁అవుతుంది	-9.85258
▁ఏక	-9.85269
▁అందించారు	-9.85276
▁పిఠాపురం	-9.85305
▁సావిత్రి	-9.8536
▁రాష్ట్రానికి	-9.85394
▁శివుడు	-9.85394
85	-9.85396
▁తీసుకుని	-9.85405
కుడు	-9.85416
▁పెట్టారు	-9.85417
▁వాడు	-9.85425
▁హా	-9.85503
44	-9.85607
▁అగ్ని	-9.85651
రాయ	-9.85755
▁ఊరి	-9.85882
▁సూపర్	-9.85912
▁జైన	-9.85928
▁చెబుతారు	-9.85934
▁మాట్లాడే	-9.85943
▁మార్పు	-9.85962
ులైన	-9.86012
చు	-9.86015
▁పుట్ట	-9.86022
41	-9.86048
▁ప్రత్యేకత	-9.86171
▁ఎన్నిక	-9.86223
▁వేమన	-9.86281
▁లిపి	-9.86375
ందు	-9.86431
▁పద	-9.86548
48	-9.8659
▁జాతర	-9.86636
▁పాత్రల్లో	-9.86696
69	-9.86754
09	-9.868
-19	-9.86829
మైనది	-9.86897
▁పల్లి	-9.86899
▁డివిజన్	-9.86899
▁మనకు	-9.86914
▁అధికారిక	-9.86928
యైన	-9.86963
▁హెచ్	-9.87186
▁సర్	-9.87199
▁తూర్పున	-9.87267
▁పుస్తకం	-9.87299
▁తా	-9.87329
బడ	-9.87354
▁నిజామాబాదు	-9.87377
▁గోపి	-9.87401
▁సహాయం	-9.87402
▁సమర	-9.87456
▁అయి	-9.87539
▁చెప్పాడు	-9.87589
▁1989	-9.87609
ించే	-9.87692
స్థ	-9.87986
▁తు	-9.87997
▁డబ్బింగ్	-9.88052
▁వచ్చాయి	-9.88082
జు	-9.88106
08	-9.88111
▁అతడి	-9.88183
దేవి	-9.88199
▁గుమ్మడి	-9.88217
తె	-9.88287
ించడం	-9.88324
రంగ	-9.88349
▁పూర్	-9.8836
▁వైద్యులు	-9.88411
▁కాకతీయ	-9.88438
▁భక్త	-9.88439
▁వెళ్ళే	-9.88459
▁మొ	-9.88525
▁ఇచ్చిన	-9.88528
▁ఇప్పటి	-9.88569
▁జన్మ	-9.88712
▁ఇండో	-9.88714
▁పడి	-9.88793
▁ఎక్స్	-9.88823
▁తరగతి	-9.88863
▁న్యాయ	-9.88883
▁2002	-9.88907
47	-9.89024
▁పొ	-9.89125
▁బాధ్యత	-9.89173
▁ఒంగోలు	-9.89174
▁పరిశ్రమలు	-9.89183
or	-9.89186
▁ష	-9.89302
▁దాన్ని	-9.89415
య్	-9.8945
▁సాయి	-9.89484
▁ఉన్నది	-9.89527
▁సుల్తాన్	-9.89528
▁అంటూ	-9.89538
▁శర్మ	-9.89554
▁వచ్చాడు	-9.89571
▁ఆట	-9.89604
▁శాసనం	-9.89634
82	-9.89682
▁వంటివి	-9.89782
▁విద్యార్థి	-9.89799
▁కామ	-9.898
▁పదవిని	-9.89803
▁చెయ్య	-9.89811
▁మహారాజు	-9.89832
నాటి	-9.89898
▁నేత	-9.89905
▁రికార్డు	-9.89906
పాట	-9.90105
▁ప్రకటించింది	-9.9024
▁స్థాపించారు	-9.90282
▁1973	-9.90312
98	-9.90335
▁150	-9.90341
▁అనుమతి	-9.90522
▁అల	-9.90601
▁నవలా	-9.9067
com	-9.90712
▁http	-9.90764
▁అనీ	-9.90878
▁ఇందిరా	-9.90897
▁కళాకారుడు	-9.90983
▁వాతావరణం	-9.91039
▁ప్రదేశాలు	-9.91116
R	-9.91141
▁2003	-9.91161
తం	-9.91216
▁పనిచేసిన	-9.91279
▁ప్రాంతాల్లో	-9.913
నని	-9.9138
▁రె	-9.91414
▁రాఘవ	-9.91444
03	-9.91452
▁వేర్	-9.91595
▁రాజీనామా	-9.91687
▁జరుగుతాయి	-9.91694
▁D	-9.91696
ra	-9.91697
▁1946	-9.91707
▁భావిస్తారు	-9.91713
▁విలీనం	-9.91714
▁బ్యాంక్	-9.91759
▁చక్కని	-9.91803
▁పాడ	-9.91909
▁1967	-9.9191
▁కర	-9.92048
ంటి	-9.9216
84	-9.92173
71	-9.92357
75	-9.92424
▁మొదలగు	-9.92442
94	-9.92474
▁మైసూరు	-9.9248
▁పోషించారు	-9.9248
▁నిలిచింది	-9.92494
వరం	-9.92634
58	-9.92722
▁కన్నా	-9.92851
▁నిర్మాణానికి	-9.92861
▁అమ్మాయి	-9.92906
తాడు	-9.93004
▁మారి	-9.93012
▁తాలూకా	-9.93013
▁12:	-9.93019
▁సాధించిన	-9.93064
▁22:	-9.93112
▁మై	-9.93125
▁పద్మ	-9.93146
▁బయట	-9.93208
▁1961	-9.93218
73	-9.9322
▁అందరూ	-9.93222
▁సినిమాను	-9.93224
▁52	-9.93224
▁1920	-9.93277
▁అందమైన	-9.93315
▁సమితి	-9.93316
కార	-9.93351
▁పారిశ్రామిక	-9.93375
▁చేరిన	-9.93409
▁ఓడించి	-9.93484
65	-9.93544
▁0	-9.93592
▁భావ	-9.93697
లై	-9.93711
▁అన్నాడు	-9.93821
▁ఆదిలాబాద్	-9.93856
ైనా	-9.93875
▁రావి	-9.93887
▁కనిపించ	-9.93918
▁రేటు	-9.9397
▁రచించాడు	-9.93985
▁మచిలీపట్నం	-9.94002
▁నూతన్	-9.94044
▁సై	-9.94067
ఓ	-9.94107
▁లను	-9.94164
▁శ్రీశైలం	-9.94192
ుతున్న	-9.94277
▁పడ	-9.94292
▁మనో	-9.943
స్తాడు	-9.94339
▁అర్ధ	-9.94393
67	-9.94395
వె	-9.94436
ధా	-9.94516
కాలం	-9.94556
▁అంగ	-9.94611
▁తదితర	-9.94654
▁పత్రికా	-9.94669
▁పరిషత్తు	-9.94738
▁తెలుగుదేశం	-9.94786
▁1954	-9.94835
▁ప్రదర్శన	-9.94861
▁47	-9.9497
▁శ్రీనివాస	-9.94971
▁రూపొందిన	-9.95051
▁తేదీన	-9.95056
▁ఇటీవల	-9.95206
మర్	-9.95224
▁స్వ	-9.95249
ాది	-9.95338
▁అధికారం	-9.95368
▁జర్మనీ	-9.95476
▁తపస్సు	-9.95476
్యం	-9.95506
▁ఆల్	-9.95515
▁ఆదివారం	-9.95531
▁1962	-9.95541
▁సుందర	-9.95543
▁దశ	-9.95547
▁విగ్రహ	-9.95551
చూ	-9.95567
▁అమలు	-9.95611
D	-9.95618
▁1945	-9.95683
▁ప్రాముఖ్యత	-9.95704
▁వేసి	-9.95704
▁సంబంధం	-9.95862
▁ఆలయాలు	-9.95881
వని	-9.95882
ంక	-9.9595
▁పురాణ	-9.95975
ంటుంది	-9.96021
▁పెంచ	-9.96042
క్కు	-9.96058
నికి	-9.96058
▁1970	-9.96063
ఠ	-9.96143
▁ఎంపిక	-9.96199
నగర్	-9.96206
▁వసతి	-9.96262
▁1942	-9.96276
78	-9.96331
▁పర్షియన్	-9.96354
▁శివాజీ	-9.96364
▁వ్యక్తులు	-9.96477
▁23:	-9.96529
ానికీ	-9.96536
▁I	-9.96582
86	-9.96606
▁3:	-9.96683
▁ఆదాయం	-9.96705
▁బల	-9.96758
▁||	-9.9676
▁కోర	-9.96951
లపై	-9.97012
చో	-9.97021
▁34	-9.97028
▁ప్రతిష్ఠ	-9.97059
▁స్థాయిలో	-9.97077
ానంద	-9.97109
▁ప్రక్రియ	-9.97147
▁దొంగ	-9.97188
▁సరస్వతి	-9.9719
I	-9.97229
▁కృష్ణమూర్తి	-9.97302
▁దృష్టి	-9.97333
▁రూపాయలతో	-9.97447
▁అర్ధం	-9.97488
ాడ	-9.97537
▁జ్ఞాన	-9.97641
k	-9.97666
▁24:	-9.97731
నున్న	-9.97762
▁ఈశ్వరి	-9.97819
▁అత్యున్నత	-9.9782
ుచున్నది	-9.97823
మన్	-9.97832
▁సీతారామరాజు	-9.97845
▁వెళ్ళ	-9.97898
▁పాలించారు	-9.97906
▁బెంగాల్	-9.97913
93	-9.98011
▁గ్రామములో	-9.9804
▁మద్దతు	-9.98085
▁బాధ్యతలు	-9.98235
వలన	-9.98323
▁మంత్రిగా	-9.98328
61	-9.9834
▁రు	-9.98417
▁శంకర్	-9.98446
▁రుద్ర	-9.98464
▁హత్య	-9.9852
▁ముందుగా	-9.98541
76	-9.98568
పాటు	-9.98587
▁విషయంలో	-9.98619
▁2021	-9.98655
▁41	-9.98679
రూప	-9.98757
=	-9.98848
రంగారావు	-9.98856
▁పరీక్ష	-9.98871
బె	-9.98915
బడుతుంది	-9.98981
▁వందల	-9.98985
▁సినారె	-9.98994
వలసిన	-9.99049
▁ప్రారంభమయ్యాయ	-9.99118
▁సర	-9.99125
▁రాష్ట్రంగా	-9.99144
▁అవ	-9.99174
▁గణిత	-9.99235
▁కాలువలు	-9.99306
లం	-9.99403
▁మార	-9.99411
▁చికిత్స	-9.99413
▁ప్రజాదరణ	-9.99413
▁దుకాణం	-9.99457
▁సంఖ్యలో	-9.99458
▁సహ	-9.99547
M	-9.99562
▁అత్యధికంగా	-9.99658
▁చందమామ	-9.99701
ల్ల	-9.99762
▁మసీదు	-9.99791
▁55	-9.99814
▁విష్ణువు	-9.9983
▁మతం	-9.99837
కూడా	-9.99869
▁చేయబడిన	-9.99967
క్స్	-10.0001
శక్తి	-10.0005
▁స్వంత	-10.0015
▁ఫ	-10.0016
▁ప్రారంభం	-10.0023
▁1977	-10.0023
నారాయణరెడ్డి	-10.0024
▁2017	-10.0029
▁అమరావతి	-10.0032
▁పోలీస్	-10.0033
▁పరిసర	-10.0035
▁భీమవరం	-10.0038
▁మగ	-10.0062
యర్	-10.0063
▁తీర్పు	-10.0068
▁నమ్మ	-10.0068
బ్బ	-10.0069
▁నిర్మాతలు	-10.0076
▁2:	-10.008
▁రస	-10.0088
ళి	-10.0093
▁ఒక్కొక్క	-10.0099
▁శ్రీరామ	-10.01
▁మిగతా	-10.0103
▁స్థాపకుడు	-10.0104
▁చాళుక్య	-10.0107
▁జీ	-10.0108
▁27:	-10.0109
▁రంగు	-10.0112
ములను	-10.0122
▁గూగుల్	-10.0129
▁బు	-10.0131
▁ఆధారాలు	-10.0132
▁జమీందారు	-10.0143
▁పరిపాలనా	-10.0149
▁65	-10.015
▁సమీపంలోని	-10.0151
▁ఉద్యోగం	-10.0156
▁పంతులు	-10.0158
ద్ర	-10.017
▁మహిళలు	-10.0172
▁నిర్వహించ	-10.0173
w	-10.0174
▁నివేదిక	-10.0185
▁అంతరిక్ష	-10.0186
▁స్థాపించాడు	-10.0193
▁నరేంద్ర	-10.0194
ుతారు	-10.0197
▁పుష్ప	-10.0199
చంద్ర	-10.0206
▁బాధ	-10.0223
▁భారతదేశప	-10.0226
▁యూ	-10.0228
▁ఉందని	-10.0229
▁బాబా	-10.0231
దేవ	-10.0247
▁తయారీ	-10.0267
▁ఫిల్మ్	-10.0267
▁ప్రస్తావన	-10.0268
▁ఇతడు	-10.0281
▁చిత్రకారుడు	-10.0281
▁పుణ్య	-10.0281
▁దైవ	-10.0282
▁1940	-10.0284
న్స్	-10.0285
▁దగ్గరలో	-10.0286
▁భద్రాచలం	-10.029
▁అర	-10.0293
లాల్	-10.031
ట్టి	-10.0329
▁6:	-10.0332
▁సేవలు	-10.0344
ద్య	-10.0348
▁ప్రా	-10.035
▁సీనియర్	-10.0351
▁విన	-10.0352
▁రాశాడు	-10.0352
▁ప్రచారం	-10.0354
▁యోధుడు	-10.0359
▁యే	-10.0371
▁దీనిలో	-10.0379
▁జీవితంలో	-10.0382
H	-10.0383
▁బాపు	-10.0389
మయిన	-10.0396
▁వెంట	-10.0399
▁వివరించ	-10.0399
34	-10.0404
▁43	-10.0418
▁సమయం	-10.043
▁సుప్రీంకోర్టు	-10.0435
▁ఎన్నికయ్యాడు	-10.0436
▁శంకుస్థాపన	-10.0436
▁బస్	-10.0437
▁బ్రిటీష్	-10.0438
▁ఫ్రెంచి	-10.0439
▁లలిత	-10.0441
▁సెంటర్	-10.0442
▁వార	-10.0443
▁జపాన్	-10.0451
▁గాయకులు	-10.0455
▁T	-10.0458
ప్పటికీ	-10.046
డము	-10.0461
▁ఒకప్పుడు	-10.0461
▁కొనసాగ	-10.0462
రాజా	-10.0464
▁ఆయా	-10.047
▁విషయ	-10.0473
▁మధు	-10.0477
▁గోవా	-10.048
సన్	-10.0484
▁పల్లె	-10.0497
▁వయసు	-10.0503
త్ర	-10.0506
▁భాషల	-10.0514
▁మార్చ	-10.0514
▁పేట	-10.0516
▁నేపథ్యగానం	-10.0521
▁సీతారామ	-10.0521
▁దేవతల	-10.0522
▁వందేమాతరం	-10.0525
▁బహుళ	-10.0526
▁బిల్లు	-10.0532
▁ఇంత	-10.0534
49	-10.0539
▁బై	-10.0541
ిస్తారు	-10.0541
▁పెరిగి	-10.0541
▁నాటకం	-10.0549
▁బొ	-10.0549
▁నాయకత్వంలో	-10.0549
▁64	-10.0549
▁గానీ	-10.0555
▁46	-10.0561
▁a	-10.0562
▁వైద్యుడు	-10.0573
▁మలయాళ	-10.0575
▁ఇక్కడే	-10.0582
▁30:	-10.0587
▁నరసింహారావు	-10.0588
▁ఇక్కడికి	-10.0589
▁ఇంద్ర	-10.0593
రాష్ట్ర	-10.0601
ుకునే	-10.0602
▁రద్దు	-10.0602
▁శుద్ధ	-10.0605
▁బెంగాలీ	-10.0605
▁రామాయణం	-10.0609
▁1963	-10.0609
▁ప్రైవేట్	-10.0609
▁1978	-10.0611
▁ప్లే	-10.0611
రణ	-10.0614
▁జిక్కి	-10.0616
▁శైలి	-10.0623
▁ఆశ	-10.0623
రూ	-10.0624
గడ	-10.0625
▁ప్రయత్నం	-10.0626
▁గుర్తు	-10.0635
▁రక్త	-10.064
▁18:	-10.0642
▁రాం	-10.0648
ేవాడు	-10.0648
▁పట్ట	-10.0652
▁ప్రయాణం	-10.0666
▁అనంత	-10.0666
▁8:	-10.0667
ధ్య	-10.0669
N	-10.0671
▁సమర్పించ	-10.0671
▁పిల్ల	-10.0672
▁1988	-10.0675
పడి	-10.0677
▁భాగంలో	-10.0685
▁సాయుధ	-10.0687
మన	-10.0687
▁తర	-10.069
▁లిమిటెడ్	-10.0692
▁నిర్వహిస్తుంది	-10.0692
▁సాహితీవేత్త	-10.0692
చా	-10.0692
▁అల్లూరి	-10.0692
▁చా	-10.0698
▁నన్నయ	-10.0699
v	-10.07
▁చేసుకున్నాడు	-10.0704
ాపురం	-10.0706
ెం	-10.0706
▁చౌదరి	-10.0708
నర్	-10.0716
▁పాలించిన	-10.072
▁బ్రిటీషు	-10.0729
▁న్యాయవాది	-10.0739
▁కంప్యూటర్	-10.0748
▁నాయకుల	-10.0754
▁ప్రాధాన్యత	-10.0755
▁మాట్లాడ	-10.0759
▁లకు	-10.0759
▁మాయ	-10.0762
బుల్	-10.0763
▁నిత్య	-10.0764
▁సముద్రం	-10.0769
▁నిజ	-10.0774
▁చర్చి	-10.0777
▁ఎగుమతి	-10.0779
▁విమర్శకుడు	-10.0779
▁జయంతి	-10.0779
ుకున్న	-10.0781
▁నామ	-10.0782
▁ఇలాంటి	-10.0782
▁1976	-10.0783
▁త్రి	-10.0796
▁అన్నీ	-10.0797
శాఖ	-10.0807
▁నదుల	-10.081
▁నిర్మించి	-10.0813
▁రఘు	-10.0814
▁పద్యాలు	-10.0816
▁రసాయన	-10.0827
▁భువనగిరి	-10.0829
▁గ్రామాన్ని	-10.0833
▁7:	-10.0836
▁9:	-10.0844
చేయాలని	-10.0845
ేషన్	-10.0846
▁చేసుకున్న	-10.0854
▁ప్రతిభ	-10.0857
నాథ	-10.0859
▁వినాయక	-10.086
ించింది	-10.0865
▁చేపట్టిన	-10.0865
▁నమ్మకం	-10.087
▁దశలో	-10.087
ాంధ్ర	-10.087
▁అప్పట్లో	-10.0872
▁పరిషత్	-10.0872
▁రైతు	-10.0873
▁మహాత్మా	-10.0874
▁అప్పారావు	-10.0874
▁క్రింది	-10.0887
▁సాహిత్యంలో	-10.089
▁17:	-10.09
డె	-10.0908
▁వనపర్తి	-10.0911
▁పోరాటం	-10.0914
▁4:	-10.092
▁సభలో	-10.0921
▁దాదా	-10.0923
▁విగ్రహాలు	-10.0929
▁సంపాదించ	-10.0932
▁శివుని	-10.0935
▁కవితా	-10.0936
▁పట్టు	-10.0946
▁తమ్ముడు	-10.0957
▁సంవత్సరానికి	-10.0963
▁1995	-10.0964
▁శుభ	-10.0965
▁మూవీస్	-10.0967
▁వీ	-10.0967
52	-10.0975
▁పురస్కారాలు	-10.0975
▁దూరములో	-10.0977
▁1979	-10.098
▁భానుమతి	-10.0981
▁నాకు	-10.0988
▁దా	-10.0991
▁కాయ	-10.0996
కల్	-10.0997
త్వ	-10.0998
▁51	-10.1002
▁రామాయణ	-10.1007
▁వ్యాసాలు	-10.1016
▁[	-10.1016
మొ	-10.1019
▁సహజ	-10.1024
▁వాళ్ళు	-10.1027
▁ఉన్నా	-10.1028
▁ఆనంద్	-10.1029
▁ఉంచ	-10.1031
▁వేసిన	-10.1034
▁ఉచిత	-10.1036
పోయింది	-10.1038
▁జగిత్యాల	-10.1042
తన	-10.1044
▁పదవీ	-10.1044
సర	-10.1048
▁ఏదో	-10.1051
▁చేరాడు	-10.1068
పూజ	-10.1069
▁నగరానికి	-10.1072
.17	-10.1072
▁అభిప్రాయం	-10.1074
ునికి	-10.1089
▁గీతాలు	-10.1094
en	-10.1099
▁వర్ణ	-10.1101
ంగి	-10.1106
▁స్థాపించి	-10.1123
త్త	-10.1126
▁39	-10.1129
▁1958	-10.113
▁నిర్వహిస్తారు	-10.1137
▁1932	-10.1137
▁గుజరాత్	-10.114
▁హి	-10.114
▁కర్మ	-10.1141
▁మర	-10.1143
ుచున్నారు	-10.1148
▁తీసుకొని	-10.115
పోయిన	-10.1151
▁గోపాల	-10.1155
▁ఇచ్చే	-10.1157
ున్నాయి	-10.118
▁కులీ	-10.1182
▁తనను	-10.1182
▁బెంగుళూరు	-10.1189
▁14:	-10.119
▁ప్రతీ	-10.1191
బాల	-10.1213
ల్లి	-10.1214
బాబు	-10.1216
▁రెవిన్యూ	-10.1225
గం	-10.1225
▁ప్రయాణ	-10.1229
▁India	-10.123
▁క్రితం	-10.1239
▁లభించిన	-10.1239
రాం	-10.1241
▁13:	-10.1246
▁ఇల్లు	-10.1247
▁శతకము	-10.1249
▁గేయ	-10.1252
▁సొంత	-10.1258
▁వీధి	-10.1262
ేది	-10.1276
శ్రీనివాస్	-10.1277
▁బే	-10.1281
▁28:	-10.1283
▁నిర్వహణ	-10.1286
▁గిరి	-10.1291
▁అంతే	-10.1293
యన్	-10.1314
▁E	-10.1316
▁నేపాల్	-10.1317
▁వేణు	-10.1317
▁జైపూర్	-10.1318
▁ఇద్దరూ	-10.1319
▁కరువు	-10.132
▁N	-10.1328
మ్మా	-10.133
వలసి	-10.1332
▁జిల్లాలలో	-10.134
మంది	-10.1342
లొ	-10.1342
▁20:	-10.1344
▁దండ	-10.1345
జో	-10.1346
▁పార్కు	-10.1354
▁శతాబ్ది	-10.1355
▁పదవి	-10.1356
▁చలం	-10.1361
▁చేర్చ	-10.1368
▁గొ	-10.1373
గాని	-10.1378
▁పాలనా	-10.1389
▁హెక్టార్ల	-10.1392
▁యుగం	-10.14
▁శంకర	-10.1402
▁యి	-10.1406
▁తొమ్మిది	-10.1412
▁సకల	-10.1414
▁ఇచ్చారు	-10.1417
గంటి	-10.1417
▁బిడ్డ	-10.1427
▁విద్యుత్తు	-10.1431
▁53	-10.1432
▁రాజ్యాన్ని	-10.1434
▁పీ	-10.1435
ాలుగా	-10.1436
పే	-10.1436
▁వర	-10.1442
మంతా	-10.1442
▁పరమ	-10.1447
▁రత్న	-10.1449
▁కాపాడ	-10.1454
తోనే	-10.1456
▁సమాచారం	-10.1457
▁కృష్ణుడు	-10.1469
తుల	-10.1475
▁సాధించ	-10.1481
వచ్చును	-10.1493
▁తాత	-10.1495
పేరు	-10.1496
▁పాశ్చాత్య	-10.1497
గే	-10.1502
▁దేవాలయ	-10.1502
▁ఏకైక	-10.1503
▁సాయంత్రం	-10.1503
వతేదీ	-10.1504
▁ఎప్పుడ	-10.1506
▁జనతా	-10.1507
▁ప్రెస్	-10.1514
▁by	-10.1514
▁తీసిన	-10.1517
▁డె	-10.1522
▁సంస్థాన	-10.1524
▁దేవుడు	-10.153
యందు	-10.1533
▁నెలలో	-10.1537
▁పోరాట	-10.154
నేని	-10.1546
▁వయస్సు	-10.1546
▁శాస్త్రం	-10.1548
▁ఘన	-10.1558
O	-10.1562
విజయ	-10.1567
▁మార్పులు	-10.157
▁19:	-10.1572
▁కళ్యాణ	-10.1579
▁విలువ	-10.158
▁పాల్గొని	-10.1583
ృ	-10.159
▁కన	-10.1591
▁అమ్మవారికి	-10.1597
▁డైరెక్టర్	-10.1597
▁మామిడి	-10.1599
▁1931	-10.16
▁పాత్రికేయుడు	-10.1602
▁భారతరత్న	-10.1603
▁సిరివెన్నెల	-10.1603
▁ప్రధాని	-10.1604
▁సాయిబాబా	-10.1607
▁మహ	-10.1607
▁ఆదిల్	-10.1609
ఫ	-10.1615
▁1986	-10.1618
▁మరణించిన	-10.1621
▁ఏనుగుల	-10.1629
▁సంపద	-10.164
ళ్లు	-10.1646
▁రైతులు	-10.1647
ండ్	-10.1653
▁పూల	-10.1657
▁వంద	-10.1658
▁అవసరమైన	-10.166
▁16:	-10.1665
ుకోవడం	-10.1667
▁కొండల	-10.1667
టన్	-10.1669
▁లి	-10.1678
ుడై	-10.168
▁స్టూడియో	-10.1682
▁21:	-10.1683
▁మెంట్	-10.1692
▁కాలేజి	-10.1693
▁తాడేపల్లిగూడెం	-10.1693
▁కాకతీయుల	-10.1694
▁ఉన్నట్లు	-10.1695
▁తెలిసిన	-10.1702
▁వచ్చారు	-10.1703
▁ధన	-10.1708
▁పాడారు	-10.1709
▁పరిశ్రమల	-10.1717
▁తీవ్ర	-10.1724
▁1987	-10.1731
▁మండలాల	-10.1733
▁జై	-10.1739
▁రాయల	-10.174
▁భావన	-10.1745
▁విజయవాడలో	-10.1749
▁కవిత	-10.1759
▁బహు	-10.1759
▁నౌక	-10.1762
వాస	-10.1762
web	-10.1767
▁గుట్ట	-10.177
▁కొట్ట	-10.1773
▁వెళ్లి	-10.1785
▁భవనం	-10.1786
▁సుప్రసిద్ధ	-10.1789
▁పనిచేశారు	-10.179
▁శారద	-10.1791
▁పాద	-10.1792
▁గుడివాడ	-10.1792
▁దూర	-10.1793
▁వేరే	-10.1794
▁8,	-10.18
▁అందరి	-10.1805
▁1981	-10.1806
▁రామచంద్ర	-10.1809
పుర	-10.1813
▁పురస్కారాన్ని	-10.1817
▁తగ్గ	-10.1818
నము	-10.182
▁మేరకు	-10.1822
▁గ్రంథం	-10.1822
▁*	-10.1825
భారత	-10.1826
పైన	-10.1831
▁జరుగుతున్న	-10.1835
▁నిర్మించబడిన	-10.1837
▁రకాలు	-10.1847
▁వె	-10.1849
▁బీ	-10.1851
▁ప్రశ్న	-10.1853
▁ప్రవేశ	-10.1869
▁క్రైస్తవ	-10.187
▁వర్మ	-10.1873
స్తు	-10.1883
www	-10.1886
▁ఆర్థికవేత్త	-10.1887
▁కొంతమంది	-10.1887
▁దక్కన్	-10.1889
▁అంతకు	-10.189
▁అయ్యింది	-10.1891
▁స్టేట్	-10.1892
▁500	-10.1896
▁విభజన	-10.1899
పెట్ట	-10.19
▁విగ్రహాన్ని	-10.1904
పర్	-10.1907
▁పులి	-10.1914
▁చేరుకున్న	-10.1919
▁1938	-10.1922
▁చెప్పారు	-10.1924
▁తమిళంలో	-10.1927
▁అమర	-10.1933
▁లత	-10.1938
▁ప్రాంతాలకు	-10.1939
▁సంస్థానం	-10.1941
▁ఎక్కడ	-10.1944
ారా	-10.1945
▁ప్రాంతాలను	-10.1962
▁టీ	-10.1964
▁వ్యాపారం	-10.197
స్తే	-10.1973
▁పెళ్లి	-10.1984
▁రాశారు	-10.1984
▁పార్వతి	-10.1984
▁ఎటువంటి	-10.1985
▁11:	-10.1988
▁ముందే	-10.1989
▁చాలామంది	-10.199
▁బొబ్బిలి	-10.1993
▁ఒకటిగా	-10.1993
▁అధ్యక్షుడిగా	-10.1993
నైనా	-10.1994
▁దినం	-10.1995
ాలంటే	-10.2
▁తగిన	-10.2001
▁లోయ	-10.2007
చీ	-10.2015
▁గతంలో	-10.2016
మాల	-10.2016
▁గ్రామంలోని	-10.2019
ండు	-10.2023
లింగ	-10.2025
▁81	-10.2026
▁కవిత్వం	-10.2029
▁సభ్యుల	-10.2035
▁1936	-10.2035
▁వీరికి	-10.2036
▁ముద్ర	-10.2043
ారం	-10.2043
▁సీతా	-10.2052
▁కోడి	-10.2059
▁పుట్టి	-10.2061
es	-10.2067
▁75	-10.2073
▁పంటలు	-10.2073
▁V	-10.2075
పడ	-10.2078
ునకు	-10.2079
▁వేంకటేశ్వర	-10.208
▁ఇరానియన్	-10.2083
▁జవహర్	-10.2083
▁వెంకయ్య	-10.2083
▁1937	-10.2086
జ్ఞ	-10.2086
దాస్	-10.2088
▁నవాబు	-10.2089
▁వసంత	-10.209
▁నిర్వహించి	-10.2091
▁రాజ్యసభ	-10.2092
▁స్థితి	-10.2093
▁విద్యార్థుల	-10.2094
▁విజయ్	-10.2096
▁వరుసగా	-10.2103
తులు	-10.2104
▁అల్	-10.2109
▁మహిళ	-10.2111
▁పేరొందిన	-10.2111
▁చోట	-10.2112
▁నృత్యం	-10.2116
శా	-10.2117
▁ముందుకు	-10.2129
▁జే	-10.2133
ుకున్నారు	-10.2136
కారుడు	-10.2138
సాహెబ్	-10.2145
▁దేశంలోని	-10.2147
▁పిన్	-10.2148
▁పన్ను	-10.2152
▁ఆనాటి	-10.2154
ాదేవి	-10.2159
▁నేటి	-10.2172
ణం	-10.2177
▁నిజామాబాద్	-10.2179
▁90	-10.2179
▁కనిపిస్తాయి	-10.2183
▁కార్పొరేషన్	-10.2183
▁ఎత్తైన	-10.2183
▁మొదలైంది	-10.2187
▁అందాల	-10.2188
▁పసుపు	-10.2195
▁పరిశోధకులు	-10.2196
▁క్	-10.2197
ున్నారు	-10.2198
మణి	-10.22
▁స్థాపన	-10.2202
▁కన్న	-10.2203
▁రామ్	-10.2206
▁9,	-10.221
▁పోతన	-10.2211
▁భవన	-10.2218
▁పొంది	-10.2218
పాత	-10.2218
▁సుబ్రహ్మణ్య	-10.2226
▁సమాజం	-10.2226
తల	-10.2228
▁వాడి	-10.2232
▁దిగ	-10.2233
సేవ	-10.2233
ర్స్	-10.2237
▁H	-10.2244
▁సమాజ	-10.2251
▁దిగువ	-10.2253
▁పురాణం	-10.2253
▁నెలకొల్ప	-10.2266
▁భూభాగం	-10.2266
రాజ్	-10.2271
▁ఆసక్తి	-10.2275
▁స్థాపించిన	-10.2277
▁62	-10.2282
▁సంస్థల	-10.2283
▁మందికి	-10.2283
▁సరస్సు	-10.2284
▁రచయితలు	-10.2284
▁కొంతకాలం	-10.2285
▁వంట	-10.2286
▁ఎవరి	-10.2287
▁చట్ట	-10.2293
▁ఇచ్చింది	-10.2302
ఎమ్	-10.2302
▁కొత్తగూడెం	-10.2303
▁రమణ	-10.2307
▁గోపాలకృష్ణ	-10.2312
F	-10.2326
లోపు	-10.2328
తరం	-10.2333
▁ఉప్పు	-10.2338
▁చైనాలో	-10.2348
▁పె	-10.2351
గ్రామంలో	-10.2356
▁గాలి	-10.2363
▁ముఖ	-10.2374
▁...	-10.2376
▁రాజవంశం	-10.2378
▁దు	-10.2383
▁వర్షపాతం	-10.2386
▁శృంగార	-10.2386
▁సీతారామశాస్త్రి	-10.2387
▁తెర	-10.2395
▁సురేష్	-10.2395
▁ఉండేవారు	-10.2396
▁పోటీలలో	-10.2399
▁వుంటుంది	-10.24
ులుగా	-10.2401
▁వేసవి	-10.2403
ాయని	-10.2405
▁1966	-10.2408
▁కావలసిన	-10.2408
▁1953	-10.2411
▁ఫర్	-10.2414
▁ప్రాణ	-10.2416
▁to	-10.2422
▁ఉద్యోగ	-10.2423
▁పదాలు	-10.2429
▁రూప	-10.243
▁ప్రజలను	-10.2431
▁చేపట్టాడ	-10.2437
ణా	-10.2439
వైపు	-10.2442
ీకరణ	-10.2447
▁సంతానం	-10.2451
మహదేవన్	-10.2454
▁వేళ	-10.246
▁పార్టీకి	-10.2461
శ్	-10.2468
దం	-10.248
f	-10.2482
▁పేర	-10.2484
▁లండన్	-10.2489
▁హైకోర్టు	-10.2489
▁ముగుస్తుంది	-10.2489
▁ఎన్టీఆర్	-10.2491
▁విద్యావేత్త	-10.2494
▁శాఖామంత్రి	-10.2496
▁ఇంటర్నేషనల్	-10.2503
▁సరస్వతీ	-10.2503
▁చక్ర	-10.2505
దేశ	-10.2507
సార్లు	-10.2508
▁విషయాన్ని	-10.2509
▁తప్పు	-10.2512
▁మాస్టర్	-10.2513
▁ఎవరు	-10.2518
L	-10.2518
▁జీవితాన్ని	-10.2522
▁56	-10.2524
▁గుర్తించ	-10.253
▁నిర్మల్	-10.2531
ొక	-10.2532
▁రామయ్య	-10.2532
ంప	-10.2533
▁నదికి	-10.2535
లక్ష్మి	-10.2536
▁కళ్యాణం	-10.2537
బడే	-10.2539
▁చిన	-10.2539
▁అక్క	-10.2543
▁పనిచేసాడ	-10.2545
▁వివాహ	-10.2547
▁బో	-10.255
▁1000	-10.2551
▁డివిజన్లు	-10.2551
కుంట	-10.2555
▁సహాయంతో	-10.2556
▁తె	-10.2559
కున్న	-10.2561
ఎఫ్	-10.2566
▁ఆహారం	-10.257
గొ	-10.2575
▁కాలేజీ	-10.2576
వలె	-10.2581
ధార	-10.2584
▁తెలిసి	-10.2586
▁2017,	-10.2591
ేరు	-10.2591
▁మిలియన్ల	-10.2592
▁అభ్యర్థి	-10.2593
▁చదరపు	-10.2593
▁ఎయిర్	-10.2593
▁భగవంతుని	-10.2595
ంగు	-10.2596
▁విద్వాంసుడు	-10.2605
▁సూర్యనారాయణ	-10.2609
▁1921	-10.2609
▁కథను	-10.2615
▁నిర్మించ	-10.2615
▁ఎదురు	-10.2618
▁నాట్య	-10.2621
▁తెరాస	-10.2623
ri	-10.2628
▁హిందువులు	-10.2629
▁వాడుక	-10.263
▁వదిలి	-10.2632
▁బావ	-10.2633
▁శాంత	-10.2641
▁పే	-10.2643
▁ప్రణాళిక	-10.2646
▁పరంగా	-10.2647
రియా	-10.2649
▁ఊరికి	-10.2651
▁గుండె	-10.2653
▁పంచాయతీకి	-10.266
▁పట్టణాలు	-10.2662
▁రూపాయలు	-10.2668
▁కావడం	-10.269
▁F	-10.2692
▁కుడి	-10.2694
▁ఆకాశవాణి	-10.2698
▁చేస్తే	-10.2699
▁రాజీవ	-10.2703
▁మార్చారు	-10.2714
సార	-10.2715
▁అధ్యయనం	-10.2716
▁74	-10.2717
▁స్వామివారికి	-10.2717
క్త	-10.2723
▁జగ్గయ్య	-10.2725
▁పనిచేస్తున్న	-10.2725
▁చెందినది	-10.2726
▁2020	-10.273
గ్గ	-10.2737
▁ఉండడం	-10.274
▁సంఘటన	-10.2743
▁డ	-10.2744
▁ముంబై	-10.2747
▁ఎక్క	-10.2747
▁1968	-10.275
కాయ	-10.275
▁ప్రవేశించ	-10.2753
వార	-10.2757
▁కార్యదర్శి	-10.2758
ంటాడు	-10.2771
th	-10.2781
▁ఖగోళ	-10.2784
▁మాధవ	-10.2785
▁వేత్త	-10.2791
▁సినిమాలలో	-10.2791
▁చెప్పే	-10.2804
▁ట్రాక్టరు	-10.2805
▁ఫాల్కే	-10.2805
▁బాపట్ల	-10.2805
▁స్క్రీన్	-10.2807
▁1922	-10.2809
▁చూస్తే	-10.281
▁హేతువాది	-10.2811
▁లక్ష	-10.2814
▁కాలములో	-10.2815
▁కృష్ణానది	-10.2815
▁ఇందిర	-10.2819
▁ఒక్కో	-10.2819
▁నేడు	-10.2821
▁ఆలోచన	-10.2822
నాయుడు	-10.2824
▁వృద్ధి	-10.2825
▁ప్రకాష్	-10.2837
▁54	-10.2843
▁యస్	-10.2849
లేరు	-10.2849
▁రాజ్యాలు	-10.285
▁గుణ	-10.2856
▁రీ	-10.2858
▁49	-10.2863
▁గూడా	-10.2863
▁నంద	-10.2868
▁దేవాలయాలు	-10.2868
▁ప్రేక్షకుల	-10.287
లర్	-10.2871
పురి	-10.2872
▁అటవీ	-10.2874
▁సలహా	-10.2875
▁భాషను	-10.2879
▁నెలల	-10.288
ాన్	-10.2888
▁కథనం	-10.2891
▁అంగీకరించ	-10.2892
▁సృష్టి	-10.2894
▁సహకారంతో	-10.2896
▁నె	-10.2898
▁తొలగించ	-10.2902
▁తిన	-10.2905
▁కీర్తి	-10.2911
▁లీ	-10.2911
▁ఇళయరాజా	-10.2912
▁పింగళి	-10.2912
▁కలుస్తుంది	-10.2912
▁సుఖ	-10.2918
▁పౌర్ణమి	-10.2924
▁సెయింట్	-10.2924
చిన	-10.2928
▁రష్యాలో	-10.2929
▁ప్రాంతము	-10.293
▁లె	-10.2931
కారం	-10.2935
▁మోడల్	-10.2936
▁లేదని	-10.294
▁దండయాత్ర	-10.294
▁ప్రజలలో	-10.2941
▁1984	-10.2942
ముతో	-10.2943
▁1996	-10.2958
org	-10.2959
▁ఉదాహరణకు	-10.2961
▁5:	-10.2962
▁భద్ర	-10.2962
▁ఆస్తి	-10.2967
▁ప్రవేశం	-10.2967
▁మండలి	-10.2976
▁కాలానికి	-10.2976
ార	-10.2989
▁(18	-10.3004
▁కుమార	-10.3016
▁చుట్టుపక్కల	-10.3021
▁సారథ్యం	-10.3021
▁సుందరరామమూర్తి	-10.3021
▁గోవింద	-10.3021
▁ఉదాహరణ	-10.3022
▁తెలుసుకున్న	-10.3022
▁పిలిచేవారు	-10.3023
▁1929	-10.3024
▁సరైన	-10.3026
▁పేద	-10.3027
▁ప్రవహించి	-10.3031
▁సమాధి	-10.3034
▁సంయుక్త	-10.3037
.2016)	-10.3041
▁బొమ్మలు	-10.3042
దర్	-10.3045
▁ఏళ్ళ	-10.3047
▁తీవ్రమైన	-10.305
▁యాత్ర	-10.3051
▁ప్రాణాల	-10.3053
ుకొన	-10.3057
స్య	-10.3059
్యా	-10.3059
జర్	-10.3064
తూ	-10.3067
▁హీరో	-10.3068
▁సుల్తాను	-10.3069
▁విధించ	-10.3069
▁హు	-10.3073
▁కారు	-10.3074
▁కౌ	-10.3081
బాలు	-10.3082
▁భాగమై	-10.3086
▁ఊ	-10.3088
▁అయ్య	-10.3089
▁సమాచార	-10.3092
▁గంటలకు	-10.3107
▁మురుగు	-10.3109
గారు	-10.3113
▁తను	-10.3114
▁ఒలింపిక్	-10.312
▁వరద	-10.3123
▁s	-10.3126
▁గిరిజన	-10.313
▁హుస్సేన్	-10.3131
▁హెక్టారులు	-10.3131
భా	-10.3132
▁వైఎస్ఆర్	-10.3134
▁నిద్ర	-10.3134
▁1944	-10.3135
▁తదితరులు	-10.3138
▁మరల	-10.314
▁రాజ్యంలో	-10.3141
▁పక్షి	-10.3148
▁నాగర్	-10.3151
▁ఆరవ	-10.3152
తను	-10.3155
సేన	-10.3158
▁బొంబాయి	-10.316
▁తక్కువగా	-10.3161
▁క్రీడలు	-10.3162
▁ఫా	-10.3164
▁పద్ధతి	-10.3169
▁కిలోమీటర్లు	-10.317
▁కలకత్తా	-10.3174
ించు	-10.3174
ాని	-10.3175
▁300	-10.3184
▁72	-10.3185
టంతో	-10.3196
▁మన్	-10.32
▁జు	-10.3203
▁దాకా	-10.3206
▁ఒకడు	-10.3209
▁వయసులో	-10.321
▁లీల	-10.3212
▁దేశము	-10.3212
▁అక్కడే	-10.3213
▁నిజం	-10.3216
ండ్ల	-10.3218
▁ప్రాంతంలోని	-10.322
ల్స్	-10.3226
▁ఎత్తులో	-10.3229
చ్చి	-10.3229
దన	-10.3234
▁ఏటా	-10.3234
▁గణపవరం	-10.3236
▁శిల్ప	-10.3236
▁సాధన	-10.3236
▁జలపాతం	-10.3242
▁ప్రత్యేకపూజలు	-10.3242
▁పేరిట	-10.3242
▁ఆధీనంలో	-10.3243
▁జనసంఖ్య	-10.3244
▁సమయానికి	-10.3248
▁శ్రీమతి	-10.3249
▁ప్రకటించారు	-10.3251
ంచు	-10.3252
▁సంక్రాంతి	-10.3252
▁వ్యయంతో	-10.3255
▁సాగ	-10.3255
▁విభాగంలో	-10.3259
▁వాడే	-10.3259
▁రామదాసు	-10.3263
ాత్మక	-10.3263
▁చేరింది	-10.3266
▁తాము	-10.3267
▁విని	-10.3269
▁వినాయకుని	-10.3269
▁జారీ	-10.3275
▁సమాజంలో	-10.3275
▁1993	-10.3278
▁దాస్	-10.3279
▁e	-10.3282
on	-10.3284
▁శాసనాలు	-10.3292
గానూ	-10.3296
యై	-10.3297
▁చెప్పవచ్చు	-10.3303
▁చేసుకో	-10.3303
▁ఓడ	-10.3316
▁మార్	-10.3323
▁ధరించి	-10.3324
గూడెం	-10.3324
హో	-10.3327
▁గజ	-10.3329
భి	-10.3331
ur	-10.3333
సర్	-10.3336
▁అడుగులు	-10.3354
▁మహమ్మద్	-10.3354
▁ఫుట్	-10.3354
▁చక్రపాణి	-10.3354
▁భారతి	-10.3354
▁సమాఖ్య	-10.3354
▁L	-10.3356
ద్ధ	-10.3356
▁1935	-10.3357
▁ఇచ్చాడు	-10.3365
▁శోభన్	-10.3366
▁శ్రీదేవి	-10.3371
▁హింస	-10.3374
▁కొండపై	-10.3377
st	-10.3378
▁దుర్గా	-10.3379
▁బలి	-10.338
▁విభాగం	-10.3381
▁దర్గా	-10.3385
▁అన్నారు	-10.3386
▁1949	-10.3389
▁రోడ్	-10.339
▁గోడ	-10.34
▁1951	-10.3404
▁ఎదురుగా	-10.3405
▁కార్య	-10.3407
▁వెలసిన	-10.3411
త్తు	-10.3414
▁మూ	-10.3415
ినట్లు	-10.3416
▁సూర్యాపేట	-10.3419
▁వలె	-10.3426
▁కామారెడ్డి	-10.343
▁26:	-10.3432
▁మాన	-10.3432
▁తుంగభద్ర	-10.3438
థి	-10.3443
బ్రహ్మ	-10.3444
▁కై	-10.3445
▁ప్రభుత్వానికి	-10.3447
▁పంజాబు	-10.3447
▁ప్రధానమంత్రిగా	-10.3459
▁రాయి	-10.346
ాచార్యులు	-10.3464
▁చిత్రంగా	-10.3464
▁1933	-10.3472
సో	-10.3472
▁శ్రీలంక	-10.3473
▁కలెక్టర్	-10.3474
▁ఎత్తున	-10.3474
▁భా	-10.3475
▁తంజావూరు	-10.3475
▁వాదన	-10.3477
▁సాఫ్ట్	-10.3479
▁ఫిల్మ్స్	-10.3482
కాని	-10.3484
▁వ్యాస	-10.3488
జాల	-10.3489
▁63	-10.3491
▁కుమారులు	-10.3496
▁పూర్వపు	-10.3498
▁కావ్య	-10.3501
▁విషయాలు	-10.3508
స్థాపన	-10.3508
▁కనిపించే	-10.3509
▁అక్షర	-10.3512
▁వేయ	-10.3517
▁కేంద్రము	-10.3518
శాస్త్ర	-10.352
▁యె	-10.3526
▁యోగ	-10.353
ఫి	-10.3532
ిస్తున్న	-10.3535
▁న్యూ	-10.3537
ందర్	-10.3545
▁ప్రత్యేకమైన	-10.3561
ుడిగా	-10.3563
▁వెళ్ళిన	-10.3566
▁సారి	-10.3579
▁ఎన్నికైన	-10.3581
▁ఎందుకంటే	-10.3583
▁ఐదవ	-10.3584
▁రాజస్థాన్	-10.3584
▁పత్తి	-10.3584
▁చదివి	-10.3586
▁1908	-10.3587
మంత	-10.3589
▁చెక్క	-10.3592
పోతుంది	-10.36
▁మైళ్ళు	-10.3608
▁ధ	-10.3611
▁మంగళ	-10.3623
▁కళాశాలలో	-10.3629
▁ఆర	-10.364
పరంగా	-10.3641
ంపు	-10.3642
ేంద్ర	-10.3643
▁జరిగి	-10.3644
▁మొక్క	-10.3648
▁c	-10.3652
▁1914	-10.3654
▁కోటను	-10.3662
▁యం	-10.3666
▁సంబంధాలు	-10.3669
▁ఒకరి	-10.367
ుడిని	-10.3679
▁భాషల్లో	-10.368
ఆంధ్ర	-10.368
▁అష్ట	-10.3682
▁వర్గం	-10.3685
T	-10.3686
▁థియేటర్	-10.3689
▁శబ్ద	-10.3691
ఛ	-10.3694
▁తీయ	-10.3694
▁అత్తిలి	-10.3699
▁టెలివిజన్	-10.3699
▁గాయత్రి	-10.3699
▁ఈస్ట్	-10.3701
▁పద్మశ్రీ	-10.3701
▁వ్యవస్థాపకుడు	-10.3701
▁అలెగ్జాండర	-10.3702
▁అందిస్తుంది	-10.3703
రై	-10.3704
▁హో	-10.3705
▁నటించాడు	-10.3708
▁సురభి	-10.3708
▁1926	-10.3711
ట్స్	-10.3719
▁తానే	-10.3721
▁వస్తువుల	-10.3727
▁రాయ్	-10.3732
▁శివాలయం	-10.3732
ేలా	-10.3736
▁అస	-10.3736
▁పుస్తకాలు	-10.3739
at	-10.374
ందా	-10.374
వార్	-10.3742
ch	-10.3748
▁ఆసుపత్రిలో	-10.375
నియా	-10.3755
▁ముఖ్యమైనవి	-10.3755
▁పడుతుంది	-10.3756
▁పాల్	-10.3756
▁పూజా	-10.3758
రొ	-10.3759
▁విద్యను	-10.3772
am	-10.3773
▁ఆలీ	-10.3777
యింది	-10.3784
ెదరు	-10.379
బూ	-10.3791
▁నీతి	-10.3796
▁అన్నపూర్ణ	-10.3796
▁రూపొందించ	-10.3797
ప్రా	-10.3803
ార్ధ	-10.3805
▁రేవు	-10.3807
ంటా	-10.3809
▁కుటుంబంలో	-10.3811
▁నేతృత్వంలో	-10.3811
▁పురుష	-10.3812
▁క్యా	-10.3813
▁సుల్తానుల	-10.3813
▁నియంత్రణ	-10.3814
▁రాక	-10.3815
▁అద్భుత	-10.3816
▁స్మారక	-10.3817
▁తాండూరు	-10.3817
▁జేమ్స్	-10.3817
▁లోకసభ	-10.3817
▁కొండలరావు	-10.382
▁తిలక్	-10.3821
▁:-	-10.3822
▁వాగు	-10.3824
▁ఎంపీ	-10.3824
క్రీ	-10.3824
▁1915	-10.3827
▁పుర	-10.384
-20	-10.3842
▁మరాఠా	-10.3842
ంటూ	-10.3846
▁నెట్	-10.3852
ట్లే	-10.3852
▁రాష్ట్రాలు	-10.3854
▁నీటిపారుదల	-10.3857
▁చుట్టు	-10.386
▁ప్రారంభించి	-10.3865
▁మ్యూజియం	-10.3867
▁వ్యాపించి	-10.3868
▁నుండే	-10.387
ప్పు	-10.3878
▁స్వర్ణ	-10.3886
కాలు	-10.3886
▁ఆత్మకూరు	-10.3893
▁రాగ	-10.3902
-1	-10.3907
▁ఛ	-10.3912
▁ఇందు	-10.3914
▁స్థలం	-10.3918
మధ్య	-10.3919
▁లంక	-10.3922
ుచు	-10.393
▁సంస్కర్త	-10.3936
▁కూర్పు	-10.3936
▁డీ	-10.3936
▁పశ్చిమాన	-10.3938
నాథ్	-10.3938
▁పరిశోధకుడు	-10.3938
ుకుంటుంది	-10.3939
▁శనివారం	-10.3939
▁పవర్	-10.3942
▁పార్వతీ	-10.3942
▁శతాబ్దాల	-10.3942
▁ఐతే	-10.3945
▁తీవ్రంగా	-10.3946
నామ	-10.3947
▁బొమ్మల	-10.3948
▁స్టేట్స్	-10.3949
▁అరెస్టు	-10.3955
▁సంభాషణలు	-10.3963
▁నాయకత్వం	-10.397
▁కావడంతో	-10.3976
▁సవరణ	-10.3979
▁లక్షణాలు	-10.3985
▁నో	-10.3988
ండా	-10.3994
▁దేవా	-10.3994
▁చాళుక్యుల	-10.3995
ధర్మ	-10.3996
–	-10.4002
పరి	-10.4003
▁ఉదయ	-10.4003
చ్చు	-10.4006
▁పలువుర	-10.4008
ిస్తే	-10.4016
▁దీక్ష	-10.4019
▁ఆల	-10.4025
రాలు	-10.4028
శివ	-10.4031
▁దేశాలు	-10.4037
భూమి	-10.4043
▁వాద	-10.4055
▁మార్గ	-10.4056
.2015)	-10.4056
▁కూచిపూడి	-10.4056
▁సందర్భంలో	-10.4056
▁కూడ	-10.4058
▁అహ్మద్	-10.4059
▁అమెరికాలో	-10.406
▁బడ్జెట్	-10.4062
▁కొండలు	-10.4064
ేయ	-10.4064
▁ఖర్చు	-10.4066
▁చూసిన	-10.4069
▁చెల్లెలు	-10.407
▁ప్రతిపాదన	-10.4071
▁వ్యాసాల	-10.4073
▁బోర్డు	-10.4073
▁ప్రయత్నాలు	-10.4074
re	-10.408
▁నిర్ణయించ	-10.4087
▁78	-10.4089
డుగు	-10.4089
▁యువ	-10.409
▁Re	-10.4092
▁శేఖర్	-10.4094
▁యతి	-10.4095
▁R	-10.4095
▁ఉద్యమంలో	-10.4098
▁అవధాని	-10.4099
కలు	-10.4106
వ్య	-10.4108
▁పాటలను	-10.4111
▁గృహ	-10.4113
▁బయటకు	-10.4113
▁బ్ర	-10.4115
le	-10.412
▁లెక్క	-10.4123
▁వైష్ణవ	-10.4128
▁దేవుని	-10.4129
▁హే	-10.413
▁ప్రియ	-10.4137
▁లోపల	-10.4139
▁జంట	-10.4139
గె	-10.414
▁చేతుల	-10.4144
▁తమిళం	-10.4147
రాణి	-10.4147
▁కూ	-10.4151
లూరు	-10.4152
▁సమాన	-10.4153
▁దో	-10.4156
▁జిల్లాను	-10.4165
ప్రధాన	-10.4165
▁సామ్రాజ్యంలో	-10.417
▁సంగారెడ్డి	-10.4175
▁పంజాబ్	-10.4178
▁వాయవ్య	-10.4178
▁వీరాస్వామయ్య	-10.4178
▁ఆస్ట్రేలియా	-10.4178
▁ఒడిషా	-10.4178
▁బంగ్లాదేశ్	-10.4183
▁సరి	-10.4183
▁రుచి	-10.4187
▁మారు	-10.419
▁ప్రారంభించింది	-10.4191
▁కాలేదు	-10.4193
▁ధర	-10.4193
▁అందువలన	-10.4194
▁పండిత	-10.4194
ఒ	-10.4195
▁సిటీ	-10.4196
▁ఎస్పీ	-10.4197
▁పోర్ట్	-10.4198
▁శరత్	-10.4202
▁సినిమాల్లో	-10.4203
▁అధికారంలో	-10.4206
▁వేడి	-10.4207
గ్రా	-10.421
▁ఉత్తరం	-10.4223
▁నగరాన్ని	-10.4228
▁ప్రధానమైన	-10.4231
▁అత్త	-10.4232
▁పార్టీలో	-10.4233
▁ఫి	-10.4243
▁ప్రకటన	-10.4248
▁పోయింది	-10.4249
FS	-10.4252
కథ	-10.4255
▁భాగము	-10.4265
దల	-10.4268
▁చేతులు	-10.4271
▁సంవత్సర	-10.4272
▁ఆదాయ	-10.4272
▁69	-10.4272
భక్త	-10.4274
▁అణు	-10.428
▁సౌందర్య	-10.4286
శర్మ	-10.4288
▁కొబ్బరి	-10.4297
▁మలేరియా	-10.4302
▁వ్రాశారు	-10.4302
▁అండమాన్	-10.4302
▁రాముని	-10.4303
▁జాతుల	-10.4306
▁చేతి	-10.431
▁వహించారు	-10.4312
▁పల్నాడు	-10.4313
▁ఊరిలో	-10.4316
▁ఇస్లామిక్	-10.4317
▁దంపతులకు	-10.4319
ప్రతి	-10.4322
▁అప్ప	-10.4323
▁యోగి	-10.4327
▁తోట	-10.433
▁దేశపు	-10.4332
అందరికీ	-10.4344
▁ఏట	-10.4351
.(	-10.4353
▁సంబంధించి	-10.4357
▁జం	-10.4367
▁పచ్చ	-10.4377
▁రాజ్యాంగం	-10.4389
la	-10.439
▁క్రమంలో	-10.4396
▁గోపాల్	-10.44
▁ఈశాన్య	-10.4403
▁నీవు	-10.4412
రచయిత	-10.4414
▁సైటు	-10.4414
ియా	-10.442
పెద్ద	-10.4424
▁శుక్రవారం	-10.4426
▁మంచిర్యాల	-10.4427
▁విలియం	-10.4427
▁నరసరావుపేట	-10.4427
▁ఘోర	-10.4427
▁నూనె	-10.4427
▁సుజాత	-10.4428
▁జ్ఞానపీఠ	-10.4428
▁హోదా	-10.4428
▁వేలాది	-10.4429
▁ఉండును	-10.4429
▁కర్నాటక	-10.443
▁చెబుతాడు	-10.4431
▁మైసూర్	-10.4435
▁వద్దకు	-10.4436
▁విశ్వవిద్యాలయ	-10.4437
▁నదిలో	-10.4437
▁మొదట్లో	-10.4443
▁వెన్నెల	-10.4444
▁గృహాలున్నాయి	-10.4446
▁డివిజను	-10.4447
▁సాక్షి	-10.445
▁విధి	-10.4451
▁పొందారు	-10.4451
▁రకరకాల	-10.4453
▁ఎడమ	-10.4454
▁వెలుగు	-10.4455
▁తొలిసారిగా	-10.4461
▁ఆంజనేయ	-10.4478
ందే	-10.4484
ation	-10.449
▁టా	-10.4494
▁విమాన	-10.4503
▁కోస్తా	-10.4509
ాన్నీ	-10.4513
▁ప్రాంగణంలో	-10.4513
▁ఆవు	-10.4521
▁సినిమాల	-10.4524
▁ఉష్ణోగ్రత	-10.4528
▁నిల్వ	-10.4531
వలెను	-10.4533
మాన	-10.4545
స్ట	-10.4545
▁ఏదైన	-10.4552
▁దారిలో	-10.4553
▁టంగుటూర	-10.4553
▁అరుదైన	-10.4553
▁మరికొన్ని	-10.4554
▁పద్మావతి	-10.4554
▁ఉద్యమకారుడు	-10.4554
బ్ర	-10.4555
▁ఏడవ	-10.4559
▁అద్భుతమైన	-10.4561
▁పౌరాణిక	-10.4561
▁స్వీకరించాడు	-10.4561
యిడ్స్	-10.4563
▁పార్లమెంట్	-10.4564
▁రేలంగి	-10.4565
▁శిలా	-10.4566
0%	-10.4571
▁చేసుకున్నారు	-10.4572
▁రాజ్యము	-10.4573
▁అల్ల	-10.4577
▁అభివృద్ధికి	-10.4581
▁అర్	-10.4593
▁మెడికల్	-10.4594
▁పైకి	-10.4602
▁సాగర	-10.4604
▁చాళుక్యులు	-10.461
▁శరీర	-10.4616
▁శత	-10.4618
▁బరువు	-10.4621
▁కేసు	-10.4624
▁రాజ్యాల	-10.4624
▁అగ్ర	-10.4627
▁అర్థ	-10.4635
▁సాంప్రదాయ	-10.4638
జే	-10.4644
▁దాన	-10.4651
▁మాటల	-10.4657
ంట్	-10.4658
▁68	-10.4659
ానని	-10.4663
▁వర్గాల	-10.4664
పాద	-10.4665
▁నిలిచి	-10.4668
లాగా	-10.4671
ంభ	-10.4676
▁స్టిట్యూట్	-10.4682
▁ఎందరో	-10.4682
▁ప్రత్తి	-10.4682
▁ఏడుగురు	-10.4683
▁మరియూ	-10.4685
లని	-10.4685
▁ఛాయాగ్రహణం	-10.4687
తర	-10.4688
▁బళ్ళారి	-10.4688
▁బుర్రకథ	-10.469
▁గాంధీజీ	-10.4691
▁క్రొత్త	-10.4691
ధర	-10.4694
▁హనుమంతరావు	-10.4695
▁దయ	-10.4697
ితే	-10.47
▁కింగ్	-10.4702
▁వేషం	-10.471
ాంగ	-10.4713
తనం	-10.4714
వాడి	-10.4715
వుల	-10.4716
▁లాలి	-10.4719
మత	-10.473
▁రంగా	-10.4744
▁31:	-10.4745
▁దర్శనం	-10.4747
▁దుర్గ	-10.4748
▁ముద్దు	-10.4748
▁భాషగా	-10.4756
ములలో	-10.4756
▁ద్వారం	-10.4758
▁అన్నా	-10.476
▁పాత్రలో	-10.4762
▁శా	-10.4765
శ్వర	-10.4765
▁సే	-10.4767
▁పండ	-10.477
వద్ద	-10.4771
బర్	-10.4776
▁రాశి	-10.4779
▁కట్టి	-10.4792
ళ్	-10.4792
▁2016,	-10.4795
నాధ	-10.4796
▁వహించి	-10.4796
▁నిఘంటువు	-10.4803
▁తీరంలో	-10.4804
▁లెక్కలు	-10.4806
▁లక్షలు	-10.4807
▁విమర్శ	-10.4807
▁400	-10.4808
▁భాగవత	-10.4809
▁ఆత్మహత్య	-10.4811
▁ద్వితీయ	-10.4811
▁ఆదిలాబాదు	-10.4811
▁ఇన్స్టిట్యూట్	-10.4811
▁స్పీకర్	-10.4811
▁ఫ్రెంచ్	-10.4811
▁లక్ష్మణరావు	-10.4813
▁వ్రాశాడు	-10.4814
▁ఉపాధి	-10.4814
▁1911	-10.4816
▁సోమవారం	-10.4817
▁యంత్ర	-10.4817
▁అమ్మవారిని	-10.4818
▁బడి	-10.4818
▁పోషించాడు	-10.4819
▁అల్లుడు	-10.4819
▁నన్ను	-10.482
▁పరిశోధనా	-10.482
▁బ్రౌన్	-10.4823
ma	-10.4824
▁O	-10.4826
▁సాధించాడు	-10.4828
తారు	-10.4835
పట్ల	-10.4837
▁రాజ్యానికి	-10.4838
▁ప్రాచుర్యం	-10.4844
▁శక	-10.4845
భావ	-10.4845
▁బుక్	-10.4851
గుణ	-10.4852
-2	-10.4854
▁వీలు	-10.4855
హార్	-10.4864
వ్యాప్తంగా	-10.4866
▁ఉత్సవ	-10.487
▁దానం	-10.4875
త్తి	-10.4879
ిక్	-10.488
వర్ణ	-10.4885
▁నవ్వ	-10.4891
వల్లి	-10.4893
ైంది	-10.4898
▁హీరోగా	-10.4901
▁పండితుల	-10.4901
వాది	-10.4901
▁పాలకులు	-10.4902
మాన్	-10.491
ుడయ్యాడు	-10.4914
మందు	-10.4914
▁అస్సాం	-10.493
▁శేష	-10.4931
▁షేక్	-10.4932
నల్	-10.4935
▁పర్యావరణ	-10.4943
▁ఆటగాడు	-10.4943
▁నిజాము	-10.4944
▁కేసీఆర్	-10.4944
▁సంస్కృతాంధ్ర	-10.4945
▁చేసుకుంటాడు	-10.4945
▁ప్రతిష్ఠా	-10.4946
▁ఆకు	-10.4947
టింగ్	-10.4947
▁71	-10.4947
▁లభించాయి	-10.4948
▁పేర్కొన్నారు	-10.495
▁అశోక్	-10.4952
▁అమలులోకి	-10.4952
▁అయ్యాయి	-10.4955
▁రకం	-10.4959
గురు	-10.4964
▁కాదని	-10.4975
▁నటులు	-10.4976
▁నివసిస్తున్న	-10.4984
▁భావించి	-10.4985
థ్	-10.499
మహా	-10.4993
▁మర్రి	-10.4997
▁స్థాపించ	-10.4998
▁66	-10.5002
ర్థ	-10.5002
దారు	-10.5004
▁కర్త	-10.5006
కట్ట	-10.5014
▁నేపథ్యంలో	-10.5021
▁తెల్ల	-10.5025
చార	-10.503
▁చైతన్య	-10.5031
ాబాద్	-10.5032
▁ప్రచార	-10.5038
ంద్ర	-10.5042
▁73	-10.5045
▁వస్తున్న	-10.5046
-12	-10.5049
▁ఖండ	-10.5053
య్యాడు	-10.5054
▁మద్రాసులో	-10.5054
ందరూ	-10.5055
▁శ్రీకృష్ణ	-10.5059
▁కూర	-10.5072
గానం	-10.5073
▁సంధి	-10.5073
▁అనుగుణంగా	-10.5076
▁ఇస్లాం	-10.5076
▁తత్వవేత్త	-10.5077
▁ఆదోని	-10.5077
▁స్వర్ణలత	-10.5077
▁బీహార్	-10.5077
▁మంగళగిరి	-10.5078
▁ఇటువంటి	-10.5078
▁చేపల	-10.5079
ందో	-10.5079
▁అటువంటి	-10.5079
▁శైవ	-10.508
▁ఎన్నికలు	-10.5081
▁చర్య	-10.5082
▁హౌస్	-10.5082
▁ప్రకటించాడు	-10.5086
▁పక్క	-10.5088
▁పొందాయి	-10.509
▁మహబూబాబాద్	-10.509
యము	-10.5091
▁చెన్న	-10.5092
▁కాశ్మీర్	-10.5096
▁కార్మిక	-10.51
▁అనకాపల్లి	-10.5104
▁చేసుకొని	-10.5105
ంటు	-10.5107
▁దగ్గరి	-10.5114
ిగా	-10.5119
్రి	-10.5121
ాంశ	-10.5123
▁అనువాదం	-10.5126
▁చోళ	-10.5129
▁ఆర్ధిక	-10.5132
వంతు	-10.5134
▁ఎఫ్	-10.5134
▁పండు	-10.5136
▁పోర్చుగీసు	-10.5137
▁తీసి	-10.5139
▁మార్గాల	-10.514
▁రంగం	-10.5142
బై	-10.5143
▁కనక	-10.5146
▁గణాంకాలను	-10.5146
▁వ్య	-10.5147
▁తిరు	-10.5148
▁తెలుసు	-10.5153
▁ప్రేమలో	-10.5158
భాగం	-10.516
లాంటి	-10.5164
▁120	-10.5165
▁జంతువుల	-10.5166
▁దాటి	-10.5169
▁చెట్లు	-10.5171
▁విస్తీర్ణంలో	-10.5171
ాద్రి	-10.5173
▁బండ	-10.5176
దాని	-10.5182
గూడ	-10.5185
▁హక్కుల	-10.5189
▁సముదాయం	-10.519
ప్రారంభించబడింది	-10.5196
▁మందు	-10.5196
▁నదిపై	-10.5209
విద్య	-10.521
ట్లుగా	-10.521
▁నియోజక	-10.5211
▁దేవులపల్లి	-10.5211
▁ధార్వాడ	-10.5211
▁ఇసుక	-10.5211
▁తరపున	-10.5212
▁విస్తరణ	-10.5212
▁రాబర్ట్	-10.5212
▁కాలేజ్	-10.5212
▁ఉంటూ	-10.5213
▁82	-10.5213
▁గ్రామోత్సవం	-10.5214
▁చెంది	-10.5216
▁1901	-10.5216
▁అందుకున్నాడు	-10.522
ల్లు	-10.5223
▁రామాలయం	-10.5223
▁బాలికల	-10.5224
▁సూ	-10.5225
▁పెరిగింది	-10.5228
▁కనీసం	-10.5229
▁మీరు	-10.5229
▁జయసుధ	-10.5229
▁వృక్ష	-10.5232
▁on	-10.5233
ుకోవడానికి	-10.5237
▁క్రీస్తు	-10.5239
▁కం	-10.5241
▁హిందీలో	-10.5243
▁67	-10.5243
as	-10.5247
▁దీప	-10.5248
-7	-10.5251
▁యీ	-10.5252
▁పోరాటంలో	-10.5252
▁ఎన్ని	-10.5254
నూరు	-10.5255
కర్త	-10.5265
▁అడుగు	-10.5266
▁పదవికి	-10.5268
▁జూ	-10.5271
▁ప్రబంధ	-10.5274
▁రూపం	-10.5276
▁స్థలాలు	-10.5277
▁కడ	-10.5281
▁ఫై	-10.5287
ుణ్ణి	-10.5288
▁ఘ	-10.5299
ంచిన	-10.5302
యె	-10.5306
▁పక్కన	-10.531
యాల	-10.5312
ర్లు	-10.5316
▁దానితో	-10.5318
▁పోలీసుల	-10.5322
ుకుంటూ	-10.5327
▁నియోజకవర్గ	-10.5327
గ్రామ	-10.533
▁జరగ	-10.5336
▁పాలకుల	-10.5339
▁నివసించ	-10.5342
గర్	-10.5345
గల్	-10.5348
▁ప్రామాణిక	-10.5348
▁కర్నూల్	-10.5348
▁క్రియేషన్స్	-10.5348
▁పరీవాహక	-10.5348
▁బెజవాడ	-10.5348
▁ఊరేగింపు	-10.5348
▁పడమర	-10.5348
▁జయశంకర్	-10.5349
▁పీపుల్	-10.5349
▁సంజీవరెడ్డి	-10.5349
▁దేశాయ్	-10.535
▁రాజకీయవేత్త	-10.5351
▁వాటికి	-10.5351
▁స్వేచ్ఛ	-10.5351
▁అబ్దుల్లా	-10.5352
▁1918	-10.5353
ంతు	-10.5353
▁గోపన్న	-10.5354
▁ప్రదేశంలో	-10.5354
▁గాంచిన	-10.5355
▁అందువల్ల	-10.5356
▁లినక్స్	-10.5359
▁1830	-10.536
ముఖ	-10.5361
▁అంకితం	-10.5364
▁వంశం	-10.5366
▁పాడిన	-10.5368
▁భాస్కర్	-10.537
▁పోలి	-10.5372
ర్చ	-10.5372
ంస్	-10.5374
▁చంద్రుడు	-10.5378
▁అబ్దుల్	-10.5382
▁95	-10.5383
▁గ్రంథాలు	-10.5388
▁దూరంగా	-10.5389
మంచి	-10.5391
▁ఇం	-10.5394
▁పరిపాలించిన	-10.5397
▁ప్రొ	-10.54
▁61	-10.5401
▁1957	-10.5408
▁లక్ష్మణ	-10.541
▁ఊర	-10.5414
▁గుర్తించి	-10.5415
▁సుబ్రహ్మణ్యం	-10.5424
▁p	-10.5429
వుతుంది	-10.5432
▁జన్మించిన	-10.5441
హీ	-10.5443
▁ప్రారంభించిన	-10.5443
▁తార	-10.5445
▁కలి	-10.5458
▁పంచాయితీ	-10.5461
▁దేవాలయము	-10.5465
▁పోలీసులు	-10.5466
లేదని	-10.5467
▁సంస్కృతము	-10.5467
-8	-10.5471
▁చేపట్ట	-10.5474
▁ఉత్సవం	-10.5474
▁రచయితల	-10.5477
▁విస్తరించింది	-10.5482
▁అరేబియా	-10.5487
▁కదిరి	-10.5487
▁జరుపుతారు	-10.5488
▁తెలుస్తోంది	-10.5488
▁మనస్సు	-10.5489
▁ఆపరేటింగ	-10.549
▁చరిత్రకారుడు	-10.5491
▁సప్త	-10.5492
▁అవతరించింది	-10.5492
▁1917	-10.5493
▁గూడూరు	-10.5494
▁పాలించ	-10.5495
▁విడుదలైంది	-10.5496
▁ఇంగ్లీష్	-10.55
▁1941	-10.5501
▁ఉడిపి	-10.5502
▁కృష్ణంరాజు	-10.5503
▁వాల్మీకి	-10.5504
▁పరిధిలోని	-10.5508
▁అప్పటికి	-10.551
▁సంస్కృతం	-10.5511
▁బలమైన	-10.5515
▁కాస్త	-10.5515
▁ముని	-10.5518
▁కమ్మ	-10.552
▁మంద	-10.5521
▁రాము	-10.5521
▁ప్రభాకర్	-10.5522
మనే	-10.5524
ol	-10.5524
-3	-10.5526
▁ఇబ్బందుల	-10.5533
▁గ్రామాలకు	-10.5533
▁పురాతనమైన	-10.5536
స్టు	-10.5539
▁వారసత్వ	-10.5541
is	-10.5544
▁తెగ	-10.5547
కన్నా	-10.5548
ాయ్	-10.5554
▁సొ	-10.5557
ఖ్	-10.556
ాభివృద్ధి	-10.5561
▁పగ	-10.5565
▁దేవతలు	-10.5568
ార్	-10.5573
▁భూమిని	-10.5575
ప్రభ	-10.5578
▁హైదరాబాదుకు	-10.5579
నై	-10.5581
▁ధ్రువ	-10.5591
▁హె	-10.5592
▁నటన	-10.5595
▁సార	-10.5599
టెక్	-10.5602
▁కనుగొన్న	-10.5603
వతి	-10.5605
▁శ్రద్ధ	-10.5606
న్నాడు	-10.5606
▁కొమ్మ	-10.5612
▁వేదిక	-10.5618
▁తూ	-10.562
▁అంబ	-10.562
ులతో	-10.562
▁తెలుగువారి	-10.5621
▁చెల్లించ	-10.5624
▁కార	-10.5625
▁మూలం	-10.5627
▁వ్యాప్తి	-10.5629
▁జ్యోతి	-10.5632
▁ఉపయోగిస్తారు	-10.5632
▁చెప్పబడింది	-10.5634
▁పుస్తక	-10.5635
▁సైన్యాన్ని	-10.5638
▁for	-10.5641
ుకున్నాడు	-10.5642
▁మంత్ర	-10.5642
▁ఎన్నికైనాడు	-10.5644
▁నిలయం	-10.5645
▁ఉన్నందున	-10.5646
▁కావ	-10.5646
▁కావున	-10.5649
▁వెళ్ళాడు	-10.565
▁చిత్రాలలో	-10.5653
▁సామ్రాజ్యానికి	-10.5653
▁ఎందుకు	-10.5654
సిన	-10.5654
సూ	-10.5661
▁కదా	-10.5661
▁ప్రవహించే	-10.5665
ికా	-10.5667
▁ప్రపంచంలోనే	-10.5671
▁మరణ	-10.5673
▁పతాకం	-10.5673
▁నిర్	-10.5678
దనపు	-10.5682
▁బయటి	-10.5689
ాత్మ	-10.5695
ిణి	-10.5695
▁ప్రముఖులు	-10.5699
▁రూపొందించిన	-10.5703
▁కాలము	-10.5705
ుకు	-10.5707
▁షి	-10.5716
V	-10.5721
▁గవర్నరు	-10.5725
చ్ఛ	-10.5726
▁రామాయణము	-10.5731
ణ్	-10.5732
▁వ్యక్తిగత	-10.5734
త్రిక	-10.5739
ుకుంటారు	-10.574
ాడట	-10.5745
G	-10.5746
య్యారు	-10.5748
ుండు	-10.575
ిరెడ్డి	-10.5756
▁వంతెన	-10.5762
బడ్డ	-10.5766
లన్నీ	-10.5767
▁వాయు	-10.5769
el	-10.577
▁కాలంలోనే	-10.5771
▁నంబరు	-10.5771
▁చేరుకుంది	-10.5772
▁బ్రిటన్	-10.5772
▁యేడాది	-10.5774
▁1934	-10.5774
▁77	-10.5774
▁1943	-10.5776
|	-10.5777
▁సోదర	-10.5779
▁రచించారు	-10.5779
▁ఉండేవాడు	-10.578
▁విన్న	-10.5781
▁విప్లవం	-10.5783
-15	-10.5783
▁పేరును	-10.5785
▁పతనం	-10.5786
▁చేసేవారు	-10.5789
▁పెన్నా	-10.5796
▁పాలకుడు	-10.5796
▁వస్తాడు	-10.5798
▁అధికారికంగా	-10.5799
▁దగ్గరగా	-10.58
▁తేదీనాడు	-10.58
▁కళాకారులు	-10.5806
రుగు	-10.5806
షీ	-10.5807
▁అడవిలో	-10.5809
▁విశ్వాసం	-10.5811
▁ఆధారపడి	-10.5813
▁గంట	-10.5814
▁సంగమ	-10.5814
▁హిందువుల	-10.5815
▁తొ	-10.5819
▁లక్ష్మీనరసింహ	-10.5819
▁విద్యార్థులకు	-10.5822
▁పెట్టిన	-10.5823
ురాలు	-10.5824
▁వర్క్	-10.583
▁తరలి	-10.5834
▁వచ్చు	-10.5841
▁శాస్త్రము	-10.5847
▁మల్ల	-10.5849
▁మఠం	-10.585
▁ఓం	-10.5855
▁ఉన్నప్పుడు	-10.5858
▁క్షేత్ర	-10.5862
రన్	-10.5868
▁పల్లిలో	-10.5872
▁మామ	-10.5878
▁రహదారిపై	-10.588
▁కారణాల	-10.588
▁ఈశ్వర	-10.5881
▁0.	-10.5883
వాద	-10.5887
ఫె	-10.5892
్ర	-10.5893
▁పెద్దది	-10.5896
ందున	-10.5897
▁ఖా	-10.5899
▁వ్రాయ	-10.5902
▁కావ్యం	-10.5902
▁తీసుకు	-10.5905
▁కవుల	-10.5909
▁వస్తారు	-10.5911
▁ఇబ్రహీం	-10.5916
▁తణుకు	-10.5916
▁నివాసగృహాలు	-10.5916
▁తజికిస్థాన్	-10.5916
▁సెంట్రల్	-10.5916
▁బహదూర్	-10.5916
▁రోజూ	-10.5916
▁కథానాయకుడు	-10.5917
▁చంద్రబాబు	-10.5917
▁నేటికీ	-10.5919
▁విలువైన	-10.592
▁జరుపుకు	-10.5922
▁మానసిక	-10.5923
▁విశాఖ	-10.5924
▁హర	-10.5924
▁మద్రాస్	-10.5925
సంచార	-10.5927
▁మణి	-10.5931
ాంతర	-10.5933
మనీ	-10.5937
▁ప్రభావితం	-10.5938
▁ఉంచి	-10.5943
▁రాజమహేంద్రవరం	-10.5944
▁విజయవంతంగా	-10.5948
▁వరాహ	-10.595
▁సామ్రాజ్యాన్ని	-10.595
త్స	-10.595
▁ఇస్తారు	-10.5953
▁దేశంగా	-10.5954
▁ప్రారంభించ	-10.5959
టె	-10.596
▁వారే	-10.5961
ష్ఠ	-10.5963
▁నెల్లూరులో	-10.5963
▁పాత్రను	-10.5964
మం	-10.5968
▁బస	-10.5972
▁పిండి	-10.5982
▁అవతారం	-10.5984
సిస్	-10.5994
త్రి	-10.6003
▁దాట	-10.6005
▁దెబ్బ	-10.6006
యాన్	-10.6007
య్యా	-10.6011
▁రచయితగా	-10.602
▁యందు	-10.6022
▁ప్రారంభంలో	-10.6026
▁చెందినవారు	-10.6035
▁నీవే	-10.6038
▁మాల	-10.6045
▁ఏర్పడ	-10.6047
▁అశ్వ	-10.6049
చేశారు	-10.6055
▁రావడం	-10.6059
▁అవినీతి	-10.6063
▁వెడల్పు	-10.6063
▁కళింగ	-10.6063
▁పెనుగొండ	-10.6063
▁ఢిల్లీలో	-10.6063
▁వ్యాపారవేత్త	-10.6064
▁ఆఫ్రికా	-10.6064
▁పరిపాలించ	-10.6066
▁వెళ్ళు	-10.6066
▁కత్తి	-10.6067
▁108	-10.6067
▁శతాబ్దపు	-10.6067
▁చేసుకుంది	-10.6068
▁గురజాడ	-10.6068
ుడే	-10.6069
▁ఉండదు	-10.6069
▁ఎలాంటి	-10.6069
▁సోదరుడు	-10.6069
▁ఏనుగు	-10.6071
▁1919	-10.6073
6%	-10.6074
చక్రవర్తి	-10.6075
▁కనుగొన్నాడు	-10.6076
జాతీయ	-10.6077
▁నారాయణ్	-10.6078
▁భగవద్గీత	-10.6082
వర్మ	-10.6083
▁వైఎస్	-10.6083
▁లతో	-10.6084
▁దంపతులు	-10.6088
ంచే	-10.6088
▁ఉపనది	-10.6096
▁గ్రంథము	-10.6096
▁సీతమ్మ	-10.6097
▁కప్	-10.6102
ప్రాంత	-10.6103
▁జూలైలో	-10.6105
▁తుమ్మల	-10.6108
▁నేర	-10.6111
▁నెలలు	-10.6111
▁తీర్చ	-10.6119
▁వంగ	-10.6119
▁పర్	-10.6119
▁టె	-10.6122
▁సీమ	-10.6123
ైతే	-10.6123
▁వీరుడు	-10.6125
భవ	-10.6126
త్రా	-10.6126
▁మధ్యకాలంలో	-10.6127
ుకుంటాడు	-10.613
టై	-10.6136
▁వహించ	-10.6139
▁చిక్క	-10.6141
పం	-10.6146
▁గుండు	-10.6146
తకు	-10.6151
కోటి	-10.6152
▁కాంతి	-10.6154
▁పడిన	-10.6155
గుడి	-10.6159
▁నున్న	-10.6159
▁సమావేశం	-10.6161
▁నిర్ణయం	-10.6164
▁కథల	-10.6165
కూడ	-10.6169
▁పాము	-10.6169
▁కాశ్మీరు	-10.6169
▁విమానం	-10.6169
▁ప్రపంచం	-10.6173
▁ప్రభ	-10.6179
నగర	-10.6181
ధ్	-10.6181
▁తాప	-10.6182
▁క్రీడా	-10.6185
▁ఏమీ	-10.6186
▁అభిమాన	-10.6188
▁పట్టి	-10.6192
▁భోజనం	-10.6201
▁వర్	-10.6201
▁భోగ	-10.6203
ాపూర్	-10.6203
▁కళ్ళు	-10.6205
▁దీనితో	-10.6206
▁ఓటమి	-10.6212
▁సదస్సు	-10.6212
▁దినపత్రిక	-10.6212
▁తెలుసుకుని	-10.6212
▁వీరభద్రరావు	-10.6214
▁కావాలని	-10.6214
▁పితామహుడు	-10.6214
▁నికోబార్	-10.6214
▁చిత్రాలను	-10.6215
▁సుప్రీం	-10.6215
▁చేర్చి	-10.6215
▁మిత్ర	-10.6215
▁రాఘవయ్య	-10.6218
▁ఔరంగజేబు	-10.6218
జయ	-10.6218
▁2016:	-10.622
▁కాటన్	-10.6221
▁1962:	-10.6222
▁బాబ	-10.6222
▁ఏర్పడి	-10.6223
▁గి	-10.6225
▁వైశాఖ	-10.623
▁బెంగళూరు	-10.623
▁అందుకున్నారు	-10.6231
▁వీధిలో	-10.6232
▁నిర్మించింది	-10.6233
రాన్	-10.6238
▁మల్లికార్జున	-10.6239
▁మాస	-10.624
ంలోని	-10.6242
▁డాలర్లు	-10.6245
▁పెట్టాడు	-10.6252
▁పార్క్	-10.6253
▁76	-10.6254
▁1906	-10.6256
▁కళ్ళ	-10.6257
▁రహదారులు	-10.6259
▁భాషకు	-10.6262
▁కీలక	-10.6262
ఱ	-10.6263
▁అడవులు	-10.6267
బే	-10.627
▁డో	-10.6273
శ్చ	-10.6274
మునందు	-10.6279
▁ఉపయోగించి	-10.628
▁ఇంతలో	-10.6281
వాళ్ళ	-10.6282
ేశ్వరస్వామివారి	-10.6284
▁చిక్	-10.6284
▁సరిగా	-10.6286
▁పోటీలు	-10.6286
▁వారితో	-10.6287
▁అప	-10.6299
▁మారిన	-10.6301
▁వెళ్ల	-10.6304
▁చోట్ల	-10.6306
▁షో	-10.6309
వీర	-10.631
▁కాం	-10.6312
▁ఆధారం	-10.6319
▁తర్వాతి	-10.632
ద్వారా	-10.6323
కార్	-10.6324
▁పేజీలు	-10.6325
▁ప్రాస	-10.6327
▁నివాసం	-10.6329
తార	-10.6329
▁వు	-10.6329
▁అటు	-10.6329
▁చూడు	-10.634
లిన్	-10.634
▁దత్త	-10.6343
ంటాయి	-10.6345
▁శైలిలో	-10.6345
▁కొన	-10.6349
తుంది	-10.6352
▁వివరణ	-10.6361
▁కొంచెం	-10.6364
▁చుట్టుప్రక్కల	-10.6364
▁పటేల్	-10.6364
▁గిడుగు	-10.6364
▁దారితీసింది	-10.6364
▁కామేశ్వరరావు	-10.6365
▁సైతం	-10.6365
▁కలామ్	-10.6365
▁ప్రతిపక్ష	-10.6367
▁ఏర్పడ్డాయి	-10.6367
▁ప్రతీతి	-10.6368
▁జన్మించారు	-10.6369
ూరులో	-10.6374
▁దళిత	-10.6374
▁250	-10.6376
▁బ్రహ్మోత్సవాలు	-10.6376
▁వెంకటేష్	-10.6381
▁గౌరవం	-10.6382
పోయి	-10.6384
ుకొన్న	-10.6384
▁వృత్తులు	-10.6385
▁కావలి	-10.6386
రల్	-10.6386
ఫా	-10.639
▁నట	-10.6402
il	-10.6402
▁ప్రవేశించి	-10.6411
ానికే	-10.6414
▁భాగ	-10.6414
▁ఇందుకు	-10.6416
వాని	-10.642
▁చేయటం	-10.642
▁కొర	-10.6421
▁మంత్రులు	-10.6422
▁అంశాల	-10.6422
▁అడ్డ	-10.6425
▁నీలం	-10.6426
▁సిక్కిం	-10.6427
▁సారిగా	-10.6428
▁తుని	-10.6428
▁విస్తరించ	-10.6429
రోజు	-10.643
దాసు	-10.6431
▁పద్ధతిలో	-10.6432
చర్ల	-10.6436
▁నగరాలలో	-10.6437
▁నాటకాలు	-10.6438
▁మహల్	-10.6441
▁అధ్యక్ష	-10.6444
▁84	-10.6448
▁తేడా	-10.645
▁బీర	-10.645
▁ఆయనను	-10.6452
▁ఆకర్షణ	-10.6458
ist	-10.6463
▁పోయి	-10.647
▁కాలనీ	-10.6471
ుంటారు	-10.6475
▁):	-10.6475
▁m	-10.6479
ులై	-10.6482
ుతోంది	-10.6482
-5	-10.6483
నాలు	-10.6484
▁వర్ణన	-10.6485
▁చిట్టి	-10.6487
▁పనిచేసే	-10.6488
▁ప్రసన్న	-10.6489
▁రైల్వేస్టేషన్	-10.6491
▁1987:	-10.6495
▁పిల్లలకు	-10.6501
▁ఆగ	-10.651
పర్తి	-10.651
పాలన	-10.6516
▁యుగంలో	-10.6517
▁ఇంజనీరు	-10.6518
▁యూనివర్శిటీ	-10.6518
▁వికారాబాదు	-10.6518
▁జంక్షన్	-10.6518
▁నాయకురాలు	-10.6518
▁అభ్యుదయ	-10.6518
▁విముక్తి	-10.6519
▁ధర్మపురి	-10.6519
▁గ్రేడ్	-10.6521
▁కుట్ర	-10.6521
▁1923	-10.6523
▁సమస్త	-10.6524
▁నేర్ప	-10.6527
▁సింహ	-10.6528
▁ముత్యాల	-10.6529
జాతి	-10.653
▁కొనసాగింద	-10.6531
▁వరల్డ్	-10.6532
దక్షిణ	-10.6535
చక్ర	-10.6537
▁అనువాద	-10.654
▁పిలువబడే	-10.654
▁విరమణ	-10.6541
▁గ్రామస్థులు	-10.6542
▁కలిపే	-10.6544
▁తోడు	-10.6549
▁చేయబడ్డాయి	-10.655
▁సరిహద్దులో	-10.6555
▁తరహా	-10.6565
▁చంద్రశేఖర్	-10.657
▁కంద	-10.6574
▁వార్	-10.6574
▁సాగింది	-10.6578
▁కంచి	-10.6579
▁శ్రమ	-10.6579
▁బుద్ధి	-10.6581
▁గుహలు	-10.6582
us	-10.6589
▁పోయిన	-10.659
▁పాల్గొన	-10.6591
దగిన	-10.6593
▁అనుబంధ	-10.6595
నపుడు	-10.6597
▁కష్ట	-10.6601
ినా	-10.6602
▁అంశం	-10.6605
▁శాసనము	-10.6606
▁పట్టా	-10.6615
▁దగ్గరకు	-10.6621
▁కంటి	-10.6623
కుమార	-10.6624
▁నిర్జన	-10.6628
0,000	-10.663
▁ప్రక్క	-10.6631
▁మహారాష్ట్రలో	-10.6633
▁ప్రమాదం	-10.6635
ాలనే	-10.6637
▁సత్	-10.6641
ేష్	-10.6642
డూ	-10.6647
▁గోపీ	-10.665
దశ	-10.6652
పట్నం	-10.666
స్సు	-10.6661
మూల	-10.6663
▁వ్యక్తుల	-10.6665
▁ఉపఖండంలో	-10.6666
▁నిర్మాణంలో	-10.6666
▁పరిధిలోకి	-10.6669
▁పత్రికలో	-10.6672
▁పురావస్తు	-10.6673
▁జంధ్యాల	-10.6674
▁జర్మన్	-10.6674
▁ఛందస్సు	-10.6674
▁ములుగు	-10.6675
▁ముఠా	-10.6675
▁శరీరంలో	-10.6675
▁నాయక	-10.6675
.2013)	-10.6675
▁ప్రాతినిధ్యం	-10.6676
▁పోలవరం	-10.6678
▁సివిల్	-10.6679
ర్య	-10.6679
▁సంపాదకులు	-10.6679
▁చేసేందుకు	-10.668
▁1912	-10.6682
▁మార్గాలు	-10.6682
▁భూపతి	-10.6683
▁రాధాకృష్ణ	-10.6685
గడ్డ	-10.6685
▁పాలకొల్లు	-10.6688
▁చిత్రంలోని	-10.6689
▁చిత్రీకరణ	-10.6692
▁గుర్తించారు	-10.6693
ుకుంది	-10.6694
▁స్థల	-10.6695
.19	-10.6696
▁నరసాపురం	-10.6697
▁తరచుగా	-10.6698
ad	-10.6702
▁లీపు	-10.6702
▁తీసుకున్న	-10.6703
▁పేర్కొన	-10.6706
▁సముద్రంలో	-10.6711
▁మహాభారత	-10.6712
▁సంబంధిత	-10.6717
▁కలదు	-10.6717
-18	-10.6719
యల్	-10.6719
▁శ్రీరంగ	-10.672
▁600	-10.672
▁అందు	-10.6723
▁పెద్దపల్లి	-10.6725
సంస్థ	-10.6725
ుతున్నాయి	-10.6726
▁వార్షికోత్సవం	-10.6727
భూ	-10.6732
కార్య	-10.6733
సాయి	-10.6734
▁చర్మ	-10.6735
-16	-10.6742
▁సూర	-10.6746
ly	-10.6748
మ్ము	-10.6754
▁మోహన	-10.6755
▁భావం	-10.6756
▁తీరాన	-10.6758
▁గుండ	-10.6761
▁పాటించ	-10.6762
▁గణ	-10.6763
▁1939	-10.6764
▁తీర్మాన	-10.6766
చ్చే	-10.6776
▁అమృత	-10.6778
▁పాడి	-10.6779
▁బావి	-10.678
ul	-10.6782
▁1984:	-10.6794
▁భీమ	-10.6796
దేవుడు	-10.6797
▁మొదటిసారి	-10.6799
▁పూర్ణ	-10.6801
వారే	-10.6805
▁జననం	-10.6807
▁భౌగోళిక	-10.6811
▁చూస	-10.6814
▁తెచ్చిన	-10.6818
మల్ల	-10.6822
సాగర్	-10.6827
▁అందించ	-10.6828
▁భాగాలు	-10.6831
▁అధినేత	-10.6832
▁కథానాయిక	-10.6833
▁ఆఖరి	-10.6833
▁ప్రొఫెసర్	-10.6833
▁నటీమణి	-10.6833
▁ఖాళీ	-10.6833
▁హాస్యనటుడు	-10.6833
▁బీచ్	-10.6834
▁కాలి	-10.6835
▁మూడో	-10.6836
▁వెలువడిన	-10.6837
▁రామమూర్తి	-10.6837
▁గర్భ	-10.6839
▁1900	-10.684
▁హరప్పా	-10.684
▁1910	-10.6841
▁సదుపాయం	-10.6841
▁పాల్గొన్నాడు	-10.6841
డాన్ని	-10.6841
డియా	-10.6842
ెద	-10.6843
▁గూర్చి	-10.6847
▁విగ్రహాల	-10.6848
▁మహిమ	-10.685
▁రాజేశ్వరరావు	-10.6851
▁కేంద్రపాలిత	-10.6852
▁1909	-10.6852
▁నిజానికి	-10.6853
▁చేర్చారు	-10.6855
▁నివసిస్తున్నారు	-10.6855
▁నిర్వహించాడు	-10.6855
▁1916	-10.6856
▁నిర్మల	-10.6858
▁పర్వము	-10.6862
▁రోజులలో	-10.6863
▁ఫల	-10.6863
రస	-10.6865
▁అంబేద్కర్	-10.6865
▁ఆధిపత్యం	-10.6865
▁చరిత్రకారులు	-10.6866
▁పరిధి	-10.6867
▁టాటా	-10.6868
దేశాల	-10.6871
▁ఆంధ్రుల	-10.6875
▁సంస్కృతంలో	-10.6876
ంతి	-10.6876
▁ఆశ్రమ	-10.6879
▁గూడ	-10.6882
▁భాగాన్ని	-10.6883
▁మరీ	-10.6884
▁నొప్పి	-10.6891
▁సోదరి	-10.6893
భాగ	-10.6895
▁సర్వే	-10.6897
▁శంఖ	-10.6909
▁నాగయ్య	-10.6911
▁పుస్తకాల	-10.6913
▁1959	-10.6916
▁దేశీయ	-10.6918
పోయే	-10.6919
▁షిప్	-10.6921
▁తగ్గించ	-10.6922
▁విషయము	-10.6923
యన	-10.6924
▁సిద్ద	-10.6929
▁పార్	-10.6931
▁దశకంలో	-10.694
▁సాహస	-10.694
క్ర	-10.6943
వేత్త	-10.6944
▁ఆంధ్రా	-10.6955
మాత	-10.6955
▁మీర్	-10.6957
దండ	-10.6962
▁ఇరవై	-10.6962
▁మందులు	-10.6962
ాప	-10.697
▁1986:	-10.6972
ార్థ	-10.6977
▁నిరూపించ	-10.698
గ్ర	-10.6981
భ్య	-10.6987
లక్ష్మీ	-10.6988
▁ఔ	-10.6988
సై	-10.6992
▁పొడి	-10.6994
▁అలవాటు	-10.6994
▁ఉపరాష్ట్రపతి	-10.6994
▁జయప్రద	-10.6994
▁యూనివర్సిటీ	-10.6994
▁శాసనసభ్యుడు	-10.6994
▁ప్రొద్దుటూరు	-10.6994
▁ఆందోళన	-10.6994
▁గజపతి	-10.6995
▁నాగార్జునసాగర్	-10.6995
▁స్వీయ	-10.6995
▁సిద్ధిపేట	-10.6996
▁లింగం	-10.6996
ion	-10.6998
▁కందుకూరి	-10.7
కింగ్	-10.7003
▁రోదసీ	-10.7004
▁స్నేహితుడు	-10.7005
▁85	-10.7005
▁కృష్ణశాస్త్రి	-10.7006
▁సంప్రదాయం	-10.7009
▁శాఖల	-10.7009
▁86	-10.7009
▁చల్ల	-10.7012
తల్లి	-10.7014
▁నిపుణులు	-10.7017
▁పాత్రల	-10.7018
▁బాట	-10.7019
ఫర్	-10.7021
▁కలిగించ	-10.7022
▁నుంచే	-10.7028
▁బండి	-10.7028
డంలో	-10.7029
▁ఆప	-10.7032
గ్రామానికి	-10.7034
▁రాష్ట్రాలలో	-10.7035
▁జలాశయం	-10.7035
▁నిండి	-10.7036
▁ట	-10.7042
▁ముద్రణ	-10.7045
లపల్లి	-10.7046
▁తీరు	-10.7047
నగరం	-10.7047
▁ఘనత	-10.7049
జ్ఞాన	-10.7052
▁చిరు	-10.7052
▁వీణ	-10.7052
దర	-10.7054
▁విశిష్ట	-10.7054
బండి	-10.7057
▁దిశలో	-10.7058
▁నియోజకవర్గంలో	-10.7065
▁పాదాల	-10.7071
ాంత	-10.7072
▁ఫార్	-10.7076
▁ఆసియాలో	-10.7078
దేశం	-10.7078
▁తెలంగాణలో	-10.708
▁స్టార్	-10.7081
▁అందంగా	-10.7091
▁వింత	-10.7091
▁తరలించ	-10.7093
హే	-10.7095
▁నగరాలు	-10.7096
లున్నాయి	-10.7098
య్యాయి	-10.71
▁అప్పగించ	-10.7102
పరమైన	-10.7103
▁వేదాల	-10.7104
▁కప్ప	-10.7105
▁సంపాదించి	-10.7106
▁ఆదరణ	-10.7108
బాయి	-10.7108
▁87	-10.7111
▁యజ్ఞ	-10.7117
కాక	-10.712
▁విశ్వనాథ్	-10.7129
▁అడ్డు	-10.7134
ుడికి	-10.7148
▁ఏర్పరచ	-10.7151
ెన	-10.7154
ావు	-10.7155
▁పిలిచే	-10.7155
▁అయ్యే	-10.7156
▁బుధవారం	-10.7157
▁అభ్యసించ	-10.7158
▁ఆయకట్టు	-10.7158
▁చెబుతుంది	-10.7158
▁రుద్రమదేవి	-10.7158
▁పోలిస్తే	-10.7158
▁పుట్టపర్తి	-10.7158
▁నరసింహారెడ్డి	-10.716
▁బ్లాక్	-10.716
▁ముహమ్మద్	-10.7162
▁అంతటా	-10.7162
▁ఎవరూ	-10.7165
▁సంతోష	-10.7166
గిన	-10.7166
▁అలాంటి	-10.7166
▁నాలుగవ	-10.7167
▁విధానాన్ని	-10.7169
▁ఇటు	-10.7169
▁నారాయణపేట	-10.7174
▁బియ్యం	-10.7176
ఢ	-10.7177
▁పడమటి	-10.7178
▁మాల్	-10.7178
▁ప్రకటించ	-10.718
▁కాంచన	-10.718
▁జగ	-10.718
రంగంలో	-10.7181
▁యూరోపియన్	-10.7181
▁అంజయ్య	-10.7182
▁చెలి	-10.7186
▁ఆన్	-10.7186
ఫిబ్రవరి	-10.7188
వాళ్ళు	-10.7191
▁మిలియన్	-10.7194
హరి	-10.7194
▁కలప	-10.7203
▁నిర్వహించే	-10.7203
.1	-10.7215
▁కోటలో	-10.7219
▁సౌకర్యాల	-10.7219
ent	-10.7221
వచ్చని	-10.7221
ణీ	-10.7222
▁కురు	-10.7229
▁దర్శించ	-10.7231
▁మాయా	-10.7233
▁కన్ను	-10.7233
▁సింగ	-10.7234
ండే	-10.7238
▁విడిచి	-10.7241
▁రై	-10.7241
▁దళాల	-10.7244
▁రక్షించ	-10.7254
▁పలక	-10.7255
ిగ్గా	-10.7256
▁తమకు	-10.726
స్తా	-10.7262
వంటి	-10.7263
తద్వారా	-10.7268
▁అంశాలు	-10.7269
▁కమల	-10.727
హు	-10.7273
దె	-10.7275
మెంట్	-10.7276
▁పత్రికలు	-10.7276
▁భూభాగంలో	-10.7279
▁లోపలి	-10.7279
▁సమావేశ	-10.7284
▁పండ్ల	-10.7285
▁గ్రంథాలయ	-10.7286
▁పదాల	-10.7287
▁వర్ణించ	-10.7291
▁మనుషుల	-10.7293
చర	-10.7293
▁మొట్టమొదట	-10.7294
▁అత్యుత్తమ	-10.7294
సీఆర్	-10.7304
▁వరంగల్లో	-10.7306
▁కనబడ	-10.7308
-9	-10.731
ొక్క	-10.7318
్యము	-10.7323
▁వీరబ్రహ్మేంద్ర	-10.7325
▁శీర్షిక	-10.7325
▁డెల్టా	-10.7325
▁ఐక్యరాజ్యసమితి	-10.7325
▁కూటమి	-10.7325
▁బ్రహ్మాండ	-10.7325
▁కళాకారిణి	-10.7325
▁అనువాదకుడు	-10.7325
▁గ్రీకు	-10.7325
▁ఇబ్బంది	-10.7327
▁మంజూరు	-10.733
▁79	-10.733
▁ఉదయగిరి	-10.7332
▁సమకూర్చాడు	-10.7333
▁విభజించారు	-10.7334
▁నటించింది	-10.7334
బట్టి	-10.7334
▁మళ్ల	-10.7335
▁భావించారు	-10.7337
▁విహార	-10.734
▁నాందేడ్	-10.7342
▁ప్రయోగ	-10.7342
▁ఉంటుందని	-10.7343
▁చీరాల	-10.7346
▁సమాచారాన్ని	-10.7347
▁పునర్నిర్మాణం	-10.7348
కుమార్	-10.735
▁విచారణ	-10.7354
పబ్లికేషన్స్	-10.7355
▁పెట్టింది	-10.7361
▁నేనే	-10.7364
జూన్	-10.7365
▁ప్రచారంలో	-10.7368
▁చంపి	-10.7373
దుల	-10.7373
▁రోజులపాటు	-10.738
▁హాల్	-10.7383
▁ఊహ	-10.7383
▁నీకు	-10.7385
▁ప్రజాస్వామ్య	-10.7385
▁సృష్టించ	-10.7386
▁కృష్ణారావు	-10.7386
▁గ్రహించి	-10.7387
▁పనికి	-10.7387
▁షాహీ	-10.7392
▁యుద్ధము	-10.74
▁II	-10.7401
ానంతరం	-10.7402
ిస్తున్నారు	-10.7402
మయ్య	-10.7402
వారిని	-10.7405
▁?	-10.741
▁రెడ్	-10.7412
హిత	-10.7414
▁ఎంపికైన	-10.7417
▁వరలక్ష్మి	-10.742
మతి	-10.7423
▁అరుణ	-10.7434
▁మేక	-10.7436
▁దాచ	-10.7439
▁డిగ్రీల	-10.7448
తొ	-10.745
▁తొలిసారి	-10.7456
థా	-10.7461
▁పరమేశ్వర	-10.7466
▁ఉపాధ్యాయ	-10.7467
స్థానం	-10.7468
▁ఉత్తర్వు	-10.7469
▁గాక	-10.7471
▁జరుప	-10.7475
మిది	-10.7478
▁తెలియని	-10.7481
ప్రియ	-10.7482
▁స్థలంలో	-10.7483
▁అఫ్	-10.7484
▁101	-10.7485
▁తెచ్చి	-10.7486
▁రవీంద్ర	-10.7487
▁హరిహర	-10.7487
వులు	-10.7488
ందీ	-10.7488
▁దర్	-10.7489
యినా	-10.7492
▁కల్వకుంట్ల	-10.7494
▁అదనంగా	-10.7494
షు	-10.7495
BN	-10.7495
▁దీంతో	-10.7495
▁హసన్	-10.7497
▁రాజవంశ	-10.7497
▁కన్నుల	-10.7498
▁నడిచే	-10.75
▁శ్రీకాళహస్తి	-10.75
▁రౌడీ	-10.7503
▁చెన్నారెడ్డి	-10.7503
▁బహుముఖ	-10.7503
నందున	-10.7503
▁వస్తాయి	-10.7504
▁విస్తృతంగా	-10.7506
▁తత్వ	-10.7512
▁మంచు	-10.7512
▁గ్రహ	-10.7513
గీత	-10.7514
ప్రపంచవ్యాప్తంగా	-10.7521
ేశ్వరాలయం	-10.7523
▁తిప్ప	-10.7526
స్కో	-10.7526
ఈశ్వరి	-10.7529
తరువాత	-10.753
నరసింహారావు	-10.753
di	-10.753
▁పడకల	-10.7531
▁దూ	-10.7531
▁చెరకు	-10.7535
▁సరోజ	-10.754
▁ఆలేరు	-10.7545
శే	-10.7545
ించడానికి	-10.7547
▁సెం	-10.7551
▁గుంటూరులోను	-10.7552
ేసి	-10.7552
▁వీటికి	-10.7552
▁విమర్శలు	-10.7552
▁నువ్వు	-10.756
పెట్టి	-10.7566
ృత	-10.7571
▁క్ర	-10.7577
▁83	-10.758
▁1939:	-10.7583
▁కేశవ	-10.7584
▁కోట్లు	-10.7585
▁ఫో	-10.7586
▁పరిపాలనలో	-10.7586
▁శతక	-10.7586
▁సహస్ర	-10.7588
వీటి	-10.759
▁ప్రయోగం	-10.7593
రిక	-10.7594
నిక్	-10.7595
▁ద్వీప	-10.7604
▁సత్యసాయి	-10.7604
▁మం	-10.7607
▁చిత్రాలకు	-10.7609
▁పురాణాల	-10.761
ాల్సిన	-10.7611
▁గోప	-10.7612
▁అభిప్రాయ	-10.7612
▁పశువుల	-10.7612
▁పెద్దలు	-10.7615
▁ప్రదేశ	-10.7615
▁తే	-10.7615
▁యమ	-10.7619
సింగ్	-10.7619
▁వల్లభ	-10.7627
్మయ	-10.7629
▁భరత	-10.763
▁పర్వతం	-10.7633
▁వెళ్లే	-10.7643
▁జీర్ణ	-10.7654
ుతాడు	-10.7655
ున్నది	-10.7657
▁చక్రం	-10.766
ుండగా	-10.7662
.2017)	-10.7666
▁అభయారణ్యం	-10.7666
▁ఆయుర్వేద	-10.7666
▁ఇంగ్లాండు	-10.7666
▁తదుపరి	-10.7666
▁బాక్సాఫీస	-10.7666
▁పొడవైన	-10.7666
▁స్కూలు	-10.7666
▁కోనసీమ	-10.7667
▁History	-10.7667
▁మరణానంతరం	-10.7667
▁సభ్యునిగా	-10.7667
.1920)	-10.7667
ాన్నే	-10.7667
et	-10.7667
▁వైదిక	-10.7668
▁కలిగే	-10.7668
ుచున్న	-10.7672
▁జంతు	-10.7673
▁వేములవాడ	-10.7675
జిల్లా	-10.7676
▁అబ్బ	-10.7677
▁స్వీకరించి	-10.7678
▁రచించి	-10.7678
▁అమ్మవారు	-10.7679
▁రాక్షస	-10.768
లాండ్	-10.7683
ులలో	-10.7683
▁పుణ్యక్షేత్రాలు	-10.7686
లేదా	-10.7686
▁కొండపల్లి	-10.7686
▁దిశగా	-10.7687
▁సముద్రమట్టాని	-10.7687
▁కాంతారావు	-10.7689
▁కొనసాగించ	-10.769
▁భూకంపం	-10.7692
▁భగవంతుడు	-10.7695
▁రాళ్ళ	-10.7695
రామకృష్ణ	-10.7696
స్థాన	-10.7698
దురు	-10.77
▁అజ	-10.7702
▁ఉన్నప్పటికీ	-10.7703
పారిశ్రామికవేత్త	-10.7703
ియ	-10.7703
▁దశాబ్దాల	-10.7705
▁కుండ	-10.7705
▁జైలులో	-10.7706
కూడదు	-10.7707
▁చక్కగా	-10.7708
▁సామంత	-10.7711
మంటే	-10.772
లమ్మ	-10.7724
▁నక్షత్ర	-10.7724
లాడ	-10.7728
పాలు	-10.7731
డొ	-10.7732
▁టై	-10.7737
▁చెర	-10.7742
స్టా	-10.7742
▁దీవి	-10.7753
▁మదనపల్లె	-10.7754
▁సిరి	-10.7754
బల	-10.7755
1936)	-10.7756
▁ఐన	-10.7758
ల్ని	-10.7759
దేవుని	-10.7764
▁మండపం	-10.7766
నేటి	-10.7767
నొ	-10.7773
▁సంస్కరణ	-10.7777
▁క్రమ	-10.7777
నందు	-10.7778
▁చరిత్రను	-10.7781
▁దండెత్తి	-10.7784
▁చిన్ని	-10.7785
▁సంపన్న	-10.7792
▁యుగము	-10.7794
▁రచనలలో	-10.7795
▁ఏది	-10.7799
▁నర	-10.7802
▁మాసంలో	-10.7806
▁ఎండ	-10.7808
▁వెస్ట	-10.781
చేసిన	-10.7811
-10	-10.7812
ాసన	-10.7813
▁కల్పించ	-10.7818
▁సమస్యలు	-10.7819
▁మించి	-10.7828
కుమారి	-10.7828
▁మహాభారతం	-10.7828
వన్	-10.7829
▁పత్రికల	-10.7829
ప్రభుత్వ	-10.7831
▁నానా	-10.784
శీల	-10.7842
.1928)	-10.7842
▁ఈస్టిండియా	-10.7842
▁విటమిన్	-10.7842
▁కాలక్రమేణ	-10.7842
▁తొలుత	-10.7842
▁గమనిక	-10.7842
▁బీజాపూర్	-10.7842
▁సామర్థ్యం	-10.7842
▁బొగ్గు	-10.7842
▁రూపాంతరం	-10.7842
▁ఆకలి	-10.7842
▁సంచిక	-10.7842
▁సార్వ	-10.7842
▁చీకటి	-10.7843
పోతున్న	-10.7843
▁త్రిపుర	-10.7848
డ్డ	-10.7848
▁పెంచడానికి	-10.785
▁దక్షిణాది	-10.785
▁ఐరోపా	-10.785
▁వెండి	-10.785
▁పేర్కొన్నాడు	-10.7851
-14	-10.7852
విన్	-10.7852
▁వచ్చిందని	-10.7852
▁ప్రచురించాడు	-10.7852
▁ఫ్రాన్స్	-10.7853
▁టౌన్	-10.7855
▁శివరాత్రి	-10.7856
▁కాంగ్రేసు	-10.7857
ఖా	-10.7858
▁ఆదర్శ	-10.786
▁ద్వి	-10.7861
▁థామస్	-10.7863
హనుమాన్	-10.7864
ాలన్న	-10.7867
▁దుస్తులు	-10.7868
▁వస్త్ర	-10.7868
▁నిన్ను	-10.7873
▁నృత్యాలు	-10.7873
▁కోటయ్య	-10.7874
▁ముస్లిములు	-10.7878
మల్	-10.7878
▁రామరాయలు	-10.7879
▁గురి	-10.788
▁1950:	-10.788
▁చూచి	-10.7885
దైన	-10.7886
ాధిపతి	-10.7887
కొత్త	-10.7893
▁స్నానం	-10.7893
▁మేలు	-10.7893
▁మత్స్య	-10.7894
▁విజయా	-10.7903
▁దొరికిన	-10.7906
▁స్ప	-10.7907
▁వాతావరణ	-10.7909
▁ఆర్థికంగా	-10.7916
▁శిల్పాలు	-10.792
▁గుర్తుగా	-10.7938
▁పుణ్యక్షేత్రం	-10.7943
బడ్డాడు	-10.7946
▁శరీరం	-10.7949
▁చాట	-10.7952
▁దిగి	-10.7954
ధర్	-10.7956
ెల్	-10.7956
్స్	-10.7956
రాని	-10.7956
▁వాణి	-10.7957
▁89	-10.7958
▁వర్గాలు	-10.796
ుకొన్నాడు	-10.7961
▁నదిని	-10.7963
▁చలి	-10.7963
▁జరిపిన	-10.7964
▁ఆపై	-10.7964
om	-10.7966
ముందు	-10.7971
నదీ	-10.7971
▁ఇంక	-10.7971
▁కర్	-10.7972
▁బార్	-10.7973
నంద	-10.7975
▁కేంద్రాన్ని	-10.7975
ారో	-10.7977
▁పతాక	-10.7978
▁గమనించ	-10.7979
▁చారిత్రిక	-10.7981
▁ఇష్టం	-10.7981
▁సాహిత్యాన్ని	-10.7982
▁వర్ష	-10.7988
▁ఉండవచ్చు	-10.7989
నార్	-10.799
ంచాడు	-10.7992
▁అమెరికాకు	-10.7992
వారం	-10.7995
▁మంగ	-10.7995
▁ఊహించ	-10.8002
▁చివర	-10.8006
తమిళ	-10.8008
▁సదాశివ	-10.8009
▁సమస్యల	-10.8013
▁తీసుకో	-10.8014
▁ప్రత్యక్ష	-10.8018
▁కఠిన	-10.802
▁తాత్కాలిక	-10.802
▁పరుచూరి	-10.802
▁నెమలి	-10.802
▁సయ్యద్	-10.802
▁వసూలు	-10.802
▁నెలకొన్న	-10.8021
▁వేంగి	-10.8022
▁డీఏ	-10.8022
▁రామలింగేశ్వర	-10.8025
▁అక్రమ	-10.8026
▁వస్తుంటారు	-10.8026
.2012)	-10.8027
▁బాణ	-10.8027
▁1913	-10.8029
▁నూజివీడు	-10.8029
ుకోవాలి	-10.8032
రము	-10.8032
ాస్	-10.8033
▁నగరాల	-10.8033
▁మండలాన్ని	-10.8035
▁అస్	-10.8038
▁వస్తే	-10.8039
▁న్యూయార్క్	-10.8039
▁భౌగోళికంగా	-10.8045
▁సాధించారు	-10.8045
▁లేద	-10.8046
▁కాన్	-10.8047
▁మహారాజా	-10.805
▁కర్ర	-10.805
▁శివలింగం	-10.8052
▁పేర్ల	-10.8054
▁విశాలమైన	-10.8055
▁కమల్	-10.8056
▁2006:	-10.8061
రాఘవులు	-10.8062
▁ప్రక్కన	-10.8062
▁కుటుంబరావు	-10.8063
▁తల్లిదండ్రులు	-10.8063
▁w	-10.8064
▁ఏం	-10.8064
http	-10.8065
ic	-10.8067
▁వినిపించ	-10.8068
▁ప్రఖ్యాతి	-10.8069
▁సరళ	-10.8074
కృత	-10.8077
▁ప్లా	-10.8078
గన్	-10.8081
▁అంశ	-10.8088
పుత్ర	-10.8089
▁వివాదం	-10.8094
▁పెరిగిన	-10.8097
▁బంగారం	-10.8106
▁విష	-10.8107
▁ఆధారిత	-10.8107
▁అనుభవ	-10.8107
▁ఉదా	-10.8116
స్తాయి	-10.8122
▁విషయాల	-10.8124
▁ఇళ్ళ	-10.8127
▁ఇంగ్లీషులో	-10.8132
డెన్	-10.814
▁మాత	-10.8141
na	-10.8141
▁రంగుల	-10.8142
▁అనేవారు	-10.8145
▁చూడవచ్చు	-10.815
▁సర్వీసు	-10.8156
▁160	-10.8163
▁రామస్వామి	-10.8168
▁ద్రావిడ	-10.8168
▁సంచలన	-10.8168
▁కార్యాలయాల	-10.8171
శ్వ	-10.8175
▁బహుశా	-10.8184
న్నట్లు	-10.8185
వనం	-10.8188
▁క్రీడ	-10.8188
▁జగపతి	-10.8192
▁ప్రొడక్షన్	-10.8192
▁దీవుల	-10.8194
దనం	-10.8195
▁విడ	-10.8201
▁కొనుగోలు	-10.8202
▁ఖైదీ	-10.8202
▁చారిత్రాత్మక	-10.8202
▁మునిసిపల్	-10.8202
▁హాస్పిటల్	-10.8202
▁విజేత	-10.8202
▁టర్కీ	-10.8202
▁రీసెర్చ్	-10.8202
▁హైస్కూల్	-10.8202
▁చైర్మన్	-10.8203
▁జయించి	-10.8203
▁కమిషన్	-10.8203
▁తెలుస్తున్నది	-10.8204
▁నాటకకర్త	-10.8204
▁మధ్యప్రదేశ్	-10.8204
▁బూ	-10.8205
▁మార్చబడింది	-10.8205
▁క్షేత్రయ్య	-10.8206
▁వీరేశలింగం	-10.8206
▁యువరాజు	-10.8206
్యత	-10.8207
▁దాత	-10.8209
▁నామకరణం	-10.8209
▁కమ్యూనిస్ట్	-10.8209
కైనా	-10.8209
▁బర్మా	-10.8209
▁ఇంకో	-10.8209
▁1890	-10.821
▁వాటర్	-10.8212
▁నాశనం	-10.8212
▁వెల	-10.8213
▁అల్లరి	-10.8217
8,	-10.8218
▁ఆక్రమించ	-10.8223
▁విమర్శకులు	-10.8226
▁ప్రమాద	-10.8229
▁వేగంగా	-10.8233
డర్	-10.8233
▁హిందూపురం	-10.8237
రణం	-10.8238
స్టర్	-10.8242
▁కూరగాయలు	-10.8242
▁దిన	-10.8242
1.	-10.8243
▁మాసం	-10.8244
▁వేడుకలు	-10.8247
డై	-10.8249
▁సభ్య	-10.8249
చరిత్ర	-10.8249
▁రచనల	-10.8255
ేశ	-10.8256
ేస్తాడు	-10.8257
▁శిఖర	-10.8258
▁ఆశ్రమం	-10.8258
▁స్వతంత్రం	-10.8262
▁ఉంద	-10.8263
▁ఆవరణలో	-10.8263
ర్చి	-10.8264
▁ప్రమాణ	-10.8264
▁అక్షరాలు	-10.8266
హం	-10.827
పిల్ల	-10.8271
ేపల్లి	-10.8271
▁ముక్కు	-10.8274
శేష	-10.8276
నందుకు	-10.8276
▁కష్టం	-10.8277
▁ఆరంభ	-10.8282
▁ఉద్యోగుల	-10.8284
▁చోటు	-10.8285
▁తల్లిదండ్రుల	-10.8288
ఫల	-10.8288
▁సంగం	-10.8289
▁దేవీ	-10.8295
▁శకం	-10.8295
▁భాగ్య	-10.8296
▁అక్షరం	-10.8299
కాలము	-10.8305
▁లేకపోవడం	-10.8306
▁అచ్యుత	-10.831
▁బోధన్	-10.831
రాదు	-10.832
▁లాగ	-10.8323
▁ప్రభుత్వాన్ని	-10.8324
▁ఇంట	-10.8326
▁చూపు	-10.8329
వాన్	-10.8332
వరి	-10.8333
▁కేసులో	-10.8334
▁నడుమ	-10.8338
▁97	-10.8338
▁నారాయణరెడ్డి	-10.8342
▁ప్రయోగించ	-10.8346
▁కొట్టి	-10.8357
▁కాళ్ళ	-10.8361
మార్	-10.8362
▁నిలువ	-10.8367
▁భాగవతం	-10.8371
ినీ	-10.8372
▁తల్లికి	-10.8378
జాత	-10.838
▁is	-10.838
▁తీర్థ	-10.8381
▁మిక్కిలి	-10.8387
.1924)	-10.8387
▁చక్కెర	-10.8387
▁మేనమామ	-10.8387
▁బెంగాలు	-10.8388
▁కాశీయాత్ర	-10.8388
▁సాగునీటి	-10.8388
▁గరుడ	-10.8388
▁ప్రవర్తన	-10.8388
▁వైరస్	-10.8388
▁ప్రగతి	-10.8389
▁హర్యానా	-10.8389
▁డెవలప్	-10.8389
▁సుత్తి	-10.8389
▁ఎవరో	-10.8391
▁గురుకుల	-10.8392
ిష్	-10.8393
▁సంగతి	-10.8395
▁శక్తివంతమైన	-10.8395
▁రాధాకృష్ణన్	-10.8396
▁పునర్య్వస్థీకరణ	-10.8396
▁విద్వాంసులు	-10.8396
▁అంబేడ్కర్	-10.8397
▁శ్రీహరి	-10.8399
▁ప్రో	-10.84
▁పద్మభూషణ్	-10.84
తెలంగాణ	-10.8409
▁భక్తుడు	-10.8409
▁నై	-10.841
▁ప్రారంభమైన	-10.8413
డని	-10.8414
▁వార్తా	-10.8414
ోత్సవం	-10.8417
ాంగ్	-10.8417
తాం	-10.8421
▁ధర్మం	-10.8422
▁మనము	-10.8424
▁స్నేహ	-10.8424
▁పోతుంది	-10.8425
▁ప్రసాదించ	-10.8425
పాత్ర	-10.8426
000	-10.8428
▁హేమ	-10.8429
▁ప్రసార	-10.8433
▁వదలి	-10.8434
▁నీడ	-10.8437
▁వాళ్ల	-10.8439
▁ఆస్థాన	-10.8439
▁బలహీన	-10.8439
సత్యనారాయణ	-10.8439
సినిమా	-10.844
▁వంశము	-10.8441
▁వుండ	-10.8449
▁రాసి	-10.845
▁గీతా	-10.8451
▁విగ్రహాలను	-10.8455
జన్	-10.8456
▁చౌ	-10.8457
ాలే	-10.8459
రాయి	-10.8459
▁ఇచ్చ	-10.846
టిక్	-10.8467
పాక	-10.847
ఉంది	-10.8471
▁గొల్ల	-10.8471
సార్	-10.8473
▁చంద్రుని	-10.8479
▁రహస్య	-10.848
▁మాన్	-10.8483
శ్వాస	-10.8484
▁పనిచేసి	-10.8487
ంధ	-10.8488
▁హం	-10.8489
ాభి	-10.8489
గణ	-10.849
▁92	-10.8491
▁విశాఖపట్నంలో	-10.8492
▁రీతి	-10.8495
▁పనిచేయ	-10.85
▁కలిసే	-10.8503
▁జనం	-10.8507
▁బాటు	-10.8508
▁దర్శన	-10.8511
రాశి	-10.8511
▁విదేశాల	-10.8514
▁కళలు	-10.8515
▁విడుదలై	-10.8521
▁స్ట	-10.8522
▁1949:	-10.8524
స్థాయి	-10.8524
▁లాగా	-10.8525
▁అధిపతి	-10.8528
మార్గం	-10.8531
▁అచ్చ	-10.8533
▁శతకం	-10.8534
▁నక్షత్రం	-10.8539
ిస్	-10.8541
▁వరం	-10.8542
▁శాతవాహనుల	-10.8546
▁సంస్కృతుల	-10.8547
▁99	-10.8551
తోనూ	-10.8552
▁కుంకుమ	-10.8553
సాని	-10.8553
పల్లిలో	-10.8553
▁రొ	-10.8556
▁అప్పు	-10.8558
▁కనపడ	-10.8561
▁వుండే	-10.8562
వేళ	-10.8563
▁వాహనాల	-10.8564
▁కార్యకలాపాల	-10.8573
-13	-10.8575
▁గురువారం	-10.8576
▁అసోసియేషన్	-10.8576
▁కలెక్టరు	-10.8576
▁నిజాయితీ	-10.8576
▁సమర్పణ	-10.8576
▁అత్యవసర	-10.8576
▁ఇన్సులిన్	-10.8576
▁వ్యవసాయాధారిత	-10.8576
▁సమకాలీన	-10.8576
▁అర్హత	-10.8576
▁ఆధిక్యత	-10.8576
▁సాళువ	-10.8576
▁కిన్నెరసాని	-10.8576
▁ఉగాది	-10.8576
▁ప్యాసింజర్	-10.8576
▁ఉభయ	-10.8577
▁వంకాయ	-10.8577
ండో	-10.8578
▁పనిచేస్తుంది	-10.8579
▁మాచర్ల	-10.8579
▁భూత	-10.8583
ోప	-10.8584
▁అనేకమంది	-10.8585
▁సృష్టించింది	-10.8585
▁ధర్మవరం	-10.8587
▁స్ఫూర్తి	-10.8588
▁వేదాంత	-10.8588
▁ప్రచురించారు	-10.8588
▁కల్	-10.8589
▁దర్శకుడిగా	-10.859
▁ఇష్టపడ	-10.859
రాజ్య	-10.8591
▁ప్రాంతపు	-10.8592
▁ఎర్రన	-10.8593
▁110	-10.8597
▁ప్రశాంత	-10.8599
ండీస్	-10.86
కళ	-10.8604
▁రామకృష్ణారావు	-10.8604
▁ప్రదర్శించ	-10.8607
శ్య	-10.8609
▁అంతర్	-10.8619
పాయ	-10.8621
▁సముద్రము	-10.8625
▁మూత	-10.8625
▁రాజశేఖర్	-10.8627
ళు	-10.8628
తిరుపతి	-10.8632
▁శక్తిని	-10.8632
మార్చి	-10.8636
మంత్రి	-10.8637
▁పర్వతాలు	-10.864
li	-10.8645
పేటలో	-10.8648
▁మార్కాపురం	-10.8649
▁వేట	-10.8652
▁సుర	-10.8652
▁సన్	-10.8654
▁యుద్ధాలు	-10.8656
▁ప్రదర్శనలు	-10.8657
▁సదుపాయాలు	-10.8658
▁సంతతి	-10.8661
▁స్థాపించబడిన	-10.8661
▁ప్రేమించ	-10.8663
▁అన్నయ్య	-10.8667
▁కూడలి	-10.8667
▁సంవత్సరములు	-10.8669
▁రంగాలలో	-10.8672
▁పెట్టే	-10.8672
మాట	-10.8672
▁శాసనసభకు	-10.8684
▁గౌతమ	-10.8687
▁13,	-10.8691
▁ఎప్పుడు	-10.8691
ప్రాంతం	-10.8693
▁లభించ	-10.8694
▁ప్రాంతములో	-10.8697
▁గె	-10.8698
కొక	-10.8699
▁ప్రమాదంలో	-10.87
▁తెచ్చ	-10.8704
▁ప్రాణం	-10.8704
▁రూపు	-10.8708
▁కొలను	-10.8708
.....	-10.8708
▁చూపించ	-10.8709
▁నిడమర్రు	-10.871
▁కూర్చ	-10.8711
▁చిత్త	-10.8712
▁నవలలు	-10.8715
▁ముస్లింలు	-10.8718
▁అధికం	-10.8719
▁తెలుపు	-10.8723
▁మేరీ	-10.8727
▁నొ	-10.8731
వెల్	-10.8733
▁మంత్రివర్గంలో	-10.8736
చేశాడు	-10.8736
▁నచ్చ	-10.8736
ాల్సి	-10.8737
▁స్నేహం	-10.8738
▁ఆరాధన	-10.8738
▁1981:	-10.8739
గొండ	-10.8742
▁పోరాడి	-10.8742
▁వ్రాసి	-10.8743
▁సముదాయ	-10.8747
▁భగవ	-10.8753
▁ఆవిష్కరించ	-10.8755
▁ఇతనికి	-10.8758
▁అతనుకు	-10.8761
▁జోసెఫ్	-10.8768
▁నివారణ	-10.8768
▁రామబ్రహ్మం	-10.8768
▁పల్నాటి	-10.8768
▁చార్లెస్	-10.8768
▁నర్సాపూర్	-10.8768
హెన్రీ	-10.8769
▁సేకరణ	-10.8769
▁చేనేత	-10.8769
▁ఒకటైన	-10.8769
▁వీడియో	-10.8769
కపోతే	-10.8769
▁జార్జ్	-10.8769
.2010)	-10.8769
▁రాజకీయనాయకుడు	-10.8769
▁దేవదాసు	-10.877
▁అఖిల	-10.877
▁సర్దార్	-10.877
.2011)	-10.8772
▁చేరుతుంది	-10.8772
▁హనుమంతుడు	-10.8773
▁లక్ష్మీనారాయణ	-10.8774
రక	-10.8774
బోయే	-10.8775
▁1902	-10.8775
▁రాజకీయాల	-10.8776
▁మణిపూర్	-10.8776
రామచంద్రన్	-10.8778
▁వుంటాయి	-10.8778
▁ఇస్తుంది	-10.878
▁1970:	-10.878
▁ప్రారంభమైనది	-10.8781
▁యోధులు	-10.8784
▁గుత్తి	-10.8785
▁భావించ	-10.8787
▁సంతకం	-10.8787
▁లోతు	-10.8787
▁దొంగలు	-10.8791
▁నిపుణుడు	-10.8791
▁భయ	-10.8793
▁మిషన్	-10.8797
ిన్	-10.8797
▁వచ్చినప్పుడు	-10.8797
▁వ్యక్తం	-10.8798
సరి	-10.8798
▁సిద్ధాంతాల	-10.88
▁at	-10.8803
▁హస్త	-10.8804
▁మహాసభ	-10.8806
▁కోరాడు	-10.8808
ున్నా	-10.8814
▁నాగిరెడ్డి	-10.8814
▁ఆకాశ	-10.8815
▁విధానాలు	-10.8815
▁చల్లని	-10.8817
▁మనకి	-10.8821
▁కల్ప	-10.8821
▁సన్న	-10.8822
▁చింత	-10.8823
సుర	-10.8826
నిర్జన	-10.8827
▁చుట్ట	-10.8834
▁గాన	-10.8834
▁పద్యాల	-10.8835
▁నివసించే	-10.8838
▁ఇరు	-10.8842
▁శాస్త్రవేత్తలు	-10.8842
▁తిన్న	-10.8843
షే	-10.8847
▁సంవత్సరాలకు	-10.8848
చెరువు	-10.8849
ధీ	-10.8852
▁ఆంగ్లంలో	-10.8853
▁శతాబ్ద	-10.8855
యున్న	-10.8856
[	-10.8856
▁ప్రచురించ	-10.8859
▁యేట	-10.8859
సియా	-10.886
▁బంధ	-10.8866
▁రోజును	-10.8872
▁వేడుక	-10.8875
▁వంతు	-10.8875
ిస్తుంటారు	-10.8885
కంటి	-10.8889
యుత	-10.889
▁లక్ష్యం	-10.889
ండీ	-10.8897
▁పరిశోధనలు	-10.8898
▁నిర్వహించబడుతు	-10.8899
▁హోమ	-10.8901
▁ఒకరోజు	-10.8907
వంశ	-10.8911
▁కావ్యము	-10.8912
▁మీటర్లు	-10.8913
రోజుల	-10.8914
▁పాక్	-10.8915
▁శాసనసభలో	-10.8915
▁వివరాల	-10.8916
▁విశ్వాస	-10.892
▁పాల్వంచ	-10.8924
▁హృదయ	-10.8924
▁1953:	-10.8925
▁దేశాన్ని	-10.8926
నాగ	-10.8927
▁కుటుంబాల	-10.8927
ోర్	-10.8929
రంగం	-10.8932
పోత	-10.8934
▁త్యాగ	-10.8935
కరణ	-10.8936
▁కోల్	-10.8936
▁గ్	-10.8943
▁విడుదలయ్య	-10.8948
▁గ్రామాలను	-10.8949
▁అందించే	-10.8951
▁అంజ	-10.8952
ేసారి	-10.8956
ak	-10.8958
▁దళ	-10.8958
▁శిశువు	-10.8961
▁ఎల్ల	-10.8964
.1922)	-10.8965
▁కంబైన్స్	-10.8965
▁యజమాని	-10.8965
▁రూపకల్పన	-10.8965
▁వ్యంగ్య	-10.8965
▁చావ్లా	-10.8965
▁కొందరి	-10.8965
▁తప్పనిసరి	-10.8965
▁ఛైర్మన్	-10.8965
▁విరివి	-10.8965
▁బహమనీ	-10.8965
▁ప్రేరణ	-10.8965
▁సరోజినీ	-10.8965
▁బాంబే	-10.8965
▁ఉత్తరప్రదేశ్	-10.8966
▁అసఫ్	-10.8966
▁మాస్కో	-10.8968
కొని	-10.8968
▁ఉండేదని	-10.897
▁మెట్ట	-10.8971
▁దినోత్సవ	-10.8971
▁సుమన్	-10.8973
▁విజయవంతమైన	-10.8973
▁రాసాడు	-10.8973
▁చెప్పడం	-10.8974
▁దట్టమ	-10.8974
▁బుద్ధ	-10.8975
▁ఐటీ	-10.8976
▁గ్రేట్	-10.8976
▁అనాథ	-10.8976
భాగంలో	-10.8979
▁ధర్మారావు	-10.8981
దారుల	-10.8981
▁పరిపాలించారు	-10.8981
ాంబ	-10.8982
▁పురపాలకసంఘంగా	-10.8983
▁కనుగొన్నారు	-10.8983
▁అలి	-10.8984
▁పట్టాభిషేకం	-10.8985
ఇక్కడ	-10.8986
▁వ్యవహారాల	-10.8986
▁స్టేడియం	-10.8987
▁మట్ట	-10.8987
▁రాగి	-10.8988
▁మాడ	-10.8988
▁తుది	-10.8989
▁అర్జున్	-10.8991
▁బదులుగా	-10.8994
▁1989:	-10.8995
▁దేవాలయాన్ని	-10.8995
.2014)	-10.8997
▁ఉపయోగించే	-10.8997
▁స్వరూప	-10.8999
▁మొగుడు	-10.9002
▁ఉన్నాయని	-10.9003
▁పదవిలో	-10.9005
▁అవశేషాలు	-10.9006
నాటికి	-10.9011
▁సోదరులు	-10.9012
నాయక	-10.9012
ధారణ	-10.9013
శాస్త్రం	-10.9016
▁నీళ్ళు	-10.902
▁విశేషాలు	-10.902
▁ఆలయంలోని	-10.9027
ధన	-10.9028
మున్	-10.9028
▁ప్రభువు	-10.9029
▁సింహాసనం	-10.9031
ాదుల	-10.9037
జల	-10.9041
వేద	-10.9046
▁కార్యదర్శిగా	-10.9052
ేశ్వరస్వామి	-10.9052
రంగా	-10.9056
▁పనుల	-10.9059
▁కడుపు	-10.9059
ుంటాయి	-10.906
కేంద్రం	-10.9063
▁వ్యక్తిగా	-10.9065
▁లభించే	-10.9065
ణ్ణ	-10.907
▁పడతాడు	-10.9073
▁ధరించ	-10.9073
▁మంట	-10.9085
▁విర	-10.9087
▁సమావేశంలో	-10.9088
▁కట్టిన	-10.9094
▁స్థిర	-10.9094
▁నడి	-10.9097
▁ఇద్దరి	-10.9099
దులు	-10.9102
్ల	-10.9102
స్స	-10.9104
sh	-10.9104
▁తడి	-10.9105
▁కొల	-10.9105
నెల	-10.9107
▁పీఠం	-10.9111
షణ	-10.9115
▁1905	-10.9117
నటి	-10.9118
▁తీ	-10.9121
▁యువత	-10.9121
▁స్వీకరించ	-10.9122
లియా	-10.9124
▁మైళ్ళ	-10.9127
▁కృష్ణుని	-10.9128
▁కోపం	-10.9136
▁గొడవ	-10.9138
దళ	-10.9141
▁కళాకారుల	-10.9143
▁అభి	-10.9145
▁ప్రస్తావించ	-10.9146
▁లతా	-10.9154
▁ఫిలిం	-10.9154
▁సైన్య	-10.9155
ముగ	-10.9156
▁మేడ	-10.9161
▁నిత్యం	-10.9163
ఖండ	-10.9164
.1931)	-10.9165
▁దుగ్గిరాల	-10.9165
▁భరద్వాజ	-10.9165
▁బదిలీ	-10.9165
▁సూక్ష్మ	-10.9165
▁కర్మాగారం	-10.9165
▁అయోధ్య	-10.9165
▁పీఠాధిపతి	-10.9165
▁అంతర్గత	-10.9165
▁ఓడరేవు	-10.9165
▁వ్రాత	-10.9165
▁కొల్లాపూర్	-10.9165
▁భద్రాద్రి	-10.9165
▁వాడతారు	-10.9167
▁సంభవించిన	-10.9168
▁కావాలి	-10.9168
▁అనుకూల	-10.9169
▁అప్పుడే	-10.917
దారి	-10.917
▁పెక్కు	-10.917
▁వైస్	-10.917
▁పట్నం	-10.9171
▁సుందరయ్య	-10.9171
ుకొంట	-10.9172
▁మహాకవి	-10.9174
▁ఆజాద్	-10.9174
▁టో	-10.9175
ti	-10.9176
▁కందుకూరు	-10.9177
▁రజతోత్సవ	-10.9181
▁ఉచితంగా	-10.9183
▁సంపుటి	-10.9183
▁సాగిన	-10.9183
▁శ్రీరాముడు	-10.9185
▁వరంగల్లు	-10.9185
▁కుటుంబాలు	-10.9188
▁ఆంగ్లో	-10.9188
▁ప్రతాప్	-10.919
▁సమరయోధులు	-10.9192
▁సీతను	-10.9193
▁తాగ	-10.9194
▁కన్	-10.9202
▁న్యాయం	-10.9203
▁వెయ్యి	-10.9205
▁మోస	-10.9208
▁తమ్మ	-10.921
▁ఇంకొక	-10.9213
దత్త	-10.9217
▁కన్య	-10.9218
▁పండ్లు	-10.922
దూ	-10.922
▁తీర్మానం	-10.922
▁బసవ	-10.9223
ుచూ	-10.9228
▁93	-10.9231
ెల	-10.9231
▁పిచ్చి	-10.9231
▁1928:	-10.9234
▁తీరం	-10.9235
▁సేకరించి	-10.9235
▁1925:	-10.9238
పక్ష	-10.924
యొక్క	-10.9244
▁116	-10.9249
▁దే	-10.925
▁మూగ	-10.9251
▁చేయవచ్చు	-10.9267
▁సంగీతాన్ని	-10.9268
▁పోషించిన	-10.9273
▁భాగాల	-10.9276
దాత	-10.9282
▁జాతీయస్థాయి	-10.9284
ల్డ్	-10.9285
ండ్ర	-10.9287
▁క్ష	-10.9288
▁అనుకున్న	-10.9288
లచే	-10.9292
▁జమున	-10.9293
▁ఖమ్మంలో	-10.9301
▁పార	-10.9305
ప్పటి	-10.9305
▁వాహనం	-10.9311
గానీ	-10.9311
▁ఉపయోగ	-10.9316
ాలయ	-10.9316
పడిన	-10.9317
▁మూలంగా	-10.9318
▁ఆంజనేయస్వామి	-10.9321
▁IS	-10.9325
▁వేస	-10.9326
▁పాడు	-10.933
▁సైట్	-10.9332
▁ప్రారంభమై	-10.9335
సభ	-10.9336
▁ఇవ్వడం	-10.9339
▁వేయి	-10.934
2011	-10.9346
▁కార్తీక	-10.9348
▁నగర్లో	-10.9349
▁కాద	-10.9353
▁బెల్	-10.9354
▁బాల్య	-10.9361
▁సంబంధాల	-10.9364
▁అంతర	-10.9365
archive	-10.9368
▁మున్సిపాలిటీ	-10.9369
▁గోంగూర	-10.9369
▁నిరంకుశ	-10.9369
▁రీమేక్	-10.9369
▁వెళుతుంది	-10.9369
▁ఇటలీ	-10.9369
▁తీశారు	-10.9369
▁అస్సామీ	-10.9369
▁మౌలిక	-10.9369
▁ఎగువ	-10.9369
తిని	-10.9369
▁భువనచంద్ర	-10.9369
▁విజయశాంతి	-10.9369
▁తరచూ	-10.937
▁వాసిరెడ్డి	-10.937
▁శని	-10.937
▁చేయించ	-10.9371
▁1977:	-10.9372
▁గుండమ్మ	-10.9372
▁విభజించబడింది	-10.9372
మోహన్	-10.9373
▁అసమాన	-10.9375
▁భాస్కర	-10.9375
▁ఇంటర్	-10.9376
▁గుర్తించిన	-10.9376
▁వేణుగోపాలస్వామి	-10.9377
▁రాజశ్రీ	-10.9377
▁వెనక	-10.9377
▁శాఖా	-10.9378
▁భీమన్న	-10.9379
▁ప్రాజెక్ట్	-10.9379
దేవత	-10.9379
ములోని	-10.9379
▁తేజ	-10.9381
▁స్వీకరించారు	-10.9382
▁మార్గము	-10.9382
కాలపు	-10.9386
నట్టు	-10.9387
బండ	-10.9387
▁సుధాకర్	-10.9388
▁నామం	-10.9388
▁మొట్ట	-10.9388
▁అన్నదానం	-10.9389
▁సాయంతో	-10.939
రహిత	-10.9391
▁పదవ	-10.9395
ంబా	-10.9396
▁పరిరక్షణ	-10.9399
▁భూపాలపల్లి	-10.9399
▁చేయాలి	-10.94
ంబుల	-10.9401
▁వూరి	-10.9402
▁వెల్	-10.9402
▁కోయ	-10.9404
రత్న	-10.9407
వటం	-10.9407
దాన	-10.9409
క్య	-10.9414
▁దేవ్	-10.9415
ంపల్లి	-10.9418
▁చెప్పింది	-10.942
▁సంబంధ	-10.942
స్థాన్	-10.942
▁నటించ	-10.9421
▁కర్ణ	-10.9422
▁సంగ	-10.9423
మార్గ	-10.9426
▁గ్రా	-10.9428
త్రం	-10.9428
▁1992:	-10.9428
▁కనుగొన	-10.943
▁ధార	-10.9431
▁సంవత్సరాలుగా	-10.9432
▁తొక్క	-10.9435
▁అరి	-10.9436
జేయ	-10.9441
▁చెట్ల	-10.9442
ానిక	-10.9443
పత	-10.9444
▁కళల	-10.9444
తీర	-10.9445
▁విడి	-10.9447
▁అంతగా	-10.9449
▁అంతటి	-10.9453
పట్ట	-10.9454
గుల	-10.946
ఆంగ్లం	-10.9461
దీనిని	-10.9463
▁గుప్త	-10.9463
▁చెల్ల	-10.9464
▁విశిష్టమైన	-10.9468
▁తిరగ	-10.9468
▁దుర్	-10.947
▁పర్యాటకుల	-10.9473
▁కాకతీయులు	-10.9474
చిన్న	-10.9479
▁మంచిది	-10.9481
రియ	-10.9481
un	-10.9482
▁పొద	-10.9496
కొండూరు	-10.9503
▁ప్రవాహం	-10.9507
గుంట	-10.9513
▁సమయంలోనే	-10.9516
um	-10.9518
పురంలో	-10.9519
▁(2	-10.9519
▁ధరించిన	-10.9523
▁శిల్పం	-10.9525
▁అచ్చు	-10.953
గుట్ట	-10.9531
▁నారద	-10.9531
▁న్యాయస్థానం	-10.9534
▁చరిత్రకారుల	-10.9535
▁ప్రెసిడెన్సీలో	-10.9539
▁వడ	-10.9541
ట్టుగా	-10.9542
చోట	-10.9545
ఠా	-10.9546
గోపాల	-10.9549
యోగ	-10.9549
▁130	-10.9553
గత	-10.9554
▁సమయ	-10.9559
▁నిలబడి	-10.956
▁1979:	-10.9561
చల	-10.9562
▁సన్నిహిత	-10.9563
▁125	-10.9564
యార్	-10.9568
▁మౌర్య	-10.9572
▁వాస్తు	-10.9573
▁పిలిచి	-10.9574
ాదరణ	-10.9576
▁క్లబ్	-10.9576
▁మంగళవారం	-10.9576
ry	-10.9577
.1908)	-10.9577
.2006)	-10.9577
▁కవయిత్రి	-10.9577
▁జమ్మలమడుగు	-10.9577
▁నలుమూలల	-10.9577
▁యలమంచిలి	-10.9577
▁స్వీకారం	-10.9577
▁వేర్వేరు	-10.9577
▁ఆచంట	-10.9577
▁నిరసన	-10.9577
▁ఓరుగల్లు	-10.9577
▁తపాలా	-10.9577
▁దసరా	-10.9577
▁ఉస్మానియా	-10.9577
▁వెనక్కి	-10.9577
▁వినుకొండ	-10.9577
▁తరఫు	-10.9577
▁తిరుగుతూ	-10.9577
▁సురవరం	-10.9577
▁గొంతు	-10.9578
▁ప్రదానం	-10.9578
▁చేస్తుంటారు	-10.9578
▁కొండవీటి	-10.9579
▁కూర్చిన	-10.9582
▁చింతపల్లి	-10.9583
▁గణేశన్	-10.9583
▁పొరుగు	-10.9584
▁రోమన్	-10.9584
▁ఆదరించ	-10.9584
▁ఉపాధ్యాయుడు	-10.9585
▁దగ్గు	-10.9585
▁గూ	-10.9586
▁పక్షుల	-10.9588
▁గుర్రం	-10.9589
ిస్తా	-10.9589
▁శ్రీకృష్ణుడు	-10.959
▁కపూర్	-10.9591
▁మెట్ల	-10.9592
▁స్వా	-10.9594
▁కథకుడు	-10.9594
▁వెలి	-10.9599
▁0-6	-10.96
▁మాయాబజార్	-10.9602
▁గౌడ్	-10.9602
▁అద్దంకి	-10.9604
▁శత్రు	-10.9605
▁గొల్లపూడి	-10.9605
▁పోషించ	-10.9607
రెండు	-10.9607
వరకూ	-10.9612
▁మరొకటి	-10.9612
▁సుబ్బయ్య	-10.9612
▁ఆయుధాలు	-10.9614
▁కాట	-10.9618
▁రంగనాథ	-10.962
▁రాజును	-10.9622
▁హనుమ	-10.9624
మవుతుంది	-10.9626
▁రావడంతో	-10.9628
nd	-10.9634
▁మనువు	-10.9636
ve	-10.9638
▁ప్రాజెక్టులు	-10.9638
▁చేయగా	-10.964
▁కావు	-10.9641
▁దిగువన	-10.9642
▁పెర	-10.9643
▁పరిస్థితుల	-10.9644
▁పచ్చని	-10.9646
▁1924:	-10.9646
▁బాగు	-10.9647
▁సంస్కరణలు	-10.9648
ప్పి	-10.9649
▁శిల	-10.9651
▁చర్యలు	-10.9652
||	-10.9653
▁లక్ష్మణ్	-10.9659
▁అడగ	-10.9659
దూరంలో	-10.9667
▁విధాన	-10.9668
▁బుక్క	-10.967
▁మిల్లులు	-10.9672
▁సమాధానం	-10.9675
▁ఎవర	-10.9683
▁అంతం	-10.9685
▁బోస్	-10.9687
▁బ్రతుకు	-10.9688
▁వచన	-10.9695
▁మోక్ష	-10.9701
▁తిరుగు	-10.9702
▁పుల్ల	-10.9706
▁మోహ	-10.9709
▁కాలేజీలో	-10.9711
▁నారా	-10.9711
▁వీరిని	-10.9712
and	-10.9712
ాచార్య	-10.9715
▁అవతారము	-10.9718
▁వెళ్తు	-10.9719
▁నింద	-10.9719
ాట	-10.9726
4)	-10.9728
▁ట్ర	-10.9729
▁కనుల	-10.973
.5%	-10.973
▁నరస	-10.9732
కుండ	-10.9739
▁విజయవంతం	-10.9743
▁1966:	-10.9747
▁ప్రభుత్వంలో	-10.9747
ter	-10.9749
వాణి	-10.9752
▁అధీనంలో	-10.9753
▁బ్యా	-10.9753
ాణ	-10.9756
ముద్ర	-10.9761
▁చాలు	-10.9769
▁బృంద	-10.9769
▁భుజ	-10.977
▁(6	-10.9774
▁తొలగించి	-10.9776
ేశాడు	-10.978
▁పరశురామ	-10.9783
▁చెందుతున్న	-10.9783
▁వినయ	-10.9785
▁కారాగార	-10.9788
▁కస్తూరి	-10.9789
▁పునరుద్ధరణ	-10.979
▁వేరుశనగ	-10.979
▁టెన్నిస్	-10.979
▁నిర్ధారించ	-10.979
▁దర్శకునిగా	-10.979
▁జారీచేసింది	-10.979
నెల్సన్	-10.979
▁తెస్తూ	-10.9791
▁హాసన్	-10.9791
▁అనబడే	-10.9791
▁అభిషేకాలు	-10.9792
▁సంజీవయ్య	-10.9792
▁సినీనటి	-10.9792
▁పాండురంగ	-10.9793
▁విస్తృత	-10.9793
▁గుర్తించబడింది	-10.9793
▁నిలిచాయి	-10.9794
▁రాజమండ్రిలో	-10.9795
▁చంద్రగిరి	-10.9797
▁వెన్న	-10.9798
▁చిత్రీకరించారు	-10.9798
▁కలుగుతుంది	-10.9798
▁1857	-10.9799
పరచ	-10.98
▁1896	-10.98
▁ఏర్పాటుచేసిన	-10.9804
▁మగళూరు	-10.9806
▁ఆకులు	-10.9808
▁రాజుగా	-10.9808
▁ద్రవిడ	-10.981
▁స్వర	-10.981
▁ఆంజనేయులు	-10.9812
▁చమురు	-10.9812
▁అవకాశాలు	-10.9813
▁రాజేశ్వరి	-10.9813
దుర్గ	-10.9816
▁కలుగ	-10.9818
కన్నడ	-10.9819
▁మహాలక్ష్మి	-10.982
▁శిల్పి	-10.9821
▁నృసింహ	-10.9821
▁స్టూడియోస్	-10.9823
▁కట్టడాలు	-10.9825
వెంకట	-10.9825
▁నాథ్	-10.9826
▁Dr	-10.9829
యుండును	-10.9831
▁వస్త్రాలు	-10.9831
▁పాలనకు	-10.9832
▁నిరంతరం	-10.9834
▁త్యాగరాజు	-10.9834
ములతో	-10.9835
▁కార్యక్రమాలను	-10.9839
ణము	-10.9839
▁ఉద్యమానికి	-10.9841
▁రామా	-10.9843
త్వము	-10.9844
▁పంపిన	-10.9844
▁ముడి	-10.9844
▁గణనీయ	-10.9848
▁మనుషులు	-10.9849
▁దళాలు	-10.9851
▁నుంచీ	-10.9851
▁పంపించ	-10.9854
రులు	-10.9858
▁పప్పు	-10.9859
▁దొంగల	-10.986
▁విద్యాలయం	-10.9863
▁2007.	-10.9864
▁వైపున	-10.9865
▁కట్టడం	-10.9865
మహ	-10.9867
▁నీల	-10.9869
చరణ	-10.9869
▁సైన్యము	-10.987
▁సుదీర్ఘ	-10.9871
▁ఇటీవలి	-10.9873
▁మేఘ	-10.9873
▁కాపురం	-10.9875
▁రేఖ	-10.9876
ీయులు	-10.9877
గలిగే	-10.9878
▁సినిమాలోని	-10.9878
▁సైనికులు	-10.9879
బొమ్మ	-10.988
మడుగు	-10.9881
▁ఆచరించ	-10.9882
▁శ్లోకం	-10.9884
▁మిల్లు	-10.9887
▁1895	-10.9887
్రా	-10.9896
▁నిజంగా	-10.9897
▁ఆరంభం	-10.9897
▁కరీంనగర్లో	-10.9898
▁గోన	-10.9898
గ్రీ	-10.9902
భర	-10.9904
మండల	-10.9905
వల్	-10.9905
దారులు	-10.9906
రత్నం	-10.9909
▁శ్రీధర్	-10.991
▁పెంచి	-10.9911
▁కుక్క	-10.9913
▁కేంద్రానికి	-10.9913
▁గెలుచుకు	-10.9913
▁ఉండేలా	-10.9914
▁దాస	-10.9918
▁విశ్వవిద్యాలయాల	-10.9918
▁1957:	-10.9918
▁పడింది	-10.9923
▁అహ	-10.9923
▁చెయ్యడం	-10.9924
కేంద్ర	-10.9926
▁సేన	-10.9926
▁నిర్మాణాలు	-10.9926
▁ద్వీపం	-10.9931
▁అధ్యక్షులు	-10.9931
తక	-10.9934
se	-10.9941
ంచారు	-10.9945
▁మతాల	-10.9946
▁సినిమాలకు	-10.9949
ాధి	-10.9956
▁పైడి	-10.9958
అని	-10.9959
▁గౌ	-10.9959
▁చూ	-10.9964
▁టన్నుల	-10.9964
▁సమర్థ	-10.9966
▁మర్	-10.9968
▁సముద్రతీర	-10.9972
▁రెండ	-10.9973
▁వజ్ర	-10.9974
▁(10	-10.998
కారులు	-10.9983
ెన్స్	-10.9987
▁ద్విపద	-10.9989
వున్న	-10.9992
▁వార్డు	-10.9995
▁1978:	-10.9998
▁శతాబ్దము	-10.9999
నాడే	-11
▁అధికారుల	-11.0001
▁హృదయం	-11.0003
పాప	-11.0005
▁కౌన్సిల్	-11.0007
▁చొప్పున	-11.0007
▁నిడదవోలు	-11.0007
▁విస్తారంగా	-11.0007
▁ఇంజనీర్	-11.0007
▁కెరీర్	-11.0007
▁దార	-11.0007
▁అందుకని	-11.0007
▁యాత్రాచరిత్ర	-11.0007
▁నేపాలీ	-11.0007
▁ఫ్యాక్టరీ	-11.0007
▁కోనేరు	-11.0007
్వా	-11.0008
▁యాక్షన్	-11.0008
▁అంతేకాక	-11.0008
▁ప్రతాపరెడ్డి	-11.0008
▁ఊళ్ళో	-11.0009
▁పాండవుల	-11.0011
▁అర్జునుడు	-11.0013
ామ్	-11.0016
▁జమ్ము	-11.0018
▁విద్యాసాగర్	-11.0018
▁ఇవన్న	-11.002
▁చండీగఢ్	-11.0021
▁గ్రామాలలో	-11.0021
▁నరసింహస్వామి	-11.0024
▁సొమ్ము	-11.0026
▁నైరుతి	-11.0027
▁వర్షాలు	-11.0028
▁తీసుకున్నారు	-11.003
▁హోటల్	-11.003
▁చెందాయి	-11.0031
▁రూపొందించారు	-11.0031
▁నేత్ర	-11.0034
▁వాణిశ్రీ	-11.0034
▁వికాస	-11.0037
▁చంద్రమోహన్	-11.0037
▁అట్టి	-11.0038
▁ఉత్తర్వులు	-11.004
▁సంస్కరణల	-11.0041
▁వేసింది	-11.0043
▁చెందినవి	-11.0045
ుతున్నారు	-11.0045
▁కల్లూరు	-11.0047
▁బాంబు	-11.0049
▁స్థానాలు	-11.005
▁పేరుగల	-11.0051
ta	-11.0052
నిధి	-11.0053
▁పదాన్ని	-11.0055
▁ఘాట్	-11.0055
▁థ	-11.0056
ana	-11.0059
▁గాథ	-11.006
ేటప్పుడు	-11.0062
పుల	-11.0063
▁కీర్తనలు	-11.0064
▁ఇవే	-11.0067
▁రాకుండా	-11.0067
▁రావణ	-11.0069
▁మేర	-11.0071
▁చూసే	-11.0071
▁పెం	-11.0076
▁సంభాషణ	-11.0088
▁గెల	-11.0093
▁సమస్యలను	-11.0093
▁జాన	-11.0099
ab	-11.0099
▁రాఘవేంద్రరావు	-11.0105
▁ఉనికి	-11.0106
▁కనుమ	-11.0106
భాషలో	-11.0108
▁ప్రోత్సహించ	-11.0109
▁సంఘాల	-11.0111
స్తున్న	-11.0119
▁లేఖ	-11.0119
▁సముద్రపు	-11.0124
▁నాట్యం	-11.0126
ుకుంటున్న	-11.0128
▁ద్వీపాల	-11.0131
స్త్రీ	-11.0131
▁కుటుంబాన్ని	-11.0134
చేసే	-11.0134
ంక్	-11.0135
కపోవడం	-11.0135
ఫీ	-11.0135
▁బోధన	-11.0135
▁జ్ఞానం	-11.0143
రియన్	-11.0145
కరంగా	-11.0146
▁ఏల	-11.0149
▁ఉమా	-11.015
▁ముక్కలు	-11.0152
▁మంత్రం	-11.0153
▁ఆవుల	-11.0153
▁అర్జున	-11.0158
▁పెరుగు	-11.016
▁స్వామిని	-11.0161
8%	-11.0161
▁అంతర్జాతీయంగా	-11.0161
▁(4	-11.0163
2005)	-11.0165
▁కారణాలు	-11.0166
▁పిలవ	-11.0166
▁వెలుగులో	-11.0177
▁దళం	-11.018
200	-11.0184
▁రామరాయల	-11.0185
▁అందుకున్న	-11.0186
▁ఆర్య	-11.0196
▁వరుస	-11.0197
▁వంశీ	-11.0199
▁భారతీయుల	-11.0201
ండర్	-11.0201
▁జాతీయోద్యమ	-11.0203
డైన	-11.0204
▁చేయు	-11.0204
▁వ్యయం	-11.0205
▁పోరాడ	-11.0206
శెట్టి	-11.0214
▁ఆద	-11.0217
సిన్	-11.0219
▁పెద్దగా	-11.0221
▁మిరప	-11.0222
గ్రామం	-11.0222
▁దీర్ఘ	-11.0224
▁జాబితాలో	-11.0224
▁కొంగ	-11.0228
.1925)	-11.0229
.1927)	-11.0229
▁అంతర్వేది	-11.0229
▁నాదెండ్ల	-11.0229
▁లచ్చన్న	-11.0229
▁వియత్నాం	-11.0229
▁క్రీడాకారిణి	-11.0229
▁ఇందిరాగాంధీ	-11.0229
▁జాలాది	-11.023
▁దర్శనీయ	-11.023
▁పండిస్తారు	-11.023
▁కొండవీడు	-11.023
▁ప్రచురణకర్త	-11.023
▁మతపరమైన	-11.0231
▁కాఫీ	-11.0231
▁గ్యాస్	-11.0233
▁విడుదలయ్యింది	-11.0234
▁తప్పకుండా	-11.0235
నాల	-11.0235
▁రావణుడు	-11.0236
▁మాత్రము	-11.0236
▁బాలీవుడ్	-11.0237
షాద్	-11.0239
▁టిప్పు	-11.0239
▁జంగ్	-11.024
▁Ra	-11.024
▁దత్తత	-11.024
▁1889	-11.0241
▁ఎవరైనా	-11.0241
▁మేజర్	-11.0241
ir	-11.0241
▁పెడన	-11.0243
▁సాంబశివరావు	-11.0247
▁కంభం	-11.0249
▁స్పేస్	-11.025
▁కలం	-11.025
▁సీతారాం	-11.0251
▁బలవంతంగా	-11.0255
▁ఎన్నికైనారు	-11.0255
▁దంత	-11.0255
▁పుట్టింది	-11.026
▁కష్టాలు	-11.0263
▁చేరు	-11.0266
▁సిద్ధాంతం	-11.0266
▁తులసి	-11.0269
▁ఆగ్నేయ	-11.0269
ేశ్వర్	-11.0275
▁పాలక	-11.0275
▁వర్గ	-11.0278
▁ఉండటంతో	-11.028
▁కీరవాణి	-11.0281
దట	-11.0286
▁బర్	-11.0286
ాయన	-11.0288
▁కోడూరు	-11.0288
▁చదువ	-11.0293
ండగా	-11.0293
రోజ	-11.0294
▁జీవుల	-11.0295
▁తేల	-11.0296
▁గదులు	-11.0302
▁బాలా	-11.0303
▁పడే	-11.0304
▁వేశారు	-11.0307
పోవ	-11.0307
కామ	-11.0308
మగు	-11.0313
▁లోకం	-11.0313
▁స్థితిలో	-11.0316
▁డై	-11.0317
విధంగా	-11.0317
▁కాంత	-11.0321
చోట్ల	-11.0322
▁శాసనాల	-11.0323
▁రైతుల	-11.0325
▁ఆర్మీ	-11.0331
బంధ	-11.0332
▁వున్నది	-11.0334
▁ప్రతిమ	-11.0335
▁మొదలై	-11.0338
▁ప్రేమించి	-11.0341
▁చేపలు	-11.0342
పత్రం	-11.0348
▁విభజించి	-11.0351
▁అవతార	-11.0352
▁గతి	-11.0352
▁స్వర్గ	-11.0358
దాకా	-11.0359
▁అనుభవం	-11.036
▁రాజశేఖర	-11.0361
▁గిరిజనుల	-11.0363
▁అమ్మాయిని	-11.0364
▁140	-11.0369
▁బానిస	-11.037
▁91	-11.0372
▁గుహల	-11.0376
ోత్సవ	-11.0377
పుల్	-11.0382
▁1925	-11.0382
▁కోల	-11.0382
▁రచించ	-11.0383
-6	-11.0385
▁థా	-11.0386
▁పత్రికను	-11.0388
▁అవమాన	-11.0392
ారాధన	-11.0398
పురాణ	-11.04
▁ప్రహ్లాద	-11.0404
టూ	-11.0404
ద్ది	-11.0405
▁ఉపగ్రహ	-11.0406
▁ప్రభుత్వము	-11.0411
▁బోధ	-11.0411
▁అనుభవించ	-11.0416
ెడి	-11.0418
▁పాల్గొన్న	-11.0423
▁బండ్	-11.0424
?)	-11.0425
▁కలగ	-11.0426
లేటి	-11.0433
▁మొదల	-11.0438
▁బీహారు	-11.0439
పని	-11.0443
▁పెట్టుబడి	-11.0443
నింగ్	-11.0443
▁సంగీతంలో	-11.0444
▁అబ్బాయి	-11.0444
▁పూలు	-11.0445
▁బల్ల	-11.0445
ప్పటికి	-11.0447
పల	-11.0453
▁ఆనవాయితీ	-11.0457
▁నెంబరు	-11.0457
▁పులివెందుల	-11.0457
▁దక్షిణాసియా	-11.0457
▁నిర్మూలన	-11.0457
▁పునరుద్ధరించ	-11.0457
▁ముఖర్జీ	-11.0457
▁హయాంలో	-11.0457
▁జస్టి	-11.0457
▁ఎడారి	-11.0457
▁ఒడిశా	-11.0457
▁తిమ్మాపూర్	-11.0457
▁స్వచ్ఛంద	-11.0457
▁త్రిపురనేని	-11.0457
▁మల్లాది	-11.0457
▁ఆత్మకథ	-11.0458
▁ఉద్భవించింది	-11.046
▁ముగిసింది	-11.046
▁ప్రతినిధి	-11.046
▁సందర్శకుల	-11.0462
ుడని	-11.0463
▁డయాబెటిస్	-11.0466
▁హక్కు	-11.0467
▁యాదాద్రి	-11.0468
▁జన్మించింది	-11.0468
▁ఇస్తాడు	-11.0469
▁చిక్కుడు	-11.047
▁భలే	-11.047
▁విశ్రాంతి	-11.0471
▁ఇష్ట	-11.0471
వచ్చి	-11.0472
▁వెంకన్న	-11.0473
▁94	-11.0473
▁నాయిక	-11.0474
▁చేసేవాడు	-11.0476
▁రామానాయుడు	-11.0481
▁ప్రపంచములో	-11.0481
▁చవితి	-11.0482
ఖి	-11.0483
ురాలిగా	-11.0483
▁ఉన్నట్టు	-11.0483
▁క్రైస్తవులు	-11.0483
▁కాసు	-11.0484
కన్న	-11.0484
డక	-11.0488
ుడనే	-11.0492
▁వెళ్ళారు	-11.0494
▁ఉత్పత్తులు	-11.0495
▁అందుకుంది	-11.0497
బడతాయి	-11.0498
▁ప్రెసిడెన్సీ	-11.0498
▁రాసే	-11.0499
▁వాయువు	-11.05
▁నిర్ణయ	-11.05
▁వేసే	-11.0502
నగ	-11.0503
▁నాటకరంగ	-11.0503
-11	-11.0506
▁పెన్	-11.0507
▁కృష్ణదేవరాయలు	-11.051
▁సంప్రదాయాలు	-11.0511
మయింది	-11.0512
▁దృష్టిలో	-11.0513
▁విభజించ	-11.0514
▁An	-11.0515
▁రాజైన	-11.0515
▁ఎదుర్కొన్న	-11.0519
▁ప్రదేశాలలో	-11.052
▁అపార	-11.052
▁మోసం	-11.0524
▁గట్టి	-11.0527
▁కాకినాడలో	-11.0529
▁కల్పనా	-11.0529
ఱు	-11.053
▁విమోచన	-11.053
▁వినియోగించ	-11.0533
▁96	-11.0534
▁1927:	-11.0534
▁మొక్కలు	-11.054
▁వాల్	-11.0543
▁ఆనందం	-11.0543
పుల్లయ్య	-11.0549
▁వాటా	-11.0552
అక్కినేని	-11.0552
డిసెంబరు	-11.0552
▁అన్నింటి	-11.0552
అనగా	-11.0554
▁సింహాసన	-11.0557
యోగి	-11.0557
▁రసాయనం	-11.056
సూర్య	-11.056
కట	-11.0561
▁కుంట	-11.0561
▁ఆలయము	-11.0562
▁లోహ	-11.0564
డిగా	-11.0568
స్తాన్	-11.0569
▁వస్తు	-11.0571
▁భారతదేశములో	-11.0571
▁శివలింగ	-11.0572
▁దొరక	-11.0572
▁జంతువులు	-11.0573
▁శ్రీశైల	-11.0575
▁సౌ	-11.0577
కారు	-11.0578
ోద్యమంలో	-11.0578
▁మూడ	-11.0586
▁కలశ	-11.0589
మల	-11.0592
▁నందన	-11.0595
దృ	-11.0595
భాషా	-11.0598
▁భవనాల	-11.0599
శిల	-11.0599
▁మకర	-11.06
ెర్	-11.0607
▁రక్తం	-11.0609
▁తరం	-11.061
▁వైద్యం	-11.061
▁మలయాళం	-11.0611
ేశారు	-11.0611
▁శవ	-11.0612
▁సత్యాగ్రహం	-11.0613
▁రచనా	-11.0614
3)	-11.0617
▁వ్యవహరిస్తార	-11.0622
వేసి	-11.0623
▁g	-11.0625
▁కవిత్వ	-11.0626
▁తీర్చిదిద్ద	-11.0627
▁గీతం	-11.0627
▁స్టా	-11.0627
▁కార్యాలయాలు	-11.0631
▁1,0	-11.0634
▁వ్యాకరణ	-11.0637
▁నేరం	-11.0639
గీ	-11.0643
▁అరబ్	-11.0644
▁ప్రయాణీకుల	-11.0647
▁నిమిషాల	-11.0648
రించి	-11.0648
▁పురి	-11.0653
▁చర్చించ	-11.0657
▁రాజుకు	-11.0657
మయ్యింది	-11.066
▁800	-11.0661
▁వెంకటాద్రి	-11.0661
ర్తి	-11.0663
▁మల్లె	-11.0666
▁కొడ	-11.0668
వాదం	-11.0671
▁కృష్ణదేవరాయల	-11.0672
పోయాయి	-11.0678
▁కాన	-11.0683
▁కేంద్రాల	-11.0686
ాభిషేకం	-11.0688
▁వక్త	-11.0688
▁పాతాళ	-11.0689
.1918)	-11.0689
.1933)	-11.0689
▁గ్రూప్	-11.0689
▁తాడిపత్రి	-11.0689
▁తాతినేని	-11.0689
▁నెమ్మదిగా	-11.0689
▁మొక్కజొన్న	-11.0689
▁రాయచోటి	-11.0689
▁జ్ఞాపకార్థం	-11.0689
▁గ్రానైట్	-11.0689
▁కెమెరా	-11.0689
▁నమూనా	-11.0689
▁పేటెంట్	-11.0689
▁పెరుగుదల	-11.069
▁సరికొత్త	-11.069
▁గట్టు	-11.069
▁భాషావేత్త	-11.0691
▁ప్రతిరోజూ	-11.0691
▁ఫ్ర	-11.0692
▁సాగుతుంది	-11.0692
▁1907	-11.0692
▁గోపాలరెడ్డి	-11.0694
▁కుమారుడైన	-11.0694
ోదయ	-11.0694
▁1904	-11.0697
▁వ్యవహరించాడు	-11.0698
▁సత్రం	-11.0699
▁1897	-11.07
▁కోరిన	-11.0702
▁స్టాక్	-11.0703
▁ఎడ	-11.0703
▁1860	-11.0703
▁సారస్వత	-11.0704
▁కలిసిన	-11.0704
▁లారీ	-11.0705
▁అమ	-11.0706
▁బిలియన్	-11.0706
▁ఉద్	-11.0707
▁వినాయకుడు	-11.0708
▁పవిత్రమైన	-11.0709
▁నార్క	-11.0709
▁వ్యాఖ్యాత	-11.0711
▁నటుడిగా	-11.0711
▁కథకు	-11.0714
▁సమూహం	-11.0717
▁జెండా	-11.0717
▁Indian	-11.0719
▁కోరస్	-11.0721
▁కల్పన	-11.0721
▁నిర	-11.0725
ోత్తర	-11.0725
▁అయ్యారు	-11.0726
▁అధికసంఖ్య	-11.0733
▁భర్తను	-11.0735
▁పేర్లతో	-11.0736
▁వేలు	-11.0737
▁పార్టీలు	-11.0737
▁శారదా	-11.0741
▁దక్కను	-11.0742
▁పేరుపొందిన	-11.0749
▁రమ్య	-11.0749
యని	-11.0756
మాం	-11.0759
▁వైకుంఠ	-11.0761
▁1898	-11.0762
▁కేరళలో	-11.0764
▁98	-11.0764
▁మీనా	-11.0768
▁ఎత్తి	-11.0769
▁సూర్యుని	-11.0774
▁దేవాలయంలో	-11.0776
నంత	-11.0776
▁పరిశోధనల	-11.0777
▁ప్రభు	-11.0777
▁కరి	-11.0779
▁గోడల	-11.078
బెట్టి	-11.078
▁పార్వతీపురం	-11.0781
టువంటి	-11.0782
ార్థం	-11.0782
దనీ	-11.0783
▁దైవం	-11.0783
▁కవితలు	-11.0783
▁అమాయక	-11.0786
భద్ర	-11.0788
▁పీవీ	-11.0789
మొత్తం	-11.079
న్యాస	-11.079
జనవరి	-11.0791
▁మధ్యయుగ	-11.0798
సుందరి	-11.0801
▁కల్యాణ	-11.0801
▁రామన్	-11.0808
▁ఉపయోగించిన	-11.0808
▁జరిపి	-11.081
▁సగం	-11.0815
రింగ్	-11.0815
రాజేంద్ర	-11.082
ఘ్	-11.0821
▁మొత్త	-11.0822
▁రహ	-11.0825
సత్య	-11.0827
▁కెనడా	-11.0831
▁105	-11.0832
▁దేశాలకు	-11.0837
▁భువన	-11.0838
▁శైలజ	-11.0839
▁ప్రస్తుతము	-11.0843
1914	-11.0844
▁తినే	-11.0845
▁ఎకరాలు	-11.0849
ఖాన్	-11.0851
▁మించిన	-11.0851
▁కుమార్తెలు	-11.0851
▁1928	-11.0851
▁వర్తక	-11.0854
ోద్యమ	-11.0856
▁కలిగింది	-11.0856
▁ఛాయ	-11.0857
▁సంస్థానంలో	-11.0857
▁సభ్యులుగా	-11.086
ాలంకార	-11.0864
▁ప్రదేశము	-11.0868
చ్చిన	-11.0872
▁మరణించ	-11.0873
▁కాల్చి	-11.0874
▁నిర్వహిస్తున్న	-11.0874
▁గురువులు	-11.0875
▁చెడు	-11.0878
మిన్	-11.0881
▁లయ	-11.0882
మాసం	-11.0887
▁స్థ	-11.089
▁పొడ	-11.0892
ాన్సీ	-11.0896
▁సమకూర్చ	-11.0899
▁గోధుమ	-11.0901
▁సిద్ధాంత	-11.0902
ాగ్ని	-11.0902
▁మాధ్యమం	-11.0904
▁విరాళం	-11.0906
▁గుడిలో	-11.0908
▁చదివే	-11.0911
ానా	-11.0912
పేర	-11.0913
▁పోయే	-11.0915
నరసింహ	-11.0918
▁స్థూల	-11.0919
చిత్రం	-11.0921
▁రాధిక	-11.0923
▁వెయ్య	-11.0924
▁రమ్మ	-11.0924
▁జార్జి	-11.0925
▁శ్రావణ	-11.0927
.1923)	-11.0927
▁ఒత్తిడి	-11.0927
▁బెనర్జీ	-11.0927
▁భట్టిప్రోలు	-11.0927
▁మరుసటి	-11.0927
▁నగదు	-11.0927
▁దాద్రా	-11.0927
▁ఖైదు	-11.0928
▁అభినయ	-11.0928
▁కాలక్రమంలో	-11.0928
ప్రజాప్రతినిధులు	-11.0928
▁ట్రస్ట్	-11.0928
▁వెంకటేశ్వర్లు	-11.0928
.1940)	-11.0928
.2004)	-11.0929
▁మొల్ల	-11.0929
▁నివృత్తి	-11.0929
▁చేశాయి	-11.0929
▁టీవీ	-11.093
.2008)	-11.093
▁చేస్తాయి	-11.093
▁ఆమోదించింది	-11.093
▁కొరియా	-11.0931
▁పరిగణించ	-11.0932
▁సామ	-11.0933
▁తెలిపాడు	-11.0934
▁సామ్యవాద	-11.0934
▁చదివాడు	-11.0934
▁రోజా	-11.0935
డుతూ	-11.0935
▁ఆయిల్	-11.0936
▁ఇండోనేషియా	-11.0936
▁వ్యావహారిక	-11.0936
▁కార్యక్రమాన్ని	-11.0936
▁ప్రతిజ్ఞ	-11.0936
▁మహారాణి	-11.0936
▁మన్యం	-11.0937
▁అనుకూలంగా	-11.0937
▁ఎన్నికైంది	-11.0937
గంగ	-11.0937
▁కొలంబియా	-11.0939
▁స్థానాన్ని	-11.0939
▁నకు	-11.0939
▁1899	-11.094
▁అమర్	-11.094
▁విడిది	-11.0941
▁నాల్గవ	-11.0942
▁సీతారాముల	-11.0943
▁బాలరాజు	-11.0946
▁మరణానికి	-11.0946
▁కుంభ	-11.0947
▁కిరణ్	-11.0947
▁నడక	-11.0948
▁గణేష్	-11.0949
▁శ్రీకృష్ణుని	-11.095
▁అన్నం	-11.0951
▁నాగభూషణం	-11.0952
▁పంపి	-11.0952
▁సంస్థకు	-11.0952
▁సాంప్రదాయం	-11.0953
▁ఉంటున్న	-11.0955
▁ప్రసారాలు	-11.0956
▁దృశ్య	-11.0958
▁శాస్త్రజ్ఞుడు	-11.0958
కోన	-11.0958
▁బాస	-11.0962
▁భాగస్వామ్యం	-11.0964
▁తిమ్మ	-11.0965
pp	-11.0967
ులయ్యారు	-11.0968
▁మన్న	-11.0968
▁మహేంద్ర	-11.0969
1974)	-11.0969
▁అతిథి	-11.097
దంతా	-11.0973
భావం	-11.0975
▁సోదరుల	-11.0975
▁గడ్డ	-11.0976
▁డిపో	-11.0978
▁పెరుగుతున్న	-11.0978
▁వార్తలు	-11.0979
▁వేగ	-11.0986
▁లై	-11.0989
ru	-11.0991
▁ఒకదాని	-11.0991
▁లక్షణాల	-11.0994
▁కపిల	-11.0994
▁మధ్యన	-11.0995
▁భోజన	-11.0995
సాగారు	-11.0995
ెట్	-11.0996
గుర్తించబడుతుంది	-11.0997
▁ప్రవేశపెట్టిన	-11.0997
ారట	-11.0997
▁దేవర	-11.1
▁హొ	-11.1001
▁ఉండవచ్చును	-11.1003
▁సుందరి	-11.1004
ేశ్వరి	-11.1007
▁ముఖ్యము	-11.1014
▁స్తంభం	-11.1014
పడతారు	-11.1015
▁పరిస్థితులు	-11.1019
ప్పుడే	-11.102
▁స్వామికి	-11.1021
ary	-11.1024
కాంత్	-11.1025
▁పొందినది	-11.1025
▁!	-11.1026
▁పచ్చి	-11.1028
జ్యోతి	-11.1028
▁ప్రశంస	-11.1029
భారతదేశం	-11.103
హర	-11.1031
▁మహాదేవ	-11.1031
▁చిలకలూరిపేట	-11.1033
ాకార	-11.1035
నటుడు	-11.1037
కపోవడంతో	-11.1039
▁సమయములో	-11.104
▁సాగి	-11.1042
▁ఆమోదించ	-11.1042
▁సుందరం	-11.1045
▁బయలుదేర	-11.1049
▁నాయ	-11.1053
లుగు	-11.1054
▁అమ్మా	-11.1057
▁పరిశీలించ	-11.1059
▁తోటి	-11.1059
▁ఇప్పటికి	-11.1059
▁వాడిన	-11.1059
▁శోభ	-11.1061
▁మాతృ	-11.1061
▁కేటాయించ	-11.1063
ప్రస్తుతం	-11.1067
నక	-11.1067
▁వీరభద్ర	-11.1067
వైద్య	-11.1069
పడ్డ	-11.107
▁వున్నాయి	-11.1077
▁కార్యక్రమాల	-11.1077
▁పరిమితం	-11.1079
▁రహస్యం	-11.1084
▁బంధించి	-11.1087
▁సమగ్ర	-11.1088
▁పాలనను	-11.1088
కూర	-11.1088
▁రావే	-11.109
▁సంగ్రహ	-11.1093
▁1927	-11.1097
▁నవ్వు	-11.1098
▁హాస్యం	-11.11
దానం	-11.1102
ుండ	-11.1103
▁సంస్కృతికి	-11.1105
▁తండ్రిని	-11.1106
▁యాదవ	-11.1109
▁సీతారామయ్య	-11.1112
వర్గం	-11.1115
కంగా	-11.1115
▁చేసుకునే	-11.1124
▁చల్లపల్లి	-11.1129
▁దక్క	-11.1131
▁కూలి	-11.1133
te	-11.1134
▁వధ	-11.1136
▁సమర్పించిన	-11.1137
▁యాత్రికుల	-11.1141
▁శిల్పకళ	-11.1142
▁చేయుట	-11.1148
▁పేర్కొన్న	-11.115
▁కొట్టు	-11.1152
ళా	-11.1152
▁బిలియన్ల	-11.1154
కాదు	-11.1156
▁88	-11.1158
▁ముస్లింల	-11.1159
▁1988:	-11.116
3%	-11.1164
▁క్షీర	-11.1165
▁జటప్రోలు	-11.1171
▁ఫౌండేషన్	-11.1171
▁బీజాపూరు	-11.1171
▁మొహమ్మద్	-11.1171
▁సంఘసంస్కర్త	-11.1171
▁ముంబాయి	-11.1171
▁ఘరానా	-11.1171
▁నమః	-11.1171
.1994)	-11.1171
▁తెలుగునాట	-11.1171
▁ఆశ్రయం	-11.1171
▁నరహరి	-11.1171
▁గర్భవతి	-11.1172
▁పునాది	-11.1172
▁సూచిస్తుంది	-11.1172
▁ట్రాన్స్	-11.1172
▁కొలువై	-11.1172
▁పిల్లలమర్రి	-11.1172
▁మారుతీరావు	-11.1172
▁దేవరకొండ	-11.1172
▁రామగుండం	-11.1172
▁మూసీ	-11.1172
▁కథారచయిత	-11.1172
▁పేరుగాంచిన	-11.1173
▁ఎదుట	-11.1173
▁హైదర్	-11.1173
▁తగ	-11.1174
▁రెండింటి	-11.1174
▁ఉక్కు	-11.1175
▁రేపల్లె	-11.1175
▁వనవాస	-11.1175
▁నాగపూర్	-11.1176
▁ఇరాక్	-11.1176
▁ప్రేమిస్తాడు	-11.1176
▁సిద్ధం	-11.1177
▁ఆదుర్తి	-11.1177
.2009)	-11.1178
▁బ్రాడ్	-11.1178
▁వినియోగదారుల	-11.118
▁ఆఫ్ఘనిస్తాన్	-11.118
▁జీవనం	-11.118
▁విజయనిర్మల	-11.118
▁పాఠకుల	-11.118
▁గుంట	-11.1181
▁తెలుసుకొని	-11.1182
▁రాయచూరు	-11.1183
▁Telugu	-11.1187
▁వన్నె	-11.1187
▁లింగాల	-11.1187
ావళి	-11.1188
▁బెల్లం	-11.1189
▁నియామకం	-11.119
వారిలో	-11.119
▁115	-11.1194
▁వంశస్థులు	-11.12
▁తయార	-11.12
కారి	-11.1201
▁వన	-11.1202
▁కొద్దిగా	-11.1204
▁ప్రక్కనే	-11.1207
▁వాన	-11.1207
▁బ్రహ్మన్న	-11.1207
▁దుర్గం	-11.1208
ుద్దీన్	-11.1208
▁ఉంచారు	-11.1208
▁చోళులు	-11.1209
▁బ్రహ్మానందం	-11.1213
▁విధానాల	-11.1215
రాజ్యం	-11.1215
▁వస్తూ	-11.1215
▁తెలియకుండా	-11.1215
గర	-11.1219
▁రాజ్యంగా	-11.122
▁చూస్తున్న	-11.1221
దిగా	-11.1222
▁b	-11.1224
''	-11.1226
హాస	-11.1229
▁జనగామ	-11.123
▁విశ్వవిద్యాలయము	-11.123
▁మగధ	-11.1232
▁ఫ్రీ	-11.1233
▁చేస	-11.1233
▁నల్లమల	-11.1238
▁దేవరాయలు	-11.1239
▁కొలువు	-11.1241
సంగీత	-11.1242
పోవడం	-11.1245
-30	-11.1245
ప్రస్తుత	-11.1246
▁అప్	-11.1246
▁పద్యాలను	-11.1247
▁వహించగా	-11.1248
▁నోటి	-11.1249
▁రథ	-11.125
▁వరదల	-11.1253
▁పొట్ట	-11.1256
▁ముద్ద	-11.1256
▁జ్యోతిష	-11.1257
▁ప్రాంతంగా	-11.1257
▁2004:	-11.1258
స్థితి	-11.1259
తలు	-11.1259
▁మదన్	-11.126
▁v	-11.1261
▁అయ్యప్ప	-11.1263
▁ఇచ్చట	-11.1265
▁గ్ర	-11.1267
▁నందు	-11.1267
▁చర్చ	-11.1272
బొ	-11.128
మంగళ	-11.1283
▁సాహిత్యము	-11.1283
▁జన్మించి	-11.1284
స్వరూప	-11.1285
▁పడ్డ	-11.1287
▁సైనికుల	-11.1287
గ్రహ	-11.129
పద్మ	-11.129
▁చు	-11.1291
ాడో	-11.1293
యుడు	-11.1293
▁రచనల్లో	-11.1294
వుంది	-11.1294
▁జీవించ	-11.1296
▁పాత్రకు	-11.13
రిక్	-11.1302
▁నాట	-11.1303
▁బంగాళాఖాతం	-11.1304
ీర్	-11.1311
▁జలాల	-11.1311
▁మది	-11.1311
▁కరుణ	-11.1312
▁ఎకరాలకు	-11.1313
▁పండగ	-11.1314
▁సెల్	-11.1316
▁1903	-11.1319
▁సందర్శించి	-11.1319
▁యో	-11.1321
స్థానంలో	-11.1321
▁అన్నది	-11.1323
▁ఇల్ల	-11.1325
▁f	-11.1329
కాలువ	-11.1329
▁దుష్ట	-11.1329
ro	-11.1331
▁డాలర్ల	-11.1331
▁ఏళ్ల	-11.1332
ములకు	-11.1334
ాల్ని	-11.1335
▁దొ	-11.1342
ీలు	-11.1344
▁దంపతుల	-11.1344
ార్ధం	-11.1346
▁1924	-11.1347
▁స్నాన	-11.1348
ine	-11.1348
▁కీలకమైన	-11.135
రీస్	-11.1353
▁అడవుల	-11.1354
▁పోసి	-11.1354
▁విభిన్న	-11.1357
▁నిష్	-11.1358
▁1996:	-11.1361
▁ఉపదేశించ	-11.1362
▁సింధూ	-11.1363
▁2020:	-11.1365
▁అవసరాలకు	-11.1367
▁అయిదు	-11.1367
-17	-11.1369
ింపజేస	-11.1369
▁భార	-11.1369
▁వెలువడ	-11.137
క్షేత్రం	-11.1374
▁దానిపై	-11.1377
▁శ్రీకృష్ణదేవరాయ	-11.1381
▁మీకు	-11.1384
▁ముగింపు	-11.1386
▁గది	-11.1387
▁వాహన	-11.1387
సుల	-11.139
యత్	-11.1391
▁ప్రతిభా	-11.1391
స్వాతంత్ర్యోద్యమ	-11.1393
▁చుక్క	-11.1395
దేవర	-11.1395
కౌ	-11.1399
పట	-11.1399
▁దీన	-11.1399
▁జొన్న	-11.14
ముని	-11.1402
▁పెరగ	-11.1405
యాత్ర	-11.1406
▁టూ	-11.1407
ష్టి	-11.1408
▁చర్యల	-11.1409
▁పదము	-11.141
▁స్టుడియో	-11.1411
లింగ్	-11.1411
హర్	-11.1414
▁కథలో	-11.1416
▁వెంకటరమణ	-11.142
▁మినహా	-11.1421
.11.10.2016	-11.1421
.1972)	-11.1421
▁ఎగ్జిక్యూటివ్	-11.1421
▁పంజాబీ	-11.1421
▁ఫ్రాన్సు	-11.1421
▁రావట్లేదు	-11.1421
▁వగైరా	-11.1421
▁వాగ్గేయకారుడు	-11.1421
▁సరాసరి	-11.1421
▁సికింద్రాబాదు	-11.1421
▁ఘనవిజయం	-11.1421
▁సిద్దిపేట	-11.1421
▁తాళ్ళపాక	-11.1421
▁గణతంత్ర	-11.1421
▁చెళ్ళపిళ్ళ	-11.1421
▁పూజయామి	-11.1421
▁ఖ్యాతి	-11.1421
▁ఫెడరేషన్	-11.1421
▁సుభాష్	-11.1422
▁సృష్టికర్త	-11.1422
.2002)	-11.1422
▁ఆవిరి	-11.1422
.1921)	-11.1422
▁నెలకొని	-11.1422
▁ఓపెన్	-11.1423
.2007)	-11.1423
▁తలసరి	-11.1423
▁మైక్రోసాఫ్ట్	-11.1423
▁ప్రవేశపెట్ట	-11.1424
▁శృంగేరి	-11.1424
▁తన్నో	-11.1426
▁రావడానికి	-11.1426
▁అన్నమాచార్య	-11.1426
▁చంద	-11.1426
▁మారుతుంది	-11.1427
▁ఉండాలని	-11.1427
▁నిర్మితమైన	-11.1427
▁ఆడియో	-11.1428
దాం	-11.1428
ya	-11.1428
▁అనువదించాడు	-11.1429
▁ధ్వంసం	-11.1429
భూత	-11.143
▁పరా	-11.1431
▁తీగ	-11.1432
▁రెండూ	-11.1432
▁మొక్కులు	-11.1433
▁వాని	-11.1433
▁మార్కండేయ	-11.1434
▁గ్రహీతలు	-11.1435
▁కట్టా	-11.1437
▁శుక్ల	-11.1438
▁మరిన్న	-11.1439
లత	-11.144
-4	-11.1441
లందు	-11.1441
విశ్వ	-11.1443
▁మనోహర్	-11.1444
▁కుమారి	-11.1447
▁జొన్నలు	-11.1447
పార	-11.1447
▁పాలించాడు	-11.1449
▁1893	-11.1449
id	-11.145
▁మాఘ	-11.1451
▁సవాలు	-11.1452
▁దేవాలయాల	-11.1454
▁పెంపకం	-11.1455
▁రారా	-11.1456
▁....	-11.1456
లంక	-11.1457
▁నీటిలో	-11.1462
▁ఆమోదం	-11.1462
▁ప్యా	-11.1464
▁నిర్మాతగా	-11.1466
▁గఢ్	-11.1469
▁సూర్యం	-11.1471
▁పారి	-11.1472
▁పదార్థాలు	-11.1474
జాక్	-11.1479
▁రూపము	-11.1479
▁ద్వీపాలు	-11.1481
▁పర్యటన	-11.1489
%),	-11.1492
▁అవధాన	-11.1495
▁నిధులు	-11.1497
▁భాగాలుగా	-11.1498
▁సేవలను	-11.1498
▁బహిష్కరించ	-11.1499
▁మాతృక	-11.1501
▁విదేశాలలో	-11.1503
▁175	-11.1503
▁కంది	-11.1504
తడు	-11.1508
▁మైదాన	-11.1515
▁అవు	-11.1516
▁మందిరాలు	-11.1519
సెస్	-11.1521
▁కోమల	-11.1522
▁నిమ్మ	-11.1522
▁త్రవ్వ	-11.1527
▁ఇంటిలో	-11.1531
▁సిరిసిల్ల	-11.1531
▁ఫలితాల	-11.1535
▁పద్ధతుల	-11.1539
▁కాలు	-11.154
▁కులం	-11.154
ఘంటసాల	-11.1541
వరలక్ష్మి	-11.1541
శైలజ	-11.1545
మొదటి	-11.1546
▁రాయుడు	-11.1548
▁శుక్ర	-11.1552
▁పూర్వము	-11.1555
కొనే	-11.1558
▁భార్యలు	-11.1563
▁బ్లాగుల	-11.1564
▁ఇత	-11.1566
ప్రాంతంలో	-11.1567
మెర్	-11.1568
.2016	-11.1572
▁పురాణము	-11.1572
▁రాజకీయాల్లో	-11.1577
▁ప్రయత్నించ	-11.1578
నుకుని	-11.1588
7,	-11.1593
భక్తి	-11.1597
▁అయినది	-11.1597
▁శిఖరం	-11.1602
మండలం	-11.1604
▁ఒప్ప	-11.1606
▁పాదం	-11.1606
1967)	-11.1608
మన్న	-11.1609
▁1993:	-11.1609
పంచ	-11.1612
▁వార్త	-11.1619
▁గ్రహించ	-11.1619
కూట	-11.162
▁పాడే	-11.1621
▁కోన	-11.1622
యితే	-11.1623
నియన్	-11.1625
▁నిర్మాణాల	-11.1626
▁చందా	-11.1627
భారతి	-11.1628
సులు	-11.1631
వీధి	-11.1633
▁రాధను	-11.1633
జీవ	-11.1633
▁గణేశ	-11.1635
తాయని	-11.1636
▁గదిలో	-11.1637
▁ఎన్నికై	-11.1639
▁దాదాపుగా	-11.164
▁మల	-11.164
")	-11.1643
రీతి	-11.1643
వారీ	-11.1645
▁ఆచార	-11.1646
▁రాగం	-11.1647
▁విభాగాలు	-11.1647
రాస	-11.1652
▁118	-11.1653
▁అవసరమై	-11.1654
▁విలాస	-11.1654
▁భజన	-11.1654
▁ఆంగ్లేయుల	-11.1656
▁దర్శకత్వ	-11.1658
▁నిలబెట్ట	-11.1659
▁1995:	-11.1659
య్యే	-11.1664
▁కల్లు	-11.1665
▁ప్రార్థన	-11.1667
▁టాకీ	-11.1668
▁మరు	-11.1669
▁సహకరించ	-11.1671
ార్ఖండ్	-11.1676
▁కారం	-11.1676
▁అన్నసమారాధన	-11.1678
▁కాళోజీ	-11.1678
▁చేబ్రోలు	-11.1678
▁జాషువా	-11.1678
▁తక్కిన	-11.1678
▁ధోరణి	-11.1678
▁బూర్గుల	-11.1678
▁మొరార్జీ	-11.1678
▁సామూహిక	-11.1678
▁సింగరేణి	-11.1678
▁విండోస్	-11.1678
▁పరిశీలన	-11.1678
▁సైన్సు	-11.1678
▁గాంధేయవాది	-11.1678
▁రాచరిక	-11.1678
▁ఆర్గనైజేషన్	-11.1678
▁బూడిద	-11.1678
▁పొగాకు	-11.1678
▁వేమూరి	-11.1678
మార్లు	-11.1678
▁వహిస్తుంది	-11.1678
▁హిమాచల	-11.1678
▁టెస్ట్	-11.1679
▁వుండి	-11.1679
▁బాబూరావు	-11.1679
▁వేశ్య	-11.168
▁రక్షిస్త	-11.1681
]]	-11.1681
▁సాయం	-11.1681
▁జరుగ	-11.1682
▁ఇనుము	-11.1683
▁అభిప్రాయము	-11.1683
▁జగ్గయ్యపేట	-11.1683
▁తలెత్త	-11.1683
▁చక్క	-11.1684
▁ఇవ్వబడింది	-11.1684
▁పాల్గొంటారు	-11.1684
▁రౌ	-11.1684
▁నియమించ	-11.1685
▁నవీన	-11.1686
▁గ్రామస్తుల	-11.1687
దై	-11.1689
▁1880	-11.1694
▁రావ	-11.1697
▁సాధించాయి	-11.1697
▁ఉద్దేశంతో	-11.1698
▁భిన్న	-11.1704
▁పదార్థాల	-11.1704
▁ఆభరణాలు	-11.1704
▁లేత	-11.1705
▁రూపాయి	-11.1705
▁శతదినోత్సవం	-11.1706
▁సామ్రాజ్యము	-11.1706
▁నిషేధించ	-11.171
▁వారసుడు	-11.1712
▁భాను	-11.1712
▁106	-11.1712
▁సరిహద్దులుగా	-11.1713
▁చనిపోయిన	-11.1715
▁కాలంనాటి	-11.1718
▁యన్	-11.172
▁కోడలు	-11.1721
▁ఆరోపణలు	-11.1723
▁మునిగి	-11.1724
▁వాణీ	-11.1724
ెడు	-11.1729
▁పాండవులు	-11.1731
▁సుభద్ర	-11.1735
▁విధానంలో	-11.1736
ెన్నో	-11.1738
▁పురుషోత్తమ	-11.174
ోత్	-11.1741
▁బౌద్ధమతం	-11.1741
▁పెద్దాపురం	-11.1751
▁చేరారు	-11.1752
▁అనుబంధం	-11.1752
▁అందం	-11.1753
▁నడవ	-11.1754
▁విమల	-11.1757
▁ప్రతిష్ఠాత్మక	-11.1759
▁పర్యాటకులు	-11.1763
▁శిర	-11.1764
▁తీసే	-11.1772
రాతి	-11.1778
▁పెద్దన	-11.1778
ిస్తాయి	-11.1779
▁పాయ	-11.1781
▁సూచించ	-11.1785
▁స్థానికులు	-11.1787
▁చెన్నకేశవస్వామి	-11.1788
▁సింహం	-11.1794
▁నూరు	-11.1795
▁ఇతరులు	-11.1795
రిగి	-11.1795
హె	-11.1798
ావా	-11.1799
చలపతిరావు	-11.1801
▁రాజన్	-11.1802
▁చేయగల	-11.1802
▁నిషేధ	-11.1803
▁కరిగి	-11.1804
ree	-11.1809
మిక్	-11.1812
▁పరిష్కరించ	-11.1814
▁’	-11.1815
వాలా	-11.1816
రాయ్	-11.1817
▁దక్ష	-11.182
రమణ	-11.1821
▁పొర	-11.1823
▁తాటి	-11.1825
▁తోడ	-11.1825
▁వదల	-11.1827
వత	-11.1827
▁తీసుకునే	-11.1835
-21	-11.1836
▁126	-11.1839
ీస్	-11.1841
▁నరక	-11.1852
▁(15	-11.1852
▁నిధి	-11.1853
▁వెలుపల	-11.1858
▁బస్సుల	-11.1859
▁పర్వ	-11.186
▁మొహ	-11.1862
▁యుగ	-11.1862
పడతాడు	-11.1862
▁పెట్టె	-11.1865
▁కృతి	-11.1867
▁144	-11.1868
ఖే	-11.1868
దార్	-11.1876
▁ఉగ్ర	-11.1877
▁అనుగ్రహ	-11.1878
ేశ్వరుడు	-11.1878
ిరి	-11.1879
▁పుట	-11.188
▁బావా	-11.1881
అంత	-11.1882
▁సమావేశాల	-11.1882
బడుతున్నాయి	-11.1885
▁ధనం	-11.1887
మారు	-11.189
▁ప్రభుత్వాలు	-11.189
▁అం	-11.1892
▁అనురాగ	-11.1893
▁నాటకాల	-11.1895
▁తాలూకాలు	-11.1896
op	-11.1899
▁భార్యను	-11.19
రూపం	-11.19
▁గ్రామస్థుల	-11.1903
▁or	-11.1905
▁తగు	-11.1907
పాటలు	-11.1911
ల్లె	-11.1912
▁రాజకీయాలలో	-11.1913
▁సామెత	-11.1915
▁ఆలయాల	-11.1918
▁పట్టణాల	-11.1919
▁అనుమతించ	-11.1925
▁మలచ	-11.1925
▁ప్రేమను	-11.1929
▁బ్లాగులు	-11.193
▁గడి	-11.193
ాచారి	-11.1931
▁పౌ	-11.1933
ట్ర	-11.1933
▁సంకేతం	-11.1935
▁ఎక్కి	-11.1936
ెస్ట్	-11.1937
▁l	-11.1938
.1904)	-11.1941
▁న్యూక్లియర్	-11.1941
▁పార్వతమ్మ	-11.1941
▁మౌలానా	-11.1941
▁వివాదాస్పద	-11.1941
▁శకుంతల	-11.1941
▁స్పెయిన్	-11.1941
▁సర్పంచ్	-11.1941
▁అభివర్ణించ	-11.1941
▁మిషనరీ	-11.1941
▁డేవిడ్	-11.1941
▁ఒకానొక	-11.1941
▁పిమ్మట	-11.1941
▁బనగానపల్లె	-11.1941
▁ఎత్తయిన	-11.1941
▁హీరోయిన్	-11.1941
▁ఉయ్యాలవాడ	-11.1941
▁వాయువ్య	-11.1941
▁పర్వతాల	-11.1941
▁సంకలనకర్త	-11.1941
▁బహుమనీ	-11.1941
▁గండికోట	-11.1941
▁పాలమూరు	-11.1942
▁ఆర్మూర్	-11.1942
.1996)	-11.1942
▁దుంప	-11.1942
▁రాష్ట్రాన్ని	-11.1942
▁మాట్లాడుతారు	-11.1942
▁తెలుసుకుంటాడు	-11.1942
▁రఘుపతి	-11.1942
▁రాజ్యలక్ష్మి	-11.1942
co	-11.1943
▁కార్యక్రమాలలో	-11.1946
లపాటి	-11.1946
▁రబీ	-11.1946
▁వాడుతారు	-11.1946
▁నిర్మించబడ్డాయి	-11.1947
▁ఫెర్	-11.1947
▁పాత్రధారులు	-11.1947
▁చిన్నారి	-11.1947
▁సారథి	-11.1948
▁కార్యక్రమానికి	-11.1948
▁పన్నెండు	-11.1948
▁విద్యాభ్యాసం	-11.1948
▁నారదుడు	-11.1949
▁పడవ	-11.1949
పోయాడు	-11.1951
▁వ్యవహరించారు	-11.1951
▁మమత	-11.1952
▁మాతృభాష	-11.1954
▁1892	-11.1954
▁హనుమంతు	-11.1954
▁పిలుపు	-11.1955
▁చేపట్టింది	-11.1955
▁నడిపించ	-11.1956
దానికి	-11.1959
▁మహోత్సవాలు	-11.1959
▁భావించాడు	-11.196
▁వాహినీ	-11.1961
▁హరిశ్చంద్ర	-11.1961
▁ఇబ్రహీంపట్నం	-11.1962
▁టిబెట్	-11.1963
▁ప్రదేశాన్ని	-11.1964
పృ	-11.1964
▁గార్	-11.1966
▁తెలిసింది	-11.1966
▁చిన్నతనంలో	-11.1968
▁సిద్ధి	-11.1968
్లు	-11.1971
▁వికారాబాద్	-11.1972
▁విద్యాసంస్థలు	-11.1973
▁చేయి	-11.1973
▁యాదవ్	-11.1974
▁స్పష్టంగా	-11.1976
▁కాగ	-11.1976
▁చిహ్నంగా	-11.1978
▁హల్	-11.1978
ింటి	-11.1981
▁వేప	-11.1981
పట్టణ	-11.1982
వెన్	-11.1982
▁కేంద్రాలలో	-11.1983
▁రసం	-11.1983
▁పదానికి	-11.1986
▁మున్సిపల్	-11.1987
పురము	-11.1987
స్థల	-11.1989
▁నీవ	-11.1991
▁పంపాడు	-11.1992
▁కీర్తించ	-11.1995
గలిగిన	-11.1996
వటానికి	-11.1996
▁యూనిట్	-11.1997
▁బుట్ట	-11.1998
▁బోధించ	-11.1998
▁మురళి	-11.1999
▁పరిజ్ఞానం	-11.1999
టమే	-11.1999
▁విధమైన	-11.2
▁బలం	-11.2001
ింపబడింది	-11.2001
▁స్నేహితులు	-11.2003
▁వస్త్రాల	-11.2003
▁వచ్చ	-11.2003
▁ప్రకాశరావు	-11.2003
▁మిగిలి	-11.2005
▁బహ	-11.2009
▁వాహనాలు	-11.2013
▁గడ	-11.2022
▁సిక్కు	-11.2025
▁అందించడం	-11.2025
▁అంట	-11.2027
▁పాలెం	-11.2027
▁సమానంగా	-11.2027
▁బలరామ	-11.2027
▁గవర్నరుగా	-11.2028
▁పోతే	-11.2028
▁పెరిగ	-11.2029
గజ	-11.2033
ంద్	-11.2037
హూ	-11.2038
▁గౌరవించ	-11.2038
▁నగరంలోని	-11.2039
శంకర	-11.204
ేమో	-11.2041
▁సాహెబ్	-11.2046
▁వాక	-11.2046
▁సహకారం	-11.2049
▁గుమ్మ	-11.2051
▁సరే	-11.2057
▁రంభ	-11.2059
▁పదముల	-11.2062
తగానో	-11.2063
కేంద్రంగా	-11.2063
ాక్షర	-11.2065
▁అండ	-11.2065
▁జరప	-11.2068
▁వేడ	-11.2069
▁శైలిని	-11.2069
▁అవతరించ	-11.2071
లెట్	-11.2071
ంటె	-11.2072
సుకు	-11.2073
ఆంధ్రప్రదేశ్	-11.2075
▁మాదిరిగా	-11.2078
సిల్	-11.2078
▁సాగించ	-11.2084
లిపి	-11.2085
యుగ	-11.2086
▁రోమ	-11.2086
▁ముఖం	-11.2088
▁రహదారుల	-11.2088
ారి	-11.2094
ita	-11.2096
ద్దు	-11.2106
▁చంద్	-11.2106
▁అమల	-11.2108
▁సరిహద్దుల	-11.211
నన్	-11.2113
▁దానిలో	-11.2114
దశలో	-11.2115
లూరి	-11.2116
▁శాసనంలో	-11.2118
▁చావు	-11.2121
▁అల్లా	-11.2122
▁దర్శించి	-11.2122
మయ్యే	-11.2124
▁వనరులు	-11.2127
యుగం	-11.213
▁ప్రాముఖ్యతను	-11.2131
▁శక్తిగా	-11.2136
▁సమానం	-11.2139
▁నోట	-11.214
లిక్	-11.2144
▁గ్రంథంలో	-11.2147
▁అసంతృప్తి	-11.2149
వోలు	-11.2155
▁సత్కరించి	-11.2157
ell	-11.2157
▁ముగ్గు	-11.216
▁పబ్లికేషన్స్	-11.2161
ావతి	-11.2161
▁515	-11.2162
▁భయంకర	-11.2164
▁అక్షరాల	-11.2164
వంతుల	-11.2174
▁పరస్పర	-11.2177
▁పీఠభూమి	-11.2177
మాను	-11.2177
ఇవి	-11.2177
వాహన	-11.2178
లనుండి	-11.2182
▁షె	-11.2183
వారని	-11.2193
▁మడి	-11.2193
▁శిల్పాల	-11.2198
▁రామేశ్వర	-11.2201
▁పాటను	-11.2202
సెల్	-11.2203
900	-11.2205
▁అవసర	-11.2207
▁కూర్మ	-11.2208
▁మెట్రో	-11.2209
▁కనిపెట్ట	-11.221
.1929)	-11.2211
.1935)	-11.2211
▁from	-11.2211
▁ఇస్మాయిల్	-11.2211
▁తజకిస్థాన్	-11.2211
▁దిగుమతి	-11.2211
▁పాలిటెక్నిక్	-11.2211
▁మలేషియా	-11.2211
▁మేడ్చల్	-11.2211
▁విస్తారమైన	-11.2211
.1917)	-11.2211
▁ఎడిటర్	-11.2211
▁కిషోర్	-11.2211
▁మీడియం	-11.2211
▁చురుకు	-11.2211
▁పరిగణనలో	-11.2211
▁దర్శకురాలు	-11.2211
▁అంకితమిచ్చ	-11.2211
▁సెలవు	-11.2211
▁కొవ్వూరు	-11.2212
▁చేరుకోవచ్చు	-11.2212
▁సభ్యత్వం	-11.2212
▁ఇస్రో	-11.2212
▁కనిగిరి	-11.2212
▁మృతి	-11.2212
▁సిస్టము	-11.2212
▁కచ్చితంగా	-11.2212
▁నివసించిన	-11.2213
▁డైరక్టర్	-11.2213
ండ్లు	-11.2213
▁గనుక	-11.2214
▁నిర్మించనున్న	-11.2216
▁తగినంత	-11.2216
▁రూపొందించబడింది	-11.2216
▁ట్రేడ	-11.2217
▁చేసుకుంటారు	-11.2217
▁సంజయ్	-11.2219
▁ప్రముఖుల	-11.2219
▁డిజిటల	-11.222
▁దేహ	-11.2221
▁హరికథ	-11.2221
కాన్	-11.2221
▁గుంతకల్లు	-11.2221
▁వెంకటగిరి	-11.2222
విద్యా	-11.2223
▁ప్రవేశించిన	-11.2225
▁చెయ్యడానికి	-11.2225
▁పండించ	-11.2225
▁ఏళ్ళు	-11.2225
▁తాలూకాలో	-11.2226
▁సమకూర్చారు	-11.2226
మాంబ	-11.2227
▁సూచన	-11.2227
▁దోహదం	-11.2228
▁తేది	-11.223
కన్	-11.2231
▁రైళ్ళు	-11.2232
▁తాడేపల్లి	-11.2232
▁ప్రహ్లాదుని	-11.2233
▁వేముల	-11.2233
▁శరీరానికి	-11.2235
▁తవ్వకాల	-11.2235
▁దిక్కు	-11.2235
▁గీతాంజలి	-11.2236
▁పవన్	-11.2236
▁డ్రైవర్	-11.2236
▁పుస్తకాన్ని	-11.2239
▁మహోత్సవం	-11.2241
టివ్	-11.2241
▁మిర్యాలగూడ	-11.2241
▁అధ్యక్షునిగా	-11.2241
స్తుంటాడు	-11.2241
▁మానవుల	-11.2246
▁ఆస్థానంలో	-11.2246
▁అప్పటినుండి	-11.2247
ండేవి	-11.2248
▁అనుసరించ	-11.2249
ంబర	-11.2249
▁తీసుకోవడం	-11.2251
▁పువ్వు	-11.2253
▁వుండేది	-11.2257
వాడని	-11.2258
▁ధ్యాన	-11.2262
మంద	-11.2265
▁రైతులకు	-11.2266
▁సుదర్శన	-11.2268
▁దిబ్బ	-11.2269
▁చర్చలు	-11.2269
▁మరలా	-11.2269
▁ఏర్పాట్లు	-11.2269
చ్చారు	-11.227
▁పక్షులు	-11.2271
▁మకుటం	-11.2271
▁ప్రక్కల	-11.2271
▁కలిగించే	-11.2272
లనే	-11.2272
▁ముగిసిన	-11.2273
▁హంస	-11.2273
▁అనుబంధంగా	-11.2274
▁ఎదుర్కొంటున్న	-11.2276
బెట్ట	-11.228
▁గడప	-11.2287
▁కాళ్ళు	-11.2288
బలం	-11.229
ందువలన	-11.2291
దేవీ	-11.2293
▁భు	-11.2293
▁తాక	-11.2295
▁గిరిజ	-11.2296
▁వున్నవి	-11.2299
▁చివరగా	-11.23
▁జిల్లాల్లో	-11.23
▁ఫోటో	-11.23
▁సేకరించ	-11.231
▁పట	-11.2311
టము	-11.2312
▁పద్ధతిని	-11.2313
రంగు	-11.2314
బడినవి	-11.2323
మానం	-11.2325
▁జాతులు	-11.2325
నీటి	-11.2326
కూరు	-11.2327
▁యువతి	-11.2329
ఖ్య	-11.2331
గిలి	-11.2332
▁కలవ	-11.2333
▁పరిశీలించి	-11.2337
▁శిష్యుల	-11.2337
▁మొదటిది	-11.2341
వ్యవస్థ	-11.2343
▁పోవ	-11.2345
▁121	-11.2345
▁ఎదిరించి	-11.235
హిందీ	-11.2353
వాహ	-11.2354
▁వేదం	-11.2357
ుకొన్నారు	-11.2359
▁ఆత్మకూరులో	-11.2361
న్నవి	-11.2362
గతి	-11.2368
కాంత	-11.2369
▁నల	-11.2383
▁ఉత్పత్తుల	-11.2386
▁హెల్	-11.2388
'''	-11.2391
▁సంఘాలు	-11.2391
▁కాయలు	-11.2393
లిక	-11.2394
▁ఉండుట	-11.2397
▁ఉపయోగం	-11.2397
▁పరిశ్రమకు	-11.2401
సాహిత్య	-11.2404
▁వో	-11.2404
ుతుందని	-11.2405
▁హక్కులు	-11.2406
మైనవి	-11.2409
▁తడ	-11.2411
సీమ	-11.2412
▁గండ	-11.2413
▁కైలాస	-11.2414
▁re	-11.2423
హ్య	-11.2425
▁నియంత్రించ	-11.2425
▁పున	-11.2426
భై	-11.2426
▁తోలు	-11.243
▁సమాచారము	-11.2431
▁వృత్త	-11.2431
▁న్యాయమూర్తుల	-11.2434
▁ఈమెను	-11.2438
▁రెండవది	-11.244
భూషణ	-11.2441
▁పద్యాలలో	-11.2443
రోజున	-11.2445
▁భంగ	-11.2447
▁రాచ	-11.2447
▁విభాగాల	-11.2449
ెడ	-11.2451
ac	-11.2451
ల్ప	-11.2456
1962)	-11.2456
▁ప్రపంచానికి	-11.2461
▁అవార్డును	-11.2462
▁తప	-11.2463
▁వాసు	-11.2465
కాడ	-11.2467
▁పట్టాభి	-11.2477
▁మున్నగు	-11.2478
▁విశ్వనాధ	-11.2479
చెర్ల	-11.2479
▁నిలువు	-11.2479
▁భైరవ	-11.2482
▁పీటర్	-11.2483
.1902)	-11.2489
▁కృత్రిమ	-11.2489
▁జొన్నవిత్తుల	-11.2489
▁త్వరగా	-11.2489
▁దోపిడీ	-11.2489
▁నిరాశ	-11.2489
▁రిచర్డ్	-11.2489
▁సుల్తానేట్	-11.2489
▁హన్మకొండ	-11.2489
▁మక్కువ	-11.2489
▁సమరయోధురాలు	-11.2489
▁పిదప	-11.2489
▁సమీక్ష	-11.2489
▁ముదిగొండ	-11.2489
▁మొదలగునవి	-11.2489
▁సంతరించుకుంది	-11.2489
▁సురేంద్ర	-11.2489
▁ఆరోపించ	-11.2489
▁సారవంతమైన	-11.2489
▁ఆలంపూర్	-11.2489
▁పిలవబడే	-11.2489
▁డచ్	-11.2489
▁సరోజిని	-11.249
▁అవార్డ్	-11.249
కరం	-11.2491
▁చేసుకోవడానికి	-11.2491
సంగ	-11.2492
▁జయరాం	-11.2492
▁చెపుతారు	-11.2492
▁కన్యకా	-11.2492
▁పొన్నూరు	-11.2492
▁రాహు	-11.2492
▁ఒక్కసారి	-11.2493
▁విశ్వేశ్వరయ్య	-11.2493
▁లీగ్	-11.2493
▁అధ్యాపకుడు	-11.2493
ోద	-11.2494
▁నటించి	-11.2494
▁Sanskrit	-11.2495
▁డామన్	-11.2495
▁హాకీ	-11.2495
▁తేనె	-11.2496
▁మరణించింది	-11.2497
▁షాహి	-11.2497
▁భిన్నంగా	-11.2497
▁అన్నవరం	-11.2497
▁చూస్తూ	-11.2498
▁నాజర్	-11.2499
▁తేల్చ	-11.2499
ies	-11.2501
▁ఫిలింస్	-11.2503
age	-11.2503
▁స్థావరం	-11.2506
▁ఎంటర్	-11.2506
మియా	-11.2507
▁350	-11.2507
▁సృష్టించాడు	-11.251
▁ఏర్పరచారు	-11.2511
▁మహేష్	-11.2511
▁వర్ణించాడు	-11.2511
ెక్కడ	-11.2511
▁కార్యాలయ	-11.2514
▁అరబిక్	-11.2514
▁స్థలాన్ని	-11.2515
▁విడిపోయి	-11.2515
▁వాగ్దాన	-11.2516
hi	-11.2516
▁ఆపరేషన్	-11.2517
▁అన్యాయం	-11.2519
▁చెప్పడానికి	-11.252
▁శాత	-11.2521
▁సాంప్రదాయక	-11.2522
▁దేవాలయానికి	-11.2522
▁చేసినపుడు	-11.2524
క్కా	-11.2526
▁లేచి	-11.2527
లింగం	-11.2527
▁పూర్ణిమ	-11.2527
▁ప్రశంసలు	-11.2528
▁చిత్రాల్లో	-11.253
▁పురాతనమైనది	-11.2531
▁చూపిన	-11.2531
ంబున	-11.2533
▁పుత్ర	-11.2533
▁పెళ్ళ	-11.2535
▁పేదరికం	-11.2536
మౌ	-11.2538
▁ఏమిటి	-11.2538
▁ఆజ్ఞ	-11.2539
▁తెలిపే	-11.254
▁ఏకాదశి	-11.2542
▁గౌరి	-11.2545
▁పలిక	-11.2548
▁కొత్తపల్లి	-11.2549
చింత	-11.255
▁కలిప	-11.255
▁ఒప్పంద	-11.2551
శ్ర	-11.2554
▁ఏలూరులోను	-11.2557
▁చేయమని	-11.2561
▁పొన్న	-11.2568
▁శ్రేణి	-11.2571
▁అరణ్య	-11.2572
▁తెలంగాణకు	-11.2572
వడంతో	-11.2581
▁రాస	-11.2582
ాకా	-11.2583
▁180	-11.2584
దూర	-11.2588
తుంటారు	-11.2588
po	-11.2588
ce	-11.2589
▁మాధవి	-11.259
▁వీలుగా	-11.2594
▁పెట్టడం	-11.2595
▁వ్యా	-11.2595
▁ఎవరికి	-11.2597
యుక్త	-11.2597
▁పస	-11.2598
▁పురాణాలు	-11.2598
▁పరీక్షలు	-11.26
శిక్ష	-11.26
▁కృ	-11.2601
▁రూపొందించి	-11.2601
టెన్	-11.2602
▁కను	-11.2605
▁ఉన్నదని	-11.2605
మరి	-11.2606
▁స్వల్ప	-11.261
▁ప్రదర్శితమై	-11.2611
▁తెలుసుకో	-11.2612
▁గ్రామాల్లో	-11.2613
విషయ	-11.2613
▁ముఖ్యమైనది	-11.2617
▁విచ్చేసిన	-11.2621
▁ఉపాధ్యాయులు	-11.2622
కల్ప	-11.2623
▁చందన	-11.2626
▁2023:	-11.263
▁చివరలో	-11.2631
▁ఆరంభించ	-11.2632
▁బడ	-11.2634
▁1959:	-11.2634
▁గ్రహం	-11.2635
▁గుహ	-11.2635
గృహ	-11.2636
▁ఓడించ	-11.2636
సినారె	-11.2637
ానికై	-11.2639
ుకోవటం	-11.2639
ర్గ	-11.264
▁2000:	-11.264
సంపద	-11.264
▁గండి	-11.2642
▁భారతంలో	-11.2645
సైన్స్	-11.2646
▁దేవుడి	-11.2648
▁రోగ	-11.2649
▁కమలా	-11.2652
▁శివారు	-11.2653
▁పెను	-11.2654
▁సందర్భాలలో	-11.2654
▁శాస్త్రాల	-11.2655
▁లభిస్తున్నాయి	-11.2655
▁సుల్తానులు	-11.2656
ుదురు	-11.2661
నివ్వ	-11.2662
▁తెల	-11.2662
▁తెలుప	-11.2664
▁రాగా	-11.2665
దేశము	-11.2666
▁పరచ	-11.2667
-25	-11.267
సాగాడు	-11.2671
కొచ్చి	-11.2674
▁వాణిజ్యం	-11.268
రాగ	-11.2685
▁కుమారుల	-11.2693
▁ఉత్సవాలలో	-11.2694
▁దేశాల్లో	-11.2694
▁జత	-11.2697
▁రష్యన్లు	-11.2697
▁మోడ	-11.2698
▁దండయాత్రల	-11.27
▁తోటల	-11.27
వాటి	-11.27
▁సంసార	-11.2702
▁భావించబడుతు	-11.2704
ైన్	-11.2704
▁ఉల్	-11.2706
▁d	-11.2708
▁లూ	-11.2709
▁ప్రవాహ	-11.2713
▁గే	-11.2716
2003)	-11.2716
100	-11.2717
▁ఏర్పాటుకు	-11.2718
▁గోవు	-11.2718
కుంటే	-11.272
▁చీ	-11.2721
▁చేయించి	-11.2724
దొర	-11.2726
దరి	-11.2731
▁162	-11.2737
▁దాడుల	-11.2741
▁కంప	-11.2744
దేశంలో	-11.2747
▁తంగ	-11.2749
▁112	-11.2749
▁ఘట	-11.275
మాత్ర	-11.275
▁పోల్చ	-11.2751
▁అనా	-11.2756
▁జప	-11.2756
త్వాన్ని	-11.2756
▁త్ర	-11.2757
▁అద్భుతం	-11.2758
▁భాగమైన	-11.2759
est	-11.2759
▁బాలుర	-11.2771
ge	-11.2772
▁ప్రవహించ	-11.2772
మైనా	-11.2773
1937)	-11.2774
.1926)	-11.2774
.1939)	-11.2774
▁ఇంజినీరింగ్	-11.2774
▁జనసాంద్రత	-11.2774
▁తాత్విక	-11.2774
▁పెండ్యాల	-11.2774
▁విడదీసి	-11.2774
▁చంద్రబోస్	-11.2774
.1915)	-11.2774
▁ప్రజ్ఞాశాలి	-11.2774
▁పురాతత్వ	-11.2774
▁శశిరేఖ	-11.2775
▁బృహత్తర	-11.2775
▁పర్షియా	-11.2775
▁విధాలు	-11.2775
▁ఏమిటంటే	-11.2775
▁చింతలపూడి	-11.2775
▁అనువైన	-11.2775
▁మహావిష్ణువు	-11.2775
▁are	-11.2776
▁ఏర్పడుతుంది	-11.2776
▁లేకపోతే	-11.2776
▁స్వరకర్త	-11.2776
▁బ్రదర్స్	-11.2777
కృతి	-11.2777
▁అరవై	-11.2777
▁సువర్ణ	-11.2778
▁ఆదివారంనాడు	-11.2778
▁సాహిత్యవేత్త	-11.2778
▁దేశవ్యాప్తంగా	-11.2778
▁బీదర్	-11.2779
ిద్దరూ	-11.2779
▁అసోసియేట్	-11.2779
▁సవతి	-11.278
▁అఖండ	-11.2782
▁నిలిపి	-11.2783
ాబాదు	-11.2783
▁వాసుదేవ	-11.2784
▁ఆవిడ	-11.2785
▁అంతరిక్షంలో	-11.2786
▁చూస్తాడు	-11.2786
▁1885	-11.2787
▁జరుగుతూ	-11.2787
▁వెనుకబడిన	-11.2788
▁సేవల	-11.2788
▁English	-11.2789
▁నియమించాడు	-11.2789
▁లైబ్రరీ	-11.2793
▁బందీ	-11.2794
▁సరస	-11.2797
కరమైన	-11.2798
▁బాలాజీ	-11.2799
▁నిధులతో	-11.2799
గమన	-11.28
ార్చన	-11.28
▁అపూర్వ	-11.2801
శంకర్	-11.2801
చేయడం	-11.2803
▁ప్రతినిధులు	-11.2803
▁రాధా	-11.2803
మంత్ర	-11.2806
మెంటు	-11.2807
▁220	-11.281
▁బజార్	-11.281
▁చిహ్నాలు	-11.2811
▁మిత్రులు	-11.2812
▁కృష్ణవేణి	-11.2813
స్థుల	-11.2813
▁సరదా	-11.2814
▁బంధించ	-11.2814
▁శేషగిరిరావు	-11.2814
స్క్	-11.2815
భాషల	-11.2815
▁పంత్	-11.2818
సర్వ	-11.2818
టరీ	-11.2818
▁లవ్	-11.2818
పథ	-11.2819
▁700	-11.2819
▁చిన్నది	-11.2819
▁శ్ర	-11.282
▁ప్రయోజనం	-11.282
▁శశి	-11.282
▁గోపురం	-11.2822
▁ఆకుల	-11.2823
రేఖ	-11.2825
▁(12	-11.2826
▁1894	-11.2829
▁పుట్టినరోజు	-11.2832
▁అవే	-11.2833
▁ఓటు	-11.2833
▁ఆడపిల్ల	-11.2833
▁మల్లయ్య	-11.2834
▁రక్తంలో	-11.2834
▁సేవలకు	-11.2835
▁స్థాన	-11.2837
▁అధ	-11.2837
ించబడింది	-11.2837
▁గూడెం	-11.2838
▁వ్యాఖ్యలు	-11.284
▁లేవ	-11.2843
▁సహిత	-11.2844
▁ఎక్కడా	-11.2845
▁భవనాలు	-11.2845
▁అభయ	-11.2846
▁సౌకర్యము	-11.2846
రూపంలో	-11.2848
▁హెడ్	-11.2848
▁పూస	-11.2848
▁నార	-11.2849
ేటట్లు	-11.2849
ణ్ణి	-11.2852
▁కొడుకులు	-11.2852
▁వాతావరణంలో	-11.2852
▁రుద్రమ	-11.2854
బల్	-11.2854
▁రామిరెడ్డి	-11.2855
ther	-11.2858
▁గ్రంథాల	-11.2861
లింగేశ్వర	-11.2861
▁మొత్తంలో	-11.2864
▁ఆధారాల	-11.2864
▁కుటుంబము	-11.2865
ాపురంలో	-11.2867
▁విషయాలను	-11.2867
ింగు	-11.2868
▁వైవిధ్య	-11.2869
▁స్థానికంగా	-11.2871
▁మందిర	-11.2872
▁బందరు	-11.2873
శం	-11.2876
▁కోల్పోయి	-11.2877
గోపాల్	-11.2879
▁హోం	-11.2882
▁వ్యతిరేకత	-11.2883
▁మెన్	-11.2886
▁చేయబడి	-11.2892
▁జోన్	-11.2895
▁రాత్ర	-11.2896
▁పక్షం	-11.2897
ప్రకాశ్	-11.2898
వేంకటేశ్వరస్వామి	-11.2898
▁జబ్బు	-11.29
యమ్	-11.2904
పోతారు	-11.2906
▁మొగ	-11.2912
▁దీపం	-11.2912
▁వన్	-11.2913
▁పరిశ్రమలో	-11.2914
34.	-11.2914
▁మునుప	-11.2914
▁చేపట్టి	-11.2917
త్తున	-11.2922
▁ఉత్త	-11.2924
ేటి	-11.2924
▁రాష్ట్రంలోనే	-11.2926
▁నౌకా	-11.2928
సముద్ర	-11.293
▁చెల్లి	-11.2931
లోకం	-11.2931
▁ప్రేమా	-11.2932
▁స్తంభాల	-11.2935
▁దేవస్థానము	-11.2936
▁కొనసాగిన	-11.2941
▁ఎదుర	-11.2944
▁శివుడి	-11.2945
▁బిడ్డను	-11.2946
ాలన్నీ	-11.2947
▁మరే	-11.2948
▁ప్రతిష్ఠించార	-11.295
▁360	-11.295
▁ఏనుగులు	-11.2954
▁తగ్గి	-11.2955
ాము	-11.2955
కట్టు	-11.2958
స్తాన	-11.2961
▁అధి	-11.2961
ెల్ల	-11.2962
▁రూపాల	-11.2962
▁పక్ష	-11.2965
▁భవన్	-11.2966
▁గోర	-11.2967
.2014	-11.2973
ఆర్యన్	-11.2977
▁బిల్	-11.2978
▁సంజీవ	-11.298
4,000	-11.2981
యుద్ధం	-11.2985
న్నర	-11.2987
▁ప్రాకృత	-11.299
వాడే	-11.3001
రుక్	-11.3002
▁న్యాయస్థాన	-11.3003
▁వ్రత	-11.3004
పోతాయి	-11.3005
▁వేయించి	-11.3008
▁మెరుగు	-11.301
▁ఆస్తుల	-11.3011
▁365	-11.3013
▁వనరు	-11.3016
▁వ్యాధుల	-11.3016
▁జీవించి	-11.3018
▁పతి	-11.3021
▁గుంటూరులో	-11.3021
▁చక్రవర్తుల	-11.3026
▁చెప్పబడిన	-11.3028
▁572	-11.3029
▁చాలావరక	-11.303
▁మొర	-11.3031
▁అనుసంధానం	-11.3035
▁కొల్లూరు	-11.3036
▁నివారించ	-11.3038
▁మెజారిటీ	-11.3042
▁కలయిక	-11.3043
▁గదుల	-11.3043
▁తారా	-11.3044
▁రూపొంది	-11.3046
▁కోర్సు	-11.3047
▁అద్దం	-11.3048
గోడ	-11.3048
▁కంఠ	-11.3049
వచ్చిన	-11.3051
ng	-11.3053
▁నెలకు	-11.3054
▁నీళ్ళ	-11.3054
▁సంప్రదాయాల	-11.3055
ేశ్	-11.3056
▁సృష్టించిన	-11.3057
▁సంకీర్తన	-11.3057
▁ఉమ	-11.3057
సృష్టి	-11.306
▁పురాణాలలో	-11.3061
▁పగటి	-11.3062
ంజి	-11.3063
కపోయినా	-11.3066
▁బట్ట	-11.3067
▁ప్రోగ్రాము	-11.3067
ఖో	-11.3067
▁అసిస్టెంట్	-11.3069
▁ఇంగ్లాండ్	-11.3069
▁చేతులమీదుగా	-11.3069
▁ప్రచోదయాత్	-11.3069
▁మద్యాహ్నం	-11.3069
▁యాత్రికుడు	-11.3069
▁స్పీకరు	-11.3069
▁నిర్వర్తించ	-11.3069
.1900)	-11.3069
.1901)	-11.3069
▁సాధ్యం	-11.3069
▁బ్రహ్మంగారి	-11.3069
▁రాజంపేట	-11.3069
▁డిప్యూట	-11.3069
▁ఆసియన్	-11.3069
▁వీటూరి	-11.3069
▁నిడివి	-11.3069
▁అహంకార	-11.3069
▁భక్తిశ్రద్ధలతో	-11.3069
▁కొల్లేరు	-11.3069
▁సభ్యురాలు	-11.3069
▁వెర్షన్	-11.3069
▁సభాపతి	-11.3069
▁ఎలాగైన	-11.3069
▁యానాం	-11.3069
.1975)	-11.307
▁యువకుడు	-11.307
▁నడిపే	-11.307
.2018)	-11.307
▁తోలుబొమ్మలాట	-11.307
▁ఫుల్	-11.307
▁ప్రసిద్ధిచెందిన	-11.3071
బినెట్	-11.3071
▁మస్తాన్	-11.3072
▁సీతాదేవి	-11.3072
▁సిమెంటు	-11.3073
▁తిమ్మాపురం	-11.3074
▁ఏర్పాటుచేశారు	-11.3075
▁ఎలుక	-11.3075
▁ప్రయత్నిస్తాడు	-11.3075
▁చేసుకోవాలని	-11.3076
▁నిన్నే	-11.3076
▁ఏమిటో	-11.3077
▁విస్తీర్ణము	-11.3077
▁సాలూరు	-11.3077
భారతీయ	-11.3079
▁గణనీయంగా	-11.308
▁అడుగుపెట్ట	-11.308
▁జరిగిందని	-11.3081
▁హంపి	-11.3081
▁జర్నలిస్టు	-11.3081
▁బహుమతులు	-11.3082
వడ	-11.3085
▁పూర్తయి	-11.3085
▁1800	-11.3085
▁దొరికే	-11.3085
07.	-11.3086
▁చింతామణి	-11.3088
▁నరేష్	-11.3088
▁గద్య	-11.309
▁వేస్తారు	-11.309
▁తోక	-11.309
▁షిర్డీ	-11.3092
▁అగు	-11.3095
▁ప్రచురించి	-11.3096
ందరికీ	-11.3096
▁గనుల	-11.3096
▁చేపట్టారు	-11.3096
▁నిర్వహించడం	-11.3096
▁ముప్ప	-11.3097
▁గుర్తించింది	-11.3098
వొ	-11.3098
▁పుట్టుక	-11.3098
పడింది	-11.31
▁516	-11.3101
▁మొత్తము	-11.3104
నపల్లి	-11.3105
ిజం	-11.3105
▁సేనాని	-11.3106
▁నష్టం	-11.3106
▁వసతులు	-11.3111
మెట్	-11.3113
▁కన్నయ్య	-11.3114
▁భద్రతా	-11.3115
▁మను	-11.3119
▁చెక్కిన	-11.3124
స్తున్నారు	-11.3129
▁విజయలక్ష్మి	-11.3129
▁వైవిధ్యం	-11.313
▁1862	-11.313
▁చరిత	-11.3131
▁టెన్	-11.3133
▁పేరుమీద	-11.3134
▁నగరాలకు	-11.3135
▁కార్యకలాపాలు	-11.3135
▁హిమాలయ	-11.3136
▁కృష్ణారెడ్డి	-11.3146
నైన	-11.3149
▁ఇతరుల	-11.3156
▁మంత్రుల	-11.3157
▁వారిద్దరి	-11.3158
యిన్	-11.3158
ంపూడి	-11.3159
దార	-11.316
▁క్రీడల	-11.316
▁నిండు	-11.3161
od	-11.3161
▁శాసనసభా	-11.3162
▁చదవ	-11.3162
tic	-11.3162
▁పదములు	-11.3168
▁రాఘవాచార్య	-11.3168
▁మద్యం	-11.317
మిలి	-11.3171
▁135	-11.3171
▁మరణించే	-11.3175
ొకరు	-11.318
ట్రిక్	-11.318
▁గోరు	-11.3182
▁జంటగా	-11.3184
ఫో	-11.3185
▁ప్రేక్షకులు	-11.3186
పక్క	-11.3191
కొరకు	-11.3191
ప్రపంచ	-11.3194
బడ్డారు	-11.3194
▁టు	-11.3194
▁ప్రాంగణం	-11.3196
▁నందా	-11.3197
నిచ్చి	-11.3197
▁మొక్కల	-11.3198
▁పనిని	-11.3199
▁మండలాలతో	-11.3204
▁జిల్లాలను	-11.3209
▁చూపి	-11.3209
లేఖ	-11.3209
▁సతీ	-11.3217
▁ఛా	-11.3218
▁రాజకీయంగా	-11.3223
▁కనిపించి	-11.3225
▁కార్మికుల	-11.3227
▁(3	-11.3229
▁ఈయనకు	-11.3229
▁ప్రయత్నాల	-11.3229
▁నాటకంలో	-11.3231
▁పోత	-11.3231
▁అనిపించ	-11.3233
▁అంతర్జాల	-11.3234
చెన్నై	-11.3235
ఉత్తర	-11.3235
చెట్టు	-11.3236
▁చెందినవాడు	-11.3241
▁గేట్	-11.3242
వైపులా	-11.3242
బట్ట	-11.3245
▁సూత్ర	-11.3246
ేర్	-11.3246
▁కట్టించిన	-11.3247
వూరి	-11.3249
▁మండప	-11.3255
▁156	-11.3258
▁అరుణాచల	-11.3261
▁వండ	-11.3261
02.	-11.3269
▁అర్థము	-11.3269
▁ఆగి	-11.3271
▁చనిపోత	-11.3274
▁పునర్	-11.3274
▁(9	-11.3274
▁బలవంత	-11.3274
శాయి	-11.3276
▁కోల్పోయిన	-11.3281
వోయి	-11.3283
పట్టు	-11.3286
▁ఖో	-11.329
▁కోప	-11.329
య్యర్	-11.3291
▁శతదినోత్సవాల	-11.3295
▁సత్యభామ	-11.3298
▁పిల్లి	-11.3302
▁పారిపోయి	-11.3303
▁పండుగలు	-11.3304
▁అతనితో	-11.3307
▁ప్రయోజనాల	-11.331
▁సగ	-11.3311
▁రంగులో	-11.3312
యులు	-11.3312
▁n	-11.3313
ుకోవచ్చు	-11.3322
▁కట్టడాల	-11.3323
ప్రభుత్వం	-11.3323
▁పరిణామ	-11.3323
▁తరచు	-11.3327
▁వేణుగోపాల	-11.3328
వాల్	-11.3328
▁తిరునాళ్ళ	-11.3329
దరినీ	-11.333
▁శరీరము	-11.3331
▁యాస	-11.3335
▁కొండా	-11.3338
మణ	-11.3339
▁కనుమలలో	-11.3341
▁చేయడంలో	-11.3344
్రీ	-11.3345
▁కచేరీ	-11.3345
▁స్టేషన్లు	-11.3346
▁గం	-11.3347
1991)	-11.3351
▁భ్రమ	-11.3352
▁ప్రతిష్ఠించ	-11.3352
▁శతాబ్దానిక	-11.3354
▁శ్రీరాం	-11.3357
పురుష	-11.3359
రామ్	-11.336
▁వంటిది	-11.3364
▁వేమ	-11.3365
గ్న	-11.3365
▁కాంస్య	-11.3371
▁ఫెడర	-11.3371
▁ఫిలిప్	-11.3371
▁విరూపాక్ష	-11.3372
.1907)	-11.3372
.1909)	-11.3372
fficial	-11.3372
▁with	-11.3372
▁కన్నులపండువ	-11.3372
▁గుండెపోటు	-11.3372
▁గుడ్లవల్లేరు	-11.3372
▁జరిపారు	-11.3372
▁ధీమహి	-11.3372
▁పెదవేగి	-11.3372
▁పేర్కొంది	-11.3372
▁మరికొందర	-11.3372
▁విద్మహే	-11.3372
▁షూటింగ్	-11.3372
▁సెకండరీ	-11.3372
▁ఛంధము	-11.3372
▁జరిపే	-11.3372
▁తుఫాను	-11.3372
▁వితరణ	-11.3372
.1910)	-11.3372
.1930)	-11.3372
▁కావేరీ	-11.3372
▁హవేలీ	-11.3372
▁ఇడ్లీ	-11.3372
▁లెనిన్	-11.3372
▁పరిగణిస్తారు	-11.3372
▁పరుగు	-11.3372
▁విక్రమ	-11.3372
▁క్రాస్	-11.3372
▁[[	-11.3372
▁మాండ్య	-11.3372
▁రమ్యకృష్ణ	-11.3372
▁శాసనమండలి	-11.3372
▁జాతీయరహదారి	-11.3373
▁షెడ్	-11.3373
▁విడిపించ	-11.3373
▁వెళతాడు	-11.3374
▁రైల్వేస్టేషను	-11.3374
▁కోరుతూ	-11.3374
▁బస్తీ	-11.3374
▁యోగ్యమైన	-11.3374
▁ప్రవహిస్తూ	-11.3375
▁సూత్రాల	-11.3375
▁నమ్ముతారు	-11.3375
▁నన్నయ్య	-11.3375
▁తుళువ	-11.3376
▁చెప్తారు	-11.3376
▁పాలేరు	-11.3377
▁మేనల్లుడు	-11.3377
▁ప్రయత్నంలో	-11.3379
▁పరాజయం	-11.3379
▁రావణుని	-11.338
▁చెప్పుకోవచ్చు	-11.338
▁నిధుల	-11.3381
మ్యా	-11.3382
▁ఫోర్స్	-11.3382
▁ఆంధ్రదేశంలో	-11.3382
▁బిజినెస్	-11.3382
▁మార్క్స్	-11.3383
▁సుందరమ్మ	-11.3384
▁కోరి	-11.3384
▁డిమాండ్	-11.3385
▁పాలి	-11.3386
▁చైర్	-11.3386
▁అప్పలాచార్య	-11.3386
▁చేరుకుంట	-11.3386
▁విధులు	-11.3388
యీ	-11.339
▁బాబూ	-11.339
▁తల్లిని	-11.3391
▁132	-11.3392
బాహు	-11.3393
▁నోరు	-11.3394
▁గణాలు	-11.3394
▁వెంకటరత్నం	-11.3397
▁నూట	-11.3397
▁చదరంగం	-11.3398
▁పచ్చడి	-11.3398
▁జరుగుతున్నది	-11.3399
▁వామన	-11.3399
▁బయలుదేరి	-11.34
▁1886	-11.3405
▁పూర్వీకులు	-11.3408
▁మలి	-11.3408
ల్లీ	-11.3409
సంఘ	-11.341
▁నందిని	-11.3411
▁మురళీ	-11.3412
వర్ష	-11.3412
చుకొని	-11.3415
▁రాలేదు	-11.3417
▁మధుమేహం	-11.3419
మిత్ర	-11.3419
▁ఐక్య	-11.3419
ara	-11.342
▁పరిమాణం	-11.3421
▁మైలవరం	-11.3422
▁స్వరాజ్య	-11.3423
▁రోజులకు	-11.3423
▁నాటికే	-11.3423
▁హిమ	-11.3424
▁విభాగ	-11.3425
▁ప్రతీక	-11.3425
అర్	-11.3425
▁పట్టణాలకు	-11.3426
▁పనులకు	-11.3427
శత	-11.3428
▁చూచ	-11.3428
▁తాన	-11.3435
▁మంటపం	-11.3435
▁విఘ్నేశ్వర	-11.3437
▁ప్రక్రియల	-11.3437
▁గాయపడ్డ	-11.344
▁మహాభారతంలో	-11.344
▁పతకం	-11.3443
రేవు	-11.3444
▁సదా	-11.3445
జై	-11.3447
▁చదువుచున్న	-11.3448
▁ప్రి	-11.3451
▁గంగాధర	-11.3453
▁రాజన్న	-11.3453
▁కొరత	-11.3457
▁పాటకు	-11.3457
దన్న	-11.3458
▁రామానుజ	-11.3461
క్షన్	-11.3463
రిన్	-11.3464
జీవన	-11.3465
ెక్కి	-11.3465
ండేది	-11.3466
▁కదల	-11.3467
▁మల్లి	-11.3467
▁పత్రికలలో	-11.3468
స్థాయిలో	-11.347
సాల	-11.3474
▁గోవాలో	-11.3477
▁రామచంద్రరావు	-11.348
▁117	-11.3482
ఖానా	-11.3483
▁మద	-11.3484
ాడే	-11.3488
▁అడ	-11.349
▁వారిచే	-11.3492
▁చేస్తా	-11.3493
▁బజారు	-11.3498
నాటక	-11.3499
▁గింజల	-11.3501
విశ్వనాథ	-11.3502
▁బద్ద	-11.3502
▁నిలుప	-11.3502
వెం	-11.3504
▁రికార్డులు	-11.3505
▁సుమ	-11.3508
▁ఉదాహరణలు	-11.3509
to	-11.3517
▁పోరు	-11.3519
▁త్రాగ	-11.352
▁మతము	-11.3522
▁శాప	-11.3522
▁భావించిన	-11.3523
300	-11.3524
▁యుక్త	-11.3525
▁ఉద్యోగులు	-11.3525
▁శ్యామల	-11.3529
-24	-11.3533
▁మెట్లు	-11.3534
▁గంటలు	-11.3536
▁అలంకార	-11.3537
రని	-11.3539
దర్శకుడు	-11.3539
▁వయస్సులో	-11.354
▁సుబ్బ	-11.3541
▁దాసు	-11.3543
▁చావ	-11.3543
▁సన్యాస	-11.3544
రాఘవేంద్రరావు	-11.3546
ఇంగ్లీషు	-11.3547
అమెరికా	-11.3547
అందులో	-11.3547
▁మాని	-11.3548
▁హామీ	-11.3551
▁చెన్నకేశవ	-11.3551
పత్రిక	-11.3553
అతను	-11.3554
జీవిత	-11.3554
▁పుచ్చ	-11.3557
▁పోగొట్ట	-11.3557
▁ప్రయత్నించి	-11.3563
ెక్ట	-11.3566
▁పట్టణాలలో	-11.3567
▁సీస	-11.357
▁సృష్టించి	-11.3574
చలం	-11.3575
OS	-11.3575
▁దక్షిణం	-11.3579
▁కప్పు	-11.3579
పింగ్	-11.3582
▁రాష్ట్రస్థాయి	-11.3582
▁కీర్తనల	-11.3588
▁కలకత్తాలో	-11.3589
▁చూస్త	-11.3591
▁నియమాల	-11.3592
▁స్నేహితుల	-11.3599
స్త్ర	-11.3601
▁పంటల	-11.3602
యాలు	-11.3602
▁గ్రూపు	-11.3605
లాగ	-11.3608
▁ద్రవ్య	-11.3609
▁కాల్పుల	-11.361
సిద్ధ	-11.3611
చైనా	-11.3616
▁చంద్రశేఖర	-11.3618
▁రక్షించి	-11.3619
▁గుప్తా	-11.3621
▁నిలయ	-11.3621
▁210	-11.363
గట్టు	-11.3632
▁సంస్థానాధీశుల	-11.3633
స్తాను	-11.3634
▁లక్ష్య	-11.3637
క్వా	-11.3639
లార్	-11.3639
▁నిపుణుల	-11.364
▁బదులు	-11.3641
రియల్	-11.3641
▁మెత్త	-11.3644
▁కంట	-11.3644
pa	-11.3647
▁గీ	-11.3647
నూర్	-11.3649
▁వ్ర	-11.3649
▁కోయిల	-11.365
కళా	-11.3657
▁రాగాల	-11.3658
▁మలుపు	-11.3659
▁చీర	-11.3659
▁చేసుకోవడం	-11.366
▁సరిపో	-11.3661
▁లొ	-11.3662
బోధ	-11.3664
▁మెచ్చి	-11.3667
చర్	-11.3667
▁సంగమం	-11.3668
▁తెలియజేస	-11.367
▁వృషభ	-11.3674
▁పల్లవుల	-11.3677
▁సంస్కార	-11.3678
ఫు	-11.3679
▁గృహాల	-11.3682
▁జర్నల	-11.3683
▁రుక్మిణీ	-11.3684
▁అన్వేషణ	-11.3684
▁ఏర్పాటైన	-11.3684
▁కలెక్టరేట్	-11.3684
▁కల్వకుర్తి	-11.3684
▁తళ్ళికోట	-11.3684
▁ధార్మిక	-11.3684
▁నర్తకి	-11.3684
▁నేలకొండపల్లి	-11.3684
▁ప్రైజెస్	-11.3684
▁ఫాల్గుణ	-11.3684
▁ముసునూరి	-11.3684
▁రోహిణి	-11.3684
▁వెంగమాంబ	-11.3684
▁సుందరరామ్మూర్తి	-11.3684
▁హుబ్లి	-11.3684
▁వినోబా	-11.3684
▁డాక్టరేట్	-11.3684
▁జమ్మూ	-11.3684
▁తాగునీటి	-11.3684
.1986)	-11.3684
▁ఆకుపచ్చ	-11.3684
▁ముళ్ళపూడి	-11.3684
▁సన్నిధి	-11.3684
▁కన్యాశుల్కం	-11.3684
▁ఫుడ్	-11.3684
▁లోతైన	-11.3684
▁దీపావళి	-11.3684
▁మొదలవుతుంది	-11.3684
లపాడు	-11.3685
▁మహాశివరాత్రి	-11.3685
▁అంతేకాదు	-11.3685
▁బీజపూర్	-11.3685
▁సుగంధ	-11.3685
▁కాంచనమాల	-11.3685
▁పెనుకొండ	-11.3685
▁మొదలయిన	-11.3685
▁క్రిస్టియన్	-11.3686
▁సూర్యకుమారి	-11.3686
▁మాడుగుల	-11.3686
▁ప్రతీకారం	-11.3686
▁కథాంశం	-11.3687
▁కోవెల	-11.3688
▁కనిపెట్టిన	-11.3688
▁ఎనిమిదవ	-11.3689
▁ఒక్కటే	-11.3689
▁దర్శనమిస్త	-11.3689
▁ఖనిజ	-11.369
▁as	-11.369
▁లక్షలాది	-11.3691
▁నాయకత్వ	-11.3691
▁నియమించింది	-11.3692
▁పనిచేస్తూ	-11.3692
▁సంతకాలు	-11.3693
▁బ్రి	-11.3693
▁గంగానది	-11.3694
▁తీవ్రవాద	-11.3694
▁ఓహో	-11.3694
▁చేసాయి	-11.3695
▁ఇతడి	-11.3695
▁రాణీ	-11.3697
▁పారిస్	-11.3697
▁విద్యనభ్యసించ	-11.3698
▁1888	-11.3698
▁ఒరిస్సా	-11.37
▁1883	-11.37
▁నియమించారు	-11.3701
▁విశ్వసిస్త	-11.3701
▁పుత్రుడు	-11.3702
పడుతుంది	-11.3703
▁సందర్శించ	-11.3704
▁అంతరించి	-11.3705
▁చూశా	-11.3706
▁చెల్లెలి	-11.3706
▁వ్యవస్థాపక	-11.3707
▁వచ్చినపుడు	-11.3707
▁ఇంద్రుడు	-11.3707
▁ఉద్యమాల	-11.3707
▁అయ్యర్	-11.3707
▁రాజాజీ	-11.3709
▁నిను	-11.371
▁వాస్తవానికి	-11.371
హక్రా	-11.3711
చారు	-11.3712
▁విలసిల్ల	-11.3712
డింగ్	-11.3712
▁నిజామాబాద్లో	-11.3713
▁అనకాపల్లిలో	-11.3715
▁యుద్ధాల	-11.3716
▁రాత	-11.3718
▁కృష్ణకుమారి	-11.372
▁వివేకానంద	-11.3722
▁పాపయ్య	-11.3722
▁స్థిరపడ్డార	-11.3723
▁కడపలో	-11.3725
▁సూర్యుడు	-11.3727
▁కోపంతో	-11.3727
▁క్రిమి	-11.3728
▁మానవుడు	-11.3728
▁ప్రధానమైనవి	-11.3728
▁129	-11.3729
▁కార్యక్రమాలకు	-11.3731
▁నియమాలు	-11.3732
▁నిర్వహించు	-11.3735
▁తుమ్మ	-11.3736
▁పోషక	-11.3736
▁తినడం	-11.3737
▁ఆర్థర	-11.3739
▁తియ్య	-11.3739
▁కల్యాణం	-11.374
▁104	-11.3741
▁మోర్	-11.3741
▁వెంకట్	-11.3741
5,000	-11.3742
all	-11.3742
ొచ్చు	-11.3745
▁పదార్థం	-11.3746
▁ఆహ్లాదకర	-11.3746
▁కూతురి	-11.3748
▁161	-11.375
▁గడిచి	-11.3751
▁నాగుల	-11.3755
▁పూర్తిస్థాయి	-11.3755
▁నాన్	-11.3755
▁తాలూకాలోని	-11.3756
▁రంగనాథ్	-11.3759
▁భావించే	-11.3761
టిన్	-11.3765
▁ఫేర్	-11.3767
▁లక్ష్యంగా	-11.3768
ts	-11.3769
▁స్థానాలలో	-11.377
ుతుంటాయి	-11.3771
▁అందజేసిన	-11.3771
ింపబడిన	-11.3772
▁పీఠ	-11.3777
▁లైను	-11.3778
’’	-11.3781
▁ఒకటే	-11.3781
▁గార	-11.3782
దుర	-11.3783
▁వ్యాధులు	-11.3785
▁క్విట	-11.3785
▁సత్యాగ్రహ	-11.3788
▁ట్రా	-11.379
రస్	-11.379
▁శ్లోకాలు	-11.3792
డన్	-11.3794
▁డ్ర	-11.3796
▁యమున	-11.3799
▁కాలనీలో	-11.38
▁ఒప్పించ	-11.3801
▁రాష్ట్రము	-11.3805
▁విఫల	-11.381
▁అర్చ	-11.381
!!	-11.3814
▁సేన్	-11.3818
▁సాంకేతికత	-11.3819
గుండం	-11.3824
▁క్లా	-11.3825
వాయి	-11.3828
▁సౌర	-11.3829
▁మార్గదర్శక	-11.383
యమ్మ	-11.383
పురా	-11.3833
▁బోయ	-11.3834
రాజులు	-11.3837
లంబ	-11.3838
మాయ	-11.3838
▁కొత్తూరు	-11.3839
▁వ్యాసము	-11.3842
▁ట్రాక్	-11.3843
ంబే	-11.3843
తర్	-11.3844
ోయ్	-11.3844
▁ప్రత్యక్షమై	-11.3845
▁అడవులలో	-11.3846
▁రోగుల	-11.3849
▁శైల	-11.3851
▁సెట్	-11.3855
▁లక్ష్మిని	-11.3856
ంటో	-11.3859
▁సంస్కృతిలో	-11.386
▁స్థిరపడి	-11.3862
ట్టే	-11.3863
▁తీసుకువచ్చి	-11.3866
▁పాటుగా	-11.3867
net	-11.3868
▁చేర్చుత	-11.3868
▁ఉనికిలో	-11.3868
మూడి	-11.3869
అక్టోబరు	-11.387
దేవ్	-11.387
ఇతను	-11.3873
కాం	-11.3875
▁170	-11.3877
2000	-11.3877
▁కణ	-11.388
▁సులభం	-11.3885
▁అర్పించ	-11.3888
టొ	-11.3888
ేనని	-11.3889
అంటే	-11.3891
1938)	-11.3895
▁నిప్పు	-11.3896
▁చల్లగా	-11.3897
▁వచ్చినా	-11.3901
▁ఎప్పటిక	-11.3902
వయ్యా	-11.3903
▁పేరే	-11.3903
▁సూరి	-11.3905
ుల్	-11.3906
శక	-11.3911
డల	-11.3913
▁తరగతుల	-11.3913
▁అధికారాలు	-11.3918
▁ధైర్యం	-11.3919
▁సదుపాయాల	-11.392
రంభ	-11.3925
ుకుంటే	-11.3926
▁బౌద్ధమత	-11.3929
పరచి	-11.3932
▁అద	-11.3935
▁కామన్	-11.3936
▁చేసుకొంట	-11.3936
▁నిరంతర	-11.3938
▁రచనలను	-11.3938
ఖు	-11.3939
▁అనేకం	-11.3939
▁ఖాత	-11.3942
ించెను	-11.3942
▁తెచ్చుకున్న	-11.3942
▁(7	-11.3945
నాధ్	-11.3945
▁చింతల	-11.3945
ుల్లో	-11.3948
▁అంక	-11.395
▁ప్రదక్షిణ	-11.3952
▁తాళ	-11.3955
▁చిలక	-11.3958
▁సంహరించ	-11.396
▁వంటకాల	-11.396
▁వచ్చును	-11.3962
▁జరిపించ	-11.3962
పట్టణం	-11.3963
▁పరికరాల	-11.3965
II	-11.3966
తాయ	-11.3969
ూన్	-11.397
ap	-11.3971
పట్టి	-11.3971
▁ముస్లిముల	-11.3971
▁రాముడి	-11.3973
▁కొనసాగి	-11.3974
భోగ	-11.3974
రైన	-11.3979
▁ప్రజల్లో	-11.3982
వంశం	-11.3983
ous	-11.3985
▁అంది	-11.3987
ut	-11.3987
టూరు	-11.3989
▁సమయము	-11.3994
పత్	-11.3994
▁క్రీడలలో	-11.3996
చింది	-11.3998
▁బంధువుల	-11.3999
▁తిరుపతిలో	-11.4
▁కొనసాగుతున్న	-11.4001
▁గురై	-11.4001
▁వెచ్చ	-11.4003
ుచున్నవి	-11.4003
title	-11.4007
.1998)	-11.4007
▁అలంకరణ	-11.4007
▁ఔరంగాబాద్	-11.4007
▁కెప్టెన్	-11.4007
▁గాయకురాలు	-11.4007
▁తానీషా	-11.4007
▁తృతీయ	-11.4007
▁పుదుచ్చేరి	-11.4007
▁ప్రమాణస్వీకారం	-11.4007
▁మంజీరా	-11.4007
▁స్వాగతం	-11.4007
▁పురస్కరించుకొని	-11.4007
▁లిఖిత	-11.4007
▁అచ్చంపేట	-11.4007
▁తజిక్	-11.4007
▁జడ్జి	-11.4007
▁కాంప్లెక్స్	-11.4007
india	-11.4007
▁ధ్వని	-11.4007
▁గ్రీన్	-11.4007
▁వారపత్రిక	-11.4007
▁అంతిమ	-11.4007
▁లీడర్	-11.4007
▁భగవాన్	-11.4007
▁చంద్రబాబునాయుడు	-11.4007
▁గడిపాడు	-11.4008
▁ఆదేశాల	-11.4008
▁వైశాలి	-11.4008
▁వరుణ	-11.4008
▁అందుచేత	-11.4008
▁పీచు	-11.4008
▁దేశమంతటా	-11.4008
▁వందలాది	-11.4009
▁మొదలుకొని	-11.4009
▁వెంకట్రావు	-11.4009
▁రాకెట్	-11.4009
▁శనివారంనాడు	-11.4009
▁శ్రీరామమూర్తి	-11.401
▁హిందూమత	-11.401
▁అవుతాయి	-11.401
▁ముంపు	-11.4011
▁తీసుకోలేదు	-11.4011
▁కుదిరింది	-11.4011
▁విష్ణుమూర్తి	-11.4011
▁జులై	-11.4012
▁చేరుకుని	-11.4012
ph	-11.4012
▁మొదలుపెట్టారు	-11.4012
▁చిత్రాల్లోనూ	-11.4013
▁అవుతాడు	-11.4013
▁వ్రాసాడు	-11.4013
▁తీసికొని	-11.4013
▁చూడటానికి	-11.4013
▁రవీంద్రనాథ్	-11.4014
▁ఆలపించ	-11.4014
▁ప్రవేశపెట్టింది	-11.4014
▁పిల్లా	-11.4015
▁తెలియజేస్తుంది	-11.4016
▁పుత్రులు	-11.4016
▁విశ్లేషణ	-11.4016
▁ఇళ్ల	-11.4016
▁మీడియా	-11.4017
▁నిలిచారు	-11.4018
▁ఛత్తీస్	-11.4018
▁అవతారాల	-11.4019
▁నిల	-11.4019
▁ఋణ	-11.4019
▁వాడకం	-11.4019
▁పెద్దయె	-11.4019
▁సాధువు	-11.4019
▁మధ్యాహ్నం	-11.402
టుకు	-11.4021
▁మొవ్వ	-11.4022
పుట	-11.4022
▁యునెస్కో	-11.4023
▁వశిష్ట	-11.4023
▁పాక	-11.4023
▁ఓడించాడు	-11.4023
▁చేసుకోవచ్చు	-11.4024
▁కార్యాలయాన్ని	-11.4024
మయ్యాయి	-11.4024
లాస	-11.4024
▁కలిగిస్తుంది	-11.4025
▁చిన్ననాటి	-11.4025
▁నాగరాజు	-11.4026
▁గంగమ్మ	-11.4026
జిన్	-11.4027
▁తగ్గింది	-11.4027
▁చరణ్	-11.403
▁కనిపించింది	-11.403
▁శ్రీకాంత్	-11.4031
▁విస్తరించిన	-11.4031
▁కావూరు	-11.4032
▁కల్పించారు	-11.4032
▁సికింద్రాబాద్	-11.4032
▁నిశ్చయ	-11.4033
ర్క్	-11.4035
▁నిజమైన	-11.4036
▁మల్	-11.4036
▁రఘురామయ్య	-11.4037
▁పాయింట్	-11.4037
కంద	-11.4038
▁వాన్	-11.4038
▁ప్రణయ	-11.404
▁ముక్తి	-11.4044
▁కోటేశ్వరరావు	-11.4044
▁మార్పిడి	-11.4046
▁ఒకరైన	-11.4047
▁మోత	-11.4048
▁అదుపులో	-11.4048
▁పనిచేస్తున్నారు	-11.4048
స్తుంటారు	-11.405
▁బట్టలు	-11.4051
▁ఫోర్	-11.4051
▁జలపాతాలు	-11.4052
▁ఉద్యోగాలు	-11.4052
▁జాగ్రత్తగా	-11.4052
▁యూదులు	-11.4054
▁భవనాన్ని	-11.4054
▁చేసినట్లు	-11.4055
జాతుల	-11.4056
▁కొక్	-11.4058
▁కావచ్చును	-11.4058
▁రథం	-11.4062
▁ఫలితాలు	-11.4063
▁సాంప్రదాయిక	-11.4064
▁క్షేత్రాలు	-11.4064
▁సంవత్సరాల్లో	-11.4066
▁In	-11.4071
▁తిరస్కరించ	-11.4072
▁ఉష్ణోగ్రతలు	-11.4073
▁గర్వ	-11.4079
శ్రీకృష్ణదేవరాయల	-11.4079
ందె	-11.4079
▁స్వామివారు	-11.4079
▁ఓంకార	-11.4081
▁పత్ర	-11.4081
▁తవ్వ	-11.4085
నాయకుని	-11.4088
▁డేటా	-11.4089
సభ్య	-11.4091
ాదులు	-11.4092
▁నిలిచిన	-11.4093
▁మండ	-11.4094
వంతమైన	-11.4098
సస్	-11.4099
గాలి	-11.41
▁తం	-11.41
▁సుందరమైన	-11.4101
పోవడంతో	-11.4103
ంబర్	-11.4103
▁కార్మికులు	-11.4105
ాధ్యాయ	-11.4106
▁మార్క్	-11.411
న్యూ	-11.411
▁అరు	-11.4111
▁దె	-11.4111
▁అర్చన	-11.4113
ాచార్యుల	-11.4113
▁కని	-11.4114
▁కాల్వ	-11.4116
▁ముఖద్వారం	-11.4116
▁సంబంధము	-11.4117
ుడగు	-11.4117
▁నేపథ్యం	-11.4118
రసం	-11.4118
▁నీలి	-11.412
▁వేయడం	-11.4121
ోలి	-11.4125
నాద	-11.4125
▁శతాబ్ధ	-11.4129
మ్స్	-11.4129
తిన్	-11.4129
▁ముద్రించ	-11.4131
▁పద్మనాభం	-11.4134
▁నిరాకరించ	-11.4136
▁సుందర్	-11.4138
ప్స్	-11.4138
హై	-11.4142
▁సంవత్సరాలలో	-11.4143
▁ఆంగ్లం	-11.4143
▁పన్నులు	-11.4144
▁తొండ	-11.4147
▁విజయానికి	-11.415
▁ఉండడంతో	-11.4155
ik	-11.4157
సర్గ	-11.4159
▁నిషేధం	-11.416
▁ప్రవాస	-11.4161
▁బంధు	-11.4165
▁అలియా	-11.4166
▁కానుక	-11.4166
▁అంతస్తుల	-11.4167
▁చైతన్యం	-11.4168
▁ప్రవహిస్తున్న	-11.417
▁కొని	-11.417
▁చెల	-11.417
▁పిల్లల్	-11.4172
▁కాండము	-11.4172
కింద	-11.4173
▁పొలాల	-11.4173
▁దక్షిణాఫ్రికా	-11.4173
▁రాళ్ళు	-11.4174
▁ఉద్యోగి	-11.4176
▁వ్యవహరించ	-11.4177
▁నాయక్	-11.4177
6,000	-11.4178
▁దివా	-11.4179
▁ఐస్	-11.4181
▁మస్	-11.4182
▁రణ	-11.4185
హన	-11.4186
▁అంజి	-11.4189
▁దేవతా	-11.4192
▁పూరించ	-11.4198
▁గ్రామదేవత	-11.42
స్సా	-11.4201
బడినది	-11.4202
The	-11.4203
సుబ్బారావు	-11.4203
నాగేశ్వరరావు	-11.4203
సుబ్బ	-11.4204
▁సాహిత్యానికి	-11.4206
ప్రేమ	-11.4207
▁గురైన	-11.4208
▁కన్నె	-11.4211
▁ఆప్	-11.4212
▁de	-11.4213
▁వలపు	-11.4217
▁పోతుల	-11.422
ాలయాలు	-11.4221
▁సమర్ధ	-11.4221
▁హరిత	-11.4222
▁వార్షికోత్సవ	-11.4222
▁కృష్ణయ్య	-11.4224
▁నాగేంద్ర	-11.4227
▁హర్	-11.4229
▁165	-11.423
▁సమైక్య	-11.4234
▁ధాన్య	-11.4235
▁124	-11.4235
▁వాస	-11.4238
▁ప్రియా	-11.4241
▁వారాల	-11.4242
▁వాల	-11.4244
వాదులు	-11.4244
▁వహిస్త	-11.4245
▁పట్టే	-11.4247
▁నరసింహం	-11.4247
▁యోగము	-11.4248
▁పార్టీల	-11.4248
ుతున్నది	-11.4251
శాడు	-11.4253
▁పోటీలో	-11.4253
కాల్	-11.4256
▁127	-11.4257
ించేవారు	-11.4258
▁జొ	-11.4258
రేషన్	-11.4258
▁అధ్యయన	-11.4261
▁భయం	-11.4262
▁కొంతభాగ	-11.4263
▁స్థలాల	-11.4265
▁అనసూయ	-11.4265
▁పాండవ	-11.4266
▁జాగ్రత్త	-11.4267
▁పాదాలు	-11.4269
▁అద్దె	-11.4271
▁మంత్రివర్గ	-11.4274
▁గురయ్య	-11.4279
మల్లికార్జునరావు	-11.4279
▁భీమేశ్వర	-11.428
▁కొలువులో	-11.428
▁భారతీయులు	-11.4281
▁కూరగాయల	-11.4281
మట్టి	-11.4282
▁శి	-11.4283
▁మెడ	-11.4283
▁స్థిరపడిన	-11.4283
భీమ	-11.4283
నట	-11.4284
▁157	-11.4285
రుద్ర	-11.4286
▁బొమ్మలాట	-11.4288
▁బిళ్ళ	-11.4288
రణాల	-11.4289
▁గర్భగుడి	-11.4289
▁హిమాలయాల	-11.429
▁దుస్తుల	-11.4291
ెవరో	-11.4292
హన్	-11.4292
▁పాలనలోకి	-11.4294
కిచ్చి	-11.4295
▁పుస్తకంలో	-11.4298
▁సముద్రతీరం	-11.4298
tt	-11.4303
గ్యా	-11.4304
▁సందర్శించిన	-11.4305
▁తరాల	-11.4308
▁యుండ	-11.4309
యానం	-11.431
▁గద	-11.4311
▁నాగూర	-11.4313
స్తార	-11.4313
▁సభా	-11.4314
▁అంతర్భాగం	-11.4314
లాగే	-11.4314
వెంకటేశ్వరస్వామి	-11.4314
కునిగా	-11.4315
ారణ్య	-11.4315
ందురు	-11.4315
▁వల్లూరు	-11.4316
▁ద్వాదశ	-11.4318
షియా	-11.4318
స్తున్నా	-11.4322
▁చక్రము	-11.4324
▁ఉత్తరంగా	-11.4324
▁పరిచయ	-11.4329
▁కారణ	-11.4329
▁దేవుడ	-11.433
▁ప్రతినాయక	-11.4332
▁సాగే	-11.4335
హార్డ్	-11.4336
▁జగన్నాథ	-11.4336
సూచి	-11.4337
▁రాజపుత్ర	-11.4338
▁వర్ధిల్ల	-11.4339
▁తోలుబొమ్మల	-11.434
▁బుర్ర	-11.434
.1992)	-11.434
▁ఖరీఫ్	-11.434
▁చైనీస్	-11.434
▁ఛాంపియన్	-11.434
▁తుర్కమేనిస్తాన్	-11.434
▁నమోదైంది	-11.434
▁పాపఘ్ని	-11.434
▁మార్షల్	-11.434
▁మాల్దీవుల	-11.434
▁మెమోరియల్	-11.434
▁శ్రీమహావిష్ణువు	-11.434
orld	-11.434
▁టమోటా	-11.434
▁అందుకనే	-11.434
▁పండిట్	-11.434
▁దిగుబడి	-11.434
▁క్రమశిక్షణ	-11.434
▁షరతు	-11.434
▁వామపక్ష	-11.434
▁ఐక్యరాజ్య	-11.434
▁చెప్పుకోదగిన	-11.434
▁జ్వరం	-11.434
▁ఎరుపు	-11.434
▁మహాత్మాగాంధీ	-11.434
▁కమలాబాయి	-11.434
▁పొదిలి	-11.4341
▁కోరుట్ల	-11.4341
▁గూడవల్లి	-11.4341
▁పనిచేసారు	-11.4341
▁స్కంద	-11.4341
▁మైక్రో	-11.4341
▁ఛాయాగ్రాహకుడు	-11.4341
▁ప్రారంభమవుతుంది	-11.4341
▁ఎన్నికయ్యారు	-11.4341
▁చీఫ్	-11.4341
▁డబుల్	-11.4342
▁సింగపూర్	-11.4342
▁సుమతీ	-11.4342
▁గురువారంనాడు	-11.4342
av	-11.4342
▁విప్లవాత్మక	-11.4342
దయా	-11.4342
▁వాడుతున్నారు	-11.4342
▁పేజీలున్నందు	-11.4342
▁బ్రహ్మపుత్ర	-11.4343
▁డచ్చి	-11.4343
అన్న	-11.4343
▁అదిలాబాదు	-11.4344
▁ధర్మారం	-11.4344
▁లభిస్తాయి	-11.4344
షీద్	-11.4344
▁ఇంటిని	-11.4345
▁అప్పుడప్పుడు	-11.4345
▁అందిస్తున్నాయి	-11.4345
▁మానస	-11.4345
▁జోషి	-11.4346
▁గాంచింది	-11.4346
▁ప్ల	-11.4348
▁ఇల్లాలు	-11.4348
▁విరిగి	-11.4349
▁కలాం	-11.435
▁ఆద్యుడు	-11.4351
▁అనువదించారు	-11.4351
▁పోషించింది	-11.4351
▁ఉత్తరాఖండ్	-11.4352
▁మునిసిపాలిటీ	-11.4352
▁త్రాగునీటి	-11.4352
▁1858	-11.4354
▁రంగాచార్యులు	-11.4356
▁రస్	-11.4357
▁దాటిన	-11.4357
▁ప్రవేశపెట్టారు	-11.4357
▁నగరి	-11.4357
▁590	-11.4357
▁శిష్యుడు	-11.4358
▁అనుభవించాడు	-11.4359
▁నాంది	-11.436
▁ఆనవాళ్ళు	-11.4361
▁హరికథా	-11.4361
▁భానుప్రియ	-11.4362
▁డాన్స్	-11.4362
▁వ్యక్తిని	-11.4363
వెల	-11.4363
▁భేదములు	-11.4364
▁పాకాల	-11.4364
ున్నాడు	-11.4364
▁ఆయనే	-11.4364
▁ఉష్ణమండల	-11.4364
▁కలువ	-11.4365
▁సంయుక్తంగా	-11.4365
తమ	-11.4366
▁చాలాకాలం	-11.4366
▁జయలలిత	-11.4367
▁తీసుకున్నాడు	-11.4368
▁తిమ్మన	-11.4368
400	-11.4369
▁నిర్మించే	-11.437
▁ఆపద	-11.437
▁ముఖ్యమంత్రులు	-11.4371
▁ఆచార్యుడు	-11.4373
▁కృత	-11.4374
▁ఫర్డ్	-11.4375
▁ముంద	-11.4375
▁అక్షాంశం	-11.4375
▁కొవ్వు	-11.4376
రాయల	-11.4376
▁రాష్ట్రీయ	-11.4377
గిల్	-11.4378
▁మండలంతో	-11.438
▁స్వరపరిచ	-11.4382
▁తేమ	-11.4382
సోమ	-11.4383
▁మినీ	-11.4384
మానవ	-11.4385
▁ముక్క	-11.4385
▁పడుతున్న	-11.4386
▁రూపాన్ని	-11.4389
▁మొదలయ్యింద	-11.4389
▁గోల్	-11.4392
▁ప్రసిద్ధుడు	-11.4392
▁రాజేంద్రప్రసాద్	-11.4394
▁పాత్రలలో	-11.4394
▁[1]	-11.4395
▁వస్తా	-11.4398
▁భరత్	-11.4399
▁సంప్రదాయానికి	-11.4399
▁చదువుకున్న	-11.4399
▁జాడ	-11.44
▁మనోహర	-11.4403
▁ప్రాకారం	-11.4403
యాస	-11.4403
▁గావించ	-11.4405
▁సత్యజిత్	-11.4407
har	-11.441
▁కలలు	-11.4411
▁ధారణ	-11.4412
క్లి	-11.4413
▁మీది	-11.4414
▁సంఘటనల	-11.4415
▁సన్యాసి	-11.4417
blog	-11.4419
▁కొల్ల	-11.442
ాడనీ	-11.4421
దవ	-11.4422
▁తీసుకొ	-11.4425
▁రామన్న	-11.4426
వూరు	-11.4426
▁ఇంతే	-11.443
▁తయారుచేసిన	-11.443
▁(16	-11.4432
వడం	-11.4433
▁కావ్యాలు	-11.4434
▁వాద్య	-11.4436
▁వెళ్ళింది	-11.4436
ver	-11.4436
ాశ్రమం	-11.4438
▁వెస్ట్	-11.4443
▁వరస	-11.4444
▁ఉరి	-11.4445
ుంటాడు	-11.4447
▁అరెస్ట	-11.4447
7)	-11.4447
▁గోడకు	-11.4449
ఘర్	-11.445
జిత	-11.445
▁ప్రస్థానం	-11.4452
▁భారతదేశము	-11.4454
▁కలది	-11.4455
▁సంతాన	-11.4456
▁జాలి	-11.4456
▁వివాద	-11.4457
▁వీళ్ళ	-11.4459
▁గరి	-11.4459
▁ఆలోచించ	-11.4459
▁శాస్త్రంలో	-11.446
▁పోక	-11.4462
▁145	-11.4462
▁పోడూరు	-11.4464
▁కుమారుని	-11.4466
▁ఆరంభకాల	-11.4466
▁వ్యవహార	-11.4468
ికల్	-11.4468
▁అడుగ	-11.4471
▁చాప	-11.4475
▁ఇండియాలో	-11.4476
▁ట్యూ	-11.4477
▁గుర	-11.4478
▁కరణం	-11.4481
ంట్లో	-11.4482
▁కలలో	-11.4487
▁నడుస్తున్న	-11.4487
▁నటీ	-11.4488
లేకపోయింది	-11.4488
▁వాచ	-11.449
▁బోర్	-11.4491
▁నిరుద్యోగ	-11.4494
▁ప్రసిద్ధమైన	-11.4497
లాస్	-11.4498
▁విపరీత	-11.4499
▁మందిని	-11.4504
▁తీర్చుకున్నా	-11.4509
▁ఉంటా	-11.451
▁క్రియ	-11.451
▁మృ	-11.451
▁చెప్పవచ్చును	-11.4511
▁నాగేశ్వర	-11.4511
▁114	-11.4512
▁కలవు	-11.4513
▁దండి	-11.4517
▁గ్రంథాలను	-11.4519
▁మదర్	-11.452
▁కలియుగ	-11.4526
▁షియా	-11.4527
ుచుండ	-11.4529
▁చేయబడ	-11.4531
▁గర్	-11.4532
▁వేసవిలో	-11.4536
1951)	-11.4537
▁సమీపములో	-11.4537
,500	-11.4538
▁దీనిపై	-11.4538
సెంట్	-11.454
▁అధికరణ	-11.4541
▁గమనించి	-11.4544
▁వూరిలో	-11.4544
▁అవకాశము	-11.4546
▁పోయాయి	-11.4546
▁ఆశ్చర్య	-11.4546
రవాణా	-11.4547
కళ్యాణ	-11.4547
రక్షణ	-11.4547
▁పరిమితమైన	-11.4549
పడే	-11.4551
▁నింప	-11.4552
మృత	-11.4558
▁జీవితాంత	-11.4558
ౌతుంది	-11.4565
▁వాస్తవ	-11.4569
మర్రి	-11.4572
దానా	-11.4572
▁పిలువబడ	-11.4572
▁నడుస్త	-11.4575
శైలి	-11.458
▁కృష్ణకు	-11.4584
ఫార్	-11.4584
వాసి	-11.4584
▁అల్లం	-11.4584
▁గానూ	-11.4584
?"	-11.4584
గమనం	-11.4585
▁రాయల్	-11.4589
వరపు	-11.459
బాట	-11.459
▁మిస్	-11.4591
▁భవిష్యత్తు	-11.4594
దొ	-11.4595
▁శతాబ్దాలలో	-11.4603
▁పార్లమెంట	-11.4609
▁సంస్కృతిని	-11.461
▁టెక్	-11.4612
▁ద్రవ	-11.4615
ud	-11.4617
▁వాసి	-11.4617
వసంత	-11.4617
▁విచిత్ర	-11.4618
▁గృహం	-11.462
చారి	-11.4624
▁లలితా	-11.4626
▁హూ	-11.4627
▁స్థానము	-11.4629
కోడ్	-11.4629
▁కవులలో	-11.4637
▁మస	-11.4637
సంత	-11.4639
▁కమ్యూనిష్టు	-11.4642
▁చిత్రంతో	-11.4644
పడ్డాడు	-11.4649
ాలపై	-11.4654
▁202	-11.4655
▁పాటలో	-11.4657
ow	-11.4658
▁Lin	-11.4658
▁ఎక్కడి	-11.4658
▁అందించి	-11.466
ంగానూ	-11.4665
పడ్డారు	-11.4665
శ్రీశ్రీ	-11.4668
▁అంధ	-11.4669
▁భీష్మ	-11.467
వ్యాప్త	-11.4676
▁విజ్ఞానం	-11.4677
▁ఏర్పడ్డ	-11.4678
వట	-11.468
▁గౌరీ	-11.4681
▁అవార్డులు	-11.4682
▁కృష్ణమాచార్య	-11.4683
▁చలపతి	-11.4683
▁సిమెంట్	-11.4684
▁జ్ఞానము	-11.4684
2)	-11.4685
▁సంస్థలకు	-11.4685
▁ఘగ్గర్	-11.4685
.1976)	-11.4685
ననుసరించి	-11.4685
▁ఇటాలియన్	-11.4685
▁కనిపిస్తాడు	-11.4685
▁కమిషను	-11.4685
▁గాయత్రీ	-11.4685
▁చుండూరు	-11.4685
▁చురుకైన	-11.4685
▁జడ్చర్ల	-11.4685
▁జాగీరు	-11.4685
▁ధూర్జటి	-11.4685
▁నిర్వచించ	-11.4685
▁ప్రయోక్త	-11.4685
▁ప్రెసిడెంట్	-11.4685
▁బంగాళాదుంప	-11.4685
▁బాలమురళీకృష్ణ	-11.4685
▁రిజర్వాయర్	-11.4685
▁లినక్సు	-11.4685
▁విద్వాన్	-11.4685
▁వెంపటి	-11.4685
▁సంతృప్తి	-11.4685
▁సెక్రటరీ	-11.4685
▁హరీశ్	-11.4685
▁పరిమళ	-11.4685
▁మర్యాద	-11.4685
.1911)	-11.4685
▁బాపిరాజు	-11.4685
▁ఎనలేని	-11.4685
▁బ్రహ్మంగారు	-11.4685
▁తత్త్వవేత్త	-11.4685
▁పుష్కరిణి	-11.4685
మండ	-11.4685
▁తొందర	-11.4685
▁బిర్లా	-11.4685
▁వేదపండితుల	-11.4685
▁వెన్నెలకంటి	-11.4685
▁ప్లాంటు	-11.4685
▁ఫ్లాష్	-11.4685
▁సభ్యుడిగా	-11.4686
ట్లయితే	-11.4686
▁పేపర్	-11.4686
▁మాట్లాడుతూ	-11.4687
▁భవాని	-11.4687
▁పూజిస్తారు	-11.4687
▁టైప్	-11.4688
▁త్యాగయ్య	-11.469
▁కొడవట	-11.469
న్టీఆర్	-11.469
▁ఎవరికీ	-11.4691
▁ప్రకటిస్త	-11.4691
▁రజనీకాంత్	-11.4692
▁కల్పించడానికి	-11.4692
▁పొందుతాడు	-11.4694
▁దీనివల్ల	-11.4695
▁కావడానికి	-11.4696
▁మ్యూజిక్	-11.4697
▁పేదలకు	-11.4697
▁విక్టోరియా	-11.4697
▁పూజారి	-11.4698
▁మనసే	-11.4699
కుడిగా	-11.4699
▁నిర్వహించడానికి	-11.47
యగు	-11.47
▁భూభాగాన్ని	-11.47
▁కురుక్షేత్ర	-11.47
ండును	-11.47
▁మన్ననల	-11.47
పనేని	-11.47
▁వ్యాపించ	-11.4703
▁స్టీ	-11.4703
▁ప్రధానపాత్ర	-11.4703
▁సంక్షోభం	-11.4705
▁పర్సన్	-11.4707
▁కోకిల	-11.4707
▁స్థానాల	-11.471
▁కోటగిరి	-11.471
1958)	-11.4711
▁బాధ్యతలను	-11.4712
▁గన్నవరం	-11.4712
▁కొలనుపాక	-11.4712
▁కొనసాగించారు	-11.4714
▁దూక	-11.4714
▁రాగానే	-11.4714
బడుతున్న	-11.4715
▁ఇండోర్	-11.4715
ప్రేమించుకుంటారు	-11.4718
▁ఉపనదులు	-11.4718
▁యమునా	-11.4718
▁రెండుసార్లు	-11.4719
▁నను	-11.472
ినారు	-11.4721
▁గణపవరంలో	-11.4722
▁కిరీట	-11.4723
▁వచ్చేది	-11.4723
▁చెరుకు	-11.4723
▁ఆపరేటివ	-11.4723
▁107	-11.4725
▁ప్లాన్	-11.4726
కూడదని	-11.4728
▁వ్యక్తిత్వం	-11.473
ోల్	-11.473
▁జమిందారు	-11.4733
▁తిరునాళ్ళు	-11.4733
▁ప్రబల	-11.4734
▁ముగింపుకు	-11.4734
▁గోపుర	-11.4736
▁సంగీతానికి	-11.4739
కోల్	-11.4741
▁భావాలు	-11.4743
▁ప్రయాణించి	-11.4745
▁సుధా	-11.4746
▁అధీనంలోకి	-11.4748
ంచింది	-11.4749
▁మృగ	-11.4751
▁బయలు	-11.4751
▁పెడతాడు	-11.4752
కల్లు	-11.4753
▁అందరు	-11.4754
▁అండగా	-11.4755
▁బ్రాహ్మణులు	-11.4756
▁నగలు	-11.4756
▁విఠలాచార్య	-11.4756
▁గట్టిగా	-11.4757
▁ముప్పు	-11.4759
నీరు	-11.476
▁కూడి	-11.4764
▁భవ	-11.4765
▁మాటల్లో	-11.4766
▁వ్యవహారాలు	-11.4766
vi	-11.4766
▁ముఖ్	-11.4767
▁విచార	-11.4767
▁విధానాలను	-11.4767
▁హిందు	-11.4767
నమ్మా	-11.4767
▁బెడ్	-11.4772
▁బేర	-11.4776
ిస్ట్	-11.4777
▁యాత్రా	-11.478
ైక	-11.4781
ములైన	-11.4782
▁గ్రంధ	-11.4782
▁పూరి	-11.4782
▁మౌ	-11.4783
▁భాగాలను	-11.4783
▁కాళీ	-11.4785
no	-11.4788
▁షాపు	-11.4788
▁కొన్న	-11.4789
▁ప్రమాణాల	-11.4789
▁సంపాదిస్త	-11.4794
▁లింగాన్ని	-11.4795
▁హీ	-11.4795
▁దుర్గి	-11.4797
▁ఓడిపోయి	-11.4798
▁పాస్	-11.4799
▁వర్షం	-11.48
మండ్	-11.4804
చేసింది	-11.4804
▁ప్రముఖమైన	-11.4805
▁అరణ్యాల	-11.4807
▁ప్రాజెక్టుకు	-11.4809
▁ప్రశస్తి	-11.481
▁మహదేవన్	-11.4811
▁బాలుడు	-11.4812
▁దీవులు	-11.4813
▁పట్	-11.4814
▁పద్ధతులు	-11.4816
్యాం	-11.4821
▁ఎల	-11.4823
▁రమా	-11.4825
▁న్యాయవాద	-11.4826
▁కాపు	-11.4827
లాగానే	-11.4829
ైకాల	-11.4829
ుకోవటానికి	-11.4832
▁అశోకు	-11.4833
▁వైభవ	-11.4835
పూర్వక	-11.4836
▁సంబంధమైన	-11.4836
ుడైనాడు	-11.4837
ొకటి	-11.4838
టీన్	-11.4844
ాంతం	-11.4844
సుకో	-11.4846
▁భయపడి	-11.4847
▁రాజ్యాంగంలో	-11.4848
▁వృ	-11.4848
రాజుల	-11.4848
▁దేశాలతో	-11.485
▁అల్ప	-11.4851
▁అనంతర	-11.4854
▁మాట్లాడి	-11.4855
▁పావన	-11.4855
▁బాగ	-11.4859
సంబంధ	-11.486
the	-11.4861
▁గలదు	-11.4863
ల్లారా	-11.4865
▁గుణం	-11.4865
▁(17	-11.4869
▁ప్రమాణం	-11.4869
▁113	-11.4869
▁చెరువులో	-11.4871
▁వేదాలు	-11.4872
▁మనసులో	-11.4875
ాకృతి	-11.4876
▁సమీపాన	-11.4878
సింహ	-11.4878
ండ్రు	-11.488
ిచ్చిన	-11.4881
ఆంగ్ల	-11.4882
ధ్ధ	-11.4882
▁ఏలూరులో	-11.4883
▁విమర్శించ	-11.4885
▁తండ్రికి	-11.489
ప్రాంతాల	-11.4891
▁వాళ్లు	-11.4892
థర్	-11.4892
▁లక్షణ	-11.4894
▁గాత్ర	-11.4895
▁మసీదులు	-11.4895
వృత్తి	-11.4896
▁గింజలు	-11.4899
▁చేయడంతో	-11.4901
▁జరుగు	-11.4902
స్తులు	-11.4902
▁పోరాటాల	-11.4902
▁దేశ్	-11.4902
విష్ణు	-11.4903
పర్వం	-11.4903
▁అభిమానం	-11.4905
ఏప్రిల్	-11.4905
తూర్పు	-11.4905
▁లాస్	-11.4906
శాతం	-11.4907
కోమల	-11.491
▁మార్గములో	-11.4913
▁బంగార	-11.4914
మరణ	-11.4915
▁Ma	-11.4915
▁యాద	-11.4917
▁సొంతం	-11.4918
▁పట్టణాన్ని	-11.4918
▁అందులోని	-11.4919
కున్నా	-11.492
▁నాగరికతకు	-11.4925
▁ఆడి	-11.4925
ఈనాడు	-11.4927
న్యా	-11.4931
కుటుంబ	-11.4931
▁సైన్యంలో	-11.4932
తీయ	-11.4936
ిస్తానని	-11.4938
▁జలాశయ	-11.4939
▁స్థానికుల	-11.4939
యొ	-11.494
▁తనే	-11.4947
▁(8	-11.4952
లన్	-11.4953
▁చక్కట	-11.4954
▁కలిస	-11.4957
రామలింగేశ్వరరావు	-11.4958
వెల్లి	-11.4958
టంలో	-11.4959
2008	-11.4959
కారము	-11.4959
ot	-11.4961
▁చుట్టి	-11.4962
▁ఒంటరి	-11.4963
▁141	-11.4967
▁1,2	-11.4968
బడలేదు	-11.4971
మండలి	-11.4971
▁ఉపయోగపడ	-11.4972
▁సరసు	-11.4972
▁కండ	-11.4982
▁వార్తల	-11.4984
▁సంతోషం	-11.4985
▁ఉర్	-11.4986
డతారు	-11.4987
▁ఆక్రమించుకున్న	-11.4988
▁వీటితో	-11.4991
▁కథలను	-11.4991
▁కోదండరామ	-11.4993
▁జింక	-11.4993
▁కొండలలో	-11.4994
▁ఫలితం	-11.4998
▁136	-11.4998
▁గజపతుల	-11.4999
▁విద్యాలయ	-11.4999
▁తుల	-11.4999
ాలూ	-11.5
గును	-11.5001
▁శ్రీరంగం	-11.5001
▁త్రవ్వకాల	-11.5003
▁విశాల	-11.5004
కెల్లా	-11.5006
▁త్రిలింగ	-11.501
▁206	-11.5011
▁ధ్వజస్తంభ	-11.5011
▁ఖడ్గ	-11.5012
▁చిహ్నం	-11.5012
ింపు	-11.5013
▁అమలాపురం	-11.5013
▁రమణీయ	-11.5014
వయసులోనే	-11.5014
▁లైట్	-11.5014
▁లింకు	-11.5018
▁విడిచిపెట్టి	-11.5018
▁ఆశ్రమంలో	-11.5019
ాగ్ర	-11.502
▁ఆకర్షించ	-11.502
ంచుకుని	-11.5024
▁నడప	-11.5024
▁సంభవించ	-11.5026
▁పూర్వీకుల	-11.5033
▁వాగ్	-11.5034
▁హోమం	-11.5034
▁స్వేచ్ఛా	-11.5035
▁మూవీ	-11.5035
▁చిలుక	-11.5035
▁కాళ్ల	-11.5037
▁పరు	-11.5042
▁అట్లూరి	-11.5042
▁అష్టాదశ	-11.5042
▁కలివికోడి	-11.5042
▁గిద్దలూరు	-11.5042
▁జోగులాంబ	-11.5042
▁ట్రాఫిక్	-11.5042
▁ఠాగూర్	-11.5042
▁తీర్ధప్రసాదాల	-11.5042
▁దూరదర్శన్	-11.5042
▁నైఋతి	-11.5042
▁పేష్వా	-11.5042
▁బద్వేలు	-11.5042
▁మల్లీశ్వరి	-11.5042
▁లక్ష్మీకాంతం	-11.5042
▁వైద్యారోగ్య	-11.5042
▁హుసేన్	-11.5042
▁టెక్కలి	-11.5042
▁రామలింగారెడ్డి	-11.5042
.1895)	-11.5042
.1896)	-11.5042
▁త్రిమూర్తుల	-11.5042
▁మ్యాచ్	-11.5042
.1919)	-11.5042
▁తెనుగు	-11.5042
▁భరణి	-11.5042
ఎత్తిపోతల	-11.5042
▁కిట్టయ్య	-11.5042
▁సున్నపురాయి	-11.5042
▁జరుపుకోగా	-11.5042
▁మానవతావాది	-11.5042
▁అనిసెట్టి	-11.5042
నప్పటికీ	-11.5042
▁అంతేకాకుండా	-11.5042
▁శిరస్సు	-11.5042
html	-11.5042
▁జవాబు	-11.5042
▁స్టాలిన్	-11.5042
▁విశాలాంధ్ర	-11.5042
▁అభినవ	-11.5042
▁సూఫీ	-11.5042
▁రిక్షా	-11.5043
▁కాళిదాసు	-11.5043
▁అంతకుముందు	-11.5043
▁తిరుగుతుంది	-11.5043
▁సిల్క్	-11.5043
.1987)	-11.5043
.1950)	-11.5043
▁నల్లగొండ	-11.5043
.1997)	-11.5043
▁లాటిన్	-11.5043
కావ్యాన్ని	-11.5043
▁భౌతికశాస్త్రం	-11.5043
▁ముప్పై	-11.5044
▁లార్డ్	-11.5044
▁రెగ్యులేటర్	-11.5044
▁అక్కడక్కడ	-11.5044
▁నిర్వహించుచున్న	-11.5044
▁తెలిపింది	-11.5044
▁ధరూర్	-11.5044
▁పందిరి	-11.5044
▁ఆపిల్	-11.5045
▁ఒరియా	-11.5045
▁ఇప్పటివరకు	-11.5045
▁పేర్కొనబడింది	-11.5045
▁తగ్గుతుంది	-11.5046
▁కేంద్రమంత్రి	-11.5046
▁నాలుగో	-11.5046
▁టైమ్స్	-11.5049
▁రోడ్దు	-11.5049
▁నిశ్చయించ	-11.505
▁స్వచ్ఛమైన	-11.505
▁ఏర్పాటుచేసారు	-11.505
నాటికీ	-11.505
▁అడ్రసు	-11.505
▁వన్య	-11.505
▁తెలివి	-11.505
▁రామాపురం	-11.5051
▁ఆయుధాల	-11.5051
నుండే	-11.5052
▁రకమైన	-11.5052
▁సంగారెడ్డిలోను	-11.5052
▁శాఖలు	-11.5053
▁బోర్డ్	-11.5053
బడుతోంది	-11.5054
▁ఊరేగించ	-11.5054
▁కట్టించారు	-11.5054
▁నామమాత్ర	-11.5054
ern	-11.5055
▁కాపీ	-11.5056
▁విభ	-11.5056
ంగీతం	-11.5056
▁ఎన్నుకున్న	-11.5056
గ్రంథ	-11.5056
▁నాటకాల్లో	-11.5059
వేలు	-11.506
▁బస్టాండ్	-11.506
▁షావుకారు	-11.506
▁చెప్పాలి	-11.5061
▁పురుషుడు	-11.5061
▁అందించింది	-11.5062
▁వంశీయులు	-11.5064
▁కదంబ	-11.5065
▁బాదామి	-11.5065
▁నగరపాలక	-11.5065
▁పతకాలు	-11.5065
▁కట్టించాడు	-11.5067
మాలిక	-11.5069
రాయలు	-11.5069
▁నాగమ్మ	-11.507
▁ఫిర్యాదు	-11.5071
▁యువకులు	-11.5071
▁మాండలికం	-11.5072
▁వెంకటరావు	-11.5072
▁అనారోగ్యంతో	-11.5073
▁ద్వారకా	-11.5073
▁ఆడే	-11.5073
▁సుంక	-11.5073
.1%	-11.5074
▁పొంగ	-11.5074
▁నటుల	-11.5074
▁విద్యాశాఖ	-11.5074
▁జనుల	-11.5077
▁వేణుగోపాల్	-11.5078
▁శాసనసభ్యులు	-11.508
▁దేశభక్తి	-11.508
▁మారాయి	-11.508
▁ఎగుమతులు	-11.5081
▁అట్ట	-11.5081
▁ఆత్మలింగ	-11.5083
▁సందర్శన	-11.5084
▁చూపించి	-11.5084
న్నింటిన	-11.5086
ిచ్చి	-11.5088
▁పరమాత్మ	-11.5089
▁భద్రత	-11.509
▁వ్రాయబడిన	-11.5092
▁సంహరించి	-11.5094
▁పల్లవులు	-11.5095
▁తేదీలలో	-11.5099
యడం	-11.5101
▁అభిమానులు	-11.5101
యోగ్య	-11.5102
▁బంధువులు	-11.5102
▁శ్రీకాకుళంలో	-11.5109
▁పంపే	-11.511
▁గ్రంథాలలో	-11.5113
▁ప్రభావము	-11.5114
▁తెనాలిలో	-11.5114
▁కూర్చున్న	-11.5116
▁ఎదిగి	-11.512
▁ప్రభావిత	-11.5123
పరిచి	-11.5124
▁నారాయణమూర్తి	-11.5124
▁లక్షణాలను	-11.5127
▁ఐటి	-11.5128
▁తిరిగే	-11.5129
▁రాష్ట్రాల్లో	-11.5129
▁గ్రహించిన	-11.513
▁సోషలిస్టు	-11.513
ళ్ళను	-11.5131
▁సర్వీసులు	-11.5135
▁చంద్రం	-11.5141
▁శ్రామిక	-11.5142
▁తోడ్పడ	-11.5145
▁పెంపొందించ	-11.5146
వెల్త్	-11.515
ల్లాప్రగడ	-11.5151
▁పీడ	-11.5154
▁గుట్టపై	-11.5155
▁చోళుల	-11.5155
▁అమ్మి	-11.5158
▁అలీన	-11.5162
పెంట	-11.5162
▁అప్పగించి	-11.5166
▁చిత్రీకరించ	-11.5167
ian	-11.5167
▁వ్యవహారం	-11.5167
▁గోవిందరావు	-11.5168
స్తున్నాయి	-11.5168
▁దశకం	-11.5169
▁అగ్రహారం	-11.517
▁నిండిన	-11.517
▁ఉద్యానవనం	-11.5172
వెంట	-11.5175
▁పలుకు	-11.5176
▁ఘన్	-11.5176
▁దర్శకుల	-11.5177
▁సాధిస్త	-11.5181
▁అంబా	-11.5186
▁కళ్యాణి	-11.5186
▁109	-11.519
▁గంధర్వ	-11.5193
952	-11.5194
▁కవితల	-11.5195
స్తుందని	-11.5196
▁వెంబడి	-11.5202
ానం	-11.5202
▁వాసన	-11.5203
▁సుదూర	-11.5204
▁పరిణ	-11.5204
ట్యూ	-11.5204
▁పడు	-11.5212
వాడా	-11.5212
▁దేవాలయాలలో	-11.5213
▁అలంకారం	-11.5214
కారణ	-11.5214
తమైన	-11.5218
▁నడచి	-11.5221
▁గాయ	-11.5224
▁యున్న	-11.5226
▁2,4	-11.5229
▁తీర్థం	-11.5229
▁వ్యక్త	-11.5232
▁విల్	-11.5235
▁వెలు	-11.5238
▁సవర	-11.5238
▁పవన	-11.5239
▁ఆనాడు	-11.5239
▁ఉపగ్రహాల	-11.524
1968)	-11.5242
▁ప్రసాదం	-11.5245
ైర్	-11.5245
ుంటే	-11.5245
ంటున్న	-11.5246
▁అధికమైన	-11.5247
కమల	-11.5247
▁ఒకరిన	-11.5248
▁తీస	-11.5248
వుతాడు	-11.5249
▁గమనించిన	-11.5249
▁అనంతపురంలో	-11.5249
▁భారతదేశాన్ని	-11.5253
య్యింది	-11.5256
▁గెలిచి	-11.5256
యాంగ్	-11.5257
▁గడించ	-11.5258
▁విశ్వేశ్వర	-11.5258
▁అడిగి	-11.5259
▁167	-11.5262
▁బీజ	-11.5264
▁అనుసంధానించబడి	-11.5266
ుడూ	-11.5267
ముఖ్యంగా	-11.527
▁మ్యూజియంలో	-11.5271
రైల్వే	-11.5275
హిందూ	-11.5276
కేశవ	-11.5276
▁524	-11.5279
▁సర్ప	-11.5285
▁కోవ	-11.5286
▁ముగ	-11.5287
సైన్	-11.5292
గుండా	-11.5292
▁బ్రా	-11.5293
క్రా	-11.5295
▁నెరవేర	-11.5299
▁పేట్	-11.5299
▁మచ్చ	-11.5299
▁be	-11.53
▁పిలువ	-11.5303
ఎత్తులో	-11.5303
▁ఫంక్షను	-11.5306
▁పెద్దల	-11.5307
మెన్	-11.5307
▁ఎవ్వర	-11.5308
పోవడానికి	-11.5308
▁320	-11.5308
సముద్రం	-11.5308
▁రూపొంద	-11.5309
▁క్వి	-11.5314
విశ్వనాథ్	-11.532
▁శాశ్వతంగా	-11.532
▁ప్రదేశాల	-11.5329
లాడే	-11.5329
▁పత్రం	-11.533
ేసే	-11.533
▁మహదేవ	-11.5332
ోద్యమం	-11.5333
▁కంబ	-11.5333
▁చిరుత	-11.5333
కాళ	-11.5334
ుకునేందుకు	-11.5335
▁చెరు	-11.5337
▁అభిప్రాయపడ్డా	-11.5337
▁వేటపాలెం	-11.5337
▁ఉంటుంద	-11.5338
▁పరీక్షించ	-11.5341
ించేవాడు	-11.5341
▁ఓట్ల	-11.5344
సంగీతం	-11.5345
ాయో	-11.5345
▁సన్మాన	-11.5351
షె	-11.5351
ష్య	-11.5353
▁900	-11.5353
▁శత్రువుల	-11.5354
▁మెడలో	-11.5356
▁చేశా	-11.5356
▁పొడవున	-11.5356
▁భూముల	-11.5357
▁భస్మ	-11.5359
సెన్	-11.5361
▁గుర్	-11.5363
యిక	-11.5364
▁విమర్శకుల	-11.5369
▁నౌ	-11.5372
శాస్త్రవేత్త	-11.5374
▁పట్టాభిషేక	-11.5374
▁బడిన	-11.5376
క్యూ	-11.5376
రవి	-11.5377
▁సేవకు	-11.5378
▁ఆమోద	-11.5379
వలసింది	-11.5383
▁కాల్	-11.5383
▁పుస్తకాలను	-11.5384
ాంశాల	-11.5388
▁విగ్రహము	-11.5388
▁k	-11.5389
▁ఆయన్న	-11.5393
▁ఐరోపాలో	-11.5395
▁దాతల	-11.54
▁అభిమన్యు	-11.5406
త్రయ	-11.5409
చ్చాడు	-11.5409
▁ఎడ్యుకేషన్	-11.5412
▁గోరుచిక్కుడు	-11.5412
▁దత్తాత్రేయ	-11.5412
▁పర్ణశాల	-11.5412
▁మంగేష్కర్	-11.5412
▁మళయాళ	-11.5412
▁రైతాంగ	-11.5412
▁శ్రీరామనవమి	-11.5412
▁సైబీరియా	-11.5412
hemistry	-11.5412
▁అణుబాంబు	-11.5412
▁ఇంజనీరింగు	-11.5412
▁క్యాన్సర్	-11.5412
▁ఖానాపూర్	-11.5412
▁సంకీర్ణ	-11.5412
coordinates	-11.5412
▁అమూల్య	-11.5412
▁ఆఫ్రికన్	-11.5412
▁స్పందన	-11.5412
.1890)	-11.5412
.1892)	-11.5412
.1899)	-11.5412
.1964)	-11.5412
వపేజీ	-11.5412
▁తాండవ	-11.5412
▁మిలటరీ	-11.5412
▁విభూతి	-11.5412
▁ఎఱ్ఱన	-11.5412
▁రుక్మిణి	-11.5413
▁కొంకణి	-11.5413
▁పానగల్	-11.5413
▁బహుభాషావేత్త	-11.5413
▁బాలగంగాధర	-11.5413
▁మసాలా	-11.5413
▁ఇరువుర	-11.5413
▁మంగళంపల్లి	-11.5413
.1973)	-11.5413
▁నర్సాపురం	-11.5413
▁ప్రయత్నిస్తుంది	-11.5413
▁పరిస్థితులలో	-11.5413
▁పూజించ	-11.5414
▁పూసపాటి	-11.5414
▁మైత్రి	-11.5414
▁దర్శించుకొని	-11.5414
▁బేగం	-11.5414
▁రాధాకృష్ణమూర్తి	-11.5414
▁గుంపు	-11.5415
.1945)	-11.5415
▁సీరియల్	-11.5415
▁పలాస	-11.5415
▁కలుస్తాయి	-11.5416
▁తర్క	-11.5416
▁వారధి	-11.5416
▁CD	-11.5416
▁డైరీ	-11.5416
▁పునర్విభజన	-11.5416
కముందే	-11.5417
▁సుగుణ	-11.5417
▁వెలువడింది	-11.5417
▁చెల్లించాలి	-11.5417
▁స్వాతి	-11.5417
▁పేరుపెట్ట	-11.5417
▁మంథని	-11.5417
▁కుమారస్వామి	-11.5418
▁ట్యాంక్	-11.5419
▁ఇనుప	-11.5419
▁అధిష్టించాడు	-11.5419
▁యుద్ద	-11.542
▁గారికి	-11.542
▁ప్రేమిస్తుంది	-11.542
▁బంగాళా	-11.5421
▁హాయి	-11.5421
▁ఇవ్వాలని	-11.5421
వారిపాలెం	-11.5422
▁మంజుల	-11.5422
▁వృత్తుల	-11.5423
▁పెరుగుతుంది	-11.5423
▁విధించింది	-11.5423
▁గొల్లపల్లి	-11.5423
▁ఉత్తరాంధ్ర	-11.5424
▁హాలీవుడ్	-11.5426
▁రిజర్వేషన్	-11.5426
▁ఆక్రమించింది	-11.5426
▁రామచంద్రపురం	-11.5426
▁నిర్ణయించింది	-11.5426
▁పరిస్థితుల్లో	-11.5427
▁పదహారు	-11.5428
▁బౌ	-11.5429
▁1877	-11.5429
▁కీర్తన	-11.543
▁కోల్పోయ	-11.543
▁గాంధీని	-11.543
▁స్రవంతి	-11.5431
▁జయించ	-11.5432
▁పట్టుకొని	-11.5432
▁స్వీకర	-11.5433
గ్రఫీ	-11.5433
▁సైన్యానికి	-11.5433
▁ఇస్తూ	-11.5435
▁బెలూ	-11.5436
▁1565	-11.5436
▁సహజంగా	-11.5436
▁మేనేజర్	-11.5437
▁రికార్డింగ్	-11.5437
▁అహో	-11.5437
స్తుతి	-11.5437
▁సహాయపడ	-11.5438
మోహనరావు	-11.5438
బర్మన్	-11.5438
▁సత్తెనపల్లి	-11.5439
▁80%	-11.544
▁ఉల్లి	-11.5441
▁ఈజిప్టు	-11.5442
▁వాది	-11.5442
ప్రజల	-11.5442
▁మార్పుల	-11.5443
▁New	-11.5443
బెల్	-11.5444
▁వజ్రాల	-11.5444
▁తామర	-11.5445
▁దామ	-11.5445
▁138	-11.5445
▁రామరాజు	-11.5447
▁ప్రవేశించింది	-11.5448
ట్టం	-11.5449
▁చీలిక	-11.5452
▁ఆదిత్య	-11.5452
▁సంపుటం	-11.5452
▁కోటలు	-11.5453
▁సుద్ద	-11.5453
▁చేస్తున్నాయి	-11.5455
స్తి	-11.5456
▁శతాబ్ధాల	-11.5456
▁సామంతులుగా	-11.5456
వాడైన	-11.5459
తిరు	-11.546
▁పరికరాలు	-11.5461
▁ధాన్యం	-11.5466
▁కథానాయకుడిగా	-11.5467
▁మునుపు	-11.5468
తాను	-11.547
▁ఆదిలాబాద్లో	-11.5474
▁కమలాకర	-11.5475
▁మేళ	-11.5475
▁జాగర	-11.5476
▁యాత్రికులు	-11.5477
ెవర	-11.5478
▁సన్నివేశం	-11.5478
▁ప్రయత్నించిన	-11.5478
క్రియ	-11.5484
▁భీకర	-11.5484
▁కల్యాణి	-11.5485
▁కూలీ	-11.5489
బార్	-11.549
సహ	-11.5491
▁మండలాలలో	-11.5491
▁దీపాల	-11.5494
-29	-11.5494
▁ఖర్చుతో	-11.5495
▁ఒంటరిగా	-11.5495
గట్టి	-11.5497
▁మదిలో	-11.5498
▁మడ	-11.55
▁మహాసముద్రం	-11.5502
▁విధాల	-11.5503
▁రేయి	-11.5505
▁తత్త్వ	-11.5507
▁కోలు	-11.5508
▁గుర్రాల	-11.5509
▁వ్యాఖ్య	-11.5509
ాలన్నింటి	-11.5511
▁1882	-11.5511
త్తుల	-11.5512
▁గార్ల	-11.5514
▁వ్యాకరణం	-11.5515
-28	-11.5516
▁రాసుకున్న	-11.5518
▁వంగర	-11.5519
▁బలంగా	-11.552
▁ఆక్స్	-11.5521
▁లోయలో	-11.5521
▁వ్యాఖ్యాన	-11.5522
▁ప్రసాదరావు	-11.5522
▁అందించగా	-11.5523
శాలి	-11.5523
▁రక	-11.5524
రాదని	-11.5525
▁కూడలిలో	-11.5526
▁రాజేశ్వర	-11.5531
▁గుళ్ళు	-11.5531
▁జాతక	-11.5532
కూర్	-11.5532
▁శ్లోకాల	-11.5533
కొన్ని	-11.5533
▁శిఖరాల	-11.5533
ాలనుకున్న	-11.5534
▁సామంతుల	-11.5535
వాలి	-11.5539
ఘట్ట	-11.554
▁వెలిగి	-11.5544
▁మౌంట	-11.5549
▁పరిణామం	-11.555
డతాడు	-11.555
▁చాటు	-11.5551
జాన్	-11.5554
▁ఘర్షణ	-11.5556
▁కోర్టులు	-11.5556
▁గోల్డ	-11.5556
ద్దామ	-11.5557
భ్ర	-11.5558
▁123	-11.5559
వారూ	-11.5561
▁పర్యవేక్షణలో	-11.5562
▁విషాద	-11.5567
res	-11.5569
▁బుల్	-11.5572
▁ఇంతకు	-11.5573
▁నాయకుని	-11.5575
▁గెలుచుకున్న	-11.5576
▁కాండ	-11.5576
▁నేతలు	-11.558
▁కోరికలు	-11.5582
పన్న	-11.5583
▁చెప్పు	-11.5586
▁అనేవి	-11.5586
▁ఛాయా	-11.5586
ka	-11.5589
▁ఇస్తున్న	-11.5589
▁వాడారు	-11.5589
దీని	-11.559
▁మతాలు	-11.5592
▁(2)	-11.5594
▁రాని	-11.5595
▁ప్రసారం	-11.5597
▁అన్నట్లు	-11.5598
▁పుష్కర	-11.5601
tion	-11.5601
ity	-11.5603
▁అడ్డం	-11.5603
▁సామ్రాజ్యాల	-11.5603
కావ	-11.5613
▁సంభాషణల	-11.5613
త్తా	-11.5615
మాజీ	-11.5618
కుర్తి	-11.5618
▁న్యాయవాదిగా	-11.5619
▁భక్తులను	-11.5622
▁తలపై	-11.5623
▁నిల్వలు	-11.5623
▁తెలియజేస్తు	-11.5627
దొంగ	-11.5627
గల్లు	-11.563
▁నిలిచ	-11.5632
చ్చె	-11.5632
▁నక్క	-11.5633
▁విజయాలు	-11.5633
▁కష్టాల	-11.5634
▁నడిపి	-11.5634
గలిగారు	-11.5637
▁భాగవతంలో	-11.5639
ఎడ్	-11.564
ిల్ల	-11.564
▁1865	-11.5641
భూముల	-11.5641
▁స్వతంత్రంగా	-11.5641
పురుషుల	-11.5642
▁బుధ	-11.5644
▁చారు	-11.5646
▁అయన	-11.5646
IN	-11.5647
▁శెట్టి	-11.5647
▁కర్మల	-11.5648
కృష్ణా	-11.5648
▁కుంద	-11.5655
▁గుహలో	-11.5659
అమెరికన్	-11.566
ఆధునిక	-11.566
ఆగష్టు	-11.566
పర్వత	-11.5661
ధాన్య	-11.5664
గావ్	-11.5665
ఉన్న	-11.5665
రంగారెడ్డి	-11.5666
▁సాక్ష్యం	-11.5666
▁సర్వస్వం	-11.5666
▁పొందు	-11.567
▁తీర్ధ	-11.567
రాముడు	-11.5673
▁చేదు	-11.5677
ప్రాంతాలలో	-11.568
ష్టు	-11.5682
up	-11.5683
పోతాడు	-11.5686
▁మార్చడం	-11.5687
రకం	-11.5689
▁కట్టు	-11.5691
▁యొ	-11.5691
.4%	-11.5694
▁సంసారం	-11.5697
▁కవిత్వము	-11.5697
పోతూ	-11.5698
▁10%	-11.5698
▁శాఖకు	-11.5704
▁భయము	-11.5704
▁అలంకరించ	-11.5705
▁యంత్రం	-11.5705
▁చెయ్యి	-11.5713
భార	-11.5715
▁సాగుతున్న	-11.5717
రేట్	-11.5717
▁పిట్ట	-11.5719
▁భద్రాచల	-11.5719
▁595	-11.5719
▁క్షణ	-11.5721
▁168	-11.5723
▁తయారుచేసి	-11.5726
దైనా	-11.5726
ిల్లి	-11.5727
▁కోర్	-11.5727
▁మెక్	-11.5728
▁తలచి	-11.5729
దైవ	-11.5734
ుకోవాలని	-11.5734
-22	-11.5736
బృహ	-11.5736
ాలజీ	-11.5741
మన్నారు	-11.5741
▁కార్యాలయంలో	-11.5742
ati	-11.5743
▁సర్పంచి	-11.5744
▁నాలుగ	-11.5745
ంధ్ర	-11.5748
▁పట్నంలో	-11.5751
▁మంత్రము	-11.5751
▁190	-11.5755
▁ఎగుమతుల	-11.5756
కానీ	-11.576
నాల్డ్	-11.5763
▁ప్రతాప	-11.5766
go	-11.5767
▁జగన్నాధ	-11.5768
▁చిన్నతనం	-11.5769
▁కృష్ణదేవ	-11.5769
▁అసాధారణ	-11.5771
▁దుఃఖ	-11.5771
▁దళితుల	-11.5772
▁విశ్వం	-11.5775
మందిరం	-11.5776
▁చర్చల	-11.578
▁గూడూరులో	-11.578
దీప్	-11.5781
మిని	-11.5781
న్నిటినీ	-11.5781
కేతు	-11.5786
▁త్వరలో	-11.5787
▁ఉత్సాహ	-11.5788
పోగా	-11.5796
▁కనకదుర్గ	-11.5796
▁ద్వాపర	-11.5797
▁ఫొటో	-11.5797
.2020)	-11.5797
▁ఆవిష్కర్త	-11.5797
▁ఏకగ్రీవ	-11.5797
▁ఏల్చూర	-11.5797
▁ఒడంబడిక	-11.5797
▁దామోదరం	-11.5797
▁ప్రత్యర్థి	-11.5797
▁ఫెస్టివల్	-11.5797
▁బంగాళదుంప	-11.5797
▁మంగుళూరు	-11.5797
▁వడ్డాది	-11.5797
▁వికీపీడియా	-11.5797
▁శంకరాభరణం	-11.5797
▁సత్తుపల్లి	-11.5797
▁కరాచీ	-11.5797
▁నటీమణుల	-11.5797
▁పోతిరెడ్డిపాడు	-11.5797
▁లక్నో	-11.5797
.1906)	-11.5797
.1932)	-11.5797
.1944)	-11.5797
▁అథారిటీ	-11.5797
▁నిర్మూలించ	-11.5797
▁పదిహేను	-11.5797
▁పైకప్పు	-11.5797
▁వేరువేరు	-11.5797
▁ఐశ్వర్య	-11.5797
▁కావేరి	-11.5797
▁జనావాస	-11.5797
▁కాళేశ్వరరావు	-11.5797
▁దక్షిణామూర్తి	-11.5797
▁కిష్టయ్య	-11.5797
▁కొడంగల్	-11.5797
▁రేఖాంశం	-11.5797
▁నిరోధక	-11.5797
▁వేగవంతమైన	-11.5797
▁యాడికి	-11.5797
▁సమ్మె	-11.5797
▁చేవెళ్ళ	-11.5797
▁స్మృతి	-11.5797
▁మొదలయింది	-11.5798
▁బెల్గాం	-11.5798
▁కలుపుకొని	-11.5798
▁వెంకట్రామయ్య	-11.5798
▁సొగసు	-11.5798
▁యాదగిరి	-11.5798
▁తెలియజేయ	-11.5798
▁బీజింగ్	-11.5798
▁కుడివైపు	-11.5798
▁ఆకర్షణీయ	-11.5798
▁దయానంద	-11.5798
▁హనుమకొండ	-11.5798
.2001)	-11.5799
.1952)	-11.5799
▁పశ్చిమగోదావరి	-11.5799
▁మల్లాపూర్	-11.5799
▁ముఘల	-11.5799
▁రాంబాబు	-11.5799
▁బ్రహ్మచారి	-11.5799
▁పలనాటి	-11.5799
▁నేపాలు	-11.5799
▁ముఖ్యపట్టణం	-11.5799
▁తూర్పుగోదావరి	-11.5799
భాషగా	-11.5799
▁దాఖల	-11.5799
▁వైశ్య	-11.58
.1947)	-11.58
▁సింహళ	-11.58
▁గుర్రపు	-11.58
▁అనుమానం	-11.58
▁ప్రదర్శనశాల	-11.58
▁ముఖ్యపాత్రల్లో	-11.5801
ాధ్యక్ష	-11.5801
▁చైత్ర	-11.5802
▁ఆతిథ్యం	-11.5802
▁మెట్రోపాలి	-11.5802
▁పాడుతూ	-11.5802
▁కూర్చుని	-11.5802
▁కేశవరావు	-11.5802
▁పెన్నానది	-11.5802
▁సహచర	-11.5802
▁పెట్టుకుని	-11.5803
▁అవుట్	-11.5803
▁మొదలుపెట్టాడు	-11.5803
▁మరోవైపు	-11.5803
▁పీఠిక	-11.5803
▁పాటిల్	-11.5804
▁రామవరం	-11.5805
▁విరసం	-11.5805
▁పాలకొండ	-11.5806
▁ఆండ్రూ	-11.5806
▁పరిసరాలలో	-11.5808
▁షాహ్	-11.5808
ందట	-11.5809
▁ఇయర్	-11.5809
▁అలంకరించారు	-11.581
▁ఛత్రపతి	-11.5811
▁స్పెషల్	-11.5811
▁సమృద్ధి	-11.5811
▁స్థిరపడింది	-11.5811
ంజలి	-11.5811
▁కూర్చొని	-11.5812
తుడు	-11.5812
▁నియమ	-11.5812
▁చండీగ	-11.5812
వచ్చ	-11.5812
పార్	-11.5813
▁కాగితం	-11.5813
▁సింహాచలం	-11.5813
▁జమీందారీ	-11.5814
▁వదిన	-11.5814
▁ఎన్టీ	-11.5814
▁Vi	-11.5814
▁మరియొక	-11.5814
▁రోడ్ల	-11.5815
▁అభిషేకం	-11.5815
▁వర్గానికి	-11.5816
▁ప్రయత్నించారు	-11.5817
▁జయించాడు	-11.5817
▁కోయిలకొండ	-11.5817
క్కడ	-11.5818
▁పొందడానికి	-11.5818
▁భూదేవి	-11.5819
▁పెట్టుకొని	-11.5819
▁స్థావరాలు	-11.5821
రోగ	-11.5822
▁ఆహ్వానించి	-11.5822
భట్ట	-11.5822
▁శుక	-11.5825
▁3000	-11.5825
ాపక	-11.5825
పునర్నిర్మించారు	-11.5826
▁కాయల	-11.5827
▁పంపింది	-11.5831
---	-11.5831
న్నార్	-11.5831
▁శ్రీపాద	-11.5831
▁సమర్ధించ	-11.5831
▁విధ	-11.5832
▁శ్రీరాముని	-11.5833
▁రాష్ట్రకూటుల	-11.5833
ేసింది	-11.5835
▁సామెతలు	-11.5835
▁ప్రాబల్యం	-11.5837
▁102	-11.5838
▁ముక్కామల	-11.5838
▁సంతరించ	-11.5839
▁ఎన్నుకుంట	-11.5839
▁వర్షాకాలంలో	-11.584
▁వివాదాలు	-11.5841
బాటు	-11.5842
▁రాయబారి	-11.5842
▁ద్విపాత్రాభినయం	-11.5844
▁యంత్రాలు	-11.5845
93)	-11.5845
▁గుర్రాలు	-11.5845
▁పరంపర	-11.5845
▁కోసమ	-11.5845
▁శిల్పకళా	-11.5846
ధ్ర	-11.5847
రామచంద్ర	-11.5848
▁స్వప్న	-11.585
ెత్తి	-11.585
▁పదాలను	-11.5851
▁ఇష్టమైన	-11.5853
▁సమ్మేళనం	-11.5854
▁విశిష్టత	-11.5857
▁పండించబడుతు	-11.5858
▁అవతారాలు	-11.5859
▁మీర్జా	-11.586
▁శిష్యులు	-11.5861
▁మల్లెల	-11.5865
▁131	-11.5865
▁హనుమంతుని	-11.5865
.2%	-11.5866
▁కంపెనీకి	-11.5867
▁చిట్ట	-11.5868
▁సంచలనం	-11.5869
▁భగవంతుడి	-11.587
▁ముల్క్	-11.5871
పయోగ	-11.5873
▁కాకర	-11.5875
▁లేకపోయినా	-11.5878
▁రీత్యా	-11.5878
▁ఉపయోగపడే	-11.588
▁రూమ్	-11.588
▁కన్నడంలో	-11.5882
▁సమావేశాలు	-11.5882
▁లక్ష్మణుల	-11.5882
▁స్మరించ	-11.5882
▁గనులు	-11.5884
నేల	-11.5885
▁ధర్మరాజు	-11.5888
▁కామరూప	-11.5889
వాత	-11.5889
▁తపో	-11.5889
బ్రహ్మానందరెడ్డి	-11.5893
▁సేనల	-11.5894
▁కంటికి	-11.5896
వాడికి	-11.5897
▁శిథిలాల	-11.5898
▁పగలు	-11.5902
▁తెలియక	-11.5903
▁మీసాల	-11.5905
టికీ	-11.5906
▁విషయాలలో	-11.5909
pe	-11.591
▁సంపత్	-11.5911
▁593	-11.5917
స్టిక్	-11.5918
క్రి	-11.5918
షనల్	-11.5922
▁గంధ	-11.5923
▁ఓర్	-11.5923
▁అధ్యక్షత	-11.5923
si	-11.5923
▁చెప్పుకొన	-11.5924
▁కార్యక్రమ	-11.5925
▁అవసరాలను	-11.5926
▁ద్వార	-11.5933
und	-11.5934
--	-11.5936
ాభరణ	-11.5938
▁రఘునాథ	-11.594
ేజ్	-11.5943
▁ఊర్లో	-11.5943
▁పిలుస్త	-11.5946
▁భేదము	-11.5946
▁ఆస్తిని	-11.5946
టెల్	-11.5947
▁ఆకర్షణలు	-11.5947
ుకునేవారు	-11.595
▁ఆక్రమణ	-11.595
త్వానికి	-11.5952
▁బేత	-11.5952
▁రాజాం	-11.5953
▁విక్రయించ	-11.5959
▁పెన్న	-11.596
▁దీ	-11.596
▁మెట్	-11.5961
▁శతాబ్దములో	-11.5963
ment	-11.5964
▁అప్పల	-11.5965
▁ప్రదర్శించే	-11.5967
▁సఖ	-11.5968
నాధుని	-11.5968
one	-11.5969
సంఖ్య	-11.597
▁స్తంభ	-11.597
▁బాగ్	-11.5971
▁పెర్	-11.5975
▁మరణంతో	-11.5975
ాధికార	-11.5976
▁కరుణా	-11.5977
▁టీం	-11.5979
ిశెట్టి	-11.5981
స్ధ	-11.5981
బోతు	-11.5983
▁జలాలు	-11.5984
▁పావు	-11.5986
రాయుడు	-11.5986
▁ఆక్రమి	-11.5987
గణములు	-11.5989
▁దాచి	-11.5989
ెట్టి	-11.5993
▁137	-11.5997
▁దినము	-11.5998
కంఠ	-11.5999
▁వారసత్వం	-11.5999
▁నిలవ	-11.6
▁దున్న	-11.6001
▁అధ్యాపక	-11.6002
ేటివ్	-11.6004
▁దేవరాయ	-11.6006
▁తగిలి	-11.6007
బాల్	-11.6007
ఫూ	-11.601
▁బంగాళాఖాతంలో	-11.6013
▁కాంగ్	-11.6015
దాన్ని	-11.6016
పంట	-11.6016
▁లాలా	-11.6018
ద్వారం	-11.6018
వుతారు	-11.6018
లోచన	-11.6018
గూ	-11.6019
▁పంపిస్త	-11.6019
పూరిత	-11.6023
▁ప్రాజెక్టుల	-11.6024
వలస	-11.6024
నేది	-11.6026
రాధ	-11.6027
▁గణం	-11.6037
ద్వా	-11.6039
చాడు	-11.604
గలదు	-11.6043
▁చర్మం	-11.6044
సమయంలో	-11.6044
▁భి	-11.6046
▁సారా	-11.6047
▁గీతాల	-11.6049
నిర్మాత	-11.6054
సామాన్య	-11.6055
▁ముఖ్యపాత్ర	-11.6056
యాం	-11.6058
శుద్ధ	-11.6059
యల	-11.6059
▁భువ	-11.606
హైదరాబాదు	-11.606
సమరయోధుడు	-11.606
జూలై	-11.606
బడును	-11.6062
▁te	-11.6063
చెత్త	-11.6065
▁భేద	-11.6066
▁ప్రతిపాదించ	-11.607
లతోపాటు	-11.607
▁ఉపాధ్యాయుల	-11.6071
▁క్రమం	-11.6073
కొట్ట	-11.6073
▁బిరుద	-11.6077
▁అన్నిటి	-11.608
బోయిన	-11.6082
వీడు	-11.6082
▁ఆశించ	-11.6082
ఇన్	-11.6083
▁నవలల	-11.6084
▁142	-11.6084
షో	-11.6087
▁పల	-11.6087
ర్న్	-11.6091
యంత్ర	-11.6093
నెట్	-11.6093
▁చిత్రము	-11.6094
▁అనుగ్రహించ	-11.6096
▁వస్త్రం	-11.61
రాత్రి	-11.61
▁నిర్మాణాన్ని	-11.61
▁సరిహద్దుగా	-11.6103
▁కొప్ప	-11.6106
▁వేయించ	-11.611
జన్మ	-11.6111
పడ్డాయి	-11.6114
▁చీలి	-11.6117
▁ఒప్పుకో	-11.6117
▁పల్లవి	-11.6119
పీఠ	-11.612
భీ	-11.6121
▁ప్రబోధ	-11.6121
▁సమా	-11.6121
▁నియోజకవర్గాలు	-11.6122
▁ఎందుక	-11.6123
▁కోట్లతో	-11.6124
ంగో	-11.6124
▁దోష	-11.6124
▁బంద	-11.6126
రామన్	-11.6126
▁జిమ్	-11.6127
▁శిక్షణా	-11.6134
కర్మ	-11.6134
▁(11	-11.6135
▁పథ	-11.6135
▁కోట్	-11.6137
▁బృందావన	-11.6138
▁రహిత	-11.6138
▁పంచతంత్ర	-11.6139
▁బ్రహ్మకు	-11.614
▁రాదు	-11.6141
▁పురాణంలో	-11.6141
▁శ్రేణుల	-11.6144
▁సంస్కృతభాష	-11.6146
రేచర్ల	-11.6149
▁దిల్	-11.615
500	-11.6151
▁h	-11.6151
▁మిలియన్లు	-11.6152
▁అమర్చ	-11.6156
రమ్మ	-11.6158
▁ప్రోత్సాహ	-11.6162
▁క్షేత్రము	-11.6162
▁కావచ్చు	-11.6164
▁నవాబ	-11.6172
▁వైరా	-11.6176
▁పార్టీని	-11.6177
ందర	-11.6179
▁శబ్దము	-11.6179
వడానికి	-11.6182
▁174	-11.6182
మయం	-11.6182
▁శతాబ్దాలు	-11.6182
▁అంజలి	-11.6183
సౌ	-11.6186
వద్దని	-11.6188
▁పాకిస్థానీ	-11.6188
▁వివాహమాడ	-11.619
టోన్	-11.619
▁రఫీ	-11.619
నాథుని	-11.619
▁ఆకాశంలో	-11.619
▁లఘు	-11.6191
▁కంచు	-11.6193
▁దౌత్య	-11.6194
▁జవ	-11.6195
▁ఫ్రాం	-11.6196
▁నిర్మింపబడిన	-11.6197
▁బంగ్లా	-11.6197
▁ఏర్పాటైంది	-11.6197
▁కనిపిస్తూ	-11.6197
▁కనువిందు	-11.6197
▁కార్యనిర్వాహక	-11.6197
▁గ్రౌండ్	-11.6197
▁చెళ్లపిళ్	-11.6197
▁తాండూర్	-11.6197
▁తుకారాం	-11.6197
▁మదురై	-11.6197
▁యండమూరి	-11.6197
▁సంప్రదించ	-11.6197
▁సామర్లకోట	-11.6197
▁హొయసల	-11.6197
▁అసమ్మతి	-11.6197
▁కమిషనర్	-11.6197
▁తిమ్మరుసు	-11.6197
▁ప్రతిపత్తి	-11.6197
▁శారీరక	-11.6197
.1912)	-11.6197
.1946)	-11.6197
.1995)	-11.6197
▁మహ్మద	-11.6197
▁సౌమ్య	-11.6197
▁ఖిల్లా	-11.6197
▁కుర్చీ	-11.6197
▁గుండ్లకమ్మ	-11.6197
▁దీక్షితులు	-11.6197
▁ఆఫీస్	-11.6197
▁భరతనాట్య	-11.6197
▁రావణాసురుడు	-11.6197
▁అసూయ	-11.6197
▁పోరాటయోధుడు	-11.6197
▁వాయిదా	-11.6197
niversity	-11.6197
▁శ్రవణ	-11.6197
▁ఆవిర్భవించింది	-11.6197
▁పరాక్రమ	-11.6197
▁తీశాడు	-11.6197
▁శిఖరాగ్ర	-11.6197
▁మాసపత్రిక	-11.6197
▁పసిఫిక్	-11.6197
▁నైపుణ్యం	-11.6197
▁ఫ్రంట్	-11.6197
▁చౌడప్ప	-11.6198
▁చిలుకూరి	-11.6198
▁వెదురు	-11.6198
▁దివాకర్	-11.6198
▁రాచకొండ	-11.6198
▁కట్నం	-11.6198
▁బెల్లంకొండ	-11.6198
▁అజయ్	-11.6198
▁డప్పు	-11.6199
▁శ్యాం	-11.6199
▁అడుగుతాడు	-11.6199
▁కుసుమ	-11.6199
▁పట్టుదల	-11.6199
▁ఫిలిమ్స్	-11.6199
▁విశ్వసించ	-11.6199
▁రాజ్యపాలన	-11.6199
▁స్టాండు	-11.6199
▁కామరాజ్	-11.6199
▁రామభద్ర	-11.6199
▁పొద్దు	-11.62
▁రంగులు	-11.62
▁బర్గ్	-11.62
▁చనిపోయాడ	-11.62
▁వచ్చాక	-11.6201
▁కలుపుతూ	-11.6201
▁రైలుమార్గం	-11.6201
▁340	-11.6201
▁ఆవిష్కరణ	-11.6202
▁స్వీడన్	-11.6202
▁లియో	-11.6202
▁దక్కింది	-11.6202
▁కన్నాంబ	-11.6202
▁మనుమడు	-11.6203
▁నడుస్తుంది	-11.6203
▁ఎంతోమంది	-11.6203
▁జిల్లాపరిషత్	-11.6204
▁ధైర్య	-11.6205
▁జగతి	-11.6206
▁నర్మదా	-11.6206
▁122	-11.6207
▁అవకాశాన్ని	-11.6208
▁గోపాలకృష్ణయ్య	-11.6208
▁కాకర్ల	-11.6208
▁పరిగి	-11.6208
▁నారాయణపూర్	-11.6209
▁రాఘవరావు	-11.6209
▁సేవకుడు	-11.6209
▁బాసర	-11.6209
▁నార్త్	-11.621
▁సప్తర్షులు	-11.621
▁భూభాగ	-11.621
▁అంజలీదేవి	-11.6211
▁1500	-11.6212
▁నాగ్	-11.6213
▁1879	-11.6213
▁తదనంతరం	-11.6214
ిస్తున్నాయి	-11.6215
▁అన్	-11.6216
▁గంభీర	-11.6217
▁ఏర్పడే	-11.6217
▁ప్రయత్నించాడు	-11.6217
▁వోల్	-11.6219
▁1866	-11.6219
▁పొందుపరచ	-11.622
▁చూస్తారు	-11.6221
▁చెబుతున్న	-11.6223
▁సోమయాజులు	-11.6223
▁నార్ల	-11.6224
▁దిశ	-11.6224
▁నాయకుడిగా	-11.6224
▁అనువాదాలు	-11.6227
▁నాటిక	-11.6228
▁గమనిస్త	-11.6231
▁ఋషులు	-11.6232
▁భూభాగాలను	-11.6233
▁చేయటానికి	-11.6233
ద్దీన్	-11.6233
▁అర్జునుడి	-11.6234
▁1861	-11.6234
ాక్సిన్	-11.6235
▁జల్ల	-11.6236
▁ఆండ్ర	-11.6239
▁128	-11.624
▁సూర్యకాంతం	-11.624
▁పొలాలకు	-11.6241
▁బయో	-11.6241
▁పదవీకాలం	-11.6242
▁సరిహద్దులు	-11.6243
▁గానే	-11.6243
▁ప్రార్థనా	-11.6243
▁పల్ల	-11.6243
▁హజార	-11.6243
▁సైన్యాలు	-11.6244
▁రాజారావు	-11.6245
▁వ్యాపారులు	-11.6247
▁నీచ	-11.6247
▁ఎరువుల	-11.6248
▁ఇండ	-11.625
▁బండారు	-11.625
▁225	-11.625
▁వీరభద్రస్వామి	-11.6251
▁వంశాల	-11.6253
▁బెండ	-11.6253
▁పరిణామాలు	-11.6253
ెక్	-11.6254
▁సౌత్	-11.6256
▁జోరు	-11.6256
▁భావాలను	-11.6257
▁అర్జునుని	-11.6257
▁స్కా	-11.6262
▁కొండాపురం	-11.6263
పర్రు	-11.6265
▁గ్రహాల	-11.6266
కోవ్	-11.6266
▁యాగ	-11.6267
▁ఉన్నవారు	-11.6268
▁అరణ్యాలు	-11.6269
▁పాలిత	-11.6269
▁ద్వారక	-11.6269
▁సోమేశ్వర	-11.6273
▁స్త్రీలకు	-11.6273
▁గౌతమి	-11.6274
▁స్వామీ	-11.6274
▁జీవితాల	-11.6275
▁చేయలేదు	-11.6276
ోపాధ్యాయ	-11.6277
▁కనుమలు	-11.6281
▁ప్రతిపాదించిన	-11.6281
ect	-11.6281
▁172	-11.6282
▁పరిష్కారం	-11.6284
స్తుంటుంది	-11.6287
▁గౌడ	-11.6288
్యుల	-11.6289
▁పంజ	-11.629
డితే	-11.6293
▁శాతవాహనులు	-11.6293
▁చేరువ	-11.6299
▁జలగ	-11.63
▁దేవస్థాన	-11.6302
ిస్టు	-11.6303
▁శోభన	-11.6303
▁కొద్దీ	-11.6304
మగును	-11.6304
▁సేపు	-11.6305
▁తెలిపార	-11.6305
▁దోచుకు	-11.6307
▁ఉద్యమాలు	-11.6308
▁ఆకాశం	-11.6309
▁నిండ	-11.6309
▁con	-11.631
▁డిజైన్	-11.6311
▁నేలపై	-11.6312
ముఖి	-11.6316
పూర్వ	-11.6316
▁గర్భం	-11.6316
▁మండి	-11.6317
సమయ	-11.6319
▁పాపా	-11.6319
▁గణాంకాలు	-11.632
▁రోగి	-11.6321
▁పురస్కారము	-11.6321
▁కలుగు	-11.6321
▁ఉన్నపుడు	-11.6321
సిద్ధి	-11.6322
▁పరిపాలనను	-11.6323
ఱి	-11.6324
▁బాధపడుతున్న	-11.6326
▁వన్యప్రాణ	-11.6327
వంశపు	-11.6328
ేసాడు	-11.6332
▁వినియోగ	-11.6332
యుండ	-11.6334
▁కేంద్రీకరించ	-11.6334
కాండ	-11.6334
▁ప్రీత	-11.6335
▁వర్ణించిన	-11.6336
▁వాలు	-11.6336
▁ప్రయాణించ	-11.6337
ెమ్మ	-11.6337
స్థలం	-11.6337
▁చెక్కబడి	-11.6337
▁దేని	-11.6338
▁పోయారు	-11.6339
చిత	-11.6339
▁బాలికలు	-11.6341
▁నిలచి	-11.6341
▁వెంకటేశ్వరుని	-11.6342
చర్య	-11.6344
▁స్కీ	-11.6345
అక్కడ	-11.6347
▁591	-11.6349
▁వూ	-11.6353
దరు	-11.6354
▁ఏరు	-11.636
▁నగరంగా	-11.636
▁తీరాంధ్ర	-11.6361
▁చేసినవారు	-11.6361
▁భరించ	-11.6363
▁అనారోగ్య	-11.6366
▁నొక్క	-11.6367
▁టాంక	-11.6368
▁పలుక	-11.6369
▁సేవించ	-11.637
గురించి	-11.6373
▁అనువదించ	-11.6378
▁చొ	-11.638
▁కతా	-11.6381
▁పడ్డాడు	-11.6384
ఫ్రెడ్	-11.6385
▁ఒక్కర	-11.639
ia	-11.6392
▁నల్లా	-11.6394
▁సంస్కృతములో	-11.6396
▁158	-11.6399
రోజులపాటు	-11.64
ఫై	-11.6404
▁ఉద	-11.6407
లకే	-11.6407
949	-11.6407
చిత్రాల	-11.6407
▁ఏళ్లు	-11.6408
▁ఒడ్డు	-11.6413
▁స్ట్ర	-11.6413
▁అశోక	-11.6415
▁కడుపులో	-11.6416
ost	-11.6422
నిర్మాణ	-11.6427
▁సుకుమార	-11.6429
మంటాడు	-11.6431
మాడ	-11.6432
▁మాండ	-11.6438
▁విచ్చేసి	-11.6439
▁ఆధారము	-11.644
▁చెప్పగా	-11.6441
▁ఉద్దేశించి	-11.6442
▁హత	-11.6442
▁ఇంప	-11.6443
▁ఇద్దర	-11.6444
▁ఆచారం	-11.6445
▁కనిపిస్తున్న	-11.6446
▁చంద్రుడి	-11.6447
▁అవతరించి	-11.6449
▁పుణ్యక్షేత్రాల	-11.6451
▁విలువల	-11.6453
రధ	-11.6458
ెరిగి	-11.6459
వర్తి	-11.6461
రామలింగ	-11.6464
▁అమెరికాలోని	-11.6464
▁సరిత	-11.6465
▁కద	-11.6466
▁ప్రత్తిపాడు	-11.6467
పాడులో	-11.647
▁జోల	-11.647
ెందుకు	-11.6472
▁హాని	-11.6472
▁వ్యాఖ్యల	-11.6472
ెక్స్	-11.6473
▁మంత్రిత్వ	-11.6473
ిణీ	-11.6475
చిత్త	-11.6475
నీటిపారుదల	-11.6476
గుమ్మడి	-11.6476
ప్రతిష్ఠ	-11.6476
నవంబరు	-11.6477
సెప్టెంబరు	-11.6477
సామాజిక	-11.6477
రామచంద్రరావు	-11.6477
ాయీ	-11.6478
ప్రదేశ్	-11.6479
విజయవాడ	-11.648
▁La	-11.648
▁అన్యాయ	-11.6484
▁పుట్	-11.6485
▁వార్డులు	-11.6486
▁గడుపుత	-11.6491
▁పనిచేస్త	-11.6495
గండి	-11.6496
▁తలుపుల	-11.6499
▁వల్లనే	-11.65
▁రత్నాల	-11.6505
▁రేప	-11.6505
▁మానవులు	-11.6507
నల్ల	-11.6508
విజ్ఞాన	-11.6508
▁ఆరోజు	-11.6514
్సు	-11.6516
▁కోర్టులో	-11.6517
▁పరిజ్ఞాన	-11.6523
ంకా	-11.6523
▁ప్రాచుర్యంలో	-11.6524
▁సుధ	-11.6528
▁పరిశోధక	-11.6532
▁అర్ధము	-11.6536
ca	-11.6536
per	-11.6539
▁బ్రాహ్మణుల	-11.6541
▁చెలరేగి	-11.6544
▁తత్	-11.6548
రియో	-11.6549
▁మధుమేహ	-11.6549
▁సీట్ల	-11.6549
▁ఆహారంగా	-11.655
▁ప్రతిబింబ	-11.6551
▁ఆరంభంలో	-11.6551
సినీ	-11.6554
▁పునర్నిర్మాణ	-11.6554
▁శతాబ్దిలో	-11.6557
ితంగా	-11.6557
▁నవలలో	-11.6558
్మారెడ్డి	-11.6559
▁కనీస	-11.6559
▁దక్షిణంగా	-11.656
▁అంటు	-11.6561
▁ఘటన	-11.6563
▁జీత	-11.6567
▁కృషికి	-11.6568
me	-11.657
▁నిర్వహ	-11.657
▁ముస్లిమ	-11.6573
▁ఆధార	-11.6577
▁కాణ	-11.6582
61)	-11.6584
▁స్మిత	-11.6584
▁పద్మభూషణ	-11.6585
▁(1)	-11.6587
▁లిపిలో	-11.6588
▁పరిస్థితిలో	-11.6589
▁రాళ్ల	-11.6589
▁సుఖం	-11.659
▁అనువదించి	-11.6594
▁కలుపు	-11.6596
భట్టు	-11.6597
▁లక్షద్వీప	-11.6598
▁సద	-11.66
▁బాల్యం	-11.66
▁పొందుతున్న	-11.66
లాన్	-11.6604
▁చేతుల్లో	-11.6606
▁మరణించడం	-11.6606
ేటందుకు	-11.6606
▁క్రిస్ట	-11.6608
▁1200	-11.661
▁ముగ్గురూ	-11.661
▁ముల్క	-11.6611
▁బచ్చన్	-11.6611
▁శరణు	-11.6613
▁కిలోమీటరు	-11.6614
▁అధ్యాయం	-11.6614
▁ఇంటర్మీడియట్	-11.6614
▁ఇంటర్వ్యూ	-11.6614
▁ఉబుంటు	-11.6614
▁కంట్రోల్	-11.6614
▁క్రికెటర్	-11.6614
▁గుజరాతీ	-11.6614
▁చిట్యాల	-11.6614
▁చిరునవ్వు	-11.6614
▁చీమకుర్తి	-11.6614
▁జీవనోపాధి	-11.6614
▁నిక్షేపాలు	-11.6614
▁పబ్లిసిటీ	-11.6614
▁పెదనందిపాడు	-11.6614
▁బ్రెజిల్	-11.6614
▁మిఠాయి	-11.6614
▁లౌకిక	-11.6614
▁వాలీబాల్	-11.6614
▁వెలువడ్డాయి	-11.6614
▁వ్యుత్పత్తి	-11.6614
▁వ్లాదిమిర్	-11.6614
▁సక్సెస్	-11.6614
▁స్క్రిప్ట్	-11.6614
▁అక్బర్	-11.6614
▁దవాఖాన	-11.6614
.1949)	-11.6614
history	-11.6614
▁దయాకర్	-11.6614
▁నైతిక	-11.6614
▁భూషయ్య	-11.6614
▁శాలివాహన	-11.6614
▁బ్లెయిర్	-11.6614
▁విరుద్ధంగా	-11.6614
▁రామలక్ష్మణుల	-11.6614
▁సునీల్	-11.6614
▁విద్యాబోధన	-11.6614
▁జర్నలిస్ట్	-11.6614
▁చిరునామా	-11.6614
▁చొరవ	-11.6614
▁బెర్లిన్	-11.6614
▁మాచవరం	-11.6614
▁మురళీమోహన్	-11.6614
▁క్రాంతి	-11.6614
▁నియమించబడ్డాడు	-11.6614
▁మనవడు	-11.6614
▁ఋషి	-11.6614
▁నిర్ధారణ	-11.6614
▁ల్యాబ్	-11.6614
▁క్యూబా	-11.6614
▁స్వస్తి	-11.6614
▁మహానంది	-11.6614
▁శాంతకుమారి	-11.6615
▁చేసుకుంటుంది	-11.6615
▁తీసుకువెళ్ళ	-11.6615
▁యాభై	-11.6615
▁ప్రయాణికుల	-11.6615
▁చిట్టిబాబు	-11.6615
▁బుద్ధారెడ్డి	-11.6615
▁అధ్వర్యంలో	-11.6615
▁షేర్	-11.6615
▁ప్రోటో	-11.6615
▁నాణ్యమైన	-11.6615
దర్శన	-11.6615
మంతటా	-11.6615
▁కచ్చితమైన	-11.6615
▁కల్పిస్తుంది	-11.6616
▁జీవితచరిత్ర	-11.6616
.1985)	-11.6616
700	-11.6616
▁సర్వీస్	-11.6616
▁భగత్	-11.6616
▁వెంకటరామయ్య	-11.6616
tra	-11.6616
▁ముత్త	-11.6616
▁కీసర	-11.6616
▁వంశధార	-11.6616
▁ఉచ్ఛ	-11.6617
▁అవిశ్వాస	-11.6617
▁ప్రవేశిస్తుంది	-11.6617
▁నిర్వాహకుడు	-11.6617
▁మేకప్	-11.6617
▁మారిపోయింది	-11.6617
▁కోర్ట్	-11.6618
▁ఆదేశించాడు	-11.6618
▁మృతిచెంద	-11.6618
▁క్రై	-11.6618
▁పెడతారు	-11.6619
▁చేస్తోంది	-11.6619
▁అనంతగిరి	-11.6619
▁మహానటి	-11.6619
▁ప్రసిద్ధులైన	-11.6619
▁షాజహాన్	-11.6619
▁సహకరించిన	-11.662
▁మాదన్న	-11.662
▁గుర్తింపుగా	-11.6621
▁జిగురు	-11.6621
▁చేర్చబడింది	-11.6621
▁పాలిస్తున్న	-11.6622
▁ఆతని	-11.6622
▁చిన్నచిన్న	-11.6622
▁పరకాల	-11.6622
▁గుడ్డ	-11.6622
▁మాన్యం	-11.6622
▁తీసుకుంటే	-11.6623
▁మెరిస	-11.6623
▁పాటిస్తారు	-11.6624
▁వేచి	-11.6624
▁తిండి	-11.6625
▁ఫిరో	-11.6625
సాగింది	-11.6625
[...]
