<unk>	0
<s>	0
</s>	0
.	-2.65214
,	-3.10453
▁	-4.26736
లో	-4.61607
:	-4.87406
▁(	-5.0511
▁ఈ	-5.09766
▁నుండి	-5.15703
▁ఉంది	-5.17094
▁ఉన్నాయి	-5.20711
ను	-5.21486
ం	-5.23253
గా	-5.32182
)	-5.38378
ు	-5.43315
ని	-5.45725
▁-	-5.48688
▁గ్రామం	-5.50125
కు	-5.50997
కి	-5.52556
▁గ్రామంలో	-5.52906
▁కి	-5.54531
లు	-5.57584
న	-5.57896
మీ	-5.5922
▁ఒక	-5.61994
ి	-5.62957
ా	-5.64342
▁దూరంలో	-5.72255
▁10	-5.80662
ల	-5.80689
వ	-5.83213
మ	-5.94253
తో	-5.9607
▁కేంద్రం	-6.02332
▁కూడా	-6.02861
▁ఆ	-6.0602
ము	-6.1066
్	-6.12833
▁హెక్టార్లు	-6.15147
▁జిల్లా	-6.18168
▁ద్వారా	-6.21983
▁ప్రభుత్వ	-6.29039
▁భూమి	-6.3155
▁సమీప	-6.31801
ీ	-6.32065
క	-6.36706
▁కళాశాల	-6.38488
▁ఉన్న	-6.4003
ాన్ని	-6.4169
▁5	-6.42967
▁సౌకర్యం	-6.44443
జ	-6.44932
▁తెలుగు	-6.44966
ే	-6.45178
వి	-6.46189
▁ప్రైవేటు	-6.48612
స్	-6.54715
▁సంఖ్య	-6.54909
ారు	-6.58201
▁ఇది	-6.5885
▁సినిమా	-6.61251
▁లో	-6.613
-	-6.61389
▁ఉన్నారు	-6.6269
ాడు	-6.65291
▁"	-6.65523
న్	-6.67006
▁తన	-6.67646
▁పాఠశాల	-6.6819
డ్	-6.69954
▁రహదారి	-6.70883
ాలు	-6.73534
ానికి	-6.73646
రు	-6.73712
▁పైబడిన	-6.74327
▁చెందిన	-6.76317
▁సరఫరా	-6.76505
ర్	-6.7689
▁భారత	-6.77562
డి	-6.79608
"	-6.80043
ల్	-6.80581
ర	-6.80663
ది	-6.80887
▁న	-6.81433
▁శ్రీ	-6.82843
▁వ్యవస్థ	-6.83479
▁వ	-6.83795
ంగా	-6.84282
నే	-6.84831
త	-6.85396
ుడు	-6.85534
ూ	-6.92344
▁అని	-6.92392
▁లేదు	-6.93839
▁అ	-6.94272
▁పాఠశాలలు	-6.94467
▁వ్యవసాయ	-6.95385
▁అనే	-6.96139
▁వైద్య	-6.9746
▁రెండు	-6.98025
▁ప్రధాన	-6.99367
▁పి	-7.00775
▁ప్రాథమిక	-7.01401
▁ఆరోగ్య	-7.02235
▁సామాజిక	-7.03226
▁తరువాత	-7.0327
▁పారా	-7.04472
▁ఇతర	-7.05246
పి	-7.06028
మెడికల్	-7.06345
▁గ్రామానికి	-7.06798
▁జనాభా	-7.06804
ులు	-7.08798
య	-7.09203
పై	-7.0981
క్	-7.09875
▁డాక్టర్లు	-7.10206
▁కింది	-7.11416
రా	-7.13751
రి	-7.14412
▁సౌకర్యాలు	-7.1582
▁పాటు	-7.16041
స	-7.16317
డు	-7.16658
మైన	-7.17289
నా	-7.18408
ట	-7.18535
గ	-7.19226
▁ప్రకారం	-7.19253
ంది	-7.20949
▁ఎక్కువ	-7.213
▁విద్యా	-7.21492
▁నీరు	-7.22098
▁రాష్ట్ర	-7.2228
సి	-7.22502
▁లేని	-7.23187
▁ఎస్	-7.24205
'	-7.24586
▁వి	-7.24915
శ	-7.25761
పు	-7.26075
▁ఒకటి	-7.27219
▁నీటి	-7.28333
▁2	-7.29019
ప	-7.29483
ాయి	-7.31055
▁వ్యవసాయం	-7.3147
▁బి	-7.31743
లోని	-7.32136
▁జాతీయ	-7.32501
▁'	-7.32671
న్నాయి	-7.34054
టి	-7.3428
లను	-7.34903
▁కంటే	-7.35043
▁జనగణన	-7.35336
▁తెలంగాణ	-7.35462
/	-7.35806
▁3	-7.37412
▁7	-7.37505
▁సంస్థ	-7.39026
▁డిగ్రీ	-7.39882
▁లోని	-7.40565
ట్	-7.40707
▁18	-7.40789
▁వనరుల	-7.41419
▁రచన	-7.41974
ద	-7.41988
▁ఏ	-7.42241
▁వాణిజ్య	-7.42389
▁బ్యాంకు	-7.43134
▁కోసం	-7.43321
లా	-7.43834
లి	-7.44342
▁/	-7.45178
▁పేరు	-7.45457
▁పథకం	-7.46409
డం	-7.4643
ాల	-7.46445
▁యొక్క	-7.4651
▁చేసిన	-7.46629
▁విద్యుత్	-7.4705
▁వారం	-7.47053
▁గంటల	-7.47131
ో	-7.47326
▁షెడ్యూల్	-7.47364
న్న	-7.47867
▁ఇద్దరు	-7.48087
▁ఆసుపత్రి	-7.48568
ిన	-7.48628
పబ్లిక్	-7.48927
▁మంది	-7.49158
▁అభివృద్ధి	-7.49267
▁వారి	-7.49376
▁వైద్యశాల	-7.4938
నీ	-7.49597
మ్మ	-7.49731
▁ఫోన్	-7.50569
▁రోడ్లు	-7.51056
▁ఆఫీసు	-7.51155
ంలో	-7.52833
▁పెద్ద	-7.52837
▁పోస్టాఫీసు	-7.52979
▁కె	-7.53067
ింది	-7.53386
▁వ్యవసాయానికి	-7.53509
▁మండలం	-7.54064
▁ప్రత్యేక	-7.54602
▁నుంచి	-7.54872
▁మూడు	-7.54953
మా	-7.55322
డ	-7.55843
▁వరకు	-7.56157
▁సిబ్బంద	-7.5714
▁ఎ	-7.5723
▁నా	-7.57254
▁చాలా	-7.57459
▁రచయిత	-7.57795
▁నటించిన	-7.58275
▁జరిగిన	-7.58514
▁మొదటి	-7.58752
▁ఇక్కడ	-7.5941
▁మధ్య	-7.59939
s	-7.60696
కా	-7.60727
▁జరుగుతోంది	-7.61177
▁4	-7.61565
లకు	-7.61707
▁15	-7.62708
▁తిరిగి	-7.63022
▁ఆయన	-7.63111
ఎస్	-7.63941
▁సి	-7.64159
▁వివిధ	-7.64326
▁కోడ్	-7.64471
▁ఆంధ్ర	-7.65053
▁11	-7.6535
▁ఉప	-7.65922
య్య	-7.66158
▁రోజు	-7.66552
▁స్టేషన్	-7.67873
లోనూ	-7.685
▁ఆంధ్రప్రదేశ్	-7.68503
▁డాక్టరు	-7.68834
▁2011	-7.69502
▁రైల్వే	-7.69834
▁ఆలయం	-7.70272
▁ముందు	-7.70282
▁టి	-7.71717
▁మాధ్యమిక	-7.72162
▁మీ	-7.72191
▁క	-7.72504
▁6	-7.72855
▁ప్రాథమికోన్నత	-7.73014
▁కేంద్రంలో	-7.73362
తి	-7.73589
▁చేయ	-7.73648
▁అతని	-7.73944
▁సా	-7.74878
▁బస్సులు	-7.74946
▁కొన్ని	-7.75212
▁1	-7.75305
▁12	-7.75559
ుల	-7.75792
▁16	-7.76116
▁బావులు	-7.76628
▁వారు	-7.76836
▁ప్రవహిస్తుంది	-7.76966
▁మే	-7.77546
▁మొదలైన	-7.7764
▁జూనియర్	-7.77793
▁అతను	-7.781
వే	-7.78122
మే	-7.78154
▁8	-7.78303
లలో	-7.78921
వు	-7.79176
▁బృందం	-7.79461
▁17	-7.79555
▁స	-7.79584
వా	-7.79607
డానికి	-7.79638
▁దర్శకత్వం	-7.80095
▁వంటి	-7.80147
▁ఏడాది	-7.80246
హార	-7.80628
),	-7.80923
▁కాలువల	-7.80992
▁చిత్ర	-7.81346
▁కాగా	-7.81507
▁భూ	-7.81737
▁కు	-7.81858
▁గ్రామ	-7.81978
▁ఆమె	-7.82227
లోను	-7.82325
మి	-7.82332
▁చిన్న	-7.82519
▁మండలానికి	-7.82686
▁కృష్ణ	-7.8317
▁కుటుంబ	-7.83779
▁మీద	-7.84088
▁అందుతుంది	-7.84161
▁జిల్లాలో	-7.84417
▁ఘంటసాల	-7.84551
త్	-7.85099
▁రోజులు	-7.85217
▁సంఘం	-7.85294
▁పొడుగున	-7.85554
▁భారతీయ	-7.86483
మ్	-7.86682
▁సంగీత	-7.86822
▁మురుగునీర	-7.87328
▁విధంగా	-7.87582
▁అనేక	-7.87815
▁ఉంటుంది	-7.88243
చ	-7.88505
▁వద్ద	-7.88644
యా	-7.88757
▁అన్ని	-7.88942
▁కథ	-7.88965
▁చిత్రం	-7.89218
▁ఇ	-7.89722
కో	-7.90052
▁ప	-7.90581
▁ఉండేది	-7.90643
▁కవి	-7.90655
▁9	-7.90666
▁సిబ్బంది	-7.91139
▁ఓ	-7.91394
▁బ	-7.91403
జి	-7.91792
ాలను	-7.91922
సు	-7.91981
▁మురుగునీటి	-7.91998
▁లోపు	-7.92042
▁అండ్	-7.92042
7	-7.92063
▁సినిమాలు	-7.92353
▁రవాణా	-7.9318
▁ప్రతి	-7.93343
ఆర్	-7.93558
▁మా	-7.93767
▁సంవత్సరము	-7.94056
▁14	-7.94197
▁చ	-7.94265
▁గణాంకాల	-7.94313
▁ప్రభుత్వం	-7.94504
లే	-7.94553
▁బంజరు	-7.94755
కే	-7.94862
అ	-7.9491
▁విస్తరించి	-7.95035
బి	-7.95084
▁గా	-7.95094
రీ	-7.95211
▁జరుగుతుంది	-7.95437
▁కొరకు	-7.95514
▁లేదా	-7.95541
▁విడుదలైన	-7.95668
స్తారు	-7.9581
▁ప్రాంతాల	-7.95903
బ	-7.96147
▁గురించి	-7.96187
▁ని	-7.96568
▁ఉత్పత్తి	-7.968
రావు	-7.97102
ణ	-7.97318
▁లేరు	-7.97923
ుని	-7.97966
▁దివ్య	-7.97992
▁ఆఫ్	-7.98297
19	-7.98375
దు	-7.98689
▁దక్షిణ	-7.99134
2	-7.99487
▁మ	-7.99537
▁వృత్తి	-7.99687
▁స్వామి	-7.99737
▁శిక్షణ	-8.00121
ె	-8.00328
▁మొత్తం	-8.00428
▁పౌర	-8.00734
▁గ్రామాల	-8.00814
రాజు	-8.00882
ప్	-8.0092
▁ఆర్ట్స్	-8.00951
▁గుండా	-8.01276
▁సామాన్య	-8.01782
▁వచ్చిన	-8.02344
▁ఎం	-8.02748
▁నటుడు	-8.02869
తా	-8.02904
%	-8.03132
ల్లో	-8.03566
▁సహకార	-8.04462
▁కా	-8.045
▁కార్యాలయం	-8.04515
జ్	-8.04978
▁చేసి	-8.05198
▁ఇదే	-8.05236
6	-8.05477
▁13	-8.05668
▁కేంద్రాలు	-8.05746
▁కుళాయిల	-8.06179
సా	-8.06375
▁కాలంలో	-8.06399
ంచ	-8.06526
▁తర్వాత	-8.06604
3	-8.06609
▁సైన్స్	-8.06668
▁నాలుగు	-8.06741
▁తొలి	-8.0694
▁ఇంజనీరింగ్	-8.07156
▁వినోద	-8.07157
▁స్వయం	-8.07216
ోంది	-8.07428
▁ఒకరు	-8.08206
ేతర	-8.08206
యు	-8.0832
▁రా	-8.0834
▁కానీ	-8.08435
▁ప్ర	-8.08754
▁జనవరి	-8.08873
▁సంత	-8.09346
ద్	-8.09539
▁నది	-8.09585
▁పంపిణీ	-8.09698
మని	-8.09756
ళ్ళ	-8.09804
▁నమోదు	-8.09921
▁ముగ్గురు	-8.10042
▁మహా	-8.10092
▁రాజు	-8.10237
▁గ్రంథాలయం	-8.10246
▁సేవా	-8.10474
▁తమ	-8.10483
’	-8.1065
▁చిత్రాలు	-8.10676
▁రోజున	-8.11197
▁జూన్	-8.11619
▁కార్యకర్త	-8.11619
న్నారు	-8.11938
▁వినియోగం	-8.11952
▁:	-8.12178
▁ఇంటర్నెట్	-8.12321
▁పశు	-8.12323
▁సబ్	-8.12381
ములు	-8.12393
▁ఆటో	-8.12409
▁నిర్మించిన	-8.12442
▁కులాల	-8.12502
▁సంపూర్ణ	-8.12766
▁రాష్ట్రం	-8.12943
▁ప్రపంచ	-8.13008
లతో	-8.13468
▁తెగల	-8.13505
▁మాజీ	-8.13723
▁ఆటల	-8.13938
▁సంక్షేమ	-8.1416
▁సంరక్షణ	-8.14165
▁మగవారి	-8.144
▁లైన్	-8.14421
▁అవసరాల	-8.14512
▁పట్టణమైన	-8.14558
▁మట్టి	-8.14627
▁చేస్తున్నారు	-8.14662
▁మైదానం	-8.14684
యాస్	-8.14882
వారు	-8.15059
ంత	-8.15137
▁ఆరోగ్యం	-8.15273
▁ఔషధ	-8.15456
▁జనన	-8.15484
▁ఇళ్లతో	-8.15584
▁పై	-8.15718
ాంగుల	-8.15791
▁ఆడవారి	-8.15943
▁20	-8.15951
▁దర్శకుడు	-8.16024
▁సొసైటీ	-8.16051
▁బాలల	-8.16451
హ	-8.16478
▁శిశు	-8.16592
▁రెడ్డి	-8.16761
▁శాల	-8.16786
▁లభిస్తున్న	-8.16823
▁పోషణ	-8.17015
▁ఏర్పాటు	-8.17248
▁ఆశా	-8.1729
▁భాష	-8.17472
▁జరిగింది	-8.17623
▁సహాయక	-8.17827
▁విత్తి	-8.17872
▁సాగునీరు	-8.17977
▁నిమిత్తం	-8.18099
▁వార్తాపత్రిక	-8.18221
▁అనియత	-8.18222
▁మాతా	-8.18415
▁సమీకృత	-8.18485
▁మేనేజిమెంటు	-8.18587
▁పార్టీ	-8.18639
▁మొబైల్	-8.18832
▁మరణాల	-8.18923
▁ప్రత్యామ్నాయ	-8.19077
▁టెలిఫోన్	-8.19077
▁హాలు	-8.19315
▁జూలై	-8.19483
▁ఇందులో	-8.19497
▁ఫిబ్రవరి	-8.19551
▁పోషకా	-8.19679
▁సంగీతం	-8.19913
ికరంగా	-8.20009
▁లొకేషన్	-8.20066
▁వినియోగంలో	-8.20106
సుశీల	-8.20162
▁రెండవ	-8.20252
▁సం	-8.20378
సమీప	-8.2041
▁నీ	-8.20523
▁వీధుల	-8.20564
▁ఉత్పాదక	-8.20688
▁మార్చి	-8.20743
4	-8.2077
5	-8.20816
▁మార్కెటింగ	-8.20939
▁రూం	-8.20998
▁పరపతి	-8.21067
▁పోలింగ్	-8.21194
▁వస్తువులు	-8.21239
▁పోస్ట్	-8.21333
▁కలిగి	-8.21365
▁పారిశుధ్య	-8.21567
▁రీడింగ్	-8.21567
▁మరుగుదొడ్	-8.21593
;	-8.21819
▁వ్యర్థాల	-8.21819
▁తారు	-8.21974
▁స్వాతంత్ర్య	-8.22054
▁కంకర	-8.22076
▁అంగన్	-8.22101
▁సేకరించే	-8.22117
▁ఉత్తర	-8.22354
▁కాని	-8.22386
▁కొరియర్	-8.2258
▁రావు	-8.22645
▁టెలిగ్రాఫ్	-8.22835
▁కెఫె	-8.22842
▁ఇంటింటిక	-8.22968
▁అసెంబ్లీ	-8.22984
▁రోజుకు	-8.23053
▁గృహావసరాల	-8.23091
▁బయోగ్	-8.23321
▁సరఫరాల	-8.23392
హెక్టార్లలో	-8.23393
▁లాండ్	-8.23788
▁అలోపతి	-8.23862
▁పక్కనే	-8.23891
నూ	-8.23926
▁మండల	-8.23996
▁డిస్పెన్సరీ	-8.24394
▁కోట	-8.24518
ప్ప	-8.24644
▁ఇంకా	-8.24681
ైన	-8.24825
▁హైదరాబాదు	-8.25369
▁రాజకీయ	-8.25534
▁వల్ల	-8.25741
రే	-8.25969
ెస్	-8.26092
▁తిరుగుతున్నాయ	-8.261
యి	-8.26279
▁సంచార	-8.26611
గు	-8.26835
చి	-8.27014
▁ఏటీఎమ్	-8.27034
పల్లి	-8.27091
▁అది	-8.27281
▁జ	-8.27738
▁అమలవుత	-8.27944
తు	-8.28098
▁మంచినీటి	-8.28481
▁అన్న	-8.28587
▁పారబో	-8.28751
▁తండ్రి	-8.28786
చే	-8.28791
వాడీ	-8.28999
▁అక్టోబరు	-8.2908
▁చెత్త	-8.29216
కె	-8.29555
ిక	-8.29834
▁చరిత్రలో	-8.29856
రోడ్ల	-8.30111
▁ప్రదేశ్	-8.30236
▁అయిన	-8.30386
▁త	-8.30468
ష్	-8.30539
▁25	-8.30569
▁అను	-8.30585
యం	-8.30636
▁మొదలైనవి	-8.30655
▁అయితే	-8.30675
మునకు	-8.30751
▁మండలంలో	-8.30859
క్ష	-8.30918
▁సినిమాకు	-8.30941
▁గల	-8.30969
పో	-8.31117
టు	-8.31223
▁నిర్వహించారు	-8.31397
▁జి	-8.31566
▁అవుతున్నాయి	-8.31777
▁సంవత్సరాల	-8.32315
▁బహిరంగ	-8.32366
▁చరిత్ర	-8.32395
లేదు	-8.32479
ప్ర	-8.32709
▁ప్రజలు	-8.32935
▁రక్షిత	-8.3304
▁చేతిపంపుల	-8.3318
▁అంటారు	-8.33224
▁కో	-8.33276
▁ము	-8.33476
జీ	-8.33517
▁ఎమ్	-8.33691
▁సమయంలో	-8.33921
▁పేరుతో	-8.33945
నుండి	-8.34018
▁మన	-8.34366
▁ట్రాక్టర్లు	-8.34462
▁ప్రాంతం	-8.34648
▁తూర్పు	-8.34756
▁ప్రముఖ	-8.34916
▁గోదావరి	-8.34941
దా	-8.35121
▁చెరువు	-8.35798
▁పట్టణం	-8.36254
్లో	-8.36269
▁ప్రసాద్	-8.36943
▁ల	-8.37177
8	-8.37254
▁జిల్లాలోని	-8.37255
ాలి	-8.37409
ంద	-8.37414
▁ఏప్రిల్	-8.37429
ధ	-8.37465
భ	-8.37718
▁బస్సు	-8.37875
▁జిల్లాల	-8.38072
▁పాటలు	-8.38284
▁పాత	-8.38558
ఈ	-8.38947
కీ	-8.39152
1	-8.39318
▁నేరు	-8.39479
▁30	-8.39689
▁సినీ	-8.39737
▁నిర్మాత	-8.40083
టం	-8.40411
▁య	-8.40523
▁కాకుండా	-8.40543
రో	-8.40872
▁కల	-8.41023
▁సు	-8.41062
▁వచ్చింది	-8.41368
్లోకి	-8.41566
ై	-8.41617
▁డి	-8.4207
▁దీనిని	-8.42078
▁వలన	-8.42159
▁మంచి	-8.4221
▁ఐ	-8.42681
▁హ	-8.42724
ట్లు	-8.42766
▁చైనా	-8.42884
▁నాయకుడు	-8.43109
e	-8.43189
▁రాజా	-8.43525
ాడేందుకు	-8.43822
▁కొత్త	-8.43898
గ్	-8.439
?	-8.44073
▁చేశారు	-8.44102
డా	-8.44275
దే	-8.44322
రెడ్డి	-8.44456
ష	-8.44722
▁ఆర్	-8.44949
▁గ	-8.45146
బోరు	-8.45373
i	-8.45716
▁పో	-8.45742
▁పా	-8.45915
▁సంవత్సరం	-8.45956
▁వచ్చి	-8.4599
స్వామి	-8.46261
ప్రాథమిక	-8.46375
▁మందుల	-8.46387
బ్	-8.46399
లీ	-8.46649
ప్రైవేటు	-8.46867
▁అదే	-8.47083
▁ఉ	-8.47402
▁2016	-8.47534
▁నిర్మాణ	-8.47929
బడింది	-8.47964
▁చెప్ప	-8.48127
▁పెళ్ళి	-8.48213
▁సాహిత్య	-8.48312
▁ఆగష్టు	-8.48337
▁దేవాలయం	-8.48346
▁కొండ	-8.48401
కం	-8.48597
మో	-8.49034
▁భార్య	-8.49443
▁వా	-8.49608
!	-8.4973
▁పోతున్నాయి	-8.4977
▁శివ	-8.49847
▁వదులుతు	-8.4994
టీ	-8.50098
▁ప్రాంతంలో	-8.50663
▁జలవనరుల	-8.50777
▁మాత్రమే	-8.50777
ియన్	-8.50995
▁మి	-8.51318
▁రామ	-8.51446
▁అంటే	-8.51449
▁రాజ	-8.51496
దీ	-8.52216
▁శ	-8.52356
▁భారతదేశంలో	-8.52598
గల	-8.53082
వారి	-8.53116
▁పలు	-8.53116
▁ప్రాంతాలు	-8.53125
▁దీని	-8.53333
బీబీయ	-8.53514
▁ది	-8.53587
బా	-8.53636
▁కలిసి	-8.54257
▁అప్పటి	-8.54626
యో	-8.54679
a	-8.54941
▁24	-8.54979
▁బాలబడి	-8.5506
▁నటి	-8.55214
ఆ	-8.5528
దగ్గ	-8.55442
మై	-8.55554
▁దాని	-8.55865
ళ	-8.56144
▁భూములు	-8.56332
9	-8.56555
▁22	-8.566
్య	-8.56617
▁ఐదు	-8.56726
గి	-8.56908
నది	-8.57066
▁పశ్చిమ	-8.57272
▁గాంధీ	-8.57612
టా	-8.57654
▁ఉంటాయి	-8.57772
▁భాగంగా	-8.57881
▁విజయ	-8.57966
▁21	-8.58242
▁of	-8.58311
ాలని	-8.58351
o	-8.58352
▁అతి	-8.58526
▁చేసింది	-8.58756
▁బ్రహ్మ	-8.59339
▁ప్రస్తుతం	-8.59402
▁జిల్లాకు	-8.59517
ండి	-8.59615
రె	-8.59724
▁పాలీటెక్నిక్	-8.59767
పా	-8.59992
ించి	-8.59996
▁శాస్త్రవేత్త	-8.60249
▁సాగని	-8.60442
▁కేంద్ర	-8.60563
▁కాలం	-8.60594
ాలలో	-8.60785
▁తల్లి	-8.60892
▁వహించాడు	-8.60909
▁అమెరికా	-8.6103
▁ముఖ్య	-8.6136
▁ప్రసిద్ధి	-8.61461
ములో	-8.61465
ఎ	-8.61707
▁తమిళ	-8.61759
20	-8.61996
▁ద	-8.62309
కొ	-8.6244
▁ఉన్నత	-8.62442
సీ	-8.62581
▁హిందూ	-8.62588
▁గో	-8.6267
▁వాడ	-8.6271
▁ర	-8.62871
▁దేశ	-8.62996
▁అక్కడ	-8.6315
▁దగ్గర	-8.6355
వ్	-8.63619
ష్ట	-8.63978
u	-8.6415
▁బా	-8.64311
▁29	-8.64518
ఇ	-8.6452
▁అందుబాటులో	-8.64698
▁కృష్ణా	-8.65031
ంతో	-8.65711
▁పట్టణ	-8.65752
▁చక్రవర్తి	-8.65859
జా	-8.65995
▁పాకిస్థాన్	-8.66267
▁26	-8.66307
▁జె	-8.66513
▁చేసే	-8.66606
▁బహిరంగంగా	-8.66611
ంగ	-8.66633
▁ఆర్థిక	-8.66681
▁సాగులో	-8.66833
▁దుకాణాలు	-8.66861
▁నాటి	-8.67151
▁పునర్వ్యవస్థీకర	-8.67179
ముగా	-8.67219
ణకు	-8.67239
▁ఆధారంగా	-8.67332
▁డా	-8.67574
పూ	-8.67804
▁చేశాడు	-8.67806
▁రైలు	-8.67958
▁సెప్టెంబర్	-8.68079
▁23	-8.68136
పిన్	-8.68256
▁2001	-8.68296
▁నలుగురు	-8.68454
▁పాట	-8.6876
తే	-8.68809
▁భూముల్లో	-8.68862
▁ఆలయంలో	-8.69136
▁అంతర్జాతీయ	-8.69139
▁ముఖ్యమంత్రి	-8.6918
యే	-8.6926
▁కాల	-8.69481
▁బీడు	-8.69494
▁మె	-8.6962
▁వెంకట	-8.69663
▁19	-8.69768
ాన	-8.69787
▁స్	-8.69862
▁విజయవాడ	-8.69877
▁కానివి	-8.70129
▁28	-8.7013
▁శాసనసభ	-8.70251
ాలకు	-8.70252
▁ఈయన	-8.70363
▁గ్రామాలు	-8.70526
▁గుంటూరు	-8.71066
▁వీర	-8.71068
కుండా	-8.71072
నో	-8.71157
▁పూర్తి	-8.71313
వాడు	-8.71349
▁జా	-8.71499
▁కచ్చ	-8.71642
▁నగరం	-8.71676
▁గొప్ప	-8.71739
తీ	-8.71994
ిత	-8.72073
▁విజయనగర	-8.72183
లోనే	-8.72246
పూర్	-8.72257
ౌ	-8.72416
▁హిందీ	-8.72493
ుడైన	-8.72699
▁శాశ్వత	-8.72775
▁శుద్ధి	-8.72865
▁ప్రజల	-8.72904
ఫ్	-8.7331
▁పని	-8.73512
▁బాగా	-8.73791
▁సుమారు	-8.73889
బాలసుబ్రహ్మణ్యం	-8.7392
▁దినోత్సవం	-8.7398
▁ఎన్	-8.74201
కూ	-8.74487
ప్పుడు	-8.74541
▁అలాగే	-8.7455
▁నగర్	-8.74611
ాయ	-8.74619
కాల	-8.74697
▁ప్రేమ	-8.75082
▁లోనూ	-8.75117
▁నారాయణ	-8.75358
వీ	-8.75408
▁కాదు	-8.75422
▁ఆరు	-8.75443
▁తిరుపతి	-8.75711
ళ్ల	-8.75719
ేశ్వర	-8.75768
ూరు	-8.75783
ళ్ళు	-8.76124
మును	-8.76229
▁ఇలా	-8.76269
▁ఉత్తమ	-8.76462
▁డిసెంబర్	-8.76634
▁ధర్మ	-8.76637
▁కలిగిన	-8.76707
▁భారతదేశ	-8.76801
▁ఆలయ	-8.76989
▁కాక	-8.77121
▁పాత్ర	-8.77123
▁బాబు	-8.77312
▁కొ	-8.77339
t	-8.77394
▁చంద్ర	-8.77437
(	-8.77438
y	-8.77493
▁వారికి	-8.77684
▁సత్యనారాయణ	-8.77724
▁మరో	-8.77802
▁కారణంగా	-8.77872
▁నాటక	-8.77991
▁50	-8.7807
▁పొందిన	-8.78117
▁మార్కెట్	-8.78399
▁బోరుబావుల	-8.78425
▁కొడుకు	-8.78617
▁రెవెన్యూ	-8.78621
▁పతాకంపై	-8.78634
▁దేవ	-8.78647
▁ఇక్కడి	-8.78738
▁విశ్వవిద్యాలయం	-8.79384
▁సంగతులు	-8.79518
▁పురస్కారం	-8.79538
థ	-8.79609
గిరి	-8.79736
▁చారిత్రక	-8.79968
▁వీరు	-8.80034
రామ	-8.80123
ండ	-8.8056
▁తల	-8.80916
క్క	-8.80931
▁వహించిన	-8.80974
▁లభిస్తుంది	-8.81105
లూ	-8.8129
▁అవార్డు	-8.81333
▁ప్రాజెక్టు	-8.81339
▁దాదాపు	-8.81396
▁27	-8.81532
▁వై	-8.81573
▁దర్శకత్వంలో	-8.81612
▁నవంబర్	-8.82255
▁బాల	-8.82411
▁అక్టోబర్	-8.82485
బడి	-8.82635
▁గుడి	-8.82692
▁ఎన్నో	-8.82736
▁ఎల్	-8.82763
▁తేదీ	-8.83072
▁లెక్కల	-8.83356
▁భక్తులు	-8.83427
▁దీనికి	-8.83488
▁పాల	-8.83578
ముల	-8.83732
▁లా	-8.84095
▁యుద్ధం	-8.84097
▁అత్యంత	-8.84123
▁కాంగ్రెస్	-8.84159
▁వరంగల్	-8.843
▁నిర్మించారు	-8.8442
▁సుశీల	-8.84426
10	-8.8449
▁క్యాలెండర్	-8.84593
నం	-8.84837
▁కన్నడ	-8.85064
ఎం	-8.85207
కొండ	-8.85239
రం	-8.85417
త్త	-8.85433
▁మంత్రి	-8.85474
▁భాషా	-8.85486
ఎన్	-8.85562
▁ఇండియా	-8.85603
ఇది	-8.85714
ుతుంది	-8.85767
16	-8.85834
▁ఎక్కువగా	-8.85875
ంబ	-8.86421
▁జన	-8.86471
▁వచ్చే	-8.86492
ేవారు	-8.86531
▁--	-8.8667
▁తో	-8.86796
నె	-8.87062
▁అందులో	-8.87065
▁శాఖ	-8.87097
ట్ల	-8.87117
al	-8.87185
▁గ్రహీత	-8.87335
▁కర్ణాటక	-8.87474
▁మాత్రం	-8.87989
▁సర్వ	-8.87998
▁మొట్టమొదటి	-8.88013
▁చిత్రానికి	-8.88062
మున	-8.88196
▁విడుదల	-8.88244
బు	-8.88286
పేట	-8.88398
n	-8.88455
▁నాగేశ్వరరావు	-8.88562
▁స్థానిక	-8.88611
▁రాష్ట్రంలోని	-8.88758
d	-8.88778
ేందుకు	-8.88867
▁చదివిన	-8.88898
ించిన	-8.88955
▁ఉండ	-8.88997
ిస్తూ	-8.89207
▁వీరి	-8.89375
ఐ	-8.89779
▁లక్షల	-8.89869
టానికి	-8.89968
▁హైదరాబాద్	-8.89978
▁ప్రకారము	-8.90194
▁బావుల	-8.90284
▁)	-8.90428
▁ను	-8.90489
వచ్చు	-8.9059
హి	-8.90648
కర్	-8.90731
▁చి	-8.90911
ద్ద	-8.91296
ధా	-8.91413
▁అమ్మ	-8.91443
సం	-8.91555
▁చివరి	-8.91621
▁మద్రాసు	-8.91749
▁చేసారు	-8.91858
▁కట్ట	-8.91902
ధి	-8.91912
h	-8.91988
▁షా	-8.92034
m	-8.92319
50	-8.92375
▁కర్నూలు	-8.92515
▁వీటి	-8.92579
▁తోటలు	-8.92655
మె	-8.92738
▁రాజధాని	-8.92748
▁విద్య	-8.92874
▁మహబూబ్	-8.92975
▁తిరుమల	-8.93097
▁పురుషుల	-8.93285
కవి	-8.9335
12	-8.93488
▁పుట్టిన	-8.93591
c	-8.93636
▁వేద	-8.93766
ులకు	-8.93922
▁కుమారుడు	-8.9406
▁పచ్చిక	-8.94119
.18	-8.94662
▁భాగం	-8.94746
బడిన	-8.94804
▁వ్యక్తి	-8.9493
▁నగర	-8.95419
▁ముఖ్యమైన	-8.95429
ాల్లో	-8.9556
ందని	-8.95848
▁విజయం	-8.95893
లీపు	-8.96167
▁మేత	-8.96237
ః	-8.96383
▁మరొక	-8.96384
▁కంపెనీ	-8.96386
పతి	-8.96388
▁బ్రిటిష్	-8.96452
▁ఉండే	-8.96456
▁రాష్ట్రపతి	-8.96459
▁నిజాం	-8.96505
గో	-8.96625
▁గానం	-8.9682
పురం	-8.97062
▁తేదీలు	-8.97089
▁‘	-8.97255
▁అవి	-8.97401
▁మిగిలినవి	-8.97576
▁అంత	-8.97577
వర్	-8.97647
15	-8.97694
▁చూడ	-8.97781
ంటే	-8.97943
▁చేర	-8.98125
▁క్రికెట్	-8.98268
▁జయ	-8.98299
▁ఇవి	-8.98491
▁గ్రెగొర	-8.9854
డంతో	-8.98578
▁ఒ	-8.98708
▁పురుషులు	-8.98759
▁సంవత్సరాంత	-8.98813
చ్చ	-8.98854
▁ఈమె	-8.98891
ుంది	-8.99017
▁నాటికి	-8.99018
▁రామారావు	-8.9903
▁కాలువ	-8.99133
▁చేత	-8.99346
▁సంకలనం	-8.99417
▁సెప్టెంబరు	-8.99726
▁చె	-8.99726
0	-8.99818
బడ్డాయి	-8.99829
▁మత	-8.9992
▁భ	-8.99986
స్త	-9.00007
కోట	-9.0009
లుగా	-9.0012
▁తెలుగులో	-9.00172
▁తాను	-9.00203
ంచి	-9.00393
షా	-9.00507
▁రామకృష్ణ	-9.00516
▁40	-9.00587
13	-9.0072
▁గు	-9.00737
▁ఆధునిక	-9.00841
▁భారతదేశం	-9.00951
▁సందర్భంగా	-9.01019
▁రంగ	-9.01046
ారని	-9.01086
▁తా	-9.0113
▁లోను	-9.0126
▁ఖమ్మం	-9.01314
▁చిత్రంలో	-9.01659
▁సమీపంలో	-9.01792
▁శాస్త్రి	-9.01891
▁రష్యా	-9.0194
30	-9.02117
▁ఏడు	-9.02358
ట్ట	-9.02449
▁జల	-9.02536
▁57	-9.02551
▁శక్తి	-9.02658
▁సాగవుతున్న	-9.02707
▁రే	-9.02791
▁స్థానంలో	-9.02857
▁S	-9.02921
ాలతో	-9.03012
▁రాష్ట్రంలో	-9.03056
22	-9.03178
▁|	-9.03266
▁తాగునీరు	-9.03276
▁కోట్ల	-9.03411
▁సంస్కృత	-9.0359
▁ఆగస్టు	-9.03634
టో	-9.04112
▁నవంబరు	-9.04232
▁చలనచిత్ర	-9.04293
▁31	-9.04408
నారాయణ	-9.04413
ట్టు	-9.04461
ొ	-9.04476
▁దేశంలో	-9.04511
కర	-9.04531
డే	-9.04557
▁అన	-9.04559
▁ఆడ	-9.04853
▁చేసాడు	-9.05079
ూరి	-9.05216
▁ఎంతో	-9.05277
▁అక్షరాస్యత	-9.05641
▁తప్ప	-9.05648
▁పొంద	-9.05709
▁మరియు	-9.05894
▁2022	-9.0591
ెను	-9.05967
▁కుమార్	-9.05972
▁నూతన	-9.0598
▁the	-9.06003
ుగా	-9.06196
▁శతాబ్దం	-9.06368
పాల	-9.06369
ుకుని	-9.06409
పె	-9.0657
▁చూప	-9.06619
కుడు	-9.06637
▁నంది	-9.06682
▁నివాస	-9.06703
▁బహుమతి	-9.06761
▁ఏర్పడిన	-9.06822
▁నరసింహ	-9.07136
ూర్	-9.07182
డీ	-9.07195
▁ఇంటి	-9.07305
A	-9.07484
▁అనగా	-9.07621
▁59	-9.07633
▁నాగ	-9.07903
టర్	-9.08008
వ్వ	-9.08206
▁స్త్రీల	-9.08463
ంగ్	-9.08552
p	-9.08575
11	-9.08616
▁కడప	-9.08639
ృ	-9.08772
చె	-9.08774
▁ఆంగ్ల	-9.08818
▁కిలోమీటర్ల	-9.09009
▁కరీంనగర్	-9.09023
▁ఒకే	-9.09156
మూర్తి	-9.09217
శ్రీ	-9.09269
00	-9.09292
ింప	-9.09295
▁పత్రిక	-9.09456
▁వెళ్ళి	-9.09505
▁దేవి	-9.09569
▁సభ	-9.09711
▁అధ్యక్షుడు	-9.09791
▁రోడ్డు	-9.09912
▁డిసెంబరు	-9.09942
an	-9.09943
ులను	-9.09961
▁ప్రజా	-9.10178
▁చేయడం	-9.10181
▁అంద	-9.10251
▁నెల	-9.10335
▁జీవ	-9.10415
▁A	-9.10512
▁కళా	-9.10522
పాటి	-9.1065
▁నెల్లూరు	-9.1071
▁సామ్రాజ్యం	-9.10756
▁అధికంగా	-9.10869
▁ఖ	-9.11152
▁అక్కినేని	-9.1117
▁పెట్ట	-9.11263
ారెడ్డి	-9.11268
ఘ	-9.11282
తాయి	-9.113
▁పాలన	-9.11345
:-	-9.11559
▁సంగీతాన్నందించ	-9.11602
▁నిర్మాణం	-9.11711
▁తెలంగాణా	-9.11777
40	-9.11835
శి	-9.11889
▁నాడు	-9.11921
ల్ల	-9.12041
▁2013	-9.12043
g	-9.12052
రాజ	-9.12237
▁రష్యన్	-9.12292
▁భావ	-9.12296
వై	-9.12522
▁కింద	-9.1257
కృష్ణ	-9.12628
▁లే	-9.12637
గానే	-9.12742
▁పంచ	-9.13041
నాడు	-9.13054
▁58	-9.13056
ుడి	-9.13267
▁బ్లాగు	-9.13338
▁సంబంధించిన	-9.13403
త్య	-9.13479
వరం	-9.13499
▁బె	-9.13642
▁రంగస్థల	-9.13805
▁క్రీ	-9.13895
▁కొంత	-9.13925
ఎల్	-9.1395
లె	-9.13966
ar	-9.13998
▁మానవ	-9.1415
▁వ్యాపార	-9.14205
er	-9.14396
18	-9.14457
▁కే	-9.14582
▁వేంకట	-9.1459
▁మూల	-9.14686
▁ఆమెను	-9.14847
బ్బ	-9.15007
▁నల్గొండ	-9.15072
▁పరి	-9.15172
▁సె	-9.15417
▁లక్ష్మీ	-9.15442
ిస్తాడు	-9.15538
ఒక	-9.15553
▁అలా	-9.15562
న్ని	-9.15719
ాడని	-9.15872
▁ఇరాన్	-9.1588
▁దేశం	-9.15905
పీ	-9.15911
▁యు	-9.15956
▁పూ	-9.16103
▁పాప	-9.16189
▁నాయుడు	-9.16326
▁చా	-9.16435
▁రోజువారీ	-9.167
శాస్త్రి	-9.16849
పల్లె	-9.16891
▁విశాఖపట్నం	-9.16913
▁60	-9.17215
▁జానకి	-9.17336
▁ఏర్పడింది	-9.17386
17	-9.17404
▁ఒక్క	-9.17761
▁పడ	-9.17794
దని	-9.17801
▁బో	-9.17835
▁రచించిన	-9.17886
▁సూర్య	-9.17906
ిని	-9.1794
▁ఆరుగురు	-9.1801
▁అధిక	-9.18091
▁లేక	-9.18165
ఉ	-9.182
▁గీత	-9.18287
C	-9.18354
▁ఏమి	-9.18492
S	-9.18497
▁జో	-9.18532
ద్ధ	-9.18557
జె	-9.18672
బో	-9.18715
▁చేస్తారు	-9.18728
వో	-9.18849
మూ	-9.19057
▁పూర్వ	-9.19146
వె	-9.19253
ఏ	-9.19263
▁వున్న	-9.19284
ించారు	-9.19332
స్తుంది	-9.1937
ిస్తుంది	-9.19757
▁సంవత్సరంలో	-9.19947
▁హా	-9.20097
▁and	-9.20129
▁అల్లు	-9.20136
▁పైగా	-9.20188
ట్టి	-9.2024
▁పురాతన	-9.20358
స్తూ	-9.20529
▁కనుక	-9.20533
ుకొని	-9.20562
▁శతాబ్దంలో	-9.20619
▁స్త్రీలు	-9.20817
24	-9.2094
▁వాటి	-9.21009
▁చే	-9.21187
ందు	-9.21211
70	-9.21223
in	-9.2131
▁అనంతరం	-9.21424
▁యుద్ధ	-9.21457
▁కళాశాలలు	-9.21509
▁స్వామివారి	-9.21628
▁వే	-9.21767
పాడు	-9.21842
▁సత్య	-9.21867
▁ప్రపంచంలో	-9.21928
▁35	-9.21963
పొ	-9.21975
్యూ	-9.22145
తం	-9.22239
సే	-9.22323
▁నవ	-9.22372
▁పొ	-9.2243
▁రాయ	-9.22499
సె	-9.225
టే	-9.22679
▁పద	-9.22721
▁ఇప్పుడు	-9.22857
14	-9.2295
▁మాట	-9.23176
23	-9.23221
వర	-9.23572
▁నే	-9.23668
హా	-9.2371
▁విశ్వ	-9.23723
▁కలిపి	-9.23769
ుతూ	-9.23947
▁వీ	-9.23981
▁అధికార	-9.24008
k	-9.24078
▁అవ	-9.24132
▁ఏలూరు	-9.24135
▁ప్రసిద్ధ	-9.24311
▁ఆది	-9.24385
▁సంఘ	-9.24529
▁నేపథ్య	-9.24751
▁తు	-9.24854
మీద	-9.24939
60	-9.24991
హ్	-9.25022
▁ఎన్నికలలో	-9.25171
▁వేల	-9.25174
▁శ్రీనివాసరావు	-9.25224
▁దా	-9.25291
▁నల్ల	-9.25342
ాను	-9.25476
▁మిగిలిన	-9.25582
▁మూడవ	-9.25604
▁దు	-9.25614
▁చూసి	-9.25715
▁మో	-9.25784
or	-9.26034
న్స్	-9.26059
▁తి	-9.26147
▁కృషి	-9.26156
▁స్టేషను	-9.26274
▁ఉండి	-9.2638
▁తక్కువ	-9.26467
01	-9.2654
ంట	-9.26622
▁తారాగణం	-9.2663
25	-9.26836
ుట	-9.26964
లం	-9.26966
▁సభ్యుడు	-9.2702
▁పార్లమెంటు	-9.27039
▁చెందింది	-9.27049
▁పు	-9.27052
▁విషయం	-9.2706
▁రో	-9.2707
▁గాయకుడు	-9.27089
▁సినిమాలో	-9.27112
స్థ	-9.27121
▁మధుర	-9.27145
▁ప్రాచీన	-9.2716
▁నవల	-9.27373
▁రూ	-9.2747
▁సుబ్బారావు	-9.27506
▁వైపు	-9.27511
మైంది	-9.27513
వాడ	-9.2768
▁డాక్టర్	-9.27705
▁పట్ట	-9.27785
కుల	-9.28052
P	-9.28142
▁బాలు	-9.28162
90	-9.28178
80	-9.28211
▁మోహన్	-9.28238
▁బాలసుబ్రహ్మణ్యం	-9.28297
▁రాష్ట్రములో	-9.2848
▁జీవిత	-9.28482
▁32	-9.28486
▁అతనికి	-9.28552
షన్	-9.28591
త్ర	-9.2868
▁సభ్యులు	-9.28739
▁తీర	-9.28798
▁బౌద్ధ	-9.28813
షి	-9.28998
▁అల	-9.29084
▁M	-9.29109
▁సోవియట్	-9.29185
▁పాలీటెక్నిక్లు	-9.29206
▁ప్రారంభించారు	-9.29234
ున్న	-9.29273
ఖ	-9.29301
▁దశ	-9.2933
▁C	-9.29344
▁సత్యం	-9.29414
లేని	-9.29421
జన	-9.29441
▁వరకూ	-9.29488
ించాడు	-9.29534
రణ	-9.29575
▁రాత్రి	-9.29587
▁తయారు	-9.29606
రాయ	-9.29755
▁రాయలు	-9.29902
▁లింగ	-9.29933
▁సిద్ధ	-9.29996
▁పోటీ	-9.30082
▁కోర	-9.30231
▁వారిని	-9.30267
▁పిల్లల	-9.30307
▁P	-9.30609
▁సీ	-9.30658
▁కుమార్తె	-9.30675
▁కేవల	-9.31058
42	-9.31298
94	-9.3155
▁రాసిన	-9.3165
▁పట్టణంలో	-9.31667
▁అర్థం	-9.31672
శ్	-9.31782
▁ఐదుగురు	-9.31816
98	-9.31828
b	-9.31916
91	-9.3205
96	-9.32055
▁పరిపాలన	-9.32151
చ్	-9.32167
▁సంవత్సరాలు	-9.32173
▁వైభవం	-9.32236
▁వివాహం	-9.32335
ుకున్న	-9.32337
▁చలనచిత్రం	-9.32372
సంవత్సరం	-9.32383
▁కుల	-9.32401
జు	-9.32511
▁వె	-9.32519
▁గురువు	-9.32561
▁పిలుస్తారు	-9.32592
పద	-9.32685
▁ఢిల్లీ	-9.32701
▁సమరయోధుడు	-9.32707
▁అమెరికన్	-9.32707
▁యా	-9.32713
▁రి	-9.3285
▁లోక్సభ	-9.32952
▁వస్తుంది	-9.33104
▁పూర్తిగా	-9.33179
▁దూరం	-9.33202
▁హై	-9.33238
▁క్రీడాకారుడు	-9.33338
▁లేకుండా	-9.33358
29	-9.33438
▁అప్పుడు	-9.33608
l	-9.33625
▁భర్త	-9.33636
▁నటించారు	-9.33766
▁మండలంలోని	-9.33818
▁వ్రాసిన	-9.33819
▁గుర్తింపు	-9.33871
f	-9.33887
▁ప్రస్తుత	-9.33914
ణి	-9.33937
పాలెం	-9.33938
▁వేటూరి	-9.34113
▁గంగ	-9.34288
రంగ	-9.34356
న్నా	-9.34464
▁వెళ్ళ	-9.34469
▁అమ్మవారి	-9.34477
▁పురపాలక	-9.34499
▁పర్యాటక	-9.34623
▁శాసన	-9.34651
స్ట్	-9.3474
బీ	-9.34774
▁నిర్వహించెద	-9.34786
▁అవుతోంది	-9.34893
▁మహారాష్ట్ర	-9.34941
▁ప్రాంతాలలో	-9.35077
▁సో	-9.35181
▁చేయని	-9.35228
ంటి	-9.3524
▁సిస్టమ్	-9.35282
▁సిస్టం	-9.35282
▁భక్తి	-9.35329
▁సాధారణంగా	-9.35373
▁భూగర్భ	-9.35681
48	-9.35789
▁రాజ్	-9.35797
▁2014	-9.35876
▁పరిధిలో	-9.3589
ీయ	-9.36127
▁సై	-9.36169
02	-9.36422
▁లక్ష్మి	-9.36456
కల	-9.36473
▁ఎంత	-9.36547
▁ప్రాంతాన్ని	-9.366
▁ఆనంద	-9.36607
కార	-9.36732
▁పిక్చర్స్	-9.36909
ెడ్	-9.36928
దో	-9.36951
▁నిర్మించాడు	-9.36965
▁వరి	-9.3704
ంతా	-9.37054
▁అంచనా	-9.37267
బడ	-9.37377
శాల	-9.37417
▁పాలనలో	-9.37498
లేక	-9.3754
▁పె	-9.37602
▁ఖాన్	-9.3786
▁పూర్వం	-9.37898
34	-9.37903
▁శ్రీనివాస్	-9.38064
56	-9.38078
యిన	-9.38081
▁నగరంలో	-9.3823
▁సంఘటనలు	-9.38268
ల్లా	-9.38374
61	-9.38465
▁1990	-9.38495
▁ఇతని	-9.38682
ండ్	-9.38688
*	-9.38697
▁పంప	-9.38777
▁జాతి	-9.38783
▁లోక	-9.38809
పునర్వ్యవస్థీకరణ	-9.39032
▁ఎత్తు	-9.39119
63	-9.3924
నేషనల్	-9.39261
▁ఉద్యమ	-9.39281
▁సంస్కృతి	-9.39287
▁మొదట	-9.39293
్యం	-9.39392
75	-9.39461
పూడి	-9.39504
▁B	-9.39735
▁1:	-9.40059
▁శాతం	-9.40075
▁హరి	-9.40128
▁మరింత	-9.40134
▁అనంతపురం	-9.40141
▁నారాయణరావు	-9.40179
▁మద్య	-9.40227
▁విగ్రహం	-9.40245
క్స్	-9.40276
35	-9.4041
76	-9.40498
▁భాస్కరరావు	-9.40534
▁గురు	-9.40584
▁వ్యతిరేకంగా	-9.40628
r	-9.40797
▁=	-9.40845
▁దానికి	-9.40918
తులు	-9.4093
▁తమిళనాడు	-9.40965
▁వీటిలో	-9.40969
▁కొల్లూర	-9.40991
▁లాంటి	-9.41035
▁అయింది	-9.41045
పర	-9.41083
33	-9.41089
▁మహిళా	-9.41093
ించే	-9.41133
39	-9.41247
పే	-9.41255
82	-9.41275
▁మార్గం	-9.41284
▁విజయనగరం	-9.41298
యస్	-9.4141
▁మెదక్	-9.41449
ed	-9.4145
28	-9.41651
ును	-9.41773
▁అతిపెద్ద	-9.41783
▁అనేది	-9.4181
▁పండితుడు	-9.41931
▁మొ	-9.41946
▁సమ	-9.4196
మైనది	-9.42088
రూప	-9.42171
45	-9.42198
▁మీదుగా	-9.4227
ిస్తారు	-9.42571
▁కాంగ్రెసు	-9.42617
▁స్వతంత్ర	-9.42617
▁ఇవ్వ	-9.42738
ఫ	-9.4286
64	-9.4295
▁100	-9.43
ళ్లు	-9.43013
▁కొందరు	-9.43041
▁ఉర్దూ	-9.43098
నాథ	-9.43126
▁శాంతి	-9.43224
68	-9.43293
72	-9.4338
▁366	-9.43402
▁పాటల	-9.43439
▁గణపతి	-9.43477
▁ఆరుద్ర	-9.43513
84	-9.43562
▁భాషలో	-9.43568
26	-9.43625
▁చేస్తూ	-9.43637
▁స్థాయి	-9.43787
▁మహ	-9.43856
▁సంప్రదాయ	-9.43897
▁చిత్తూరు	-9.43905
▁విజ్ఞాన	-9.43928
▁రె	-9.43958
భాష	-9.43958
▁కూతురు	-9.43972
▁అందించాడు	-9.43977
▁).	-9.43978
▁హో	-9.43983
27	-9.4399
▁in	-9.44007
▁వాటిని	-9.44008
▁ఉదయం	-9.44124
▁బు	-9.44147
ించింది	-9.44324
దేవి	-9.4448
రాల	-9.44502
▁దానిని	-9.44515
శా	-9.44561
▁ఎలా	-9.44615
గారి	-9.44654
త్వం	-9.44733
]	-9.44738
99	-9.44803
▁అక్కడి	-9.44804
▁పండుగ	-9.44807
▁చిరంజీవి	-9.44855
54	-9.44877
▁సాహిత్యం	-9.44989
▁వంశ	-9.45026
హెచ్	-9.45086
▁వ్యతిరేక	-9.45105
▁పరిశ్రమ	-9.4518
▁రాజ్య	-9.45229
▁పంట	-9.45232
▁నృత్య	-9.45371
▁మండలాలు	-9.45411
▁క్రింద	-9.45597
▁సింగ్	-9.45606
▁రామలింగయ్య	-9.45622
▁జరుపుకుంటారు	-9.45626
▁ఇం	-9.45765
▁పురస్కార	-9.45976
▁–	-9.45986
స్తు	-9.46018
▁సేవ	-9.46073
▁జరిగే	-9.46078
41	-9.46107
వ్య	-9.46262
▁ఉపయోగించ	-9.46361
▁నియోజకవర్గం	-9.46473
▁ముఖ్యంగా	-9.4648
▁గ్రెగోరియన్	-9.46497
▁గోల్కొండ	-9.46497
▁అనుసరించి	-9.46538
▁కొత్తగా	-9.46551
కై	-9.46566
▁పొందింది	-9.46607
69	-9.46702
43	-9.46857
▁డిగ్రీలు	-9.46961
వాగు	-9.47022
▁సోమ	-9.47102
47	-9.4712
▁నమ్మ	-9.47125
▁స్త్రీ	-9.47171
ుటకు	-9.47226
51	-9.47266
▁దేవత	-9.47361
E	-9.47367
▁2009	-9.4742
▁2007	-9.47424
▁బొ	-9.47426
38	-9.47442
▁రాష్ట్రాల	-9.47508
▁శ్రీకాకుళం	-9.47531
క్కు	-9.47589
55	-9.47619
78	-9.47673
21	-9.47692
▁మహిళల	-9.47731
ధ్య	-9.47737
67	-9.47764
ుతున్న	-9.47807
▁పూజ	-9.47828
▁1,	-9.47852
కోసం	-9.47864
▁సాంస్కృతిక	-9.47866
▁రాజ్యం	-9.47895
భవ	-9.47913
▁పే	-9.48014
▁బంగారు	-9.48034
దేవ	-9.48041
▁నె	-9.48062
న్నీ	-9.48222
▁స్కోప్	-9.48271
తుల	-9.4848
▁మార్	-9.4851
▁దాడి	-9.48576
మర్	-9.48684
88	-9.48708
▁కాలెండరు	-9.48719
▁నోబెల్	-9.4872
▁ముస్లిం	-9.48758
▁సైన్యం	-9.48778
ంక	-9.48799
▁పర్వత	-9.48822
▁మారింది	-9.48829
▁సరిహద్దు	-9.48831
▁వలస	-9.48864
▁51	-9.48979
ుకున్నారు	-9.49038
▁సీత	-9.4908
లైన	-9.49103
▁ఆత్రేయ	-9.4917
▁నెహ్రూ	-9.4917
▁ప్రకాశం	-9.49172
▁జన్మించాడు	-9.49193
▁అతన్న	-9.49213
▁అన్నమయ్య	-9.49223
▁ప్రొడక్షన్స్	-9.4924
▁భారత్	-9.49605
▁రచనలు	-9.49616
▁జన్మ	-9.4962
▁బాధ	-9.49695
I	-9.49737
04	-9.4977
ండు	-9.49845
▁అత్యధిక	-9.4989
36	-9.49931
ణా	-9.4997
▁నేను	-9.5
▁2000	-9.50001
▁ప్రజలకు	-9.50047
▁చంప	-9.50053
ునిగా	-9.50168
▁గారి	-9.50182
▁పర	-9.5033
బాబు	-9.50409
62	-9.50464
▁యూ	-9.50464
▁మార	-9.50467
▁సగటు	-9.50538
▁కంప్యూటరు	-9.50576
▁నాగరికత	-9.50622
ణం	-9.5064
▁కెనడాలో	-9.50742
▁నామ	-9.50747
ిస్తున్న	-9.50789
▁నిర్వహించ	-9.5094
31	-9.50977
▁బ్యానర్	-9.50995
71	-9.51005
పోయింది	-9.51009
వాస	-9.51073
59	-9.51148
▁2008	-9.51221
87	-9.51231
▁క్	-9.51327
ద్ర	-9.514
పుడు	-9.5141
▁మళ్ళీ	-9.51453
▁2023	-9.51496
ంగి	-9.51617
గే	-9.51624
▁కేంద్రమైన	-9.51644
మన్	-9.51723
ార	-9.51776
▁పోలీసు	-9.51776
▁చేయడానికి	-9.51863
నగర్	-9.51865
06	-9.51914
▁గ్రామీణ	-9.51916
▁బాలబడ	-9.52037
▁నిర్	-9.52043
93	-9.52057
▁సైనిక	-9.52284
▁సాధారణ	-9.52295
53	-9.52305
▁మామూలు	-9.52382
▁1956	-9.52401
ుతారు	-9.52416
▁భౌతిక	-9.52454
▁చెప్పిన	-9.52505
▁సమేత	-9.52513
▁జిల్లాలు	-9.52595
▁ఏక	-9.52647
▁కార్	-9.52744
▁33	-9.5277
లక్ష్మి	-9.52862
95	-9.52865
▁1980	-9.5287
▁చుట్టూ	-9.52873
చేసి	-9.52962
▁ప్రియ	-9.52974
▁బట్టి	-9.52993
▁విష్ణు	-9.53055
▁సాహితీ	-9.53062
చా	-9.53195
09	-9.53245
79	-9.53246
▁(1	-9.53278
32	-9.53325
▁చేస్తుంది	-9.53359
రూ	-9.53431
▁ప్రా	-9.53497
ేయ	-9.53527
దేశ	-9.53595
w	-9.53641
ాలయం	-9.53658
▁ఇతను	-9.53679
కాయ	-9.53688
ంబు	-9.53754
▁దాసరి	-9.53823
▁ష	-9.5385
▁1991	-9.53856
ికి	-9.53868
05	-9.53872
చేయ	-9.53891
▁మై	-9.53931
▁రవి	-9.53935
▁కాపాడ	-9.53994
▁మనసు	-9.53994
▁పెంచ	-9.54024
పడ	-9.54037
▁భక్త	-9.54085
▁భాషలలో	-9.54116
గం	-9.54171
▁రకాల	-9.54241
▁బ్రాహ్మణ	-9.54259
▁భావిస్తున్నారు	-9.54282
▁గౌరవ	-9.54282
పద్యం	-9.54301
▁భారీ	-9.54335
చు	-9.54552
▁ఫ	-9.54646
▁కొనసాగ	-9.548
▁సముద్ర	-9.54803
మాన	-9.54812
▁గృహాలు	-9.54819
▁ఇండియన్	-9.54865
▁అలీ	-9.54987
86	-9.55041
లపై	-9.5505
▁వ్యాధి	-9.55055
▁యుద్ధంలో	-9.5512
81	-9.55161
▁1947	-9.55237
ఠ	-9.55283
▁రాజులు	-9.55322
▁డబ్బు	-9.55325
▁ప్రభావం	-9.5537
▁తనకు	-9.55588
▁ఫైల్	-9.55755
ంప	-9.55764
మంది	-9.5593
65	-9.56033
▁డే	-9.5613
▁పరిస్థితి	-9.56186
85	-9.5622
▁ప్రారంభ	-9.56225
▁ఉంటారు	-9.56232
▁గుర్తించ	-9.56298
కారుడు	-9.56317
▁G	-9.5633
ర్ల	-9.56352
▁చదువు	-9.56458
▁చెయ్య	-9.56504
▁మూ	-9.56531
52	-9.56631
▁ఆర్ట్	-9.56716
49	-9.56767
as	-9.56858
▁రాతి	-9.56958
▁జానపద	-9.57158
97	-9.57191
▁ఇప్పటికీ	-9.572
లై	-9.57245
ప్రసాద్	-9.57368
ానంద	-9.57423
▁ప్రాంత	-9.57444
▁కేరళ	-9.57479
▁శ్రీనివాస	-9.57557
కాలంలో	-9.57617
▁సుబ్బారాయుడు	-9.57645
▁ఎర్ర	-9.57761
▁దేశాల	-9.57788
ున్నాయి	-9.57789
▁నేల	-9.57793
▁బల	-9.57877
46	-9.57904
▁ఊరు	-9.57988
పరి	-9.57995
▁కేంద్రంగా	-9.58071
ing	-9.58074
▁జైన	-9.58179
సారి	-9.58192
▁అతడు	-9.58203
▁తెర	-9.58352
▁సాంకేతిక	-9.58376
▁పాడ	-9.58457
ధార	-9.58513
▁రూపాయల	-9.58523
74	-9.58585
▁రోజుల	-9.5859
▁మరణించాడు	-9.58693
37	-9.58711
▁ఊ	-9.58841
డె	-9.58932
చేత	-9.58964
▁పరిశోధన	-9.58983
ెన్	-9.59051
▁త్రి	-9.59108
▁కారణం	-9.5914
నప్పుడు	-9.59175
▁కోటి	-9.59349
▁రాజుల	-9.594
మ్మా	-9.59572
▁రాణి	-9.59593
▁చలన	-9.59624
▁ప్రధానమంత్రి	-9.59685
▁ప్రారంభించాడు	-9.59692
▁చేయబడింది	-9.59786
ంగు	-9.59867
▁అర	-9.59913
▁స్వ	-9.59926
▁ఉండేవి	-9.59933
ాది	-9.59957
ra	-9.60023
▁ప్రధానంగా	-9.60082
▁గళామృత	-9.60133
▁ఆధ్యాత్మిక	-9.60134
▁1985	-9.60151
నకు	-9.60156
▁లభించింది	-9.60158
ళి	-9.60251
డమే	-9.60271
▁ఆహార	-9.603
రామారావు	-9.60323
చంద్ర	-9.60338
చల్లా	-9.60362
▁కోరిక	-9.60363
ాక	-9.60417
▁రాజేంద్ర	-9.60547
ందుకు	-9.6057
▁కొద్ది	-9.60602
▁పద్యం	-9.60785
▁హాస్య	-9.60785
▁పద్మ	-9.60876
77	-9.60895
నాథ్	-9.60917
కల్	-9.60958
▁కామ	-9.6096
am	-9.60982
▁జీవితం	-9.60985
▁కాకినాడ	-9.61011
ుకునే	-9.61073
▁మార్చ	-9.61139
▁అకాడమీ	-9.61146
▁కోర్టు	-9.61146
▁వెంకటేశ్వరరావు	-9.6118
▁2012	-9.61203
D	-9.61261
▁ఫల	-9.61262
▁కార్యక్రమాలు	-9.6128
08	-9.61291
▁అవకాశం	-9.6139
▁మూర్తి	-9.61454
▁నిర్వహించిన	-9.61507
▁ఆసియా	-9.6154
▁యూనియన్	-9.61658
సన్	-9.61913
▁38	-9.61928
▁తిరు	-9.61954
▁హైదరాబాదులో	-9.61974
▁రంగారావు	-9.62103
▁రాజధానిగా	-9.62125
ంట్	-9.62155
▁గద్వాల	-9.62169
▁వైశాల్యం	-9.62393
▁మాటలు	-9.62447
ri	-9.62523
▁జనాభాలో	-9.62608
▁క్షేత్రం	-9.62624
ాత్మక	-9.6264
▁విశేష	-9.6265
▁దాశరథి	-9.62684
▁చేస్తున్న	-9.62727
▁తెలియ	-9.62777
రాష్ట్ర	-9.62805
జానకి	-9.62841
73	-9.62981
▁వ్యాసం	-9.63035
44	-9.63046
▁పూజలు	-9.63135
▁శాస్త్ర	-9.63153
న్నది	-9.63175
▁తిరుగుబాటు	-9.63203
రాం	-9.63291
▁శ్రీశ్రీ	-9.63347
-19	-9.63404
మాల	-9.63439
లూరు	-9.63532
ాలుగా	-9.63574
▁రూప	-9.63616
్యా	-9.63678
▁కొసరాజు	-9.63723
▁నంద్యాల	-9.63723
://	-9.63727
▁ఇన్	-9.63736
▁కళ్యాణ	-9.63754
డో	-9.63843
▁కథా	-9.63875
▁గ్రంథ	-9.63998
▁రాధ	-9.6408
ారం	-9.64135
▁మరణం	-9.64153
57	-9.64163
వారికి	-9.64171
58	-9.64208
▁వెనుక	-9.64246
చిత్ర	-9.6431
92	-9.64549
▁విశేషం	-9.64561
ీకరణ	-9.64574
▁అడుగుల	-9.64707
▁అప్ప	-9.64844
▁గాయని	-9.64944
ic	-9.64991
▁తాలూకా	-9.65078
▁సహా	-9.65127
▁చాల	-9.65135
v	-9.65157
03	-9.65232
▁నిర్మించ	-9.65252
▁రెండో	-9.65336
▁తెలియదు	-9.65337
▁వుంది	-9.65347
ింగ్	-9.6535
▁N	-9.6538
తెలుగు	-9.65501
▁మనిషి	-9.65526
▁ఉద్యమం	-9.65561
▁కీ	-9.65622
▁ఘ	-9.65642
రియా	-9.65731
వల్ల	-9.65835
▁ఆధ్వర్యంలో	-9.65838
▁కథలు	-9.6585
▁రుద్ర	-9.66017
▁2014,	-9.66081
▁మల్ల	-9.66351
త్వ	-9.6637
▁పనిచేశాడు	-9.66373
ద్య	-9.66406
▁పొడవు	-9.66436
▁36	-9.66442
▁2015,	-9.66478
83	-9.66483
▁స్థానం	-9.66582
▁మాట్లాడ	-9.66588
ుడిగా	-9.66615
▁ఒడ్డున	-9.66629
▁వేరు	-9.66648
▁విశ్వనాథ	-9.66681
త్తు	-9.66927
▁దీన్ని	-9.66944
▁2010	-9.66972
89	-9.67056
▁నేత	-9.67062
దర్	-9.67079
▁లేవు	-9.6712
▁సుందర	-9.67127
కారం	-9.67127
▁మనం	-9.67142
▁మార్గంలో	-9.67158
ంటా	-9.67181
▁ఆశ	-9.6719
▁బిడ్డ	-9.6719
ాపురం	-9.67206
▁అయి	-9.67239
▁దూరంలోనూ	-9.67297
▁చెంద	-9.67306
▁విప్లవ	-9.67334
▁బొమ్మ	-9.67418
▁లు	-9.6742
ండా	-9.67425
▁తర	-9.67448
ల్స్	-9.67466
▁సామ్రాజ్య	-9.67625
▁ప్లాంట్లో	-9.67628
.17	-9.67635
▁సాగు	-9.67791
▁పట్ల	-9.67801
చూ	-9.6782
యూ	-9.67869
▁కమ్యూనిస్టు	-9.6799
▁స్కూల్	-9.67991
▁జనరల్	-9.67999
▁1969	-9.68012
ందా	-9.68017
▁గాని	-9.68043
▁స్వాతంత్ర్యం	-9.68076
▁ఇంట్లో	-9.68107
▁ఉండగా	-9.68122
▁పది	-9.68132
నాటి	-9.68139
చో	-9.68155
▁విధానం	-9.68187
▁అంగ	-9.6823
ించడం	-9.68273
▁మరి	-9.68423
▁53	-9.68435
▁చెరువులు	-9.68461
▁న్యాయమూర్తి	-9.68547
▁ప్రాణ	-9.68599
▁ఆత్మ	-9.68652
ులైన	-9.68697
▁ఇంటికి	-9.68728
▁చెన్నై	-9.68802
ాడ	-9.68825
ళ్	-9.6887
▁శిక్ష	-9.68875
▁పడి	-9.68879
▁అయినా	-9.68973
R	-9.69097
▁జైలు	-9.69133
్ని	-9.69137
▁గంగా	-9.69145
▁పట్టు	-9.69211
▁అంతా	-9.69292
రచన	-9.69339
ఛ	-9.69359
ంటుంది	-9.69431
▁ఇంద్ర	-9.69588
▁చేసుకుని	-9.69648
ములను	-9.69759
▁ప్రాంతానికి	-9.69773
ేవాడు	-9.69811
జర్	-9.69857
▁ముఖ్యమంత్రిగా	-9.69874
▁పెద	-9.69905
▁కార్యక్రమంలో	-9.70002
గ్గ	-9.70089
▁సమస్య	-9.70106
▁పాకిస్తాన్	-9.70194
▁ఎన్నికల	-9.7027
వరకు	-9.70274
బె	-9.70369
తె	-9.70374
▁తరువాతి	-9.70375
▁అగ్ర	-9.70401
▁వర	-9.70462
▁చిత్రాల	-9.7049
రిక	-9.70509
జ్ఞ	-9.7051
▁T	-9.70527
▁భక్తుల	-9.70591
▁80	-9.70657
▁పుట్ట	-9.70748
▁తెనాలి	-9.70753
▁లాల్	-9.70822
కలు	-9.70824
▁వాళ్ళ	-9.70831
M	-9.70888
▁ఇంత	-9.70951
▁గత	-9.71034
▁ఆయనకు	-9.71081
▁కౌ	-9.71103
▁జ్ఞాన	-9.71105
▁జాబితా	-9.71165
▁ఎమ్మెల్యే	-9.71315
▁జట్టు	-9.71366
▁కర	-9.71368
వలసిన	-9.71389
▁సహాయ	-9.71468
డుగు	-9.71471
ురాలు	-9.71629
▁సరి	-9.71632
మన	-9.71666
బడుతుంది	-9.71686
▁యే	-9.71728
తాడు	-9.71796
లీల	-9.71806
▁నాగార్జున	-9.71938
▁అందుకు	-9.72
▁పిల్లలు	-9.72003
▁రస	-9.72068
▁పదం	-9.7208
▁పల్లె	-9.72108
▁ఇచ్చి	-9.72263
▁ప్రదర్శన	-9.72282
లాల్	-9.72365
▁నాయకులు	-9.72377
▁గుర్తు	-9.72526
రై	-9.72536
ుకొన	-9.72588
▁నాయక	-9.72675
▁42	-9.72676
▁పంపిస్తున్నా	-9.72755
శక్తి	-9.72762
క్త	-9.72773
▁వార	-9.72828
బుల్	-9.72859
నుంచి	-9.72924
▁మాధవపెద్ది	-9.73019
▁ఉంచ	-9.73032
▁కూడిన	-9.73062
▁అరటి	-9.73095
▁మొదలు	-9.73275
▁2005	-9.73339
▁విమానాశ్రయం	-9.73389
▁45	-9.73435
▁D	-9.73575
▁ఘట్టమనేని	-9.73594
▁ఉమ్మడి	-9.73594
▁గుణ	-9.73595
▁1982	-9.73618
▁1952	-9.73625
▁సాధించి	-9.73681
▁ఉత్సవాలు	-9.73699
▁కలసి	-9.73713
ాం	-9.73716
▁సింధు	-9.73718
▁బే	-9.73782
వార	-9.73814
▁పేర్లు	-9.73898
▁F	-9.74113
▁కనిపించ	-9.74147
▁రేడియో	-9.74172
▁కమిటీ	-9.74172
▁సమాజ	-9.74235
▁దండ	-9.74278
పాటు	-9.74313
రాజ్	-9.74385
▁అడవి	-9.74434
▁అందించిన	-9.74453
▁ఒకసారి	-9.74603
▁బ్రిటిషు	-9.74754
▁రచయిత్రి	-9.74782
భా	-9.74799
▁కేంద్రాల్లో	-9.74802
▁శాసనం	-9.74908
ష్ఠ	-9.74931
▁వారిలో	-9.74933
ేషన్	-9.74953
తోపాటు	-9.75012
▁సర్	-9.75031
▁బ్ర	-9.751
▁ప్రదేశం	-9.75134
▁దేశాలలో	-9.7517
ాంధ్ర	-9.75184
స్తాడు	-9.75259
వచ్చును	-9.7528
▁గి	-9.75306
▁సాంఘిక	-9.75338
▁గోపి	-9.75415
ెం	-9.75459
▁బీ	-9.75497
స్తే	-9.75554
ేంద్ర	-9.75617
శాఖ	-9.75642
ధు	-9.75648
వాద	-9.75723
▁నదీ	-9.75771
▁I	-9.75783
గడ	-9.75849
▁1972	-9.75951
▁పుస్తకం	-9.75956
▁హత్య	-9.75977
▁ఖా	-9.75981
▁చేస్తాడు	-9.75981
▁అక్క	-9.76037
కాలం	-9.76101
▁మొదటిసారిగా	-9.76109
▁పొందాడు	-9.76189
▁చెప్పి	-9.76191
▁సమర	-9.76254
▁శంకర	-9.76257
▁ఒప్పందం	-9.76257
▁1983	-9.76381
▁వాతావరణం	-9.76382
▁రంగు	-9.76506
▁మరణించారు	-9.76595
▁2019	-9.7669
▁2004	-9.7669
▁ప్రథమ	-9.76767
పేరు	-9.76791
▁కళ	-9.76818
పల్లిలో	-9.76857
పోతోంది	-9.76869
ుకున్నాడు	-9.76914
▁గొ	-9.76986
▁బిరుదు	-9.77076
▁విదేశీ	-9.77096
▁తెలుస్తుంది	-9.77116
▁మద్దతు	-9.77125
▁కాబట్టి	-9.77126
వని	-9.7714
▁కవులు	-9.77147
▁యె	-9.77197
▁దక్షిణాన	-9.77209
మొ	-9.77213
▁పొట్టి	-9.77245
ాన్	-9.77257
నని	-9.77279
▁పంచాయతీ	-9.7731
▁ప్రయాణ	-9.77319
▁ఉన్నాడు	-9.774
జయ	-9.77543
▁ఆలయాన్ని	-9.77558
▁డ	-9.77608
▁పద్య	-9.77672
▁చిత్రానువాదం	-9.77712
▁మండేలా	-9.77715
▁ప్రకృతి	-9.77727
కాలు	-9.77747
▁అగ్ని	-9.77768
▁సంస్థాన	-9.77772
▁శ్రీరాములు	-9.77784
▁సభ్యుల	-9.77795
▁లిపి	-9.77811
ాప	-9.77837
▁భాషలు	-9.77866
▁s	-9.77889
▁నటించగా	-9.77903
ాబాద్	-9.77923
▁రు	-9.77924
▁రంగారెడ్డి	-9.77966
జో	-9.7817
గొ	-9.78178
▁ప్రక్రియ	-9.78207
▁అనంత	-9.78237
ండే	-9.78247
థి	-9.78294
స్థాన	-9.78341
▁1960	-9.78344
▁ఆమెకు	-9.78364
▁సంస్థలు	-9.78401
ుడై	-9.78473
ch	-9.78483
▁సీతారామ	-9.78589
ూరులో	-9.78601
▁ఎకరాల	-9.7864
▁కార్యక్రమం	-9.78674
▁పట్టణానికి	-9.7868
యన్	-9.78792
కుంట	-9.78912
▁కాశీ	-9.78919
▁ప్రశ్న	-9.78925
బ్ర	-9.78938
▁52	-9.78938
▁1975	-9.78946
▁యోగ	-9.7897
en	-9.79065
ుకోవడం	-9.79086
▁రూపంలో	-9.79121
▁విద్యార్థులు	-9.79258
▁దొర	-9.79343
సిన	-9.79515
0,000	-9.79567
ైనా	-9.79618
▁ప్రచురణ	-9.79644
▁సాధించింది	-9.79658
es	-9.79676
O	-9.79678
▁గారు	-9.79681
దం	-9.79743
▁మందిరం	-9.79764
ార్	-9.79776
ించు	-9.798
▁మీటర్ల	-9.79834
▁ఇక	-9.79873
పెట్ట	-9.79873
▁మగ	-9.79935
▁జీవన	-9.79944
▁మారి	-9.79964
పోయిన	-9.79971
వేల	-9.80022
మాట	-9.80054
ఢ	-9.80089
పాట	-9.80159
పడి	-9.80223
▁లి	-9.80265
హీ	-9.8032
గల్	-9.80333
▁ఖండ	-9.80398
▁వరద	-9.80419
▁దేవస్థానం	-9.80429
భాగ	-9.8049
మయిన	-9.80559
▁తారక	-9.80578
▁పారిశ్రామిక	-9.80583
▁పాలు	-9.80593
▁37	-9.80641
▁ఆట	-9.80667
యె	-9.80722
▁రమేష్	-9.80761
▁1971	-9.80785
▁1948	-9.80789
తన	-9.80813
▁రాముడు	-9.80878
చీ	-9.80907
ునికి	-9.80978
▁రాం	-9.81025
▁వార్షిక	-9.81113
▁మారు	-9.81194
▁భక్తులకు	-9.81232
▁జీ	-9.81251
గణ	-9.81273
▁హి	-9.81283
▁పాత్రలు	-9.81311
▁శుభ	-9.81356
▁ఒంగోలు	-9.81382
▁విద్యార్థి	-9.81383
▁రిపబ్లిక్	-9.81487
▁0	-9.81558
▁గుమ్మడి	-9.81632
▁70	-9.81637
▁రాజమండ్రి	-9.81697
▁అసలు	-9.81717
▁పీ	-9.81835
▁రక్షణ	-9.81894
కంటే	-9.81926
▁న్యాయ	-9.81926
▁ఉండటం	-9.8194
▁2015	-9.81946
▁మర	-9.81948
▁అర్ధ	-9.81955
▁రాజ్యాంగ	-9.81983
దేశం	-9.82018
గూడెం	-9.82027
▁అందుకే	-9.8203
▁నందమూరి	-9.82033
▁నిర్మించబడింది	-9.82044
ుడిని	-9.82082
▁పేజీ	-9.82087
క్రీ	-9.82106
▁అమలు	-9.82136
లర్	-9.82171
▁నవలా	-9.8225
▁34	-9.82461
▁చట్టం	-9.825
▁రికార్డు	-9.82541
రోజు	-9.82543
▁ఆదిలాబాద్	-9.82636
▁ఆనకట్ట	-9.82637
▁పవిత్ర	-9.82668
▁గాను	-9.82726
▁డె	-9.82736
స్ట	-9.82738
▁The	-9.8277
పుర	-9.82802
▁దో	-9.82949
ల్లి	-9.83017
యర్	-9.83021
పం	-9.83053
ుచు	-9.83078
ముఖ	-9.83117
▁కుటుంబం	-9.83125
రాలు	-9.83148
▁1992	-9.83152
▁దారి	-9.83176
▁ఆచార్య	-9.83176
▁వాడుకలో	-9.83251
ండ్ల	-9.83258
▁పారుదల	-9.83269
▁ఆలోచన	-9.8327
▁రాయలసీమ	-9.83271
▁పెట్టి	-9.83361
▁వాటిలో	-9.83362
▁ప్రాంతీయ	-9.83383
▁V	-9.83428
▁కూ	-9.83435
టన్	-9.8344
▁అయ్యాడు	-9.83456
▁గాలి	-9.83471
com	-9.83543
▁ఫి	-9.83578
▁స్వయంగా	-9.83587
ార్థ	-9.83608
▁విగ్రహ	-9.83639
ంటారు	-9.83649
▁నీటిని	-9.83686
డూ	-9.837
ితే	-9.83843
శాస్త్ర	-9.83911
▁కనిపిస్తుంది	-9.83918
వలసి	-9.83993
సర్	-9.84118
▁చేర్చ	-9.84167
▁దేశానికి	-9.84308
ప్పటికీ	-9.84308
▁పైన	-9.84398
పర్	-9.84458
ధ్	-9.84493
▁అమర	-9.84495
▁డివిజనులో	-9.84504
పురి	-9.84513
▁పాఠశాలలో	-9.84523
▁ప్రత్యేకత	-9.84542
▁చూడండి	-9.84593
▁వెంకటేశ్వర	-9.84593
▁గోపాల	-9.84607
▁తయారీ	-9.84609
▁సర్పంచిగా	-9.84644
▁యునైట	-9.84671
యైన	-9.84726
▁సహజ	-9.8477
▁స్వంత	-9.84783
ేపల్లి	-9.84841
▁వివరించ	-9.84906
మాన్	-9.84924
▁ఇంగ్లీషు	-9.84939
మం	-9.84968
▁ఆల్	-9.84977
ుచున్నది	-9.85049
▁ఇన్స్టిట్యూట్	-9.85192
▁స్థాపించబడింది	-9.85206
▁గణిత	-9.85208
▁1999	-9.85219
▁ప్రారంభమైంది	-9.8523
▁విస్తీర్ణం	-9.85284
వంతు	-9.85306
▁క్షేత్ర	-9.85336
▁బై	-9.85354
ాచార్యులు	-9.85382
్ర	-9.85484
▁లలిత	-9.8549
▁మార్పు	-9.85535
▁చివరికి	-9.8557
▁పరీక్ష	-9.85706
N	-9.8573
▁టెక్నాలజీ	-9.85842
▁ఉజ్బెకిస్థాన్	-9.85842
▁48	-9.85864
▁1955	-9.85867
నము	-9.85893
▁44	-9.86007
▁సూ	-9.86041
▁శబ్ద	-9.86052
▁గోవా	-9.86093
▁కన	-9.8619
సేవ	-9.86201
▁అవసరం	-9.86279
▁చేరి	-9.86319
▁తాత	-9.86351
తల	-9.86353
▁వర్ణ	-9.86353
▁భారతదేశంలోని	-9.86382
B	-9.86396
▁కావ	-9.86426
▁రోజుల్లో	-9.86446
▁మసీదు	-9.86495
▁1964	-9.86522
▁1994	-9.86525
ణీ	-9.86528
▁1930	-9.86536
▁ఉంటాడు	-9.86543
▁పాల్గొన్నారు	-9.86547
at	-9.86756
▁మాట్లాడే	-9.86863
▁ధన	-9.86867
▁క్యా	-9.86882
ర్స్	-9.869
▁ముఖ	-9.87049
▁అనుమతి	-9.87092
▁కుతుబ్	-9.87141
▁గోపాలరావు	-9.87189
▁రంగంలో	-9.87344
▁వాడు	-9.87399
▁పరిచయం	-9.87522
ందో	-9.87526
▁చేతిలో	-9.87584
నికి	-9.87658
వలన	-9.87722
బర్	-9.87761
▁పోలి	-9.87765
▁రావి	-9.87783
ాంతర	-9.87794
▁మొఘల్	-9.87816
▁ప్రతిష్ఠ	-9.87843
కాంత	-9.87846
▁భీమ	-9.87862
▁క్రమంగా	-9.87895
▁అయ్య	-9.87994
లింగ	-9.88061
నర్	-9.88067
య్	-9.88078
రస	-9.88098
ేది	-9.88194
▁నిజ	-9.88199
▁సాగర్	-9.88223
▁పోరాట	-9.88322
▁మధ్యలో	-9.88358
▁ప్రదర్శించ	-9.88384
▁కం	-9.884
ట్స్	-9.88423
స్య	-9.88439
▁పన్ను	-9.88453
▁అవగాహన	-9.88482
▁కంప్యూటర్	-9.88482
▁శాస్త్రీయ	-9.88494
▁ఊరి	-9.88554
బాల	-9.88554
▁వెంటనే	-9.88576
▁మరాఠీ	-9.88592
▁ఫలితంగా	-9.88598
▁ప్రయత్నం	-9.88638
▁మహర్షి	-9.88668
▁ప్రఖ్యాత	-9.88776
ర్థ	-9.88778
▁భారతదేశానికి	-9.88839
▁1965	-9.88867
▁దుర్గ	-9.88885
ులుగా	-9.88886
▁అధికారులు	-9.88894
మణి	-9.88895
▁మనో	-9.88898
పైన	-9.88981
▁నో	-9.89006
▁పిల్ల	-9.89009
▁సాయి	-9.89034
ఓ	-9.89095
▁2006	-9.8913
▁నిష్పత్తి	-9.89153
▁1998	-9.89184
సేన	-9.89222
ాయని	-9.89252
▁దర్శకులు	-9.89294
▁యి	-9.89304
▁చివరకు	-9.89322
ma	-9.89393
▁అంగీకరించ	-9.89433
▁ఈనాడు	-9.89442
మార్	-9.89682
యన	-9.89712
L	-9.89774
▁1950	-9.89781
▁1997	-9.89853
▁దాంతో	-9.89864
▁రఘు	-9.90042
▁నాటు	-9.90067
▁కలి	-9.90077
▁కార్య	-9.90091
▁పనులు	-9.90096
మంత	-9.90102
▁చంద	-9.9012
ఫి	-9.90129
కుమార్	-9.90185
▁బయట	-9.90234
▁ఇప్పటి	-9.90294
ద్దు	-9.90345
భారత	-9.90449
▁తొ	-9.9046
▁అందరి	-9.90557
ol	-9.90569
▁వెళ్ళే	-9.90573
పోతుంది	-9.90601
▁ఎనిమిది	-9.90614
▁బెంగుళూరు	-9.90636
▁స్వాధీనం	-9.90681
▁200	-9.90688
భి	-9.90812
▁సార్లు	-9.90831
కథ	-9.90832
ంలోని	-9.90838
▁పండితులు	-9.90844
▁ఆలయానికి	-9.90878
▁కొండల	-9.90897
▁దూర	-9.90966
▁ప్రత్యేకంగా	-9.90967
▁సంపద	-9.91092
▁జాన్	-9.91105
▁తగ్గ	-9.91115
▁నదులు	-9.91117
▁తీసుకు	-9.91128
▁జరిగాయి	-9.91205
▁సంపాదకుడు	-9.91233
▁ఉత్తరాన	-9.91259
వల్లి	-9.91319
▁మండలాల	-9.9132
▁చందమామ	-9.91356
చిన	-9.91371
▁ఉత్సవ	-9.9139
▁వివరాలు	-9.91396
▁ఇచ్చిన	-9.91457
▁నాటకం	-9.91482
▁నిర్వహణ	-9.91514
ినట్లు	-9.91603
▁ఎక్కడ	-9.91653
▁పేర	-9.91724
▁కవుల	-9.91816
పోయి	-9.91862
▁బాలకృష్ణ	-9.91894
▁ఉంటే	-9.91937
▁తిక్కన	-9.91942
▁2018	-9.91947
▁ఉండాలి	-9.91949
▁విష్ణువు	-9.91951
ఖ్	-9.91986
▁15:	-9.92155
▁అధికారి	-9.92184
సర	-9.92205
▁చెట్టు	-9.92353
▁సముద్రాల	-9.924
▁1974	-9.92511
▁ఎంపిక	-9.92553
▁గవర్నర్	-9.92578
▁పిఠాపురం	-9.92578
▁అయినప్పటికీ	-9.92605
▁అవుతుంది	-9.92662
లొ	-9.9271
▁అందించారు	-9.92724
▁సావిత్రి	-9.92732
▁భీమవరం	-9.92756
విజయ	-9.92806
200	-9.92839
▁సహ	-9.92848
ందర్	-9.92875
▁పెట్టారు	-9.92895
▁రాష్ట్రానికి	-9.92956
ున్నారు	-9.92971
▁శివుడు	-9.93018
▁తీసుకుని	-9.9302
బూ	-9.93037
▁క్ర	-9.93074
▁లోయ	-9.93081
▁జరగ	-9.93215
▁ఎన్నిక	-9.93249
ందే	-9.93265
▁మొదలగు	-9.93342
▁చెబుతారు	-9.93345
▁చట్ట	-9.93377
▁పాద	-9.93393
హిత	-9.93474
యము	-9.93511
▁నిర్ణయించ	-9.93689
ప్పు	-9.93691
ాదేవి	-9.9375
▁గృహ	-9.9376
▁అష్ట	-9.93768
నామ	-9.93792
ల్లు	-9.93859
▁న్యాయవాది	-9.94063
▁టీ	-9.94065
▁జాతర	-9.94068
▁జై	-9.94081
▁పాత్రల్లో	-9.94111
▁శ్రీరామ	-9.94137
▁అధికారిక	-9.94199
ియా	-9.94225
ారా	-9.94281
▁సింహ	-9.94318
▁భాషల	-9.94408
▁పురాణ	-9.94444
ుండ	-9.94496
ంపు	-9.94524
▁మధు	-9.94544
పరచ	-9.94588
▁సంపాదించ	-9.94636
▁నిజామాబాదు	-9.94691
▁నవాబు	-9.94691
▁మనకు	-9.94831
▁L	-9.94871
▁రై	-9.94882
▁తూర్పున	-9.94929
రియ	-9.94941
▁కై	-9.9498
ంటు	-9.95172
▁బహు	-9.95205
పరంగా	-9.95219
▁1989	-9.95225
▁చెప్పాడు	-9.95255
స్వామివారి	-9.95304
కర్త	-9.95317
చ్చే	-9.95352
ాద్రి	-9.95388
▁ప్రణాళిక	-9.95403
▁ఖర్చు	-9.95406
▁డబ్బింగ్	-9.95407
▁భువనగిరి	-9.95413
▁డివిజన్	-9.9545
▁వచ్చాయి	-9.95457
th	-9.95478
▁వేసవి	-9.95482
▁2002	-9.95494
▁అర్	-9.9552
గె	-9.95548
▁అతడి	-9.95593
▁ఘనం	-9.95617
▁సహాయం	-9.95635
▁2003	-9.95638
▁న్యూ	-9.95642
▁కాకతీయ	-9.9569
▁వసంత	-9.95704
▁సమర్పించ	-9.95718
నున్న	-9.95768
▁చేస	-9.95909
T	-9.95933
▁కన్న	-9.95956
▁ఛ	-9.95964
▁ఇండో	-9.95966
▁తె	-9.95989
▁43	-9.9601
▁అస	-9.96064
▁జూ	-9.96094
▁వయస్సు	-9.96125
▁తరగతి	-9.96127
▁జరుగుతాయి	-9.9613
ాంశ	-9.96203
▁సాధించ	-9.96258
▁ప్రకటించ	-9.96304
▁బాధ్యత	-9.964
వార్	-9.96446
st	-9.96451
▁వైద్యులు	-9.96466
▁రమణ	-9.96533
▁నాయకుల	-9.96592
ద్ది	-9.96595
ముతో	-9.96691
ార్ధ	-9.96713
▁ఫా	-9.96735
ొక	-9.9677
▁దాన్ని	-9.96811
ాంగ	-9.96841
▁సుల్తాన్	-9.96849
సాహెబ్	-9.9685
▁విన	-9.96859
డము	-9.96868
▁సొంత	-9.96873
▁అనీ	-9.96988
▁తీ	-9.97007
▁వచ్చాడు	-9.97012
▁అంటూ	-9.97025
▁మతం	-9.97056
▁మహారాజు	-9.97067
▁ఘన	-9.97087
▁ధ	-9.97099
▁పరిశ్రమలు	-9.97135
▁వ్రాయ	-9.97191
▁పదవిని	-9.97193
ానికీ	-9.97205
వద్ద	-9.97233
▁హెచ్	-9.97273
▁సీతా	-9.97322
లేరు	-9.97344
om	-9.97474
ాయ్	-9.97481
▁తే	-9.97497
▁వంటివి	-9.97499
భావ	-9.97529
F	-9.97556
▁1973	-9.97605
▁ప్రకటించింది	-9.9763
▁అప	-9.97637
▁స్థాపించారు	-9.97686
▁లోనే	-9.97793
▁రాఘవ	-9.978
న్నాడు	-9.97818
దాసు	-9.97844
ంచిన	-9.97851
▁నదుల	-9.97859
▁ఉన్నది	-9.97871
▁బండ	-9.97969
ంతి	-9.97986
థా	-9.98073
▁శర్మ	-9.98088
ంభ	-9.98112
▁http	-9.98148
▁ఇందిరా	-9.98179
▁గేయ	-9.98183
▁...	-9.98274
వాది	-9.98277
▁శా	-9.98304
▁150	-9.98311
▁వసతి	-9.98316
జే	-9.98326
▁కళాకారుడు	-9.98364
ంటూ	-9.98402
▁భద్ర	-9.98469
▁వుండ	-9.98522
▁[	-9.98527
▁దేవతల	-9.98534
ర్లు	-9.98565
▁ప్రాంతాల్లో	-9.98597
నాలు	-9.98625
▁చెక్క	-9.98693
▁నేర	-9.98694
గడ్డ	-9.98713
గొట్ట	-9.98727
▁ప్రదేశాలు	-9.98728
▁65	-9.988
టె	-9.98805
పూజ	-9.99002
▁రాజీనామా	-9.99055
▁విలీనం	-9.99055
▁ఒక్కొక్క	-9.99065
▁పనిచేసిన	-9.99066
▁1946	-9.99082
వతి	-9.9909
▁భావిస్తారు	-9.99104
▁చేతి	-9.99107
H	-9.99141
ur	-9.99161
▁చక్కని	-9.99189
▁41	-9.9923
ుకుంటూ	-9.99257
▁అర్థ	-9.9932
▁1967	-9.99339
ంచే	-9.9944
▁కర్మ	-9.99452
దాస్	-9.99602
ేశ	-9.99603
▁అల్ల	-9.99654
▁తోట	-9.99688
▁H	-9.99716
▁మైసూరు	-9.99802
▁వనపర్తి	-9.99802
▁దిగ	-9.99803
▁నిలిచింది	-9.99864
▁1920	-9.99871
▁పోషించారు	-9.99876
ంద్ర	-9.99878
▁పత్రికా	-9.99953
▁శతాబ్దాల	-9.99955
టింగ్	-9.9996
ఱ	-10.0001
on	-10.0005
▁అమ్మాయి	-10.0013
▁నాయకత్వంలో	-10.0025
▁శాస్త్రం	-10.0032
▁నిర్మాణానికి	-10.0034
▁పరమ	-10.004
▁అల్	-10.0041
▁గజ	-10.0045
▁దొంగ	-10.0046
▁తీవ్ర	-10.0049
▁సాధించిన	-10.005
▁w	-10.0055
▁పుష్ప	-10.0055
▁థాయ్లాండ్	-10.0056
▁1961	-10.0059
▁12:	-10.0062
▁అందరూ	-10.0065
▁బ్యాంక్	-10.0067
▁శివాజీ	-10.0067
బడే	-10.0071
▁గోడ	-10.0074
▁46	-10.0074
▁అందమైన	-10.0074
▁ముద్ర	-10.0078
▁సమితి	-10.008
▁22:	-10.008
▁శతాబ్ది	-10.0081
▁చేరిన	-10.0086
▁కన్నా	-10.0088
▁వేమన	-10.0097
యాల	-10.0099
▁సినిమాను	-10.0104
▁నూతన్	-10.0116
▁47	-10.0124
▁ముద్దు	-10.0126
యందు	-10.0129
▁పరిపాలనా	-10.0129
▁నిజామాబాద్	-10.0131
ైతే	-10.0132
▁పరిసర	-10.0133
ుకుంది	-10.0137
▁రేటు	-10.0138
▁మచిలీపట్నం	-10.0141
▁రచించాడు	-10.0142
▁అన్నాడు	-10.0144
–	-10.0144
▁E	-10.0144
గంటి	-10.0145
▁జగిత్యాల	-10.0156
▁లె	-10.0156
▁సంతోష	-10.0163
రంగారావు	-10.0164
ులతో	-10.0166
▁క్రింది	-10.0168
ుచున్నారు	-10.0172
▁శ్రీశైలం	-10.0172
గారు	-10.0175
▁శివుని	-10.0175
▁చర్చి	-10.018
▁తదితర	-10.0199
▁దృష్టి	-10.0199
ండ్ర	-10.02
▁1970	-10.0201
▁బాబా	-10.0201
▁వంట	-10.0202
▁వైఎస్ఆర్	-10.0208
▁1945	-10.0211
బంధ	-10.0211
▁పరిషత్తు	-10.0213
▁వంద	-10.0219
ation	-10.0223
▁తెలుగుదేశం	-10.0227
▁లోకి	-10.0231
▁ఓడించి	-10.0232
▁రూపొందిన	-10.0236
▁1954	-10.0239
▁లలో	-10.0239
▁శేష	-10.0239
▁తేదీన	-10.0243
▁ఇటీవల	-10.0248
▁రజ	-10.0266
వాడి	-10.0272
పాక	-10.0274
▁నిత్య	-10.0275
▁అందించ	-10.0275
తను	-10.0279
▁జర్మనీ	-10.0284
▁తపస్సు	-10.0285
▁కాయ	-10.0286
▁రద్దు	-10.0286
స్తా	-10.0291
▁వెంట	-10.0294
▁ఆదివారం	-10.0294
▁రసాయన	-10.0296
▁ఆలయాలు	-10.0298
▁1962	-10.0306
▁ప్రాముఖ్యత	-10.0306
▁పండ	-10.0308
▁సుఖ	-10.0309
ాలనే	-10.0314
▁బాపు	-10.0316
▁హిట్	-10.0319
▁అధికారం	-10.0335
▁జే	-10.0339
▁రాక్షస	-10.0342
లుగు	-10.0342
ర్చ	-10.0344
▁వేసి	-10.0347
▁సంబంధం	-10.0349
ంటాడు	-10.0357
▁తీర్పు	-10.0362
▁పర్షియన్	-10.0362
▁1942	-10.0365
▁పుణ్య	-10.0374
నాయుడు	-10.038
▁ధర	-10.0381
▁వ్యక్తులు	-10.0387
▁ప్రభ	-10.0396
▁వృక్ష	-10.0397
▁39	-10.04
▁కూర్చ	-10.0407
▁మంద	-10.0409
దల	-10.0412
▁||	-10.0414
▁23:	-10.0426
పట్నం	-10.0428
▁స్థాయిలో	-10.0429
థ్	-10.0429
దారు	-10.043
▁అంతరిక్ష	-10.0433
గ్రా	-10.0437
▁సరస్వతి	-10.044
▁ఆదాయం	-10.044
▁జగ	-10.0442
▁వివాహ	-10.0446
▁భా	-10.045
▁గ్రామములో	-10.0467
ాలంటే	-10.0471
▁నెలల	-10.0473
తర	-10.0473
ొక్క	-10.0474
▁కృష్ణమూర్తి	-10.0474
▁విషయ	-10.0477
▁సత్	-10.0477
ుకోవడానికి	-10.048
▁రూపాయలతో	-10.0481
▁తీర్చ	-10.0487
▁హె	-10.0487
▁ప్రాంతము	-10.0487
▁ప్రధాని	-10.0491
క్ర	-10.05
ర్య	-10.05
▁మరణ	-10.0504
▁రూపొందించ	-10.0508
▁వర్ష	-10.051
▁అక్షర	-10.0511
▁గోవింద	-10.0518
▁అత్యున్నత	-10.0519
▁బెంగాల్	-10.0519
▁పంతులు	-10.0519
హం	-10.0522
▁సీతారామరాజు	-10.0523
నేని	-10.0529
▁పరమేశ్వర	-10.0533
▁గణ	-10.0533
▁పాలించారు	-10.0533
▁దగ్గరలో	-10.0537
=	-10.0537
▁కేసు	-10.0537
▁ఈశ్వరి	-10.0539
▁24:	-10.0549
▁మంత్రిగా	-10.0568
▁మిత్ర	-10.057
▁ఉన్నా	-10.0571
▁55	-10.0572
▁బాధ్యతలు	-10.0575
తరం	-10.0587
ంద్	-10.0587
శివ	-10.0589
▁పాలించిన	-10.0594
▁చోళ	-10.0601
రాజా	-10.0601
▁పెరిగి	-10.0601
▁వెళ్లి	-10.0603
▁2021	-10.0604
▁అర్ధం	-10.0606
▁కనక	-10.0609
▁తరలి	-10.0611
▁తమ్మ	-10.0612
us	-10.0612
ాభివృద్ధి	-10.0614
▁దర్శించ	-10.0614
▁విలువ	-10.0615
తోనే	-10.0623
▁సాధన	-10.0624
▁కొల	-10.0626
re	-10.0629
▁విషయంలో	-10.0629
ాభి	-10.0631
▁సినారె	-10.0637
మహదేవన్	-10.0641
నారాయణరెడ్డి	-10.0643
▁సే	-10.0647
మహా	-10.0654
▁ఇచ్చే	-10.0657
▁నాట్య	-10.0666
గురు	-10.0667
▁భవనం	-10.0671
▁ప్రారంభమయ్యాయ	-10.0677
▁చికిత్స	-10.0678
▁ప్రజాదరణ	-10.0678
▁బ్రిటీషు	-10.0678
▁అమరావతి	-10.0678
▁వందల	-10.0681
▁కూడ	-10.0687
ేరు	-10.0687
▁వెళ్ల	-10.0687
▁ముందుగా	-10.0691
▁దుకాణం	-10.0692
▁ఉద్యోగ	-10.0699
▁శంకర్	-10.07
▁గ్	-10.0705
▁దైవ	-10.0706
▁మాయ	-10.0709
▁అత్యధికంగా	-10.0711
▁రక్త	-10.072
ెన	-10.072
▁రాష్ట్రంగా	-10.0723
▁ప్రచురించ	-10.0726
▁కాలువలు	-10.0731
▁64	-10.0732
కూడా	-10.0733
ంచు	-10.0741
దె	-10.0746
▁భవన	-10.0749
షీ	-10.0749
le	-10.075
ఫీ	-10.0752
▁చేయబడిన	-10.0756
▁శంకుస్థాపన	-10.0759
▁1977	-10.0765
▁హెక్టార్ల	-10.0766
ఫా	-10.0767
▁3:	-10.0768
▁రావ	-10.0768
▁పోలీస్	-10.0773
హో	-10.0775
గ్న	-10.0779
▁చాళుక్య	-10.079
వలె	-10.0792
▁ప్రారంభం	-10.08
▁2017	-10.0801
▁కల్పించ	-10.0801
▁యంత్ర	-10.0801
ాట	-10.0808
సో	-10.0813
ఫర్	-10.0819
▁దాన	-10.0821
▁p	-10.0821
▁రామచంద్ర	-10.0828
is	-10.0832
▁మాధవ	-10.0835
▁లక్ష	-10.0838
చ్ఛ	-10.0839
▁కలకత్తా	-10.084
▁మిగతా	-10.084
▁నరేంద్ర	-10.084
▁స్థాపకుడు	-10.0842
ాంత	-10.0851
▁పురాణం	-10.0856
▁నంద	-10.0859
▁గూగుల్	-10.0866
▁27:	-10.0872
▁కొమ్మ	-10.0873
▁పాలనా	-10.0877
▁ఆధారాలు	-10.0881
0%	-10.0887
▁స్ప	-10.0888
▁వు	-10.0889
▁ఈశ్వర	-10.0891
▁నిర్మాతలు	-10.0891
▁వదిలి	-10.0893
సార	-10.0897
-20	-10.0898
పాత	-10.0898
▁వేంకటేశ్వర	-10.0903
▁మాన	-10.0905
ల్ని	-10.0907
▁సమీపంలోని	-10.0907
▁నివేదిక	-10.0922
▁మహిళలు	-10.0928
▁వేణు	-10.0929
▁భాగ	-10.0931
▁ఆస్తి	-10.0932
▁స్థాపించాడు	-10.0933
శర్మ	-10.0948
నట్లు	-10.0949
▁ఉద్యోగం	-10.0955
▁జమీందారు	-10.096
ెట్	-10.0962
▁సమాన	-10.097
గర్	-10.0971
ూర	-10.0973
వాన్	-10.0989
▁క్రైస్తవ	-10.0994
▁సంఖ్యలో	-10.0998
▁పేద	-10.1002
▁ఈశాన్య	-10.1005
▁ప్రస్తావన	-10.1005
▁ప్రాధాన్యత	-10.1005
▁సీనియర్	-10.1005
▁నిల్వ	-10.1005
▁1940	-10.1009
▁ఇతడు	-10.101
▁చిత్రకారుడు	-10.1012
▁చక్ర	-10.1024
▁సప్త	-10.1026
ad	-10.1026
కళ	-10.1033
▁భద్రాచలం	-10.1034
▁ఉందని	-10.1038
▁సేవలు	-10.104
గానూ	-10.1051
▁హు	-10.1052
▁హే	-10.1057
నియా	-10.1059
▁టె	-10.1059
▁కల్	-10.1061
కృత	-10.1061
గొండ	-10.1082
మత	-10.1083
▁యోధుడు	-10.1088
▁రాశాడు	-10.1088
▁6:	-10.1094
▁చిన	-10.1096
▁ప్రచారం	-10.1099
▁జనతా	-10.11
స్టర్	-10.1102
రొ	-10.1103
రాయి	-10.111
జాల	-10.1112
▁మామిడి	-10.1114
▁తత్వ	-10.112
▁మలయాళ	-10.1125
మంతా	-10.1132
బాయి	-10.1153
▁ఫిల్మ్	-10.1158
దన	-10.1166
దుర్గ	-10.1169
▁ఫ్రెంచి	-10.1172
▁బ్రిటీష్	-10.1172
▁సుప్రీంకోర్టు	-10.1172
▁గణపవరం	-10.1172
▁గాయకులు	-10.1172
▁ఎన్నికయ్యాడు	-10.1172
▁సెంటర్	-10.1173
▁జీవితంలో	-10.1187
▁సమయం	-10.1192
▁బాగు	-10.1198
▁జపాన్	-10.1199
హార్	-10.1201
▁ఇక్కడే	-10.1202
▁చిక్క	-10.1205
▁దేశము	-10.1206
▁దీనిలో	-10.121
▁వయసు	-10.121
త్తి	-10.1211
గత	-10.1217
నల్	-10.1227
▁సర	-10.1231
▁ఒకప్పుడు	-10.1232
ul	-10.1232
▁2:	-10.1233
▁నేటి	-10.124
▁గానీ	-10.124
▁నవ్వ	-10.1255
▁మరాఠా	-10.1257
▁వందేమాతరం	-10.1257
▁నేపథ్యగానం	-10.1257
▁బహుళ	-10.1259
▁రాక	-10.1261
ుడికి	-10.1261
▁కవిత్వం	-10.1265
▁ప్రొ	-10.1266
▁బిల్లు	-10.1266
▁పగ	-10.1276
la	-10.1291
▁a	-10.1292
▁ఒకరి	-10.1297
▁ఆర	-10.1299
మెంట్	-10.1299
▁ఆయా	-10.1308
▁చెప్పవచ్చు	-10.1309
ృత	-10.1323
▁నరసింహారావు	-10.1327
▁ఇక్కడికి	-10.1336
కట్ట	-10.1336
కరణ	-10.1337
▁దాదా	-10.1341
▁శుద్ధ	-10.1342
▁బెంగాలీ	-10.1342
▁జిక్కి	-10.1343
▁నిర్వహిస్తుంది	-10.1343
▁ప్రైవేట్	-10.1344
▁1963	-10.1346
తూ	-10.1347
▁వెబ్	-10.1349
▁30:	-10.1352
▁1978	-10.1354
▁గౌతమ	-10.1355
▁కడ	-10.136
▁పాత్రల	-10.1367
▁శైలి	-10.1377
▁R	-10.1379
▁8:	-10.1386
▁రామాయణం	-10.1386
విద్య	-10.1387
▁c	-10.1395
వైపు	-10.1405
ro	-10.1411
▁బస్	-10.1414
▁75	-10.1417
▁వైద్యుడు	-10.1418
ప్రాంత	-10.1419
చార	-10.1422
▁నన్నయ	-10.1427
▁సింగ	-10.1427
▁ఎగుమతి	-10.1428
▁ముంబై	-10.1428
▁లిమిటెడ్	-10.1428
▁ఆసక్తి	-10.1428
▁అశ్వ	-10.1429
▁సాహితీవేత్త	-10.1429
▁సాయుధ	-10.143
▁అల్లూరి	-10.143
▁ఉదాహరణ	-10.1432
▁1988	-10.1441
యోగ	-10.1442
▁చేసుకున్నాడు	-10.1442
▁చౌదరి	-10.1445
▁డై	-10.1446
▁పులి	-10.1447
▁రామ్	-10.145
▁వేదిక	-10.1451
ైంది	-10.1461
స్థాయి	-10.1464
▁యువ	-10.1474
▁రైతు	-10.148
▁మండ	-10.1484
▁భాగంలో	-10.1488
నై	-10.1499
▁ప్రయాణం	-10.1501
▁శ్రీరంగ	-10.1501
▁తీయ	-10.1508
▁కీర్తి	-10.1508
▁అణు	-10.1512
▁పుట్టి	-10.1513
▁విద్యార్థుల	-10.1514
▁విమర్శకుడు	-10.1517
▁వినాయక	-10.1517
▁జయంతి	-10.1518
▁1976	-10.1519
▁ప్రతిష్ఠించ	-10.152
▁ఇలాంటి	-10.1522
ుకుంటుంది	-10.1526
▁ఏర్పడ	-10.1531
▁పరిషత్	-10.1531
టంతో	-10.1536
▁నిర్మించి	-10.1542
▁7:	-10.1542
జన్	-10.1546
▁జరుప	-10.1548
▁లీ	-10.1554
ధర్మ	-10.1555
▁అంతర్	-10.1556
▁రచించ	-10.1564
▁సుబ్రహ్మణ్య	-10.1565
▁అన్నీ	-10.1565
▁పద్యాలు	-10.1566
ంధ	-10.1569
ుకుంటారు	-10.1571
▁కోడి	-10.1576
శ్వర	-10.1578
▁ప్రతిభ	-10.1583
ములలో	-10.1584
వాహ	-10.1585
▁దేవాలయ	-10.1588
▁సముద్రం	-10.1596
▁గ్రామాన్ని	-10.1597
▁ఔ	-10.16
▁అప్పారావు	-10.1603
▁అప్పట్లో	-10.1603
▁కాలేజీ	-10.1609
▁నమ్మకం	-10.1614
▁వ్య	-10.1616
▁చేపట్టిన	-10.1618
▁మహాత్మా	-10.1618
ునకు	-10.1632
▁9:	-10.1635
ెదరు	-10.1637
చర	-10.1639
▁చేసుకున్న	-10.1646
మందు	-10.1651
▁సౌ	-10.1656
▁అంట	-10.1659
▁కొట్ట	-10.1666
▁కవితా	-10.1668
▁కప్ప	-10.1672
▁పోరాటం	-10.1681
▁కాం	-10.1685
ుకొన్న	-10.1687
▁ప్రయోగ	-10.1691
▁దీవుల	-10.1692
▁రత్న	-10.1692
▁పదవీ	-10.1693
▁దూరములో	-10.1694
▁ఉప్పు	-10.1695
▁మూవీస్	-10.1695
▁సాహిత్యంలో	-10.1697
▁వేయ	-10.1698
▁ఎదురు	-10.1699
▁సంవత్సరానికి	-10.1703
▁తమ్ముడు	-10.1703
▁1995	-10.1707
▁1979	-10.1707
el	-10.1707
▁4:	-10.1713
▁భానుమతి	-10.1714
▁రామాయణ	-10.1719
▁పురస్కారాలు	-10.1726
▁ఎప్పుడ	-10.1734
వీర	-10.1735
ధారణ	-10.1736
ానని	-10.174
భూ	-10.174
▁ఆహారం	-10.1742
▁తెచ్చ	-10.1745
▁ఆనంద్	-10.1749
▁సాగ	-10.1756
se	-10.1758
▁వ్యాసాలు	-10.176
▁విగ్రహాలు	-10.1763
భక్త	-10.177
▁ఉచిత	-10.1772
▁ఆక్రమించ	-10.1772
▁మిలియన్ల	-10.1773
▁సలహా	-10.1778
▁గుజరాత్	-10.1781
▁మ్యూజియం	-10.1781
▁పాశ్చాత్య	-10.1781
▁సూర్యాపేట	-10.1781
▁వారసత్వ	-10.1781
▁వాళ్ళు	-10.1787
▁చౌ	-10.1791
▁గుండె	-10.1793
▁ఏదో	-10.1794
శీల	-10.1796
▁వేసిన	-10.18
▁ప్రవేశ	-10.18
పేట్	-10.1803
గుణ	-10.1808
▁49	-10.1809
▁నగరానికి	-10.1821
▁గ్రంథాలయ	-10.1822
▁చేరాడు	-10.1824
▁అంతకు	-10.1826
ట్లుగా	-10.1834
సై	-10.1838
▁లై	-10.1843
డ్డ	-10.1847
▁నెలకొల్ప	-10.1847
▁మార్గ	-10.1847
▁అభిప్రాయం	-10.1852
▁తెల్ల	-10.1862
▁దశలో	-10.1863
▁అభిమాన	-10.1869
▁8,	-10.1869
▁రవీంద్ర	-10.187
మయ్య	-10.1872
▁1958	-10.1872
▁1932	-10.1874
ుకుంటున్న	-10.1875
▁నిర్వహిస్తారు	-10.1876
▁రాయి	-10.1879
పాద	-10.1884
▁మణి	-10.1886
▁తాగ	-10.1889
▁ప్రతీ	-10.1892
▁విధించ	-10.1898
ుతాడు	-10.1903
▁తీసుకొని	-10.1903
▁కలిగించ	-10.1918
యల్	-10.1927
▁17:	-10.1929
▁నాకు	-10.1938
▁కులీ	-10.1941
గీత	-10.1952
▁గీతాలు	-10.1956
▁నట	-10.1956
▁అన్నపూర్ణ	-10.1956
▁విమాన	-10.1961
▁రెవిన్యూ	-10.1962
▁క్రితం	-10.1962
▁వీధి	-10.1973
▁వర్	-10.1974
▁బొంబాయి	-10.1976
▁India	-10.1978
▁తగిన	-10.1981
ిస్తున్నారు	-10.1984
▁లభించిన	-10.1991
▁బలి	-10.1992
ుకుంటాడు	-10.1993
డియా	-10.1994
te	-10.1996
▁తనను	-10.1998
▁ఇల్లు	-10.2003
▁ఎదుర	-10.2004
▁14:	-10.2005
దర	-10.2007
చరిత్ర	-10.2007
శ్రీనివాస్	-10.201
▁శతకము	-10.2018
▁కుడి	-10.2032
▁18:	-10.2033
▁28:	-10.2036
మల్ల	-10.2041
ంస్	-10.2041
రాణి	-10.2045
డంలో	-10.2045
▁ప్రసాద	-10.2047
ోద్యమ	-10.2048
ికా	-10.2048
▁విషయాల	-10.2052
▁తుంగభద్ర	-10.2054
▁నేపాల్	-10.2054
▁ఇద్దరూ	-10.2054
▁అంతే	-10.2055
▁జైపూర్	-10.2056
▁కరువు	-10.2057
గాని	-10.2064
▁శోభ	-10.2067
▁(18	-10.2071
శెట్టి	-10.2073
▁మరణించిన	-10.2078
యింది	-10.2079
జ్ఞాన	-10.2086
▁వాద	-10.2091
▁వృద్ధి	-10.2098
▁20:	-10.2101
▁13:	-10.2104
చ్చి	-10.2105
కున్న	-10.2107
▁పదవి	-10.2118
▁తిన	-10.2122
▁నిల	-10.2123
జ్జ	-10.2134
▁పసుపు	-10.2146
▁ఆకాశ	-10.2146
▁చలం	-10.2147
▁క్రమ	-10.2148
బే	-10.2154
▁నిద్ర	-10.2155
▁తొమ్మిది	-10.2158
▁సకల	-10.2158
▁ఇచ్చారు	-10.2159
హరి	-10.2159
▁అందాల	-10.216
▁కాలనీ	-10.2172
చేయాలని	-10.2179
▁రాజ్యాన్ని	-10.2181
▁పార్కు	-10.2185
▁విద్యుత్తు	-10.2187
కంగా	-10.2203
▁పల్ల	-10.2205
ేష్	-10.2206
ుచున్న	-10.2216
▁56	-10.2219
భూమి	-10.2222
▁ఎక్క	-10.2222
ుకొంట	-10.2224
▁సమాచారం	-10.2225
▁వచ్చ	-10.2227
org	-10.223
▁యుగం	-10.2232
నిక్	-10.2234
▁ఏకైక	-10.224
▁సాయంత్రం	-10.224
▁by	-10.2241
▁అభి	-10.2248
వతేదీ	-10.2248
ప్రా	-10.2254
▁విడి	-10.2256
▁కూర	-10.2257
▁కృష్ణుడు	-10.2261
▁జిల్లాలలో	-10.2264
▁అనకాపల్లి	-10.2269
రన్	-10.2269
▁ఫర్	-10.2271
ఎమ్	-10.2278
▁లక్ష్మణ	-10.2283
▁కవిత	-10.2284
పురంలో	-10.2284
▁పట్టి	-10.2285
▁తీసిన	-10.2285
టై	-10.2294
▁విమర్శ	-10.2311
▁దయ	-10.2316
▁వ్యాస	-10.2321
▁గుట్ట	-10.2323
▁కావ్య	-10.2324
▁తొలగించ	-10.233
▁90	-10.2332
▁బావ	-10.2332
▁ఒలింపిక్	-10.2334
▁సాయిబాబా	-10.2334
▁సిరివెన్నెల	-10.2334
▁డైరెక్టర్	-10.2334
దాని	-10.2336
▁కామారెడ్డి	-10.2336
▁1931	-10.2338
▁పాత్రికేయుడు	-10.2338
▁మార్పులు	-10.2338
▁అమ్మవారికి	-10.2339
▁దేవుడు	-10.2341
▁భారతరత్న	-10.2341
టిక్	-10.2341
▁పూల	-10.2347
▁కుమార	-10.2348
ప్రభ	-10.235
▁19:	-10.235
▁మంగళ	-10.2353
▁1986	-10.2355
▁సంవత్సర	-10.2358
▁స్వర్ణ	-10.236
▁పాల్గొని	-10.2361
▁లీల	-10.2367
▁స్థాపించ	-10.2383
▁కార	-10.2389
స్కో	-10.2391
▁వలె	-10.2393
▁నెలలో	-10.2394
గూడ	-10.2396
▁అవసరమైన	-10.2396
000	-10.2398
▁రైతులు	-10.2401
▁కొండపై	-10.2403
▁ఏనుగుల	-10.2407
▁తప్పు	-10.2407
నైనా	-10.2411
ులలో	-10.2414
▁స్టూడియో	-10.2415
▁మర్రి	-10.2415
li	-10.2418
▁వెలి	-10.2422
▁స్టా	-10.2429
▁ప్రకటన	-10.2429
▁కాలేజి	-10.2429
▁తాడేపల్లిగూడెం	-10.2429
▁కాకతీయుల	-10.2432
▁శ్రీకృష్ణ	-10.2435
▁పలువుర	-10.2435
సింగ్	-10.2441
FS	-10.2442
పుల	-10.2442
▁రాగ	-10.2445
▁జరుగుతున్న	-10.2447
శ్య	-10.2449
▁నియమించ	-10.245
▁తెలిసిన	-10.245
▁వచ్చారు	-10.245
▁1987	-10.2452
▁సంస్థల	-10.2452
▁21:	-10.2453
నూరు	-10.2455
▁పాడారు	-10.2457
▁పాలించ	-10.2459
ందరూ	-10.2461
▁ఫై	-10.2463
▁పురుష	-10.2467
▁స్థాపించి	-10.2471
రల్	-10.2471
▁*	-10.2473
▁భారతదేశప	-10.2476
▁గమనించ	-10.2478
▁జ్యోతి	-10.2486
ుంటారు	-10.2488
▁దీక్ష	-10.2492
▁నౌక	-10.2497
▁పరా	-10.2499
web	-10.2504
▁74	-10.2505
▁ప్రాంతాలను	-10.2513
బల	-10.2518
um	-10.2519
▁ఉన్నట్లు	-10.2524
▁500	-10.2525
▁పంజాబు	-10.2525
▁సుప్రసిద్ధ	-10.2525
▁సరస్వతీ	-10.2526
▁పనిచేశారు	-10.2527
▁16:	-10.2531
▁గుడివాడ	-10.2531
▁అమృత	-10.2531
▁ఉపాధ్యాయ	-10.2533
▁వేరే	-10.2533
ఫె	-10.2535
చ్చు	-10.2537
▁పరిశ్రమల	-10.2543
un	-10.2544
▁1981	-10.2549
▁స్వర	-10.2549
▁యజ్ఞ	-10.255
▁భావన	-10.2551
▁యాత్ర	-10.2559
ిస్తే	-10.256
▁విజయవాడలో	-10.2561
▁పురస్కారాన్ని	-10.2561
▁శారద	-10.2566
▁మేరకు	-10.2567
ప్రతి	-10.2569
▁సామంత	-10.2581
▁పుర	-10.2585
ినీ	-10.2586
▁నిర్మించబడిన	-10.259
▁శాంత	-10.2594
▁పాల్గొన	-10.2594
▁రొ	-10.2597
▁అధ్యక్ష	-10.2597
శ్చ	-10.2598
కుమారి	-10.2605
భ్య	-10.2607
▁స్టేట్	-10.2608
మాత	-10.261
▁62	-10.2616
▁to	-10.262
▁తీసి	-10.2621
www	-10.2622
▁విభజన	-10.2623
▁కారు	-10.2624
▁ఆర్థికవేత్త	-10.2624
▁కొంతమంది	-10.2625
▁ప్రబంధ	-10.2626
▁81	-10.2629
▁కమ్మ	-10.2629
▁దక్కన్	-10.2633
▁అయ్యింది	-10.2635
▁నచ్చ	-10.2638
▁సాగించ	-10.2638
▁రకాలు	-10.2641
▁ప్రాంతాలకు	-10.2644
▁లంక	-10.2645
▁విగ్రహాన్ని	-10.2648
దేవత	-10.2648
▁రాయల	-10.265
గ్రామంలో	-10.2656
నంద	-10.266
▁గ్రంథం	-10.2662
▁1938	-10.2665
▁నేర్చ	-10.2667
స్సు	-10.2674
▁మాల	-10.2676
స్స	-10.2686
▁హర	-10.2686
▁లత	-10.2687
▁నియమ	-10.2693
▁తమిళంలో	-10.2695
ent	-10.2697
▁మహిళ	-10.2698
▁జంట	-10.27
▁ప్రవేశపెట్ట	-10.2702
▁బాల్	-10.2705
▁చెప్పారు	-10.2706
య్యా	-10.2713
▁చింత	-10.2716
▁నియంత్రణ	-10.2721
▁పెళ్లి	-10.2721
▁వైష్ణవ	-10.2721
▁రాశారు	-10.2721
▁పార్వతి	-10.2721
▁రాజ్యసభ	-10.2721
▁అధ్యక్షుడిగా	-10.2721
▁ఎటువంటి	-10.2723
▁పత్తి	-10.2725
▁బొబ్బిలి	-10.273
వర్ణ	-10.2731
▁చాలామంది	-10.2731
▁ముందే	-10.2731
▁ప్రసార	-10.2732
il	-10.2734
వలెను	-10.2734
▁వాదన	-10.2734
▁గతంలో	-10.2736
▁O	-10.2736
▁సంగమ	-10.2738
▁11:	-10.2741
▁సందర్శించ	-10.2742
▁దేవాలయాల	-10.2746
▁అత్త	-10.2753
పేటలో	-10.2757
▁వర్గం	-10.276
▁స్థితి	-10.2768
▁ఆంజనేయ	-10.277
▁1936	-10.2777
బ్రహ్మ	-10.2777
▁సంస్థానం	-10.2778
▁చూపించ	-10.2781
▁అడ్డ	-10.2784
▁వీరికి	-10.2786
▁విర	-10.2786
ఎఫ్	-10.2786
▁గోపాలకృష్ణ	-10.2796
భాగం	-10.2799
▁ఒకటిగా	-10.28
▁తెలిసి	-10.2802
▁సూర	-10.2804
▁తెలుసు	-10.2805
▁గె	-10.2809
▁బ్యా	-10.2811
▁e	-10.2816
▁జవహర్	-10.282
▁ఇరానియన్	-10.282
▁థియేటర్	-10.282
▁స్వేచ్ఛ	-10.282
▁అటవీ	-10.282
▁సూపర్	-10.282
పంచ	-10.2822
▁వెంకయ్య	-10.2823
ణ్	-10.2824
▁1937	-10.2825
▁కల్ప	-10.2826
ఖండ	-10.2831
▁భోగ	-10.2836
ాని	-10.2839
▁దినం	-10.2839
▁పంటలు	-10.284
▁వెలుగు	-10.2842
▁పేరొందిన	-10.2843
లాండ్	-10.2846
▁కనుమ	-10.2847
▁నీతి	-10.2849
గ్ర	-10.2852
▁నటన	-10.2855
▁వరుసగా	-10.2858
తారు	-10.2864
▁వర్మ	-10.2866
▁ప్రాచుర్యం	-10.2866
▁టై	-10.2868
▁చెల్ల	-10.2869
▁సార	-10.2873
ాడట	-10.2878
▁అచ్చ	-10.2881
▁చోట	-10.2881
▁9,	-10.2883
మంత్రి	-10.2884
షు	-10.2892
▁పాల్	-10.2893
▁వేడి	-10.2896
▁విడ	-10.2899
ట్యూ	-10.2901
సార్లు	-10.2902
ఖా	-10.2906
▁ఆనాటి	-10.2909
▁కనిపిస్తాయి	-10.292
▁ఎత్తైన	-10.292
▁అనుభవ	-10.292
▁పరిశోధకులు	-10.2923
▁మొదలైంది	-10.2923
▁బోధించ	-10.2937
▁అరుణ	-10.2941
▁స్థాపన	-10.2942
▁విజయ్	-10.2943
చల	-10.2944
▁బాలికల	-10.2953
▁కలుప	-10.2955
▁పూజా	-10.2964
ోప	-10.2964
▁నృత్యం	-10.2965
▁ముందుకు	-10.2966
▁పొడి	-10.2969
▁చేతుల	-10.2979
▁దిగువ	-10.2982
▁స్థాపించిన	-10.2983
య్యాడు	-10.2984
లమ్మ	-10.2989
ఒ	-10.2989
▁వేళ	-10.299
▁లభించ	-10.299
▁దేశంలోని	-10.2999
నాగ	-10.3002
▁వ్యాపించి	-10.3003
▁సమాజం	-10.3004
మహ	-10.3016
▁జు	-10.302
▁ఎయిర్	-10.3021
▁సరస్సు	-10.3021
▁కార్పొరేషన్	-10.3021
▁కొంతకాలం	-10.3023
▁కొత్తగూడెం	-10.3024
పిల్ల	-10.3027
▁వ్యాపారం	-10.3031
▁చూస	-10.3037
▁ఇచ్చింది	-10.3039
▁భాషల్లో	-10.304
▁ఎవరి	-10.3044
ున్నా	-10.3052
స్టు	-10.3055
పెద్ద	-10.3058
▁పురాణాల	-10.3062
ున్నది	-10.3066
▁భూభాగం	-10.3069
ాసన	-10.3081
▁పోతన	-10.3081
▁మందికి	-10.3081
రచయిత	-10.3083
▁ఉదయ	-10.3084
▁ప్రజలను	-10.3084
▁సుబ్బ	-10.3084
▁సొ	-10.3084
▁54	-10.3086
▁అందు	-10.309
గీ	-10.3092
▁అడుగు	-10.3098
▁పదాల	-10.3102
▁శిల్ప	-10.3104
▁కొడ	-10.3109
▁గ్రామంలోని	-10.3112
et	-10.3113
రుగు	-10.3115
నగరం	-10.3116
▁డివిజన్లు	-10.3116
▁వర్షపాతం	-10.3123
▁శృంగార	-10.3123
▁సురేష్	-10.3123
▁వుంటుంది	-10.3124
▁గిరి	-10.3124
▁సీతారామశాస్త్రి	-10.3124
di	-10.3124
కాని	-10.3126
▁రకం	-10.3129
▁గూడూరు	-10.3131
ినా	-10.3132
శే	-10.3133
▁చెప్పే	-10.3134
▁పోటీలలో	-10.3136
▁కావలసిన	-10.3137
▁చేరుకున్న	-10.3138
▁ఉండేవారు	-10.314
▁ఆవు	-10.3143
▁1966	-10.315
▁1953	-10.3152
▁దూ	-10.3156
ter	-10.3157
▁తను	-10.3165
▁చీ	-10.3169
లున్నాయి	-10.3187
▁విని	-10.3191
▁తగ్గించ	-10.3192
స్తాయి	-10.3192
▁అవసర	-10.3195
▁రాజవంశం	-10.3198
ాత్మ	-10.3203
గ్రామ	-10.3204
లోపు	-10.3205
ద్వారా	-10.3206
and	-10.3216
రస్	-10.322
▁ముగుస్తుంది	-10.3226
▁హైకోర్టు	-10.3226
▁పనిచేసాడ	-10.3226
▁శాఖామంత్రి	-10.3226
▁ఎన్టీఆర్	-10.3227
▁సూర్యనారాయణ	-10.3229
▁విద్యావేత్త	-10.3232
బై	-10.3232
▁రచయితలు	-10.3237
పట్ల	-10.3238
▁మహాభారత	-10.3239
▁పదాలు	-10.3239
▁అలి	-10.3241
ోత్సవం	-10.3241
▁ఇంటర్నేషనల్	-10.3242
▁చైనాలో	-10.3243
▁ఎక్స్	-10.3244
▁సంతానం	-10.3244
▁పర్	-10.3245
▁విషయాన్ని	-10.3248
▁పార్టీకి	-10.3254
▁1000	-10.3255
▁చూసిన	-10.3258
▁చాళుక్యుల	-10.3262
▁నొ	-10.3265
▁ఎవరు	-10.3268
మ్ము	-10.327
▁జీవితాన్ని	-10.3272
సముద్ర	-10.3273
▁పిన్	-10.3273
▁నిర్మల్	-10.3274
▁Re	-10.3274
భేద	-10.3278
ుకోవాలి	-10.3281
▁స్థలం	-10.3283
▁చేపట్ట	-10.3284
▁2017,	-10.3285
▁నదికి	-10.3292
▁సహాయంతో	-10.3294
▁డో	-10.3298
ుతున్నాయి	-10.3302
▁వాడి	-10.3303
▁ఉపయోగ	-10.3307
▁పొంది	-10.3313
నాయక	-10.3315
▁సంస్కృతము	-10.3315
▁గిరిజన	-10.332
▁డ్ర	-10.3322
దేశాల	-10.3323
ion	-10.3327
▁సృష్టి	-10.3328
▁లక్ష్మీనరసింహ	-10.3329
▁అభ్యర్థి	-10.333
▁చదరపు	-10.333
▁భగవంతుని	-10.333
▁1921	-10.3334
▁మాస్టర్	-10.3335
▁విద్వాంసుడు	-10.3338
▁కాలము	-10.3343
▁జరుపుకు	-10.3345
▁పేట	-10.3346
▁రామయ్య	-10.3347
యై	-10.3349
▁హృదయ	-10.3351
▁ప్రవేశించ	-10.3354
▁హీరో	-10.3354
▁పరిస్థితుల	-10.3354
లూరి	-10.3354
పాయ	-10.3355
▁దుర్గా	-10.3356
▁సంఘటన	-10.336
▁తెరాస	-10.3361
▁కళ్యాణం	-10.3363
▁హిందువులు	-10.3366
కూరు	-10.3371
▁దేవా	-10.3373
▁చెన్న	-10.3381
▁దేవుని	-10.3382
▁అమెరికాలో	-10.3384
లేదని	-10.3392
▁ఊరికి	-10.3394
▁ధరించి	-10.3396
ఖ్య	-10.3397
V	-10.3399
రాన్	-10.3399
▁పంచాయతీకి	-10.34
▁అటు	-10.3403
▁రూపాయలు	-10.3403
▁విధ	-10.3403
▁నేర్ప	-10.3405
▁కావడం	-10.3411
▁ఉండడం	-10.3415
గిన	-10.3418
▁పక్క	-10.3419
▁శత	-10.3422
▁ఏర్పరచ	-10.3423
▁వస్తున్న	-10.3428
ాంబ	-10.3431
▁ఆకాశవాణి	-10.3435
గుల	-10.3436
▁చేస్తే	-10.3437
▁యుగ	-10.3437
▁సవరణ	-10.3439
▁కథను	-10.344
▁నై	-10.3443
జాతి	-10.3443
▁ప్లే	-10.3446
▁పట్టణాలు	-10.3449
▁అనువాద	-10.345
▁సౌందర్య	-10.3451
ాల్సి	-10.3456
▁స్వామివారికి	-10.3461
▁జగ్గయ్య	-10.3462
▁మార్చారు	-10.3465
▁కంటి	-10.3467
▁వెళ్ళిన	-10.3471
-2	-10.3475
▁2020	-10.3481
▁దండయాత్ర	-10.3482
▁వాడుక	-10.3483
▁గ్రంథాల	-10.3483
▁భాగము	-10.3485
hi	-10.3486
▁అధ్యయనం	-10.3487
▁1968	-10.3489
తిని	-10.3489
▁కార్యదర్శి	-10.3492
దేవుడు	-10.3492
▁మోస	-10.3494
▁పరంగా	-10.3496
్రా	-10.35
▁షి	-10.3501
పాలు	-10.3501
సుర	-10.3506
▁పనిచేస్తున్న	-10.3509
ధర	-10.3512
తనం	-10.3513
దేవుని	-10.3514
▁చెందినది	-10.3515
▁5:	-10.3521
ంచె	-10.3524
▁ఖగోళ	-10.3525
సియా	-10.3534
▁స్వరూప	-10.354
▁ట్రాక్టరు	-10.3542
▁రకరకాల	-10.3542
▁ఫాల్కే	-10.3542
▁హింస	-10.3543
▁బాపట్ల	-10.3543
▁కమల	-10.3544
▁హేతువాది	-10.3545
▁చూస్తే	-10.3548
▁1922	-10.3548
▁చాట	-10.3548
▁దేవాలయాలు	-10.3549
తార	-10.3549
▁కర్	-10.3551
▁కృష్ణానది	-10.3552
దారి	-10.3555
▁తూ	-10.3557
▁సిద్ధాంత	-10.3558
▁ప్రతిపాదన	-10.3561
▁ఇందిర	-10.3561
▁నేడు	-10.3569
▁సహకారంతో	-10.3571
▁ఒక్కో	-10.3572
డొ	-10.3578
▁దీప	-10.3579
▁ప్రో	-10.3584
▁ప్రకాష్	-10.3587
▁ధాన్య	-10.3587
ిజం	-10.3587
▁కథనం	-10.3588
దార్	-10.3589
▁రీ	-10.3589
▁సినిమాలలో	-10.3591
▁దత్త	-10.3595
▁రోడ్	-10.3599
▁ప్రేక్షకుల	-10.3604
▁చేసుకో	-10.3606
▁భాగవత	-10.3609
▁ఓడ	-10.361
డుతూ	-10.3611
G	-10.3616
వెల్	-10.3619
▁గంట	-10.3622
ుతోంది	-10.3626
ti	-10.3632
▁భాషను	-10.3632
▁పెరుగు	-10.3635
▁జరిగి	-10.3635
▁యస్	-10.3638
పాలన	-10.3644
▁పార్వతీ	-10.3647
▁రాజ్యాలు	-10.3648
▁ప్రస్తావించ	-10.3649
▁ఇళయరాజా	-10.3649
▁పింగళి	-10.3649
▁ఆర్ధిక	-10.3649
▁సెయింట్	-10.365
▁కలుస్తుంది	-10.365
▁మరల	-10.3651
▁పౌర్ణమి	-10.3661
▁కవిత్వ	-10.3661
ుడే	-10.3661
వేద	-10.3661
▁కాలములో	-10.3662
▁బాల్య	-10.3663
▁వేత్త	-10.3666
▁జారీ	-10.3668
ంబా	-10.367
పీఠ	-10.3672
▁పెం	-10.3672
▁స్థల	-10.3674
ేలా	-10.3675
▁దుర్	-10.3677
దైన	-10.3677
▁మోడల్	-10.3677
శాస్త్రం	-10.3682
▁1984	-10.3685
▁1996	-10.3685
స్తున్న	-10.3686
తకు	-10.3688
్వా	-10.3697
▁ఉదాహరణకు	-10.37
▁కాలి	-10.3702
▁వెల్	-10.3702
నొ	-10.3706
▁మొగ	-10.3708
▁బుక్క	-10.3711
▁కాలానికి	-10.3713
▁లేదని	-10.3719
లపల్లి	-10.3722
▁ఏట	-10.3724
▁సుల్తాను	-10.3725
[	-10.3725
ంతు	-10.3729
▁సూచించ	-10.3745
నగర	-10.3748
▁ప్రవేశం	-10.3748
చిత	-10.3748
▁సంయుక్త	-10.3749
▁రష్యాలో	-10.375
▁సారథ్యం	-10.3758
▁చుట్టుపక్కల	-10.3758
▁సుందరరామమూర్తి	-10.3758
▁థాయ్	-10.3758
▁మురుగు	-10.3759
▁సమాధి	-10.3759
▁తెలుసుకున్న	-10.3759
▁పిలిచేవారు	-10.376
▁ప్రజలలో	-10.3762
▁1929	-10.3763
▁సమాచార	-10.3764
▁సరైన	-10.3764
▁కూడలి	-10.3766
స్టా	-10.3766
పెట్టి	-10.3769
.2016)	-10.3778
▁చెల్లించ	-10.378
▁హక్కుల	-10.378
▁గ్రహ	-10.3782
▁వాడే	-10.3783
దరి	-10.3787
వరపు	-10.3788
▁స్వర్గ	-10.379
మధ్య	-10.3791
యత్	-10.3794
వనం	-10.3795
▁తీవ్రమైన	-10.3801
▁అన్నా	-10.3806
▁ప్రచార	-10.3813
▁ఏళ్ళ	-10.3817
▁బొమ్మలు	-10.3818
త్రా	-10.3819
▁గుండ	-10.3825
ుండు	-10.3825
దుల	-10.3826
▁చుట్టు	-10.3829
▁అంబ	-10.3842
▁రక్షించ	-10.3845
ాపూర్	-10.3849
ర్చి	-10.3855
▁ప్రవహించి	-10.3861
▁మండలి	-10.3866
▁ఆకర్షణ	-10.3867
▁స్మారక	-10.3868
▁హుస్సేన్	-10.3868
▁హెక్టారులు	-10.3868
▁రాజీవ్	-10.3868
▁అస్సాం	-10.3868
▁పద్ధతి	-10.3868
▁డీ	-10.387
▁1944	-10.3872
మంచి	-10.3873
▁72	-10.3875
రాదు	-10.3876
▁తదితరులు	-10.388
▁గోపీ	-10.3888
▁m	-10.3888
నింగ్	-10.3891
కార్	-10.3891
▁ఆరవ	-10.3894
▁నిఘంటువు	-10.3895
▁పచ్చ	-10.3899
▁1993	-10.3905
▁చేపట్టాడ	-10.3912
▁తక్కువగా	-10.3918
▁కిలోమీటర్లు	-10.392
▁క్రీడలు	-10.3923
▁విజయా	-10.3923
▁పక్షి	-10.3924
▁వయసులో	-10.3928
▁1951	-10.393
▁పండిత	-10.3935
▁నిర్వహించి	-10.3937
▁రంగా	-10.3938
▁పార్	-10.3941
▁సన్న	-10.3943
▁బహ	-10.3945
▁300	-10.3955
▁నిజం	-10.3956
▁రాజ్యంలో	-10.3961
▁అక్కడే	-10.3963
▁గంటలకు	-10.3963
▁దాకా	-10.3966
▁రాము	-10.3973
సుకు	-10.3975
▁తాళ	-10.3976
ెక్ట	-10.3977
▁జలపాతం	-10.3979
▁ప్రత్యేకపూజలు	-10.3979
▁పేరిట	-10.3979
▁ప్రార్థన	-10.3979
▁జనసంఖ్య	-10.3979
వచ్చి	-10.398
లక్ష్మీ	-10.3981
▁ఆధీనంలో	-10.3981
ప్రియ	-10.3987
నాధ	-10.3988
▁శ్రీమతి	-10.399
▁సమయానికి	-10.3991
▁వ్యయంతో	-10.3992
▁ప్రాంతంలోని	-10.3995
▁పరిగణించ	-10.3995
లెక్	-10.3996
▁ఫిల్మ్స్	-10.3998
▁చదువ	-10.4
▁ప్రకటించారు	-10.4
▁ఏటా	-10.4004
▁63	-10.4005
▁విధాన	-10.4005
▁సమయ	-10.4006
▁చేరింది	-10.4013
▁రామదాసు	-10.4015
▁వినాయకుని	-10.4018
▁పత్రికల	-10.402
▁విభాగంలో	-10.4023
రణం	-10.4033
ాచార్య	-10.4034
చక్ర	-10.4034
షే	-10.404
▁పార	-10.4049
▁ఎత్తులో	-10.4051
▁గూడా	-10.4053
ఫల	-10.4053
భూత	-10.4058
దండ	-10.4069
▁తాము	-10.407
▁ఆరంభ	-10.4071
▁సమాజంలో	-10.4074
▁శాసనాలు	-10.4076
ప్పటి	-10.4077
▁బానిస	-10.4077
▁కొబ్బరి	-10.4091
▁కలెక్టర్	-10.4091
▁మహమ్మద్	-10.4091
▁సంక్రాంతి	-10.4091
▁సంచలన	-10.4091
▁సమాఖ్య	-10.4091
▁చక్రపాణి	-10.4091
▁అప్పగించ	-10.4092
▁లెక్క	-10.4093
▁చర్మ	-10.4094
▁మొక్క	-10.4094
హే	-10.4095
▁1935	-10.4096
▁శివాలయం	-10.4096
▁శ్రీలంక	-10.4096
▁గడ్డ	-10.4098
▁దిగి	-10.4102
▁ఎంపీ	-10.4103
▁ద్రవ్య	-10.4106
▁ఇచ్చాడు	-10.4106
▁శోభన్	-10.4107
▁కంప	-10.4107
▁దాస్	-10.4109
na	-10.411
దగిన	-10.4112
▁అడుగులు	-10.4118
▁పక్ష	-10.412
▁శ్రీదేవి	-10.412
▁కాశ్మీరు	-10.412
▁ఒకడు	-10.4126
▁1949	-10.4132
ేసి	-10.4133
▁దర్గా	-10.4133
▁పాము	-10.4142
ir	-10.4142
ల్లె	-10.4145
▁వీరభద్ర	-10.4153
డైన	-10.4154
▁విభాగం	-10.4162
▁ద్వీప	-10.4163
▁వెలసిన	-10.4163
్యము	-10.4163
సిస్	-10.4163
బాలు	-10.4171
▁పుస్తకాల	-10.4172
▁భూభాగ	-10.4172
▁గ్రంథము	-10.4178
▁కోస్తా	-10.4178
▁ఉపగ్రహ	-10.4182
పోయే	-10.4186
▁సిద్ద	-10.4187
▁వాస్తవ	-10.4193
ly	-10.4195
ిణి	-10.4196
లింగ్	-10.4198
▁26:	-10.4199
▁కట్టి	-10.4199
▁ప్రధానమంత్రిగా	-10.4203
▁అన్నారు	-10.4204
▁పంచాయితీ	-10.4205
▁1933	-10.421
▁తంజావూరు	-10.4212
ెల	-10.4213
డర్	-10.4214
గ్రహ	-10.4216
▁ఉత్తరం	-10.4218
▁అవమాన	-10.4224
శ్వాస	-10.4225
ట్లే	-10.4225
▁ఆగ	-10.4229
▁పూర్వపు	-10.4229
▁విస్తరించ	-10.4233
▁కుమారులు	-10.424
▁బ్రా	-10.4241
▁సరళ	-10.4242
▁67	-10.4242
▁పిలవ	-10.4243
▁వంగ	-10.4243
▁నీటిపారుదల	-10.4243
▁సృష్టించ	-10.4247
▁బూ	-10.425
ాలయ	-10.4253
▁ప్రభుత్వానికి	-10.4256
▁ప్రభువు	-10.426
వెంకట	-10.4261
▁ఎత్తున	-10.4266
ిరెడ్డి	-10.4269
▁ఎదురుగా	-10.4272
▁ఉద్	-10.4276
▁వస్తువుల	-10.4279
▁ఆధారపడి	-10.4279
▁స్థిర	-10.4282
రాని	-10.4283
త్రి	-10.4285
▁విషయాలు	-10.4287
▁ఎన్నికైన	-10.4289
▁పండు	-10.429
గిలి	-10.429
▁సంధి	-10.4291
వాళ్ళ	-10.4292
▁ధరించ	-10.4293
స్ప	-10.4294
▁బంధ	-10.4295
ఆంధ్ర	-10.4296
ెల్ల	-10.4298
శేష	-10.4299
▁బలహీన	-10.43
▁కేంద్రము	-10.4301
▁పుస్తక	-10.4304
స్థాపన	-10.4316
▁సేన	-10.4318
▁ప్రోత్సహించ	-10.432
▁సాఫ్ట్వేర్	-10.432
▁ఐదవ	-10.432
▁సురభి	-10.432
▁ఎందుకంటే	-10.432
▁రాజస్థాన్	-10.4321
▁అద్భుత	-10.4322
▁1908	-10.4324
▁ప్రధానమైన	-10.4325
▁కావ్యం	-10.4328
గ్రహం	-10.433
▁చిత్రంగా	-10.433
తలు	-10.4333
▁కనిపించే	-10.4334
ెర్	-10.4337
▁కంద	-10.4344
శ్లోక	-10.4345
▁సున్న	-10.4347
▁మైళ్ళు	-10.4349
త్రం	-10.435
▁ప్రత్యేకమైన	-10.4352
యీ	-10.4354
▁వాతావరణ	-10.4364
▁ఇరు	-10.4366
▁పరిపాలించ	-10.4368
ab	-10.4369
షణ	-10.4371
▁కేశవ	-10.4378
▁బడి	-10.4379
▁1914	-10.4394
▁మాటల	-10.4394
ak	-10.44
▁బృంద	-10.4401
▁వార్	-10.4403
▁సంబంధాలు	-10.4407
▁భారతి	-10.4408
లిన్	-10.4411
▁భావించ	-10.4415
వైద్య	-10.4416
మోహన్	-10.4421
▁నివసిస్తున్న	-10.4422
క్కా	-10.4424
▁అడవుల	-10.4424
ధర్	-10.4429
సాయి	-10.4432
▁అలెగ్జాండర	-10.4436
▁టెలివిజన్	-10.4436
▁అత్తిలి	-10.4436
▁గాయత్రి	-10.4436
▁లోకసభ	-10.4437
▁చదివి	-10.4437
▁పద్మశ్రీ	-10.4439
▁అందిస్తుంది	-10.444
▁1926	-10.4441
▁వ్యవస్థాపకుడు	-10.4441
స్తాన్	-10.4447
▁రుచి	-10.4448
▁నటించాడు	-10.4449
ేశ్వరస్వామివారి	-10.4452
నపుడు	-10.4454
▁కోటను	-10.446
▁సభలో	-10.4461
వడ	-10.4471
▁కలుగ	-10.4476
బడ్డాడు	-10.4479
▁తానే	-10.4481
▁ధార	-10.4485
ాలన్న	-10.449
దాన	-10.4496
▁నివసించ	-10.4497
▁పుస్తకాలు	-10.4504
▁ముఖ్యమైనవి	-10.4506
▁భాగమై	-10.451
▁పడుతుంది	-10.4513
▁నాయకత్వం	-10.452
▁రథ	-10.4523
ోత్సవ	-10.4529
▁రేవు	-10.4532
యిన్	-10.4533
▁తెలుప	-10.454
▁వర్ణించ	-10.4543
▁ప్లా	-10.4547
▁బస	-10.455
లాంటి	-10.4553
▁తాండూరు	-10.4554
▁తిలక్	-10.4554
▁నూనె	-10.4554
▁జేమ్స్	-10.4554
▁తీర్థ	-10.4554
▁నిరూపించ	-10.4554
▁నిర్ణయ	-10.4558
దళ	-10.456
▁కొండలరావు	-10.456
▁1915	-10.4561
వర్మ	-10.4561
▁శైవ	-10.4563
▁నుండే	-10.4564
▁నేతృత్వంలో	-10.4565
▁:-	-10.457
▁యుద్ధము	-10.4571
తొ	-10.4571
▁విద్యను	-10.4572
▁ఈస్ట్	-10.4574
ేశ్వరస్వామి	-10.4574
ac	-10.4577
▁వాళ్ల	-10.4581
▁విశ్వవిద్యాలయ	-10.4582
▁సంభాషణలు	-10.4583
త్స	-10.4583
▁ఆత్మకూరు	-10.46
▁ప్రారంభించి	-10.46
కుమార	-10.4602
▁సిరి	-10.4604
లక్షణ	-10.4606
▁దాటి	-10.4607
మూల	-10.4608
ాధికార	-10.4608
కపోయినా	-10.461
▁దినోత్సవ	-10.4616
్రి	-10.4616
▁సుల్తానుల	-10.4621
▁బర్	-10.4628
ప్పి	-10.4628
▁వాగు	-10.463
▁అచ్యుత	-10.4637
▁ఆదిల్షా	-10.4637
కాక	-10.4639
▁షో	-10.464
▁జం	-10.4641
▁మరణించ	-10.4645
▁తెగ	-10.4648
కూడ	-10.4653
ేశ్వరి	-10.4655
▁అంశం	-10.4657
▁78	-10.4658
▁వస్త్ర	-10.4658
▁సారి	-10.4661
▁వుండే	-10.4664
▁ప్రతిపాదించ	-10.4667
మ్యా	-10.467
▁శనివారం	-10.4672
▁అరెస్టు	-10.4673
▁ఐరోపా	-10.4673
▁సంస్కర్త	-10.4673
▁వంతెన	-10.4673
▁కూర్పు	-10.4673
▁క్రీస్తు	-10.4676
▁దేవాలయము	-10.4676
▁పరిశోధకుడు	-10.4678
▁తోడు	-10.4678
▁గ్రహించి	-10.4678
▁పశ్చిమాన	-10.4679
▁ఆసుపత్రిలో	-10.4679
చర్ల	-10.4683
యున్న	-10.4685
▁పట్టా	-10.4685
▁ఐతే	-10.4686
▁బసవ	-10.4688
▁తీవ్రంగా	-10.469
▁పవర్	-10.469
▁స్టేట్స్	-10.469
మాత్ర	-10.4691
మతి	-10.4692
▁చెంది	-10.4695
స్థానం	-10.4701
▁రోగ	-10.4701
▁ఏర్పడి	-10.4703
▁కుటుంబంలో	-10.4704
▁69	-10.4707
▁కావడంతో	-10.4716
▁లోపల	-10.4717
ాల్సిన	-10.4733
కొత్త	-10.4738
▁మల్లె	-10.4746
▁అండ	-10.4759
▁ఇందు	-10.4764
▁స్ట	-10.477
▁విన్న	-10.477
▁సదాశివ	-10.4774
కార్య	-10.4781
ేశ్	-10.4785
ాధికారి	-10.4787
.2015)	-10.4793
▁ఆగ్నేయ	-10.4793
▁కూచిపూడి	-10.4793
▁బడ్జెట్	-10.4793
▁సందర్భంలో	-10.4793
▁ద్వితీయ	-10.4793
వాటి	-10.4801
▁కళాశాలలో	-10.4802
▁ఏదైన	-10.4802
▁చెల్లెలు	-10.4806
▁శతక	-10.4808
▁ఆలీ	-10.4808
ుడయ్యాడు	-10.4809
▁ద్వి	-10.4811
▁అడ్డు	-10.4812
▁ప్రయత్నాలు	-10.4816
ుకొన్నాడు	-10.4817
తుంది	-10.4828
▁యతి	-10.483
nd	-10.4834
మన్న	-10.4836
▁మద	-10.484
▁అవధాని	-10.4845
▁కొర	-10.4851
వారని	-10.4856
▁శేఖర్	-10.4862
టెక్	-10.4866
▁బయటకు	-10.4867
▁బోధన	-10.4871
▁పాటలను	-10.4871
▁స్థానాల	-10.4876
ంచాడు	-10.4877
▁పారి	-10.4878
▁వ్యాసాల	-10.4883
▁పక్కన	-10.4883
▁నియోజకవర్గ	-10.4883
▁ఉద్యమంలో	-10.4884
▁ఆదర్శ	-10.4885
▁వ్యవహరించ	-10.4888
ట్రా	-10.4894
▁కాట	-10.4896
ప్రధాన	-10.4899
▁దేశాలు	-10.49
▁లక్షణాలు	-10.4908
▁సంగారెడ్డి	-10.4911
▁పంజాబ్	-10.4915
▁పోర్చుగీసు	-10.4915
▁బంగ్లాదేశ్	-10.4915
▁వీరాస్వామయ్య	-10.4915
▁ఒడిషా	-10.4915
▁వాయవ్య	-10.4915
▁సిక్కిం	-10.4915
▁ఆస్ట్రేలియా	-10.4915
▁కడుపు	-10.4915
▁దశాబ్దాల	-10.4915
▁అందువలన	-10.4921
దర్శన	-10.4922
▁దిక్కు	-10.4922
▁కొలువు	-10.4922
▁పృ	-10.4926
పోయాడు	-10.4927
▁ప్రారంభించింది	-10.493
▁క్రమంలో	-10.4931
▁అభిప్రాయ	-10.4931
▁వర్ణన	-10.4932
రంగంలో	-10.4936
▁జిల్లాను	-10.4937
▁శరత్	-10.4939
▁కథల	-10.4939
కేంద్ర	-10.4939
▁చెర	-10.494
▁నడి	-10.4941
▁ఎస్పీ	-10.4943
▁కాలేదు	-10.4943
మగు	-10.4949
▁రాజవంశ	-10.495
తల్లి	-10.4953
▁ట్ర	-10.4953
▁నక్షత్ర	-10.4954
-1	-10.4958
▁ప్రయోగించ	-10.4958
హర	-10.4968
▁చైతన్య	-10.497
▁అధికారంలో	-10.497
▁అఫ్	-10.4971
ాబ్ద	-10.4972
▁తగ్గి	-10.498
▁రాయ్	-10.4983
▁కురు	-10.4984
▁ఆదాయ	-10.4985
▁అవధాన	-10.4986
▁సినిమాల్లో	-10.4987
▁వేగ	-10.4988
హు	-10.4989
▁సామ్రాజ్యంలో	-10.4989
▁నగరాన్ని	-10.4991
▁మేక	-10.4996
▁సమావేశ	-10.4998
▁తమిళం	-10.5
▁రాష్ట్రాలు	-10.5001
▁బొమ్మల	-10.5011
▁శిలా	-10.5011
▁ఆశ్రమం	-10.5012
▁కొండలు	-10.5016
▁రాజ్యాంగం	-10.5021
సాగర్	-10.5022
▁రంగం	-10.5037
▁పోయిన	-10.5038
▁ద్వారం	-10.5038
▁మలేరియా	-10.5039
▁వ్రాశారు	-10.5039
▁పల్నాడు	-10.5039
▁ప్రోగ్రాము	-10.5039
▁ముత్యాల	-10.5039
▁అండమాన్	-10.5039
▁వ్యక్తిగత	-10.504
▁బోర్డు	-10.5043
▁తీసుకొ	-10.5045
▁చేతులు	-10.5045
▁జాతుల	-10.5046
▁పోరాడ	-10.5047
▁మోక్ష	-10.5047
▁పలక	-10.5048
▁వహించారు	-10.5051
▁ఇస్లామిక్	-10.5054
వుతుంది	-10.5055
పార్	-10.5056
▁దంపతులకు	-10.5059
▁ఆస్థాన	-10.5064
▁పొలాల	-10.5074
▁సిటీ	-10.5075
▁ప్రారంభించ	-10.5078
▁తరహా	-10.5079
పోయాయి	-10.5079
▁79	-10.5081
▁దేశపు	-10.5085
-3	-10.509
▁68	-10.5091
▁రాముని	-10.5093
▁పనుల	-10.5094
కొని	-10.5096
▁తీరు	-10.5103
▁గడి	-10.5109
▁ఊరిలో	-10.5111
▁నిలిచి	-10.512
▁గాథ	-10.5126
▁నీవు	-10.5127
▁తిమ్మ	-10.5129
గంగ	-10.5129
▁సోదర	-10.5138
▁బావి	-10.5145
తమిళ	-10.5149
చెరువు	-10.5149
యుద్ధం	-10.5151
దురు	-10.5151
▁సంబంధించి	-10.5151
▁పేర్కొన	-10.516
▁యోగి	-10.516
రము	-10.5161
▁శుక్రవారం	-10.5163
ఋ	-10.5163
▁నరసరావుపేట	-10.5164
▁మదనపల్లె	-10.5164
▁మైసూర్	-10.5164
▁మంచిర్యాల	-10.5164
▁రైల్వేస్టేషన్	-10.5164
▁విలియం	-10.5164
▁శంఖ	-10.5164
▁కర్నాటక	-10.5164
▁ఘోర	-10.5164
▁హరిహర	-10.5165
▁పనిచేసే	-10.5165
▁సుజాత	-10.5165
▁జ్ఞానపీఠ	-10.5166
▁మంత్ర	-10.5166
▁వేలాది	-10.5166
▁ఉండును	-10.5169
కరమైన	-10.517
▁హోదా	-10.5171
▁డివిజను	-10.5172
ింటి	-10.5172
▁మొదట్లో	-10.5172
▁చెబుతాడు	-10.5175
▁పోయింది	-10.5177
▁ఎడమ	-10.5178
▁గృహాలున్నాయి	-10.5181
▁చేరు	-10.5187
▁సాక్షి	-10.5188
▁వెన్నెల	-10.5191
▁మట్ట	-10.5192
నార్	-10.52
▁తొలిసారిగా	-10.52
▁ఇచ్చ	-10.5201
య్యాయి	-10.5202
▁రాస	-10.5204
త్రిక	-10.5205
▁అల్లుడు	-10.5211
▁బాబ	-10.522
▁పొందారు	-10.5224
▁దాస	-10.5224
▁తెచ్చి	-10.5226
▁తుని	-10.5227
▁బుక్	-10.5228
▁సాంప్రదాయ	-10.5229
▁వద్దకు	-10.5229
▁పెన్నా	-10.5231
▁కలగ	-10.5234
దూ	-10.5239
▁శక	-10.524
రోజుల	-10.5244
▁ఉంద	-10.5251
▁ప్రాంగణంలో	-10.526
▁పార్టీలో	-10.5262
▁శరీర	-10.5263
ందున	-10.5264
ఠా	-10.5265
కొనే	-10.5265
▁భరత	-10.5269
▁కొన	-10.5271
టూ	-10.5275
ేళ్ళ	-10.5277
▁2016,	-10.5281
▁ఏడవ	-10.5281
పోయారు	-10.5281
కింగ్	-10.5287
▁టంగుటూర	-10.529
▁పౌరాణిక	-10.529
▁రేలంగి	-10.529
▁అరుదైన	-10.529
▁వాల్మీకి	-10.529
▁మరికొన్ని	-10.529
▁పద్మావతి	-10.5291
▁బరువు	-10.5291
▁ఉద్యమకారుడు	-10.5292
ండీ	-10.5294
▁దారిలో	-10.5297
▁అద్భుతమైన	-10.5299
యుగం	-10.53
▁స్వీకరించాడు	-10.53
▁పార్లమెంట్	-10.5301
▁మెడికల్	-10.5302
▁పూజించ	-10.5303
▁ఫార్	-10.5308
పురాణ	-10.5309
▁నదిలో	-10.5309
▁మార్గము	-10.531
▁చేసుకున్నారు	-10.5312
చరణ	-10.5316
ాన్నీ	-10.532
▁భాగవతం	-10.5322
కోటి	-10.5322
పాత్ర	-10.5325
▁పున	-10.5326
▁వర్గ	-10.5336
▁లక్షలు	-10.5341
రాధ	-10.5344
లాస	-10.5349
▁చల్ల	-10.536
▁విధి	-10.5361
▁అభివృద్ధికి	-10.5363
▁చాళుక్యులు	-10.5364
▁వరుస	-10.537
యార్	-10.5373
▁చంపి	-10.5374
▁ఉష్ణోగ్రత	-10.538
దశ	-10.5382
▁ముక్క	-10.5385
▁ఎన్ని	-10.5385
నంత	-10.5389
రాయలు	-10.539
▁బాణ	-10.5392
కారులు	-10.5398
▁తరలించ	-10.5407
▁వూరి	-10.5414
▁ప్రత్తి	-10.5416
▁తీర్చిదిద్ద	-10.5418
▁ఆత్మహత్య	-10.5418
▁క్రొత్త	-10.5418
▁బళ్ళారి	-10.5418
▁హనుమంతరావు	-10.5418
▁ఎందరో	-10.5418
▁ఛాయాగ్రహణం	-10.5418
▁బుర్రకథ	-10.5419
▁అవతార	-10.5419
▁మరియూ	-10.542
▁ఏడుగురు	-10.542
▁తేడా	-10.5423
పోతున్న	-10.5423
▁అమ్మవారిని	-10.5433
▁గాంధీజీ	-10.5436
▁దక్ష	-10.5445
▁71	-10.5449
▁రాజ్యము	-10.5454
యాత్ర	-10.5457
అందరికీ	-10.5457
ేశ్వరరావు	-10.5458
ంబర	-10.5458
▁ప్యా	-10.5459
▁దర్శనం	-10.547
▁వర్గాల	-10.5471
▁Ra	-10.5473
▁నాయ	-10.5474
▁హోమ	-10.5478
▁వస్తు	-10.5481
▁ప్రమాణ	-10.5484
▁వేషం	-10.5484
▁400	-10.5486
▁పైకి	-10.5486
టూరు	-10.5487
వాదం	-10.5492
రంగం	-10.5496
టరీ	-10.5498
▁లాలి	-10.5501
క్టర్	-10.5502
▁శ్రమ	-10.5504
▁భాషగా	-10.5506
▁31:	-10.5509
de	-10.5513
బడ్డ	-10.5514
వేత్త	-10.5514
▁సినిమాల	-10.5522
▁వజ్ర	-10.5529
▁కన్	-10.5532
ta	-10.5533
▁దానం	-10.5535
కృతి	-10.5538
▁గోపాల్	-10.5542
▁సోమవారం	-10.5548
▁ఆదిలాబాదు	-10.5548
▁పురావస్తు	-10.5548
▁ఫ్రెంచ్	-10.5548
▁బ్రౌన్	-10.5548
▁వ్రాశాడు	-10.5548
▁స్పీకర్	-10.5548
▁సూచన	-10.5548
ధన	-10.5549
▁ఉపాధి	-10.5552
▁లక్ష్మణరావు	-10.5553
▁నన్ను	-10.5554
▁ఉనికి	-10.5554
▁1911	-10.5556
య్యారు	-10.5559
▁పోషించాడు	-10.556
▁రాశి	-10.5562
▁66	-10.5567
▁మాల్	-10.5572
▁సాధించాడు	-10.5572
వరి	-10.5574
▁సాగర	-10.5574
▁పరు	-10.5575
▁చేయించ	-10.5578
▁లెక్కలు	-10.558
▁రాజ్యానికి	-10.5584
రామకృష్ణ	-10.5588
▁వచన	-10.5592
ist	-10.5593
▁తీరంలో	-10.5594
▁వరాహ	-10.5594
▁వాయు	-10.56
పల	-10.56
▁పరిశోధనా	-10.5601
బాటు	-10.5605
▁శాతవాహనుల	-10.5605
-12	-10.5609
▁పాత్రలో	-10.5612
▁దిన	-10.5612
వ్యాప్తంగా	-10.5614
ుణ్ణి	-10.5617
▁మర్	-10.5623
ందర	-10.5623
స్తుందని	-10.5629
లాగా	-10.5632
▁అప్పు	-10.5634
▁మేలు	-10.5637
▁73	-10.5641
▁కర్త	-10.5641
▁తిరుగు	-10.5644
▁వీలు	-10.5648
స్త్ర	-10.565
▁హీరోగా	-10.5651
▁చూపు	-10.5651
క్వా	-10.5652
▁పాలకులు	-10.5655
▁కృ	-10.5656
మార్గ	-10.5656
▁తప	-10.5659
▁చర్య	-10.566
▁ఒప్ప	-10.5663
మనే	-10.5664
▁నిలువ	-10.5669
సంస్కృత	-10.5673
▁ఛా	-10.5674
▁కారణాల	-10.5678
గానం	-10.568
▁కేసీఆర్	-10.568
▁పర్యావరణ	-10.568
▁ఆటగాడు	-10.568
▁తత్వవేత్త	-10.568
▁చేసుకుంటాడు	-10.568
▁అమలులోకి	-10.5681
▁నిజాము	-10.5681
▁సంస్కృతాంధ్ర	-10.5683
▁కష్ట	-10.5686
▁సభ్య	-10.5687
▁పేర్కొన్నారు	-10.5687
▁లభించాయి	-10.5689
▁అశోక్	-10.5689
▁సంపాదించి	-10.5692
▁పండితుల	-10.5693
▁కావలి	-10.5695
▁ముని	-10.5695
▁అయ్యాయి	-10.5703
▁నటులు	-10.5707
▁నేపథ్యంలో	-10.5714
▁ఆశ్రమ	-10.5715
▁మాస	-10.5716
వాసి	-10.5716
▁అంతస్తుల	-10.5717
▁భాగాల	-10.572
▁95	-10.572
▁మారిన	-10.5729
▁కాదని	-10.573
ఘ్	-10.5732
▁పోయి	-10.5733
పోవడం	-10.5738
మనీ	-10.5742
యుక్త	-10.5744
భాషా	-10.5745
రత్నం	-10.5747
రించి	-10.5747
కల్ప	-10.5748
చ్చాడు	-10.5749
▁స్వీకరించి	-10.5751
దాయ	-10.5752
▁శివలింగ	-10.5753
▁సంప్రదాయం	-10.5757
▁చూచి	-10.5767
▁భావించి	-10.577
▁వహించ	-10.577
-7	-10.5772
▁కార్మిక	-10.5785
▁పుల్ల	-10.5786
▁పట్నం	-10.5789
వాల్	-10.5791
చోట	-10.5793
▁ఊర	-10.5798
▁ప్రతిష్ఠా	-10.5799
▁ప్రాణాల	-10.5802
▁రాజ్యాల	-10.5804
▁నీల	-10.5808
▁అనుగుణంగా	-10.5813
▁ఇస్లాం	-10.5813
▁ప్రజాస్వామ్య	-10.5813
▁అవినీతి	-10.5813
▁స్వర్ణలత	-10.5813
▁ఆదోని	-10.5813
▁షేక్	-10.5814
▁నువ్వు	-10.5814
▁ప్రసన్న	-10.5814
▁బీహార్	-10.5814
ేశ్వరాలయం	-10.5815
▁మంగళగిరి	-10.5815
▁ఇటువంటి	-10.5815
▁తీసుకో	-10.5817
▁వర్తక	-10.5818
▁అటువంటి	-10.5819
▁రామాలయం	-10.5819
ోత్	-10.5822
లియా	-10.5822
▁వార్డు	-10.5823
▁మహబూబాబాద్	-10.5828
గుడి	-10.5832
ార్థం	-10.5834
లేఖ	-10.5835
▁ప్రకటించాడు	-10.5837
▁వీణ	-10.5837
▁పొందాయి	-10.5844
▁దొ	-10.5847
స్ట్ర	-10.5847
క్రి	-10.5849
▁చేసుకొని	-10.5851
▁120	-10.5859
▁ఎన్నికలు	-10.586
▁దేశీయ	-10.5863
▁పరిచయ	-10.5873
▁చేపల	-10.5876
లన్నీ	-10.5878
▁ప్రారంభమైన	-10.5881
▁బలరామ	-10.5895
ుతున్నారు	-10.5904
▁లకు	-10.5911
గుంట	-10.5915
▁కాశ్మీర్	-10.5915
▁చెట్లు	-10.5916
▁గణాంకాలను	-10.5916
సరి	-10.5918
▁అనువాదం	-10.592
▁తార	-10.5923
▁మద్రాసులో	-10.5924
▁దక్క	-10.5924
▁ధ్రువ	-10.5928
▁జంతువుల	-10.5933
▁నదిపై	-10.5934
▁విస్తీర్ణంలో	-10.5936
ంబర్	-10.5937
▁హేమ	-10.5938
ంటాయి	-10.5942
▁తెలుగువారి	-10.5943
▁నియోజక	-10.5948
▁రాబర్ట్	-10.5948
▁ధార్వాడ	-10.5948
▁దేవులపల్లి	-10.5948
▁కాలేజ్	-10.5948
▁తరపున	-10.5948
▁బుధవారం	-10.5948
▁ఇసుక	-10.5948
▁వివరణ	-10.5948
▁విస్తరణ	-10.5949
▁లను	-10.5949
▁సాహస	-10.5949
▁మౌ	-10.595
▁దానితో	-10.595
రాజ్య	-10.595
ండర్	-10.5951
చేసిన	-10.5951
▁ఉంటూ	-10.5952
కాళ	-10.5953
▁ప్రారంభించిన	-10.5953
▁చూడవచ్చు	-10.5954
▁గ్రామోత్సవం	-10.5954
▁విష	-10.5955
▁1901	-10.5956
▁కోడ	-10.5956
▁రెండ	-10.5959
▁అందుకున్నాడు	-10.596
▁గర్భ	-10.5962
▁పెరిగింది	-10.5966
▁జయసుధ	-10.5967
ఖర	-10.5967
▁మామ	-10.5969
జేయ	-10.5971
బెట్టి	-10.5972
▁వాక్య	-10.5972
బొమ్మ	-10.5974
▁తీస	-10.5974
వారం	-10.5974
▁కనీసం	-10.5974
▁దగ్గరి	-10.5977
▁చిత్త	-10.5978
పత్రం	-10.5987
▁దళ	-10.5989
నెట్	-10.5994
ిస్తుంటారు	-10.5995
-8	-10.6003
ప్రారంభించబడింది	-10.6004
▁ప్రశాంత	-10.6005
▁పదవికి	-10.6008
▁బీర	-10.601
▁పనిచేసి	-10.6011
▁సముదాయం	-10.6013
▁పోరాటంలో	-10.6019
-18	-10.6025
పత	-10.6027
▁61	-10.6027
రహిత	-10.6028
▁విభాగ	-10.6029
▁స్థలాలు	-10.6033
▁మరీ	-10.604
ాయన	-10.6049
▁మీరు	-10.6049
▁యమ	-10.6051
ాక్షర	-10.6053
▁on	-10.6053
మౌ	-10.6058
▁మరు	-10.6063
▁హిందీలో	-10.6065
▁కన్ను	-10.6071
▁కోటలో	-10.6075
ిస్తా	-10.6075
రిగి	-10.6075
▁తిన్న	-10.6075
విన్	-10.6076
▁ఆప	-10.6078
▁మందు	-10.6079
▁కనుగొన	-10.6083
▁ఊరేగింపు	-10.6085
▁క్రియేషన్స్	-10.6085
▁పరీవాహక	-10.6085
▁ప్రామాణిక	-10.6085
▁బెజవాడ	-10.6085
▁లినక్స్	-10.6085
▁పడమర	-10.6085
▁జీర్ణ	-10.6085
▁అందువల్ల	-10.6086
▁జయశంకర్	-10.6086
లపాడు	-10.6087
▁సంజీవరెడ్డి	-10.6087
▁స్వీయ	-10.6088
▁రాజకీయవేత్త	-10.6088
▁ప్రేమలో	-10.6088
▁అభ్యుదయ	-10.6088
▁దేశాయ్	-10.6089
▁ఎండ	-10.609
▁అబ్దుల్లా	-10.6091
▁1918	-10.6093
▁గాంచిన	-10.6093
▁పాలకుల	-10.6095
▁గోపన్న	-10.6096
జిల్లా	-10.6096
▁చిలక	-10.6098
▁హైదరాబాదుకు	-10.6102
▁పలిక	-10.6103
రామ్	-10.6103
ష్టి	-10.6105
గ్రే	-10.6109
▁వాటికి	-10.6111
▁పరిమిత	-10.6114
▁1830	-10.6115
▁పరిధిలోని	-10.6116
తక	-10.6116
▁ప్రభావ	-10.6117
▁అబ్దుల్	-10.6118
ండో	-10.6119
▁అంకితం	-10.6123
▁దాచ	-10.6128
▁82	-10.6132
▁పాడిన	-10.6132
బండి	-10.6141
ేటప్పుడు	-10.6141
▁దూరంగా	-10.6147
-15	-10.6147
▁నేత్ర	-10.6147
▁యీ	-10.6148
▁పరిపాలించిన	-10.615
▁1957	-10.6151
▁చంద్రుడు	-10.6152
▁పిండి	-10.6157
▁కలప	-10.6158
▁వేదాంత	-10.6159
▁ప్రదేశంలో	-10.6159
▁గట్టి	-10.616
▁శ్రద్ధ	-10.6161
▁దర్	-10.6165
▁ప్రఖ్యాతి	-10.6165
▁మం	-10.6165
ప్రాంతం	-10.6172
దారులు	-10.6176
గ్ల	-10.6176
▁0.	-10.6177
▁వెల	-10.618
▁సంబంధ	-10.6181
▁సుబ్రహ్మణ్యం	-10.6182
చారు	-10.6187
▁జన్మించిన	-10.6187
రాశి	-10.6188
▁గ్రంథాలు	-10.6188
▁85	-10.6189
ెత్తి	-10.619
సార్	-10.6194
భూషణ	-10.6195
ుతుందని	-10.6197
▁చెబుత	-10.62
▁విస్తరించింది	-10.6206
▁గెల	-10.6209
▁మార్గాల	-10.6209
.....	-10.6219
▁ఆలయాల	-10.6221
స్థితి	-10.6223
▁అరేబియా	-10.6224
▁ఇబ్బందుల	-10.6224
▁ఆపరేటింగ	-10.6224
▁ఉడిపి	-10.6224
▁కదిరి	-10.6224
▁సంస్కార	-10.6225
▁జరుపుతారు	-10.6225
▁తెలుస్తోంది	-10.6226
▁మనస్సు	-10.6228
▁కుట్ర	-10.6228
▁1941	-10.623
▁త్రాగ	-10.6231
▁అవతరించింది	-10.6231
▁చరిత్రకారుడు	-10.6231
▁1917	-10.6232
▁గుర్తించి	-10.6232
▁విడుదలైంది	-10.6232
▁నిలయం	-10.6232
▁కుక్క	-10.6233
న్నర	-10.6233
▁ఇంగ్లీష్	-10.6237
▁ప్రభాకర్	-10.6237
▁స్వా	-10.6238
▁తేల	-10.6239
దనం	-10.624
▁లక్షణాల	-10.624
▁శతాబ్దము	-10.6242
▁పోలీసులు	-10.6243
▁పురాతనమైన	-10.6245
▁కృష్ణంరాజు	-10.6253
▁స్ఫూర్తి	-10.6253
నగ	-10.626
▁అబ్బ	-10.6262
ధీ	-10.6269
▁గ్రా	-10.627
▁బలమైన	-10.6272
▁అప్పటికి	-10.6272
క్రో	-10.6276
సులు	-10.6287
▁77	-10.6288
▁f	-10.6303
▁for	-10.6311
బడ్డారు	-10.6319
త్వాన్ని	-10.6322
▁సంస్కృతం	-10.6323
▁హం	-10.6325
▁స్కా	-10.6327
▁చదవ	-10.6333
క్షన్	-10.6334
▁కదా	-10.6334
▁కప్	-10.6335
▁వచ్చు	-10.6337
▁ఎల్ల	-10.6338
▁కనుగొన్న	-10.6338
రాఘవులు	-10.635
గ్గు	-10.6352
ఖో	-10.6353
▁వంశం	-10.6354
గోపాల	-10.6356
▁గూ	-10.6361
▁పిలిచే	-10.6362
డని	-10.6362
▁సంజీవ	-10.6363
▁మౌర్య	-10.6365
▁వ్యాప్తి	-10.6366
రాతి	-10.637
▁ఉపయోగిస్తారు	-10.6371
▁కత్తి	-10.6373
▁సైన్యాన్ని	-10.6378
▁రూపొందించిన	-10.6379
మునందు	-10.638
▁ఎన్నికైనాడు	-10.6382
▁చెప్పబడింది	-10.6383
▁దేవతలు	-10.6384
▁ఉన్నందున	-10.6386
▁76	-10.6386
▁గ్రామాలకు	-10.6389
▁కావున	-10.6391
వాలా	-10.6391
▁సామ్రాజ్యానికి	-10.6396
▁మంగ	-10.6398
▁రూపం	-10.6399
కన్నా	-10.64
▁పత్ర	-10.6401
▁స్నేహితు	-10.6401
దనపు	-10.6406
▁ఎందుకు	-10.6406
▁పువ్వు	-10.6408
▁ప్రపంచంలోనే	-10.6412
▁వెళ్ళాడు	-10.6412
మిత్ర	-10.6416
మ్స్	-10.6417
▁మతాల	-10.6419
ోదయ	-10.642
▁దాట	-10.6424
యాన్	-10.6426
▁అనుభవించ	-10.6429
▁చిట్ట	-10.643
▁వెళ్ళు	-10.6436
▁ఉత్సవం	-10.6437
భ్ర	-10.6437
▁క్రీడా	-10.644
స్థాన్	-10.644
▁పతాకం	-10.6448
ణము	-10.6448
▁శకం	-10.645
▁పొర	-10.6452
▁గవర్నరు	-10.6458
▁హిందువుల	-10.6459
▁తల్లిదండ్రుల	-10.6461
▁భూమిని	-10.6465
▁వాసు	-10.6465
▁రామాయణము	-10.6469
▁బయలుదేర	-10.647
▁ప్రముఖులు	-10.6472
▁గురి	-10.6479
కారి	-10.6482
▁తెల	-10.6484
▁ప్రాస	-10.6485
▁చిత్రాలలో	-10.6486
▁నిమ్మ	-10.6493
ారో	-10.6496
▁బయటి	-10.6496
▁గోప	-10.6497
▁ప్రి	-10.6498
▁జయించి	-10.6499
వాని	-10.6502
▁నిడమర్రు	-10.6508
▁పీపుల్స్	-10.6508
▁యేడాది	-10.6508
▁నంబరు	-10.6508
▁వ్యాకరణ	-10.6508
▁బ్రిటన్	-10.6508
▁అధినేత	-10.6508
|	-10.651
▁చేరుకుంది	-10.651
▁యూనిట్	-10.6512
▁చంద్రబాబు	-10.6512
▁1943	-10.6514
▁గాయ	-10.6514
▁1934	-10.6514
▁షె	-10.652
▁ఉండేవాడు	-10.6521
▁మిలియన్	-10.6521
▁కాలంలోనే	-10.6522
▁పాలకుడు	-10.6523
▁కాస్త	-10.6528
▁త్రిపుర	-10.6529
▁భాస్కర్	-10.6529
▁రచించారు	-10.653
▁పోలీసుల	-10.6532
▁చేసేవారు	-10.6533
▁నొప్పి	-10.6535
చిత్రం	-10.6536
▁స్వతంత్రం	-10.6538
▁తేదీనాడు	-10.6539
▁ప్రవహించే	-10.6541
▁వస్తాడు	-10.6541
ానికే	-10.6544
▁అధికారికంగా	-10.6545
▁కళాకారులు	-10.6546
▁మూలం	-10.6549
▁కూలి	-10.6549
ినారు	-10.655
ce	-10.6554
కూడదు	-10.6554
▁నడుమ	-10.6555
▁ఆలేరు	-10.6555
బాహు	-10.6565
▁పేరును	-10.6569
▁పతనం	-10.6574
▁విద్యార్థులకు	-10.6575
▁నున్న	-10.6577
రంగా	-10.6578
▁పెట్టిన	-10.6578
ించడానికి	-10.6579
▁విశ్వాసం	-10.6589
▁కొప్ప	-10.6589
▁దగ్గరగా	-10.6589
▁శాస్త్రము	-10.6589
బడుతున్నాయి	-10.6592
▁పట	-10.6594
మాంబ	-10.6595
▁ఉంచి	-10.6595
▁అడవిలో	-10.6598
▁పండించ	-10.6598
▁దెబ్బ	-10.6599
ాన్నే	-10.6602
▁ఎఫ్	-10.6604
▁మంట	-10.6605
▁పతన	-10.6608
▁నవ్వు	-10.661
▁ఆచార	-10.6611
▁వహించి	-10.6612
▁పెద్దది	-10.6615
▁ఉన్నప్పుడు	-10.6621
చేశారు	-10.6627
▁ఇళ్ళ	-10.6628
▁రచయితల	-10.6628
▁విహార	-10.6631
▁విప్లవం	-10.6634
▁మద్ద	-10.6637
ుచూ	-10.6638
దేవర	-10.6639
▁మొదల	-10.664
▁లింగం	-10.6643
▁న్యాయస్థానం	-10.6647
వంశ	-10.665
▁ఇబ్రహీం	-10.6652
▁దీర్ఘ	-10.6653
▁చారిత్రిక	-10.6653
▁తజికిస్థాన్	-10.6653
▁తణుకు	-10.6653
▁నివాసగృహాలు	-10.6653
▁మద్రాస్	-10.6653
▁సెంట్రల్	-10.6653
▁ఋగ్వేద	-10.6653
▁ఇరవై	-10.6653
▁రోజూ	-10.6653
▁క్షీర	-10.6653
▁పొరుగు	-10.6654
▁మానసిక	-10.6655
▁నేటికీ	-10.6657
▁విలువైన	-10.6658
సాహిత్య	-10.6659
▁108	-10.6659
జాతీయ	-10.666
సంచార	-10.6661
▁కథానాయకుడు	-10.6661
▁దీవి	-10.6663
▁లోక్	-10.6663
▁జాతీయస్థాయి	-10.6664
▁ఆరంభం	-10.6667
తాం	-10.6667
▁రహదారిపై	-10.6669
▁విశాఖ	-10.6671
ళు	-10.6671
▁భగవద్గీత	-10.6673
థర్	-10.6673
▁సిక్కు	-10.6674
▁v	-10.6677
▁వస్తారు	-10.6684
▁భోజనం	-10.6685
▁రాజమహేంద్రవరం	-10.6687
▁విజయవంతంగా	-10.6687
▁పెన్	-10.669
▁మల్	-10.6692
▁కాన	-10.6695
▁సామ్రాజ్యాన్ని	-10.6697
▁జరుగు	-10.6701
▁ప్రభావితం	-10.6702
రియన్	-10.6707
▁లక్ష్యం	-10.6709
▁ఇస్తారు	-10.671
వస్థ	-10.6711
పాప	-10.6714
▁రెడ్	-10.6717
▁వేట	-10.6722
▁ఉదా	-10.6722
▁చుక్క	-10.6724
వారే	-10.6724
▁ప్రమాద	-10.6726
▁ఏనుగు	-10.6726
▁మఠం	-10.6727
▁పాత్రను	-10.6733
ary	-10.6736
ve	-10.6737
▁బోధన్	-10.6738
6%	-10.6739
▁దేశంగా	-10.6744
▁నరస	-10.6752
▁ప్రశంస	-10.6753
▁In	-10.6754
▁వారే	-10.6766
ర్తి	-10.6767
బాద్	-10.6772
▁చిట్టి	-10.6773
▁దృశ్య	-10.6783
మిది	-10.6784
▁గడ	-10.6785
▁ప్రసంగ	-10.6785
▁నీవే	-10.6788
▁కళ్ళు	-10.6788
▁పెళ్ళ	-10.6789
▁రాళ్ళ	-10.6794
▁ముడి	-10.6798
▁ప్రారంభంలో	-10.6798
▁కళింగ	-10.6799
▁ఆశ్చర్య	-10.68
▁ఎయిడ్స్	-10.68
▁గురజాడ	-10.68
▁విమోచన	-10.68
▁వెడల్పు	-10.68
▁మార్కాపురం	-10.68
▁ఆఫ్రికా	-10.68
▁తుమ్మల	-10.68
▁పెనుగొండ	-10.68
▁యాత్రికుల	-10.68
▁కాశీయాత్ర	-10.68
▁వినిపించ	-10.6801
▁వ్యాపారవేత్త	-10.6801
▁చెందినవారు	-10.6802
ేస్తాడు	-10.6802
ముందు	-10.6803
▁శతాబ్దపు	-10.6806
▁చేసుకుంది	-10.6807
చక్రవర్తి	-10.6808
▁ఎలాంటి	-10.6809
సింహ	-10.6812
▁సోదరుడు	-10.6812
▁యందు	-10.6813
▁కనుగొన్నాడు	-10.6814
▁మధ్యకాలంలో	-10.6816
ొచ్చు	-10.6816
▁బెంగళూరు	-10.6818
▁రావడం	-10.6818
▁ఉండదు	-10.682
▁1919	-10.6826
▁దంపతులు	-10.6826
▁పరిణామ	-10.6828
▁గొల్ల	-10.6834
▁ఉపనది	-10.684
ార్ధం	-10.6841
సముద్రం	-10.6844
▁రచయితగా	-10.6845
▁సీతమ్మ	-10.6854
▁సింహాసన	-10.6858
దనీ	-10.6869
ోద	-10.6872
▁చర్చ	-10.6872
▁కోయ	-10.6874
▁తేజ	-10.6874
▁సముదాయ	-10.6878
ాధి	-10.6884
ాదుల	-10.6885
▁సంపుట	-10.6892
▁వరంగల్లో	-10.6893
▁గుండు	-10.6895
▁కాంతి	-10.6896
గర	-10.6896
▁వల్లభ	-10.6904
▁ప్రదేశ	-10.6904
▁మెట్ట	-10.6905
▁మెడ	-10.6905
▁దాత	-10.6907
▁మల్లికార్జున	-10.6908
▁2016:	-10.6908
▁పోషించ	-10.6915
ut	-10.6916
లోకం	-10.6917
▁రేఖ	-10.6919
me	-10.692
▁పాడి	-10.692
మంటే	-10.6926
▁వీరుడు	-10.6928
▁తవ్వ	-10.6929
▁పోత	-10.693
▁సమావేశం	-10.6934
▁ఎదుర్కొ	-10.6935
▁కదల	-10.6936
▁ఢిల్లీలో	-10.6937
గ్రీ	-10.6937
▁లేద	-10.6938
▁విధానాల	-10.6938
▁బోయ	-10.6939
ుచుండ	-10.6941
▁1962:	-10.6948
▁ఔరంగజేబు	-10.6949
▁నికోబార్	-10.6949
▁సుప్రీం	-10.6949
▁పాల్వంచ	-10.6949
▁స్క్రీన్	-10.6949
▁పటేల్	-10.6949
▁ఓటమి	-10.6949
▁పితామహుడు	-10.6949
▁గొడవ	-10.6949
▁దినపత్రిక	-10.6949
▁టాకీ	-10.6949
▁తెలుసుకుని	-10.6949
▁సదస్సు	-10.6949
▁సంపన్న	-10.6952
▁మహాసభ	-10.6952
దారుల	-10.6952
▁ముఠా	-10.6953
▁వైశాఖ	-10.6953
▁మహబూబ్నగర్	-10.6953
▁కావాలని	-10.6954
▁వీరభద్రరావు	-10.6954
్యాం	-10.6957
▁ఓం	-10.6958
▁రాఘవయ్య	-10.6959
▁జూలైలో	-10.6959
తెలంగాణ	-10.6959
▁భువన	-10.696
-5	-10.696
▁దీనితో	-10.6961
ఇక్కడ	-10.6961
▁ఆంధ్రుల	-10.6964
▁చెలి	-10.6966
▁ప్రబల	-10.6966
▁అక్రమ	-10.6967
▁వృ	-10.6968
▁అందుకున్నారు	-10.697
▁చీర	-10.6971
▁నెల్లూరులో	-10.6972
▁కాటన్	-10.6973
వంటి	-10.6973
▁నిర్మించింది	-10.6978
క్లి	-10.6982
▁నెలలు	-10.6982
▁1906	-10.699
డతాడు	-10.6991
▁నృసింహ	-10.6991
▁రహస్య	-10.6992
సంస్థ	-10.6992
▁చిత్రాలను	-10.6993
▁అవతారం	-10.6993
▁ప్రత్యక్ష	-10.6995
పడిన	-10.6998
▁మన్	-10.6998
▁డాలర్లు	-10.6999
సభ	-10.7001
రాగ	-10.7005
▁నారద	-10.7007
క్య	-10.7008
▁త్యాగ	-10.7012
▁పెట్టాడు	-10.7013
▁ద్వీపం	-10.7014
▁రహదారులు	-10.7015
▁నిష్	-10.7016
ములతో	-10.7018
▁తిప్ప	-10.7021
▁నిర్ణయం	-10.7024
▁వీధిలో	-10.7027
▁విమానం	-10.7028
▁బుద్ధ	-10.7028
▁కీలక	-10.7029
▁250	-10.7029
▁కుండ	-10.703
్మయ	-10.7034
▁మది	-10.7035
od	-10.7035
▁పార్క్	-10.7036
▁ఆధారం	-10.704
శ్వ	-10.7041
▁రాజశేఖర	-10.7041
య్యే	-10.7043
ాధిపతి	-10.7044
▁చోట్ల	-10.7044
▁కణ	-10.705
షియా	-10.7053
మార్గం	-10.7059
సంగీత	-10.7061
నాయకుని	-10.7064
▁భాషకు	-10.7075
పుల్లయ్య	-10.7082
▁అడవులు	-10.7085
▁మోహన	-10.7085
▁వేస	-10.7087
▁పేజీలు	-10.7088
ేశాడు	-10.709
▁గౌరవించ	-10.71
▁84	-10.71
▁చుట్టుప్రక్కల	-10.7101
▁విముక్తి	-10.7101
▁కొంచెం	-10.7101
▁వరల్డ్	-10.7101
▁కలామ్	-10.7101
▁కార్తీక	-10.7101
▁బహదూర్	-10.7101
▁అధిపతి	-10.7101
▁గిడుగు	-10.7102
▁కామేశ్వరరావు	-10.7102
▁దారితీసింది	-10.7103
▁వెంకటేష్	-10.7103
▁ఏర్పడ్డాయి	-10.7104
▁పోటీలు	-10.7104
▁ప్రతిపక్ష	-10.7104
▁సైతం	-10.7105
▁పూర్ణ	-10.7106
▁నారాయణ్	-10.7108
▁ప్రతీతి	-10.7108
బోయే	-10.7109
▁జన్మించారు	-10.7109
▁సరిగా	-10.7111
▁సమస్యల	-10.7114
భద్ర	-10.7114
▁బ్రహ్మోత్సవాలు	-10.7114
క్ట్	-10.7115
▁శ్రీహరి	-10.7119
ధ్ధ	-10.7119
▁తొక్క	-10.712
▁బ్రి	-10.7122
▁సీమ	-10.7125
వొ	-10.7126
-16	-10.7129
▁వృత్తులు	-10.7129
వాణి	-10.713
▁హౌస్	-10.7133
▁వారితో	-10.7136
▁శిల	-10.7137
▁పనిచేయ	-10.7138
ాచారి	-10.714
▁కన్నుల	-10.7142
నూర్	-10.7144
▁పడిన	-10.7144
▁బాట	-10.7144
▁దళిత	-10.7147
▁బంగాళాఖాతం	-10.7148
మండల	-10.7148
▁ఇంతలో	-10.7149
▁తర్వాతి	-10.7152
▁కుంట	-10.7154
బెట్ట	-10.7157
లందు	-10.7158
▁అధ్యక్షులు	-10.7161
▁ఇందుకు	-10.7164
▁ప్రవేశించి	-10.7168
▁సారిగా	-10.7168
▁ఐన	-10.7173
▁మంత్రులు	-10.7173
▁ఏమీ	-10.7176
▁ఫో	-10.7183
▁లోతు	-10.7184
▁):	-10.719
da	-10.7193
హూ	-10.7194
▁సంభాషణ	-10.7195
పర్తి	-10.7196
▁ప్రపంచం	-10.7196
చ్చిన	-10.7201
▁శాప	-10.7201
ుదురు	-10.7202
▁బార్	-10.7203
▁మునుప	-10.7204
▁చూడు	-10.7205
▁ప్రభు	-10.7206
▁మిల్	-10.7207
ఫో	-10.7207
లేటి	-10.7207
▁జీవించ	-10.7209
▁కళ్ళ	-10.7209
▁పర్వ	-10.721
▁రామలింగేశ్వర	-10.7212
ెవర	-10.7213
▁వ్యాఖ్యాన	-10.7215
ావు	-10.7218
▁పద్ధతిలో	-10.7218
▁దర్శన	-10.7218
▁రాజరాజ	-10.722
▁శాసనాల	-10.7221
▁నగరాలలో	-10.7222
చింత	-10.7224
▁1987:	-10.7224
▁సర్వే	-10.7228
▁నీలం	-10.7233
▁అక్షరం	-10.7236
▁ఆయనను	-10.7236
భారతదేశం	-10.7238
▁నాటకాలు	-10.7238
▁అనుకూల	-10.7244
శంకర	-10.7247
▁భోజన	-10.7248
▁ఇంజనీరు	-10.7254
▁యూనివర్శిటీ	-10.7254
▁వికారాబాదు	-10.7254
▁రోదసీ	-10.7254
▁ఉపఖండంలో	-10.7254
▁కుంకుమ	-10.7255
▁జంక్షన్	-10.7255
▁అఖిల	-10.7255
▁సత్యసాయి	-10.7256
▁నాయకురాలు	-10.7256
ులై	-10.7257
▁అంశాల	-10.7257
▁కారాగార	-10.7257
▁ధర్మపురి	-10.7258
▁విరమణ	-10.7262
▁1923	-10.7262
▁శిష్యుల	-10.7265
వల్	-10.7265
కాంత్	-10.7265
▁క్రీడల	-10.7266
దక్షిణ	-10.7266
▁ఉపయోగించి	-10.7267
▁సమస్త	-10.7269
▁చంద్రశేఖర్	-10.7269
▁బయటపడ	-10.7269
▁600	-10.727
సెస్	-10.7271
▁చేయటం	-10.7272
▁మాతృ	-10.7277
▁కలిపే	-10.7279
▁గ్రామస్థులు	-10.7281
ఖి	-10.7281
▁చేయబడ్డాయి	-10.7282
▁పర్యాటకుల	-10.7282
▁శైలిలో	-10.7282
▁పిల్లలకు	-10.7282
▁అనుబంధ	-10.7283
▁ఇల్ల	-10.7291
▁కల్యాణ	-10.7293
▁కనుల	-10.7296
▁కంచి	-10.7301
▁పిలువబడే	-10.7303
మానం	-10.7303
ఉంది	-10.7307
▁విడిచి	-10.7309
▁పతాక	-10.7311
మెన్	-10.7312
దృ	-10.7315
▁విక్రమ	-10.7315
▁సాగింది	-10.7322
పుత్ర	-10.7322
▁b	-10.7325
▁జాన	-10.7327
వచ్చని	-10.7329
ఖాన్	-10.7329
▁యుగంలో	-10.7332
ానంతరం	-10.7334
id	-10.7334
▁విదేశాల	-10.7335
▁గే	-10.734
▁మైదాన	-10.7342
ver	-10.7345
ru	-10.7352
భై	-10.7354
▁వైస్	-10.7354
▁ఫ్ర	-10.7354
ింపబడింది	-10.7355
▁చేర్చి	-10.7355
▁బుద్ధి	-10.7357
ap	-10.7358
▁గుహలు	-10.7362
▁మాయా	-10.7363
చ్చారు	-10.7369
▁నిర్జన	-10.737
రూపం	-10.7371
▁మల్లి	-10.7371
▁వ్రాసి	-10.7372
దేవాలయ	-10.7374
▁భూపతి	-10.7377
డ్స్	-10.7379
▁సుర	-10.7384
▁కోల	-10.7387
▁l	-10.7388
▁ఆరాధన	-10.7388
నిచ్చి	-10.7392
పోత	-10.7393
▁రాధాకృష్ణ	-10.7398
యినా	-10.7398
▁నివాసం	-10.7399
tion	-10.7401
మనోహర	-10.7402
లిక	-10.7403
నందుకు	-10.7404
▁ముగ్గు	-10.7406
▁ప్రమాదం	-10.7406
▁అయ్యే	-10.7406
▁మఠ	-10.7407
మయ్యే	-10.7409
▁లండన్	-10.741
▁గట్టు	-10.741
▁ఛందస్సు	-10.7411
▁పాలకొల్లు	-10.7411
▁ప్రాతినిధ్యం	-10.7411
▁ఫుట్బాల్	-10.7411
▁సదుపాయం	-10.7411
▁జంధ్యాల	-10.7411
▁అమాయక	-10.7411
▁పోలవరం	-10.7411
▁జర్మన్	-10.7411
▁ప్రయాణీకుల	-10.7411
▁బీహారు	-10.7411
▁ఆదరణ	-10.7411
▁సామెత	-10.7411
▁ఆధారిత	-10.7411
▁ఆకర్షించ	-10.7412
.2013)	-10.7412
▁సివిల్	-10.7412
▁గౌరవం	-10.7412
▁ఆచరించ	-10.7413
▁నరసాపురం	-10.7413
▁పరిధిలోకి	-10.7414
▁మహిమ	-10.7414
▁ములుగు	-10.7417
▁రంగుల	-10.7418
▁చేసేందుకు	-10.7419
పట	-10.7419
▁1912	-10.7421
▁నటించ	-10.7423
▁దెబ్బతి	-10.7428
▁ప్రక్క	-10.7429
▁నిర్మల	-10.743
▁సంపాదకులు	-10.743
▁దగ్గరకు	-10.743
మిక్	-10.7431
▁చిత్రీకరణ	-10.7434
▁తరచుగా	-10.7436
▁పద్ధతుల	-10.7439
▁మార్గాలు	-10.7439
▁గుర	-10.744
కూర	-10.7443
▁కలదు	-10.7446
కాలము	-10.7449
▁సరిహద్దులో	-10.745
శంకర్	-10.745
బొ	-10.7453
2014	-10.7454
▁సంబంధిత	-10.7455
▁గుర్తించారు	-10.7456
▁హనుమంతు	-10.7457
▁శరీరంలో	-10.7458
-9	-10.746
▁పిలువబడ	-10.7466
▁శాసనము	-10.7467
▁మల	-10.7469
▁చిత్రంలోని	-10.7471
▁లీపు	-10.7471
కోన	-10.7472
▁చేస్తా	-10.7472
▁సెం	-10.7473
▁శాఖల	-10.7474
▁విషయము	-10.7475
సంఘ	-10.7477
▁నిర	-10.7477
ితమైన	-10.7478
▁నిర్మాణంలో	-10.7483
లెట్	-10.7484
▁సముద్రంలో	-10.7485
ాకార	-10.749
▁రచించి	-10.7491
▁విశ్వాస	-10.7494
ow	-10.7495
▁1939	-10.7499
▁పంపించ	-10.75
బట్టి	-10.7504
▁వార్షికోత్సవం	-10.7506
▁తీరాన	-10.7512
▁వెంకట్	-10.7515
▁1984:	-10.7523
రత్న	-10.7524
▁పత్రికలో	-10.7524
వాళ్ళు	-10.7524
▁తీసుకున్న	-10.7525
▁లాభ	-10.7527
ములకు	-10.7527
▁పెద్దపల్లి	-10.7527
ల్లీ	-10.7532
▁గుహ	-10.7533
లిక్	-10.7536
ోర్	-10.7536
▁మొదటిసారి	-10.7537
▁తాప	-10.7539
▁భౌగోళిక	-10.754
మయ్యింది	-10.7543
▁భాగ్య	-10.7544
దత్త	-10.7549
▁ఆంధ్రా	-10.7551
దేశము	-10.7554
▁విగ్రహాల	-10.7561
▁ఊహించ	-10.7563
ప్రాయ	-10.7564
▁నడిపించ	-10.7564
▁లోకం	-10.7568
▁కేంద్రపాలిత	-10.7569
▁నెట్వర్క్	-10.7569
▁ప్రొఫెసర్	-10.7569
▁కథానాయిక	-10.7569
▁నటీమణి	-10.7569
▁హరప్పా	-10.7569
▁టాటా	-10.757
▁ఆఖరి	-10.757
▁ఖాళీ	-10.757
▁గూర్చి	-10.757
ముద్ర	-10.757
▁కాళ్ళ	-10.757
▁హాస్యనటుడు	-10.757
▁వైదిక	-10.7571
▁జార్జి	-10.7571
▁క్లబ్	-10.7571
▁రాజేశ్వరరావు	-10.7572
▁బీచ్	-10.7572
▁మూడో	-10.7576
▁వ్యక్తుల	-10.7576
▁వెలువడిన	-10.7577
▁గణేశ	-10.7577
▁జంతు	-10.7578
BN	-10.758
▁రామమూర్తి	-10.758
▁అరణ్య	-10.7581
▁1910	-10.7581
▁పాల్గొన్నాడు	-10.7581
▁1916	-10.7581
▁1900	-10.7583
▁1909	-10.7588
▁నివసిస్తున్నారు	-10.7589
▁తెచ్చిన	-10.7595
▁నిజానికి	-10.7599
▁భాగాలు	-10.76
▁భాగాన్ని	-10.7601
▁పాకిస్థాన్లో	-10.7602
▁అంబేద్కర్	-10.7603
▁చేర్చారు	-10.7604
▁చరిత్రకారులు	-10.7607
ల్ప	-10.7608
▁ఎదుర్కొన్న	-10.761
▁పరిధి	-10.7611
▁నిర్వహించాడు	-10.7614
నందున	-10.7615
దార	-10.7624
బడుతున్న	-10.7631
▁పసి	-10.7631
▁హీ	-10.7633
▁సూచిస్త	-10.7641
ందీ	-10.7642
డాన్ని	-10.7643
ేశ్వర్	-10.7644
▁చూ	-10.7645
▁సంస్కరణ	-10.7646
▁నాగయ్య	-10.7646
▁చిరు	-10.7647
▁కర్ర	-10.765
▁పడవ	-10.7651
▁పర్వము	-10.7652
▁సోదరి	-10.7654
▁విభాగాలు	-10.7658
డై	-10.7658
ీయులు	-10.7659
▁1959	-10.7659
▁సంస్కృతంలో	-10.766
మిన్	-10.7664
మండలం	-10.7677
▁చేసుకోవ	-10.7678
▁దశకంలో	-10.7682
▁కాద	-10.7682
▁ఎవర	-10.7682
▁పాటించ	-10.7684
▁కలశ	-10.7686
▁కారణమ	-10.7688
▁రోజులలో	-10.769
▁87	-10.769
▁మలయాళం	-10.7693
▁ఆధిపత్యం	-10.7694
▁పాఠ	-10.7694
2000	-10.7695
▁సంప్రదాయాల	-10.7696
▁రామేశ్వర	-10.7698
▁1986:	-10.77
▁విశ్వనాథ్	-10.77
▁86	-10.7701
▁సంసార	-10.7705
▁స్నేహ	-10.7712
▁రాష్ట్రాలలో	-10.7719
▁మహారాష్ట్రలో	-10.7719
ప్రకాశ	-10.7723
▁అత్యుత్తమ	-10.7731
▁అలవాటు	-10.7731
▁ఆందోళన	-10.7731
▁ఉపరాష్ట్రపతి	-10.7731
▁కందుకూరి	-10.7731
▁ద్రావిడ	-10.7731
▁ప్రొద్దుటూరు	-10.7731
▁యూనివర్సిటీ	-10.7731
▁జయప్రద	-10.7731
▁స్థూల	-10.7731
▁శాసనసభ్యుడు	-10.7731
▁సన్మాన	-10.7731
▁టన్నుల	-10.7731
▁నాగార్జునసాగర్	-10.7732
▁గజపతి	-10.7733
co	-10.7733
▁వెళ్తు	-10.7735
▁నర	-10.7735
▁నుంచే	-10.7736
▁సిద్ధిపేట	-10.7737
▁హస్త	-10.7737
▁స్నేహితుడు	-10.7739
భిక్ష	-10.7741
గోళ	-10.7742
ాబాదు	-10.7742
చలం	-10.7747
▁నిండి	-10.775
▁కృష్ణశాస్త్రి	-10.7751
▁గుత్తి	-10.7751
నరసింహ	-10.7753
మంగళ	-10.7754
▁మందులు	-10.7755
▁పడమటి	-10.7755
▁నిపుణులు	-10.7756
లాగ	-10.7756
▁గిరిజనుల	-10.776
దానం	-10.7761
లాడ	-10.7764
▁నిలిపి	-10.7767
కరం	-10.7767
▁క్వి	-10.7768
గ్రామానికి	-10.7772
ాంగ్	-10.7773
చలపతిరావు	-10.7776
హాన్	-10.7779
▁ఫోటో	-10.778
పాడులో	-10.7781
▁మేఘ	-10.7782
శైలి	-10.7785
▁జననం	-10.7786
▁దిశలో	-10.779
ెడి	-10.7801
ముగ	-10.7802
▁83	-10.7803
▁ఆమోదించ	-10.7806
▁సరోజ	-10.7807
▁రాసి	-10.7809
2011	-10.781
ంటె	-10.7814
▁గుప్త	-10.7814
▁పరిణ	-10.7819
▁ముద్రణ	-10.7823
▁ఘనత	-10.7827
▁మీర్	-10.7827
ect	-10.7829
▁సింహాసనం	-10.7831
▁అహ	-10.7833
▁జలాశయం	-10.7835
▁కాన్	-10.784
▁క్లా	-10.7846
మృత	-10.785
▁కొనసాగించ	-10.7855
.5%	-10.7869
▁ఇటు	-10.7872
డింగ్	-10.7873
▁అందంగా	-10.7873
▁బండి	-10.7876
సిన్	-10.7878
లార్	-10.788
న్యాస	-10.788
age	-10.7881
గన్	-10.7883
ిల్లి	-10.7884
టెన్	-10.7886
▁అభ్యసించ	-10.7895
▁పరశురామ	-10.7895
▁రాయచూరు	-10.7895
▁ఆయకట్టు	-10.7895
▁గుర్రం	-10.7895
▁రుద్రమదేవి	-10.7895
▁పుట్టపర్తి	-10.7895
▁సార్వ	-10.7896
▁చెబుతుంది	-10.7896
▁పోలిస్తే	-10.7896
▁బియ్యం	-10.7896
▁కాంచన	-10.7896
కెక్క	-10.7896
▁ముహమ్మద్	-10.7897
▁షాహీ	-10.7898
▁నర్స	-10.79
బల్	-10.79
▁అధ	-10.7901
▁నరసింహారెడ్డి	-10.7901
▁తీసుకుంట	-10.7901
▁ఎంపికైన	-10.7902
పరమైన	-10.7903
పక్ష	-10.7905
▁నియోజకవర్గంలో	-10.7905
▁ఎవరూ	-10.7905
▁అంతటా	-10.7906
త్వము	-10.7907
▁నాలుగవ	-10.7907
▁విభాగాల	-10.7908
▁ఉమా	-10.7911
▁అంజయ్య	-10.7912
▁అలాంటి	-10.7913
▁నగరాలు	-10.7913
▁వింత	-10.7914
▁నిలబెట్ట	-10.7915
▁యూరోపియన్	-10.7916
కొక	-10.7916
▁విధానాన్ని	-10.7919
తుంటారు	-10.7919
ఫిబ్రవరి	-10.792
▁విశిష్ట	-10.7921
గుప్త	-10.7921
స్తుతి	-10.7921
▁బోధ	-10.7922
▁పోర్ట్	-10.7928
కన్నడ	-10.7928
తీర	-10.7928
▁ఎక్కి	-10.7936
▁చలి	-10.7937
వున్న	-10.7939
▁II	-10.794
▁నారాయణపేట	-10.7941
▁కొనసాగింద	-10.7942
▁మహల్	-10.7946
ng	-10.7955
▁సౌకర్యాల	-10.7958
▁తీర్మాన	-10.7962
▁ఇంట	-10.7966
▁ప్రచారంలో	-10.7969
▁ఆసియాలో	-10.797
▁కనపడ	-10.7972
▁ప్రేమించ	-10.7972
ావతి	-10.7975
▁త్ర	-10.798
కళా	-10.7983
ిస్తాయి	-10.7991
▁తమకు	-10.7996
▁నగరాల	-10.8001
500	-10.8011
▁కళల	-10.8012
▁101	-10.8015
వారీ	-10.8015
▁మనుషుల	-10.8018
▁తీవ్రవాద	-10.8022
రాజ్యం	-10.8025
▁మొట్టమొదట	-10.8025
▁పండ్ల	-10.8027
▁పునర్	-10.8028
▁శిర	-10.8028
లచే	-10.8028
వారిని	-10.8032
▁బ్ల	-10.8032
▁పడ్డ	-10.8035
▁తలెత్త	-10.8035
భారతి	-10.8038
▁లోపలి	-10.8039
్యత	-10.8042
▁అంశాలు	-10.8044
మవుతుంది	-10.8046
▁అనుసరించ	-10.8046
▁విభజించ	-10.8054
▁మాన్	-10.8054
▁మందిర	-10.8061
▁ఆవిష్కరించ	-10.8061
▁వీరబ్రహ్మేంద్ర	-10.8061
▁డెల్టా	-10.8061
▁శీర్షిక	-10.8061
▁ఇబ్బంది	-10.8061
▁నాందేడ్	-10.8061
▁ఐక్యరాజ్యసమితి	-10.8061
▁కూటమి	-10.8061
▁బ్లాక్	-10.8061
▁బ్రహ్మాండ	-10.8062
▁కళాకారిణి	-10.8062
▁గ్రీకు	-10.8062
▁పాదం	-10.8063
▁పిలిచి	-10.8063
▁అనువాదకుడు	-10.8063
▁ఉదయగిరి	-10.8064
వీటి	-10.8068
డెన్	-10.8069
-6	-10.8069
▁మంజూరు	-10.8071
▁నటించింది	-10.8073
▁సమకూర్చాడు	-10.8073
ున్నవి	-10.8074
▁భూభాగంలో	-10.8074
▁విభజించారు	-10.8075
▁గోడల	-10.8076
▁భాస్కర	-10.808
శ్యామ	-10.8082
▁పిచ్చి	-10.8082
▁తెలుపు	-10.8082
-10	-10.8084
▁భావించారు	-10.8086
▁విచారణ	-10.8086
▁సమాచారాన్ని	-10.8087
av	-10.8087
▁మొహ	-10.8088
పబ్లికేషన్స్	-10.8088
నిర్మాణ	-10.8089
జూన్	-10.8091
▁ఉంటుందని	-10.8091
▁మళ్ల	-10.8091
▁పాదాల	-10.8094
▁ఉంటా	-10.8095
▁రామా	-10.8096
▁పునర్నిర్మాణం	-10.8097
ోత్తర	-10.8098
వేళ	-10.8105
po	-10.8105
▁పెట్టింది	-10.8111
గోపుర	-10.8119
▁భావం	-10.812
▁నేనే	-10.8121
▁రోజులపాటు	-10.8122
▁భగవ	-10.8123
వోలు	-10.8127
▁చేసుకొ	-10.813
చార్	-10.8131
ుడని	-10.8134
ment	-10.8136
▁చీరాల	-10.8137
ురాలిగా	-10.8137
ింపు	-10.814
పన్న	-10.8142
▁దళాల	-10.8144
▁సామంతుల	-10.8144
సీమ	-10.8146
▁రక్ష	-10.8148
▁దివా	-10.8148
ప్రపంచవ్యాప్తంగా	-10.8151
▁పత్రికలు	-10.8166
▁వరలక్ష్మి	-10.8166
తద్వారా	-10.817
▁కృష్ణారావు	-10.8177
పట్ట	-10.8183
▁ఉద్దేశ	-10.8184
▁చెప్పడం	-10.8185
▁శ్ర	-10.8186
▁కారణ	-10.8187
నియన్	-10.8189
బద్ద	-10.8189
▁తెలియని	-10.8192
▁తొలిసారి	-10.8192
▁ఉత్తర్వు	-10.8193
▁97	-10.8199
రమణ	-10.8209
దట	-10.8212
▁పడకల	-10.8215
▁ముక్కు	-10.8221
ెల్	-10.8222
▁గండ	-10.8223
▁పనికి	-10.8225
▁దె	-10.8228
▁సమగ్ర	-10.8229
మాసం	-10.8229
▁నివసించే	-10.823
▁కల్వకుంట్ల	-10.8231
▁శ్రీకాళహస్తి	-10.8231
▁భైరవ	-10.8231
▁అదనంగా	-10.8231
▁గెలిచి	-10.8231
▁దీంతో	-10.8231
▁మహాభారతం	-10.8232
▁ఇద్దరి	-10.8232
▁శివరాత్రి	-10.8233
▁చెన్నారెడ్డి	-10.8233
▁అనురాగ	-10.8238
▁హసన్	-10.8239
▁180	-10.8239
▁బహుముఖ	-10.8242
▁విస్తృతంగా	-10.8246
▁వాని	-10.8247
▁కోడూరు	-10.8248
▁రచనలలో	-10.8248
▁వస్తాయి	-10.8252
నందు	-10.8254
▁?	-10.8256
ప్రాంతంలో	-10.8256
ాల్ని	-10.8256
▁పశువుల	-10.8256
▁నడిచే	-10.8259
ఈశ్వరి	-10.8262
తరువాత	-10.8262
▁ఊహ	-10.8263
▁గం	-10.8264
నరసింహారావు	-10.8265
▁గుంటూరులోను	-10.8268
▁అంతర	-10.8269
▁గూడ	-10.827
▁స్థలంలో	-10.8272
▁సైన్యాల	-10.8275
▁స్టార్	-10.8275
శిక్ష	-10.8275
▁నాగిరెడ్డి	-10.8276
▁బోస్	-10.8277
▁వ్ర	-10.8282
▁మంచు	-10.8283
▁నీకు	-10.8287
▁పేర్ల	-10.8292
ate	-10.8298
▁టెక్	-10.8301
▁చెరకు	-10.8301
ాలే	-10.8302
▁సింధూ	-10.8308
▁గాక	-10.8308
ry	-10.8309
నిధి	-10.8311
▁1939:	-10.8314
▁ఏళ్ల	-10.8314
▁కనబడ	-10.8315
కైనా	-10.8316
▁తప్పించ	-10.8319
ాపురంలో	-10.8326
▁విమర్శలు	-10.8326
కూర్	-10.8327
▁వీటికి	-10.8329
▁సైనికుల	-10.8337
చంద	-10.8341
▁అధికారుల	-10.8342
▁ముద్ద	-10.8344
▁గనుల	-10.8344
▁కొంగ	-10.8345
▁IS	-10.835
▁ఇష్ట	-10.8357
ట్ర	-10.836
రోజ	-10.8366
▁సహస్ర	-10.8366
▁గౌ	-10.837
▁ఏర్ప	-10.8374
ies	-10.8378
▁పెర	-10.838
▁తీగ	-10.8381
వేసి	-10.8381
▁అంజ	-10.8381
-13	-10.8382
▁కోట్లు	-10.8386
▁చిత్రాలకు	-10.8392
▁భుజ	-10.8393
▁భయ	-10.8393
దాత	-10.84
ిస్టు	-10.8401
.2017)	-10.8403
▁అభయారణ్యం	-10.8403
▁ఆయుర్వేద	-10.8403
▁ఇంగ్లాండు	-10.8403
▁తదుపరి	-10.8403
▁బాక్సాఫీస	-10.8403
▁కోనసీమ	-10.8403
.1920)	-10.8403
▁కాంతారావు	-10.8403
▁పొడవైన	-10.8403
▁భూకంపం	-10.8403
▁స్కూలు	-10.8403
▁కంభం	-10.8403
▁నాస్తిక	-10.8404
▁History	-10.8404
▁మరణానంతరం	-10.8404
▁సూక్ష్మ	-10.8404
▁సామర్థ్యం	-10.8404
▁స్వల్ప	-10.8404
▁వేములవాడ	-10.8404
▁రౌడీ	-10.8404
▁సభ్యునిగా	-10.8404
▁సెల్	-10.8405
▁నానా	-10.8409
▁అహ్మద్	-10.841
ంట్లో	-10.8413
▁ద్వీపాల	-10.8416
ాలంకార	-10.8416
▁బెల్	-10.8419
కపోతే	-10.842
▁అమ్మవారు	-10.8424
▁సముద్రమట్టాని	-10.8424
▁దేహ	-10.8425
▁పుణ్యక్షేత్రాలు	-10.8425
ంటున్న	-10.8426
▁పరిపాలనలో	-10.8427
▁భగవంతుడు	-10.8431
▁వార్తా	-10.8432
-14	-10.8434
అంత	-10.8434
▁మంగోల	-10.8435
▁దిశగా	-10.8435
సూర్య	-10.8438
▁ఇంక	-10.844
▁పొద	-10.844
ిగ్గా	-10.8441
ఆంగ్లం	-10.8441
▁అనాథ	-10.8443
లేదా	-10.8443
ండగా	-10.8447
▁ఉన్నప్పటికీ	-10.8449
▁చక్కగా	-10.8451
ుద్దీన్	-10.8452
పారిశ్రామికవేత్త	-10.8454
నెల	-10.8454
▁జప	-10.8456
▁శని	-10.8457
▁కొండపల్లి	-10.846
▁వదలి	-10.8467
▁కలిగే	-10.8469
రియల్	-10.8472
5,000	-10.8476
ువులు	-10.8477
▁జైలులో	-10.8483
రాజేంద్ర	-10.8484
▁గుమ్మ	-10.8485
1936)	-10.8485
▁మృ	-10.8489
▁యువత	-10.849
పడ్డాడు	-10.849
▁వంశీ	-10.8491
ine	-10.8501
▁పప్పు	-10.8502
▁దర్శి	-10.8509
▁నాటకాల	-10.8509
▁కొట్టు	-10.8509
▁సైన్య	-10.8517
కారు	-10.8517
▁మోట	-10.8517
▁చూశా	-10.852
▁ధ్యాన	-10.852
▁వృత్త	-10.8521
▁డాలర్ల	-10.8521
▁ప్రయోగం	-10.8523
దుర	-10.8524
ుడనే	-10.8528
ప్రభుత్వ	-10.853
నేటి	-10.8532
▁పాడే	-10.8542
▁నందు	-10.8545
డతారు	-10.8547
సత్యనారాయణ	-10.8548
▁చక్రం	-10.855
▁దండెత్తి	-10.8552
▁క్రీడ	-10.8554
▁చరిత్రను	-10.8559
కుండ	-10.856
▁మాసంలో	-10.856
న్నట్లు	-10.8562
▁89	-10.8564
▁ఏది	-10.8566
▁ప్రమాణాల	-10.8568
▁పర్వతం	-10.857
▁ప్రదేశము	-10.8571
▁నిర్వహించే	-10.8572
సుల	-10.8576
గలిగిన	-10.8577
.1928)	-10.8579
▁ఈస్టిండియా	-10.8579
▁ఎక్స్ప్రెస్	-10.8579
▁ఫ్రాన్స్	-10.8579
▁విటమిన్	-10.8579
▁చీకటి	-10.8579
▁థామస్	-10.8579
▁పరిష్కార	-10.8579
▁గమనిక	-10.8579
▁కాలక్రమేణ	-10.8579
▁తొలుత	-10.8579
▁బీజాపూర్	-10.8579
▁చైర్మన్	-10.8579
▁సంచిక	-10.8579
▁రూపాంతరం	-10.8579
▁అంతర్జాల	-10.858
▁బొగ్గు	-10.858
▁ఆకలి	-10.858
▁పరికరాల	-10.858
▁నిన్ను	-10.8582
▁లాగ	-10.8583
▁అనుకున్న	-10.8584
▁నిమిషాల	-10.8585
▁ఫోర్	-10.8586
▁వెండి	-10.8588
▁పేర్కొన్నాడు	-10.8588
▁దక్షిణాది	-10.8591
▁భూముల	-10.8593
కేంద్రం	-10.8593
▁వచ్చిందని	-10.8593
▁థ	-10.8593
▁పెంచడానికి	-10.8594
▁కాంగ్రేసు	-10.8594
యొ	-10.8602
ణ్ణ	-10.8603
▁మండపం	-10.8603
▁1950:	-10.8603
క్యూ	-10.8604
▁లేవ	-10.8604
▁160	-10.8605
▁దుస్తులు	-10.8606
▁ప్రచురించాడు	-10.8608
వాలి	-10.8608
▁మంత్రివర్గ	-10.8609
వరకూ	-10.861
▁నింద	-10.861
▁సమస్యలు	-10.8612
▁మత్స్య	-10.8617
▁రామరాయలు	-10.8621
▁అంశ	-10.8622
▁వెయ్యి	-10.8625
▁నృత్యాలు	-10.8627
▁స్నానం	-10.8628
▁గరి	-10.8629
ళా	-10.8631
▁ముస్లిములు	-10.8632
నదీ	-10.8632
▁దంత	-10.8635
▁మించి	-10.8637
▁రూపు	-10.864
కరంగా	-10.8641
▁కుంద	-10.8642
▁ఆస్తుల	-10.8642
▁కోటయ్య	-10.8644
▁దాడుల	-10.8644
▁సతీ	-10.8648
▁గంగాధర	-10.8648
భర	-10.8652
▁డిగ్రీల	-10.8654
మర్రి	-10.8659
▁నియంత్రించ	-10.8664
కాదు	-10.8669
▁స్ట్ర	-10.867
ానికై	-10.867
▁కొట్టి	-10.8674
▁శిఖర	-10.8677
▁మంచ	-10.868
▁విడుదలయ్య	-10.8684
▁వెళ్లే	-10.8692
వివేక	-10.8693
▁శరీరం	-10.8694
▁యుగము	-10.8696
▁శిల్పాలు	-10.8698
తోనూ	-10.8698
జీవ	-10.8704
▁సమావేశాల	-10.8706
ెద	-10.8706
▁అరబ్	-10.8708
▁వేదాల	-10.8708
▁పుణ్యక్షేత్రం	-10.8711
బండ	-10.8713
▁ప్రక్కన	-10.8716
900	-10.8716
▁చెబుతున్న	-10.872
▁వినియోగించ	-10.8723
▁జరిపిన	-10.8729
▁ఆర్థికంగా	-10.8729
▁ప్రేమించి	-10.8731
▁పాల్గొన్న	-10.8732
▁గుర్తుగా	-10.8733
▁వర్గాలు	-10.8734
భాషలో	-10.8734
గుట్ట	-10.8734
ప్రసాదరావు	-10.8735
▁స్వీకరించ	-10.8736
▁కేంద్రాన్ని	-10.8736
▁నదిని	-10.8741
నటి	-10.8743
కాండ	-10.8743
▁ఉండవచ్చు	-10.8743
▁కొల్ల	-10.8747
▁పెద్దలు	-10.8747
▁దొరికిన	-10.8748
▁సాహిత్యాన్ని	-10.8757
.2012)	-10.8757
▁తాత్కాలిక	-10.8757
▁నాగర్కర్నూల్	-10.8757
▁నూజివీడు	-10.8757
▁పరుచూరి	-10.8757
▁వసూలు	-10.8757
▁హాస్పిటల్	-10.8757
▁ఉత్సాహ	-10.8757
▁కేటాయించ	-10.8757
▁నామకరణం	-10.8757
▁కఠిన	-10.8757
▁సయ్యద్	-10.8757
▁సంకీర్తన	-10.8757
▁నెమలి	-10.8757
▁వెలుపల	-10.8758
▁నివారించ	-10.8758
▁నెలకొన్న	-10.8759
▁మిల్లు	-10.8759
▁ఆడపిల్ల	-10.8759
▁బెల్లం	-10.8759
భాగంలో	-10.8761
▁వేంగి	-10.8761
▁మెరుగు	-10.8762
▁భజన	-10.8763
▁వస్తుంటారు	-10.8764
▁మహారాజా	-10.8765
▁గాన	-10.8765
▁ఆర్య	-10.8766
▁జరిపించ	-10.8768
sh	-10.8768
▁1913	-10.8769
గ్రామం	-10.877
▁న్యూయార్క్	-10.8777
మున్	-10.8781
త్తుల	-10.8782
▁2006:	-10.8784
▁పరుగు	-10.8785
▁తొండ	-10.8789
▁భౌగోళికంగా	-10.879
▁వస్తే	-10.8792
పడింది	-10.8792
▁అమెరికాకు	-10.8792
▁సాధించారు	-10.8792
రాయ్	-10.8793
నీటి	-10.8795
http	-10.8798
కుటుంబ	-10.8798
▁పెరిగిన	-10.8799
షె	-10.8799
గ్రంథ	-10.88
ేటట్లు	-10.8804
సంపద	-10.8805
▁విశాలమైన	-10.8806
▁మండలాన్ని	-10.8806
▁తల్లిదండ్రులు	-10.8817
▁భార	-10.8818
▁ఇష్టం	-10.8821
▁గ్ర	-10.8822
▁లయ	-10.8822
▁శతాబ్ద	-10.8824
లనుండి	-10.8827
▁కుటుంబరావు	-10.883
విధానం	-10.8831
▁చిన్ని	-10.8835
వరము	-10.8836
▁బారి	-10.8839
ంబుల	-10.8841
▁శ్రీశైల	-10.8844
క్ష్య	-10.8846
▁శివలింగం	-10.8847
ెట్టి	-10.8849
నివ్వ	-10.8851
▁బీజ	-10.8857
రామయ్య	-10.8861
పడే	-10.8866
▁సర్వీసు	-10.8867
▁రాజకీయాల	-10.8874
▁పెరిగ	-10.8875
▁తిరగ	-10.8876
కట్టు	-10.8878
▁చివర	-10.8891
మణ	-10.8891
▁జగపతి	-10.8902
ుంటాయి	-10.8903
▁విభజించి	-10.8904
శత	-10.8904
రామచంద్రరావు	-10.8906
▁విశ్వనాధ	-10.8908
▁ఇంగ్లీషులో	-10.891
▁బహుశా	-10.8912
కొచ్చి	-10.8913
▁రామస్వామి	-10.8913
గిల్	-10.8915
▁చేయు	-10.8916
ాపక	-10.8917
▁అనేవారు	-10.8918
▁వివాదం	-10.8925
ot	-10.8926
దూరంలో	-10.8929
ౌతుంది	-10.8933
▁వాణి	-10.8933
పడ్డారు	-10.8938
▁మిర్యాలగూడ	-10.8939
▁కమ్యూనిస్ట్	-10.8939
▁కొనుగోలు	-10.8939
▁ఖైదీ	-10.8939
▁చారిత్రాత్మక	-10.8939
▁మునిసిపల్	-10.8939
▁వీరేశలింగం	-10.8939
▁వెబ్సైటు	-10.8939
▁వైకుంఠ	-10.8939
▁శీతాకాల	-10.8939
▁సన్నిహిత	-10.8939
▁హైస్కూల్	-10.8939
▁ఆవరణలో	-10.8939
▁ఒంటరి	-10.8939
▁కమిషన్	-10.8939
▁న్యాయమూర్తుల	-10.8939
▁మధ్యప్రదేశ్	-10.8939
▁విజేత	-10.8939
▁రీసెర్చ్	-10.8939
▁టర్కీ	-10.8939
▁తెలుస్తున్నది	-10.8939
▁ఆంగ్లేయుల	-10.8939
▁శుక్ర	-10.8941
▁నాటకకర్త	-10.8943
ుకుంటే	-10.8944
కుంటే	-10.8945
▁సూత్ర	-10.8945
▁యువరాజు	-10.8946
▁మార్చబడింది	-10.8946
▁గుండమ్మ	-10.8949
▁దుష్ట	-10.8949
▁సైటు	-10.8951
▁విడిపోయి	-10.8951
▁వేర్	-10.8952
▁క్షేత్రయ్య	-10.8952
▁కార్యాలయ	-10.8953
oc	-10.8953
▁బర్మా	-10.8954
▁అల్లరి	-10.8958
▁చల్లపల్లి	-10.8958
▁రఘునాథ	-10.8959
▁నాశనం	-10.896
▁ఇంకో	-10.8961
▁విమర్శకులు	-10.8964
దులు	-10.8965
▁బంగారం	-10.8968
ాభిషేకం	-10.8968
చేసే	-10.8969
▁వేగంగా	-10.8969
▁1890	-10.8969
▁మొత్త	-10.8977
▁కమల్	-10.8978
▁వేయి	-10.8979
ఊ	-10.8983
▁కూరగాయలు	-10.8987
స్వాతంత్ర్యోద్యమ	-10.8987
ట్టుగా	-10.8992
▁కార్యాలయాల	-10.8995
ియను	-10.8996
▁గోవు	-10.9001
▁హిందూపురం	-10.9002
▁వడ	-10.9006
▁జీత	-10.9006
▁దేవీ	-10.9007
▁తెలుసుకో	-10.9009
విశ్వ	-10.901
▁వేడుకలు	-10.9013
అన్న	-10.902
▁రాగి	-10.9032
▁దొరక	-10.9035
టమే	-10.9036
కునిగా	-10.9037
ెన్స్	-10.904
▁రమ్మ	-10.9041
రాయల	-10.9041
▁శక్తిని	-10.9044
ెక్కి	-10.9051
▁వెన్న	-10.9052
▁మోహ	-10.9052
▁రహ	-10.9054
to	-10.9054
చర్	-10.9059
భావం	-10.906
▁అక్షరాలు	-10.9062
ష్య	-10.9062
▁సదుపాయాలు	-10.9067
ud	-10.9071
▁సంగం	-10.9078
▁కంది	-10.9083
▁పుత్ర	-10.9089
▁జొన్న	-10.909
▁లేకపోవడం	-10.9093
▁సంపాదక	-10.9093
పురము	-10.9095
▁టో	-10.9098
▁మిక్కిలి	-10.9098
▁వెస్ట	-10.9099
▁నారాయణరెడ్డి	-10.9099
▁సమకూర్చ	-10.9099
▁ఉద్యోగుల	-10.9101
▁భాను	-10.9104
▁పాడు	-10.9105
▁ప్రొడక్షన్	-10.911
ుంటాడు	-10.911
▁కర్ణ	-10.9112
కోల్	-10.9115
▁శత్రు	-10.9118
▁93	-10.9119
నట్టు	-10.9119
▁చెల	-10.9121
▁కష్టం	-10.9122
.1924)	-10.9124
▁అంబేడ్కర్	-10.9124
▁ఇన్సులిన్	-10.9124
▁చక్కెర	-10.9124
▁పునర్య్వస్థీకరణ	-10.9124
▁ప్రోత్సాహ	-10.9124
▁మేనమామ	-10.9124
▁సమైక్య	-10.9124
▁స్టుడియో	-10.9124
▁హర్యానా	-10.9124
▁తిరస్కరించ	-10.9124
▁కస్తూరి	-10.9124
▁గోధుమ	-10.9124
▁అద్దె	-10.9124
▁గ్రేడ్	-10.9124
▁బెంగాలు	-10.9125
▁హనుమాన్	-10.9125
▁సాగునీటి	-10.9125
▁ప్రార్థించ	-10.9125
బార్	-10.9126
▁గరుడ	-10.9126
▁ప్రవర్తన	-10.9126
▁వైరస్	-10.9127
▁ప్రగతి	-10.9127
▁హాల్	-10.9128
▁సుత్తి	-10.9129
▁మూసీ	-10.9131
▁ఎవరో	-10.9131
▁భారతీయుల	-10.9132
లింగం	-10.9132
▁శక్తివంతమైన	-10.9133
▁విద్వాంసులు	-10.9134
▁సుమన్	-10.9134
▁పద్మభూషణ్	-10.9134
▁నీడ	-10.9135
▁గురుకుల	-10.9135
▁సంగతి	-10.9136
ంచారు	-10.9137
మిలి	-10.9139
▁రాధాకృష్ణన్	-10.9139
▁కథానాయక	-10.9141
▁పాఠకుల	-10.9141
▁విఫల	-10.9148
షియన్	-10.9151
▁చోటు	-10.9151
▁రంగాలలో	-10.9154
పడ్డ	-10.9155
▁తల్లికి	-10.9159
ge	-10.9165
▁భక్తుడు	-10.9166
▁వృద్ధ	-10.917
▁కేసులో	-10.9172
నిర్మాత	-10.9172
స్వరూప	-10.9173
విధంగా	-10.9173
నటుడు	-10.9173
సినిమా	-10.9174
ుకొన్నారు	-10.9174
▁re	-10.9175
రెండు	-10.918
▁గురై	-10.9181
▁రాజుగా	-10.9182
▁సందేశ	-10.9191
యుత	-10.9199
▁విగ్రహాలను	-10.92
▁కంఠ	-10.9201
▁యాగ	-10.9202
▁ఇవే	-10.9211
▁రమా	-10.9212
దూర్	-10.9212
▁గీతా	-10.9218
దీప	-10.922
▁రాధిక	-10.9221
రైన	-10.9223
జాత	-10.9223
ోద్యమంలో	-10.9226
▁వేడుక	-10.9227
▁చుట్ట	-10.9228
▁భూత	-10.923
▁రహదారుల	-10.9231
క్ష్మ	-10.9235
మండలి	-10.9237
సంగ	-10.924
▁థా	-10.924
▁చేయుట	-10.9242
▁రీతి	-10.9244
పడ్డాయి	-10.9251
▁1949:	-10.9252
▁is	-10.9254
▁కలిసే	-10.9257
సుకో	-10.9261
▁92	-10.9261
▁విడుదలై	-10.9263
▁ఉత్పత్తుల	-10.9263
▁కార్యకలాపాల	-10.9268
చిలుక	-10.9269
వెన్	-10.927
▁110	-10.927
▁(4	-10.9271
▁వంటకాల	-10.9271
దాకా	-10.9276
కట	-10.9277
పోవటం	-10.9281
▁భవ	-10.9282
▁ప్రతీక	-10.9285
యితే	-10.9288
ష్ణ	-10.9293
గౌడ	-10.9294
▁చంద్రుని	-10.9294
▁ఇష్టపడ	-10.9298
పరచి	-10.9301
ప్పుడే	-10.9302
▁మూత	-10.9303
▁మనము	-10.9306
పాండ	-10.931
▁ఉభయ	-10.9313
▁అత్యవసర	-10.9313
▁ఆధిక్యత	-10.9313
▁మెజారిటీ	-10.9313
సీఆర్డీఏ	-10.9313
▁అసోసియేషన్	-10.9313
▁కలెక్టరు	-10.9313
▁కిన్నెరసాని	-10.9313
▁నిజాయితీ	-10.9313
▁ప్యాసింజర్	-10.9313
▁వ్యవసాయాధారిత	-10.9313
▁సమకాలీన	-10.9313
▁సమర్పణ	-10.9313
▁సుదీర్ఘ	-10.9313
ార్ఖండ్	-10.9313
▁సాళువ	-10.9313
▁గురువారం	-10.9313
▁అర్హత	-10.9313
▁నివారణ	-10.9313
▁ఉగాది	-10.9314
▁దర్శకుడిగా	-10.9314
▁పనిచేస్తుంది	-10.9314
▁చెప్త	-10.9314
▁వంకాయ	-10.9314
▁కైలాస	-10.9314
▁రామకృష్ణారావు	-10.9314
▁ఖనిజ	-10.9315
▁గుర్రాల	-10.9315
▁సుభద్ర	-10.9316
▁కళలు	-10.9316
వాహన	-10.9318
▁మాచర్ల	-10.9319
▁ధర్మవరం	-10.9322
▁పర్వతాల	-10.9323
▁పోతుంది	-10.9324
▁సృష్టించింది	-10.9326
▁ముద్రించ	-10.9326
▁అనేకమంది	-10.9328
▁ఉపయోగించే	-10.9329
▁మంత్రివర్గంలో	-10.933
▁సరస	-10.9332
▁మండప	-10.9334
ండీస్	-10.9335
సాని	-10.9337
▁స్థాపించబడిన	-10.9338
▁తంగ	-10.934
▁ప్రాంతపు	-10.9341
▁రాజశేఖర్	-10.9343
రామచంద్ర	-10.9347
▁ప్రచురించారు	-10.9347
▁వాహన	-10.935
▁మాత	-10.9352
▁వేముల	-10.9356
ారాధన	-10.9359
చింది	-10.9362
▁వేప	-10.9362
▁యాదవ	-10.9363
తిరుపతి	-10.9364
▁వెయ్య	-10.9365
II	-10.9365
మడుగు	-10.9366
▁ఆదేశాల	-10.9369
▁దర్శక	-10.9369
▁వంశము	-10.937
గుర్	-10.9373
▁స్తంభాల	-10.9379
▁దర్శించి	-10.938
▁శతకం	-10.9381
మార్చి	-10.9381
▁నాటకరంగ	-10.9387
రిన్	-10.9387
స్తున్నాయి	-10.9388
▁ఛాయా	-10.9393
సత్య	-10.9396
నాటికి	-10.9396
▁99	-10.9396
స్థల	-10.9398
▁మీనా	-10.9401
▁పెను	-10.9401
▁కింగ్	-10.9405
▁బాటు	-10.9409
టిన్	-10.941
ara	-10.9412
▁భయంకర	-10.9416
నాడే	-10.9416
▁నిషేధించ	-10.9417
all	-10.9419
▁బలవంత	-10.9423
▁వేమ	-10.9423
▁ప్రచుర	-10.9429
▁బంగార	-10.9435
▁ప్రదేశాల	-10.9438
ence	-10.9438
▁ప్రదర్శనలు	-10.9442
▁ప్రమాదంలో	-10.9442
im	-10.9443
▁తయార	-10.9445
▁అన్నయ్య	-10.9446
▁సంస్కృతుల	-10.945
▁సంతతి	-10.9452
▁యుద్ధాలు	-10.9455
▁మాసం	-10.9456
▁వంతు	-10.9458
▁సమా	-10.9459
వటం	-10.946
▁ఎప్పుడు	-10.9461
రేషన్	-10.9462
చేశాడు	-10.9463
కుడిగా	-10.9463
▁కనిపించి	-10.9464
▁1981:	-10.9466
▁వాహనాల	-10.9469
▁ఎర్రన	-10.9472
▁పుచ్చ	-10.9483
▁నక్షత్రం	-10.9483
▁సముద్రము	-10.9484
యమ్	-10.9485
స్సా	-10.9489
ుండగా	-10.9494
క్షేత్రం	-10.9494
▁మేరీ	-10.9495
8%	-10.9503
▁శాసనసభకు	-10.9503
▁ఇతనికి	-10.9505
.2010)	-10.9505
▁చార్లెస్	-10.9505
▁ఛైర్మన్	-10.9505
▁జోసెఫ్	-10.9505
▁ద్వాదశ	-10.9505
▁వీడియో	-10.9505
▁రామబ్రహ్మం	-10.9505
▁పల్నాటి	-10.9505
▁భీష్మ	-10.9505
▁జార్జ్	-10.9505
▁నిపుణుడు	-10.9505
▁చేనేత	-10.9505
▁గ్రామాలను	-10.9505
▁వ్యూహ	-10.9505
▁నర్సాపూర్	-10.9506
▁ఒకటైన	-10.9506
హెన్రీ	-10.9506
▁సేకరణ	-10.9506
▁సర్దార్	-10.9506
▁1970:	-10.9507
▁రాజకీయనాయకుడు	-10.9507
ుకోవచ్చు	-10.9508
.2011)	-10.9509
▁దేవదాసు	-10.9509
▁అమలాపురం	-10.951
వర్త	-10.9511
▁ముస్లింలు	-10.9511
▁లక్ష్మీనారాయణ	-10.9512
▁పదవ	-10.9513
▁అయ్యప్ప	-10.9513
▁హనుమంతుడు	-10.9515
▁విఘ్నేశ్వర	-10.9515
▁1902	-10.9516
▁చేరుతుంది	-10.9516
▁మిషన్	-10.9516
హాస	-10.9517
తాయని	-10.9518
▁క్షణ	-10.9518
▁వుంటాయి	-10.9518
గట్టు	-10.952
▁మణిపూర్	-10.9521
▁విభ	-10.9522
▁ధర్మం	-10.9522
▁యోధులు	-10.9523
▁జరిపి	-10.9525
▁నవలలు	-10.9526
ింపజేస	-10.9526
▁ప్రారంభమైనది	-10.9526
కపోవడం	-10.9527
▁ఇస్తుంది	-10.9527
వ్వా	-10.9528
▁రూపము	-10.9529
ుతున్నది	-10.9531
దర్శకుడు	-10.9533
▁మాడ	-10.9534
▁పాలక	-10.9535
▁పవిత్రమైన	-10.9535
▁దొంగలు	-10.954
▁వచ్చినప్పుడు	-10.9544
▁సంతకం	-10.9545
వెళ్	-10.9549
▁ఆంగ్లంలో	-10.9552
▁కన్య	-10.9559
వ్యవస్థ	-10.9559
నిర్జన	-10.956
▁Ma	-10.9563
▁స్నేహం	-10.9563
▁అరి	-10.9566
శిల	-10.9567
▁చల్లని	-10.9571
▁కోరాడు	-10.9573
▁ఆవుల	-10.9574
ేశ్వరుడు	-10.9575
han	-10.9575
పత్రిక	-10.9578
▁మలి	-10.9579
▁గిరిజ	-10.9586
ెన్నో	-10.9587
▁ఉరి	-10.9588
▁అధికం	-10.959
▁కార్యక్రమాల	-10.9591
▁నగర్లో	-10.9593
▁లతా	-10.9593
▁వెలు	-10.9593
▁శిశువు	-10.9597
▁కొలను	-10.9603
▁అధ్యయన	-10.9605
▁విధానాలు	-10.9606
▁ఆలోచించ	-10.9606
▁పర్వతాలు	-10.961
▁శాఖా	-10.9613
▁వ్యక్తం	-10.9616
▁విశాఖపట్నంలో	-10.9616
▁ఆంజనేయస్వామి	-10.962
▁కరీంనగర్లో	-10.9623
▁అతనుకు	-10.9624
▁లాగా	-10.9629
పాణి	-10.9629
▁పద్యాల	-10.9631
▁ప్రాణం	-10.9641
లాగే	-10.9645
▁వివరాల	-10.9646
▁g	-10.965
▁పొంగ	-10.9651
▁ప్రాంతములో	-10.9651
▁1953:	-10.9652
▁రాత్ర	-10.9659
▁మీటర్లు	-10.9661
సర్వ	-10.9662
▁మనకి	-10.9668
గతి	-10.9671
మయ్యాయి	-10.9672
సౌ	-10.9672
దీప్	-10.9673
▁దేశాన్ని	-10.9675
పత్	-10.9676
ఖే	-10.9679
▁రోజును	-10.9685
▁సంవత్సరాలకు	-10.9689
స్థానంలో	-10.9689
▁పరిశోధనలు	-10.9691
▁బలం	-10.9691
▁సంవత్సరములు	-10.9697
▁స్టేడియం	-10.9701
.1922)	-10.9701
▁ఉత్తరప్రదేశ్	-10.9701
▁కంబైన్స్	-10.9701
▁రూపకల్పన	-10.9701
▁వ్యంగ్య	-10.9701
▁చావ్లా	-10.9701
▁తప్పనిసరి	-10.9701
▁పీఠభూమి	-10.9701
▁యజమాని	-10.9701
▁ప్రేరణ	-10.9701
▁విభిన్న	-10.9701
▁కొందరి	-10.9701
▁పాతాళ	-10.9701
▁ధర్మారావు	-10.9701
▁సరోజినీ	-10.9702
▁బహమనీ	-10.9702
▁విరివి	-10.9702
▁ఒకరోజు	-10.9702
▁బాంబే	-10.9703
రేఖ	-10.9703
రాయుడు	-10.9704
గలిగే	-10.9705
ాదరణ	-10.9705
.2014)	-10.9705
▁అసఫ్	-10.9706
రామచంద్రన్	-10.9707
▁మాస్కో	-10.9709
▁ఉండేదని	-10.9709
▁గ్రేట్	-10.971
▁ట్రై	-10.9711
ఫేర్	-10.9711
▁తోక	-10.9712
▁శాస్త్రవేత్తలు	-10.9713
▁టిప్పు	-10.9715
▁1989:	-10.9717
▁at	-10.972
▁పురపాలకసంఘంగా	-10.9721
▁మొగుడు	-10.9721
▁రాసాడు	-10.9721
▁సమర్థ	-10.9721
▁కనుగొన్నారు	-10.9721
▁అర్జున్	-10.9721
▁ప్రహ్లాద	-10.9725
వీడు	-10.9725
▁పరిపాలించారు	-10.9725
▁విజయవంతమైన	-10.9729
▁బదులుగా	-10.9732
▁సాగిన	-10.9733
▁టౌన్	-10.9734
▁పట్టాభిషేకం	-10.9736
▁దట్టమ	-10.9736
▁దేవాలయాన్ని	-10.9739
వడంతో	-10.9739
▁నిలుప	-10.9742
▁నాయిక	-10.9743
▁అధికరించ	-10.9744
▁ఎత్తి	-10.9747
▁అవశేషాలు	-10.9748
కారణ	-10.9759
▁సోదరులు	-10.9759
▁పలుకు	-10.9761
▁జనం	-10.9762
▁తుది	-10.9765
నాధ్	-10.9765
▁పదవిలో	-10.9766
▁ఒప్పించ	-10.9767
▁ఉపన్యాస	-10.9768
▁నీళ్ళు	-10.9769
ద్వా	-10.977
ండ్లు	-10.9771
పురా	-10.9773
▁కావ్యము	-10.9774
▁కపిల	-10.9776
▁116	-10.9777
▁వహిస్త	-10.9782
▁చు	-10.979
tic	-10.9791
▁కార్యదర్శిగా	-10.9794
▁ఇత	-10.9799
▁బుట్ట	-10.9803
▁పీఠం	-10.9804
▁సాగి	-10.9806
▁విశేషాలు	-10.9809
పత్ర	-10.9809
▁భీ	-10.9809
▁వెనక	-10.9814
▁పడతాడు	-10.9821
హె	-10.9828
▁ఆలయంలోని	-10.9831
కర్ణ	-10.9832
కొండూరు	-10.9835
ొకటి	-10.9837
▁సమావేశంలో	-10.9844
▁శాసనసభలో	-10.9846
ందలి	-10.9847
▁1905	-10.9862
▁మెచ్చ	-10.9864
వంతమైన	-10.9869
▁మైళ్ళ	-10.987
కంటి	-10.9872
మియా	-10.9872
▁లభించే	-10.9872
▁ఉన్నాయని	-10.9875
▁సంస్థానాధీశుల	-10.9876
▁కళాకారుల	-10.9877
▁ఫిలిం	-10.9887
▁వ్యక్తిగా	-10.989
▁సహకరించ	-10.9895
విద్యా	-10.9896
▁కనిపెట్ట	-10.9897
▁వేణుగోపాలస్వామి	-10.9899
చిన్న	-10.9899
.1931)	-10.9901
▁కందుకూరు	-10.9901
▁చిలకలూరిపేట	-10.9901
▁దుగ్గిరాల	-10.9901
▁పరిష్కరించ	-10.9901
▁భరద్వాజ	-10.9901
▁అయోధ్య	-10.9901
▁పీఠాధిపతి	-10.9901
▁బదిలీ	-10.9901
▁ఆజాద్	-10.9901
▁రజతోత్సవ	-10.9901
▁ఓడరేవు	-10.9902
▁కొల్లాపూర్	-10.9902
▁భవిష్యత్తు	-10.9902
▁గర్భగుడి	-10.9902
▁అంతర్గత	-10.9902
▁వ్రాత	-10.9902
▁భద్రాద్రి	-10.9903
▁ద్విపద	-10.9903
ేనని	-10.9904
▁కుతుబ్షా	-10.9905
▁వాడతారు	-10.9908
▁సంభవించిన	-10.9909
ప్రస్తుత	-10.9911
▁పెక్కు	-10.9912
▁కావాలి	-10.9913
▁ప్రతాప్	-10.9913
▁విద్యాసాగర్	-10.9913
▁అప్పుడే	-10.9915
▁ఉల్	-10.9917
▁సుందరయ్య	-10.9919
ాచార్యుడు	-10.992
▁తడి	-10.9923
ాలన్నీ	-10.9925
ఘట్ట	-10.9925
▁మహాకవి	-10.9925
▁ఉచితంగా	-10.9926
▁ఐటీ	-10.9928
▁నడిపి	-10.9928
▁మురళీ	-10.9929
ెస్ట్	-10.9929
▁సమరయోధులు	-10.993
▁మునిగి	-10.9935
బోధ	-10.9936
▁కృష్ణుని	-10.9936
▁అగు	-10.9938
▁మకర	-10.9939
▁శ్రీరాముడు	-10.9939
▁ఆంగ్లో	-10.9941
▁కట్టిన	-10.9944
▁ప్రతిబింబ	-10.9948
చుకో	-10.9949
▁సీతను	-10.9951
▁వ్యా	-10.9952
▁ఇంకొక	-10.9953
▁కుంభ	-10.9953
▁నిత్యం	-10.9954
▁అంక	-10.9954
ృష్ట	-10.9957
▁పోషించిన	-10.9957
▁ఆనందం	-10.996
▁పండ్లు	-10.9963
pp	-10.9965
▁జగన్నాథ	-10.9965
▁1928:	-10.9967
ప్రతిష్ఠ	-10.9967
▁వ్యవహారాల	-10.9968
స్ధ	-10.9968
▁1925:	-10.997
య్యింది	-10.9975
▁మహేంద్ర	-10.9975
రాత్రి	-10.9977
▁ట్రా	-10.9986
▁తీర్మానం	-10.999
▁కోపం	-10.9991
▁సంపుటి	-10.9996
▁పదవుల	-10.9997
సిల్	-11.0001
యొక్క	-11.0005
ell	-11.0016
భరిత	-11.0017
పురుగు	-11.0019
చారి	-11.0022
వృత్తి	-11.0024
▁వరంగల్లు	-11.0027
త్తున	-11.0029
▁విశిష్టమైన	-11.0029
▁కర్మాగారం	-11.0031
▁యేట	-11.0035
▁జమున	-11.0036
▁మెట్ల	-11.0037
▁టూ	-11.0042
బ్ధ	-11.0046
చ్చె	-11.0048
▁సేవకు	-11.0053
▁వాల్	-11.0053
రోగ	-11.0053
▁జాగ్రత్త	-11.0056
ులయ్యారు	-11.006
ala	-11.006
▁బేత	-11.0068
▁అసమాన	-11.0071
గలదు	-11.0073
▁న్యాయం	-11.0073
▁సంగీతాన్ని	-11.0073
త్వానికి	-11.0088
▁కుటుంబాలు	-11.0088
▁రంగనాథ	-11.0089
▁పెట్టే	-11.009
▁మూలంగా	-11.0093
▁భిన్న	-11.0095
▁1977:	-11.0096
ఖ్యాత	-11.01
▁తాక	-11.0101
▁పాయ	-11.0103
▁తీరం	-11.0104
archive	-11.0105
▁ఇతిహాస	-11.0105
▁గొర్రె	-11.0105
▁గోంగూర	-11.0105
▁నిరంకుశ	-11.0105
▁ప్రాజెక్ట్	-11.0105
▁మున్సిపాలిటీ	-11.0105
▁వెళుతుంది	-11.0105
▁రీమేక్	-11.0105
▁తీశారు	-11.0105
▁అస్సామీ	-11.0105
▁ఇటలీ	-11.0105
▁పరస్పర	-11.0105
▁వాసిరెడ్డి	-11.0105
▁సెలవు	-11.0106
▁దసరా	-11.0106
▁ఎగువ	-11.0106
▁మౌలిక	-11.0106
▁సుధాకర్	-11.0106
▁జనార్ధన	-11.0106
▁భువనచంద్ర	-11.0106
▁పరిరక్షణ	-11.0106
▁విజయశాంతి	-11.0107
▁విభజించబడింది	-11.0108
▁తరచూ	-11.0108
▁నాగుల	-11.0109
▁ఆదరించ	-11.0109
▁ప్రదానం	-11.0109
గలిగి	-11.0111
▁అందించే	-11.0112
▁ఉప్పల	-11.0113
ంగో	-11.0118
▁రాజశ్రీ	-11.0119
▁రోజా	-11.0121
▁స్వీకరించారు	-11.0123
భట్ట	-11.0125
▁సాయంతో	-11.0127
▁మేడ	-11.013
ేసారి	-11.0131
▁పాక్	-11.0132
▁సాధ్యమ	-11.0133
▁భీమన్న	-11.0137
▁భూపాలపల్లి	-11.0138
▁అన్నదానం	-11.014
ప్రజల	-11.0141
యోగ్య	-11.0144
▁గుర్తించిన	-11.0149
▁1992:	-11.0151
▁కలియుగ	-11.0151
▁వాహనం	-11.0152
▁శశి	-11.0152
▁మూగ	-11.0153
▁ప్రెస్	-11.0156
▁మొట్ట	-11.016
▁యుద్ధాల	-11.0166
▁తరం	-11.0167
▁చేయాలి	-11.0168
సంబంధ	-11.0169
దీనిని	-11.0175
▁అక్షరాల	-11.0181
▁గోర	-11.0181
▁పచ్చని	-11.0187
ుకోవటం	-11.0188
▁సంవత్సరాలుగా	-11.0189
ts	-11.0189
▁చెట్ల	-11.0192
▁సేకరించి	-11.0194
per	-11.0196
▁చెప్పింది	-11.0198
ేసాడు	-11.0204
పరిచి	-11.0206
▁సింధ	-11.021
బడతాయి	-11.0212
▁పొగ	-11.0212
▁అంతటి	-11.0214
తంత్ర	-11.0214
▁బ్రతుకు	-11.0215
ita	-11.0215
▁ప్రారంభమై	-11.0223
▁కాకతీయులు	-11.0227
ంపూడి	-11.023
▁గోన	-11.0234
▁పట్	-11.0236
▁పోషక	-11.024
▁ఐక్య	-11.0241
టివ్	-11.0241
▁రంగనాయక	-11.0242
▁(6	-11.0245
▁అవతారాల	-11.0246
అని	-11.0252
▁మంచిది	-11.0255
▁ధరించిన	-11.0257
▁సమయంలోనే	-11.0268
▁పూర్తయి	-11.0268
ంధ్ర	-11.0268
▁చరిత్రకారుల	-11.0269
▁చూసే	-11.027
▁చేయవచ్చు	-11.0274
▁విమర్శించ	-11.0275
▁అంతగా	-11.0275
▁పొట్ట	-11.0276
▁ప్రవాహం	-11.0277
▁శివారు	-11.0281
vi	-11.0285
▁1979:	-11.0286
▁ఇవ్వడం	-11.0291
డక	-11.0294
▁జ్యోతిష	-11.0295
▁ప్రెసిడెన్సీలో	-11.0298
▁దీన	-11.03
డూరు	-11.0304
▁ఆప్	-11.0304
▁హనుమ	-11.0305
▁ప్రసాదించ	-11.0305
▁పోరాడి	-11.031
▁కన్నె	-11.0312
పద్మనాభ	-11.0313
▁మంగళవారం	-11.0313
▁జగన్నాధ	-11.0314
▁విపరీత	-11.0314
.1908)	-11.0314
.2006)	-11.0314
▁ఓరుగల్లు	-11.0314
▁కవయిత్రి	-11.0314
▁జమ్మలమడుగు	-11.0314
▁యలమంచిలి	-11.0314
▁వేర్వేరు	-11.0314
▁స్వీకారం	-11.0314
▁తరఫు	-11.0314
▁నలుమూలల	-11.0314
▁ఆచంట	-11.0314
▁చక్రవర్తుల	-11.0314
▁నిరసన	-11.0314
▁వెనక్కి	-11.0314
▁తపాలా	-11.0314
▁ఉస్మానియా	-11.0314
▁హోటల్	-11.0314
▁వినుకొండ	-11.0314
▁తిరుగుతూ	-11.0314
▁0-6	-11.0314
▁గొల్లపూడి	-11.0315
▁గొంతు	-11.0315
▁సురవరం	-11.0315
▁వెంకటరమణ	-11.0316
▁కొండవీటి	-11.0316
▁పార్వతీపురం	-11.0318
▁చేస్తుంటారు	-11.0318
▁రోమన్	-11.0318
▁పోగొట్ట	-11.032
▁అవకాశాలు	-11.0322
▁సుబ్బయ్య	-11.0324
▁వాస్తు	-11.0324
▁దగ్గు	-11.0324
ారట	-11.0324
▁చెపుత	-11.0325
▁గణేశన్	-11.0331
▁బాలా	-11.0334
ph	-11.0335
▁ఉపాధ్యాయుడు	-11.0337
▁శ్రీకృష్ణుడు	-11.0337
▁కూర్చిన	-11.0338
ావళి	-11.0339
▁మాయాబజార్	-11.0339
▁చింతపల్లి	-11.034
▁కథకుడు	-11.0342
▁అద్దంకి	-11.0342
▁చేరుకుంట	-11.0344
▁అంతం	-11.0344
మయింది	-11.0348
కవుల	-11.0352
స్థుల	-11.0357
▁సేకరించ	-11.036
చిత్త	-11.0361
▁శిల్పం	-11.0363
▁మరొకటి	-11.0366
ిచ్చి	-11.0366
▁ఆయుధాలు	-11.0368
▁రావడంతో	-11.0369
బట్ట	-11.0373
▁సిద్ధాంతాల	-11.0373
▁125	-11.0376
▁కార్యక్రమాలను	-11.0377
▁1924:	-11.0379
పర్య	-11.0379
▁అడగ	-11.0381
▁మాఘ	-11.0382
||	-11.0385
గృహ	-11.0386
కొడుకు	-11.0386
▁మనువు	-11.0389
దంతా	-11.0394
దూర	-11.0396
▁దిగువన	-11.0396
▁నామం	-11.04
▁ఉద	-11.0402
ుకోవాలని	-11.0402
ni	-11.0404
▁సంస్కరణలు	-11.0407
▁నక్క	-11.0411
▁రావణ	-11.0412
▁చర్యలు	-11.0412
తడు	-11.0416
యమ్మ	-11.0421
▁de	-11.0422
▁వ్రత	-11.0426
▁ఇరాన్లో	-11.0426
ాధ్యాయ	-11.0427
లెస్	-11.0428
▁పక్షుల	-11.0432
కారము	-11.0434
pa	-11.0436
▁కరి	-11.0437
▁మార్పుల	-11.044
▁సన్యాస	-11.0443
▁బేర	-11.0444
▁130	-11.0447
▁మహాదేవ	-11.0449
▁పొన్న	-11.0451
ందరికీ	-11.0461
▁ఆకులు	-11.0463
బడినవి	-11.0468
స్టీ	-11.0469
రీస్	-11.0471
ానిక	-11.0471
▁1966:	-11.0473
ేశారు	-11.0474
▁విజయవంతం	-11.0477
కౌ	-11.048
▁పాండురంగ	-11.048
▁వీరిని	-11.0484
▁సంబంధాల	-11.0484
▁అధీనంలో	-11.0489
▁మహాత్మ	-11.0501
▁140	-11.0504
ుచున్నవి	-11.0511
▁కాలేజీలో	-11.0513
శాంతి	-11.0513
▁కావు	-11.0513
▁బయలుదేరి	-11.0514
▁ఖమ్మంలో	-11.0515
▁గణనీయ	-11.0515
▁కాళి	-11.0518
▁ప్రాజెక్టులు	-11.0521
▁సముద్రతీర	-11.0522
▁శిల్పి	-11.0524
▁జ్ఞాపక	-11.0526
▁నిరాకరించ	-11.0526
▁పునరుద్ధరణ	-11.0526
▁వేరుశనగ	-11.0526
▁ఘర్షణ	-11.0526
▁టెన్నిస్	-11.0526
▁కచేరీ	-11.0527
▁ప్రతాపరుద్ర	-11.0527
▁వెలువరించ	-11.0527
▁నిర్ధారించ	-11.0527
▁బందరు	-11.0527
▁జారీచేసింది	-11.0527
▁కాగిత	-11.0527
▁చమురు	-11.0527
శృంగ	-11.0527
▁దర్శకునిగా	-11.0527
▁ద్రవిడ	-11.0528
▁మలుపు	-11.0528
▁జబ్బు	-11.0528
నెల్సన్	-11.0528
రీత్యా	-11.0529
గమన	-11.0529
▁తెస్తూ	-11.053
▁సినీనటి	-11.053
▁అనబడే	-11.053
▁పర్యవేక్షణ	-11.053
▁రాజేశ్వరి	-11.053
మాల్	-11.053
▁హాసన్	-11.0531
▁శ్లోకం	-11.0531
▁సువర్ణ	-11.0532
▁అభిషేకాలు	-11.0532
▁నిలిచాయి	-11.0532
▁సంజీవయ్య	-11.0534
op	-11.0534
▁ఏర్పాటుచేసిన	-11.0535
▁గుర్తించబడింది	-11.0536
▁కలుగుతుంది	-11.0539
▁అయిదు	-11.054
▁మహాలక్ష్మి	-11.0541
▁చిత్రీకరించారు	-11.0541
▁చంద్రగిరి	-11.0541
▁వామన	-11.0544
▁రౌ	-11.0545
▁పాఠ్య	-11.0548
స్టేషన	-11.0549
▁1857	-11.0552
యుండును	-11.0552
▁త్యాగరాజు	-11.0554
▁ఆంజనేయులు	-11.0554
▁సమాధానం	-11.0557
▁స్టూడియోస్	-11.0559
▁1896	-11.0561
est	-11.0563
▁కట్టడాలు	-11.0565
▁విస్తృత	-11.0569
▁ఉత్తర్వులు	-11.0575
▁నారా	-11.0578
▁తై	-11.0579
▁ఉండేలా	-11.0579
▁పంపి	-11.0582
▁ప్రతిభా	-11.0582
▁వస్త్రాలు	-11.0583
▁మిల్లులు	-11.0589
▁ఉద్యమానికి	-11.0589
▁మనుషులు	-11.059
ాగ్ని	-11.0591
▁అచ్చు	-11.0593
▁అవతారము	-11.0594
▁కాపురం	-11.0596
▁వెలువడ	-11.0598
▁వస్తూ	-11.0598
▁నుంచీ	-11.0599
ాడో	-11.06
▁దళాలు	-11.0603
తీర్	-11.0604
పథ	-11.0617
▁మానవుల	-11.0621
▁పాలనకు	-11.0621
మోహనరావు	-11.0626
▁ఇటీవలి	-11.0629
▁చెందుతున్న	-11.0631
▁తగ	-11.0632
▁రాజమండ్రిలో	-11.0634
రింగ్	-11.0634
దొర	-11.0635
పోతారు	-11.0637
▁పస	-11.0637
▁హాయి	-11.0639
▁నరసింహస్వామి	-11.0644
2005)	-11.0645
▁1957:	-11.0647
▁పంపిన	-11.0653
▁వైపున	-11.0656
దైవ	-11.0656
▁శ్రీధర్	-11.0658
సిద్ధి	-11.0659
▁ఉగ్ర	-11.0659
▁వినయ	-11.0665
పురుషుల	-11.0665
▁ముంద	-11.0666
▁కేంద్రానికి	-11.0666
▁సైనికులు	-11.0668
▁Dr	-11.0673
▁వరం	-11.0674
మండ్	-11.0675
ఱు	-11.0682
und	-11.0684
▁శతాబ్ధ	-11.0684
▁నిజంగా	-11.0687
▁1895	-11.0687
▁106	-11.0692
▁విద్యాలయం	-11.0694
దై	-11.0695
▁కట్టడం	-11.07
▁సద	-11.0702
▁సైన్యము	-11.0702
▁నిలబడి	-11.0718
▁కుటుంబాల	-11.0718
▁అరణ్యాల	-11.0722
▁1978:	-11.0722
▁వైభవ	-11.0723
▁బల్ల	-11.0725
▁జాతీయోద్యమ	-11.0728
-17	-11.0731
వ్యాప్త	-11.0733
▁పైడి	-11.0743
▁సినిమాలోని	-11.0743
ఱ్ఱ	-11.0744
▁ఇంజనీర్	-11.0744
▁కౌన్సిల్	-11.0744
▁చిక్మగళూరు	-11.0744
▁చొప్పున	-11.0744
▁నిడదవోలు	-11.0744
▁ఫ్యాక్టరీ	-11.0744
▁యాజమాన్య	-11.0744
▁ఊళ్ళో	-11.0744
▁ఋషుల	-11.0744
▁నైరుతి	-11.0744
▁విస్తారంగా	-11.0744
▁చండీగఢ్	-11.0744
▁కెరీర్	-11.0744
▁అందుకని	-11.0744
▁కోనేరు	-11.0744
▁కలయిక	-11.0744
▁యాత్రాచరిత్ర	-11.0744
▁జరప	-11.0744
▁నిర్మాణాలు	-11.0745
▁అంతేకాక	-11.0745
▁సొమ్ము	-11.0745
▁ప్రతాపరెడ్డి	-11.0745
▁వాణిశ్రీ	-11.0745
▁యాక్షన్	-11.0745
▁నేపాలీ	-11.0746
▁వర్ధిల్ల	-11.0746
▁లింకు	-11.0746
▁ప్రాకృత	-11.0747
▁చంద్రమోహన్	-11.0747
ద్వేష	-11.0747
▁శ్యామల	-11.0747
▁ప్రదక్షిణ	-11.0748
▁వెంకటాద్రి	-11.0749
▁జమ్ము	-11.0751
▁వాణీ	-11.0751
▁నిరంతరం	-11.0752
▁తొలగించి	-11.0752
▁పాండవుల	-11.0754
▁అర్జునుడు	-11.0754
సిద్ధ	-11.0755
▁అబ్బాయి	-11.0755
▁రామన్న	-11.0756
జన్మ	-11.0757
▁పావు	-11.0758
▁గౌడ్	-11.076
▁కల్లూరు	-11.0762
▁పడింది	-11.0764
▁విచిత్ర	-11.0764
క్రియ	-11.0767
ప్పటికి	-11.0768
ద్దామ	-11.0768
▁1,0	-11.0771
▁చెందాయి	-11.0772
▁ఇవన్న	-11.0774
▁తీసుకున్నారు	-11.0774
▁వర్షాలు	-11.0777
▁సముద్రపు	-11.0777
▁రాకుండా	-11.0778
▁సరుకు	-11.0778
▁వికాస	-11.0781
▁బౌ	-11.0782
▁వేసింది	-11.0783
▁రూపొందించారు	-11.0784
పాళ	-11.079
▁కోసమ	-11.079
▁బజారు	-11.079
▁ఓడిపోయి	-11.0799
▁నిర్వహించబడుతు	-11.08
▁బాంబు	-11.08
▁కావ్యాల	-11.0801
▁పద్యము	-11.0804
▁పేరుగల	-11.0807
▁నందన	-11.0809
▁నొక్క	-11.0813
▁సినిమాలకు	-11.0813
▁గెలుచుకు	-11.0813
▁సంస్కరణల	-11.0815
▁గావించ	-11.0815
లాట	-11.0815
▁కీర్తనలు	-11.0817
▁కోప	-11.0819
రాఘవ	-11.0819
యంత్ర	-11.082
3%	-11.0822
▁కర్మాగార	-11.0824
సూచి	-11.0825
▁అట్టి	-11.0827
▁గర్వ	-11.0828
▁డిస్క	-11.0835
▁అందుకున్న	-11.0838
▁చెయ్యడం	-11.084
▁వక్త	-11.0845
▁రాఘవేంద్రరావు	-11.0845
▁సంఘాల	-11.0849
▁పదాన్ని	-11.085
▁సమస్యలను	-11.0851
స్త్రీ	-11.0853
▁అనుగ్రహ	-11.0854
har	-11.0857
▁అర్జున	-11.0857
▁పూర్తిచేస	-11.0858
పంతుల	-11.0859
▁హక్కు	-11.0863
▁పుష్కర	-11.0866
▁స్థానాలు	-11.0867
▁పంటల	-11.0867
▁విశ్వవిద్యాలయాల	-11.0868
art	-11.0872
ya	-11.0877
శాయి	-11.088
ఫిల్	-11.0883
▁చాలు	-11.0903
ొచ్చి	-11.0904
▁తోడ	-11.0907
ింపబడిన	-11.0911
▁రాధా	-11.0913
▁శిథిలాల	-11.0914
▁దేవరాయ	-11.0918
▁రామరాయల	-11.0919
ందువలన	-11.0922
▁ప్రముఖమైన	-11.093
▁వండ	-11.0933
▁కోరి	-11.0934
▁చందన	-11.0942
▁కుటుంబాన్ని	-11.0943
▁అంతర్జాతీయంగా	-11.0945
ho	-11.0945
▁వ్యయం	-11.0947
▁వేణుగోపాల	-11.0947
▁స్నేహితుల	-11.0947
శిష్య	-11.0952
▁సంభవించ	-11.0953
▁ప్రశంసించ	-11.0957
వ్యాఖ్య	-11.0958
రేవు	-11.0959
%),	-11.0961
▁అనారోగ్య	-11.0964
▁కాల్చి	-11.0965
▁చైర్	-11.0965
▁మిరప	-11.0966
.1925)	-11.0966
.1927)	-11.0966
▁అధిగమించ	-11.0966
▁ఆనవాయితీ	-11.0966
▁డెవలప్మెంట్	-11.0966
▁దక్షిణాఫ్రికా	-11.0966
▁దుఃఖ	-11.0966
▁నాదెండ్ల	-11.0966
▁బాలీవుడ్	-11.0966
▁వియత్నాం	-11.0966
▁అంతర్వేది	-11.0966
▁ముఖర్జీ	-11.0966
▁లచ్చన్న	-11.0966
▁సిరిసిల్ల	-11.0966
▁పెడన	-11.0966
▁జాలాది	-11.0966
▁సత్యభామ	-11.0966
▁ఇందిరాగాంధీ	-11.0966
▁క్రీడాకారిణి	-11.0966
▁తరగతుల	-11.0966
▁మృత్యు	-11.0966
▁తులసి	-11.0967
▁కోర్సు	-11.0967
▁ఎవరైనా	-11.0967
▁సురేంద్ర	-11.0967
▁మాత్రము	-11.0967
▁జనగామ	-11.0967
▁దర్శనీయ	-11.0967
▁మతపరమైన	-11.0968
▁ప్రచురణకర్త	-11.0968
▁పండిస్తారు	-11.0968
▁కొండవీడు	-11.0969
▁మూడ	-11.0972
▁విడుదలయ్యింది	-11.0974
▁కాఫీ	-11.0975
ర్హ	-11.0975
▁శుభ్ర	-11.0977
▁రావణుడు	-11.0977
▁తప్పకుండా	-11.0979
▁బలవంతంగా	-11.0979
▁యుక్త	-11.0983
▁సాంబశివరావు	-11.0984
▁మేజర్	-11.0984
▁వెలుగులో	-11.0985
▁మంత్రం	-11.0989
▁ముక్కలు	-11.0991
▁కారణాలు	-11.0992
▁దత్తత	-11.0992
▁1889	-11.0992
▁ఎన్నికైనారు	-11.0994
ొకరు	-11.0995
▁భారతదేశములో	-11.0996
▁నాట్యం	-11.1002
go	-11.1002
జియా	-11.1005
▁చెడు	-11.1005
▁లేఖ	-11.1006
పంట	-11.1007
▁పుట్టింది	-11.1007
▁సహజంగా	-11.1012
▁ఉండటంతో	-11.1015
▁ఓట్ల	-11.1016
డయా	-11.1018
▁కీరవాణి	-11.1019
▁కష్టాలు	-11.1025
▁జాబితాలో	-11.1026
జై	-11.1028
ధ్ర	-11.1031
▁వెచ్చ	-11.1034
కపోవడంతో	-11.1041
▁నడవ	-11.1046
▁జ్ఞానం	-11.1047
రక్షణ	-11.1051
▁ప్రపంచములో	-11.1051
▁వల్లూరు	-11.1051
▁క్షీణించ	-11.1054
▁తాడి	-11.1058
చోట్ల	-11.1059
చెట్టు	-11.1061
▁స్నాన	-11.1064
▁అల్ప	-11.1065
▁con	-11.1065
▁ఆర్మీ	-11.1067
▁వున్నది	-11.1069
▁గదులు	-11.1072
చెర్ల	-11.1073
రంభ	-11.1074
ity	-11.1075
▁వాద్య	-11.1078
▁హృదయం	-11.1078
▁నిప్పు	-11.1078
▁ఒకదాని	-11.1079
సుందరి	-11.108
▁దొంగల	-11.1085
▁స్థితిలో	-11.1086
▁వేశారు	-11.1087
▁కేత	-11.1087
▁వదల	-11.1089
▁చేపలు	-11.1092
సభ్య	-11.1093
▁బట్ట	-11.1094
▁సిద్ధాంతం	-11.1096
▁పెట్టుబడి	-11.1097
▁అల్లా	-11.1111
పురుష	-11.1113
▁అవు	-11.1113
వర్గం	-11.1116
లాడే	-11.1117
▁సన్నివేశాల	-11.112
▁1925	-11.1127
▁సైట్	-11.1129
▁పోష	-11.1131
ుడగు	-11.1136
▁నింప	-11.1144
▁దళం	-11.1147
రావ్	-11.1147
పోతాడు	-11.1152
▁ఆర్యభట్ట	-11.1153
▁అమ్మాయిని	-11.1156
యోగి	-11.1158
▁బ్లాగ	-11.1159
▁మొక్కల	-11.1159
▁ముత్త	-11.1159
▁పత్రికను	-11.1159
▁గుహల	-11.1163
▁పౌ	-11.1167
నాథుని	-11.1169
గల్లు	-11.1173
▁చిత్రీకరించ	-11.1175
▁ఫ్ల	-11.1175
స్తి	-11.1177
▁శవ	-11.1178
?)	-11.1179
▁వధ	-11.1181
▁ప్రతిమ	-11.1182
-11	-11.1185
▁ముఖ్యపాత్ర	-11.1193
▁పులివెందుల	-11.1193
▁యాదాద్రి	-11.1193
▁రుక్మిణీ	-11.1193
▁సందర్శకుల	-11.1193
▁ఒడిశా	-11.1193
▁పునరుద్ధరించ	-11.1193
▁నిర్మూలన	-11.1193
▁నెంబరు	-11.1193
▁దక్షిణాసియా	-11.1193
▁ఆక్రమణ	-11.1193
▁హయాంలో	-11.1193
▁త్వరలో	-11.1193
▁ఎడారి	-11.1193
▁చవితి	-11.1194
▁నౌకాశ్రయ	-11.1194
విఠలాచార్య	-11.1194
▁విశ్రాంతి	-11.1194
▁రాష్ట్రకూటుల	-11.1194
▁తిమ్మాపూర్	-11.1194
▁రామానాయుడు	-11.1194
▁త్రిపురనేని	-11.1194
▁పచ్చి	-11.1195
కొద్దీ	-11.1195
▁స్వచ్ఛంద	-11.1195
▁ఆత్మకథ	-11.1196
▁సీతారాం	-11.1196
ండేది	-11.1196
▁డయాబెటిస్	-11.1196
▁పట్టాభి	-11.1196
▁ధ్వజస్తంభ	-11.1197
▁మల్లాది	-11.1197
▁సేవల	-11.1197
▁ఉద్భవించింది	-11.1198
▁పీటర్	-11.1198
▁ముగిసింది	-11.1198
▁కిరణ్	-11.1198
▁ప్రతినిధి	-11.1198
▁సముద్రతీరం	-11.12
▁అమె	-11.12
▁శ్రీకృష్ణదేవరాయ	-11.1205
సెంట్	-11.1207
▁మేళ	-11.1207
▁వినియోగదారుల	-11.1207
▁జన్మించింది	-11.1208
▁ఇస్తాడు	-11.1209
లింగేశ్వర	-11.121
▁కృష్ణమాచార్య	-11.121
▁ప్రెసిడెన్సీ	-11.1211
▁వెంకన్న	-11.1211
▁వాయువు	-11.1211
▁గ్రామస్తుల	-11.1213
▁ఇంటర్	-11.1214
▁చేసేవాడు	-11.1216
గజ	-11.1216
ana	-11.1217
▁గుంట	-11.1219
▁ఫ్రీ	-11.1221
▁చిక్కుడు	-11.1222
▁క్రైస్తవులు	-11.1223
▁భలే	-11.1224
▁పూస	-11.1224
▁వాటా	-11.1224
▁గోదా	-11.1227
వయ్యా	-11.1229
▁అందుకుంది	-11.1229
▁మొదలై	-11.123
▁కృష్ణదేవరాయలు	-11.1241
ఉన్న	-11.1241
▁కపూర్	-11.1245
కాలపు	-11.1248
▁ఉత్పత్తులు	-11.1254
1983)	-11.1255
పట్టు	-11.1255
▁1927:	-11.1266
▁రాజైన	-11.1272
▁ఉన్నట్టు	-11.1274
ించబడింది	-11.1276
▁వెళ్ళారు	-11.1276
▁పోయే	-11.1276
జ్యోతి	-11.1279
మూడి	-11.128
▁జోన్	-11.1281
▁ఆళ్వారు	-11.1283
అక్కినేని	-11.1285
డిసెంబరు	-11.1285
▁ఉగ్రవాద	-11.1289
అనగా	-11.129
ప్రపంచ	-11.129
జార్	-11.1292
ోయ్	-11.1294
▁వాసుదేవ	-11.1295
నాటక	-11.1296
▁నోటి	-11.1299
▁దృష్టిలో	-11.1299
▁నివసించిన	-11.1305
▁అనుభవం	-11.1308
ంటో	-11.1309
▁రైతుల	-11.1315
▁మొక్కలు	-11.1317
▁కెనడా	-11.132
ka	-11.132
▁పనిచేస్త	-11.132
గోపాల్	-11.1321
▁సులభ	-11.1321
▁సంప్రదాయాలు	-11.1322
సాగారు	-11.1323
భట్టు	-11.1326
ers	-11.1327
▁బాలుర	-11.1328
og	-11.133
▁కమలా	-11.133
▁హిమ	-11.1331
▁నార	-11.1332
▁ప్రదేశాలలో	-11.1335
▁అన్నింటి	-11.1335
▁కల్పనా	-11.1338
▁జంతువులు	-11.1338
శాస్త్రవేత్త	-11.1341
▁వివాద	-11.135
▁గీ	-11.1351
ంబే	-11.1354
▁ఉండుట	-11.1354
చేసింది	-11.1359
▁పూలు	-11.136
పట్టణ	-11.1364
▁వస్తా	-11.1365
▁అధ్యక్షత	-11.1366
▁కోల్పోయ	-11.1368
▁విద్యాలయ	-11.1369
▁బోర్	-11.1374
▁ఎడ	-11.1376
లపాటి	-11.1378
▁అన్యాయ	-11.1378
▁కృష్ణదేవరాయల	-11.1379
▁తెలిప	-11.1379
▁రసాయనం	-11.1384
▁భయం	-11.1385
▁దోష	-11.139
▁మోసం	-11.1399
▁An	-11.1401
▁మహాభారతంలో	-11.1406
▁స్తంభ	-11.1412
ంచుకుని	-11.1412
▁ఆలయము	-11.1413
▁హల్	-11.1414
▁వరదల	-11.1415
పార	-11.1416
▁నిరంతర	-11.1418
▁అమర్	-11.1422
ట్టే	-11.1422
డుతున్న	-11.1424
▁అంగీకరిస్త	-11.1426
▁ఇస్లామ	-11.1426
▁ఎమ్మెల్సీ	-11.1426
.1918)	-11.1426
.1933)	-11.1426
▁ఇన్స్పెక్టర్	-11.1426
▁గ్రానైట్	-11.1426
▁నెమ్మదిగా	-11.1426
▁పేటెంట్	-11.1426
▁మొక్కజొన్న	-11.1426
▁సారస్వత	-11.1426
▁అదృష్ట	-11.1426
▁తాడిపత్రి	-11.1426
▁తాతినేని	-11.1426
▁దృఢ	-11.1426
▁ప్రతిరోజూ	-11.1426
▁రాయచోటి	-11.1426
▁విరాళం	-11.1426
▁గ్రూప్	-11.1426
▁మున్నగు	-11.1426
▁స్పేస్	-11.1426
▁కెమెరా	-11.1426
పాక్షిక	-11.1426
▁గజపతుల	-11.1426
▁నాణే	-11.1426
▁వ్యాఖ్యాత	-11.1426
▁గ్రూపు	-11.1426
▁జ్ఞాపకార్థం	-11.1426
▁నమూనా	-11.1426
దేహ	-11.1426
ప్రజాప్రతినిధులు	-11.1427
▁అధికసంఖ్య	-11.1427
▁ఆర్యసమాజ	-11.1427
ారణ్య	-11.1427
▁సరికొత్త	-11.1427
▁పెరుగుదల	-11.1427
▁నటుడిగా	-11.1428
▁సమూహం	-11.1428
▁ఫెర్	-11.1428
▁హర్	-11.1428
▁కార్యాలయాలు	-11.1428
▁1907	-11.1428
▁గతి	-11.1428
▁భాషావేత్త	-11.1429
▁శారదా	-11.1429
▁Indian	-11.143
▁ఖడ్గ	-11.143
▁సాగుతుంది	-11.1431
స్తానని	-11.1432
▁కుమారుడైన	-11.1432
▁సత్యాగ్రహం	-11.1432
▁ఎవ్వర	-11.1432
▁గోపాలరెడ్డి	-11.1434
▁జెండా	-11.1435
▁గ్యాస్	-11.1435
టొ	-11.1436
▁1904	-11.1437
▁చదివే	-11.1437
▁లోహ	-11.1438
▁వ్రాస్త	-11.1439
▁పేరుపొందిన	-11.1442
▁పదము	-11.1443
▁హొ	-11.1444
▁రక్తం	-11.1444
▁800	-11.1447
▁సత్రం	-11.1448
▁వ్యవహరించాడు	-11.1451
వర్తి	-11.1454
▁సంధ్య	-11.1455
▁1897	-11.1456
▁వినాయకుడు	-11.1462
▁లారీ	-11.1463
▁1898	-11.1464
వీధి	-11.1466
▁1860	-11.1466
▁మొర	-11.1468
▁తీసుకువచ్చ	-11.1469
▁రాళ్ల	-11.1469
▁రమ్య	-11.147
▁పేర్లతో	-11.1474
▁స్టాక్	-11.1476
▁బిలియన్	-11.1479
పోవడంతో	-11.1482
▁స్వభావ	-11.1486
▁గురయ్య	-11.1486
నెల్	-11.1489
▁జలాల	-11.1492
▁అయ్యారు	-11.1495
▁ముగిస	-11.1495
▁ప్రీత	-11.1499
▁వారిద్దరి	-11.1501
▁పీవీ	-11.1502
▁ప్రతినాయక	-11.1505
▁సోదరుల	-11.1506
▁అడ	-11.1515
▁చతుర	-11.1517
▁మహేశ్వర	-11.1517
▁కోరస్	-11.1522
▁దక్కను	-11.1522
మొత్తం	-11.1523
సంఖ్య	-11.1524
జనవరి	-11.1525
no	-11.1525
ోన్నత	-11.1528
▁అపార	-11.1529
▁భర్తను	-11.1529
▁జీవించి	-11.1534
▁ఆకారం	-11.1536
▁భావించబడుతు	-11.1542
▁కలిసిన	-11.1542
▁ఉపయోగించిన	-11.1544
సర్గ	-11.1544
▁కాకినాడలో	-11.1548
పెంట	-11.1548
సుబ్బ	-11.1549
▁మధ్యయుగ	-11.1549
▁షెల్	-11.155
▁కవితలు	-11.1558
టువంటి	-11.156
ంగానూ	-11.1561
▁లక్క	-11.1563
స్తాను	-11.1563
▁ప్రభాకర	-11.1564
▁వివాదాల	-11.1566
ాశ్రమం	-11.1568
▁కల్పన	-11.1569
▁మిగిలి	-11.1571
▁వెల్లడించ	-11.1574
▁కానుక	-11.1575
▁ఆగి	-11.1575
▁కలం	-11.1577
▁కలిగింది	-11.1577
▁సూర్యుని	-11.158
వచ్చిన	-11.158
వ్యాస	-11.1582
రేట్	-11.1589
▁శైలజ	-11.1591
▁చక్క	-11.1592
▁సగం	-11.1594
▁ఉత్	-11.1594
▁1928	-11.1596
ాన్సీ	-11.16
▁ఎకరాలు	-11.1601
▁వ్యవహార	-11.1602
▁తోటల	-11.1604
వోయి	-11.1604
1914	-11.1607
▁మించిన	-11.1609
సైన్	-11.1609
నాయకుడు	-11.1613
▁ట్రి	-11.1617
▁170	-11.1619
▁తినే	-11.1619
▁ప్రయాణించి	-11.1622
▁ప్రస్తుతము	-11.1624
▁ధైర్యం	-11.1625
▁సభ్యులుగా	-11.1629
గుర్తించబడుతుంది	-11.163
▁ప్రభావిత	-11.1638
▁నేరం	-11.1639
▁చేసుకోవడం	-11.164
యింట్	-11.1643
▁జొ	-11.1646
▁భవనాల	-11.1646
▁దేశాలకు	-11.1646
▁అమ్మా	-11.1646
▁కోరిన	-11.1657
▁వాల	-11.1657
▁ఎందుక	-11.1663
సరస్వత	-11.1664
▁శ్రావణ	-11.1664
.1923)	-11.1664
.1940)	-11.1664
▁ఇండోనేషియా	-11.1664
▁ఒత్తిడి	-11.1664
▁కొలంబియా	-11.1664
▁జస్టిస్	-11.1664
▁నాల్గవ	-11.1664
▁బెనర్జీ	-11.1664
▁భట్టిప్రోలు	-11.1664
▁వ్యావహారిక	-11.1664
▁ఖైదు	-11.1664
▁నాగభూషణం	-11.1664
▁ఫిలిప్	-11.1664
▁మరుసటి	-11.1664
▁కుదుర్చ	-11.1664
[1]	-11.1664
▁సూపర్హిట్	-11.1664
అయోమయ	-11.1664
▁నగదు	-11.1664
▁వెంకటేశ్వర్లు	-11.1664
▁దాద్రా	-11.1664
▁అభినయ	-11.1665
▁పెరుగుతున్న	-11.1665
▁స్థానాన్ని	-11.1665
▁గణేష్	-11.1665
▁పంచతంత్ర	-11.1665
▁సంస్థానంలో	-11.1665
▁జీవుల	-11.1666
▁సంతాన	-11.1666
.2008)	-11.1666
.2004)	-11.1667
▁చేశాయి	-11.1667
▁కాలక్రమంలో	-11.1667
▁ఉంటున్న	-11.1668
▁నివృత్తి	-11.1669
▁కుమార్తెలు	-11.1669
ోత్సవాలు	-11.167
▁టీవీ	-11.167
▁సజీవ	-11.167
▁చేస్తాయి	-11.1671
▁మొల్ల	-11.1671
▁హిందూమత	-11.1671
▁చదివాడు	-11.1672
▁మహారాణి	-11.1672
▁కొరియా	-11.1672
▁ఆమోదించింది	-11.1672
▁సామ్యవాద	-11.1672
ండేవి	-11.1672
▁ఎన్నికైంది	-11.1673
▁గీస	-11.1673
▁కాసు	-11.1675
▁కార్యక్రమాన్ని	-11.1675
▁తెలిపాడు	-11.1676
▁ప్రతిజ్ఞ	-11.168
▁తీసుకువెళ్ళ	-11.1681
▁వాటర్	-11.1681
▁అనుకూలంగా	-11.1681
మెంటు	-11.1682
▁వర్గీకరించ	-11.1684
▁మన్యం	-11.1684
విఠల	-11.1684
▁కొడుక	-11.1685
▁వాగ్	-11.1686
రామలింగ	-11.1687
▁ప్రవేశపెట్టిన	-11.1691
▁విడిది	-11.1693
వంతుల	-11.1693
▁రామన్	-11.1694
1974)	-11.1696
కల్లు	-11.1697
▁గురువులు	-11.1698
▁1899	-11.1698
▁బాలరాజు	-11.1699
▁మరణానికి	-11.17
▁శాస్త్రజ్ఞుడు	-11.1704
▁శ్రీకృష్ణుని	-11.1706
▁నడక	-11.1708
▁చేయగల	-11.171
▁అతిథి	-11.1712
▁ప్రసారాలు	-11.1714
▁175	-11.1715
▁కుర్ర	-11.1719
▁భాగస్వామ్యం	-11.1728
▁మాధ్యమం	-11.1728
లాపూర్	-11.173
▁మేర	-11.1733
పూట	-11.1734
▁జింక	-11.1736
▁దార	-11.1737
▁105	-11.1738
▁చేసుకొన్న	-11.174
పోతూ	-11.1742
▁పిలుస్త	-11.1744
▁ఉండవచ్చును	-11.1745
▁వార్తలు	-11.1746
▁కేరళలో	-11.1746
▁ఘాట్	-11.175
▁క్రియ	-11.1753
▁చర్చించ	-11.1758
త్రయ	-11.1761
కుర్తి	-11.1762
▁సంబ	-11.1764
▁118	-11.177
శేఖర్	-11.1771
07.	-11.1773
విషయ	-11.1774
▁జమీందార	-11.1775
▁సంగ్రహ	-11.1777
▁గీతం	-11.1778
▁కీలకమైన	-11.1779
▁నరక	-11.1781
బెల్	-11.1782
రాజశేఖరరెడ్డి	-11.1787
▁చదువుకున్న	-11.1788
స్తాన	-11.1789
▁పొందినది	-11.179
▁వున్నాయి	-11.1791
యాంగ్	-11.1791
▁సమయములో	-11.1794
▁సుందరి	-11.1796
▁సమర్పించిన	-11.1801
▁పరచ	-11.1802
లంక	-11.1806
▁స్తంభం	-11.1808
▁వేసే	-11.181
▁ఇప్పటికి	-11.1813
▁కరుణ	-11.1817
ుతుంటాయి	-11.1818
లైట్	-11.182
నిలయ	-11.1825
▁ఉంటుంద	-11.1829
▁వాసవ	-11.183
ప్రస్తుతం	-11.1831
▁కాంత	-11.1834
▁పరిస్థితులు	-11.1834
▁పరిశీలించ	-11.1837
▁1927	-11.184
▁పాలనను	-11.1842
పర్వం	-11.1849
▁బిలియన్ల	-11.1853
net	-11.1857
▁తోటి	-11.1864
▁తాళ్ళ	-11.1864
పడుతుంది	-11.1865
▁గోరు	-11.1868
▁అధ్యాపక	-11.1869
▁ప్రయత్నించ	-11.1869
▁సంగ	-11.1869
▁సీతారామయ్య	-11.1869
-30	-11.187
▁జగన్	-11.1871
▁శిల్పకళ	-11.1872
బడినది	-11.1873
కారిణి	-11.1874
600	-11.1877
▁గార్డ	-11.1879
▁సాంప్రదాయం	-11.1879
▁1988:	-11.1882
▁సిద్ధి	-11.1882
▁వెలిగి	-11.1882
▁పేర్కొన్న	-11.1883
నందీశ్వర	-11.1889
▁కట్టా	-11.1889
▁సూత్రాల	-11.1892
▁దాగ	-11.1895
▁వ్యవస్థాపక	-11.1902
దొ	-11.1905
వాడని	-11.1907
▁తెలియజేస	-11.1907
▁ప్రయాణించ	-11.1907
▁టాం	-11.1908
▁బహిష్కరించ	-11.1908
.1994)	-11.1908
.2009)	-11.1908
సార్వభౌమ	-11.1908
▁ఆఫ్ఘనిస్తాన్	-11.1908
▁ఆశ్రయం	-11.1908
▁కమ్యూనిష్టు	-11.1908
▁జటప్రోలు	-11.1908
▁నెల్లిమర్ల	-11.1908
▁ఫౌండేషన్	-11.1908
▁బీజాపూరు	-11.1908
▁మారుతీరావు	-11.1908
▁మొహమ్మద్	-11.1908
▁విజయనిర్మల	-11.1908
▁సంఘసంస్కర్త	-11.1908
▁డిజిటల	-11.1908
▁ఘరానా	-11.1908
▁సుపరిచిత	-11.1908
▁దేవరకొండ	-11.1908
▁ముంబాయి	-11.1908
▁కొలువై	-11.1908
▁అపురూప	-11.1908
▁వనవాస	-11.1908
▁ఇరాక్	-11.1908
▁నమః	-11.1908
▁రెండింటి	-11.1908
▁నరహరి	-11.1909
▁తెలుగునాట	-11.1909
▁గర్భవతి	-11.1909
▁ఆయిల్	-11.1909
▁కనకదుర్గ	-11.1909
▁పిల్లలమర్రి	-11.1909
▁పునాది	-11.1909
▁వేటపాలెం	-11.1909
▁కథారచయిత	-11.191
▁శ్వేత	-11.191
▁ట్రస్ట్	-11.191
▁రామగుండం	-11.191
▁ఉపదేశించ	-11.191
▁సూచిస్తుంది	-11.191
▁సంస్కృతికి	-11.191
▁వన్నె	-11.191
▁పేరుగాంచిన	-11.1911
▁పల్లిలో	-11.1911
▁రాజపుత్ర	-11.1911
▁ఎదుట	-11.1912
▁హైదర్	-11.1912
▁వేశ్య	-11.1912
▁దేవ్	-11.1912
▁కన్యకా	-11.1914
▁తెలియకుండా	-11.1916
▁రేపల్లె	-11.1917
▁నాగూర్	-11.1918
ాచార్యుల	-11.1919
▁ప్రేమిస్తాడు	-11.192
▁ఉక్కు	-11.192
▁తెలుసుకొని	-11.1921
▁నాగపూర్	-11.1922
బోయిన	-11.1924
▁Telugu	-11.1924
▁బంధించి	-11.1925
▁ఆదుర్తి	-11.1927
▁ముస్లింల	-11.193
▁ముగించ	-11.193
▁వాడిన	-11.1932
▁బ్రాడ్	-11.1935
▁వార్తల	-11.1936
▁వ్యవహరిస్తార	-11.1938
▁నియామకం	-11.1938
▁వంశస్థులు	-11.1939
▁365	-11.1941
▁మనుమ	-11.1942
రోజున	-11.1943
▁రాసే	-11.1944
▁ప్రక్కనే	-11.1947
కర్ష	-11.1958
▁దేవరాయలు	-11.1959
ber	-11.1962
▁చోళులు	-11.1964
▁ద్వార	-11.1964
భక్తి	-11.1964
▁విచ్చేస	-11.1965
▁గ్రహించ	-11.1966
▁తేల్చ	-11.1968
▁బ్రహ్మానందం	-11.1969
-4	-11.1969
▁చూస్తున్న	-11.1972
▁ఉంచారు	-11.1972
up	-11.1974
▁అడిగి	-11.1978
గాయకుల	-11.1983
▁కొద్దిగా	-11.1984
▁విమానాశ్రయ	-11.1984
▁2004:	-11.1984
వ్రత	-11.1988
▁పద్యాలను	-11.1994
▁వహించగా	-11.1997
▁జలాశయ	-11.1997
హర్	-11.1997
కాన్	-11.1997
▁ఆచారాల	-11.1999
▁రాజ్యంగా	-11.1999
▁దొంగతన	-11.2002
స్తున్నారు	-11.2003
▁ఇటుకల	-11.2009
▁పరిశోధనల	-11.2011
విష్ణు	-11.2017
▁విశ్వవిద్యాలయము	-11.2017
▁పోసి	-11.2017
▁మగధ	-11.2021
కెల్లా	-11.2023
▁జన్మించి	-11.2024
▁బంధు	-11.2024
▁చనిపోత	-11.2025
ial	-11.2026
▁దైవం	-11.2027
▁వారసుల	-11.2031
పద్మ	-11.2032
స్టిక్	-11.2046
▁సరిహద్దుల	-11.2047
▁సీస	-11.205
▁చేసినట్లు	-11.205
▁బ్రహ్మన్న	-11.2059
▁మదన్	-11.206
▁ఇచ్చట	-11.2061
▁1903	-11.2064
నిపిస్తుంది	-11.2068
▁నిర్వహిస్తున్న	-11.2068
▁నిర్మితమైన	-11.2069
▁జరుగ	-11.2069
ite	-11.207
ca	-11.207
▁వార్త	-11.2072
▁దంపతుల	-11.2073
ther	-11.2073
జాక్	-11.2073
▁పెరగ	-11.2076
▁ఎకరాలకు	-11.2077
▁గార్ల	-11.2079
కేంద్రంగా	-11.2084
▁1996:	-11.2086
▁రూపాల	-11.2088
▁2020:	-11.209
▁రచనల్లో	-11.2093
▁1924	-11.2093
▁ఆహ్వానించ	-11.2094
▁కేంద్రాల	-11.2096
▁మార్గదర్శక	-11.21
▁అవతరించ	-11.2102
అర్	-11.2103
▁త్రవ్వ	-11.2104
▁వేలు	-11.2104
▁డబ్బ	-11.2107
.2016	-11.2113
▁ఫలితాల	-11.2114
▁ముక్త	-11.2116
▁వార్షికోత్సవ	-11.2116
▁ముగింపు	-11.2118
▁పుట	-11.212
ీకృత	-11.2122
▁ప్రారంభోత్సవ	-11.2122
ఘర్	-11.2123
దరినీ	-11.2123
▁అమల	-11.2124
సమూహ	-11.2129
▁గది	-11.2131
▁115	-11.2131
▁పాత్రకు	-11.2131
▁ఉద్యమాల	-11.2133
▁చూచ	-11.2133
▁నల్లమల	-11.2134
దేవ్	-11.2136
▁సందర్శించి	-11.2143
▁చేరుకొ	-11.2144
▁దానిపై	-11.2145
▁జీవనం	-11.2149
కాలువ	-11.215
▁అధి	-11.2154
▁కలుస్త	-11.2155
▁మినహా	-11.2158
▁మాండ	-11.2158
.11.10.2016	-11.2158
.1921)	-11.2158
.1972)	-11.2158
.2002)	-11.2158
.2007)	-11.2158
▁ఆర్గనైజేషన్	-11.2158
▁ఎగ్జిక్యూటివ్	-11.2158
▁చెళ్ళపిళ్ళ	-11.2158
▁పాండిత్య	-11.2158
▁ఫ్రాన్సు	-11.2158
▁మార్కండేయ	-11.2158
▁మైక్రోసాఫ్ట్	-11.2158
▁రావట్లేదు	-11.2158
▁వగైరా	-11.2158
▁వాగ్గేయకారుడు	-11.2158
▁శిథిలావస్థ	-11.2158
▁సికింద్రాబాదు	-11.2158
▁క్షత్రియ	-11.2158
▁పంజాబీ	-11.2158
▁శృంగేరి	-11.2158
▁సరాసరి	-11.2158
▁ఘనవిజయం	-11.2158
▁విశ్వామిత్ర	-11.2158
▁అబద్ధ	-11.2158
▁పూజయామి	-11.2158
▁ఓపెన్	-11.2158
▁సిద్దిపేట	-11.2158
▁శుక్ల	-11.2158
▁ఆడియో	-11.2158
▁తాళ్ళపాక	-11.2158
▁ఫెడరేషన్	-11.2158
▁గణతంత్ర	-11.2158
▁తన్నో	-11.2159
▁మనోహర్	-11.2159
▁సృష్టికర్త	-11.2159
▁ఖ్యాతి	-11.2159
▁సుభాష్	-11.216
▁ఆవిరి	-11.216
▁నెలకొని	-11.216
▁క్రిమి	-11.216
▁తలసరి	-11.2161
▁అన్నది	-11.2161
2,000	-11.2162
▁భావించే	-11.2162
▁భ్రమ	-11.2162
▁తోడ్పడ	-11.2163
పడతారు	-11.2163
▁సవాలు	-11.2164
▁అన్నమాచార్య	-11.2165
▁అనువదించాడు	-11.2167
▁మారుతుంది	-11.2167
▁హాస్యం	-11.2169
హర్ష	-11.217
952	-11.2171
▁ధ్వంసం	-11.2171
▁రావడానికి	-11.2171
▁సిమెంట్	-11.2174
▁రెండూ	-11.2177
▁మొక్కులు	-11.2177
▁ఉండాలని	-11.2177
▁పగటి	-11.2177
▁గుడ్డ	-11.2178
▁సీతారాముల	-11.2179
▁చేయబడ	-11.2184
▁ద్వారకా	-11.2185
▁జంగ్	-11.2185
▁జత	-11.2186
▁మహావీర	-11.2187
ందట	-11.2188
▁చంద్రశేఖర	-11.2189
▁1893	-11.2191
ఆపరేటివ	-11.2196
సృజ	-11.2199
వుంది	-11.2199
▁పాలించాడు	-11.2202
▁మున్సిపల్	-11.2204
▁త్రవ్వకాల	-11.2204
పోవు	-11.2204
▁తారా	-11.2205
▁జొన్నలు	-11.221
రీతి	-11.2212
▁పదార్థాలు	-11.2213
▁126	-11.2214
▁నిధులు	-11.2215
▁పెంపకం	-11.2217
▁బంక	-11.2219
▁ప్రయత్న	-11.2221
▁చేతుల్లో	-11.2221
▁మందిరాలు	-11.2221
వూరి	-11.2222
▁నియోజకవర్గాల	-11.2223
వలస	-11.2231
▁పరిమితం	-11.2233
▁అలంకరించ	-11.2238
▁భాగాలుగా	-11.2242
▁పర్యటన	-11.2244
▁సరిపో	-11.2244
▁ఆమోదం	-11.2246
▁ఆహ్వాన	-11.2247
రామిరెడ్డి	-11.2251
యానం	-11.2252
▁ద్వీపాలు	-11.2256
యున్నది	-11.2256
▁సేవలను	-11.2259
▁దుర్గం	-11.2259
▁కోమల	-11.2267
▁అలయ	-11.2272
రామాయణ	-11.2273
మొదటి	-11.2273
ఘంటసాల	-11.2273
వరలక్ష్మి	-11.2278
శైలజ	-11.2281
▁మోడ	-11.2281
▁చేసుకునే	-11.2282
▁చొ	-11.2282
పోతాయి	-11.2285
▁చెన్నకేశవస్వామి	-11.229
స్తుంటాడు	-11.2301
▁నిలుస్త	-11.2303
▁విదేశాలలో	-11.2304
▁గ్రహీతలు	-11.2304
▁సుందర్	-11.2306
▁నిలిచ	-11.2306
ore	-11.2308
▁గదుల	-11.2308
▁చేయించి	-11.231
▁పండగ	-11.2311
▁రాజకీయాల్లో	-11.232
▁ముఖ్యము	-11.2321
▁ఎదిగి	-11.2324
▁పరిశోధక	-11.2325
1967)	-11.2326
▁పూర్వము	-11.233
▁సాయం	-11.2331
పడతాడు	-11.2334
▁రారా	-11.2334
▁పోస్ట	-11.2334
▁రోగుల	-11.2335
▁ఉపన్యాసాల	-11.2335
▁1993:	-11.2336
▁గోత్ర	-11.234
వాసులు	-11.234
▁సేవించ	-11.2343
▁ఆరంభించ	-11.235
▁మాతృక	-11.2366
▁వ్యక్త	-11.2367
▁గదిలో	-11.2368
లాగ్	-11.237
▁అయినది	-11.2374
▁1995:	-11.2381
▁రహస్యం	-11.2381
▁ప్రతిష్ఠాత్మక	-11.2383
▁కుమారి	-11.2388
సాగర	-11.2392
▁చనిపోయిన	-11.2393
▁తీసుకువచ్చి	-11.2396
▁రాధను	-11.2396
▁దర్శకత్వ	-11.2396
▁ఆకుల	-11.2402
మిల్లి	-11.2405
▁ఊరేగించ	-11.2414
▁సింగరేణి	-11.2414
▁అన్నసమారాధన	-11.2414
▁కాళోజీ	-11.2414
▁చేబ్రోలు	-11.2414
▁జాషువా	-11.2414
▁తాత్విక	-11.2414
▁ధోరణి	-11.2414
▁బూర్గుల	-11.2414
▁మొరార్జీ	-11.2414
▁సామూహిక	-11.2414
▁తక్కిన	-11.2414
▁విండోస్	-11.2414
▁మన్వంతర	-11.2414
▁సైన్సు	-11.2414
▁పరిశీలన	-11.2414
▁శతదినోత్సవం	-11.2414
▁గాంధేయవాది	-11.2414
▁పురుషోత్తమ	-11.2415
▁బూడిద	-11.2415
▁రాచరిక	-11.2415
▁నందిగామ	-11.2415
▁వేమూరి	-11.2416
▁పొగాకు	-11.2416
▁వహిస్తుంది	-11.2416
▁పదార్థాల	-11.2416
▁వివాహమాడ	-11.2416
▁ఉద్దేశంతో	-11.2417
▁బాబూరావు	-11.2417
▁టెస్ట్	-11.2417
▁విభేదాల	-11.2417
▁శిఖరం	-11.2417
▁వైవిధ్య	-11.2418
▁పోల్చ	-11.2418
▁నడుస్తున్న	-11.2418
ాంతం	-11.2419
]]	-11.2419
▁సౌర	-11.2419
▁శతావధాన	-11.2419
▁రాయుడు	-11.2421
▁పాల్గొంటారు	-11.2421
▁నడుపుత	-11.2422
వాడే	-11.2423
▁సహచర	-11.2423
▁బుర్ర	-11.2423
▁కార్యక్రమానికి	-11.2423
▁జగ్గయ్యపేట	-11.2423
▁సరిహద్దులుగా	-11.2424
▁పడే	-11.2426
▁ఇనుము	-11.2426
▁ఇవ్వబడింది	-11.2427
▁తేనె	-11.2429
▁144	-11.243
▁అమిత	-11.243
ెత్తు	-11.243
భాషల	-11.2431
▁లింగాల	-11.2436
▁వడ్డే	-11.2438
▁ప్రాత	-11.2439
▁సాధించాయి	-11.2439
▁ఎన్నికై	-11.2439
▁ఆభరణాలు	-11.2443
▁సమూహాల	-11.2443
గౌర	-11.2444
▁పురాణము	-11.2447
▁సాహిత్యము	-11.2447
▁రూపాయి	-11.2449
IT	-11.2449
▁వారసుడు	-11.2451
▁నవీన	-11.2453
▁కాలంనాటి	-11.2454
▁అహో	-11.2454
మంత్ర	-11.2456
▁కల్లు	-11.2457
▁1880	-11.2458
▁డిపో	-11.2459
▁ఆరోపణలు	-11.2466
▁పరీక్షించ	-11.2467
▁సూర్యం	-11.2473
▁పెడతా	-11.2474
▁పాండవులు	-11.2475
▁గుల్	-11.2476
▁తాటి	-11.2476
▁చర్యల	-11.2479
షిప్	-11.248
▁విమల	-11.2484
▁కరిగి	-11.2489
▁పట్టిక	-11.2492
▁అనుమతించ	-11.2492
ించుకున్న	-11.2495
కంప	-11.2496
ాంశాల	-11.25
▁ఉపయోగపడ	-11.25
ించెను	-11.2504
▁స్థిరపడి	-11.2504
▁లేత	-11.2505
కొమ్మ	-11.2507
ముఖి	-11.251
▁ఛాయ	-11.251
క్రా	-11.2511
▁తగు	-11.2511
▁బండ్ల	-11.252
▁కుదర	-11.2522
▁నూరు	-11.2524
▁అభిప్రాయము	-11.2527
▁పెద్దాపురం	-11.2531
హన	-11.2536
▁మాంస	-11.2536
రవాణా	-11.2537
▁బౌద్ధమతం	-11.2538
▁కోడలు	-11.2538
స్థలం	-11.2539
▁వినియోగ	-11.2541
భోగ	-11.2544
భీమ	-11.2546
▁పర్యాటకులు	-11.2547
మెర్	-11.2548
▁నగరంలోని	-11.2549
▁చేరారు	-11.2549
▁రాగం	-11.2553
ఇద్దర	-11.2557
▁వుండి	-11.2559
గుండం	-11.2561
▁స్థానికులు	-11.2566
పక్క	-11.2568
▁అనుబంధం	-11.2569
▁సుందరం	-11.2582
▁హంస	-11.2596
ర్లాండ్	-11.2596
స్తున్నా	-11.2596
ree	-11.26
▁పొడ	-11.26
▁రావే	-11.2603
ేసింది	-11.2604
▁సుంక	-11.2605
▁పదముల	-11.2606
▁వాచ	-11.2608
్ఞ	-11.2615
▁రాచ	-11.2617
▁ట్రాక్	-11.2618
res	-11.2618
▁పరిణామాల	-11.2627
ేటి	-11.2628
▁ఎగుర	-11.2631
▁వేడ	-11.2634
▁సామ్రాజ్యము	-11.2636
▁గ్రామస్థుల	-11.2639
CE	-11.2639
▁పోరాటాల	-11.264
▁మరిన్న	-11.2643
-21	-11.2645
▁చీలి	-11.2646
▁స్థా	-11.2648
▁సంస్కృతభాష	-11.2655
▁శైల	-11.2655
▁ఉద్భవించ	-11.2656
▁నికోల	-11.2658
చేయడం	-11.2659
▁కష్టాల	-11.2663
స్తార	-11.2666
▁పాత్రికేయ	-11.2667
▁హిందు	-11.2671
▁నిధి	-11.2675
▁పిలుపు	-11.2675
దశలో	-11.2675
▁చిరుత	-11.2676
▁మిషనరీ	-11.2677
.1904)	-11.2677
.1996)	-11.2677
▁New	-11.2677
▁ఎత్తయిన	-11.2677
▁తెలుసుకుంటాడు	-11.2677
▁న్యూక్లియర్	-11.2677
▁పార్వతమ్మ	-11.2677
▁ప్రదర్శిస్త	-11.2677
▁బనగానపల్లె	-11.2677
▁వికారాబాద్	-11.2677
▁వివాదాస్పద	-11.2677
▁స్పెయిన్	-11.2677
▁హరిశ్చంద్ర	-11.2677
▁మౌలానా	-11.2678
▁శకుంతల	-11.2678
▁సర్పంచ్	-11.2678
▁ఒకానొక	-11.2678
▁తదనంతర	-11.2678
▁ద్వాపర	-11.2678
▁పాత్రధారులు	-11.2678
▁వాహినీ	-11.2678
▁అభివర్ణించ	-11.2678
▁చైనీయుల	-11.2678
▁పరిగణనలో	-11.2678
▁సంకలనకర్త	-11.2678
▁పిమ్మట	-11.2678
▁విషాద	-11.2678
▁ఉయ్యాలవాడ	-11.2678
▁హీరోయిన్	-11.2678
▁అనుచరుల	-11.2678
▁చిన్నారి	-11.2678
▁బహుమనీ	-11.2679
▁గండికోట	-11.2679
▁పాలమూరు	-11.2679
1988)	-11.2679
▁సారథి	-11.2679
▁వాయువ్య	-11.2679
▁ఆర్మూర్	-11.268
▁మాట్లాడుతారు	-11.2681
▁రాజ్యలక్ష్మి	-11.2682
ాధ్యక్ష	-11.2682
▁రఘుపతి	-11.2683
▁గౌరీ	-11.2683
▁దుంప	-11.2684
▁ఉచ్ఛ	-11.2684
▁తేలిక	-11.2684
▁కోవెల	-11.2684
▁టిబెట్	-11.2686
▁నిర్మించబడ్డాయి	-11.2687
out	-11.2688
వైపులా	-11.2688
▁డేటా	-11.2689
▁వాడుతారు	-11.2689
▁మహోత్సవాలు	-11.269
▁విద్యాభ్యాసం	-11.269
▁రబీ	-11.2691
▁మాతృభాష	-11.2691
▁ప్రత్తిపాడు	-11.2693
▁భస్మ	-11.2694
▁భూలోక	-11.2694
▁నారదుడు	-11.2696
▁చేపట్టింది	-11.2698
▁దొరికి	-11.2699
▁ఇబ్రహీంపట్నం	-11.2699
▁తెలిసింది	-11.2701
పాటలు	-11.2705
కూట	-11.2705
▁ప్రదేశాన్ని	-11.2707
▁నీలి	-11.2707
▁వ్యవహరించారు	-11.2708
▁యాదవ్	-11.2709
▁పన్నెండు	-11.2709
▁1892	-11.2709
▁రాజకీయాలలో	-11.271
▁మమత	-11.2711
▁భావించాడు	-11.2714
▁స్పష్టంగా	-11.2715
▁విద్యాసంస్థలు	-11.2718
కల్చర్	-11.2718
▁చావు	-11.2723
▁కృతి	-11.2723
▁చిహ్నంగా	-11.2723
▁అవతరించి	-11.2724
▁పథ	-11.2725
▁పెట్టె	-11.2727
పట్టణం	-11.2731
▁(9	-11.2732
గ్రఫీ	-11.2735
▁నిర్వహిస్త	-11.2735
▁పోతే	-11.2737
▁మురళి	-11.2737
▁కార్యక్రమాలలో	-11.2738
▁విధమైన	-11.2739
▁కేంద్రాలలో	-11.2739
మట్టి	-11.2741
▁బ్లాగుల	-11.2742
▁కులం	-11.2742
▁హరిజన	-11.2743
వాదులు	-11.2743
▁సింహం	-11.2743
▁సాగే	-11.2744
▁సత్కరించ	-11.2748
హ్య	-11.2748
▁వర్ధ	-11.2748
▁సందర్భాల	-11.2752
▁అలంకార	-11.2754
▁తాలూకాలు	-11.2755
▁ఆధిపత్య	-11.2755
▁పెంచి	-11.2756
▁సంకేతం	-11.2757
▁ఊరగాయల	-11.2761
▁చిన్నతనంలో	-11.2762
▁పంపాడు	-11.2762
▁ఆదిల్	-11.2762
▁మడి	-11.2763
▁తెల్లవార	-11.2768
▁సంపత్	-11.2769
▁గవర్నరుగా	-11.2771
▁పదానికి	-11.2771
విశ్వనాథ	-11.2772
▁ప్రకాశరావు	-11.2772
▁పరిజ్ఞానం	-11.2777
▁ప్రయత్నిస్త	-11.2777
▁సీట్ల	-11.2779
▁భావాలు	-11.278
▁సమానంగా	-11.2786
▁గంధ	-11.2786
▁దోస	-11.279
▁చెక్కబడి	-11.2792
▁బ్లాగులు	-11.2794
సుకొని	-11.28
▁సుందరమ్మ	-11.2801
▁సగ	-11.2804
ఆంధ్రప్రదేశ్	-11.2807
సమయంలో	-11.2813
▁శైలిని	-11.2815
▁మలచ	-11.2816
ాడనీ	-11.282
▁ఒప్పంద	-11.282
తార్	-11.2822
▁లొంగిపో	-11.2823
▁తీసుకునే	-11.2823
▁వాహనాలు	-11.2826
▁మాదిరిగా	-11.2827
వాక్	-11.2837
ous	-11.2838
▁ఆంధ్రదేశ	-11.2839
▁స్నేహితులు	-11.2839
తగానో	-11.2839
▁జల్ల	-11.2842
ందె	-11.2844
▁గ్రంధ	-11.2845
▁ధనం	-11.2848
తుంటే	-11.2849
హోమం	-11.2852
▁కీర్తించ	-11.2853
▁రంభ	-11.2861
ide	-11.2862
▁ఊరగాయ	-11.2862
▁ప్రియా	-11.2866
▁ప్రాముఖ్యతను	-11.2871
▁అసంతృప్తి	-11.2876
▁అందం	-11.2879
▁పేరొంద	-11.2886
1962)	-11.2886
▁అందించడం	-11.2887
▁తయారుచేస	-11.2888
▁సరే	-11.2901
నుకుని	-11.2903
▁ప్రవహించ	-11.2904
▁పబ్లికేషన్స్	-11.2904
హన్	-11.2908
▁తలుపుల	-11.2909
▁నిషేధ	-11.2927
ుకున్నది	-11.2931
▁పలుక	-11.2932
▁నిశ్చయ	-11.2934
▁ప్రవేశించిన	-11.2934
▁రసం	-11.2934
▁సమర్ధ	-11.2936
ిస్తున్నాయి	-11.2936
▁కరుణా	-11.2936
▁అభిమానం	-11.294
▁121	-11.2942
▁మెట్రో	-11.2946
▁హరికథ	-11.2946
▁తాడేపల్లి	-11.2947
.1917)	-11.2948
.1929)	-11.2948
.1935)	-11.2948
▁from	-11.2948
▁ఇస్మాయిల్	-11.2948
▁కొవ్వూరు	-11.2948
▁డైరక్టర్	-11.2948
▁డ్రైవర్	-11.2948
▁తజకిస్థాన్	-11.2948
▁దోహదం	-11.2948
▁పాలిటెక్నిక్	-11.2948
▁మలేషియా	-11.2948
▁మేడ్చల్	-11.2948
▁మేనేజ్మెంట్	-11.2948
▁శ్రేణి	-11.2948
▁శ్రేణుల	-11.2948
▁దిగుమతి	-11.2948
▁విస్తారమైన	-11.2948
▁ద్రోహ	-11.2948
▁కచ్చితంగా	-11.2948
▁సంజయ్	-11.2948
▁ఎడిటర్	-11.2948
▁చురుకు	-11.2948
▁అంకితమిచ్చ	-11.2948
▁ఇస్రో	-11.2948
▁మీడియం	-11.2948
▁సుగంధ	-11.2948
▁గీతాంజలి	-11.2948
▁కనిగిరి	-11.2948
▁ఫంక్షన	-11.2949
▁దర్శకురాలు	-11.2949
▁వెంబడి	-11.2949
▁చేసుకుంటారు	-11.2949
▁సభ్యత్వం	-11.2949
▁చేరుకోవచ్చు	-11.295
▁అధ్యక్షునిగా	-11.295
▁సిస్టము	-11.295
రోహణ	-11.295
▁మకుటం	-11.2951
▁ఆపరేషన్	-11.2951
▁తరుణ	-11.2951
▁తీరాంధ్ర	-11.2952
'''	-11.2953
▁రైళ్ళు	-11.2954
▁కాళీ	-11.2954
▁రూపొందించబడింది	-11.2955
▁గనుక	-11.2955
▁మృతి	-11.2956
▁తగినంత	-11.2957
▁కూర్మ	-11.2957
▁నిర్మించనున్న	-11.2958
నీలకంఠ	-11.2958
-25	-11.296
ంజలి	-11.2962
▁గుంతకల్లు	-11.2963
▁దిబ్బ	-11.2966
▁తీసుకోవడం	-11.2968
మాడ	-11.2968
▁వెంకటగిరి	-11.2968
▁సమకూర్చారు	-11.2969
▁ధో	-11.2971
▁చెయ్యడానికి	-11.2971
▁హెల్	-11.2972
పనేని	-11.2974
▁శరీరానికి	-11.2974
▁వుండేది	-11.2976
▁గ్రంథంలో	-11.2979
▁కోకిల	-11.298
▁ప్రహ్లాదుని	-11.298
▁సమానం	-11.2985
▁అప్పటినుండి	-11.2986
▁పుస్తకాన్ని	-11.2988
ధేయ	-11.2988
▁పంజ	-11.2989
▁సౌకర్య	-11.2992
▁శక్తుల	-11.2995
▁అంతరించి	-11.2999
▁తేది	-11.3001
▁నడుస్త	-11.3001
ాలయాలు	-11.3002
▁ఏర్పాట్లు	-11.3005
▁ముగిసిన	-11.3005
▁ప్రసిద్ధమైన	-11.3007
▁రైతులకు	-11.3013
▁సొరంగ	-11.3014
▁ఆస్థానంలో	-11.3017
▁అడ్డం	-11.3018
▁నాగేంద్ర	-11.3019
▁అనుబంధంగా	-11.3019
▁ఏళ్ళు	-11.3021
▁చివరగా	-11.3023
▁స్వామీ	-11.3024
▁తీసే	-11.3025
▁కొక్	-11.3026
▁పక్షులు	-11.3027
▁పరిశీలించి	-11.3027
ఇవి	-11.3028
▁మహోత్సవం	-11.3029
▁అచ్యుతరాయల	-11.3029
▁మరలా	-11.3031
▁హక్కులు	-11.3034
చై	-11.3036
▁ఆయుధ	-11.3039
▁ఎదుర్కొంటున్న	-11.3041
▁తవ్వకాల	-11.3041
▁చర్చలు	-11.3045
ండ్రు	-11.3046
▁నిర్మిత	-11.3048
గోడ	-11.3049
▁సెట్	-11.305
▁పద్ధతిని	-11.3056
ించాయి	-11.306
మోహన	-11.3065
▁కాళ్ళు	-11.3066
కాడ	-11.3068
▁ప్రముఖుల	-11.3073
▁ప్రక్కల	-11.3073
చర్య	-11.3077
ార్డ్	-11.3077
▁జాతులు	-11.3081
▁బ్రతుక	-11.3081
ద్వీప	-11.3083
సామ్రాజ్య	-11.3084
ఉత్తర	-11.3084
హిందీ	-11.3087
కేశవ	-11.3087
మాధవ	-11.3089
▁గోల్డ	-11.3095
దేవీ	-11.3096
▁వున్నవి	-11.3099
▁ఓడించ	-11.3099
సొ	-11.3101
▁వేష	-11.3103
▁350	-11.3106
ీయుల	-11.3106
గర్భ	-11.3116
▁కాయలు	-11.3122
▁దిశ	-11.3126
వర్గ	-11.3126
▁రాగాల	-11.313
▁కోణ	-11.313
క్కర	-11.3132
▁మాసాల	-11.3133
▁మహోత్సవ	-11.3135
బడలేదు	-11.314
▁ఎదిరించి	-11.3144
ిద్దరూ	-11.3145
కృష్ణారావు	-11.3146
బాట	-11.3146
▁యువతి	-11.3149
,00,000	-11.315
2004	-11.3151
సెల్	-11.3153
▁పర్యటించ	-11.3156
▁సుదర్శన	-11.3163
▁కంట	-11.3164
ట్రిక్	-11.3168
▁ముఖం	-11.3172
▁ఆత్మకూరులో	-11.3173
▁శాత	-11.3178
చిత్రాల	-11.3179
కొలను	-11.3181
పప్పు	-11.3189
▁రెండవది	-11.3196
▁పరిశ్రమకు	-11.3208
▁వస్త్రాల	-11.321
▁ఘటన	-11.321
జాన్	-11.3211
వేసిన	-11.3215
▁సమాచారము	-11.3215
▁కలిగించే	-11.3216
▁నిరాశ	-11.322
▁కలిప	-11.3221
హై	-11.3224
.1902)	-11.3226
▁Sanskrit	-11.3226
▁కృత్రిమ	-11.3226
▁జొన్నవిత్తుల	-11.3226
▁దోపిడీ	-11.3226
▁నిరుద్యోగ	-11.3226
▁ప్రదర్శితమై	-11.3226
▁రిచర్డ్	-11.3226
▁సుల్తానేట్	-11.3226
▁హన్మకొండ	-11.3226
▁అన్నదమ్ముల	-11.3226
▁త్వరగా	-11.3226
▁ముదిగొండ	-11.3226
▁హరీశ్	-11.3226
▁ఆలంపూర్	-11.3226
▁అరబిక్	-11.3226
▁కిషోర్	-11.3226
▁పేదరికం	-11.3226
▁మక్కువ	-11.3226
▁ఆరోపించ	-11.3226
▁డేవిడ్	-11.3226
▁గాంధార	-11.3226
▁మొదలగునవి	-11.3226
▁సమరయోధురాలు	-11.3226
▁పిదప	-11.3226
▁బృందావన	-11.3226
▁సమీక్ష	-11.3226
▁అరుదు	-11.3226
▁సంతరించుకుంది	-11.3226
▁సారవంతమైన	-11.3226
▁పూర్ణిమ	-11.3227
▁నిన్నే	-11.3227
▁పిలవబడే	-11.3227
▁నదీతీర	-11.3227
పెడితే	-11.3227
▁అవార్డ్	-11.3227
▁కాంస్య	-11.3228
▁డచ్	-11.3228
▁సరోజిని	-11.3228
▁మహేష్	-11.3228
▁సోషల	-11.3229
▁చోడ	-11.3229
▁రమణీయ	-11.3229
▁పంచాంగ	-11.323
నైపుణ్య	-11.323
▁అవే	-11.3231
▁ఒక్కసారి	-11.3232
▁విశ్వేశ్వరయ్య	-11.3232
▁కక్ష్య	-11.3232
▁జయరాం	-11.3233
▁లీగ్	-11.3233
▁రాహు	-11.3233
గమనం	-11.3234
▁ఉత్సవాలలో	-11.3234
▁చేసుకోవడానికి	-11.3234
▁పొన్నూరు	-11.3235
▁మోర్	-11.3235
▁ప్రపంచానికి	-11.3235
▁రికార్డ్	-11.3236
▁డామన్	-11.3237
▁చూస్తూ	-11.3237
▁విచ్చేసిన	-11.3238
▁అధ్యాపకుడు	-11.3238
▁పద్యాలలో	-11.3238
▁నిశ్చయించ	-11.324
▁భిన్నంగా	-11.324
▁మరణించింది	-11.324
స్వప్న	-11.3241
భార	-11.3243
▁చెపుతారు	-11.3245
▁హాకీ	-11.3245
▁ఫిలింస్	-11.3246
bo	-11.3247
ోత్తమ	-11.3247
▁గ్రామాల్లో	-11.3248
▁అన్నవరం	-11.3249
బంద	-11.3253
▁నాజర్	-11.3254
▁700	-11.3255
▁పురాతనమైనది	-11.3255
▁నటించి	-11.3257
▁సృష్టించాడు	-11.3259
▁వాగ్దాన	-11.3259
▁వర్ణించాడు	-11.326
▁నిలువు	-11.3261
▁ఏలూరులోను	-11.3262
▁ఏర్పరచారు	-11.3263
ోపాధ్యాయ	-11.3264
▁దేవాలయానికి	-11.3265
▁పరమాత్మ	-11.3266
▁చూపిన	-11.3266
▁స్థలాన్ని	-11.3268
▁చేసినపుడు	-11.327
▁సదా	-11.3272
▁దేశాల్లో	-11.3274
దాయక	-11.3277
ాగ్ర	-11.3277
ాయువు	-11.3278
ంబున	-11.3281
▁చిత్రాల్లో	-11.3281
▁ఏమిటి	-11.3281
▁ఏకాదశి	-11.3286
▁చెప్పడానికి	-11.3297
▁గడప	-11.33
▁గౌరి	-11.3302
తత్త్వ	-11.3304
క్రాంత	-11.3304
ical	-11.3306
▁మువ్వ	-11.3308
▁రామానుజ	-11.3308
▁లేచి	-11.3312
కీర్త	-11.3319
గ్యా	-11.332
విధాన	-11.3321
▁అందిస్త	-11.3322
▁శిల్పాల	-11.3323
▁ప్రశంసలు	-11.3327
భాగాన	-11.3333
▁పిలువ	-11.3334
▁యాత్రా	-11.3334
▁ద్వ	-11.3338
▁ఆజ్ఞ	-11.3338
▁ఎవరికి	-11.334
▁చేయమని	-11.3341
▁నిర్మాణాల	-11.3344
▁వీలుగా	-11.3345
▁నుండ	-11.3347
చుకొని	-11.3353
▁ముఖ్యమైనది	-11.3358
▁కొనసాగిన	-11.3359
▁గండి	-11.3359
▁1959:	-11.3362
▁నిండ	-11.3367
పరిశ్రమ	-11.3369
సినారె	-11.337
బ్రాహ్మణ	-11.337
▁ముచ్చట	-11.3371
కొరకు	-11.3371
▁ఆధారాల	-11.3374
▁ఉన్నదని	-11.3375
▁కొత్తపల్లి	-11.3376
ావతారం	-11.3378
▁ప్రణ	-11.3381
▁చివరలో	-11.3383
▁మచ్చ	-11.3383
▁చెవి	-11.3387
▁లభిస్తున్నాయి	-11.3388
▁మాధవి	-11.3388
300	-11.3388
▁సాంప్రదాయక	-11.339
సైన్స్	-11.339
▁ఉద్దేశించి	-11.3396
▁తడ	-11.3396
▁కాండ	-11.3403
ుకునేవారు	-11.3404
సోమ	-11.3407
ప్రదేశ	-11.3408
బలం	-11.3413
▁ఉపాధ్యాయులు	-11.342
ard	-11.3422
ణ్ణి	-11.3424
ఫోన్	-11.3426
▁పురాణాలు	-11.3426
▁భంగ	-11.3431
▁సుల్తానులు	-11.3433
▁పరీక్షలు	-11.3434
ాదులు	-11.3435
▁పట్టణాల	-11.3437
కమల	-11.3441
2003)	-11.3447
▁La	-11.3457
▁పెట్టడం	-11.3462
అల్	-11.3462
▁అర్చ	-11.3468
ెక్కడ	-11.3468
▁సాక్ష్య	-11.3478
సాగాడు	-11.3479
▁ప్రవాహ	-11.3482
tt	-11.3484
▁ఉపయోగం	-11.3484
▁విశ్లేష	-11.3486
క్రమం	-11.3487
▁స్థావరం	-11.3496
వూరు	-11.3505
1937)	-11.3505
.1926)	-11.3511
.1939)	-11.3511
ద్విపాత్రాభినయం	-11.3511
▁English	-11.3511
▁అసోసియేట్	-11.3511
▁ఇంజినీరింగ్	-11.3511
▁కలెక్టరేట్	-11.3511
▁జనసాంద్రత	-11.3511
▁నార్కట్	-11.3511
▁పురాతత్వ	-11.3511
▁పెండ్యాల	-11.3511
▁ప్రజ్ఞాశాలి	-11.3511
▁బ్రదర్స్	-11.3511
▁మహావిష్ణువు	-11.3511
▁లైబ్రరీ	-11.3511
▁విడదీసి	-11.3511
▁హిమాచల్	-11.3511
▁ఏమిటంటే	-11.3511
▁ఫొటో	-11.3511
.1915)	-11.3511
▁వ్యత్యాస	-11.3511
▁చైత్ర	-11.3511
▁బృహత్తర	-11.3511
▁స్థితిగతుల	-11.3512
▁శశిరేఖ	-11.3512
పితామహ	-11.3512
▁కాలుష్య	-11.3512
▁అపూర్వ	-11.3512
▁పర్షియా	-11.3512
▁చింతలపూడి	-11.3512
▁అనువైన	-11.3512
▁పంత్	-11.3512
▁కొన్నాళ్ళ	-11.3512
▁స్వరకర్త	-11.3513
▁are	-11.3513
▁లేకపోతే	-11.3513
▁జరుగుతూ	-11.3513
▁దారుణ	-11.3514
▁బాలాజీ	-11.3515
▁దేశవ్యాప్తంగా	-11.3515
▁ఆదివారంనాడు	-11.3516
▁సాహిత్యవేత్త	-11.3516
▁ఏర్పడుతుంది	-11.3516
పదార్ధాల	-11.3516
▁అరవై	-11.3518
▁వెనుకబడిన	-11.3519
▁త్రిలింగ	-11.3521
▁దోచుకు	-11.3524
▁హద్దు	-11.3524
▁బీదర్	-11.3524
▁చూస్తాడు	-11.3525
▁అంకిత	-11.3528
▁సవతి	-11.3528
▁పవన్	-11.3529
▁కట్టించిన	-11.353
▁భాగమైన	-11.3531
▁పూజలంద	-11.3531
▁అంతరిక్షంలో	-11.3536
▁రక్షిస్త	-11.3536
▁నిధులతో	-11.3536
▁ఆవిడ	-11.3538
▁వనరు	-11.3538
▁టెలి	-11.3539
▁అఖండ	-11.354
▁ప్రతినిధులు	-11.3541
సుందర	-11.3546
▁తెలిపే	-11.3548
▁తెలుస్త	-11.3548
▁గోపురం	-11.3548
▁చిహ్నాలు	-11.355
▁1885	-11.355
▁శేషగిరిరావు	-11.3551
▁కృష్ణవేణి	-11.3551
▁న్యాయస్థాన	-11.3551
▁బ్రాహ్మణుల	-11.3553
మూర్	-11.3553
▁ప్రవాస	-11.3554
▁నియమించాడు	-11.3555
▁వ్యాఖ్యలు	-11.3555
▁సరదా	-11.3557
▁1894	-11.3558
▁1891	-11.3558
▁వజ్రాల	-11.3559
ుకోవటానికి	-11.3559
▁ధైర్య	-11.3559
▁హెర్	-11.3559
▁బాస	-11.3561
▁ఆమోద	-11.3561
ెవరో	-11.3562
▁112	-11.3564
ార్చన	-11.3565
▁పుట్టినరోజు	-11.3565
▁కండ	-11.3566
▁సహిత	-11.3567
▁ప్రక్రియల	-11.3568
గన్న	-11.3569
▁దాతల	-11.357
▁అభయ	-11.3571
▁మిత్రులు	-11.3571
రాముడు	-11.3573
▁కంబ	-11.3575
▁గాజుల	-11.3575
▁లవ్	-11.3578
ిచ్చిన	-11.3579
▁అన్యాయం	-11.3579
▁కార్యకలాపాలు	-11.358
son	-11.3581
▁ముట్ట	-11.3583
డానిక	-11.3584
▁ప్రయోజనం	-11.3586
▁ఓటు	-11.3589
▁సంఘాలు	-11.3589
▁ప్ల	-11.359
▁తగిలి	-11.3591
▁ఓంకార	-11.3592
▁వారాల	-11.3592
▁నిర్మ	-11.3593
వేశారు	-11.3595
▁కలువ	-11.3596
▁సేవలకు	-11.3598
పండ	-11.3601
▁మృగ	-11.3602
▁సౌకర్యము	-11.3603
పింగ్	-11.3603
▁హిమాలయ	-11.3609
▁స్వీకర	-11.361
▁తుర్	-11.3614
▁ప్రతిపాద	-11.3616
దానా	-11.3626
▁కాస	-11.3626
టికీ	-11.3627
పీఠం	-11.363
▁మల్లయ్య	-11.3631
▁దేవుడి	-11.3636
▁భవనాలు	-11.3636
వేంకటేశ్వరస్వామి	-11.3638
▁వెలసి	-11.364
▁రక్తంలో	-11.3641
యంతి	-11.3642
▁స్థానికంగా	-11.3642
▁నాగర్	-11.3644
▁చూస్త	-11.3646
▁చాప	-11.3648
▁ఎక్కడా	-11.3656
▁లక్ష్య	-11.3657
రూపంలో	-11.366
జీవిత	-11.3661
కళ్యాణ	-11.3663
పర్వత	-11.3664
సృష్టి	-11.3665
త్యాగ	-11.3667
▁రాష్ట్రంలోనే	-11.3668
సహాయ	-11.3671
భుజ	-11.3672
చంద్రశేఖరరావు	-11.3674
▁రామిరెడ్డి	-11.3679
▁అనువదించి	-11.3682
▁లభిస్త	-11.3682
OS	-11.3686
ుటచే	-11.3689
▁132	-11.3692
▁నౌకా	-11.3692
ik	-11.3693
కొట్ట	-11.3695
▁విషయాలను	-11.3696
▁ప్రాకార	-11.3698
▁మిస్	-11.37
▁దీపం	-11.3701
▁రాజన్	-11.3702
▁భారతంలో	-11.3703
రోజులు	-11.3706
పోవడానికి	-11.3709
నంద్	-11.3719
▁చేపట్టి	-11.3721
▁సందర్భాలలో	-11.3723
▁220	-11.3724
▁ఏనుగులు	-11.3725
త్తె	-11.3726
▁కుమారుల	-11.3729
▁చేయబడి	-11.3731
▁వ్యతిరేకత	-11.3734
భారతీయ	-11.3744
▁156	-11.3744
---	-11.3747
ిస్తానని	-11.3754
▁వ్యాధుల	-11.3756
▁అద్దం	-11.3767
▁ఏర్పాటుచేస	-11.3771
▁దేవస్థానము	-11.3775
▁బంధించ	-11.3778
▁మరే	-11.3781
▁సామ్రాజ్యాల	-11.379
▁సంతరించ	-11.379
కిచ్చి	-11.3792
ెరిగి	-11.3794
▁కుండల	-11.3799
▁సృష్టించిన	-11.38
▁360	-11.3801
.1901)	-11.3805
.1975)	-11.3805
.2018)	-11.3805
▁అసిస్టెంట్	-11.3805
▁ఇంగ్లాండ్	-11.3805
▁కమ్యూనికేషన్	-11.3805
▁చేజిక్కించ	-11.3805
▁చేతులమీదుగా	-11.3805
▁జర్నలిస్టు	-11.3805
▁డిప్యూట	-11.3805
▁ద్రాక్షారామ	-11.3805
▁ప్రచోదయాత్	-11.3805
▁మద్యాహ్నం	-11.3805
▁రంపచోడవరం	-11.3805
▁విష్ణుకుండినుల	-11.3805
▁వృషభ	-11.3805
▁శతదినోత్సవాల	-11.3805
▁షిర్డీ	-11.3805
▁స్పీకరు	-11.3805
▁హిరణ్యకశిపు	-11.3805
▁చింతామణి	-11.3805
▁వీటూరి	-11.3805
▁వెర్షన్	-11.3805
▁సురక్షిత	-11.3805
.1900)	-11.3805
▁యాత్రికుడు	-11.3805
▁త్రిపురాంతక	-11.3805
▁ట్రేడ్	-11.3805
▁మాంత్రికు	-11.3805
▁సభాపతి	-11.3805
▁నిర్వర్తించ	-11.3805
▁తీర్ధ	-11.3805
▁సాధ్యం	-11.3806
▁బ్రహ్మంగారి	-11.3806
▁భక్తిశ్రద్ధలతో	-11.3806
▁రాజంపేట	-11.3806
▁ఆసియన్	-11.3806
▁తోలుబొమ్మలాట	-11.3806
▁నిడివి	-11.3806
▁అహంకార	-11.3806
▁కొల్లేరు	-11.3806
▁నరేష్	-11.3806
▁ఎలాగైన	-11.3806
▁స్మృతి	-11.3806
▁తరతరాల	-11.3806
ప్రాప్తి	-11.3807
▁యానాం	-11.3807
▁శాసనమండలి	-11.3807
▁సభ్యురాలు	-11.3807
▁సేనాని	-11.3807
▁నష్టం	-11.3807
▁ప్రసిద్ధిచెందిన	-11.3809
▁జరిగిందని	-11.3809
▁పీచు	-11.3809
▁చేసుకోవాలని	-11.381
▁యువకుడు	-11.381
▁నడిపే	-11.381
పర్రు	-11.381
▁బజార్	-11.3811
▁బస్తీ	-11.3811
▁భామ	-11.3811
▁ఏర్పాటుచేశారు	-11.3811
▁వారిచే	-11.3811
▁సిమెంటు	-11.3812
▁సీతాదేవి	-11.3812
▁చండీ	-11.3814
▁శత్రువుల	-11.3814
▁రుద్రమ	-11.3815
▁మస్తాన్	-11.3815
▁తిమ్మాపురం	-11.3815
▁ఏమిటో	-11.3816
▁విస్తీర్ణము	-11.3817
▁విజయలక్ష్మి	-11.3818
▁గద్య	-11.3819
▁నీళ్ళ	-11.382
▁బహుమతులు	-11.382
▁యక్షగాన	-11.382
మల్లేశ్వర	-11.382
▁గణనీయంగా	-11.3821
▁ఎలుక	-11.3822
▁ప్రయత్నిస్తాడు	-11.3822
▁కొలిచ	-11.3822
▁కనుమలలో	-11.3823
▁అడుగుపెట్ట	-11.3823
▁తాజా	-11.3825
వర్తన	-11.3825
▁విధాలు	-11.3825
▁హంపి	-11.3826
▁గడిపి	-11.3828
▁చెక్కిన	-11.3829
వర్ష	-11.383
▁సాలూరు	-11.3832
▁సాధిస్త	-11.3833
▁పుట్టుక	-11.3834
▁162	-11.3835
▁దొరికే	-11.3836
రసం	-11.3836
▁అనిపించ	-11.3836
▁వేస్తారు	-11.3838
ill	-11.384
1970)	-11.3843
▁చేపట్టారు	-11.3846
▁1862	-11.3847
tra	-11.385
▁గుర్తించింది	-11.3854
▁అంబా	-11.3854
▁వేడుకల	-11.3855
ఆర్యన్	-11.3856
▁షిప్	-11.3862
▁భద్రతా	-11.3863
▁మొత్తము	-11.3867
4,000	-11.3867
▁1800	-11.3868
▁వసతులు	-11.3871
▁నూట	-11.3872
▁నౌ	-11.3873
▁లక్ష్మణ్	-11.3876
▁పేరుమీద	-11.3877
▁కృష్ణారెడ్డి	-11.3878
▁నిర్వహించడం	-11.3884
▁కన్నయ్య	-11.3885
▁కొన్న	-11.389
▁ఫ్య	-11.3891
▁చరిత	-11.3896
▁సదుపాయాల	-11.3897
▁నగరాలకు	-11.39
aga	-11.3902
▁ప్రాంగణం	-11.3903
▁దాచి	-11.3905
దుర్తి	-11.3908
▁రాఘవాచార్య	-11.3909
▁తగుల	-11.3921
యిస్	-11.3924
▁ప్రేక్షకులు	-11.3931
ఫార్మ	-11.3932
ani	-11.3933
పురానికి	-11.394
▁వివరించి	-11.3944
▁పెర్	-11.3944
▁మంత్రుల	-11.3946
▁పదములు	-11.395
య్యర్	-11.3951
III	-11.3953
▁అందజేస	-11.3957
▁జంటగా	-11.3957
లక్ష్మణ	-11.3966
▁పక్షం	-11.3966
చెన్నై	-11.3967
AN	-11.3968
కళాశాల	-11.3969
పార్టీ	-11.3973
▁దండయాత్రల	-11.3976
విశ్వనాథన్	-11.3979
▁సఖ	-11.398
ద్వార	-11.3981
▁చెప్పబడిన	-11.3982
▁చెందినవాడు	-11.3983
▁చేప	-11.3984
▁శతాబ్దానిక	-11.3985
▁కాలు	-11.3985
▁మరణించే	-11.3987
▁పోతుల	-11.3992
పూరిత	-11.4001
▁చాలావరక	-11.4001
▁రూపొంద	-11.4005
▁అనుసంధానం	-11.4012
▁నిధుల	-11.4016
▁ఆపద	-11.402
▁గడిచి	-11.4024
▁వైవిధ్యం	-11.4026
▁దేవస్థాన	-11.4029
▁పాండవ	-11.4029
▁మండలాలతో	-11.403
▁కోల్పోయిన	-11.4033
పుట్	-11.4034
▁129	-11.4034
ll	-11.4036
▁ముప్ప	-11.4036
ములైన	-11.4037
ఖానా	-11.4048
▁బావా	-11.4054
▁కట్టడాల	-11.406
▁తరచు	-11.4063
▁తిరునాళ్ళ	-11.4063
▁కార్మికుల	-11.4065
▁శ్రీరాం	-11.4068
▁నిండు	-11.4069
100	-11.4071
▁అశోకు	-11.4071
ాలనుకున్న	-11.4076
1991)	-11.408
పేర	-11.4081
▁అద్భుతం	-11.4081
▁రాజకీయంగా	-11.4085
న్నిటి	-11.4088
▁ఉద్యానవన	-11.4091
ian	-11.4095
వీరు	-11.4096
▁135	-11.4102
▁తత్	-11.4106
▁ఫెడర	-11.4108
ాళ్వార్	-11.4108
▁గెలుపొంది	-11.4108
▁యశోద	-11.4108
.1907)	-11.4108
.1909)	-11.4108
fficial	-11.4108
▁with	-11.4108
▁కన్నులపండువ	-11.4108
▁గుండెపోటు	-11.4108
▁గుడ్లవల్లేరు	-11.4108
▁ఛంధము	-11.4108
▁జరిపారు	-11.4108
▁జవాబు	-11.4108
▁జాతీయరహదారి	-11.4108
▁ధీమహి	-11.4108
▁పెదవేగి	-11.4108
▁పేర్కొంది	-11.4108
▁ప్రవహిస్తూ	-11.4108
▁బిజినెస్	-11.4108
▁మరికొందర	-11.4108
▁మేనల్లుడు	-11.4108
▁విద్మహే	-11.4108
▁విరూపాక్ష	-11.4108
▁షూటింగ్	-11.4108
▁సెకండరీ	-11.4108
▁తుళువ	-11.4108
▁విరాళాల	-11.4108
.1910)	-11.4108
.1930)	-11.4108
▁చంద్రబోస్	-11.4108
▁తుఫాను	-11.4108
▁పరాజయం	-11.4108
▁స్థూప	-11.4108
హిరణ్య	-11.4108
▁వాయిద్య	-11.4108
▁కావేరీ	-11.4108
▁వితరణ	-11.4108
▁హవేలీ	-11.4108
▁ఇడ్లీ	-11.4109
▁చిత్రలేఖన	-11.4109
▁పతకం	-11.4109
▁రైల్వేస్టేషను	-11.4109
▁లెనిన్	-11.4109
▁అప్పలాచార్య	-11.4109
▁శాస్త్రజ్ఞుల	-11.4109
▁పరిగణిస్తారు	-11.4109
▁లండన్లో	-11.411
▁[[	-11.411
▁రమ్యకృష్ణ	-11.411
▁విడిపించ	-11.411
▁యోగ్యమైన	-11.411
▁మైక్రో	-11.411
▁జరిపే	-11.411
▁వెళతాడు	-11.4111
▁మెప్పించ	-11.4112
▁వెంకటరత్నం	-11.4112
▁తాలుకా	-11.4113
▁దుర్మార్గ	-11.4113
day	-11.4113
▁నమ్ముతారు	-11.4113
▁మార్క్స్	-11.4114
ప్రభుత్వం	-11.4116
▁బొమ్మలాట	-11.4116
▁నన్నయ్య	-11.4116
▁కోరుతూ	-11.4116
▁బందీ	-11.4116
ోదర	-11.4118
▁రావణుని	-11.412
▁చెప్పుకోవచ్చు	-11.4122
▁కోయిల	-11.4122
▁పాలేరు	-11.4124
▁డిమాండ్	-11.4124
వారిపాలెం	-11.4124
▁షాహి	-11.4125
ఫుల్	-11.4128
▁చెప్తారు	-11.4131
▁తినడం	-11.4132
జీవన	-11.4133
▁ఆంధ్రదేశంలో	-11.4133
▁విధులు	-11.4133
▁రాష్ట్రస్థాయి	-11.4134
▁నందా	-11.4138
▁బాబూ	-11.4139
▁పచ్చడి	-11.414
రాదని	-11.4141
▁మాండ్య	-11.4144
▁జరుగుతున్నది	-11.4144
▁పూర్వీకులు	-11.4147
▁1886	-11.4148
మిక్కిలినేని	-11.4151
ప్రోలు	-11.4152
▁వ్యాప	-11.4154
▁చదరంగం	-11.4154
▁శరీరము	-11.4163
▁నాటికే	-11.4165
▁నోరు	-11.4166
త్తూరు	-11.4169
▁మంటపం	-11.417
▁పిల్లి	-11.417
గట్టి	-11.4174
▁స్వరాజ్య	-11.4178
▁రాలేదు	-11.4178
▁పట్టణాలకు	-11.4181
▁కార్ల్	-11.4183
▁అర్థము	-11.4184
▁గణాలు	-11.4186
▁భరించ	-11.4188
▁De	-11.4192
▁మైలవరం	-11.4199
▁విలసిల్ల	-11.4199
▁మధుమేహం	-11.4202
▁సుభా	-11.4206
▁నిబంధనల	-11.4207
▁పనులకు	-11.4211
▁అవకాశ	-11.4217
సోర్స	-11.422
ఫై	-11.4221
▁ప్రయోజనాల	-11.4222
▁అక్షరముల	-11.4225
▁పారిపోయి	-11.4228
▁సర్ప	-11.4231
▁చదువుచున్న	-11.424
వస్తువు	-11.4244
▁భూపాల	-11.4245
▁కొరత	-11.4246
▁విక్రయ	-11.425
▁రాజన్న	-11.4254
భంగ	-11.4256
▁తరాల	-11.4257
▁అనుసరిస్త	-11.4266
కన్య	-11.4269
▁మంత్రిత్వ	-11.4271
▁మెట్లు	-11.4273
రాఘవేంద్రరావు	-11.4278
ఇంగ్లీషు	-11.4279
అమెరికా	-11.428
రఘు	-11.4281
అందులో	-11.4281
▁చనిపో	-11.4284
లలిత	-11.4286
▁కల్యాణం	-11.429
ుకోలేదు	-11.429
బిడ్డ	-11.4292
ఘోష	-11.4292
రంగు	-11.4293
అతను	-11.4296
సరోజ	-11.4297
▁పీడ	-11.4301
▁రికార్డులు	-11.4302
▁పరిమాణం	-11.4303
▁అలంకరించి	-11.4304
▁ఉద్యోగులు	-11.4305
ఫే	-11.4315
▁వేయించి	-11.4321
our	-11.4321
▁భవన్	-11.4325
▁మెత్త	-11.4327
▁కళ్ల	-11.4333
పయోగ	-11.4333
▁అక్షాంశ	-11.4335
▁శివుడి	-11.4336
str	-11.4336
▁పట్టణాలలో	-11.4344
▁ఉదాహరణలు	-11.435
స్తుంటాయి	-11.435
రుద్ర	-11.4352
▁గడించ	-11.4356
▁ఆరోపణ	-11.4358
▁పోరు	-11.4371
▁చల్లగా	-11.4374
ath	-11.4375
▁నిపుణుల	-11.4376
-24	-11.4376
బడును	-11.4377
▁పల్లవుల	-11.4377
▁బదులు	-11.4378
▁తొమ్మిద	-11.4383
▁గాయపడ్డ	-11.4384
చైనా	-11.4385
▁బంధువుల	-11.4388
ుకునేందుకు	-11.439
▁పులుల	-11.4392
▁భావించిన	-11.4393
▁విశాల	-11.4399
▁ట్రాన్స్	-11.4404
రంజని	-11.4406
400	-11.4406
కలిగి	-11.4407
▁సత్యాగ్రహ	-11.4413
▁స్వచ్ఛ	-11.4413
ుకోడానికి	-11.4415
▁కీర్తన	-11.4418
▁అవసరమై	-11.4418
.1986)	-11.4421
▁అన్వేషణ	-11.4421
▁ఆకుపచ్చ	-11.4421
▁ఋతుపవనాల	-11.4421
▁ఏర్పాటైన	-11.4421
▁ఒరిస్సా	-11.4421
▁కల్వకుర్తి	-11.4421
▁డాక్టరేట్	-11.4421
▁తళ్ళికోట	-11.4421
▁తాగునీటి	-11.4421
▁ధార్మిక	-11.4421
▁ఫాల్గుణ	-11.4421
▁మహాశివరాత్రి	-11.4421
▁ముసునూరి	-11.4421
▁రోహిణి	-11.4421
▁విద్యనభ్యసించ	-11.4421
▁వెంగమాంబ	-11.4421
▁షాద్నగర్	-11.4421
▁సామర్ధ్య	-11.4421
▁సుందరరామ్మూర్తి	-11.4421
▁హుబ్లి	-11.4421
▁నర్తకి	-11.4421
▁నేలకొండపల్లి	-11.4421
▁ముళ్ళపూడి	-11.4421
▁వివేకానంద	-11.4421
▁వెబ్సైట్	-11.4421
▁వినోబా	-11.4421
▁సన్నిధి	-11.4421
▁భ్రమరాంబ	-11.4421
▁జమ్మూ	-11.4421
▁మాడుగుల	-11.4421
▁ధనవంతుడ	-11.4421
▁లోతైన	-11.4421
▁టైటిల్	-11.4421
▁కన్యాశుల్కం	-11.4421
▁దీపావళి	-11.4421
▁లక్షద్వీప	-11.4421
▁కథాంశం	-11.4421
▁సేవలందించ	-11.4422
▁మొదలవుతుంది	-11.4422
▁అంతేకాదు	-11.4422
▁ఫుడ్	-11.4422
▁ప్రయత్నాల	-11.4422
మంజరి	-11.4422
▁కాంచనమాల	-11.4423
▁వన్య	-11.4423
▁క్రిస్టియన్	-11.4423
▁గడుపుత	-11.4423
▁మొదలయిన	-11.4423
▁వెదురు	-11.4423
▁అర్పించ	-11.4423
▁మిశ్రమ	-11.4423
▁పెనుకొండ	-11.4423
▁పదార్థం	-11.4423
▁బీజపూర్	-11.4424
▁విరమించ	-11.4424
▁పునః	-11.4424
▁Pro	-11.4424
▁సూర్యకుమారి	-11.4424
▁భండార	-11.4425
▁ప్రతీకారం	-11.4425
▁సృష్టించి	-11.4425
▁వోల్	-11.4425
▁Lin	-11.4425
ించేందుకు	-11.4426
▁జోడించ	-11.4426
▁పూర్తిస్థాయి	-11.4427
▁చెంచు	-11.4428
▁ఎముకల	-11.4428
▁దహన	-11.4428
ాశ్రయ	-11.4428
▁అష్టావధాన	-11.443
▁లక్షలాది	-11.443
▁కనిపెట్టిన	-11.4431
▁ఒక్కటే	-11.4431
▁అంతర్భాగం	-11.4431
▁గంగానది	-11.4433
▁దర్శనమిస్త	-11.4433
▁కృష్ణకుమారి	-11.4434
▁పాకిస్థానీ	-11.4435
▁ఓహో	-11.4436
▁ఎనిమిదవ	-11.4436
▁పనిచేస్తూ	-11.4436
▁రాణీ	-11.4436
హరణ	-11.4437
▁అశోక	-11.4438
▁సంతకాలు	-11.4439
▁పుత్రుడు	-11.4439
▁ఇతడి	-11.444
▁నియమించింది	-11.4441
▁సోమేశ్వర	-11.4442
▁వచ్చినపుడు	-11.445
ఫ్ట్	-11.4451
▁దొరుకు	-11.4452
▁చేసాయి	-11.4454
▁వాస్తవానికి	-11.4454
▁మూడింట	-11.4456
▁1883	-11.4458
!!	-11.4458
▁ఆముద	-11.4461
▁పారిస్	-11.4462
▁వ్యాపించ	-11.4463
▁రంగనాథ్	-11.4464
▁తాలూకాలోని	-11.4464
▁1888	-11.4465
▁కోపంతో	-11.4465
▁ప్రధానమైనవి	-11.4466
anga	-11.447
▁రాజాజీ	-11.4471
త్రో	-11.4471
పఠన	-11.4471
వలసింది	-11.4472
▁ఘట	-11.4472
▁నియమించారు	-11.4472
▁210	-11.4473
▁సూరి	-11.4477
▁విశ్వసిస్త	-11.4477
▁చుట్టి	-11.4478
▁ఇంద్రుడు	-11.4482
కంటె	-11.4484
▁గింజల	-11.4486
▁కార్యక్రమాలకు	-11.4491
▁చెల్లెలి	-11.4492
హక్రా	-11.4492
విరోధ	-11.4494
మాలిక	-11.4494
▁ముక్తి	-11.4501
▁నియమాలు	-11.4501
▁ఆహ్లాదకర	-11.4501
’’	-11.4505
▁పాండు	-11.4506
▁క్రీడాకారుల	-11.4507
▁పాపయ్య	-11.4507
వెల్లి	-11.4508
▁వ్యాధులు	-11.4518
▁తియ్య	-11.4522
▁కాల్పుల	-11.4522
▁అయ్యర్	-11.4523
▁సూర్యుడు	-11.4524
▁నాయకత్వ	-11.4526
▁మానవుడు	-11.4528
▁సంహరించ	-11.4529
▁అధికారాలు	-11.4533
యగు	-11.4534
▁స్థిరపడ్డార	-11.4534
మెల్ల	-11.4541
▁లక్ష్యంగా	-11.4541
బడుతోంది	-11.4545
రణాలు	-11.4545
▁కూతురి	-11.4549
▁రంగనాధ	-11.4556
▁నోట	-11.4556
▁గ్రహాల	-11.4556
దలచి	-11.4559
▁స్థానము	-11.4571
▁లొంగ	-11.4572
▁శాస్త్రాల	-11.4572
ern	-11.4574
▁చెన్నకేశవ	-11.4575
ప్రాంతాలలో	-11.4577
▁అందజేసిన	-11.458
▁శ్లోకాలు	-11.4586
▁కాల్వ	-11.4587
▁వేతన	-11.4587
▁కలుసుకు	-11.459
వంశం	-11.4591
▁బౌద్ధమత	-11.4594
వృక్ష	-11.4602
అక్టోబరు	-11.4602
రోడ్డు	-11.4603
తిరుమల	-11.4603
నక్షత్ర	-11.4603
శారద	-11.4603
▁Th	-11.4605
▁సమయము	-11.4607
▁మతము	-11.4607
ప్రేమ	-11.461
ఇతను	-11.4611
1938)	-11.4614
▁సాంకేతికత	-11.4617
▁చిహ్న	-11.4618
▁తట్ట	-11.4624
hy	-11.4625
▁వ్యాసము	-11.4633
▁ప్లాంట్	-11.4639
ాయపాలెం	-11.4643
▁ముస్లిముల	-11.4645
అంటే	-11.4646
▁కీర్తనల	-11.465
▁మాణిక్య	-11.4652
ెందు	-11.4652
▁సేన్	-11.4662
పట్టి	-11.4663
శిల్ప	-11.4666
▁యుండ	-11.4668
▁యమున	-11.4669
▁విరాట	-11.4676
▁ఇతివృత్తం	-11.4679
▁కొత్తూరు	-11.4683
▁ప్రజల్లో	-11.4684
▁ఆవిర్భవ	-11.4688
బర్గ్	-11.4693
▁సమాధాన	-11.4699
▁ఎప్పటిక	-11.4702
▁ఇంతే	-11.4709
గండ్ల	-11.4711
▁ప్రత్యక్షమై	-11.4711
రణాల	-11.4712
విస్తర	-11.4713
▁పేరుపొంద	-11.4722
▁పేరే	-11.4727
జాతుల	-11.4735
title	-11.4743
▁language	-11.4743
▁నెరవేర	-11.4743
.1998)	-11.4743
▁అనసూయ	-11.4743
▁ఔరంగాబాద్	-11.4743
▁కాంప్లెక్స్	-11.4743
▁కెప్టెన్	-11.4743
▁తృతీయ	-11.4743
▁పుదుచ్చేరి	-11.4743
▁పురస్కరించుకొని	-11.4743
▁ప్రమాణస్వీకారం	-11.4743
▁యునెస్కో	-11.4743
▁వ్రాసాడు	-11.4743
▁సత్తెనపల్లి	-11.4743
▁సికింద్రాబాద్	-11.4743
▁కనిపిస్తున్న	-11.4743
▁గాయకురాలు	-11.4743
▁తానీషా	-11.4743
▁మంజీరా	-11.4743
▁స్వాగతం	-11.4743
▁అలంకరణ	-11.4744
▁పటిష్ఠ	-11.4744
▁లిఖిత	-11.4744
▁వశిష్ట	-11.4744
▁సాధువు	-11.4744
▁మార్పిడి	-11.4744
▁లూయీ	-11.4744
▁తజిక్	-11.4744
జమునారాణి	-11.4744
▁జడ్జి	-11.4744
▁అపహరించ	-11.4744
▁భంగిమ	-11.4744
▁దశరథ	-11.4744
▁వైశాలి	-11.4744
▁అచ్చంపేట	-11.4744
india	-11.4744
▁ధ్వని	-11.4744
▁ఉత్తేజ	-11.4744
▁వివక్ష	-11.4744
▁ఆలపించ	-11.4744
▁ముఖద్వారం	-11.4744
▁వ్రాసే	-11.4744
▁దేవాదాయ	-11.4744
▁రఘురామయ్య	-11.4744
▁తీసికొని	-11.4744
▁చంద్రబాబునాయుడు	-11.4745
▁వారపత్రిక	-11.4745
▁ఋణ	-11.4745
▁లీడర్	-11.4745
▁అంతిమ	-11.4745
▁భగవాన్	-11.4745
▁ప్రారంభమవుతుంది	-11.4745
గలిగారు	-11.4745
▁యూదులు	-11.4745
గఢ్	-11.4746
▁అందుచేత	-11.4746
▁రవీంద్రనాథ్	-11.4746
▁దేశమంతటా	-11.4746
▁గడిపాడు	-11.4746
బృహ	-11.4746
ద్వారం	-11.4746
▁పాయింట్	-11.4747
▁పద్మనాభం	-11.4747
▁వందలాది	-11.4747
▁శనివారంనాడు	-11.4747
▁చిత్రాల్లోనూ	-11.4747
▁కీసర	-11.4747
▁అంధ	-11.4747
▁మొదలుకొని	-11.4747
▁వెలిస	-11.4748
▁శ్రీరామమూర్తి	-11.4749
▁తీసుకోలేదు	-11.475
▁రాకెట్	-11.475
▁కోటేశ్వరరావు	-11.475
▁వరుణ	-11.4751
▁వెంకట్రావు	-11.4751
▁కుదిరింది	-11.4751
▁సాంప్రదాయిక	-11.4751
▁తెలియజేస్తుంది	-11.4751
▁విష్ణుమూర్తి	-11.4751
స్తుంటారు	-11.4752
▁జులై	-11.4752
▁మెక్	-11.4753
▁అవుతాయి	-11.4753
▁వలపు	-11.4755
▁మొదలుపెట్టారు	-11.4756
▁అవుతాడు	-11.4757
▁గ్రామదేవత	-11.4757
▁చేరుకుని	-11.4758
▁ముంపు	-11.4759
చుక్క	-11.476
▁చూడటానికి	-11.476
▁ప్రవేశపెట్టింది	-11.4761
▁మీడియా	-11.4761
▁నిలిచారు	-11.4762
▁ఓడించాడు	-11.4762
▁పుత్రులు	-11.4765
▁మధ్యాహ్నం	-11.4766
▁శ్రీకాంత్	-11.4767
▁చిన్ననాటి	-11.4768
▁చేసుకోవచ్చు	-11.477
▁కలిగిస్తుంది	-11.4771
▁కార్యాలయాన్ని	-11.4773
▁పెద్దయె	-11.4774
▁నాగరాజు	-11.4781
▁నిజమైన	-11.4783
AT	-11.4783
▁వాడకం	-11.4783
▁కనిపించింది	-11.4786
▁జలపాతాలు	-11.4787
వలసినది	-11.4787
▁పనిచేస్తున్నారు	-11.4788
▁తగ్గింది	-11.4789
▁నిలిచిన	-11.479
▁మొవ్వ	-11.479
▁గంగమ్మ	-11.4791
▁ఉద్యోగాలు	-11.4792
▁విశ్లేషణ	-11.4793
▁ఒప్పుకో	-11.4795
▁అదుపులో	-11.4799
▁బట్టలు	-11.4801
▁ఫలితాలు	-11.4802
▁కల్పించారు	-11.4804
▁పథకాల	-11.4809
▁కావచ్చును	-11.481
▁భవనాన్ని	-11.4811
▁ఒకరైన	-11.4811
▁సంవత్సరాల్లో	-11.4811
1989)	-11.4811
▁కావూరు	-11.4818
▁జాగ్రత్తగా	-11.4823
▁కోల్పోయి	-11.4823
▁క్షేత్రాలు	-11.4826
▁ప్రణయ	-11.4826
డౌ	-11.4833
వెంట	-11.4836
▁161	-11.4841
చేస్తున్న	-11.4842
▁ఉష్ణోగ్రతలు	-11.4842
▁స్వామివారు	-11.4843
▁కార్మికులు	-11.486
▁రక్షించి	-11.4862
▁కొంతభాగ	-11.4862
ive	-11.4868
▁114	-11.4875
▁రాముడి	-11.4875
ia	-11.4878
▁ఒక్కర	-11.488
▁అర్చన	-11.4885
న్నార్	-11.4887
▁సుందరమైన	-11.4892
▁రాళ్ళు	-11.4893
▁సంగమం	-11.4895
▁యాస	-11.4899
బోర్	-11.49
1951)	-11.4902
▁ఉండడంతో	-11.4902
▁వ్యవహరిస్త	-11.4903
పాడ	-11.4912
▁ప్రవహిస్తున్న	-11.4913
▁అవతల	-11.4914
do	-11.4917
ంజనం	-11.4919
▁యిచ్చ	-11.4919
▁పర్సన	-11.4919
▁నిషేధం	-11.4919
the	-11.4923
మానవ	-11.4925
▁పిల్లా	-11.4926
▁బీద	-11.4927
శుద్ధ	-11.4934
ప్రకాష్	-11.4935
▁రథం	-11.4935
సుబ్బారావు	-11.4936
The	-11.4936
నాగేశ్వరరావు	-11.4937
ధాన్య	-11.494
▁సంబంధము	-11.494
▁పరీక్షల	-11.4941
▁బిళ్ళ	-11.4943
ప్రథమ	-11.4951
▁మెచ్చి	-11.4951
జింగ్	-11.4958
క్రిష్	-11.496
లాగానే	-11.4963
మనిషి	-11.4965
▁గృహాల	-11.4965
▁1,2	-11.4973
▁వేయడం	-11.4973
▁ఉద్యోగి	-11.4974
▁పూరించ	-11.4975
▁కాండము	-11.4984
▁ఆయన్న	-11.4985
▁అంజి	-11.4986
▁నడుప	-11.4988
▁స్వాధీన	-11.4992
▁చింద	-11.4996
▁పట్టే	-11.4998
నాధుని	-11.5002
▁నియమిత	-11.5009
ానంతర	-11.5011
ture	-11.5013
▁అనుసంధాన	-11.5018
▁కప్పు	-11.5019
బడుతున్నది	-11.502
▁సందర్శించిన	-11.5025
▁దుస్తుల	-11.5026
▁స్థిరపడిన	-11.5027
▁చైతన్యం	-11.5032
ించాడని	-11.5045
షో	-11.5047
▁be	-11.5051
▁హరిత	-11.5056
వాడైన	-11.5059
▁124	-11.5063
నైవేద్య	-11.5069
ాంజనేయ	-11.5075
▁తోలుబొమ్మల	-11.5076
▁క్రిస్ట	-11.5076
.1992)	-11.5077
orld	-11.5077
▁ఉత్తరాఖండ్	-11.5077
▁చైనీస్	-11.5077
▁ఛాంపియన్	-11.5077
▁ఛాయాగ్రాహకుడు	-11.5077
▁టమోటా	-11.5077
▁తీసుకెళ్ళ	-11.5077
▁తుర్కమేనిస్తాన్	-11.5077
▁త్రాగునీటి	-11.5077
▁నటీనటుల	-11.5077
▁మాల్దీవుల	-11.5077
▁మునిసిపాలిటీ	-11.5077
▁మెమోరియల్	-11.5077
▁శ్రీమహావిష్ణువు	-11.5077
▁క్రమశిక్షణ	-11.5077
▁జయప్రకాశ్	-11.5077
▁ద్రోణ	-11.5077
▁నమోదైంది	-11.5077
▁పాపఘ్ని	-11.5077
▁రిజర్వాయర్	-11.5077
▁వామపక్ష	-11.5077
▁అదిలాబాదు	-11.5077
▁ఇండస్ట్రీ	-11.5077
▁ఖరీఫ్	-11.5077
▁జడ్చర్ల	-11.5077
▁సమకాలిక	-11.5077
▁మార్షల్	-11.5077
▁వ్యవధి	-11.5077
అక్షరాస్యుల	-11.5077
▁అందుకనే	-11.5077
▁కోరుట్ల	-11.5077
▁పొదిలి	-11.5077
▁సుమతీ	-11.5077
▁దిగుబడి	-11.5077
▁పండిట్	-11.5077
▁గంధర్వ	-11.5077
▁గాంచింది	-11.5077
▁స్కంద	-11.5077
▁ఆనవాళ్ళు	-11.5077
▁చెప్పుకోదగిన	-11.5077
▁శిష్యుడు	-11.5077
▁కొవ్వు	-11.5077
▁మహాత్మాగాంధీ	-11.5077
▁సత్యజిత్	-11.5077
▁ఐక్యరాజ్య	-11.5077
▁షరతు	-11.5077
▁గ్రీన్	-11.5077
▁రేఖాంశాల	-11.5077
▁ఎరుపు	-11.5077
▁జ్వరం	-11.5077
▁భానుప్రియ	-11.5077
▁కమలాబాయి	-11.5077
▁సమాధుల	-11.5078
▁ముట్టడించ	-11.5078
▁చరణ్	-11.5078
▁గూడవల్లి	-11.5078
▁ఎన్నికయ్యారు	-11.5078
▁జయలలిత	-11.5078
▁పనిచేసారు	-11.5078
▁ఉష్ణమండల	-11.5079
▁గురువారంనాడు	-11.5079
▁పేజీలున్నందు	-11.5079
▁ఇరానీ	-11.508
▁డబుల్	-11.5081
▁బ్రహ్మపుత్ర	-11.5081
▁విప్లవాత్మక	-11.5081
▁వాడుతున్నారు	-11.5081
▁రాజేంద్రప్రసాద్	-11.5082
▁ప్రేమికుల	-11.5082
▁చీఫ్	-11.5082
▁డచ్చి	-11.5082
▁హరికథా	-11.5083
▁సింగపూర్	-11.5083
▁రంగాచార్యులు	-11.5083
ism	-11.5085
▁లభిస్తాయి	-11.5085
▁అందిస్తున్నాయి	-11.5086
con	-11.5087
▁ధర్మారం	-11.5087
▁ఆద్యుడు	-11.5088
▁ప్రయత్నించి	-11.5089
▁పోషించింది	-11.509
▁అనువదించారు	-11.509
▁ఎద్దుల	-11.5091
▁బెలూ	-11.5093
కోశం	-11.5095
▁ముండ	-11.5095
▁డాన్స్	-11.5096
▁విరిగి	-11.5096
▁జన్మదిన	-11.5096
▁కలాం	-11.5097
▁అప్పుడప్పుడు	-11.5101
▁ఇల్లాలు	-11.5103
▁ముచ్చ	-11.5104
▁అవకాశము	-11.5104
ిస్తోంది	-11.5105
▁ఫోర్స్	-11.5105
▁తీసుకున్నాడు	-11.5109
▁చాలాకాలం	-11.5109
▁ముఖ్యమంత్రులు	-11.511
▁భేదములు	-11.511
▁సంయుక్తంగా	-11.5111
ాయుధ	-11.5111
▁అనుభవించాడు	-11.5112
▁కరణం	-11.5113
▁పిలుచు	-11.5114
▁పాకాల	-11.5115
▁1858	-11.5117
▁కూరగాయల	-11.5118
▁యోగము	-11.5124
ందురు	-11.5126
▁ప్రవేశపెట్టారు	-11.5126
▁కొనసాగుతున్న	-11.5128
న్నిటినీ	-11.5129
▁ఆచార్యుడు	-11.5134
▁పాదాలు	-11.5134
6,000	-11.5137
▁భరత్	-11.5137
గోల్	-11.5139
▁రాష్ట్రీయ	-11.5142
▁ఇరువైపుల	-11.5147
blog	-11.5156
▁కృష్ణయ్య	-11.5157
గ్రాహ	-11.5158
▁దారితీస	-11.5158
▁తయారుచేసిన	-11.5159
▁దాటిన	-11.5161
les	-11.5165
▁ఇండోర్	-11.5167
▁అక్షాంశం	-11.5171
మల్లికార్జునరావు	-11.5171
▁సంప్రదాయానికి	-11.5172
▁సంరక్ష	-11.5175
▁స్వరపరిచ	-11.5178
▁ప్రసిద్ధుడు	-11.518
▁మొదలయ్యింద	-11.5184
▁రూపాన్ని	-11.5186
▁తిమ్మన	-11.5188
▁గుప్తా	-11.5192
▁ఎస్వీ	-11.5195
స్మృత	-11.52
▁తేమ	-11.52
▁జోషి	-11.5205
▁మినీ	-11.5207
ంపబడ	-11.5211
▁నిర్మించే	-11.5211
▁వెళ్ళింది	-11.5212
ంగీతం	-11.5213
పల్ల	-11.5217
▁సన్యాసి	-11.5219
▁నాగేశ్వర	-11.5225
▁ప్రస్థానం	-11.5227
▁ఆరంభకాల	-11.5229
యెల్	-11.5231
▁మధుసూదన	-11.5238
లందరి	-11.5243
ించేవాడు	-11.5243
ear	-11.5243
▁చింతల	-11.5245
ెయిల్	-11.5248
▁పరిమితమైన	-11.525
▁జాలి	-11.5251
ాంజనేయస్వామివారి	-11.5255
▁చక్రము	-11.5256
▁పోడూరు	-11.5257
▁కలిస	-11.5258
min	-11.5259
▁కుమారుని	-11.5259
▁దర్శ	-11.526
▁మానస	-11.5263
▁అధికరణ	-11.5265
దొడ్డి	-11.5265
▁ప్రాకారం	-11.5265
▁పూర్తయ	-11.5269
▁కలవు	-11.5269
▁ఇళ్ల	-11.5269
▁కార్యక్రమ	-11.527
▁వైశాల్య	-11.527
వుతుంద	-11.5277
▁గడు	-11.5277
సామాన్య	-11.5281
వసంత	-11.5286
▁కాణ	-11.5295
▁జీవితాంత	-11.5303
▁గురైన	-11.5309
▁నిబంధన	-11.5311
▁సహాయపడ	-11.5313
2008	-11.5315
▁చేసుకొంట	-11.5319
▁చలపతి	-11.5326
కాంక్ష	-11.5329
▁మోద	-11.533
మందిరం	-11.5331
▁హిమాలయాల	-11.5334
▁కందుల	-11.5346
▁పార్లమెంట	-11.5347
ినప్పటికీ	-11.5351
▁145	-11.5359
▁గింజలు	-11.5365
తీయ	-11.5368
▁కృతుల	-11.5368
క్షేత్ర	-11.5375
ాస్త్ర	-11.5377
▁విశ్వేశ్వర	-11.5378
▁రాయల్	-11.5387
▁తీసుకోవాల	-11.5389
▁వందే	-11.5392
▁కోల్పో	-11.5402
▁ద్రవ	-11.5403
వెంకటేశ్వరస్వామి	-11.5405
▁ఆలోచ	-11.5408
▁సవరించ	-11.5412
▁చెరుకు	-11.5415
▁కుదిరి	-11.5416
▁లఘు	-11.5417
▁ఏర్పడ్డ	-11.5417
నిరోధ	-11.5418
▁దౌత్య	-11.5421
.1976)	-11.5422
▁Publish	-11.5422
▁అరుణాచల్	-11.5422
▁ఇటాలియన్	-11.5422
▁ఉపనిషత్తుల	-11.5422
▁కనిపిస్తాడు	-11.5422
▁కమిషను	-11.5422
▁ఘగ్గర్	-11.5422
▁చురుకైన	-11.5422
▁జమిందారు	-11.5422
▁తత్త్వవేత్త	-11.5422
▁దృక్పథ	-11.5422
▁ధూర్జటి	-11.5422
▁నిర్వచించ	-11.5422
▁పెట్టుబడుల	-11.5422
▁ప్రయోక్త	-11.5422
▁ప్రెసిడెంట్	-11.5422
▁బంగాళాదుంప	-11.5422
▁బాలమురళీకృష్ణ	-11.5422
▁మ్యూజిక్	-11.5422
▁రజనీకాంత్	-11.5422
▁లినక్సు	-11.5422
▁విక్టోరియా	-11.5422
▁వెంపటి	-11.5422
▁సంఘర్షణ	-11.5422
▁సంతృప్తి	-11.5422
ననుసరించి	-11.5422
▁ఆవిర్భావ	-11.5422
▁గాయత్రీ	-11.5422
▁ఘటోత్కచ	-11.5422
▁జాగీరు	-11.5422
▁దుర్యోధన	-11.5422
▁ఫ్లాష్	-11.5422
▁సెక్రటరీ	-11.5422
.1911)	-11.5422
▁చుండూరు	-11.5422
▁గన్నవరం	-11.5422
▁ఘన్పూర్	-11.5422
▁విద్వాన్	-11.5422
▁బాపిరాజు	-11.5422
▁మర్యాద	-11.5422
▁రాజనీతి	-11.5422
▁పరిమళ	-11.5422
ఎత్తిపోతల	-11.5422
▁ఎనలేని	-11.5422
▁తరిమి	-11.5422
▁అత్యల్ప	-11.5422
▁నౌకాదళ	-11.5422
▁బ్రహ్మంగారు	-11.5422
▁గడియార	-11.5422
▁వెన్నెలకంటి	-11.5422
▁త్రిభువన	-11.5422
▁పుష్కరిణి	-11.5422
ల్యాండ్	-11.5422
▁ప్రళయ	-11.5422
▁సంక్షోభం	-11.5422
▁క్రాస్	-11.5422
▁బిర్లా	-11.5422
▁కొలనుపాక	-11.5422
▁వేదపండితుల	-11.5423
▁పదమూడ	-11.5423
▁ప్రకటిస్త	-11.5423
▁ఎడమవైపు	-11.5423
▁మన్ననల	-11.5423
▁తొందర	-11.5423
▁ప్లాంటు	-11.5423
▁సభ్యుడిగా	-11.5423
ుకొంది	-11.5423
నాల్డ్	-11.5424
ట్లయితే	-11.5424
▁కర్తవ్య	-11.5424
▁సహకరిస్త	-11.5425
▁పరిపాలిస్త	-11.5426
▁భవాని	-11.5426
▁పొందుతాడు	-11.5426
▁ఆదేశించ	-11.5426
▁టెర్ర	-11.5427
▁మాట్లాడుతూ	-11.5428
▁పారాయణ	-11.5428
▁పూజిస్తారు	-11.5428
▁మిరియాల	-11.5429
▁నగలు	-11.543
▁కదిలి	-11.543
▁ఎవరికీ	-11.543
▁వరస	-11.5431
▁వ్యక్తిత్వం	-11.5433
▁త్యాగయ్య	-11.5433
▁వృత్తాంత	-11.5434
1958)	-11.5434
▁గర్భం	-11.5434
▁దీనివల్ల	-11.5435
▁కురుక్షేత్ర	-11.5437
▁సంపాదిస్త	-11.5437
▁గోవిందరావు	-11.5437
▁కొడవట	-11.544
▁కల్పించడానికి	-11.5441
▁పేదలకు	-11.5443
▁జయించ	-11.5443
▁కావడానికి	-11.5445
▁మనసే	-11.5447
▁ప్రధానపాత్ర	-11.5447
▁కంచు	-11.5449
▁పూజారి	-11.545
ుటకై	-11.5451
▁నిర్వహించడానికి	-11.5453
▁రెండుసార్లు	-11.5455
▁బాధ్యతలను	-11.5456
తుందని	-11.5457
▁ఉపనదులు	-11.5457
▁ధీర	-11.5457
▁సుధా	-11.5457
▁భద్రపరచ	-11.5459
కూడదని	-11.5459
▁రాగానే	-11.5459
చేసారు	-11.5459
▁కొనసాగించారు	-11.546
శ్రీశ్రీ	-11.5461
▁యమునా	-11.5463
▁కోటగిరి	-11.5464
▁భూభాగాన్ని	-11.5472
▁తిరునాళ్ళు	-11.5473
▁మదర్	-11.5478
▁గాత్ర	-11.5479
▁ముగింపుకు	-11.5479
ప్రేమించుకుంటారు	-11.548
▁మాటల్లో	-11.5481
▁వధించ	-11.5482
▁నిలచి	-11.5487
గ్రహణం	-11.5488
▁కిరీట	-11.5488
▁అధీనంలోకి	-11.5488
▁విలువల	-11.5493
▁న్యాయవాద	-11.5501
eb	-11.5501
▁సంఘటనల	-11.5505
▁వెస్ట్	-11.5506
▁202	-11.5508
చుట్ట	-11.5509
▁కటక	-11.551
▁ముప్పు	-11.5512
▁అందించి	-11.5512
▁మునుల	-11.5514
రెన్స్	-11.5517
▁వ్యవహారాలు	-11.5518
▁తెచ్చుకున్న	-11.5519
▁చేదు	-11.552
స్తుంటుంది	-11.552
▁కూతుర	-11.5534
▁అత్య	-11.5538
▁బ్రాహ్మణులు	-11.5546
▁అడుగ	-11.5549
▁సంబంధమైన	-11.555
▁ప్రశస్తి	-11.5551
▁జాడ	-11.5555
▁అందరు	-11.556
▁బుద్ద	-11.5561
ల్లారా	-11.5561
▁నియమాల	-11.5563
▁కొమర	-11.5564
▁రుణ	-11.5564
▁ఆరాధించ	-11.5567
ాలన్నింటి	-11.5569
▁ఎన్నుకో	-11.5571
▁ఆధారపడ	-11.5581
▁నడప	-11.5582
AR	-11.5585
▁సవర	-11.5588
▁పడిపోయ	-11.5592
▁బెడ్	-11.5598
▁పడుతున్న	-11.5599
ost	-11.5602
▁వీళ్ళ	-11.5605
▁జ్ఞానము	-11.5605
▁నియమిస్త	-11.5606
ఆంగ్ల	-11.5613
▁పెట్టుకున్న	-11.5615
కంఠ	-11.5619
▁స్థలాల	-11.5634
ఏప్రిల్	-11.5638
తూర్పు	-11.5638
▁కమలాకర	-11.5642
శాతం	-11.5647
కోమల	-11.5649
చేస్తుంటాడు	-11.565
▁206	-11.565
▁శ్రామిక	-11.5655
ేటివ్	-11.5663
▁బాలుడు	-11.5664
ఈనాడు	-11.5665
▁చెడ	-11.5665
ati	-11.5668
▁......	-11.5677
▁ముంచ	-11.5679
▁విప్ప	-11.5684
▁భయపడి	-11.5684
▁అందిస్తున్న	-11.5687
ముఖ్యంగా	-11.5689
ుతుంటాడు	-11.5704
▁రూపొంది	-11.5706
▁వంక	-11.5707
సమయ	-11.5713
▁పద్ధతులు	-11.5715
▁రాయబార	-11.5715
▁ఫలితం	-11.5716
ke	-11.572
టికల్	-11.5721
వుతాడు	-11.5733
▁పూర్వీకుల	-11.5734
▁వేదాలు	-11.5745
▁కూలీ	-11.5752
▁శిథిల	-11.5754
విచ్ఛిన్న	-11.5761
▁విచార	-11.5764
▁స్థాపక	-11.5769
▁నిర్దేశ	-11.5773
▁మూవీ	-11.5776
.1987)	-11.5779
.1997)	-11.5779
ology	-11.5779
▁అంతేకాకుండా	-11.5779
▁కలివికోడి	-11.5779
▁క్రియాశీల	-11.5779
▁గిద్దలూరు	-11.5779
▁జోగులాంబ	-11.5779
▁ట్రాఫిక్	-11.5779
▁ఠాగూర్	-11.5779
▁దూరదర్శన్	-11.5779
▁నైఋతి	-11.5779
▁ఫిర్యాదు	-11.5779
▁బద్వేలు	-11.5779
▁మల్లీశ్వరి	-11.5779
▁మానవతావాది	-11.5779
▁విధ్వంస	-11.5779
▁వైద్యారోగ్య	-11.5779
▁షావుకారు	-11.5779
▁సమృద్ధి	-11.5779
▁సున్నపురాయి	-11.5779
▁అడ్రసు	-11.5779
▁అష్టాదశ	-11.5779
▁బస్టాండ్	-11.5779
▁మాండలికం	-11.5779
.1950)	-11.5779
▁తీర్ధప్రసాదాల	-11.5779
▁పేష్వా	-11.5779
▁మొఘలుల	-11.5779
▁హోమియో	-11.5779
▁అనిసెట్టి	-11.5779
▁నగరపాలక	-11.5779
▁బాదామి	-11.5779
▁రామలింగారెడ్డి	-11.5779
▁లక్ష్మీకాంతం	-11.5779
▁హుసేన్	-11.5779
▁అట్లూరి	-11.5779
▁కోదాడ	-11.5779
▁టెక్కలి	-11.5779
.1919)	-11.5779
.1895)	-11.5779
.1896)	-11.5779
▁త్రిమూర్తుల	-11.5779
▁తెనుగు	-11.5779
▁భరణి	-11.5779
ఫీల్డ్	-11.5779
▁పేల్చి	-11.5779
▁బ్రతికి	-11.5779
▁తెలివి	-11.5779
▁కిట్టయ్య	-11.5779
▁పందిరి	-11.5779
▁రకమైన	-11.5779
▁జరుపుకోగా	-11.5779
▁కదంబ	-11.5779
html	-11.5779
▁విశాలాంధ్ర	-11.5779
▁స్మరించ	-11.578
▁యువకులు	-11.578
▁శిరస్సు	-11.578
▁తిరుగుతుంది	-11.578
▁రాజభవన	-11.578
▁అంతకుముందు	-11.578
▁స్టాలిన్	-11.578
▁ఎరువుల	-11.578
▁కాళిదాసు	-11.578
▁వంశీయులు	-11.5781
▁అభినవ	-11.5781
▁నామమాత్ర	-11.5781
▁సూఫీ	-11.5781
▁సిల్క్	-11.5781
▁అక్కడక్కడ	-11.5781
▁భౌతికశాస్త్రం	-11.5781
▁ముప్పై	-11.5782
▁దేశభక్తి	-11.5782
▁అనారోగ్యంతో	-11.5782
▁లాటిన్	-11.5782
▁రిక్షా	-11.5782
▁ఇప్పటివరకు	-11.5782
మొట్టమొదటిసారిగా	-11.5782
▁నల్లగొండ	-11.5783
▁లార్డ్	-11.5784
▁ఆపిల్	-11.5784
▁ధరూర్	-11.5784
▁నాలుగో	-11.5785
▁నూత	-11.5785
▁పేర్కొనబడింది	-11.5785
▁కేంద్రమంత్రి	-11.5786
▁తెలిపింది	-11.5786
చెత్త	-11.5786
▁సందర్శన	-11.5787
▁తగ్గుతుంది	-11.5787
▁ఒరియా	-11.5788
▁ప్రాచీనమైన	-11.5788
▁రఫీ	-11.5788
▁స్వచ్ఛమైన	-11.5788
▁కుమారుడి	-11.5788
కల్లా	-11.5789
▁రోడ్దు	-11.579
1000	-11.5792
▁సంగారెడ్డిలోను	-11.5792
▁కట్టించాడు	-11.5793
▁కట్టించారు	-11.5793
▁గేట్	-11.5794
▁1,3	-11.5796
▁ఎడ్ల	-11.5797
▁యూరో	-11.5797
▁రామాపురం	-11.5798
▁నారాయణమూర్తి	-11.5798
.1%	-11.5798
▁అలియా	-11.5799
▁ఏర్పాటుచేసారు	-11.5799
▁పతకాలు	-11.5801
ెంటల్	-11.5802
▁అంజలి	-11.5804
లేకపోయింది	-11.5805
▁నాటకాల్లో	-11.5806
▁చిహ్నం	-11.5809
▁గుండ్ల	-11.5811
▁ఎన్టీ	-11.5811
▁అభిమానులు	-11.5813
నాటికీ	-11.5813
▁కాపీ	-11.5815
▁వేణుగోపాల్	-11.5816
▁దేవుడ	-11.5818
▁పెంపొందించ	-11.5819
▁పురుషుడు	-11.582
▁ఎన్నుకున్న	-11.582
▁అనంతర	-11.582
▁శాసనసభ్యులు	-11.582
▁అందించింది	-11.582
▁ఎగుమతులు	-11.5821
▁ఆత్మలింగ	-11.5824
▁విద్యాశాఖ	-11.5825
▁జిమ్	-11.5826
▁పల్లవులు	-11.5831
▁బంధువులు	-11.5832
▁చెప్పాలి	-11.5832
▁పిట్ట	-11.5834
▁తట్టుకోలే	-11.5837
▁న్యాయశాస్త్ర	-11.5838
▁భువ	-11.5841
▁వెంకటరావు	-11.5842
▁పావన	-11.5844
▁నాగమ్మ	-11.5848
▁తేదీలలో	-11.585
▁141	-11.585
▁నశించ	-11.5851
▁మారాయి	-11.5851
▁వైఎస్	-11.5854
ల్లాప్రగడ	-11.5858
▁గార్డెన్	-11.5865
▁తిరిగే	-11.587
ెవ్వర	-11.5872
▁చెప్పుకున్న	-11.5872
గ్మ్	-11.5873
▁నిండిన	-11.5873
▁వ్రాయబడిన	-11.5873
▁సోషలిస్టు	-11.5877
▁అయన	-11.5877
మూర్త	-11.5879
▁ప్లాన్	-11.5881
ail	-11.5892
▁షాపు	-11.5897
▁గుట్టపై	-11.5903
▁స్థానికుల	-11.5904
▁రాష్ట్రాల్లో	-11.5905
వాహిని	-11.5907
▁భద్రత	-11.5907
▁సుదూర	-11.591
▁దశకం	-11.5911
వయసులోనే	-11.5911
▁షట్	-11.5913
ేసారు	-11.5914
వత్స	-11.5914
▁పూరి	-11.5915
కొన్ని	-11.5918
▁సర్వీసులు	-11.5922
▁ఫ్లో	-11.5922
రామలింగేశ్వరరావు	-11.5923
▁Man	-11.5926
IN	-11.5929
▁కూర్చున్న	-11.5935
షనల్	-11.5935
▁అమర్చ	-11.5935
▁St	-11.5942
▁సులభం	-11.5943
▁అడిగ	-11.5944
700	-11.5949
▁రాక్షసుల	-11.595
ram	-11.5955
▁జరుపుకున్న	-11.5956
▁తెప్పించ	-11.5966
▁విడిచిపెట్టి	-11.5968
▁ప్రబోధ	-11.5968
▁గమనించిన	-11.5968
▁చేశా	-11.5969
జ్జి	-11.5972
1968)	-11.5976
▁మొదలుపెట్ట	-11.598
▁ప్రమాణం	-11.5982
▁వాసన	-11.5982
▁శ్లోకాల	-11.5984
మిశ్ర	-11.5987
ుకోలేక	-11.5991
▁వివాహాల	-11.6007
ఎత్తులో	-11.6008
హిందూ	-11.6008
రైల్వే	-11.6008
ప్రదర్శన	-11.6015
▁సంహరించి	-11.6023
▁విమానాల	-11.6031
▁అధికమైన	-11.6032
▁గెలుచుకున్న	-11.6032
▁దూక	-11.6035
▁అలంకారం	-11.6044
ద్దీన్	-11.6046
▁ప్రభావము	-11.6046
విశ్వనాథ్	-11.6048
▁గుర్తింప	-11.605
▁చోళుల	-11.6053
గుండా	-11.6055
▁దర్శకుల	-11.606
▁పట్టాభిషేక	-11.6086
▁వ్యవహారం	-11.6087
▁అనువదించ	-11.609
▁విమర్శకుల	-11.6106
▁మంత్రాల	-11.6113
▁కట్టె	-11.6117
కావ్యాన్ని	-11.6118
ేసరికి	-11.6134
శ్రీకృష్ణదేవరాయల	-11.6137
▁నిర్వాహక	-11.6139
▁అభిమన్యు	-11.6141
పూర్వక	-11.6143
ఫోర్డ్	-11.6145
యుండ	-11.6149
▁అనుసంధానించబడి	-11.6149
.1973)	-11.6149
coordinates	-11.6149
hemistry	-11.6149
కాలిఫోర్నియా	-11.6149
▁ఎడ్యుకేషన్	-11.6149
▁కమిషనర్	-11.6149
▁క్యాన్సర్	-11.6149
▁గోరుచిక్కుడు	-11.6149
▁జంషీద్	-11.6149
▁పర్ణశాల	-11.6149
▁పునర్విభజన	-11.6149
▁మంగేష్కర్	-11.6149
▁సైబీరియా	-11.6149
▁స్రవంతి	-11.6149
▁హాలీవుడ్	-11.6149
▁అణుబాంబు	-11.6149
▁అభ్యంతర	-11.6149
▁ఆశ్రయించ	-11.6149
▁ఇంజనీరింగు	-11.6149
▁ట్యాంక్	-11.6149
▁దత్తాత్రేయ	-11.6149
▁పునరుజ్జీవ	-11.6149
▁బంగాళా	-11.6149
▁బాలగంగాధర	-11.6149
▁మళయాళ	-11.6149
▁ముహూర్త	-11.6149
▁రిజర్వేషన్	-11.6149
▁రైతాంగ	-11.6149
▁శ్రీరామనవమి	-11.6149
▁సంకీర్ణ	-11.6149
▁సౌలభ్య	-11.6149
▁మంథని	-11.6149
.1945)	-11.6149
.1964)	-11.6149
▁అసాధారణ	-11.6149
▁ఆఫ్రికన్	-11.6149
▁పెట్రో	-11.6149
▁మిలటరీ	-11.6149
ebsite	-11.6149
▁మంజుల	-11.6149
▁మేనేజర్	-11.6149
.1892)	-11.6149
▁మ్యాచ్	-11.6149
వపేజీ	-11.6149
▁స్పందన	-11.6149
.1890)	-11.6149
.1899)	-11.6149
▁మంగళంపల్లి	-11.6149
▁అమూల్య	-11.6149
▁కొడంగల్	-11.6149
▁ప్రదర్శింప	-11.6149
▁శరణు	-11.6149
▁నరసింగ	-11.6149
▁మసాలా	-11.6149
▁తాండవ	-11.6149
▁సుగ్రీవ	-11.6149
▁బహుభాషావేత్త	-11.6149
▁కొంకణి	-11.6149
▁రుక్మిణి	-11.6149
▁పదహారు	-11.6149
నిరవద్య	-11.6149
▁తులసీ	-11.6149
▁విభూతి	-11.615
▁ఎఱ్ఱన	-11.615
▁రికార్డింగ్	-11.615
▁పానగల్	-11.615
▁విత్తనాల	-11.615
▁శత్రువు	-11.615
▁టైమ్స్	-11.615
▁నిర్మింపబడిన	-11.615
▁కథానాయకుడిగా	-11.615
▁దాల్చి	-11.6151
▁పూసపాటి	-11.6151
▁సీరియల్	-11.6151
▁ఇరువుర	-11.6152
▁మైత్రి	-11.6152
▁రాధాకృష్ణమూర్తి	-11.6152
▁బాహ్య	-11.6152
▁ప్రయత్నిస్తుంది	-11.6152
▁పేపర్	-11.6154
▁దర్శించుకొని	-11.6154
▁తర్క	-11.6154
▁బేగం	-11.6155
▁CD	-11.6156
▁అధిష్టించాడు	-11.6156
కముందే	-11.6156
▁మహాసముద్రం	-11.6157
▁గుంపు	-11.6157
▁నర్సాపురం	-11.6158
▁చెల్లించాలి	-11.6158
▁కుమారస్వామి	-11.6158
▁వెలువడింది	-11.6158
▁వారధి	-11.6158
▁శిలాశాసన	-11.6159
ated	-11.6159
▁కలుస్తాయి	-11.6159
▁సుగుణ	-11.6159
.4%	-11.616
▁జన్యు	-11.6161
▁స్వాతి	-11.6161
▁సలహాదారు	-11.6162
▁పట్టుకొని	-11.6162
▁ఆదిత్య	-11.6162
▁పలాస	-11.6162
▁పెరుగుతుంది	-11.6162
▁టైప్	-11.6162
▁చిన్నప్పటి	-11.6163
▁లియో	-11.6163
▁ఇంద్రియ	-11.6163
బడుతూ	-11.6163
▁పట్టించుకో	-11.6164
▁కుమ్మరి	-11.6164
▁ఇనుప	-11.6164
▁డైరీ	-11.6165
▁ఇవ్వాలని	-11.6166
▁ఉత్తరాంధ్ర	-11.6167
▁యుద్ద	-11.6167
▁ప్రేమిస్తుంది	-11.6167
▁ఆక్రమించింది	-11.6171
▁స్మిత	-11.6171
▁ఉద్యానవనం	-11.6171
▁గుళ్ళు	-11.6172
▁ఉల్లి	-11.6173
▁విధించింది	-11.6173
▁పరిస్థితుల్లో	-11.6174
▁సైన్యానికి	-11.6175
▁కలహాల	-11.6176
▁రామచంద్రపురం	-11.6177
▁772	-11.6179
▁నిర్ణయించింది	-11.6179
▁గొల్లపల్లి	-11.6182
ాశ్రమ	-11.6187
▁రేయి	-11.6188
▁1565	-11.6191
▁ప్రవేశించింది	-11.6191
▁ఇస్తూ	-11.6191
▁80%	-11.6192
▁1877	-11.6199
▁సరసు	-11.6201
▁ఆయుధాల	-11.6201
▁చేస్తున్నాయి	-11.6202
▁ప్రచురితమై	-11.6204
▁శిల్పకళా	-11.6207
లింగేశ్వరస్వామి	-11.6212
ండేవారు	-11.6212
గురించి	-11.6218
▁మహదేవ	-11.622
▁పేరుపెట్ట	-11.622
▁కోదండరామ	-11.6221
▁రాజ్యాంగంలో	-11.6222
▁అపర	-11.6223
▁చీలిక	-11.6224
▁రామరాజు	-11.6225
బర్మన్	-11.6227
ుడను	-11.6232
ముఖంగా	-11.6233
▁సర్కారు	-11.6233
▁జాతక	-11.6234
▁నక్షత్రాల	-11.6238
232	-11.6238
▁వృత్తుల	-11.6238
▁జోగి	-11.6241
▁తపో	-11.6242
ింపబడి	-11.6248
ుతున్నట్లు	-11.625
▁ఆర్థర	-11.625
▁శతాబ్ధాల	-11.6253
బోతున్న	-11.6256
1954	-11.6261
▁కల్యాణి	-11.627
శ్రిత	-11.6273
▁నిదుర	-11.6273
▁విధాల	-11.6275
▁తామర	-11.6279
చేస్తూ	-11.6279
▁సుద్ద	-11.6282
ద్దాం	-11.6286
▁ప్రయత్నించిన	-11.6288
ాభరణ	-11.6292
వాత	-11.6298
▁ధన్య	-11.6299
మేనని	-11.6301
▁కాళ్ల	-11.6306
▁సన్నివేశం	-11.6306
▁కావచ్చు	-11.6308
రాజనాల	-11.6312
▁మోత	-11.6319
యుగము	-11.6322
▁ఉచ్చ	-11.6326
▁అభిప్రాయపడ్డా	-11.6328
▁చక్కట	-11.6335
వుతాయి	-11.6336
ుచున్నాడు	-11.6348
▁నడచి	-11.635
మధుసూదనరావు	-11.6351
▁ప్రాచుర్య	-11.6352
ాంబిక	-11.6365
▁138	-11.6367
▁జాగర	-11.6373
▁రత్నాల	-11.6381
ధిపత్య	-11.6383
▁పాల్పడ	-11.6385
అమెరికన్	-11.6393
ఆధునిక	-11.6393
ఆగష్టు	-11.6393
▁భద్రాచల	-11.6395
చేయడానికి	-11.6396
▁భీకర	-11.6398
▁నిర్వహించుచున్న	-11.6398
రంగారెడ్డి	-11.641
వరహాల	-11.6411
▁1865	-11.6413
▁2,4	-11.6418
over	-11.6421
▁దళితుల	-11.6422
క్షేత్రాల	-11.6423
▁చిన్నతనం	-11.6426
గలవు	-11.6428
ish	-11.6432
▁సత్కరించి	-11.6432
▁అన్నట్లు	-11.6445
▁నడుపుతున్న	-11.6448
లోచన	-11.6449
ించుచు	-11.646
▁190	-11.6463
గింపు	-11.6475
▁సర్పంచి	-11.6477
▁Cha	-11.6479
▁సర్వస్వం	-11.6482
▁పెసర	-11.6483
▁పన్నెండ	-11.6488
▁ఎగుమతుల	-11.6489
▁నాలుగ	-11.6493
▁వ్యాఖ్యల	-11.6501
▁భేదము	-11.6503
▁కవితల	-11.6507
▁ప్రతాప	-11.651
▁కృష్ణదేవ	-11.6512
▁విగ్రహము	-11.6513
దొంగ	-11.6513
▁పవన	-11.6516
▁వెలగ	-11.6517
▁కొత్తపేట	-11.6518
▁నీదే	-11.6519
▁భవిష్య	-11.6533
▁యాదగిరి	-11.6534
▁ఉపసంహరించ	-11.6534
.1932)	-11.6534
.1944)	-11.6534
▁అథారిటీ	-11.6534
▁ఆతిథ్యం	-11.6534
▁ఆన్లైన్	-11.6534
▁ఆవిష్కర్త	-11.6534
▁ఒడంబడిక	-11.6534
▁కలుషిత	-11.6534
▁గుర్రపు	-11.6534
▁చేవెళ్ళ	-11.6534
▁ఛత్రపతి	-11.6534
▁దామోదరం	-11.6534
▁నటీమణుల	-11.6534
▁పోతిరెడ్డిపాడు	-11.6534
▁ప్రత్యర్థి	-11.6534
▁ఫెస్టివల్	-11.6534
▁బంగాళదుంప	-11.6534
▁మంగుళూరు	-11.6534
▁వడ్డాది	-11.6534
▁వికీపీడియా	-11.6534
▁శంకరాభరణం	-11.6534
▁స్పెషల్	-11.6534
▁అగస్త్య	-11.6534
▁అదృశ్య	-11.6534
▁ఆస్పత్రి	-11.6534
▁కాళేశ్వరరావు	-11.6534
▁పదిహేను	-11.6534
▁ప్రావీణ్య	-11.6534
.1906)	-11.6534
.1947)	-11.6534
.1952)	-11.6534
.2001)	-11.6534
.2020)	-11.6534
▁ఏకగ్రీవ	-11.6534
▁ఏల్చూర	-11.6534
▁శిబిర	-11.6534
▁సత్తుపల్లి	-11.6534
▁కూర్చొని	-11.6534
▁పైకప్పు	-11.6534
▁రేఖాంశం	-11.6534
▁ఎదుర్కో	-11.6534
▁ఐశ్వర్య	-11.6534
▁కరాచీ	-11.6534
▁లక్నో	-11.6534
▁ఖానాపూర్	-11.6534
▁వేరువేరు	-11.6534
▁వ్యాయామ	-11.6534
▁జనావాస	-11.6534
▁నిర్మూలించ	-11.6534
▁పలనాటి	-11.6534
▁ఆండ్రూ	-11.6534
▁దక్షిణామూర్తి	-11.6534
▁వెలికితీ	-11.6534
▁కావేరి	-11.6534
▁అజయ్	-11.6534
▁మరియొక	-11.6534
▁ఋజువ	-11.6534
▁హతమార్చ	-11.6534
▁అగ్గి	-11.6534
▁పీఠిక	-11.6534
▁కిష్టయ్య	-11.6534
నిపుణ	-11.6534
▁వెంకట్రామయ్య	-11.6534
▁యాడికి	-11.6534
▁నిరోధక	-11.6534
▁వేగవంతమైన	-11.6534
▁సమ్మె	-11.6535
▁మొదలయింది	-11.6535
▁ప్రసవ	-11.6535
▁బెల్గాం	-11.6535
▁కుడివైపు	-11.6536
▁పశ్చిమగోదావరి	-11.6536
▁కోయిలకొండ	-11.6536
▁తెలియజేయ	-11.6536
▁బీజింగ్	-11.6536
▁సొగసు	-11.6536
▁తూర్పుగోదావరి	-11.6536
▁హనుమకొండ	-11.6536
▁మెట్రోపాలి	-11.6537
▁మల్లాపూర్	-11.6537
▁ముఖ్యపట్టణం	-11.6537
▁పాటిల్	-11.6537
▁సూర్యోదయ	-11.6537
▁దయానంద	-11.6537
▁ఆకర్షణీయ	-11.6537
▁బ్రహ్మచారి	-11.6538
▁కలుపుకొని	-11.6538
కృప	-11.6538
▁నేపాలు	-11.6538
▁వర్షాకాలంలో	-11.6538
▁రాంబాబు	-11.6539
▁భయము	-11.6539
▁సాఫ్ట్	-11.6539
▁ముఖ్యపాత్రల్లో	-11.654
▁బ్రహ్మదేవు	-11.654
▁పెన్నానది	-11.654
భాయ్	-11.654
▁ప్రదర్శనశాల	-11.654
▁ఆకర్షిస్త	-11.654
▁వైశ్య	-11.654
▁అనుమానం	-11.6541
▁మరోవైపు	-11.6541
▁పుంజ	-11.6542
▁దాఖల	-11.6542
ork	-11.6545
▁సింహళ	-11.6545
.2%	-11.6545
▁స్థావర	-11.6545
▁కేశవరావు	-11.6546
▁పరిసరాలలో	-11.6546
▁పెట్టుకొని	-11.6547
ue	-11.6548
▁మొదలుపెట్టాడు	-11.6548
▁పెట్టుకుని	-11.6549
▁విరసం	-11.655
▁లక్షణముల	-11.655
▁పాడుతూ	-11.655
▁స్థిరపడింది	-11.655
▁వదిన	-11.6551
▁కూర్చుని	-11.6552
గలుగుత	-11.6554
భాగ్య	-11.6555
▁థర్మ	-11.6555
▁ముల్క్	-11.6555
▁బోర్డ్	-11.6555
▁అలంకరించారు	-11.6556
▁స్థావరాలు	-11.6556
▁ప్రయత్నించారు	-11.6558
టెల్	-11.6558
▁పాలకొండ	-11.6559
▁రామవరం	-11.656
▁సింహాచలం	-11.656
▁ఇయర్	-11.656
▁భో	-11.6562
▁జయించాడు	-11.6563
▁రాసుకున్న	-11.6563
▁జమీందారీ	-11.6564
▁వర్గానికి	-11.6571
▁భూదేవి	-11.6572
▁అభిషేకం	-11.6577
▁శ్రీరాముని	-11.6582
ఫ్రెడ్	-11.6582
▁శ్రీపాద	-11.6584
▁పదవీకాలం	-11.6584
▁పారిపోయ	-11.6584
▁మీర్జా	-11.6585
▁బిరుద	-11.6586
గణములు	-11.659
▁పొందడానికి	-11.659
966	-11.6591
▁యంత్రాలు	-11.6592
▁పట్టభద్ర	-11.6593
▁చెవుల	-11.6594
▁3000	-11.6595
▁ధర్మరాజు	-11.6596
▁పంపింది	-11.6598
ref	-11.6598
▁అట్ట	-11.6598
▁రాయబారి	-11.6603
▁ప్రాబల్యం	-11.6604
సెన్	-11.6604
▁ఎన్నుకుంట	-11.6605
▁మంత్రము	-11.6608
▁ఇష్టమైన	-11.6608
▁సాగుతున్న	-11.661
▁కామరూప	-11.661
▁చదివ	-11.661
▁వంగర	-11.6613
▁విశిష్టత	-11.6618
▁సమ్మేళనం	-11.6621
▁ఉత్త	-11.6622
▁చేయబడ్డ	-11.6622
▁భగవంతుడి	-11.6628
వంశపు	-11.6636
▁శుక	-11.6639
▁ఆక్రమించుకున్న	-11.6641
▁ఉపయోగపడే	-11.6641
▁వేయించ	-11.6648
▁చదువుతున్న	-11.665
▁శిథిలమై	-11.6652
బ్రహ్మానందరెడ్డి	-11.6654
జ్జా	-11.6657
పునర్నిర్మించారు	-11.6659
▁ఊర్లో	-11.666
▁తలచి	-11.6667
వృత్త	-11.6672
ుకుందాం	-11.6676
వచ్చునని	-11.6686
has	-11.6695
పాలిట	-11.6696
▁కన్నడంలో	-11.6699
వారూ	-11.6707
▁మీసాల	-11.6709
▁2,0	-11.6713
▁ఆక్రమి	-11.6713
▁భీమేశ్వర	-11.6721
▁ఇస్తున్న	-11.6729
ance	-11.6742
▁విక్రయించ	-11.6749
ెంట్స్	-11.676
▁యక్ష	-11.6764
▁తెప్ప	-11.6766
▁ఆళ్వారుల	-11.6776
హృదయ	-11.6788
ప్రవేశ	-11.6792
పరిశోధన	-11.6792
చైతన్య	-11.6792
సమరయోధుడు	-11.6793
హైదరాబాదు	-11.6793
వయసు	-11.6793
జూలై	-11.6793
దృష్టి	-11.6793
ఘాట్	-11.6793
రోజులపాటు	-11.6794
మహేంద్ర	-11.6794
▁డిజైన్	-11.6796
పుస్తక	-11.6799
ప్రకాశరావు	-11.68
అక్కడ	-11.6801
ేవారట	-11.6811
▁సమర్ధించ	-11.6815
▁పంచదార	-11.6817
ొచ్చిన	-11.6824
▁తెలియజేస్తు	-11.6827
▁మార్చడం	-11.6835
aya	-11.6835
క్రింద	-11.6846
ప్రక్క	-11.6851
హనుమంత	-11.6854
ించటం	-11.6856
క్కడ	-11.6869
ST	-11.6891
భూముల	-11.6896
char	-11.6897
విగ్రహ	-11.6897
డోర్	-11.6911
▁విఘ్న	-11.6913
నాధుడు	-11.6919
వరాహ	-11.6919
▁బిరుదాంకిత	-11.6923
▁131	-11.6928
▁ఫ్రాం	-11.6929
▁చదివించ	-11.6933
▁మేళతాళాల	-11.6934
.1946)	-11.6934
niversity	-11.6934
కళాప్రపూర్ణ	-11.6934
▁అంజలీదేవి	-11.6934
▁ఏర్పాటైంది	-11.6934
▁కనిపిస్తూ	-11.6934
▁కనువిందు	-11.6934
▁కార్యనిర్వాహక	-11.6934
▁తాండూర్	-11.6934
▁తుకారాం	-11.6934
▁నర్మదా	-11.6934
▁నిర్దోషి	-11.6934
▁పసిఫిక్	-11.6934
▁పోరాటయోధుడు	-11.6934
▁ఫిలిమ్స్	-11.6934
▁యండమూరి	-11.6934
▁యజుర్వేద	-11.6934
▁లక్ష్మయ్య	-11.6934
▁షేక్స్పియర్	-11.6934
▁సంప్రదించ	-11.6934
▁సామర్లకోట	-11.6934
▁హొయసల	-11.6934
▁ఆవిష్కరణ	-11.6934
▁ఉత్తీర్ణుడ	-11.6934
▁ఉధృత	-11.6934
▁కౌసల్య	-11.6934
▁గుండ్లకమ్మ	-11.6934
▁చౌడప్ప	-11.6934
▁భరతనాట్య	-11.6934
▁శారీరక	-11.6934
.1912)	-11.6934
.1995)	-11.6934
వాషింగ్టన్	-11.6934
▁చెళ్లపిళ్	-11.6934
▁ప్రతిపత్తి	-11.6934
▁మదురై	-11.6934
▁వశిష్ఠ	-11.6934
▁గంభీర	-11.6934
▁బంగ్లా	-11.6934
▁అసమ్మతి	-11.6934
▁చిలుకూరి	-11.6934
▁దయాకర్	-11.6934
డాల్ఫ్	-11.6934
▁తిమ్మరుసు	-11.6934
▁తీశాడు	-11.6934
హీరాలాల్	-11.6934
▁ఖిల్లా	-11.6934
▁1866	-11.6934
▁కుర్చీ	-11.6934
▁కట్నం	-11.6934
▁దీక్షితులు	-11.6934
▁రావణాసురుడు	-11.6934
▁అసూయ	-11.6934
▁సౌమ్య	-11.6934
▁పొందుపరచ	-11.6934
▁ఆఫీస్	-11.6934
▁ఫుట్	-11.6934
▁వాయిదా	-11.6934
▁శిఖరాగ్ర	-11.6934
▁బొడ్డు	-11.6934
▁నార్త్	-11.6934
▁మాసపత్రిక	-11.6934
▁పరాక్రమ	-11.6934
▁ఉత్పల	-11.6935
▁ఆవిర్భవించింది	-11.6935
▁శ్రవణ	-11.6935
▁సరోవర	-11.6935
▁నైపుణ్యం	-11.6935
▁అహ్మద్నగర్	-11.6936
▁నడుస్తుంది	-11.6936
▁రాచకొండ	-11.6936
▁అడుగుతాడు	-11.6937
▁ర్యాంక	-11.6937
▁గజేంద్ర	-11.6937
▁రాజ్యపాలన	-11.6937
▁బెల్లంకొండ	-11.6937
▁కలుపుతూ	-11.6938
▁దివాకర్	-11.6938
▁వచ్చాక	-11.6938
▁డప్పు	-11.6938
▁కుసుమ	-11.6939
▁రైలుమార్గం	-11.6939
▁విశ్వసించ	-11.6939
▁కామరాజ్	-11.6939
▁ఉస్మాన	-11.6939
▁రామభద్ర	-11.6939
▁సంస్థానాధీశ	-11.6939
▁పట్టుదల	-11.6939
▁ఆధారము	-11.694
▁శ్యాం	-11.694
▁పొద్దు	-11.694
nline	-11.6941
▁స్వీడన్	-11.6943
▁హెచ్చు	-11.6943
▁కన్నాంబ	-11.6944
▁ఎంతోమంది	-11.6944
▁చనిపోయాడ	-11.6945
▁అవుట్	-11.6946
▁శిఖరాల	-11.6946
▁మనుమడు	-11.6947
▁తీర్చుకున్నా	-11.6947
▁సప్తర్షులు	-11.6948
▁జిల్లాపరిషత్	-11.6949
▁దక్కింది	-11.6949
▁షాహ్	-11.695
▁కాకర్ల	-11.695
▁సౌత్	-11.6952
▁ఫర	-11.6953
▁గోపాలకృష్ణయ్య	-11.6953
▁రాఘవరావు	-11.6954
▁అవకాశాన్ని	-11.6955
రేచర్ల	-11.6956
▁ప్రయత్నించాడు	-11.6957
▁అణువుల	-11.6957
▁బాసర	-11.6961
▁కాయల	-11.6961
▁సేవకుడు	-11.6961
▁చూస్తారు	-11.6963
▁జగతి	-11.6963
▁పాలిత	-11.6964
▁నారాయణపూర్	-11.6965
▁పరిగి	-11.697
▁భావిస్త	-11.697
▁వన్యప్రాణ	-11.6971
అంద	-11.6971
▁Vi	-11.6973
▁సేపు	-11.6973
▁చెప్పుకొన	-11.6973
వంతంగా	-11.6979
▁దృశ్యాల	-11.698
▁అనువాదాలు	-11.698
▁నార్ల	-11.6986
▁1879	-11.6988
▁సాక్ష్యం	-11.6991
▁ధ్రువీకరించ	-11.6994
▁అర్జునుడి	-11.6995
▁1856	-11.6996
▁1861	-11.6996
▁ఉపాధ్యాయుల	-11.6996
▁1500	-11.7
▁అమర్చి	-11.7002
▁చేయటానికి	-11.7006
▁గమనిస్త	-11.7007
▁అర్జునుని	-11.7012
ఆనంద	-11.7018
డమూ	-11.7024
▁యర్ర	-11.7029
▁బుధ	-11.7032
కముందు	-11.7034
▁తెలియజేస్త	-11.7036
▁బాధపడుతున్న	-11.7038
▁లాలా	-11.7041
▁నిలబడ	-11.7041
▁జీవితాల	-11.7045
▁కొండాపురం	-11.7048
కాటారం	-11.7051
▁పయన	-11.7067
▁అన్నదాన	-11.7071
able	-11.7072
ాల్సిందే	-11.7074
▁చూసుకుంట	-11.7074
▁కేంద్రీకరించ	-11.7075
▁ద్వారక	-11.7087
▁పరిమాణ	-11.7088
▁స్వదేశ	-11.7089
▁బయో	-11.7103
▁వీరభద్రస్వామి	-11.7112
▁హజార	-11.7118
▁పరిపూర్ణ	-11.7121
▁ఉపగ్రహాల	-11.7121
▁వెంకటేశ్వరుని	-11.7124
సంవత్సర	-11.7132
▁అనుగ్రహించ	-11.7134
సాగింది	-11.7139
▁ఒడ్డు	-11.7147
▁వర్ణించిన	-11.7149
ప్లస్	-11.7158
▁ప్రతిపాదించిన	-11.7158
▁సుధ	-11.7161
▁నిర్మించబడి	-11.7163
▁దినము	-11.7177
శ్రీనివాస	-11.7187
▁దున్న	-11.7193
స్తుంటే	-11.7195
▁పరిజ్ఞాన	-11.7199
▁బాద	-11.7202
గోదావరి	-11.7205
వ్యాపార	-11.7209
నీటిపారుదల	-11.7209
గుమ్మడి	-11.7209
నవంబరు	-11.7209
సెప్టెంబరు	-11.7209
సామాజిక	-11.7209
వ్యాధి	-11.7211
బద్ధమైన	-11.7214
విజయవాడ	-11.7215
▁మరుగు	-11.7217
▁మధుమేహ	-11.7223
నుంచీ	-11.7223
▁రూపుదిద్ద	-11.7223
SC	-11.7229
▁నిర్వహ	-11.7236
[...]
