<unk>	0
<s>	0
</s>	0
.	-2.65401
,	-3.10599
▁	-4.25575
లో	-4.66042
:	-4.87669
▁(	-5.05243
▁ఈ	-5.09905
▁నుండి	-5.15838
▁ఉంది	-5.17243
▁ఉన్నాయి	-5.2086
ం	-5.24228
ను	-5.26275
గా	-5.36302
)	-5.39214
ు	-5.43081
ని	-5.46337
▁-	-5.48444
▁గ్రామం	-5.50322
▁గ్రామంలో	-5.53013
▁కి	-5.54259
కి	-5.55233
కు	-5.5855
మీ	-5.59192
న	-5.59437
▁ఒక	-5.62146
ి	-5.63225
లు	-5.63686
ా	-5.66409
▁దూరంలో	-5.72402
▁10	-5.8081
ల	-5.85445
్	-5.87612
వ	-5.87897
మ	-5.96257
తో	-5.98904
▁కేంద్రం	-6.02549
▁కూడా	-6.03009
▁ఆ	-6.07322
ము	-6.11562
▁హెక్టార్లు	-6.15295
▁జిల్లా	-6.18473
▁ద్వారా	-6.22075
▁ప్రభుత్వ	-6.29215
ీ	-6.29362
▁భూమి	-6.31701
▁సమీప	-6.3195
▁లో	-6.34107
క	-6.37596
▁కళాశాల	-6.38198
▁ఉన్న	-6.40178
ే	-6.42095
ాన్ని	-6.43106
▁5	-6.43352
▁సౌకర్యం	-6.44591
జ	-6.44977
▁తెలుగు	-6.45164
వి	-6.46517
▁ప్రైవేటు	-6.48763
స్	-6.5014
▁సంఖ్య	-6.55102
ారు	-6.58367
▁ఇది	-6.59001
▁సినిమా	-6.61541
-	-6.62461
▁ఉన్నారు	-6.62837
▁పాఠశాల	-6.64246
▁"	-6.65229
ాడు	-6.66366
▁తన	-6.67834
ర్	-6.70313
▁రహదారి	-6.71066
న్	-6.71591
డ్	-6.72345
ానికి	-6.73128
రు	-6.7393
ాలు	-6.74122
▁పైబడిన	-6.74476
ర	-6.76353
▁చెందిన	-6.76436
▁సరఫరా	-6.76668
▁భారత	-6.76936
ల్	-6.80355
ది	-6.80513
"	-6.80705
డి	-6.81132
▁న	-6.81999
▁శ్రీ	-6.82389
నే	-6.83095
▁వ్యవస్థ	-6.8366
▁వ	-6.8408
ంగా	-6.84479
త	-6.84863
ుడు	-6.89802
▁అని	-6.92532
ూ	-6.92888
▁లేదు	-6.93995
▁వ్యవసాయ	-6.95536
▁అ	-6.96136
▁అనే	-6.96241
▁వైద్య	-6.97619
▁రెండు	-6.98174
▁పి	-6.98989
▁ప్రధాన	-6.99628
▁పాఠశాలలు	-7.00206
▁ప్రాథమిక	-7.01591
▁ఆరోగ్య	-7.02383
▁సామాజిక	-7.03374
▁తరువాత	-7.0342
▁పారా	-7.04622
య	-7.0512
మెడికల్	-7.06476
పి	-7.06897
▁గ్రామానికి	-7.06947
▁ఇతర	-7.06983
▁జనాభా	-7.06996
▁డాక్టర్లు	-7.10352
▁కింది	-7.11565
రా	-7.14744
ులు	-7.15178
▁సౌకర్యాలు	-7.15959
▁పాటు	-7.16011
పై	-7.1708
మైన	-7.17451
డు	-7.18247
▁ప్రకారం	-7.19402
నా	-7.20438
ంది	-7.21086
▁విద్యా	-7.21456
రి	-7.21461
▁ఎక్కువ	-7.21472
గ	-7.21517
▁రాష్ట్ర	-7.22007
▁నీరు	-7.22247
క్	-7.22731
స	-7.22818
సి	-7.23265
▁ఎస్	-7.23314
▁లేని	-7.23338
శ	-7.24777
▁వి	-7.26149
ప	-7.26539
ట	-7.26954
▁ఒకటి	-7.27383
'	-7.27719
▁నీటి	-7.28784
▁2	-7.2934
▁'	-7.29681
పు	-7.29792
ాయి	-7.30468
▁బి	-7.31216
▁వ్యవసాయం	-7.31615
▁లోని	-7.32303
▁జాతీయ	-7.326
న్నాయి	-7.34156
ట్	-7.34466
▁కంటే	-7.35193
▁జనగణన	-7.35484
టి	-7.35541
▁తెలంగాణ	-7.35616
/	-7.35993
లను	-7.37297
▁3	-7.3767
▁7	-7.37722
▁సంస్థ	-7.39193
▁18	-7.39642
▁డిగ్రీ	-7.40063
లోని	-7.41033
న్న	-7.41174
▁కు	-7.41177
▁వనరుల	-7.41565
▁రచన	-7.42147
▁వాణిజ్య	-7.42538
▁బ్యాంకు	-7.43283
▁కోసం	-7.43471
ద	-7.43788
లి	-7.44559
▁/	-7.45285
▁పేరు	-7.45645
▁వారం	-7.46205
▁పథకం	-7.46557
▁యొక్క	-7.4666
▁చేసిన	-7.46884
ాల	-7.46917
▁విద్యుత్	-7.47198
▁ఏ	-7.47277
▁గంటల	-7.47299
ో	-7.47495
▁షెడ్యూల్	-7.47512
లా	-7.47831
ిన	-7.48044
▁ఇద్దరు	-7.48242
▁ఆసుపత్రి	-7.48821
పబ్లిక్	-7.49075
▁మంది	-7.49093
▁వారి	-7.49171
▁అభివృద్ధి	-7.49426
▁వైద్యశాల	-7.49528
ంలో	-7.49594
▁ఫోన్	-7.5028
మ్మ	-7.50724
డం	-7.5077
▁రోడ్లు	-7.51205
▁ఆఫీసు	-7.51304
నీ	-7.51794
▁ఎ	-7.52722
▁కె	-7.53087
▁పోస్టాఫీసు	-7.53128
▁వ్యవసాయానికి	-7.53658
▁పెద్ద	-7.53674
▁మండలం	-7.54271
▁ప్రత్యేక	-7.54876
▁నుంచి	-7.55027
▁మూడు	-7.55075
▁వరకు	-7.56301
ింది	-7.56743
మా	-7.56753
డ	-7.56921
▁సిబ్బంద	-7.5729
▁నా	-7.57423
▁చాలా	-7.57631
▁రచయిత	-7.57993
▁గా	-7.58242
▁నటించిన	-7.58424
▁జరిగిన	-7.58667
▁మొదటి	-7.58901
▁ఇక్కడ	-7.59556
s	-7.59903
▁మధ్య	-7.60211
▁జరుగుతోంది	-7.61325
▁సి	-7.61642
▁4	-7.61838
▁15	-7.62862
లకు	-7.62899
▁తిరిగి	-7.63169
▁ఆయన	-7.633
ఎస్	-7.63497
య్య	-7.64387
▁వివిధ	-7.64475
▁కోడ్	-7.64549
▁ఆంధ్ర	-7.6514
▁11	-7.65485
▁ఉప	-7.65901
▁రోజు	-7.66825
▁క	-7.67435
కా	-7.67513
▁స్టేషన్	-7.68095
▁ఆంధ్రప్రదేశ్	-7.68725
▁డాక్టరు	-7.68983
లోనూ	-7.6918
▁టి	-7.69509
▁2011	-7.69651
▁రైల్వే	-7.69983
▁ముందు	-7.70459
▁ఆలయం	-7.71854
▁మీ	-7.72163
▁మాధ్యమిక	-7.7231
▁సా	-7.72398
మ్	-7.72434
▁6	-7.73107
▁ప్రాథమికోన్నత	-7.73163
▁మే	-7.73179
▁కేంద్రంలో	-7.73244
▁చేయ	-7.73513
▁అతని	-7.74103
తి	-7.74805
▁బస్సులు	-7.75082
▁1	-7.75242
▁కొన్ని	-7.75361
▁12	-7.75703
▁16	-7.76252
▁వారు	-7.7627
▁బావులు	-7.7671
వే	-7.76742
డానికి	-7.77043
▁ప్రవహిస్తుంది	-7.77114
▁మొదలైన	-7.77788
▁జూనియర్	-7.77941
▁అతను	-7.78279
▁8	-7.78325
మే	-7.79021
▁17	-7.79577
▁బృందం	-7.7961
▁చిత్ర	-7.80061
▁వంటి	-7.80212
▁దర్శకత్వం	-7.80287
ుల	-7.80308
▁ఏడాది	-7.80395
వా	-7.80403
హార	-7.80759
మి	-7.80971
లోను	-7.81104
▁కాలువల	-7.81132
),	-7.81381
▁కాగా	-7.81601
▁స	-7.8161
లలో	-7.81659
▁గ్రామ	-7.82031
▁ఆమె	-7.82425
▁చిన్న	-7.82666
▁మండలానికి	-7.82835
▁కృష్ణ	-7.83197
▁భూ	-7.83767
▁కుటుంబ	-7.83855
▁మీద	-7.84082
▁జిల్లాలో	-7.84309
▁అందుతుంది	-7.84309
త్	-7.84336
▁ప	-7.84509
▁ఘంటసాల	-7.847
▁రోజులు	-7.85341
▁సంఘం	-7.85451
▁పొడుగున	-7.85702
▁భారతీయ	-7.86635
▁సంగీత	-7.86945
జ్	-7.87128
చ	-7.87443
▁మురుగునీర	-7.87477
▁విధంగా	-7.87731
▁అనేక	-7.88081
▁ఉంటుంది	-7.88391
వు	-7.88517
▁వద్ద	-7.88896
▁అన్ని	-7.8909
▁కథ	-7.89372
▁చిత్రం	-7.89452
▁ఇ	-7.89876
▁ని	-7.90708
▁ఉండేది	-7.90791
7	-7.90845
▁9	-7.90868
▁ఓ	-7.90889
▁కవి	-7.90909
▁సిబ్బంది	-7.91286
సు	-7.91359
▁బ	-7.91923
▁14	-7.92077
▁మురుగునీటి	-7.92147
ాలను	-7.92159
▁లోపు	-7.92166
▁అండ్	-7.92187
▁సినిమాలు	-7.92419
కో	-7.9274
యా	-7.92882
▁రవాణా	-7.93424
▁చ	-7.93551
▁ప్రతి	-7.93577
▁మా	-7.94015
▁సంవత్సరము	-7.94237
▁గణాంకాల	-7.94488
▁ప్రభుత్వం	-7.94797
▁బంజరు	-7.94904
ఆర్	-7.95018
లే	-7.95087
▁విస్తరించి	-7.95185
ె	-7.95406
▁జరుగుతుంది	-7.95586
▁కొరకు	-7.95661
రీ	-7.95678
▁లేదా	-7.95689
కే	-7.95728
▁విడుదలైన	-7.95819
స్తారు	-7.96067
▁ప్రాంతాల	-7.96103
జి	-7.96244
▁గురించి	-7.96331
ుని	-7.97037
అ	-7.97038
▁ఉత్పత్తి	-7.97047
బి	-7.97601
▁లేరు	-7.98075
▁దివ్య	-7.98141
ణ	-7.98219
▁ఆఫ్	-7.98445
▁దక్షిణ	-7.99285
బ	-7.99317
2	-7.99391
▁స్వామి	-7.9949
▁వృత్తి	-7.99836
19	-8.00106
▁శిక్షణ	-8.00269
▁కా	-8.00285
▁మొత్తం	-8.00579
▁మ	-8.00774
▁పౌర	-8.00885
ంచ	-8.01029
▁ఆర్ట్స్	-8.01101
▁గ్రామాల	-8.01119
▁గుండా	-8.0143
ల్లో	-8.01547
దు	-8.01634
▁సామాన్య	-8.01931
రావు	-8.022
▁ను	-8.02367
▁వచ్చిన	-8.0257
▁నటుడు	-8.03123
%	-8.03208
▁పై	-8.03401
ళ్ళ	-8.03543
రాజు	-8.03748
▁ప్ర	-8.04285
▁సహకార	-8.04699
▁కార్యాలయం	-8.04771
▁చేసి	-8.05138
▁ఇదే	-8.05385
▁ఎం	-8.05751
తా	-8.0579
▁13	-8.05818
▁లాండ్	-8.0586
▁కేంద్రాలు	-8.05894
6	-8.06042
▁కుళాయిల	-8.06327
▁కాలంలో	-8.06515
సా	-8.06516
3	-8.06583
▁సైన్స్	-8.06816
▁తర్వాత	-8.06863
▁నాలుగు	-8.06887
ప్	-8.07073
▁తొలి	-8.07088
▁ఇంజనీరింగ్	-8.07304
▁వినోద	-8.07305
ోంది	-8.07558
▁స్వయం	-8.07604
ేతర	-8.08335
▁ఒకరు	-8.0835
▁కానీ	-8.08584
హ	-8.08822
▁జనవరి	-8.09022
▁సంత	-8.09465
▁రా	-8.09493
▁:	-8.09536
▁నది	-8.09812
▁పంపిణీ	-8.09846
మని	-8.0987
▁నమోదు	-8.1007
▁రెడ్డి	-8.10164
▁ముగ్గురు	-8.10191
▁మహా	-8.10224
ములు	-8.1029
▁లైన్	-8.10318
▁గ్రంథాలయం	-8.10394
▁సేవా	-8.10622
▁తమ	-8.10681
’	-8.10799
▁చిత్రాలు	-8.10829
▁రోజున	-8.11334
▁కార్యకర్త	-8.11768
▁జూన్	-8.11768
న్నారు	-8.11919
▁వినియోగం	-8.12144
▁పశు	-8.12346
▁సబ్	-8.12534
▁ఆటో	-8.12546
▁నిర్మించిన	-8.12594
ద్	-8.12612
▁కులాల	-8.12644
▁సంపూర్ణ	-8.12914
▁ఇంటర్నెట్	-8.13044
▁రాష్ట్రం	-8.13161
▁ప్రపంచ	-8.13494
▁తెగల	-8.13647
▁మాజీ	-8.13873
▁ఆటల	-8.14052
▁సంక్షేమ	-8.14309
▁సంరక్షణ	-8.14431
▁మగవారి	-8.14549
▁అవసరాల	-8.14664
▁పట్టణమైన	-8.14706
▁మట్టి	-8.14775
▁చేస్తున్నారు	-8.1481
▁మైదానం	-8.14833
యాస్	-8.15355
▁ఆరోగ్యం	-8.15424
▁ఔషధ	-8.15604
▁జనన	-8.15652
▁ఇళ్లతో	-8.15732
▁రాజు	-8.15785
ాంగుల	-8.15901
▁ఆడవారి	-8.16091
▁20	-8.16095
వారు	-8.16154
▁దర్శకుడు	-8.16173
▁సొసైటీ	-8.16199
ంత	-8.16261
▁బాలల	-8.16586
▁రావు	-8.16589
▁శిశు	-8.1664
▁శాల	-8.16779
▁లభిస్తున్న	-8.16971
యు	-8.17007
▁పోషణ	-8.1716
5	-8.17203
▁ఏర్పాటు	-8.17422
▁ఆశా	-8.17433
▁సహాయక	-8.17476
▁భాష	-8.17533
▁జరిగింది	-8.18014
▁విత్తి	-8.18019
▁సాగునీరు	-8.18126
▁నిమిత్తం	-8.18247
▁వార్తాపత్రిక	-8.18369
▁అనియత	-8.1837
▁మాతా	-8.18562
▁సమీకృత	-8.18634
▁మేనేజిమెంటు	-8.18735
▁మొబైల్	-8.1898
▁మరణాల	-8.19071
▁టెలిఫోన్	-8.19226
▁ప్రత్యామ్నాయ	-8.19226
▁పాలీటెక్నిక్	-8.19349
▁హాలు	-8.1946
▁ఇందులో	-8.19637
▁సం	-8.19642
▁జూలై	-8.19675
▁ఫిబ్రవరి	-8.19701
▁పోషకా	-8.19827
▁సంగీతం	-8.20101
▁వినియోగంలో	-8.20208
▁లొకేషన్	-8.20214
సుశీల	-8.20294
ికరంగా	-8.20348
▁రెండవ	-8.204
▁నీ	-8.20479
సమీప	-8.20669
▁వీధుల	-8.20712
▁మార్చి	-8.20767
▁ఉత్పాదక	-8.20837
▁లు	-8.21011
▁రూం	-8.21022
▁మార్కెటింగ	-8.21087
లతో	-8.21089
▁పరపతి	-8.21216
4	-8.21306
▁పోలింగ్	-8.21343
▁వస్తువులు	-8.21388
▁పోస్ట్	-8.21487
▁కలిగి	-8.2167
▁రీడింగ	-8.21683
ధ	-8.21685
▁పారిశుధ్య	-8.21715
▁మరుగుదొడ్	-8.21741
హెక్టార్లలో	-8.21792
;	-8.21968
▁వ్యర్థాల	-8.21968
గ్	-8.21977
▁కోట	-8.22116
▁తారు	-8.22135
▁స్వాతంత్ర్య	-8.22215
▁కంకర	-8.22225
▁అంగన్	-8.22249
▁సేకరించే	-8.22266
▁కాని	-8.22544
▁ఉత్తర	-8.22569
▁కొరియర్	-8.22728
▁టెలిగ్రాఫ్	-8.22983
▁కెఫె	-8.22992
▁ఇంటింటిక	-8.23116
▁అసెంబ్లీ	-8.23132
▁రోజుకు	-8.23147
▁గృహావసరాల	-8.23239
▁బయోగ్	-8.23468
▁సరఫరాల	-8.23479
నూ	-8.23585
గు	-8.24
▁అలోపతి	-8.2401
▁పక్కనే	-8.24041
▁మండల	-8.24176
▁పార్టీ	-8.24212
▁హైదరాబాదు	-8.24324
▁డిస్పెన్సరీ	-8.24543
ైన	-8.24689
▁ఇంకా	-8.24828
▁ల	-8.24957
▁త	-8.25002
▁రాజకీయ	-8.2535
▁తిరుగుతున్నాయ	-8.25832
▁వల్ల	-8.25836
తు	-8.26
ప్ప	-8.26562
ెస్	-8.26671
▁సంచార	-8.26759
రే	-8.26774
▁ఏటీఎమ్	-8.27183
▁జ	-8.27612
నుండి	-8.27669
▁అమలవుత	-8.28092
చి	-8.28605
▁మంచినీటి	-8.2863
▁అన్న	-8.28657
జీ	-8.28758
▁పారబో	-8.289
▁తండ్రి	-8.28934
▁అది	-8.29039
▁అక్టోబరు	-8.29229
▁చెత్త	-8.29362
వాడీ	-8.29749
ంద	-8.29776
▁గల	-8.29923
▁చరిత్రలో	-8.29951
▁ప్రదేశ్	-8.30017
చే	-8.30344
▁అయిన	-8.30513
▁అను	-8.30635
మునకు	-8.30643
▁25	-8.30748
▁మొదలైనవి	-8.30803
▁అయితే	-8.30823
▁సినిమాకు	-8.30926
ిక	-8.30951
▁జి	-8.31044
▁మండలంలో	-8.31052
రోడ్ల	-8.31295
దా	-8.31444
▁నిర్వహించారు	-8.31546
లేదు	-8.31653
కె	-8.31882
▁అవుతున్నాయి	-8.31926
యి	-8.31992
ాలి	-8.32104
ప్ర	-8.32489
▁బహిరంగ	-8.32515
▁చరిత్ర	-8.32625
▁సంవత్సరాల	-8.32638
▁ఎమ్	-8.33
▁ప్రజలు	-8.33084
▁రక్షిత	-8.33188
▁చేతిపంపుల	-8.33328
▁అంటారు	-8.33369
యం	-8.33451
▁పేరుతో	-8.34072
▁కో	-8.3431
▁ట్రాక్టర్లు	-8.3461
▁సమయంలో	-8.34634
▁మన	-8.34684
భ	-8.34771
▁ప్రాంతం	-8.34875
▁తూర్పు	-8.34906
▁గ	-8.34952
▁గోదావరి	-8.3509
▁ప్రముఖ	-8.35331
▁డి	-8.35456
▁చెరువు	-8.35974
▁ఆర్	-8.36636
రో	-8.36769
▁పట్టణం	-8.36773
▁ప్రసాద్	-8.3725
▁జిల్లాలోని	-8.37348
▁పాత	-8.37435
8	-8.37493
▁ఏప్రిల్	-8.37578
▁పో	-8.37651
▁జిల్లాల	-8.38081
▁బస్సు	-8.38195
ష	-8.38323
▁పాటలు	-8.38413
▁య	-8.38496
క్ష	-8.38529
▁ము	-8.38765
▁నగర్	-8.38994
1	-8.39229
▁సినీ	-8.39283
ఈ	-8.39384
▁ఐ	-8.39476
▁నేరు	-8.39655
▁30	-8.39831
▁నిర్మాత	-8.40255
టు	-8.40647
▁కాకుండా	-8.40693
▁కల	-8.40901
టం	-8.40958
▁ర	-8.41391
▁వచ్చింది	-8.41516
▁దీనిని	-8.42206
▁వలన	-8.42309
▁మంచి	-8.42359
దే	-8.42808
్లోకి	-8.42987
▁హ	-8.43129
▁చైనా	-8.43149
▁నాయకుడు	-8.43256
▁రాజా	-8.43415
▁వా	-8.43595
▁పా	-8.43728
▁కొత్త	-8.43902
్లో	-8.44001
పల్లి	-8.44061
u	-8.44139
?	-8.44209
▁చేశారు	-8.44253
ష్	-8.44601
ాడేందుకు	-8.44603
ట్లు	-8.4484
బోరు	-8.45548
e	-8.45661
కీ	-8.45982
▁వచ్చి	-8.46019
▁సు	-8.46033
▁సంవత్సరం	-8.462
పో	-8.46332
ప్రాథమిక	-8.46507
▁మందుల	-8.46532
స్వామి	-8.46601
▁తో	-8.46651
ప్రైవేటు	-8.47
▁అదే	-8.47225
లీ	-8.47313
i	-8.47437
▁2016	-8.47694
బడింది	-8.47964
▁నిర్మాణ	-8.48085
▁మి	-8.48244
▁చెప్ప	-8.48252
▁పెళ్ళి	-8.48363
▁కొండ	-8.48429
▁సాహిత్య	-8.48435
▁ఆగష్టు	-8.48486
▁దేవాలయం	-8.48504
ై	-8.48934
▁శివ	-8.49139
కం	-8.49331
టీ	-8.49579
మో	-8.49674
!	-8.49879
▁పోతున్నాయి	-8.49918
▁వదులుతు	-8.50088
▁ప్రాంతంలో	-8.50753
a	-8.5079
▁జలవనరుల	-8.50925
▁మాత్రమే	-8.50926
▁అంటే	-8.51586
యో	-8.52334
డా	-8.52803
ియన్	-8.52812
▁పలు	-8.52817
▁భారతదేశంలో	-8.52883
▁గో	-8.53173
▁ప్రాంతాలు	-8.53276
▁రామ	-8.53586
▁ది	-8.53629
బీబీయ	-8.53663
గల	-8.54015
బ్	-8.54502
▁కలిసి	-8.54585
దీ	-8.54691
▁పాకిస్థాన్	-8.5475
▁అప్పటి	-8.54934
ాలని	-8.54951
▁24	-8.55134
వారి	-8.55165
▁బాలబడి	-8.55208
▁శ	-8.55227
▁నటి	-8.55362
దగ్గ	-8.55592
▁సభ	-8.55622
ళ	-8.55625
▁దాని	-8.56052
▁భూములు	-8.56102
▁భార్య	-8.56252
9	-8.56313
▁22	-8.56721
▁ఐదు	-8.56874
మై	-8.56876
రెడ్డి	-8.57168
ించి	-8.5731
▁గాంధీ	-8.57393
▁పశ్చిమ	-8.57421
నది	-8.57568
▁విజయ	-8.57576
▁ఉంటాయి	-8.5792
▁భాగంగా	-8.58013
o	-8.582
▁21	-8.58387
▁of	-8.5846
▁వాడ	-8.58528
▁అతి	-8.58668
▁చేసింది	-8.58906
▁దీని	-8.58931
గి	-8.59063
▁రాజ	-8.59246
▁జిల్లాకు	-8.59331
▁బ్రహ్మ	-8.59495
▁ప్రస్తుతం	-8.59548
వ్	-8.59982
ఆ	-8.60074
ములో	-8.60243
▁శాస్త్రవేత్త	-8.60421
▁సాగని	-8.60593
▁కేంద్ర	-8.60748
▁ఉ	-8.60877
ాలలో	-8.60983
▁కాలం	-8.61045
▁తల్లి	-8.61056
▁వహించాడు	-8.61058
ఎ	-8.61063
పా	-8.6112
▁ముఖ్య	-8.61203
ష్ట	-8.61339
▁అమెరికా	-8.61358
▁ప్రసిద్ధి	-8.61609
రె	-8.61836
ండి	-8.61894
▁తమిళ	-8.61911
20	-8.62191
▁ఉన్నత	-8.62585
▁హిందూ	-8.62735
▁దేశ	-8.62751
ిత	-8.63097
▁ఆర్థిక	-8.63136
కొ	-8.63161
▁అక్కడ	-8.63276
▁ద	-8.6348
్య	-8.63591
▁దగ్గర	-8.6397
▁29	-8.64583
▁అందుబాటులో	-8.64847
ంతో	-8.65018
▁షా	-8.65069
▁జె	-8.65239
▁డా	-8.65301
▁కృష్ణా	-8.6551
ౌ	-8.65643
ణకు	-8.65942
▁చక్రవర్తి	-8.66009
▁పునర్వ్యవస్థీకర	-8.66129
▁26	-8.66408
సీ	-8.66478
▁బహిరంగంగా	-8.6676
▁చేసే	-8.66772
తీ	-8.66953
▁సాగులో	-8.66963
ముగా	-8.66966
▁దుకాణాలు	-8.67009
▁పట్టణ	-8.67437
▁నాటి	-8.67471
▁ఆధారంగా	-8.67478
బా	-8.67566
▁)	-8.67683
▁చేశాడు	-8.67956
▁కాల	-8.68043
▁రైలు	-8.68104
▁23	-8.68226
▁సెప్టెంబర్	-8.68228
ఇ	-8.68303
▁2001	-8.68445
పిన్	-8.68456
▁పాట	-8.68466
▁బాబు	-8.68511
జా	-8.68602
▁నలుగురు	-8.68629
▁శాసనసభ	-8.68637
పూ	-8.6876
ంగ	-8.68924
▁భూముల్లో	-8.6901
▁వీర	-8.69205
▁అంతర్జాతీయ	-8.69286
▁ముఖ్యమంత్రి	-8.69553
యే	-8.69579
▁బీడు	-8.69644
▁వెంకట	-8.69763
▁19	-8.69884
▁ఆలయంలో	-8.69949
ాయ	-8.6997
నో	-8.70116
▁28	-8.70248
ాన	-8.70263
▁కానివి	-8.70277
▁విజయవాడ	-8.70294
ాలకు	-8.70329
▁గ్రామాలు	-8.70351
▁ఈయన	-8.70356
▁మె	-8.70623
ూరు	-8.70795
▁స్	-8.71164
కుండా	-8.71205
▁గుంటూరు	-8.71215
▁జా	-8.71256
వాడు	-8.71318
▁పూర్తి	-8.71521
▁బా	-8.71528
▁కచ్చ	-8.71793
▁గొప్ప	-8.71889
▁నగరం	-8.71911
▁విజయనగర	-8.72302
ఫ్	-8.72318
▁ఎన్	-8.72462
▁హిందీ	-8.72685
▁శాశ్వత	-8.72924
▁శుద్ధి	-8.73013
▁ప్రజల	-8.73184
ుడైన	-8.73265
▁లోనూ	-8.73444
ప్పుడు	-8.73509
లోనే	-8.73874
▁లా	-8.73917
▁బాగా	-8.74039
▁సుమారు	-8.74051
బాలసుబ్రహ్మణ్యం	-8.74053
▁దినోత్సవం	-8.74351
తే	-8.74529
▁అలాగే	-8.74699
▁ప్రేమ	-8.75168
y	-8.75447
▁నారాయణ	-8.75461
కూ	-8.75463
▁ఆరు	-8.75556
▁కాదు	-8.75573
▁పని	-8.75689
▁తిరుపతి	-8.75861
▁ఎల్	-8.75972
ళ్ల	-8.76132
మును	-8.76195
ళ్ళు	-8.76271
నం	-8.76358
▁ఇలా	-8.76453
కాల	-8.76637
▁ధర్మ	-8.76791
▁కలిగిన	-8.76836
▁చంద్ర	-8.76979
▁డిసెంబర్	-8.77002
రామ	-8.77055
▁ఉత్తమ	-8.77063
▁మహబూబ్	-8.77221
▁పాత్ర	-8.77293
▁వారికి	-8.77361
▁భారతదేశ	-8.77384
▁కొ	-8.77557
▁దేవ	-8.77638
▁కాక	-8.77677
▁ఆలయ	-8.77727
▁సత్యనారాయణ	-8.77925
▁మరో	-8.77951
▁కారణంగా	-8.77993
▁నాటక	-8.7801
▁50	-8.78173
▁పొందిన	-8.7825
▁మార్కెట్	-8.78327
▁బోరుబావుల	-8.78574
▁కొడుకు	-8.78769
▁రెవెన్యూ	-8.7877
▁పతాకంపై	-8.78782
ేశ్వర	-8.78897
▁ఇక్కడి	-8.79118
▁విశ్వవిద్యాలయం	-8.79548
▁సంగతులు	-8.79666
▁పురస్కారం	-8.79693
క్క	-8.79971
▁పాల	-8.80117
▁వీరు	-8.80276
▁చారిత్రక	-8.80343
▁తల	-8.80527
గిరి	-8.80541
టా	-8.80851
▁వై	-8.81017
▁వహించిన	-8.81134
al	-8.81254
▁లభిస్తుంది	-8.81254
▁27	-8.81341
▁అవార్డు	-8.81482
▁ప్రాజెక్టు	-8.81511
▁దాదాపు	-8.81545
▁దర్శకత్వంలో	-8.8164
h	-8.81911
▁బాల	-8.82026
కొండ	-8.82267
▁నవంబర్	-8.82404
▁అక్టోబర్	-8.82634
బడి	-8.82743
ముల	-8.82819
▁ఎన్నో	-8.82885
▁గుడి	-8.82889
▁వరంగల్	-8.83052
t	-8.83248
▁తేదీ	-8.83251
▁లెక్కల	-8.83489
▁దీనికి	-8.83595
▁జన	-8.8361
▁భక్తులు	-8.83808
థ	-8.83848
వీ	-8.84249
▁అత్యంత	-8.84272
▁యుద్ధం	-8.84297
▁కాంగ్రెస్	-8.84308
▁నిర్మించారు	-8.84568
▁సుశీల	-8.84605
10	-8.84658
▁క్యాలెండర్	-8.84742
▁ఇండియా	-8.85027
▁కన్నడ	-8.85204
ించిన	-8.8521
▁మంత్రి	-8.85399
లూ	-8.85442
▁భాషా	-8.85746
ఇది	-8.85842
16	-8.859
▁ఎక్కువగా	-8.85913
▁శాఖ	-8.85998
ండ	-8.86413
ద్ద	-8.86526
▁వచ్చే	-8.86655
▁--	-8.86805
ేవారు	-8.86837
▁అందులో	-8.87189
ఎం	-8.8743
▁గ్రహీత	-8.87505
▁విడుదల	-8.87557
మున	-8.87564
▁కర్ణాటక	-8.87623
ేందుకు	-8.87962
ిస్తూ	-8.87981
▁మాత్రం	-8.88138
▁మొట్టమొదటి	-8.88162
▁చిత్రానికి	-8.88218
d	-8.88332
రం	-8.88489
నె	-8.88561
▁నాగేశ్వరరావు	-8.88711
▁స్థానిక	-8.88746
ఎన్	-8.88835
▁రాష్ట్రంలోని	-8.88894
▁చదివిన	-8.89045
▁ఉండ	-8.89099
▁వీరి	-8.89542
ాల్లో	-8.89954
▁హైదరాబాద్	-8.90127
టానికి	-8.90137
▁జయ	-8.9019
▁ప్రకారము	-8.90343
▁బావుల	-8.90649
▁సర్వ	-8.90705
▁లక్షల	-8.90777
వచ్చు	-8.90848
ందని	-8.90906
బు	-8.9105
▁అమ్మ	-8.91323
పేట	-8.9162
▁చివరి	-8.9178
ుతుంది	-8.9181
హి	-8.91998
▁చేసారు	-8.92007
▁కట్ట	-8.92023
▁మద్రాసు	-8.92023
▁చి	-8.9219
ట్ట	-8.92206
ులకు	-8.92251
50	-8.92521
▁కర్నూలు	-8.92664
▁వీటి	-8.92788
▁తోటలు	-8.92795
యూ	-8.9284
ధి	-8.92845
▁రాజధాని	-8.92916
ఐ	-8.92992
▁విద్య	-8.93033
ధా	-8.93216
▁తిరుమల	-8.93252
12	-8.93402
కర్	-8.93439
▁పురుషుల	-8.93441
ట్ల	-8.93549
కవి	-8.93709
▁పుట్టిన	-8.93727
▁వేద	-8.93752
m	-8.93853
c	-8.9397
▁కుమారుడు	-8.94207
▁పచ్చిక	-8.94265
సం	-8.94425
▁నిజాం	-8.9443
▁భ	-8.94798
.18	-8.9488
బడిన	-8.94963
▁వ్యక్తి	-8.94973
▁భాగం	-8.94996
▁నగర	-8.9535
పురం	-8.95531
▁ముఖ్యమైన	-8.95577
▁విజయం	-8.96061
▁కుమార్	-8.96244
▁కంపెనీ	-8.96269
లీపు	-8.96292
పతి	-8.96348
▁మరొక	-8.96463
ః	-8.96532
▁మేత	-8.96568
▁బ్రిటిష్	-8.96602
▁ఉండే	-8.96623
▁అవి	-8.96804
▁గానం	-8.97001
n	-8.97007
▁తేదీలు	-8.97212
▁‘	-8.97404
▁అంత	-8.97715
▁మిగిలినవి	-8.97724
డంతో	-8.97879
▁చూడ	-8.97887
0	-8.97955
15	-8.98
▁చేర	-8.98164
(	-8.98265
చ్చ	-8.98288
▁కే	-8.98377
▁క్రికెట్	-8.98416
ంటే	-8.98612
▁ఇవి	-8.98642
▁గ్రెగొర	-8.98688
ుంది	-8.98742
▁రాష్ట్రపతి	-8.98763
▁ఒ	-8.9887
▁పురుషులు	-8.98907
▁సంవత్సరాంత	-8.98962
▁ఈమె	-8.99011
▁రామకృష్ణ	-8.99102
▁నాటికి	-8.99154
▁రామారావు	-8.99187
▁కాలువ	-8.99328
▁మత	-8.99508
▁సంకలనం	-8.99567
▁చేత	-8.99672
▁తెలుగులో	-8.99685
స్త	-8.99716
▁సెప్టెంబరు	-8.99876
ంబ	-8.99978
బడ్డాయి	-8.99981
చె	-9.00182
▁తాను	-9.0032
▁రంగ	-9.00477
▁లోను	-9.00511
▁40	-9.00692
13	-9.00814
వర్	-9.00983
▁ఆధునిక	-9.00991
▁శాస్త్రి	-9.01173
ాలతో	-9.0126
▁ఖమ్మం	-9.0142
▁భారతదేశం	-9.01451
00	-9.01614
▁చిత్రంలో	-9.01678
▁సందర్భంగా	-9.01727
▁ఇరాన్	-9.01737
ారని	-9.01916
ింప	-9.01963
▁చె	-9.02003
▁పరి	-9.02063
▁రష్యా	-9.022
▁సమీపంలో	-9.02241
30	-9.02272
▁ఏడు	-9.02344
▁57	-9.02369
▁జల	-9.02419
ూర్	-9.02559
▁తా	-9.02583
▁శక్తి	-9.02807
▁S	-9.02841
▁సాగవుతున్న	-9.02855
▁స్థానంలో	-9.02987
▁రాష్ట్రంలో	-9.0311
22	-9.03256
▁నాగ	-9.0335
▁|	-9.03418
▁తాగునీరు	-9.03424
కోట	-9.03447
▁కోట్ల	-9.03558
ంచి	-9.03638
▁సంస్కృత	-9.03696
▁ఆగస్టు	-9.03783
త్త	-9.03994
▁దేశంలో	-9.04291
ెను	-9.0433
▁నవంబరు	-9.04381
కర	-9.04417
▁చలనచిత్ర	-9.04436
▁ఆడ	-9.04455
▁31	-9.0453
గో	-9.04646
లుగా	-9.04708
▁అన	-9.04813
ంగ్	-9.0487
నారాయణ	-9.05136
ుగా	-9.05184
▁చేసాడు	-9.05227
▁ఎంతో	-9.0539
▁అక్షరాస్యత	-9.0579
▁తప్ప	-9.05799
▁భావ	-9.0599
▁మరియు	-9.06041
మె	-9.06056
▁2022	-9.06058
▁పొంద	-9.06127
▁the	-9.06155
▁లోకి	-9.06204
డే	-9.06263
ొ	-9.06281
▁చూప	-9.06556
▁శతాబ్దం	-9.06573
▁నూతన	-9.06655
▁రోడ్డు	-9.06718
ుకుని	-9.06786
▁నివాస	-9.06815
▁నంది	-9.06822
ట్టు	-9.06865
▁బహుమతి	-9.06909
▁కరీంనగర్	-9.06985
▁ఏర్పడిన	-9.06987
▁నరసింహ	-9.07275
ులను	-9.07374
▁ఇంటి	-9.07461
▁59	-9.07552
A	-9.07616
▁అనగా	-9.07735
పాల	-9.08301
ించారు	-9.08599
▁ఖ	-9.08634
▁స్త్రీల	-9.08636
▁కడప	-9.08784
▁ఆంగ్ల	-9.09013
▁కిలోమీటర్ల	-9.09157
▁కళా	-9.09168
శ్రీ	-9.09181
మూర్తి	-9.09351
▁పత్రిక	-9.09459
▁ఒకే	-9.09462
▁వెళ్ళి	-9.09647
▁గు	-9.09681
కుడు	-9.09734
▁దేవి	-9.09772
▁లోక్	-9.09808
▁అధ్యక్షుడు	-9.09938
▁అంద	-9.10247
▁డిసెంబరు	-9.10398
ల్ల	-9.10434
పాటి	-9.10524
కృష్ణ	-9.10548
▁A	-9.10619
▁చేయడం	-9.1064
▁జీవ	-9.10641
▁ప్రజా	-9.10647
▁లే	-9.10705
▁నెల	-9.10753
▁58	-9.10827
▁నెల్లూరు	-9.10839
▁పంచ	-9.10923
▁సామ్రాజ్యం	-9.10994
▁అధికంగా	-9.11013
▁నాడు	-9.11085
తాయి	-9.11154
▁పెట్ట	-9.11232
▁ఇన్	-9.11273
▁అక్కినేని	-9.1132
11	-9.11401
▁రే	-9.11417
▁పాలన	-9.11509
:-	-9.11567
శి	-9.1174
▁సంగీతాన్నందించ	-9.1175
▁తెలంగాణా	-9.11895
▁నిర్మాణం	-9.11909
పె	-9.11937
40	-9.12025
▁2013	-9.12193
డీ	-9.12254
వై	-9.12259
an	-9.12307
▁రష్యన్	-9.12441
పూర్	-9.12495
▁కింద	-9.1291
ందు	-9.12991
▁క్రీ	-9.13041
ూరి	-9.13095
▁బ్లాగు	-9.13441
▁సంబంధించిన	-9.13549
▁సత్య	-9.13653
18	-9.13681
▁రంగస్థల	-9.13954
ుడి	-9.13969
వరం	-9.14026
▁కొంత	-9.14095
రాజ	-9.14129
▁వ్యాపార	-9.1428
గానే	-9.14319
▁మానవ	-9.14467
బ్బ	-9.14511
er	-9.14636
టర్	-9.14647
g	-9.14683
ారెడ్డి	-9.14727
ar	-9.14754
▁మూల	-9.14784
▁ఆమెను	-9.14903
త్య	-9.15012
షా	-9.15025
కులు	-9.15101
▁రాయ	-9.15147
▁నల్గొండ	-9.15221
▁యు	-9.15275
స్తూ	-9.15336
▁పూ	-9.1537
ిస్తాడు	-9.15405
▁పాప	-9.15419
▁చే	-9.15474
▁అలా	-9.15554
ఒక	-9.15671
▁దేశం	-9.15868
వ్వ	-9.16137
▁హా	-9.16309
నాడు	-9.16483
▁నాయుడు	-9.16495
▁సె	-9.16644
ఖ	-9.16673
టో	-9.16756
ాడని	-9.16795
17	-9.16841
▁రోజువారీ	-9.16848
ఘ	-9.16962
పీ	-9.1698
▁వేంకట	-9.17066
▁విశాఖపట్నం	-9.1714
▁60	-9.17323
ఎల్	-9.17352
మూ	-9.17393
▁జానకి	-9.17496
▁ఏర్పడింది	-9.17534
▁నవ	-9.17622
▁లక్ష్మీ	-9.17867
జన	-9.17873
దని	-9.17969
▁రచించిన	-9.18052
లె	-9.18066
▁సూర్య	-9.18083
▁ఒక్క	-9.18138
▁ఆరుగురు	-9.18159
▁అధిక	-9.18281
పొ	-9.18284
▁గీత	-9.18335
▁బో	-9.18462
C	-9.18482
ద్ధ	-9.18585
S	-9.18622
బో	-9.18639
▁జో	-9.18813
▁ఏమి	-9.18821
▁పడ	-9.18853
▁చేస్తారు	-9.18878
జె	-9.19188
▁వున్న	-9.19454
ుకొని	-9.19488
70	-9.19495
▁సంవత్సరంలో	-9.19912
ఉ	-9.20078
▁and	-9.20289
▁అల్లు	-9.20329
ిని	-9.20362
శాస్త్రి	-9.20377
వో	-9.20397
ంట	-9.2044
▁పైగా	-9.20457
▁పురాతన	-9.20508
స్తుంది	-9.20528
▁కనుక	-9.20584
▁శతాబ్దంలో	-9.20702
▁వే	-9.20818
24	-9.20846
▁పూర్వ	-9.20917
▁స్త్రీలు	-9.20951
in	-9.21068
పల్లె	-9.21105
▁వాటి	-9.21274
▁యుద్ధ	-9.21384
▁నే	-9.21445
ఏ	-9.21451
p	-9.21494
సే	-9.21692
▁స్వామివారి	-9.21795
న్ని	-9.218
ుతూ	-9.21861
▁పద	-9.21907
▁అనంతరం	-9.21915
పాడు	-9.21941
▁తి	-9.21941
ట్టి	-9.21988
▁35	-9.22225
▁దా	-9.22331
వె	-9.22357
▁ప్రపంచంలో	-9.22395
స్ట్	-9.22418
▁వీ	-9.22498
14	-9.2281
▁ఇప్పుడు	-9.23006
ున్న	-9.23007
▁దు	-9.23202
▁బె	-9.23295
23	-9.23334
▁చా	-9.23372
▁మాట	-9.23431
▁విశ్వ	-9.2357
▁సంఘ	-9.23726
▁కలిపి	-9.23898
▁స్టేషను	-9.23939
సె	-9.23986
▁అధికార	-9.24081
▁ఏలూరు	-9.24295
▁ప్రసిద్ధ	-9.2446
▁ఆది	-9.24521
▁తీర	-9.24566
ుట	-9.24617
వర	-9.24717
ించాడు	-9.24815
▁పొ	-9.24854
▁నేపథ్య	-9.24896
ాను	-9.2491
▁వేల	-9.24986
ిస్తుంది	-9.25049
60	-9.25173
▁ఎన్నికలలో	-9.25263
▁శ్రీనివాసరావు	-9.25371
▁సీ	-9.25391
మీద	-9.25436
▁మో	-9.2546
▁ఫ	-9.25471
చ్	-9.2571
▁మిగిలిన	-9.2573
▁మూడవ	-9.2575
▁అవ	-9.25809
▁చూసి	-9.25847
జు	-9.25891
▁రూ	-9.26069
▁కృషి	-9.26132
▁నల్ల	-9.26187
▁మోహన్	-9.26227
or	-9.2625
▁లేక	-9.26355
షన్	-9.26376
టే	-9.2642
హ్	-9.26455
▁ఉండి	-9.26519
▁సినిమాలో	-9.26641
▁తక్కువ	-9.26642
▁తారాగణం	-9.26779
01	-9.2698
56	-9.27082
వాడ	-9.27162
▁సభ్యుడు	-9.27167
▁పార్లమెంటు	-9.27188
▁చెందింది	-9.27196
25	-9.27214
▁గాయకుడు	-9.27238
▁విషయం	-9.27274
▁మధుర	-9.2728
▁నవల	-9.27347
షి	-9.27376
▁ప్రాచీన	-9.27422
▁సుబ్బారావు	-9.27656
▁వైపు	-9.27742
త్ర	-9.28051
▁డాక్టర్	-9.28242
P	-9.28275
▁బాలు	-9.28289
▁జీవిత	-9.2839
80	-9.28454
▁బాలసుబ్రహ్మణ్యం	-9.28473
రణ	-9.28495
▁ఇవ్వ	-9.28555
▁32	-9.28598
▁రాష్ట్రములో	-9.28611
▁అతనికి	-9.28652
▁సభ్యులు	-9.28913
▁బౌద్ధ	-9.28961
▁రాత్రి	-9.28998
రాయ	-9.29025
▁రి	-9.29128
తం	-9.29128
లం	-9.2914
▁కోర	-9.29224
కుల	-9.29327
▁శాసన	-9.29333
▁సోవియట్	-9.29333
▁ప్రారంభించారు	-9.29384
లేని	-9.29545
▁దశ	-9.29558
▁సత్యం	-9.29632
▁వరకూ	-9.29639
▁లింగ	-9.2964
▁తయారు	-9.29761
▁C	-9.29956
కార	-9.30002
▁వారిని	-9.30039
▁రాయలు	-9.30062
▁సిద్ధ	-9.30149
▁పోటీ	-9.30256
▁పు	-9.30393
▁కళాశాలలు	-9.30473
మైంది	-9.30488
▁అల	-9.30576
▁రాజ్	-9.30612
▁M	-9.30699
▁P	-9.30773
▁కుమార్తె	-9.30847
▁పట్టణంలో	-9.31278
▁కేవల	-9.31584
42	-9.31606
94	-9.31608
బీ	-9.31705
▁రాసిన	-9.31822
▁అర్థం	-9.31827
పద	-9.31893
98	-9.31912
▁ఐదుగురు	-9.31964
b	-9.32088
96	-9.32093
▁తు	-9.32179
91	-9.32338
▁సంవత్సరాలు	-9.32341
▁పరిపాలన	-9.32349
ల్లా	-9.32359
▁వివాహం	-9.3249
సంవత్సరం	-9.32517
▁చలనచిత్రం	-9.32528
▁పిల్లల	-9.32545
్యం	-9.32619
ుకున్న	-9.32678
▁పిలుస్తారు	-9.3274
▁గురువు	-9.32783
▁సమరయోధుడు	-9.32857
▁అమెరికన్	-9.32857
దేవ	-9.32867
న్స్	-9.32915
▁ఢిల్లీ	-9.32958
▁ఖాన్	-9.33059
▁గంగ	-9.33139
▁వస్తుంది	-9.3325
▁సో	-9.33267
k	-9.33278
▁పూర్తిగా	-9.33289
▁వైభవం	-9.33335
హా	-9.33364
బడ	-9.33439
▁దూరం	-9.3345
▁క్రీడాకారుడు	-9.33487
29	-9.3349
▁లేకుండా	-9.33506
▁అప్పుడు	-9.33753
▁భర్త	-9.33812
▁నటించారు	-9.3391
▁మండలంలోని	-9.33924
▁వ్రాసిన	-9.33966
f	-9.33975
రంగ	-9.3401
▁గుర్తింపు	-9.34023
▁పట్ట	-9.34063
పాలెం	-9.341
న్నా	-9.34203
▁వేటూరి	-9.34261
▁ప్రస్తుత	-9.34455
▁వెళ్ళ	-9.34577
కల	-9.3458
▁అమ్మవారి	-9.34638
▁సిస్టమ్	-9.34648
క్స్	-9.34732
▁నిర్వహించెద	-9.34947
▁ప్రాంతాలలో	-9.35005
▁అవుతోంది	-9.35042
l	-9.352
▁చేయని	-9.35377
▁సిస్టం	-9.35431
▁పర్యాటక	-9.35446
▁భక్తి	-9.35489
▁సాధారణంగా	-9.35521
▁మహారాష్ట్ర	-9.3554
▁సింగ్	-9.35728
▁భూగర్భ	-9.3583
48	-9.35915
▁2014	-9.36036
▁పరిధిలో	-9.36038
ంటి	-9.36198
▁ప్రాంతాన్ని	-9.3635
▁హై	-9.36538
02	-9.36573
▁ఆనంద	-9.36598
▁లక్ష్మి	-9.36618
▁ఎంత	-9.36708
ణి	-9.3672
▁యా	-9.36732
▁పాలనలో	-9.36761
ించే	-9.3695
ంతా	-9.37006
శాల	-9.37053
▁పిక్చర్స్	-9.37058
90	-9.37065
▁రో	-9.37091
▁నిర్మించాడు	-9.37112
▁వరి	-9.37145
ృ	-9.37413
▁అంచనా	-9.37415
▁కుల	-9.37518
ీయ	-9.37812
▁పంప	-9.37843
లేక	-9.37845
తులు	-9.37869
34	-9.37947
▁పూర్వం	-9.38034
▁పురపాలక	-9.38219
▁శ్రీనివాస్	-9.38272
▁నగరంలో	-9.38288
▁సంఘటనలు	-9.38408
*	-9.38418
61	-9.38591
▁1990	-9.3876
ండ్	-9.38776
▁ఇతని	-9.38846
▁జాతి	-9.38938
ెడ్	-9.39017
పూడి	-9.39203
▁ఉద్యమ	-9.39207
45	-9.39239
నేషనల్	-9.39254
63	-9.39343
▁ఎత్తు	-9.39348
▁మొదట	-9.39443
▁సంస్కృతి	-9.39445
75	-9.39847
▁B	-9.39894
ించింది	-9.39928
▁హరి	-9.39937
▁1:	-9.40206
r	-9.40211
▁శాతం	-9.4023
▁మరింత	-9.40283
▁అనంతపురం	-9.40291
▁నారాయణరావు	-9.40324
▁లాంటి	-9.40352
▁బు	-9.40386
▁మద్య	-9.40387
▁విగ్రహం	-9.40398
▁వె	-9.40495
▁=	-9.40581
76	-9.40633
▁భాస్కరరావు	-9.40682
ంక	-9.40755
▁వ్యతిరేకంగా	-9.40776
35	-9.40924
▁దానికి	-9.41041
▁వీటిలో	-9.41042
▁తమిళనాడు	-9.41113
▁కొల్లూర	-9.41114
▁అయింది	-9.41192
33	-9.41222
▁మహిళా	-9.41236
▁కార్	-9.41315
39	-9.41414
▁సై	-9.41423
82	-9.41428
▁నిర్	-9.41482
▁విజయనగరం	-9.41506
▁మార్గం	-9.41543
▁మెదక్	-9.41598
28	-9.41718
▁లోక	-9.41916
▁అతిపెద్ద	-9.41931
▁అనేది	-9.41965
యస్	-9.42057
▁పండితుడు	-9.42079
పునర్వ్యవస్థీకరణ	-9.42105
గం	-9.42171
మైనది	-9.42292
రూప	-9.42312
ిస్తారు	-9.42387
పర	-9.42399
▁మీదుగా	-9.42419
ును	-9.42428
▁స్వతంత్ర	-9.42641
▁కాంగ్రెసు	-9.42766
▁రె	-9.42935
▁గురు	-9.43075
▁100	-9.43146
ed	-9.43182
▁కొందరు	-9.43189
నాథ	-9.43194
▁చేస్తూ	-9.43204
64	-9.43227
ఫ	-9.43243
▁ఉర్దూ	-9.43248
▁లాల్	-9.43355
68	-9.43411
▁శాంతి	-9.43434
▁భాషలో	-9.43447
72	-9.43521
▁366	-9.4355
▁స్థాయి	-9.43565
▁మొ	-9.43595
భాష	-9.43597
▁గణపతి	-9.43626
దో	-9.43638
84	-9.43659
▁ఆరుద్ర	-9.43662
26	-9.43683
27	-9.43685
▁సంప్రదాయ	-9.43784
▁పాటల	-9.43804
శ్	-9.43904
▁చిత్తూరు	-9.44054
▁విజ్ఞాన	-9.44076
▁కూతురు	-9.44121
▁అందించాడు	-9.44125
▁వాటిని	-9.44153
▁in	-9.44179
▁ఉదయం	-9.44271
▁రాజ్య	-9.44301
▁సేవ	-9.44654
▁దానిని	-9.44657
▁సమ	-9.44663
▁ఎలా	-9.44742
54	-9.44807
▁–	-9.44821
99	-9.44948
▁అక్కడి	-9.44988
▁మహ	-9.4499
▁చిరంజీవి	-9.45005
▁వంశ	-9.45023
స్తు	-9.45035
▁వ్యతిరేక	-9.45044
▁హో	-9.45159
రాల	-9.4519
▁పంట	-9.45194
▁పరిశ్రమ	-9.45194
▁మండలాలు	-9.45199
▁సాహిత్యం	-9.45205
త్వం	-9.45229
ధ్య	-9.45421
పే	-9.45454
▁నృత్య	-9.45513
▁గారి	-9.45553
▁పే	-9.45681
▁రామలింగయ్య	-9.4577
ళ్లు	-9.45771
▁క్రింద	-9.45774
▁జరుపుకుంటారు	-9.45774
▁పురస్కార	-9.46007
ంప	-9.461
శా	-9.46224
41	-9.46292
కై	-9.46371
▁ముఖ్యంగా	-9.46631
▁గ్రెగోరియన్	-9.46645
▁అనుసరించి	-9.46682
దేవి	-9.46726
▁పొందింది	-9.46753
ుతున్న	-9.46759
▁పూజ	-9.46784
యిన	-9.46818
▁డిగ్రీలు	-9.46938
ుటకు	-9.46955
69	-9.46962
43	-9.46981
గారి	-9.46982
▁కొత్తగా	-9.47086
▁గోల్కొండ	-9.47086
▁పె	-9.47088
▁జరిగే	-9.47119
వాగు	-9.47159
▁నియోజకవర్గం	-9.47201
▁నమ్మ	-9.47254
▁).	-9.47294
▁స్త్రీ	-9.47305
47	-9.47371
▁దేవత	-9.47415
▁సోమ	-9.47419
హెచ్	-9.47442
51	-9.47452
E	-9.47507
▁స్కోప్	-9.47529
▁ప్రారంభ	-9.47541
▁2009	-9.47569
▁2007	-9.47572
వ్య	-9.47592
▁రాష్ట్రాల	-9.47654
▁శ్రీకాకుళం	-9.47684
38	-9.47749
▁భారత్	-9.47749
88	-9.47814
67	-9.47868
78	-9.4787
▁మహిళల	-9.47898
21	-9.47967
▁థాయ్	-9.47976
కోసం	-9.47992
▁సాంస్కృతిక	-9.48015
▁1,	-9.48069
▁బంగారు	-9.48184
▁రాజ్యం	-9.48225
55	-9.48279
]	-9.48404
▁దాడి	-9.48723
▁పర్వత	-9.48789
▁కాలెండరు	-9.48868
▁నెహ్రూ	-9.48868
▁నోబెల్	-9.48869
▁ముస్లిం	-9.48914
▁సైన్యం	-9.48952
▁మారింది	-9.48975
▁సరిహద్దు	-9.49013
▁వలస	-9.4902
▁51	-9.49062
ణం	-9.49081
ుకున్నారు	-9.49148
ానంద	-9.49161
▁సీత	-9.49281
భవ	-9.49316
▁ఆత్రేయ	-9.49318
మర్	-9.49324
▁జన్మించాడు	-9.49341
▁అతన్న	-9.49359
▁అన్నమయ్య	-9.49369
▁ప్రొడక్షన్స్	-9.49391
క్కు	-9.49401
▁ప్రకాశం	-9.49444
▁బాధ	-9.49518
04	-9.49558
స్థ	-9.49559
▁బొ	-9.49586
▁రచనలు	-9.49591
ాలయం	-9.49601
▁జన్మ	-9.49737
▁నామ	-9.49764
36	-9.49955
▁అత్యధిక	-9.5004
పోయింది	-9.50074
తుల	-9.50106
ునిగా	-9.50126
▁ప్రజలకు	-9.50131
▁నేను	-9.50133
▁2000	-9.50153
▁పర	-9.50192
ద్ర	-9.50222
ఠ	-9.50249
▁చంప	-9.50261
▁ఏక	-9.50277
85	-9.50408
▁యూ	-9.50514
▁సగటు	-9.50686
▁కంప్యూటరు	-9.50725
62	-9.50764
▁నాగరికత	-9.50771
ండు	-9.50828
▁కెనడాలో	-9.50876
▁ఇం	-9.50879
▁నిర్వహించ	-9.51053
59	-9.51057
31	-9.51081
▁బ్యానర్	-9.51143
71	-9.51194
▁మార	-9.51364
ిస్తున్న	-9.51371
▁2008	-9.51371
87	-9.51447
రూ	-9.5147
న్నీ	-9.51495
▁మై	-9.51548
▁మళ్ళీ	-9.51602
▁2023	-9.51644
▁ప్రా	-9.51713
పుడు	-9.51737
▁కేంద్రమైన	-9.51792
డె	-9.51872
లైన	-9.51915
ణా	-9.51921
▁పోలీసు	-9.51938
06	-9.52001
▁చేయడానికి	-9.5202
▁మూ	-9.52029
▁గ్రామీణ	-9.52065
▁ప్లాంట్	-9.52067
▁జిల్లాలు	-9.52144
▁బాలబడ	-9.52188
▁సైనిక	-9.5234
53	-9.52388
▁సాధారణ	-9.52442
93	-9.52452
▁మామూలు	-9.5253
▁1956	-9.52551
ికి	-9.52602
▁భౌతిక	-9.52603
ుతారు	-9.52657
▁చెప్పిన	-9.5266
▁సమేత	-9.52663
మాన	-9.52693
ంగి	-9.5274
▁33	-9.52821
మాల	-9.52917
▁డే	-9.52973
లక్ష్మి	-9.52993
▁1980	-9.53019
చేసి	-9.5302
▁చుట్టూ	-9.53022
▁బట్టి	-9.53144
▁సాహితీ	-9.53212
▁ప్రియ	-9.53261
దేశ	-9.53359
09	-9.53374
32	-9.53419
▁(1	-9.53421
95	-9.53436
79	-9.53438
▁చేస్తుంది	-9.53508
▁ఇతను	-9.53829
▁దాసరి	-9.53969
▁1991	-9.54012
▁గౌరవ	-9.54095
▁పెంచ	-9.54101
▁కాపాడ	-9.54169
▁మనసు	-9.5418
▁భాషలలో	-9.54215
▁భక్త	-9.54216
కాయ	-9.54247
▁బ్రాహ్మణ	-9.54316
▁సర్	-9.54375
చేయ	-9.54381
▁రకాల	-9.54387
▁భావిస్తున్నారు	-9.54431
పద్యం	-9.54435
▁భారీ	-9.5449
I	-9.54532
పడ	-9.54669
▁రవి	-9.54696
వాస	-9.54763
ింగ్	-9.54845
▁సముద్ర	-9.54848
▁గృహాలు	-9.54974
ంబు	-9.55083
▁ష	-9.55113
05	-9.55134
▁తనకు	-9.55134
▁అలీ	-9.55138
86	-9.55139
▁యుద్ధంలో	-9.55184
▁వ్యాధి	-9.55238
▁కొనసాగ	-9.55253
▁రాజులు	-9.55267
81	-9.55313
▁1947	-9.55385
▁మార్	-9.55439
▁డబ్బు	-9.5546
▁ఇండియన్	-9.55498
▁ప్రభావం	-9.55542
as	-9.55803
▁ఫైల్	-9.55906
త్తు	-9.55978
▁నె	-9.55982
▁బల	-9.56162
చా	-9.56301
▁పరిస్థితి	-9.56335
▁ఉంటారు	-9.56378
▁గుర్తించ	-9.56443
కారుడు	-9.56458
▁G	-9.56485
65	-9.56566
52	-9.56593
▁చెయ్య	-9.56624
▁రాతి	-9.56665
▁చదువు	-9.56712
▁ఆర్ట్	-9.56889
49	-9.56967
▁విష్ణు	-9.57029
▁ప్రాంత	-9.5707
▁తర	-9.57122
▁స్వ	-9.57163
▁త్రి	-9.57306
▁జానపద	-9.57307
▁ఉపయోగించ	-9.57311
▁ఇప్పటికీ	-9.57341
97	-9.57382
చు	-9.57458
▁కేంద్రంగా	-9.57513
▁శ్రీనివాస	-9.57644
కాలంలో	-9.57649
▁సుబ్బారాయుడు	-9.57794
▁రాజుల	-9.57872
▁కేరళ	-9.57883
మంది	-9.57956
కల్	-9.57976
46	-9.57977
▁నేల	-9.57999
▁ఎర్ర	-9.58006
▁తెర	-9.58121
▁పాడ	-9.58146
▁దేశాల	-9.58163
▁ఊరు	-9.58186
▁జైన	-9.58215
ధార	-9.58232
▁కుతుబ్	-9.58286
ప్రసాద్	-9.58297
▁అతడు	-9.58351
సారి	-9.58459
ళి	-9.58494
గే	-9.58497
▁సాంకేతిక	-9.58521
▁రోజుల	-9.58527
▁రూపాయల	-9.58667
74	-9.58704
చేత	-9.58723
▁మరణించాడు	-9.58841
37	-9.58959
▁కారణం	-9.59053
▁పరిశోధన	-9.59077
నప్పుడు	-9.59088
ing	-9.59345
▁ఊ	-9.59441
ేయ	-9.59496
నకు	-9.59519
మ్మా	-9.59541
▁క్	-9.5957
▁కోటి	-9.59583
v	-9.5971
▁చలన	-9.59772
▁ప్రారంభించాడు	-9.59841
్యా	-9.59849
▁ప్రధానమంత్రి	-9.59853
▁రాణి	-9.59859
డమే	-9.59906
▁చేయబడింది	-9.59935
▁ఉండేవి	-9.6008
▁ప్రధానంగా	-9.60227
▁ఆహార	-9.60245
▁గళామృత	-9.60282
▁ఆధ్యాత్మిక	-9.60283
▁పండుగ	-9.60287
▁1985	-9.60301
▁లభించింది	-9.60306
ాది	-9.60362
ra	-9.60383
రామారావు	-9.60451
▁కోరిక	-9.60516
డో	-9.60527
చల్లా	-9.6057
ందుకు	-9.60667
▁రాజేంద్ర	-9.60699
▁హాస్య	-9.6075
▁కొద్ది	-9.60775
▁కోర్టు	-9.60787
▁ఘ	-9.60808
▁పద్యం	-9.61005
పరి	-9.61033
77	-9.61053
▁కాకినాడ	-9.61186
▁జీవితం	-9.61266
▁అకాడమీ	-9.61294
▁వెంకటేశ్వరరావు	-9.61327
▁2012	-9.61351
న్నది	-9.61384
ri	-9.61384
08	-9.6139
D	-9.61395
▁కార్యక్రమాలు	-9.61428
▁పద్మ	-9.61538
▁అవకాశం	-9.61545
▁మార్చ	-9.61563
▁మూర్తి	-9.61631
▁నిర్వహించిన	-9.61653
▁యూనియన్	-9.61807
▁ఆసియా	-9.61923
▁38	-9.62112
▁కీ	-9.62171
▁ఫల	-9.62194
▁జనాభాలో	-9.62199
ెన్	-9.62199
▁రాజధానిగా	-9.62233
▁రంగారావు	-9.62261
ాలుగా	-9.623
▁గద్వాల	-9.62317
లై	-9.62394
▁విశేష	-9.62408
am	-9.62409
▁వైశాల్యం	-9.6255
▁మాటలు	-9.62562
చిత్ర	-9.62674
తాడు	-9.62683
ాత్మక	-9.62808
▁దాశరథి	-9.62833
▁క్షేత్రం	-9.62867
▁అర	-9.62872
▁చేస్తున్న	-9.6288
▁తెలియ	-9.62907
జానకి	-9.62973
▁రూప	-9.63035
▁శాస్త్ర	-9.63087
44	-9.63134
73	-9.63156
▁వ్యాసం	-9.63227
ండ్ల	-9.6324
▁పూజలు	-9.63263
▁తిరుగుబాటు	-9.63352
ారం	-9.63415
రాష్ట్ర	-9.63464
▁శ్రీశ్రీ	-9.63501
ుకునే	-9.6372
▁కళ్యాణ	-9.63857
▁చాల	-9.63862
▁కొసరాజు	-9.63872
▁నంద్యాల	-9.63872
://	-9.63877
▁కథా	-9.63954
ic	-9.64059
57	-9.6417
▁రాధ	-9.64215
58	-9.64249
ద్య	-9.64253
▁మరణం	-9.64321
▁వెనుక	-9.64394
▁వెబ్	-9.64426
92	-9.64624
ార్	-9.64689
▁అడుగుల	-9.64848
▁నిర్మించ	-9.64902
▁విశేషం	-9.64925
ీకరణ	-9.64983
▁గ్రంథ	-9.65074
▁గాయని	-9.65089
త్వ	-9.65123
▁సహా	-9.65195
▁అప్ప	-9.65207
ంట్	-9.65276
వారికి	-9.65276
మన్	-9.65347
▁తాలూకా	-9.65397
03	-9.65456
▁తెలియదు	-9.65485
▁రెండో	-9.65485
▁వుంది	-9.65499
ల్స్	-9.65532
▁N	-9.65542
▁వేరు	-9.65618
తెలుగు	-9.65632
▁మనిషి	-9.65677
రియా	-9.65765
▁ఉద్యమం	-9.65769
▁డ	-9.65809
-19	-9.65823
▁మల్ల	-9.65823
వల్ల	-9.65858
▁హైదరాబాదులో	-9.65978
w	-9.66015
▁రుద్ర	-9.66211
▁2014,	-9.66219
▁వార	-9.66298
ించడం	-9.66329
▁కథలు	-9.66404
▁ఆధ్వర్యంలో	-9.66521
▁పనిచేశాడు	-9.66525
▁పొడవు	-9.66586
▁2015,	-9.6662
83	-9.66635
▁36	-9.66636
▁మాట్లాడ	-9.66706
▁ఒడ్డున	-9.66762
▁విశ్వనాథ	-9.66916
కారం	-9.67082
▁దీన్ని	-9.67093
ులైన	-9.67111
▁2010	-9.6712
▁మనం	-9.67199
89	-9.67203
▁మార్గంలో	-9.67218
రాం	-9.6722
▁నేత	-9.67257
▁లేవు	-9.67262
▁సుందర	-9.67288
▁బిడ్డ	-9.6734
▁స్థానం	-9.67355
ాపురం	-9.67388
▁దూరంలోనూ	-9.67443
▁అయి	-9.67468
▁చెంద	-9.67523
▁బొమ్మ	-9.67543
ర్ల	-9.67629
▁అంగ	-9.67651
ుడిగా	-9.67686
చో	-9.67734
జ్ఞ	-9.67754
లపై	-9.67929
▁పట్ల	-9.67956
▁విప్లవ	-9.68018
▁కమ్యూనిస్టు	-9.68139
▁స్కూల్	-9.68139
▁జనరల్	-9.68147
.17	-9.68157
▁1969	-9.6816
▁సామ్రాజ్య	-9.68171
▁ఉండగా	-9.68195
▁స్వాతంత్ర్యం	-9.68203
నాటి	-9.68248
▁ఇంట్లో	-9.68253
▁పది	-9.68332
▁పూర్	-9.68381
ములను	-9.68436
▁53	-9.68524
▁చెరువులు	-9.68526
▁సాగు	-9.68566
▁మరి	-9.68607
▁ప్రాణ	-9.68647
▁న్యాయమూర్తి	-9.68695
▁ఆత్మ	-9.68791
▁ఇంటికి	-9.68857
చూ	-9.68897
▁చెన్నై	-9.68953
▁ఎకరాల	-9.68964
▁శిక్ష	-9.69031
ార	-9.69036
▁అయినా	-9.69081
దర	-9.69089
క్త	-9.69093
ందా	-9.69178
కలు	-9.69189
R	-9.69224
▁గాని	-9.69268
▁తిరు	-9.69288
▁జైలు	-9.69366
▁గంగా	-9.69448
రచన	-9.69472
▁అంతా	-9.69522
బె	-9.69556
▁బీ	-9.69568
▁పుట్ట	-9.6971
▁ఇంద్ర	-9.69753
▁చేసుకుని	-9.69796
▁పట్టు	-9.69798
▁సమస్య	-9.6981
▁ప్రాంతానికి	-9.69923
▁ముఖ్యమంత్రిగా	-9.69965
తె	-9.70024
▁పెద	-9.70053
es	-9.70204
▁యే	-9.70224
▁పాకిస్తాన్	-9.70343
▁కర	-9.70362
▁అగ్ర	-9.70365
▁కామ	-9.70402
ంటుంది	-9.70469
▁తరువాతి	-9.70506
▁పడి	-9.70654
▁80	-9.70772
▁భక్తుల	-9.708
▁జ్ఞాన	-9.70807
▁జాబితా	-9.70825
గ్గ	-9.70896
▁తెనాలి	-9.70902
▁ఆయనకు	-9.70922
▁చిత్రాల	-9.70924
ాడ	-9.70948
థి	-9.70967
▁T	-9.70978
▁వాళ్ళ	-9.70989
M	-9.71017
జర్	-9.71078
▁ఇంత	-9.71099
▁జీ	-9.71154
▁ముఖ	-9.71166
ేవాడు	-9.71206
▁గత	-9.71337
▁వర	-9.71415
▁కౌ	-9.71426
▁ఎమ్మెల్యే	-9.71463
ంపు	-9.71471
తన	-9.71494
▁జట్టు	-9.71515
వలసిన	-9.71533
▁పల్లె	-9.716
లీల	-9.71664
బడుతుంది	-9.71725
బాబు	-9.71735
ెం	-9.71753
లూరు	-9.71786
వరకు	-9.71798
▁బే	-9.71821
▁సరి	-9.72061
▁నాగార్జున	-9.72087
▁పిల్లలు	-9.72107
▁అందుకు	-9.72125
ుకొన	-9.72138
ండా	-9.72249
▁పదం	-9.72268
దర్	-9.72324
ురాలు	-9.72402
▁ఇచ్చి	-9.72413
▁మొదలు	-9.72449
▁ప్రదర్శన	-9.72457
▁రస	-9.7275
▁42	-9.72784
శక్తి	-9.72894
నుంచి	-9.72958
ున్నాయి	-9.7298
▁పంపిస్తున్నా	-9.73011
▁నాయకులు	-9.73092
▁మాధవపెద్ది	-9.73168
▁కూడిన	-9.73211
▁అరటి	-9.73241
భా	-9.73396
ాబాద్	-9.7341
యర్	-9.73427
▁సాధించి	-9.73456
బుల్	-9.73467
▁2005	-9.73517
▁పేర్లు	-9.73539
▁విమానాశ్రయం	-9.73551
▁గుణ	-9.73584
▁F	-9.73688
▁45	-9.73703
▁ఘట్టమనేని	-9.73743
▁రేడియో	-9.73743
▁కమిటీ	-9.73743
▁1982	-9.73766
▁1952	-9.73773
▁సింధు	-9.73866
▁కలసి	-9.73881
ేషన్	-9.73926
▁సహాయ	-9.74085
▁దండ	-9.74187
▁ఉంచ	-9.74267
▁సమాజ	-9.74436
ch	-9.7448
ేంద్ర	-9.74581
▁అందించిన	-9.74581
▁ఖండ	-9.74593
▁ఆశ	-9.7463
▁అడవి	-9.74658
▁కార్యక్రమంలో	-9.7466
▁వారిలో	-9.74706
▁ఒకసారి	-9.7475
▁బ్రిటిషు	-9.74902
▁ఉమ్మడి	-9.74902
▁కనిపించ	-9.74918
▁రచయిత్రి	-9.74932
▁కేంద్రాల్లో	-9.74952
స్తే	-9.74988
వచ్చును	-9.75069
▁ఎన్నికల	-9.75152
▁రు	-9.75178
▁దేశాలలో	-9.75236
▁గి	-9.75265
▁శాసనం	-9.75319
సర్	-9.75365
▁ప్రదేశం	-9.75388
▁అనంత	-9.75391
స్తాడు	-9.75451
▁సాంఘిక	-9.75487
▁లి	-9.75587
▁గోపి	-9.7565
కాలం	-9.75685
▁I	-9.75789
▁అక్క	-9.75835
మన	-9.75841
ాక	-9.75898
▁సమర	-9.75899
▁నదీ	-9.75914
సిన	-9.75996
▁1972	-9.76099
▁హత్య	-9.76125
▁చేస్తాడు	-9.76129
పోతోంది	-9.76157
▁పుస్తకం	-9.76164
▁ఉత్సవాలు	-9.76182
▁చెప్పి	-9.7619
▁మొదటిసారిగా	-9.7625
▁పొందాడు	-9.76334
▁శంకర	-9.76349
రిక	-9.76433
నని	-9.76448
▁డె	-9.76468
▁గొ	-9.76516
▁1983	-9.76552
▁ఒప్పందం	-9.76575
▁వాతావరణం	-9.76585
వని	-9.76662
▁మరణించారు	-9.76745
▁కళ	-9.76779
▁రంగు	-9.76805
▁2019	-9.76836
▁2004	-9.76844
▁యె	-9.76865
▁ప్రథమ	-9.76918
మొ	-9.76929
పేరు	-9.76945
వార	-9.77025
▁ఫి	-9.77053
ాప	-9.7706
▁కం	-9.77101
ఫి	-9.77147
▁శా	-9.77166
▁బిరుదు	-9.77227
▁ప్రయాణ	-9.77242
▁విదేశీ	-9.77246
▁తెలుస్తుంది	-9.77265
▁మద్దతు	-9.77274
▁కాబట్టి	-9.77275
▁కవులు	-9.77336
▁దక్షిణాన	-9.77357
▁పొట్టి	-9.77393
▁పంచాయతీ	-9.77469
▁ఉన్నాడు	-9.77505
ుకున్నాడు	-9.7757
▁పద్య	-9.77589
▁బాల్	-9.77597
▁సంస్థాన	-9.77682
▁ఆలయాన్ని	-9.77698
కాలు	-9.77714
▁చిత్రానువాదం	-9.77861
▁మండేలా	-9.77863
▁ప్రకృతి	-9.7787
▁భాషలు	-9.77898
▁శ్రీరాములు	-9.77929
ించు	-9.77938
▁లిపి	-9.77963
▁D	-9.77968
▁సభ్యుల	-9.77987
▁హిట్	-9.7804
▁నటించగా	-9.78044
ుడై	-9.78045
ండే	-9.78079
▁రంగారెడ్డి	-9.78115
యన్	-9.78169
తోపాటు	-9.78242
వాద	-9.78245
చంద్ర	-9.78254
▁ఆమెకు	-9.78264
పం	-9.78283
▁సంస్థలు	-9.78294
▁s	-9.783
్ని	-9.78346
▁గారు	-9.78379
at	-9.78415
▁ప్రక్రియ	-9.78467
▁1960	-9.78493
▁జై	-9.7864
ూరులో	-9.78654
▁గుర్తు	-9.78675
▁యోగ	-9.78744
శాఖ	-9.78812
▁పట్టణానికి	-9.78825
▁సీతారామ	-9.78831
▁కార్యక్రమం	-9.78868
▁లలో	-9.78934
ైనా	-9.78984
th	-9.79012
▁కాశీ	-9.79068
▁ప్రశ్న	-9.79073
▁52	-9.79089
▁1975	-9.79095
దం	-9.79131
▁రూపంలో	-9.79246
▁రాం	-9.79346
▁సాగర్	-9.79396
▁విద్యార్థులు	-9.79409
▁జీవన	-9.79481
▁ఇక	-9.79522
ాంధ్ర	-9.79537
గడ	-9.79625
0,000	-9.79696
పాటు	-9.798
▁ప్రచురణ	-9.79802
▁సాధించింది	-9.79805
O	-9.79811
▁హి	-9.79896
పెట్ట	-9.79918
▁మందిరం	-9.79933
▁ఆట	-9.7994
▁మగ	-9.79947
▁దొర	-9.80012
ాం	-9.80013
మాట	-9.80025
▁మారి	-9.80064
▁37	-9.80111
నగర్	-9.80169
▁పాలు	-9.80175
ఢ	-9.80224
వేల	-9.80236
డుగు	-9.80265
భాగ	-9.80345
పాట	-9.80378
▁రాముడు	-9.8038
యె	-9.80394
ుచు	-9.8041
ుకోవడం	-9.80548
▁దేవస్థానం	-9.80586
▁మీటర్ల	-9.8059
▁వార్షిక	-9.80621
▁తారక	-9.8063
▁పారిశ్రామిక	-9.80733
▁వరద	-9.8074
▁రమేష్	-9.8091
▁1971	-9.80933
▁1948	-9.80937
ునికి	-9.80946
మయిన	-9.80981
▁పేజీ	-9.81008
శ్ర	-9.81116
చీ	-9.81153
▁టీ	-9.8123
▁భక్తులకు	-9.81348
▁70	-9.8138
గణ	-9.81397
▁పాత్రలు	-9.81398
▁నాయక	-9.8146
▁శుభ	-9.81504
▁ఒంగోలు	-9.81531
▁విద్యార్థి	-9.81532
▁రిపబ్లిక్	-9.81638
▁ఆల్	-9.81723
▁గుమ్మడి	-9.81782
▁అసలు	-9.81842
▁0	-9.81889
▁కూ	-9.81972
▁రక్షణ	-9.82057
▁న్యాయ	-9.82061
పడి	-9.82067
కంటే	-9.82078
▁అర్ధ	-9.82082
▁రాజ్యాంగ	-9.82082
▁ఉండటం	-9.82095
▁2015	-9.82102
ంటా	-9.82104
రాజ్	-9.82163
▁అందుకే	-9.82178
▁నందమూరి	-9.82182
గూడెం	-9.82184
▁నిర్మించబడింది	-9.82192
▁మర	-9.82199
ల్లి	-9.82292
▁బై	-9.8231
ందే	-9.82393
గొ	-9.82399
రోజు	-9.82462
▁దారి	-9.82498
▁కార్య	-9.82515
▁రాజమండ్రి	-9.82539
▁34	-9.8259
en	-9.82592
▁చట్టం	-9.82689
ుడిని	-9.8269
▁రికార్డు	-9.82715
▁ఆదిలాబాద్	-9.82785
▁ఆనకట్ట	-9.82786
▁పవిత్ర	-9.82816
▁అమలు	-9.8291
▁The	-9.8293
▁నవలా	-9.82982
▁పీ	-9.8306
▁దో	-9.83221
▁1992	-9.83302
దేశం	-9.83327
▁వాటిలో	-9.83339
▁వాడుకలో	-9.83372
▁పారుదల	-9.83418
▁రాయలసీమ	-9.8342
▁విగ్రహ	-9.83436
▁ఆచార్య	-9.83444
▁కుటుంబం	-9.83466
▁అగ్ని	-9.83482
లర్	-9.83487
జో	-9.83513
▁ప్రాంతీయ	-9.83538
▁గాను	-9.83581
▁అయ్యాడు	-9.83597
▁V	-9.83656
▁పెట్టి	-9.83727
నము	-9.8373
ార్థ	-9.83746
▁నీటిని	-9.83783
▁పైన	-9.83832
ంటారు	-9.83837
జయ	-9.83862
▁గాలి	-9.83903
య్	-9.83946
శాస్త్ర	-9.83982
ol	-9.8401
కుంట	-9.8405
▁కనిపిస్తుంది	-9.84067
▁ఆలోచన	-9.84075
వలసి	-9.84153
▁చేర్చ	-9.84188
▁స్వయంగా	-9.84251
▁కన	-9.84321
▁దేశానికి	-9.8446
ర్థ	-9.84536
▁పాఠశాలలో	-9.84609
బర్	-9.84618
▁సహజ	-9.84624
▁డివిజనులో	-9.84626
▁ప్రత్యేకత	-9.84733
▁చూడండి	-9.8474
▁అమర	-9.84764
మం	-9.84785
▁సర్పంచిగా	-9.84789
▁యునైట	-9.84821
యైన	-9.84895
▁గృహ	-9.84906
రాలు	-9.84942
▁స్వంత	-9.84963
▁సూ	-9.84976
వంతు	-9.8499
▁వివరించ	-9.85081
ంలోని	-9.85122
▁ఇంగ్లీషు	-9.85141
పల్లిలో	-9.85169
▁పరీక్ష	-9.85173
ుచున్నది	-9.85197
▁ఛ	-9.85221
▁క్షేత్ర	-9.85319
▁స్థాపించబడింది	-9.85355
▁గణిత	-9.85357
▁1999	-9.85367
సేవ	-9.85376
▁ప్రారంభమైంది	-9.85379
▁విస్తీర్ణం	-9.85481
ాచార్యులు	-9.85507
▁విలువ	-9.85507
పుర	-9.85526
ష్ఠ	-9.85596
▁మార్పు	-9.85613
▁లలిత	-9.85642
ట్స్	-9.8569
▁చివరికి	-9.85691
▁గోపాల	-9.85753
▁48	-9.85763
N	-9.85866
▁వర్ణ	-9.85922
▁టెక్నాలజీ	-9.8599
▁ఉజ్బెకిస్థాన్	-9.85991
▁1955	-9.86015
▁వెంకటేశ్వర	-9.86022
▁తాత	-9.86033
నికి	-9.86095
▁44	-9.86139
▁శబ్ద	-9.86203
తల	-9.86349
▁గోవా	-9.86357
▁అవసరం	-9.86431
▁చేరి	-9.86447
▁భారతదేశంలోని	-9.86505
B	-9.8653
పోయిన	-9.8653
▁క్యా	-9.86552
▁రోజుల్లో	-9.86595
▁మసీదు	-9.86644
ేది	-9.86647
▁1964	-9.86671
▁1994	-9.86673
▁1930	-9.86684
▁ఉంటాడు	-9.86688
▁పాల్గొన్నారు	-9.86695
▁ధన	-9.86743
▁కావ	-9.86943
▁మాట్లాడే	-9.87048
బ్ర	-9.87059
డూ	-9.87105
▁దుర్గ	-9.87266
▁వ్య	-9.87297
▁గోపాలరావు	-9.87335
▁తయారీ	-9.87367
రై	-9.87431
▁అనుమతి	-9.87432
▁రంగంలో	-9.87467
▁చేతిలో	-9.87673
▁పరిచయం	-9.87674
గల్	-9.87689
వలన	-9.87692
నాథ్	-9.8778
▁సాయి	-9.8783
▁ఎన్నిక	-9.87856
▁ప్రతిష్ఠ	-9.87913
చిన	-9.87913
▁వాడు	-9.87954
▁మొఘల్	-9.87964
▁భీమ	-9.87964
▁మధ్యలో	-9.87978
▁రావి	-9.87994
పోతుంది	-9.88006
▁క్రమంగా	-9.88043
▁పోలి	-9.88133
యన	-9.88242
▁పోరాట	-9.88347
పర్	-9.8838
▁యి	-9.88384
సేన	-9.8839
▁లోనే	-9.88412
▁ప్రదర్శించ	-9.88541
యము	-9.88552
▁నిజ	-9.88588
స్ట	-9.88601
▁అవగాహన	-9.88631
▁కంప్యూటర్	-9.88631
▁శాస్త్రీయ	-9.88642
ాంతర	-9.88697
▁వెంటనే	-9.88726
▁మరాఠీ	-9.88742
▁ఫలితంగా	-9.88742
▁మహర్షి	-9.88819
మణి	-9.88851
ాంత	-9.88862
▁ప్రఖ్యాత	-9.88925
కాంత	-9.88962
▁భారతదేశానికి	-9.88988
▁1965	-9.89021
▁అధికారులు	-9.89031
▁మనో	-9.89044
▁జాన్	-9.89235
▁2006	-9.8928
▁నిష్పత్తి	-9.89302
▁1998	-9.89332
▁ధ	-9.89372
▁దర్శకులు	-9.89442
▁చివరకు	-9.89459
ళ్	-9.89472
▁ప్రయత్నం	-9.89505
▁ఊరి	-9.8952
▁ఈనాడు	-9.89548
▁అంగీకరించ	-9.89569
ధ్	-9.89596
▁నో	-9.89608
టన్	-9.89632
భి	-9.89668
ma	-9.89852
L	-9.89901
▁1950	-9.89931
▁1997	-9.90002
▁దాంతో	-9.90014
లింగ	-9.90046
ఛ	-9.90056
ేపల్లి	-9.90197
ినట్లు	-9.90252
la	-9.9034
▁బయట	-9.9043
▁కలి	-9.90439
▁ఇప్పటి	-9.90459
సన్	-9.90486
భారత	-9.90504
క్రీ	-9.90669
▁రఘు	-9.90696
▁ఎనిమిది	-9.90762
▁వెళ్ళే	-9.90774
▁బెంగుళూరు	-9.90786
▁అందరి	-9.90814
ాదేవి	-9.9082
▁స్వాధీనం	-9.90833
▁200	-9.90862
రస	-9.90869
▁వేర్	-9.90885
ాయని	-9.90904
▁పనులు	-9.90927
▁సార్లు	-9.90989
▁పండితులు	-9.90991
▁దూర	-9.91017
▁నాటు	-9.9106
సర	-9.91074
▁కొండల	-9.91094
▁ప్రత్యేకంగా	-9.91113
▁ఎక్కడ	-9.91125
వతి	-9.91225
కథ	-9.91247
దన	-9.91292
ర్స్	-9.91324
▁జరిగాయి	-9.91354
▁పేర	-9.91373
▁సంపాదకుడు	-9.9138
పైన	-9.91396
▁విధానం	-9.91402
మంత	-9.91405
▁ఉత్తరాన	-9.91407
▁ఉత్సవ	-9.91477
▁చందమామ	-9.91507
▁వివరాలు	-9.91539
▁కవుల	-9.9156
▁రై	-9.91575
▁ఇచ్చిన	-9.91629
వల్లి	-9.91671
▁నిర్వహణ	-9.91671
▁ఆలయానికి	-9.91714
▁పిల్ల	-9.91813
▁నదులు	-9.91818
పోయి	-9.91864
▁నాటకం	-9.91901
▁సంపద	-9.91936
▁బాలకృష్ణ	-9.92045
▁ఉంటే	-9.92079
▁తిక్కన	-9.92083
▁2018	-9.92096
▁ఉండాలి	-9.92101
▁విష్ణువు	-9.92107
com	-9.92147
ముఖ	-9.9216
ాభివృద్ధి	-9.92171
▁హెచ్	-9.92264
▁15:	-9.92285
▁అధికారి	-9.92382
స్య	-9.92422
▁మండలాల	-9.92432
నర్	-9.92466
థా	-9.92479
▁చెట్టు	-9.92507
▁సముద్రాల	-9.92568
▁ఎంపిక	-9.92603
▁1974	-9.92674
నామ	-9.9271
▁గవర్నర్	-9.92727
▁పిఠాపురం	-9.92727
ందర్	-9.92738
▁అయినప్పటికీ	-9.9275
▁అవుతుంది	-9.92808
▁ఎక్స్	-9.92857
▁అందించారు	-9.92875
▁సావిత్రి	-9.92883
▁భీమవరం	-9.9291
బూ	-9.92949
ుండ	-9.92981
▁అయ్య	-9.93018
▁పెట్టారు	-9.93044
▁L	-9.93063
▁తీసుకుని	-9.93088
▁రాష్ట్రానికి	-9.93121
▁శివుడు	-9.93151
జాల	-9.93188
చార	-9.93233
200	-9.93234
▁పాద	-9.93245
హిత	-9.93282
మాన్	-9.93366
▁అర్	-9.93383
▁జరగ	-9.93423
▁సూపర్	-9.93432
▁మొదలగు	-9.93439
▁చట్ట	-9.9349
▁చెబుతారు	-9.93494
లొ	-9.93564
విజయ	-9.93636
▁ట	-9.93661
▁పురాణ	-9.93733
▁సహ	-9.93792
▁సింహ	-9.93797
le	-9.93819
▁అష్ట	-9.93949
▁బ్ర	-9.93974
▁శ్రీరామ	-9.93987
▁నిర్ణయించ	-9.94027
ఓ	-9.94124
న్నాడు	-9.94164
▁జాతర	-9.94199
▁న్యాయవాది	-9.94211
▁డివిజన్	-9.94235
▁పాత్రల్లో	-9.94261
▁వేమన	-9.943
▁లోయ	-9.94315
▁అధికారిక	-9.94323
స్థాన	-9.94451
డము	-9.94607
పరచ	-9.94689
▁మధు	-9.94697
▁లె	-9.94714
▁మనకు	-9.94819
▁నిజామాబాదు	-9.9484
▁సంపాదించ	-9.9486
ున్నారు	-9.94975
▁తూర్పున	-9.95074
▁భాషల	-9.95118
▁కై	-9.952
కర్త	-9.95221
▁తగ్గ	-9.95227
నున్న	-9.95306
పరంగా	-9.9535
దె	-9.95365
ారా	-9.95368
▁1989	-9.95383
▁చెప్పాడు	-9.95397
▁బహు	-9.95411
నాలు	-9.95452
▁ప్రణాళిక	-9.95551
▁ఖర్చు	-9.95554
▁డబ్బింగ్	-9.95556
▁న్యూ	-9.95559
ార్ధ	-9.95571
▁వచ్చాయి	-9.95606
▁వేసవి	-9.9563
▁2002	-9.95643
▁కర్మ	-9.95725
▁అతడి	-9.95742
▁సహాయం	-9.95797
▁2003	-9.95815
▁కాకతీయ	-9.95829
▁వసంత	-9.95854
▁సమర్పించ	-9.95861
▁నవాబు	-9.95866
స్వామివారి	-9.95881
▁చేస	-9.95965
▁విన	-9.95982
T	-9.96009
▁పల్లి	-9.961
▁43	-9.96104
చ్చే	-9.96161
▁జూ	-9.9618
▁ఇండో	-9.962
▁వయస్సు	-9.96274
▁తరగతి	-9.96276
ియా	-9.96277
▁ప్రకటించ	-9.96351
ాంశ	-9.96373
▁కన్న	-9.9641
▁వైద్యులు	-9.96507
▁బాధ్యత	-9.96573
▁ఘనం	-9.96677
▁నాయకుల	-9.96682
▁సాధించ	-9.9674
జే	-9.96777
ాంగ	-9.96805
▁అస	-9.9691
▁ఘన	-9.96929
▁దాన్ని	-9.96945
▁సుల్తాన్	-9.96998
సాహెబ్	-9.96998
▁భువనగిరి	-9.97005
▁సొంత	-9.97021
▁...	-9.97027
▁అనీ	-9.97106
▁వ్రాయ	-9.97134
▁అంటూ	-9.97142
▁వచ్చాడు	-9.97158
▁పరిశ్రమలు	-9.97206
▁మహారాజు	-9.9721
గె	-9.97264
▁పదవిని	-9.97339
వద్ద	-9.9736
▁నదుల	-9.97421
om	-9.97452
▁సీతా	-9.97467
ముతో	-9.97476
బాల	-9.97482
▁తే	-9.97482
▁శర్మ	-9.97507
లేరు	-9.97512
▁రమణ	-9.97551
ద్ది	-9.97563
▁మతం	-9.97577
▁వంటివి	-9.97646
▁తీ	-9.97672
▁అల్	-9.97748
▁1973	-9.97753
▁ప్రకటించింది	-9.97777
ానికీ	-9.97805
▁స్థాపించారు	-9.97834
▁రాఘవ	-9.97995
▁ఉన్నది	-9.98035
భావ	-9.98059
క్ర	-9.981
▁http	-9.98303
ad	-9.98339
▁ఇందిరా	-9.98355
దాసు	-9.9837
▁150	-9.9838
▁గేయ	-9.9843
F	-9.98435
▁వసతి	-9.98464
▁అల్ల	-9.98497
▁కళాకారుడు	-9.98513
▁భద్ర	-9.98572
వాది	-9.98577
st	-9.98629
ులుగా	-9.98661
▁గజ	-9.98693
▁ఔ	-9.98704
హం	-9.98712
▁తె	-9.98712
▁ప్రాంతాల్లో	-9.9875
ంటూ	-9.9879
▁చేతి	-9.98794
గొట్ట	-9.98801
▁చెక్క	-9.9884
▁ప్రదేశాలు	-9.98861
▁దేవతల	-9.98866
▁65	-9.98978
▁వుండ	-9.99117
ంతి	-9.99129
ందో	-9.99164
▁రాజీనామా	-9.99204
▁విలీనం	-9.99204
▁బ్యాంక్	-9.99207
▁జరుగుతాయి	-9.9921
▁పనిచేసిన	-9.99213
▁ఒక్కొక్క	-9.99214
▁1946	-9.9923
▁భావిస్తారు	-9.99252
H	-9.99273
▁చక్కని	-9.99336
▁41	-9.99378
▁అర్థ	-9.99434
ుకుంటూ	-9.99472
▁1967	-9.99506
▁నేర	-9.99538
▁రావ	-9.99575
గడ్డ	-9.99588
ంటు	-9.99619
▁సత్	-9.99648
ంద్ర	-9.99689
▁గోడ	-9.99819
రియ	-9.99828
▁H	-9.9988
▁పండ	-9.99931
▁మైసూరు	-9.9995
▁వనపర్తి	-9.9995
▁దిగ	-9.99975
▁నిలిచింది	-10.0001
▁1920	-10.0002
▁పోషించారు	-10.0002
▁పత్రికా	-10.0012
ొక	-10.0012
ఱ	-10.0015
▁శతాబ్దాల	-10.0024
▁అమ్మాయి	-10.0027
▁నాయకత్వంలో	-10.0029
ur	-10.0031
ాయ్	-10.0031
▁జగ	-10.0032
▁తోట	-10.0035
▁పరమ	-10.004
▁సినిమాను	-10.0043
▁ముద్ర	-10.0047
▁w	-10.0047
▁నిర్మాణానికి	-10.005
▁దొంగ	-10.0057
▁శాస్త్రం	-10.0062
▁తీవ్ర	-10.0064
▁పుష్ప	-10.007
▁1961	-10.0073
▁12:	-10.0075
ప్పు	-10.0076
సూ	-10.0079
▁అందరూ	-10.008
▁ధర	-10.008
పూజ	-10.008
▁శివాజీ	-10.0082
on	-10.0084
ైతే	-10.0085
▁46	-10.0085
▁అందమైన	-10.0089
▁సాధించిన	-10.009
ండ్ర	-10.0091
▁22:	-10.0095
▁శతాబ్ది	-10.0097
▁చేరిన	-10.0099
▁47	-10.01
బడే	-10.0104
▁సమితి	-10.0105
▁కన్నా	-10.0108
ర్చ	-10.0114
యందు	-10.0131
▁ముద్దు	-10.014
▁దృష్టి	-10.0142
▁నిజామాబాద్	-10.0146
▁నూతన్	-10.0147
గంటి	-10.0151
▁రేటు	-10.0153
▁మచిలీపట్నం	-10.0157
▁రచించాడు	-10.0157
▁అన్నాడు	-10.0158
ేశ	-10.016
▁E	-10.0162
ఖ్	-10.017
▁జగిత్యాల	-10.0171
▁సంతోష	-10.0171
పాక	-10.0174
ుచున్నారు	-10.0175
రంగారావు	-10.0176
దారు	-10.018
ులతో	-10.0183
▁క్రింది	-10.0187
▁శ్రీశైలం	-10.0189
▁బాబా	-10.0191
▁శివుని	-10.0194
▁వంట	-10.0211
▁తదితర	-10.0214
▁1970	-10.0217
▁పరిషత్తు	-10.0228
బంధ	-10.0232
▁తెలుగుదేశం	-10.0242
▁[	-10.0242
▁ఓడించి	-10.0246
▁క్ర	-10.025
▁రూపొందిన	-10.0251
▁శేష	-10.0254
▁1954	-10.0254
▁తేదీన	-10.0255
▁ఇటీవల	-10.0263
▁టె	-10.0265
▁సుఖ	-10.0282
ation	-10.0285
▁నిత్య	-10.029
▁పరిసర	-10.0294
▁వెంట	-10.0294
▁చర్చి	-10.0295
ంచే	-10.0295
▁అందించ	-10.0296
▁జర్మనీ	-10.0299
▁తపస్సు	-10.0299
▁రద్దు	-10.0301
▁1945	-10.0302
▁కాయ	-10.0304
▁ఆదివారం	-10.0309
▁రసాయన	-10.031
▁ప్రాముఖ్యత	-10.0324
▁1962	-10.0324
ంగు	-10.0329
▁బాపు	-10.0332
ాలనే	-10.0333
వాడి	-10.0349
▁వంద	-10.035
ంచిన	-10.0352
▁అధికారం	-10.0355
ంభ	-10.0363
▁వేసి	-10.0364
▁సంబంధం	-10.0365
▁మంద	-10.0366
▁జే	-10.037
▁తీర్పు	-10.0377
▁పర్షియన్	-10.0377
▁1942	-10.038
స్తా	-10.0385
▁ఆలయాలు	-10.0387
▁సే	-10.0388
▁పుణ్య	-10.0389
–	-10.0391
▁విషయ	-10.0394
▁వ్యక్తులు	-10.04
▁39	-10.0401
▁కేసు	-10.0407
▁వృక్ష	-10.0412
▁కూర్చ	-10.0422
గారు	-10.0425
ొక్క	-10.0428
▁||	-10.043
▁స్థాయిలో	-10.0436
▁23:	-10.044
▁వర్ష	-10.0444
▁తొ	-10.0446
నాయుడు	-10.0446
▁అంతరిక్ష	-10.0448
▁పరిపాలనా	-10.0451
▁వివాహ	-10.0453
▁దగ్గరలో	-10.0454
▁సరస్వతి	-10.0455
▁ఆదాయం	-10.0458
ల్లు	-10.0466
ఫె	-10.0479
ేరు	-10.0481
▁గ్రామములో	-10.0481
ాలంటే	-10.0483
▁లీ	-10.0489
▁కృష్ణమూర్తి	-10.049
వాన్	-10.0491
▁రూపాయలతో	-10.0495
▁తీర్చ	-10.0495
▁నెలల	-10.0496
▁ప్రధాని	-10.0502
▁అక్షర	-10.0507
దల	-10.0507
పట్నం	-10.0521
▁మరణ	-10.0523
వులు	-10.0526
▁రూపొందించ	-10.0527
▁అత్యున్నత	-10.0534
▁బెంగాల్	-10.0534
▁పంతులు	-10.0534
▁సీతారామరాజు	-10.0538
▁పాలించారు	-10.0549
▁గోవింద	-10.0549
▁ఈశ్వరి	-10.0554
▁ప్రాంతము	-10.0561
నేని	-10.0562
▁24:	-10.0563
▁పెరిగి	-10.0564
వుల	-10.0571
▁ఉన్నా	-10.0573
దాస్	-10.0574
▁గణ	-10.0576
▁మిత్ర	-10.058
▁మంత్రిగా	-10.058
ర్లు	-10.0584
▁బాధ్యతలు	-10.0587
తరం	-10.059
▁కనక	-10.059
▁55	-10.0593
శివ	-10.0599
▁పాలించిన	-10.0601
▁వెళ్లి	-10.0607
▁కాం	-10.0609
ఫీ	-10.0609
తర	-10.0611
ాన్	-10.0611
ాద్రి	-10.0613
▁మాయ	-10.0614
▁2021	-10.0619
▁అర్ధం	-10.0619
=	-10.0631
▁పరమేశ్వర	-10.0631
నారాయణరెడ్డి	-10.0631
▁తమ్మ	-10.0632
▁విషయంలో	-10.0633
▁దర్శించ	-10.0636
▁సాధన	-10.0639
ాపూర్	-10.0641
▁శంకర్	-10.0642
▁సినారె	-10.0653
re	-10.0655
మహదేవన్	-10.0656
మహా	-10.0656
▁ముందుగా	-10.0672
▁నాట్య	-10.0683
తోనే	-10.0683
▁ఇచ్చే	-10.0688
ంధ	-10.0688
▁భవనం	-10.0693
▁చికిత్స	-10.0693
▁ప్రజాదరణ	-10.0693
▁బ్రిటీషు	-10.0693
▁వందల	-10.0695
▁వెళ్ల	-10.0698
▁వు	-10.0701
▁ఉద్యోగ	-10.0703
ుకుంది	-10.0704
రాజా	-10.0705
▁భా	-10.0705
▁ప్రారంభమయ్యాయ	-10.0706
▁దుకాణం	-10.0707
▁కూడ	-10.0708
యాల	-10.0713
▁హే	-10.0718
▁దైవ	-10.0719
▁రాష్ట్రంగా	-10.0724
▁అత్యధికంగా	-10.0726
▁రక్త	-10.0733
▁దాన	-10.0735
▁కాలువలు	-10.0741
us	-10.0742
▁హు	-10.0742
▁64	-10.0742
ైంది	-10.0744
కూడా	-10.0745
▁తరలి	-10.0745
సార	-10.0753
ుకోవడానికి	-10.0755
▁మారు	-10.0757
తను	-10.0765
▁అమరావతి	-10.0774
▁1977	-10.078
▁3:	-10.0781
▁ప్రచురించ	-10.0781
▁చేయబడిన	-10.0783
▁లను	-10.0785
▁పోలీస్	-10.0788
వార్	-10.0792
వలె	-10.0794
▁చాళుక్య	-10.0801
టింగ్	-10.081
▁2017	-10.0817
శ్వర	-10.0821
థ్	-10.0822
▁యంత్ర	-10.0825
▁భవన	-10.083
▁ప్రారంభం	-10.0831
▁కల్పించ	-10.0838
▁నంద	-10.0846
▁అప	-10.0848
▁మాధవ	-10.0851
చ్ఛ	-10.0854
▁కలకత్తా	-10.0855
▁మిగతా	-10.0855
▁స్థాపకుడు	-10.0857
▁రామచంద్ర	-10.086
▁సంఖ్యలో	-10.0862
గురు	-10.0864
▁లక్ష	-10.0872
▁గూగుల్	-10.0881
▁పురాణం	-10.0886
▁27:	-10.0887
▁పాలనా	-10.089
▁వేంకటేశ్వర	-10.0892
▁ఆధారాలు	-10.0893
▁జమీందారు	-10.0894
▁నిర్మాతలు	-10.0894
-20	-10.0901
▁భాగ	-10.0906
▁వదిలి	-10.0908
పురి	-10.0908
ితే	-10.0918
is	-10.0919
▁మాన	-10.092
▁సమీపంలోని	-10.0922
▁రాక	-10.0925
▁వేణు	-10.0937
▁నివేదిక	-10.0937
▁నరేంద్ర	-10.0937
▁మహిళలు	-10.0943
▁ఆస్తి	-10.0947
▁స్థాపించాడు	-10.0948
ాట	-10.0955
▁p	-10.0957
▁కొల	-10.0959
▁చిన	-10.0969
0%	-10.097
▁ఉద్యోగం	-10.0974
పాత	-10.0983
▁సమాన	-10.0983
మత	-10.0988
▁కల్	-10.0988
▁గిరి	-10.0991
▁ఈశ్వర	-10.0995
▁టా	-10.0995
సై	-10.1003
▁ఫిల్మ్	-10.1004
▁చక్ర	-10.1005
▁క్రైస్తవ	-10.1009
నియా	-10.1011
నట్లు	-10.1013
▁దాదా	-10.1019
▁ఈశాన్య	-10.102
▁ప్రస్తావన	-10.102
▁ప్రాధాన్యత	-10.102
▁నిల్వ	-10.102
▁పేద	-10.1022
▁1940	-10.1024
▁ఇతడు	-10.1024
▁చిత్రకారుడు	-10.1027
ంచు	-10.1032
▁సప్త	-10.1041
ెన	-10.1043
శర్మ	-10.1045
▁సింగ	-10.1046
▁భద్రాచలం	-10.1051
▁ఉందని	-10.1053
▁మండ	-10.1054
కళ	-10.1062
ల్ని	-10.1064
సో	-10.1077
గొండ	-10.1092
▁యోధుడు	-10.1103
▁సీనియర్	-10.1103
▁రాశాడు	-10.1103
కృత	-10.1104
▁6:	-10.1106
▁జనతా	-10.1114
లాల్	-10.1115
▁ప్రచారం	-10.1118
ికా	-10.1118
ప్పటికీ	-10.1118
▁పన్ను	-10.112
టంతో	-10.112
జన్	-10.1124
▁ప్రభ	-10.1126
▁మలయాళ	-10.1127
▁మామిడి	-10.1129
▁సేవలు	-10.1135
మంతా	-10.1136
▁రామ్	-10.1142
గత	-10.1152
▁టై	-10.1155
▁దీనిలో	-10.1158
త్తి	-10.1158
▁బండ	-10.116
వీర	-10.1166
బాయి	-10.1172
▁జీవితంలో	-10.1184
▁ఫ్రెంచి	-10.1187
▁బ్రిటీష్	-10.1187
▁సుప్రీంకోర్టు	-10.1187
▁గణపవరం	-10.1187
▁ఎన్నికయ్యాడు	-10.1187
▁సెంటర్	-10.1188
▁గాయకులు	-10.1188
▁శంకుస్థాపన	-10.1188
ంద్	-10.1199
గానూ	-10.1203
మార్	-10.1204
▁సమయం	-10.1211
దరి	-10.1213
▁జపాన్	-10.1214
▁తత్వ	-10.122
▁సర	-10.1227
▁వయసు	-10.1232
రొ	-10.1235
▁నేటి	-10.1239
▁ఒకరి	-10.1242
ుడికి	-10.1243
▁కవిత్వం	-10.1243
▁2:	-10.1247
▁ఒకప్పుడు	-10.1248
▁ఫా	-10.1249
▁పేట	-10.125
▁దేశము	-10.1251
ul	-10.1256
▁తీసుకు	-10.126
▁నవ్వ	-10.1261
ణీ	-10.1269
▁మరాఠా	-10.1272
▁వందేమాతరం	-10.1272
▁నేపథ్యగానం	-10.1272
▁బహుళ	-10.1274
▁గానీ	-10.1275
▁బిల్లు	-10.128
టై	-10.1286
▁చౌ	-10.1287
ంటాడు	-10.129
▁గ్	-10.1296
ర్య	-10.1301
గర్	-10.1305
▁ఇక్కడే	-10.1308
▁చెప్పవచ్చు	-10.133
▁కీర్తి	-10.1338
▁నరసింహారావు	-10.1342
కట్ట	-10.1346
▁ఇక్కడికి	-10.1347
▁ఆయా	-10.1348
▁బస్	-10.1349
టె	-10.135
▁బెంగాలీ	-10.1357
▁జిక్కి	-10.1357
▁ఖా	-10.1357
▁ప్రైవేట్	-10.1359
లాండ్	-10.136
దుర్గ	-10.136
▁1963	-10.1361
▁ప్లే	-10.1365
▁30:	-10.1366
హీ	-10.1369
▁1978	-10.1369
▁గౌతమ	-10.137
ఖ్య	-10.1375
▁శుద్ధ	-10.1377
▁పగ	-10.1392
▁8:	-10.1399
▁పాత్రల	-10.1402
▁అంతర్	-10.1404
▁శైలి	-10.1405
▁రామాయణం	-10.141
వైపు	-10.1417
విద్య	-10.1417
▁వైద్యుడు	-10.1422
స్టర్	-10.143
▁75	-10.1438
▁నన్నయ	-10.1442
▁లిమిటెడ్	-10.1443
▁ఆసక్తి	-10.1443
▁ముంబై	-10.1443
▁సాహితీవేత్త	-10.1444
▁నిర్వహిస్తుంది	-10.1444
▁సాయుధ	-10.1444
▁అల్లూరి	-10.1445
▁అశ్వ	-10.1445
▁R	-10.1447
▁ఉదాహరణ	-10.1452
▁1988	-10.1457
▁చేసుకున్నాడు	-10.1457
▁చౌదరి	-10.1461
▁పులి	-10.1461
▁వేదిక	-10.1468
షీ	-10.1479
▁భాగంలో	-10.148
▁అణు	-10.1493
నై	-10.1496
▁రైతు	-10.1504
కరణ	-10.1507
▁సౌ	-10.1507
▁తీయ	-10.1512
ుకుంటుంది	-10.1517
▁యువ	-10.1517
రాయి	-10.1517
▁శ్రీరంగ	-10.1518
▁ప్రయాణం	-10.1521
▁a	-10.1522
▁ఎగుమతి	-10.153
▁విద్యార్థుల	-10.1531
▁వినాయక	-10.1531
▁విమర్శకుడు	-10.1531
▁జయంతి	-10.1533
▁1976	-10.1534
▁చోళ	-10.1535
▁ఇలాంటి	-10.1536
▁దేవాలయ	-10.1546
▁7:	-10.1554
ro	-10.1554
▁నిర్మించి	-10.1557
స్థాయి	-10.1563
▁ఏర్పడ	-10.1565
ునకు	-10.1571
el	-10.1572
▁ప్రతిష్ఠించ	-10.1578
ుకుంటారు	-10.1578
▁పద్యాలు	-10.158
▁జరుప	-10.1581
ధర్మ	-10.1582
▁అన్నీ	-10.1583
▁బాగు	-10.1584
▁సుబ్రహ్మణ్య	-10.1585
▁కోడి	-10.1588
వాహ	-10.1589
▁రచించ	-10.1592
▁ప్రతిభ	-10.1599
మందు	-10.1608
▁స్టా	-10.1608
▁గ్రామాన్ని	-10.161
▁సముద్రం	-10.1616
▁రత్న	-10.1617
▁అప్పారావు	-10.1618
▁అప్పట్లో	-10.1618
▁దీవుల	-10.162
ఫా	-10.1627
▁కాలేజీ	-10.1628
▁నమ్మకం	-10.1629
▁మహాత్మా	-10.1632
▁చేపట్టిన	-10.1633
▁పరిషత్	-10.1634
▁ప్రయోగ	-10.1644
▁సాగ	-10.1646
▁9:	-10.1647
ద్దు	-10.1648
ములలో	-10.165
చర	-10.1651
ాభి	-10.1661
▁పుట్టి	-10.1661
▁చేసుకున్న	-10.1664
▁కడ	-10.1667
▁వేయ	-10.1668
▁కొట్ట	-10.167
ప్రా	-10.1672
ెదరు	-10.1674
ానని	-10.1677
▁కవితా	-10.1681
▁కప్ప	-10.1686
▁జం	-10.1693
▁విగ్రహాలు	-10.1697
▁పోరాటం	-10.1701
▁సాహిత్యంలో	-10.1703
▁ఉప్పు	-10.1709
▁దూరములో	-10.1709
▁తెచ్చ	-10.171
▁మూవీస్	-10.171
▁సంవత్సరానికి	-10.1718
▁తమ్ముడు	-10.1718
▁1995	-10.1722
▁1979	-10.1722
ాంబ	-10.1723
▁రామాయణ	-10.1723
▁4:	-10.1724
▁ఎదురు	-10.1729
▁భానుమతి	-10.1729
ుకొన్న	-10.1739
▁పురస్కారాలు	-10.1741
▁ఎప్పుడ	-10.1749
▁మార్గ	-10.175
se	-10.1753
▁మిలియన్ల	-10.1754
▁ఆనంద్	-10.1771
▁వ్యాసాలు	-10.1774
▁ఆల	-10.178
▁ఆక్రమించ	-10.1782
హార్	-10.1784
ట్లుగా	-10.1785
ృత	-10.1786
▁ఉచిత	-10.1786
▁సభలో	-10.1786
▁ఆహారం	-10.1789
▁సలహా	-10.1792
▁ప్రవేశ	-10.1794
▁డో	-10.1795
▁పాశ్చాత్య	-10.1796
▁మ్యూజియం	-10.1796
▁సూర్యాపేట	-10.1796
▁పదవీ	-10.1796
▁వాళ్ళు	-10.1804
శీల	-10.1807
▁49	-10.1807
▁ఏదో	-10.1808
▁గుండె	-10.181
భక్త	-10.181
▁వేసిన	-10.1814
తూ	-10.1816
గుణ	-10.1825
▁కలిగించ	-10.1827
▁అంతకు	-10.1831
▁నగరానికి	-10.1836
▁చేరాడు	-10.1838
యోగ	-10.1857
▁దశలో	-10.1861
▁నెలకొల్ప	-10.1862
▁అభిప్రాయం	-10.1869
ిస్తున్నారు	-10.187
▁గీతాలు	-10.1877
▁అభిమాన	-10.1878
▁8,	-10.1881
▁తెల్ల	-10.1882
▁కొమ్మ	-10.1884
▁రవీంద్ర	-10.1885
ుకుంటున్న	-10.1886
▁గుజరాత్	-10.1886
▁వారసత్వ	-10.1886
▁వాద	-10.1887
▁1958	-10.1889
▁1932	-10.1889
▁నిర్వహిస్తారు	-10.1891
పాద	-10.1892
▁గ్రంథాలయ	-10.1894
▁ప్రతీ	-10.19
▁c	-10.1901
▁నట	-10.1901
▁మణి	-10.1903
te	-10.1907
▁విధించ	-10.1908
▁ఆర	-10.191
గాని	-10.191
▁నాకు	-10.1912
▁తీసుకొని	-10.1918
▁తనను	-10.1929
కుమార్	-10.1932
▁ఫర్	-10.1935
▁రాయి	-10.1936
▁17:	-10.1943
▁ఫై	-10.1944
గీత	-10.1957
▁విమాన	-10.1963
డియా	-10.1965
▁కులీ	-10.1967
▁హెక్టార్ల	-10.1969
▁అన్నపూర్ణ	-10.1971
▁India	-10.1975
▁రెవిన్యూ	-10.1977
▁క్రితం	-10.1977
ుకుంటాడు	-10.1982
నంద	-10.1983
గ్రా	-10.1985
ులలో	-10.1988
▁బొంబాయి	-10.1991
▁తగిన	-10.1997
నల్	-10.2003
▁వీధి	-10.2005
▁లభించిన	-10.2006
▁ఎదుర	-10.2007
▁బలి	-10.2012
▁జరుగుతున్న	-10.2015
▁ప్రసాద	-10.2017
▁వెల్	-10.2017
ేష్	-10.2017
▁ఇల్లు	-10.2018
▁బ్యా	-10.2019
చరిత్ర	-10.202
శ్రీనివాస్	-10.2025
ుతాడు	-10.2026
▁14:	-10.2034
▁శతకము	-10.2041
రాణి	-10.2049
▁28:	-10.205
▁18:	-10.206
ోద్యమ	-10.2065
▁తుంగభద్ర	-10.2069
▁నేపాల్	-10.2069
▁అనువాద	-10.207
▁జైపూర్	-10.207
▁ఇద్దరూ	-10.2071
▁అంతే	-10.2072
▁కరువు	-10.2072
యింది	-10.2073
▁(18	-10.2076
శెట్టి	-10.209
యల్	-10.209
▁మరణించిన	-10.2097
జ్ఞాన	-10.2099
▁కార	-10.2109
▁వృద్ధి	-10.2112
▁20:	-10.2114
▁13:	-10.2117
di	-10.2125
▁పార్కు	-10.2131
▁క్రమ	-10.2138
▁పదవి	-10.2139
కంగా	-10.2146
ిజం	-10.2152
▁తిన	-10.2158
▁లకు	-10.216
▁కుడి	-10.216
రన్	-10.216
▁పసుపు	-10.2161
▁ఆకాశ	-10.2161
మయ్య	-10.2162
▁చలం	-10.2163
హో	-10.2166
▁విషయాల	-10.2167
▁నిద్ర	-10.2171
డంలో	-10.2172
▁తొమ్మిది	-10.2172
▁సకల	-10.2173
▁ఇచ్చారు	-10.2174
▁అందాల	-10.2182
▁కాలనీ	-10.2187
శ్య	-10.2188
▁రాజ్యాన్ని	-10.2197
▁విద్యుత్తు	-10.2203
▁ఎక్క	-10.2206
▁పూల	-10.221
మల్ల	-10.2213
▁వచ్చ	-10.2214
కున్న	-10.2223
ent	-10.2224
చేయాలని	-10.2225
డ్డ	-10.2227
▁జిల్లాలలో	-10.2228
భూమి	-10.223
నిక్	-10.224
▁సమాచారం	-10.2241
org	-10.2245
వర్ణ	-10.2246
▁కూర	-10.2249
▁ఏకైక	-10.2255
▁సాయంత్రం	-10.2255
▁by	-10.2256
▁56	-10.2257
వతేదీ	-10.2263
▁విడి	-10.2263
▁అభి	-10.2264
శ్చ	-10.2269
▁కృష్ణుడు	-10.2271
ుకొంట	-10.2274
▁ప్రెస్	-10.2278
▁బావ	-10.2279
▁అనకాపల్లి	-10.2284
▁విమర్శ	-10.2284
▁యుగం	-10.2284
ుచున్న	-10.2285
హరి	-10.2288
▁స్వర్ణ	-10.2292
పురంలో	-10.2296
పేట్	-10.2297
టిక్	-10.2298
▁భారతదేశప	-10.2305
▁శాంత	-10.2317
▁వ్యాస	-10.232
▁90	-10.232
▁కావ్య	-10.2322
▁తీసిన	-10.2323
▁రాగ	-10.2324
▁గుట్ట	-10.2328
il	-10.2341
▁ఒలింపిక్	-10.2349
▁సిరివెన్నెల	-10.2349
▁డైరెక్టర్	-10.2349
▁కామారెడ్డి	-10.2351
▁మార్పులు	-10.2351
▁అమ్మవారికి	-10.2352
▁కుమార	-10.2352
▁పాత్రికేయుడు	-10.2352
▁1931	-10.2352
▁దేవుడు	-10.2354
▁భారతరత్న	-10.2356
▁మంగళ	-10.2357
▁వెలి	-10.2358
▁సంవత్సర	-10.2361
▁సాయిబాబా	-10.2362
దాని	-10.2362
▁19:	-10.2364
▁Re	-10.2369
▁1986	-10.237
▁పాల్గొని	-10.2376
▁ఆదిల్	-10.2378
ుంటారు	-10.2386
▁పురుష	-10.2386
▁నెలలో	-10.2389
▁రాక్షస	-10.2404
▁చిక్క	-10.2404
▁మన్	-10.2407
▁లీల	-10.2409
▁కవిత	-10.241
▁అవసరమైన	-10.241
▁రైతులు	-10.2413
▁కొండపై	-10.2414
▁తొలగించ	-10.2421
▁వలె	-10.2421
▁పుర	-10.2421
▁ఏనుగుల	-10.2424
▁స్టూడియో	-10.2429
▁స్థాపించి	-10.2429
▁స్థాపించ	-10.2437
▁ప్రకటన	-10.2444
▁కాలేజి	-10.2444
▁తాడేపల్లిగూడెం	-10.2444
▁తప్పు	-10.2448
▁కాకతీయుల	-10.2448
▁శ్రీకృష్ణ	-10.2451
FS	-10.2457
నైనా	-10.2458
▁వచ్చారు	-10.2465
▁నెట్	-10.2466
▁21:	-10.2466
▁1987	-10.2467
▁పాడారు	-10.2472
000	-10.2473
ందరూ	-10.2474
▁నియమించ	-10.2476
మాత	-10.2483
చ్చి	-10.2483
▁మెంట్	-10.2491
▁గమనించ	-10.2493
▁తెలిసిన	-10.2494
▁నౌక	-10.2501
▁సంస్థల	-10.2505
పేటలో	-10.2509
▁ప్రాంతాలను	-10.2515
web	-10.2517
▁74	-10.2518
▁500	-10.2539
▁పంజాబు	-10.254
▁సుప్రసిద్ధ	-10.254
▁సరస్వతీ	-10.254
▁పనిచేశారు	-10.2542
▁16:	-10.2543
▁గుడివాడ	-10.2546
▁పలువుర	-10.2546
▁విజయవాడలో	-10.2546
▁ఉన్నట్లు	-10.2546
▁ఉపాధ్యాయ	-10.2547
▁వేరే	-10.2548
బే	-10.2556
li	-10.2562
▁శారద	-10.2563
▁1981	-10.2564
▁భావన	-10.2565
▁కారు	-10.2572
▁జ్యోతి	-10.2574
▁యాత్ర	-10.2574
▁దీక్ష	-10.2575
▁పురస్కారాన్ని	-10.2576
▁స్వర	-10.2579
▁మేరకు	-10.2581
ప్రతి	-10.2584
ng	-10.2584
▁*	-10.259
చ్చు	-10.2593
▁తీసి	-10.2598
▁మాల	-10.2599
▁నిర్మించబడిన	-10.2604
▁పరిశ్రమల	-10.2605
▁అధ్యక్ష	-10.2608
▁పాల్గొన	-10.2609
▁పాలించ	-10.2613
స్సు	-10.2614
▁చింత	-10.2618
▁ప్రొ	-10.2621
▁స్టేట్	-10.2622
▁మర్రి	-10.2623
▁రొ	-10.2631
▁62	-10.2632
▁షి	-10.2632
um	-10.2634
▁to	-10.2636
www	-10.2637
▁విభజన	-10.2638
▁ఆర్థికవేత్త	-10.2639
▁కొంతమంది	-10.264
▁ప్రబంధ	-10.2641
▁పరా	-10.2646
▁81	-10.2647
▁కమ్మ	-10.2648
▁దక్కన్	-10.2648
▁అయ్యింది	-10.2649
▁గోపాలకృష్ణ	-10.265
తారు	-10.2655
▁లంక	-10.2655
▁హర	-10.2658
▁రకాలు	-10.266
▁విగ్రహాన్ని	-10.2662
▁యజ్ఞ	-10.2663
గ్రామంలో	-10.2665
▁వర్మ	-10.2666
▁1938	-10.2683
వేద	-10.2683
▁నియమ	-10.2686
▁గ్రంథం	-10.2686
దేవత	-10.2702
▁సాగించ	-10.2703
్యాం	-10.2703
▁తమిళంలో	-10.2706
కుమారి	-10.2707
▁నచ్చ	-10.2708
▁నేర్చ	-10.2709
▁మహిళ	-10.271
ిస్తే	-10.2715
▁ప్రవేశపెట్ట	-10.2717
▁జంట	-10.2718
▁చెప్పారు	-10.2721
un	-10.2723
రల్	-10.2724
▁రాయల	-10.2724
▁ప్రాంతాలకు	-10.2727
రుగు	-10.2727
▁స్ప	-10.273
వలెను	-10.2732
▁నియంత్రణ	-10.2735
▁పెళ్లి	-10.2735
▁వైష్ణవ	-10.2735
▁రాశారు	-10.2736
▁పార్వతి	-10.2736
▁అధ్యక్షుడిగా	-10.2736
▁ఎటువంటి	-10.2738
▁ప్రసార	-10.2739
▁సంగమ	-10.2739
▁పత్తి	-10.274
▁అమృత	-10.274
ాని	-10.2743
▁బొబ్బిలి	-10.2745
▁చాలామంది	-10.2746
▁ముందే	-10.2746
▁లత	-10.2749
భ్య	-10.2749
▁గతంలో	-10.2751
▁11:	-10.2753
▁వాదన	-10.2753
▁O	-10.2754
▁సందర్శించ	-10.2756
▁అడ్డ	-10.2765
కూరు	-10.2771
▁సూర	-10.2772
▁ఒకటిగా	-10.2774
▁విర	-10.2781
్ర	-10.2783
▁తెలిసి	-10.2783
▁వర్గం	-10.2784
▁స్థితి	-10.2789
బ్రహ్మ	-10.2791
▁1936	-10.2793
▁వీరికి	-10.2797
▁e	-10.28
▁సంస్థానం	-10.2807
▁దేవాలయాల	-10.2809
▁తెలుసు	-10.2817
ణ్	-10.2819
▁పట్టి	-10.282
పంచ	-10.2823
▁కల్ప	-10.2826
భాగం	-10.2832
▁అత్త	-10.2832
▁ఇరానియన్	-10.2834
▁జవహర్	-10.2834
▁స్వేచ్ఛ	-10.2834
▁అటవీ	-10.2834
▁రాజ్యసభ	-10.2835
▁వెంకయ్య	-10.2838
▁పాల్	-10.2838
▁1937	-10.2841
▁నటన	-10.2844
▁భోగ	-10.2849
▁పంటలు	-10.285
▁పోతన	-10.2854
▁పేరొందిన	-10.2858
▁వెలుగు	-10.286
▁చూపించ	-10.2861
▁కనుమ	-10.2862
▁నీతి	-10.2865
ఎమ్	-10.2866
ున్నా	-10.2867
▁చెల్ల	-10.2868
▁వరుసగా	-10.2871
▁దినం	-10.2872
▁జు	-10.2874
ోప	-10.2878
▁ప్రాచుర్యం	-10.2884
▁ఆంజనేయ	-10.2886
▁9,	-10.2888
▁చోట	-10.2893
▁విజయ్	-10.2895
▁అనుభవ	-10.2895
▁అచ్చ	-10.2904
గూడ	-10.2906
▁దేశంలోని	-10.2911
స్టు	-10.2912
సార్లు	-10.2914
నాయక	-10.2919
▁రీ	-10.2922
▁ఆనాటి	-10.2924
▁డీ	-10.2924
నాగ	-10.2925
▁వేడి	-10.2926
▁కనిపిస్తాయి	-10.2934
▁ఎత్తైన	-10.2934
▁థియేటర్	-10.2934
▁విడ	-10.2935
▁కార్పొరేషన్	-10.2935
▁పరిశోధకులు	-10.2938
▁మొదలైంది	-10.2938
▁ముందుకు	-10.2941
▁స్థాపన	-10.2958
ాడట	-10.2967
▁వేళ	-10.2969
▁కలుప	-10.297
▁బోధించ	-10.2976
▁పూజా	-10.2981
▁సార	-10.2982
▁నృత్యం	-10.2982
▁పొడి	-10.2983
▁సొ	-10.2997
▁దిగువ	-10.2997
దురు	-10.2998
య్యాడు	-10.3
మంత్రి	-10.3
▁చేతుల	-10.3001
ెల	-10.3002
▁అందు	-10.3003
ఒ	-10.3005
▁వ్యాపించి	-10.3008
and	-10.3016
▁స్థాపించిన	-10.3018
ంస్	-10.302
స్స	-10.302
▁గ్రామంలోని	-10.3023
ాసన	-10.3029
లేదని	-10.303
▁ఎయిర్	-10.3035
▁సరస్సు	-10.3036
▁సమాజం	-10.3037
▁కొంతకాలం	-10.3037
▁కొత్తగూడెం	-10.3039
▁ఇచ్చింది	-10.3054
▁శిల్ప	-10.3055
▁భాషల్లో	-10.3058
ధారణ	-10.3059
▁ఎవరి	-10.3059
ినా	-10.3061
పిల్ల	-10.3063
▁ఉదయ	-10.3063
పెద్ద	-10.3067
▁బాలికల	-10.3069
▁క్ష	-10.307
తార	-10.307
▁వ్యాపారం	-10.3071
▁కింగ్	-10.3073
▁చూస	-10.3075
▁రోడ్	-10.3079
బై	-10.308
▁మందికి	-10.308
పోత	-10.3081
వడం	-10.3084
▁ప్రజలను	-10.3086
▁విని	-10.309
రచయిత	-10.3097
▁భూభాగం	-10.3099
▁సుబ్బ	-10.3099
కాని	-10.3099
▁54	-10.3101
▁గె	-10.3102
్రా	-10.3105
▁లభించ	-10.3106
▁స్ట	-10.3134
▁వర్షపాతం	-10.3137
▁శృంగార	-10.3138
▁సురేష్	-10.3138
▁అడుగు	-10.3138
▁వుంటుంది	-10.3138
▁సీతారామశాస్త్రి	-10.3139
నగరం	-10.3143
పాయ	-10.3144
hi	-10.3145
▁గూడూరు	-10.3147
ఖండ	-10.3148
▁పోటీలలో	-10.3151
▁కావలసిన	-10.3153
▁చేరుకున్న	-10.3154
▁చెప్పే	-10.3155
▁ఉండేవారు	-10.3155
▁పదాల	-10.316
▁1966	-10.3165
▁1953	-10.3167
▁డై	-10.3169
▁తను	-10.3171
▁రకం	-10.3172
లోపు	-10.3174
స్తాయి	-10.3175
పోవడం	-10.3175
▁చైనాలో	-10.3181
ter	-10.3183
బల	-10.3187
▁దూ	-10.3188
షు	-10.3189
▁తగ్గించ	-10.3199
▁ఫార్	-10.3204
▁చీ	-10.3207
ాత్మ	-10.3213
పుల	-10.3216
▁రాజవంశం	-10.3217
ఖా	-10.3218
▁రచయితలు	-10.3218
ట్రా	-10.3219
▁అవసర	-10.3223
గీ	-10.3227
ుకోవాలి	-10.3234
▁ముగుస్తుంది	-10.3241
▁హైకోర్టు	-10.3241
▁లండన్	-10.3241
▁పనిచేసాడ	-10.3241
▁శాఖామంత్రి	-10.3241
▁పార్టీకి	-10.3243
▁ఎన్టీఆర్	-10.3243
▁సూర్యనారాయణ	-10.3244
▁మాస్టర్	-10.3245
▁సైటు	-10.3246
▁విద్యావేత్త	-10.3246
గ్రామ	-10.3251
▁మహాభారత	-10.3251
పట్ల	-10.3252
▁పొంది	-10.3253
▁పదాలు	-10.3254
▁ఇంటర్నేషనల్	-10.3255
▁విషయాన్ని	-10.3263
▁సంతానం	-10.3263
లున్నాయి	-10.3265
▁చూసిన	-10.3271
సముద్ర	-10.3272
▁నిర్మల్	-10.3276
▁1000	-10.3276
▁చాళుక్యుల	-10.3282
▁ఎవరు	-10.3283
▁జీవితాన్ని	-10.3286
▁వాడి	-10.3288
నూరు	-10.3291
▁నదికి	-10.3297
▁2017,	-10.3299
ోత్సవ	-10.3299
▁విలాస	-10.3305
తిని	-10.3306
▁సహాయంతో	-10.3307
రాన్	-10.3311
▁స్థలం	-10.3312
▁అమెరికాలో	-10.3316
ఎఫ్	-10.3316
▁కర్	-10.3319
▁పిన్	-10.3326
▁డివిజన్లు	-10.3329
▁హృదయ	-10.333
ion	-10.3336
▁అలి	-10.3337
et	-10.3338
▁లక్ష్మీనరసింహ	-10.3344
▁సంస్కృతము	-10.3344
▁అభ్యర్థి	-10.3345
▁చదరపు	-10.3345
▁భగవంతుని	-10.3345
▁సాఫ్ట్	-10.3345
▁జరుపుకు	-10.3347
▁ధరించి	-10.3349
▁1921	-10.3349
▁దాస్	-10.3354
ోత్సవం	-10.3354
నార్	-10.3355
▁గిరిజన	-10.3356
▁విద్వాంసుడు	-10.3357
▁చేపట్ట	-10.3358
▁రామయ్య	-10.3362
ుతున్నాయి	-10.3363
దుల	-10.3365
▁అరుణ	-10.3366
▁పరిస్థితుల	-10.3368
▁సంఘటన	-10.3369
▁హీరో	-10.3372
ుడే	-10.3373
▁సృష్టి	-10.3375
▁తెరాస	-10.3376
▁పర్	-10.338
▁హిందువులు	-10.3381
దేశాల	-10.3386
▁కళ్యాణం	-10.3387
▁కాలము	-10.339
▁చెన్న	-10.3395
గ్న	-10.3395
▁నేర్ప	-10.3402
▁దేవుని	-10.3403
గుల	-10.3405
లెక్	-10.3405
యై	-10.3406
▁దర్	-10.3406
▁ఊరికి	-10.3406
▁తాగ	-10.3407
▁ఉపయోగ	-10.3407
▁బహ	-10.341
V	-10.3412
▁పంచాయతీకి	-10.3413
చిత	-10.3417
▁రూపాయలు	-10.3421
▁కథను	-10.3424
▁కావడం	-10.343
▁ఉండడం	-10.343
▁అటు	-10.343
▁దుర్గా	-10.3433
▁పక్క	-10.3436
▁ఏర్పరచ	-10.3438
▁శత	-10.344
యుగ	-10.344
▁వస్తున్న	-10.344
▁స్వరూప	-10.3448
▁ఆకాశవాణి	-10.345
▁చేస్తే	-10.3452
ాల్సి	-10.3453
▁సవరణ	-10.3454
జాతి	-10.3454
▁రాజీవ	-10.3459
ిష్	-10.346
▁పట్టణాలు	-10.3463
▁సౌందర్య	-10.3466
▁శోభ	-10.3468
▁వెళ్ళిన	-10.3471
▁స్వామివారికి	-10.3473
▁జగ్గయ్య	-10.3477
▁దీప	-10.3478
▁మార్చారు	-10.3479
▁చంద	-10.3482
▁గ్ర	-10.3486
▁కంటి	-10.3487
దేవుడు	-10.3492
▁ప్రవేశించ	-10.3495
ంతు	-10.3495
▁2020	-10.3496
▁వాడుక	-10.3497
▁అధ్యయనం	-10.3503
▁1968	-10.3504
▁కార్యదర్శి	-10.3509
▁పనిచేస్తున్న	-10.3513
▁మోస	-10.3513
▁పరంగా	-10.3513
▁5:	-10.3514
▁భాగము	-10.3514
▁విధ	-10.3516
▁దండయాత్ర	-10.3529
▁కమల	-10.353
▁చెందినది	-10.3532
రస్	-10.3533
డుతూ	-10.3536
దేవుని	-10.3538
▁ఖగోళ	-10.354
▁కొడ	-10.3541
▁ఆవు	-10.3541
దైన	-10.3553
▁ఏట	-10.3553
▁ట్రాక్టరు	-10.3556
▁ఫాల్కే	-10.3556
▁రకరకాల	-10.3556
▁స్క్రీన్	-10.3556
▁హింస	-10.3557
▁బాపట్ల	-10.3558
▁యుగ	-10.3559
▁సిద్ధాంత	-10.3559
▁హేతువాది	-10.356
మహ	-10.356
▁చూస్తే	-10.3563
▁1922	-10.3563
▁కృష్ణానది	-10.3567
ేలా	-10.3568
ధర్	-10.357
దారి	-10.3571
▁ఇందిర	-10.3572
▁వేత్త	-10.3574
▁ప్రతిపాదన	-10.3576
ాలయ	-10.3577
▁నేడు	-10.3584
▁ఓడ	-10.3585
▁సహకారంతో	-10.3586
ెక్ట	-10.3586
▁ఒక్కో	-10.3588
▁తూ	-10.359
▁గంట	-10.3592
▁సినిమాలలో	-10.3595
లపల్లి	-10.3599
▁ప్రకాష్	-10.3602
▁ధాన్య	-10.3603
▁కథనం	-10.3603
సుర	-10.3608
స్తున్న	-10.3614
▁భాగవత	-10.3617
▁మరల	-10.3618
▁ప్రేక్షకుల	-10.3619
తనం	-10.3619
▁హె	-10.3627
G	-10.3629
▁భాషను	-10.363
▁జరిగి	-10.3631
ద్వారా	-10.3632
▁గూడా	-10.3632
ప్రభ	-10.3641
▁పెం	-10.3651
▁దత్త	-10.3654
▁కృ	-10.3656
ంక్	-10.3658
మ్ము	-10.366
▁యస్	-10.3661
▁పార్వతీ	-10.3662
లుగు	-10.3662
▁ఇళయరాజా	-10.3664
▁పింగళి	-10.3664
▁ప్రస్తావించ	-10.3664
▁ఆర్ధిక	-10.3664
▁సెయింట్	-10.3664
▁కలుస్తుంది	-10.3665
▁కాలములో	-10.3665
▁దేవాలయాలు	-10.3665
▁పెరుగు	-10.3666
▁రాజ్యాలు	-10.3667
age	-10.3669
▁పౌర్ణమి	-10.3676
▁జారీ	-10.3682
▁మోడల్	-10.3692
▁దుర్	-10.3694
▁1984	-10.37
▁1996	-10.37
శాస్త్రం	-10.3705
పాలు	-10.3707
▁మొగ	-10.3708
▁ఉదాహరణకు	-10.3711
ారి	-10.3714
▁చేసుకో	-10.372
▁రష్యాలో	-10.3722
యత్	-10.3724
▁కాలానికి	-10.3729
▁బుక్క	-10.3733
▁లేదని	-10.3741
▁సుల్తాను	-10.3743
స్కో	-10.3749
▁చర్చ	-10.3749
▁ప్రజలలో	-10.3753
▁సూచించ	-10.3756
▁స్థల	-10.3757
▁సంయుక్త	-10.3764
▁ప్రవేశం	-10.3764
ుతోంది	-10.3765
▁చుట్టుపక్కల	-10.3773
▁సారథ్యం	-10.3773
▁సుందరరామమూర్తి	-10.3773
▁సమాచార	-10.3774
▁మురుగు	-10.3774
▁సమాధి	-10.3774
▁తెలుసుకున్న	-10.3774
▁పిలిచేవారు	-10.3775
▁1929	-10.3778
ున్నది	-10.3779
▁సరైన	-10.3779
▁కూడలి	-10.3781
త్స	-10.3783
▁దేవా	-10.3784
నగర	-10.3789
లూరి	-10.379
వరపు	-10.3791
.2016)	-10.3792
పెట్టి	-10.3793
▁హక్కుల	-10.3797
▁గ్రహ	-10.38
▁m	-10.3801
▁అంబ	-10.3802
దార్	-10.3803
▁సామంత	-10.3805
▁స్వర్గ	-10.3806
▁చెల్లించ	-10.3811
▁తీవ్రమైన	-10.3815
▁బాల్య	-10.3818
▁వాడే	-10.3819
భూ	-10.382
▁ప్రచార	-10.3824
▁గుండ	-10.3828
▁బొమ్మలు	-10.3828
▁ఏళ్ళ	-10.3829
▁కాలి	-10.3831
సుకు	-10.3836
వనం	-10.3845
పాలన	-10.3848
▁లై	-10.3849
యుగం	-10.3849
నొ	-10.3851
▁చుట్టు	-10.3854
రాదు	-10.3868
-2	-10.3868
▁రక్షించ	-10.3871
▁ప్రవహించి	-10.3872
మంచి	-10.3877
ధర	-10.3878
▁చేపట్టాడ	-10.388
▁ఆకర్షణ	-10.3882
▁ప్లా	-10.3882
▁స్మారక	-10.3883
▁హుస్సేన్	-10.3883
▁హెక్టారులు	-10.3883
▁అస్సాం	-10.3883
▁కారణమ	-10.3883
▁అన్నా	-10.3884
▁వైఎస్ఆర్	-10.3885
▁1944	-10.3887
▁మండలి	-10.3889
▁పద్ధతి	-10.3891
▁72	-10.3892
▁బ్రా	-10.3892
▁తదితరులు	-10.3894
▁ఆరవ	-10.3894
ఫర్	-10.3898
▁గోపీ	-10.3904
▁ఛా	-10.3905
సియా	-10.391
ినీ	-10.391
గిన	-10.3911
▁నిఘంటువు	-10.3913
▁పచ్చ	-10.3916
▁1993	-10.392
▁పార్	-10.392
▁గంటలకు	-10.3922
▁తక్కువగా	-10.3925
▁వార్	-10.3932
▁నిర్వహించి	-10.3932
▁కిలోమీటర్లు	-10.3935
▁వయసులో	-10.3935
▁క్రీడలు	-10.3936
▁నాగర్	-10.3936
▁రంగా	-10.3938
▁పక్షి	-10.3938
▁పండిత	-10.3945
▁రాజ్యంలో	-10.3946
▁పార	-10.3948
▁1951	-10.3949
య్యాయి	-10.3957
గ్ర	-10.3961
na	-10.3964
▁300	-10.3971
నాధ	-10.398
▁అక్కడే	-10.398
▁నిజం	-10.3981
▁దాకా	-10.3981
ంబా	-10.3985
▁తాళ	-10.3987
వచ్చి	-10.3988
▁నొ	-10.3989
భూత	-10.3992
▁సంక్రాంతి	-10.3994
▁జలపాతం	-10.3994
▁ప్రత్యేకపూజలు	-10.3994
▁శైవ	-10.3994
▁పేరిట	-10.3994
▁ప్రార్థన	-10.3994
▁జనసంఖ్య	-10.3994
▁బూ	-10.3995
▁ఆధీనంలో	-10.3996
▁గడ్డ	-10.4003
▁రాము	-10.4003
ప్రియ	-10.4003
▁ప్రాంతంలోని	-10.4004
▁శ్రీమతి	-10.4004
ేశ్	-10.4004
▁సమయానికి	-10.4006
డొ	-10.4006
▁వ్యయంతో	-10.4006
▁ఏటా	-10.401
▁చదువ	-10.401
▁దయ	-10.4011
▁63	-10.4011
▁సమయ	-10.4011
▁ప్రకటించారు	-10.4015
ఫల	-10.4017
▁ఆరంభ	-10.4022
చల	-10.4025
▁చేరింది	-10.4027
▁విభాగంలో	-10.4029
మధ్య	-10.403
▁రామదాసు	-10.403
▁వినాయకుని	-10.4034
ti	-10.4035
ాచార్య	-10.4038
దండ	-10.4045
్యము	-10.4052
▁ఆగ	-10.4053
▁ఎత్తులో	-10.4055
జల	-10.4057
లింగ్	-10.4065
▁సమాజంలో	-10.4071
షే	-10.4073
[	-10.4076
▁తాము	-10.4082
▁విధాన	-10.4086
ప్పటి	-10.4092
▁బానిస	-10.4092
▁శాసనాలు	-10.4095
త్రా	-10.4104
ిణి	-10.4105
ప్రాంత	-10.4106
▁కొబ్బరి	-10.4106
▁మహమ్మద్	-10.4106
▁సంచలన	-10.4106
▁ఫుట్	-10.4106
▁సమాఖ్య	-10.4106
▁చక్రపాణి	-10.4106
▁అప్పగించ	-10.4107
▁షేక్	-10.4108
▁చర్మ	-10.4109
▁దిగి	-10.4109
తకు	-10.411
▁1935	-10.4111
పోయాడు	-10.4114
▁మొక్క	-10.4117
▁ఎంపీ	-10.4117
బాలు	-10.4119
▁శోభన్	-10.4119
యున్న	-10.412
▁ఇచ్చాడు	-10.4121
ir	-10.4122
▁ద్వీప	-10.4125
▁ద్రవ్య	-10.4126
దగిన	-10.4126
▁పక్ష	-10.4127
▁ఒకడు	-10.4129
▁అడుగులు	-10.4131
▁లెక్క	-10.4133
▁ఉద్	-10.4134
▁శ్రీదేవి	-10.4135
▁కాశ్మీరు	-10.4135
డర్	-10.4147
▁1949	-10.4147
రణం	-10.4153
▁దర్గా	-10.4158
▁ఎదురుగా	-10.4169
లిన్	-10.4171
▁ఆధారపడి	-10.4172
▁సిద్ద	-10.4173
▁వెలసిన	-10.4178
▁ఉపగ్రహ	-10.4183
▁భూభాగ	-10.4184
ాస్	-10.4184
▁విభాగం	-10.4188
▁కోస్తా	-10.4192
▁ధార	-10.4193
▁67	-10.4198
ly	-10.4199
▁పాము	-10.4201
▁నాయ	-10.4207
▁గ్రంథము	-10.4209
▁పత్రికల	-10.4211
▁26:	-10.4212
▁ప్రధానమంత్రిగా	-10.4213
గ్రహ	-10.4216
▁అన్నారు	-10.4217
▁పంచాయితీ	-10.422
▁కలెక్టర్	-10.422
▁విజయా	-10.4224
▁పుస్తకాల	-10.4224
▁1933	-10.4224
▁సృష్టించ	-10.4225
▁శ్రీలంక	-10.4225
▁తంజావూరు	-10.4227
▁కట్టి	-10.423
▁వంగ	-10.4233
nd	-10.4235
▁అవమాన	-10.4239
లక్ష్మీ	-10.4239
▁ఫిల్మ్స్	-10.424
ల్లె	-10.4242
▁పూర్వపు	-10.4243
శ్వాస	-10.4243
సిస్	-10.4245
▁విస్తరించ	-10.4247
▁కుమారులు	-10.4254
▁సరళ	-10.4258
చక్ర	-10.4261
▁పిలవ	-10.4265
్రి	-10.4268
నింగ్	-10.427
ర్చి	-10.4271
▁పుస్తక	-10.4271
పోయే	-10.4272
వెంకట	-10.4273
▁ఎత్తున	-10.4274
▁ప్రభుత్వానికి	-10.4274
▁వీరభద్ర	-10.4282
▁తగ్గి	-10.4287
తలు	-10.4287
▁అద్భుత	-10.4287
▁బంధ	-10.4289
▁వస్తువుల	-10.4294
గిలి	-10.4295
▁విషయాలు	-10.4301
▁ప్రభువు	-10.4302
మెంట్	-10.4303
▁ఉత్తరం	-10.4304
▁ఎన్నికైన	-10.4304
త్రి	-10.4306
▁సున్న	-10.4307
వాళ్ళ	-10.4308
శేష	-10.4308
ఆంధ్ర	-10.4309
▁ట్ర	-10.431
షణ	-10.4315
ట్లే	-10.4316
▁బలహీన	-10.4316
▁స్థిర	-10.4317
▁చిత్రంగా	-10.4321
▁కేంద్రము	-10.4323
పోవ	-10.4323
స్థాపన	-10.433
▁ప్రోత్సహించ	-10.4335
ిరెడ్డి	-10.4335
▁ఐదవ	-10.4335
▁ఎందుకంటే	-10.4335
▁రాజస్థాన్	-10.4336
▁షాహీ	-10.4337
▁1908	-10.4339
ేసి	-10.4341
▁ప్రధానమైన	-10.4341
య్యా	-10.4345
▁తిరుగు	-10.4349
▁సంధి	-10.435
▁కనిపించే	-10.4351
శ్లోక	-10.4355
ప్పి	-10.4362
▁సేన	-10.4362
▁మైళ్ళు	-10.4364
▁కావ్యం	-10.4366
▁ప్రత్యేకమైన	-10.4367
▁వాతావరణ	-10.4368
▁మాటల	-10.4374
▁ఇరు	-10.4381
▁పరిపాలించ	-10.4381
హే	-10.4389
డైన	-10.4393
▁కేశవ	-10.4394
నపుడు	-10.4395
▁ధరించ	-10.4408
▁1914	-10.4409
రాని	-10.4414
▁బృంద	-10.4416
▁సంబంధాలు	-10.4423
యార్	-10.4424
▁కలుగ	-10.4429
వైద్య	-10.4429
▁భారతి	-10.443
▁నివసిస్తున్న	-10.4437
▁చదివి	-10.4438
▁అడవుల	-10.4444
యుడు	-10.4444
దర్శన	-10.4446
▁అలెగ్జాండర	-10.4451
▁టెలివిజన్	-10.4451
▁అత్తిలి	-10.4451
▁గాయత్రి	-10.4451
▁సురభి	-10.4451
▁పద్మశ్రీ	-10.4453
▁అందిస్తుంది	-10.4455
▁వ్యవస్థాపకుడు	-10.4456
▁1926	-10.4456
▁శివాలయం	-10.4456
స్తాన్	-10.446
▁రుచి	-10.4463
ెల్ల	-10.4463
▁నటించాడు	-10.4463
నగ	-10.4466
▁కోటను	-10.4466
ak	-10.4472
▁భావించ	-10.4474
▁తెలుప	-10.4475
గ్రహం	-10.448
బడ్డాడు	-10.4483
ేశ్వరస్వామివారి	-10.4489
▁బుక్	-10.449
▁తానే	-10.4496
▁నివసించ	-10.45
▁మద	-10.4506
▁భాగమై	-10.4511
మూల	-10.4513
▁కంద	-10.4516
▁పుస్తకాలు	-10.4518
తొ	-10.452
▁ముఖ్యమైనవి	-10.4521
ాలన్న	-10.4525
▁పడుతుంది	-10.4528
మోహన్	-10.4529
▁షో	-10.4531
▁నిర్ణయ	-10.4536
▁రాయ్	-10.4537
▁రథ	-10.4537
▁ఈస్ట్	-10.4539
దూ	-10.4539
▁బర్	-10.455
▁నాయకత్వం	-10.4553
కాక	-10.4556
▁వాస్తవ	-10.4557
▁తాండూరు	-10.4568
▁తిలక్	-10.4569
▁నూనె	-10.4569
▁జేమ్స్	-10.4569
▁తీర్థ	-10.4569
▁లోకసభ	-10.4569
▁నిరూపించ	-10.4569
▁గే	-10.457
▁నేతృత్వంలో	-10.457
▁కొండలరావు	-10.4574
యిన్	-10.4575
▁విద్యను	-10.4575
▁1915	-10.4576
▁బడి	-10.4578
కుమార	-10.4581
▁విశ్వవిద్యాలయ	-10.4581
▁నుండే	-10.4581
్వా	-10.4584
▁:-	-10.4594
▁యుద్ధము	-10.4605
▁పరిగణించ	-10.4605
▁వాళ్ల	-10.4606
మాత్ర	-10.4606
▁ఆసుపత్రిలో	-10.4607
▁నీటిపారుదల	-10.4609
▁దాటి	-10.461
ాధికార	-10.4615
▁ఆత్మకూరు	-10.4615
▁ప్రారంభించి	-10.4616
చ్చిన	-10.4619
▁ఆలీ	-10.462
▁బాబ	-10.4621
▁దినోత్సవ	-10.4626
▁రేవు	-10.4627
లక్షణ	-10.463
పోతున్న	-10.463
▁సుల్తానుల	-10.4635
ేశ్వరస్వామి	-10.4637
▁సిరి	-10.4639
దళ	-10.4643
▁మరణించ	-10.4644
త్రం	-10.4648
▁అచ్యుత	-10.4652
▁వాగు	-10.4655
కూడ	-10.4656
▁రోగ	-10.4657
▁వస్త్ర	-10.4657
▁వర్ణించ	-10.4661
▁వర్	-10.4661
▁వేగ	-10.4663
ేశ్వరి	-10.4667
▁వుండే	-10.4667
▁78	-10.4676
చర్ల	-10.4679
▁అంశం	-10.4681
▁శనివారం	-10.4687
▁ఐరోపా	-10.4688
▁సంస్కర్త	-10.4688
▁వంతెన	-10.4688
▁కూర్పు	-10.4688
స్థానం	-10.4688
యిడ్స్	-10.4689
▁క్రీస్తు	-10.469
▁పరిశోధకుడు	-10.4693
▁పశ్చిమాన	-10.4694
▁కథల	-10.4695
▁గ్రహించి	-10.4699
▁ఐతే	-10.4701
▁చెంది	-10.4701
పోయాయి	-10.4702
▁ఏర్పడి	-10.4702
▁కుటుంబంలో	-10.4704
▁బసవ	-10.4704
▁ప్రతిపాదించ	-10.4704
▁తీవ్రంగా	-10.4705
▁పవర్	-10.4706
▁స్టేట్స్	-10.4706
▁తోడు	-10.4707
▁అరెస్టు	-10.4707
ac	-10.4708
▁కళాశాలలో	-10.4708
▁దేవాలయము	-10.4711
▁69	-10.4711
ల్డ్	-10.4713
▁సంభాషణలు	-10.4716
▁లక్షణాలు	-10.4716
▁బస	-10.4717
▁తెగ	-10.472
▁గెల	-10.4722
▁సారి	-10.4726
▁కావడంతో	-10.4731
లమ్మ	-10.4737
కొత్త	-10.4741
▁పండు	-10.4746
లాంటి	-10.4756
ాల్సిన	-10.4757
▁జిల్లాను	-10.4767
▁మల్లె	-10.477
▁ఇందు	-10.4782
▁సదాశివ	-10.4789
ోత్	-10.4791
కార్య	-10.4792
ab	-10.4793
▁పట్టా	-10.4798
▁శతక	-10.4802
ాధికారి	-10.4803
కపోయినా	-10.4806
.2015)	-10.4808
▁ఆగ్నేయ	-10.4808
▁కూచిపూడి	-10.4808
▁బడ్జెట్	-10.4808
▁సందర్భంలో	-10.4808
▁ద్వితీయ	-10.4808
▁కొర	-10.4808
వర్మ	-10.481
సాయి	-10.481
▁బోర్డు	-10.4812
▁సన్న	-10.4812
స్టా	-10.4813
వాటి	-10.4814
▁అహ్మద్	-10.4815
▁ఏదైన	-10.4817
▁వార్డు	-10.4817
రాజ్య	-10.4819
▁చెల్లెలు	-10.4821
ుడయ్యాడు	-10.4823
▁ద్వి	-10.4826
▁విన్న	-10.4826
▁ప్రయత్నాలు	-10.4831
ుకొన్నాడు	-10.4832
▁ఉంద	-10.4834
▁యతి	-10.4845
▁శేఖర్	-10.4848
▁అడ్డు	-10.4848
టూ	-10.4856
▁లక్ష్మణ	-10.4856
వారని	-10.4858
▁లోపల	-10.4859
▁అవధాని	-10.486
మ్యా	-10.4863
▁ద్వారం	-10.4865
▁కన్	-10.4871
▁బయటకు	-10.4876
▁పాటలను	-10.4878
▁పక్కన	-10.4891
▁ఉద్యమంలో	-10.4893
▁నియోజకవర్గ	-10.4897
▁బోధన	-10.4897
▁వ్యవహరించ	-10.4903
▁ఆదర్శ	-10.4903
▁వ్యాసాల	-10.4908
▁శిలా	-10.491
ప్రధాన	-10.4912
▁దేశాలు	-10.4923
▁పారి	-10.4925
▁సంగారెడ్డి	-10.4926
▁రాష్ట్రాలు	-10.4927
▁పంజాబ్	-10.493
▁పోర్చుగీసు	-10.493
▁బంగ్లాదేశ్	-10.493
▁వీరాస్వామయ్య	-10.493
▁ఒడిషా	-10.493
▁వాయవ్య	-10.493
▁సిక్కిం	-10.493
▁ఆస్ట్రేలియా	-10.493
▁కడుపు	-10.493
▁దశాబ్దాల	-10.493
▁హోమ	-10.4932
▁అభిప్రాయ	-10.4934
▁కొలువు	-10.4935
▁అందువలన	-10.4936
▁దిక్కు	-10.4937
ెట్	-10.4939
▁ప్రారంభించింది	-10.4945
రంగంలో	-10.4949
వుతుంది	-10.4954
▁శరత్	-10.4954
మగు	-10.4954
▁ఎస్పీ	-10.4957
▁నక్షత్ర	-10.4958
కేంద్ర	-10.4959
▁కాలేదు	-10.496
▁రాజవంశ	-10.496
▁ఆదాయ	-10.4965
తల్లి	-10.4967
▁సిటీ	-10.4967
హర	-10.4969
▁వర్ణన	-10.497
.(	-10.497
▁సామ్రాజ్యంలో	-10.4974
▁సమావేశ	-10.4976
▁పోర్ట్	-10.4978
▁అధికారంలో	-10.4979
రము	-10.498
ాబ్ద	-10.4983
▁చైతన్య	-10.4983
▁అఫ్	-10.4985
సింగ్	-10.4996
▁అవధాన	-10.5
▁సినిమాల్లో	-10.5004
▁నగరాన్ని	-10.5005
▁కొండలు	-10.5013
▁మాల్	-10.5018
▁తమిళం	-10.502
▁బొమ్మల	-10.5038
▁ఆశ్రమం	-10.504
▁ప్రయోగించ	-10.5053
▁మలేరియా	-10.5053
▁వ్రాశారు	-10.5053
▁పల్నాడు	-10.5053
▁ప్రోగ్రాము	-10.5053
▁ముత్యాల	-10.5054
▁అండమాన్	-10.5054
▁తీసుకొ	-10.5054
▁వ్యక్తిగత	-10.5055
▁పోరాడ	-10.5056
▁చేతులు	-10.5057
▁జాతుల	-10.5061
▁మోక్ష	-10.5062
▁పలక	-10.5062
▁రంగం	-10.5065
▁వహించారు	-10.5066
▁ఇస్లామిక్	-10.5069
▁నిలిచి	-10.5069
▁క్రమంలో	-10.5069
▁ఆస్థాన	-10.5071
▁నిల	-10.5072
▁దంపతులకు	-10.5072
కార్	-10.5076
▁పొలాల	-10.5082
▁కురు	-10.5084
▁పోయిన	-10.5084
▁ఇచ్చ	-10.5087
▁విధి	-10.5094
▁తరహా	-10.5094
▁79	-10.5096
▁దేశపు	-10.5098
▁ఊరిలో	-10.5099
▁రాముని	-10.5108
▁68	-10.511
▁రాజ్యాంగం	-10.5119
▁పనుల	-10.512
▁ప్రారంభించ	-10.5133
▁నీవు	-10.5139
▁మేక	-10.5139
▁సోదర	-10.5146
▁మంత్ర	-10.5148
▁తీరు	-10.515
▁తిమ్మ	-10.5151
▁రాస	-10.5152
▁పార్టీలో	-10.5154
▁బావి	-10.5158
తమిళ	-10.5162
చెరువు	-10.5163
యుద్ధం	-10.5164
సీమ	-10.5168
▁సంబంధించి	-10.5172
▁గాథ	-10.5172
▁పేర్కొన	-10.5175
▁యోగి	-10.5177
▁శుక్రవారం	-10.5177
ఋ	-10.5178
▁నరసరావుపేట	-10.5178
▁మైసూర్	-10.5178
▁మంచిర్యాల	-10.5178
▁మదనపల్లె	-10.5178
▁రైల్వేస్టేషన్	-10.5178
▁విలియం	-10.5178
▁శంఖ	-10.5179
▁కర్నాటక	-10.5179
▁ఘోర	-10.5179
▁హరిహర	-10.5179
▁పనిచేసే	-10.518
-1	-10.518
▁జ్ఞానపీఠ	-10.518
▁సుజాత	-10.518
▁గోపాల్	-10.518
▁వేలాది	-10.5181
కట	-10.5184
▁ఉండును	-10.5185
కరమైన	-10.5186
▁హోదా	-10.5186
▁మొదట్లో	-10.5187
▁దాస	-10.5187
▁చెబుతాడు	-10.519
▁డివిజను	-10.5192
▁ఎడమ	-10.5193
▁మట్ట	-10.5193
▁గడి	-10.5195
▁గృహాలున్నాయి	-10.5196
▁నడి	-10.5197
▁పోయింది	-10.5199
▁వద్దకు	-10.5201
-3	-10.5202
▁సాక్షి	-10.5203
▁వెన్నెల	-10.5205
▁తొలిసారిగా	-10.5213
ందున	-10.5216
▁శక	-10.5222
టెక్	-10.5223
▁అల్లుడు	-10.5225
▁సాంప్రదాయ	-10.523
▁చేరు	-10.5234
▁పొందారు	-10.5239
▁తుని	-10.5239
▁తెచ్చి	-10.5241
పోయారు	-10.5241
ింటి	-10.5243
▁పెన్నా	-10.5243
▁బాణ	-10.5244
▁గ్రా	-10.5244
▁కలగ	-10.5248
▁పల్ల	-10.5251
సాగర్	-10.5254
▁కొన	-10.5257
క్వా	-10.5257
▁నదిలో	-10.5263
▁శరీర	-10.5267
▁మం	-10.5268
▁ఉష్ణోగ్రత	-10.5269
▁ప్రాంగణంలో	-10.5271
▁భరత	-10.5277
పాత్ర	-10.5278
▁హీ	-10.5283
కోటి	-10.5285
నంత	-10.5287
▁2016,	-10.5288
▁పున	-10.5292
కొనే	-10.5294
▁ఏడవ	-10.5296
హు	-10.5296
▁దారిలో	-10.5302
ాన్నీ	-10.5302
▁టంగుటూర	-10.5305
▁పౌరాణిక	-10.5305
▁రేలంగి	-10.5305
▁అరుదైన	-10.5305
▁వాల్మీకి	-10.5305
▁మరికొన్ని	-10.5305
▁పద్మావతి	-10.5306
▁బరువు	-10.5306
రోజుల	-10.5307
▁ఉద్యమకారుడు	-10.5307
▁వర్గ	-10.5312
పురాణ	-10.5313
▁అద్భుతమైన	-10.5313
▁స్వీకరించాడు	-10.5315
▁పార్లమెంట్	-10.5316
▁చేసుకున్నారు	-10.5327
▁మార్గము	-10.5342
▁స్టీ	-10.5344
▁చల్ల	-10.5346
▁యం	-10.5346
▁భాగవతం	-10.5354
▁అభివృద్ధికి	-10.5355
▁అవతార	-10.5356
▁తీర్మాన	-10.5359
త్రిక	-10.536
▁తరలించ	-10.5361
▁దిన	-10.5365
చారు	-10.5374
▁చాళుక్యులు	-10.5378
డతాడు	-10.5382
▁చంపి	-10.5383
కొని	-10.5384
▁వరుస	-10.5387
రాయలు	-10.5396
▁పూజించ	-10.5398
ండీ	-10.5398
రాధ	-10.5405
దశ	-10.5408
ుతుందని	-10.5408
▁ఎన్ని	-10.5411
▁పైకి	-10.5415
గంగ	-10.5419
యాత్ర	-10.5428
▁ప్రత్తి	-10.5431
▁దానం	-10.5432
▁ఆత్మహత్య	-10.5433
▁క్రొత్త	-10.5433
▁తీర్చిదిద్ద	-10.5433
▁బళ్ళారి	-10.5433
▁స్టిట్యూట్	-10.5433
▁హనుమంతరావు	-10.5433
▁ఎందరో	-10.5433
▁ఛాయాగ్రహణం	-10.5433
▁బుర్రకథ	-10.5433
ేశ్వరరావు	-10.5434
▁ఏడుగురు	-10.5435
▁మరియూ	-10.5436
▁శ్రమ	-10.5437
▁తేడా	-10.5437
▁వూరి	-10.5441
కారులు	-10.5445
de	-10.5445
▁Ra	-10.5448
▁గాంధీజీ	-10.5451
జేయ	-10.5453
▁దక్ష	-10.5456
▁71	-10.5464
▁ప్రమాణ	-10.5477
▁వస్తు	-10.5479
▁సినిమాల	-10.5481
▁దర్శనం	-10.5485
▁వర్గాల	-10.5488
▁రాజ్యము	-10.5496
టరీ	-10.5498
▁భాషగా	-10.55
▁వేషం	-10.55
▁మెడికల్	-10.55
య్యారు	-10.5501
అందరికీ	-10.5503
▁400	-10.5504
మతి	-10.5513
రాతి	-10.5514
ంబర	-10.5517
▁31:	-10.5523
రంగం	-10.5524
వేత్త	-10.5525
▁లాలి	-10.5526
వరి	-10.553
స్తుందని	-10.5532
ష్టి	-10.5534
శ్వ	-10.5543
బడ్డ	-10.5545
▁వజ్ర	-10.5546
ంబర్	-10.555
▁ఊర	-10.5559
▁సోమవారం	-10.5563
▁ఆదిలాబాదు	-10.5563
▁ఇన్స్టిట్యూట్	-10.5563
▁పురావస్తు	-10.5563
▁ఫ్రెంచ్	-10.5563
▁బ్రౌన్	-10.5563
▁వ్రాశాడు	-10.5563
▁స్పీకర్	-10.5563
▁సూచన	-10.5563
▁లక్ష్మణరావు	-10.5567
▁ఉపాధి	-10.5567
▁ఉనికి	-10.5568
▁నన్ను	-10.5568
ist	-10.557
▁1911	-10.5571
▁పోషించాడు	-10.5575
▁అమ్మవారిని	-10.5577
▁కారణాల	-10.5577
▁రాశి	-10.5579
▁66	-10.5583
మనీ	-10.5586
▁సాధించాడు	-10.5586
▁సాగర	-10.5591
లాగా	-10.5591
▁లెక్కలు	-10.5592
▁చాట	-10.5593
▁పాత్రలో	-10.5597
▁కర్త	-10.5597
▁రాజ్యానికి	-10.5599
ుండు	-10.5601
చరణ	-10.5601
▁తీరంలో	-10.5602
▁స్థానాల	-10.5606
▁వచన	-10.5607
▁వాయు	-10.5608
▁బీర	-10.5608
▁శాతవాహనుల	-10.5609
▁వరాహ	-10.5609
▁పరిశోధనా	-10.561
▁లక్షలు	-10.5611
రామకృష్ణ	-10.5611
▁ప్యా	-10.5613
▁పరు	-10.5614
ుణ్ణి	-10.562
కారణ	-10.5627
▁అప్పు	-10.5627
బాటు	-10.5632
వ్యాప్తంగా	-10.5632
టూరు	-10.5633
▁మేలు	-10.5642
ట్యూ	-10.5654
▁మాస	-10.5656
▁73	-10.5658
గానం	-10.5658
▁వీలు	-10.5659
▁ఒప్ప	-10.5661
▁హీరోగా	-10.5662
మనే	-10.5664
▁చర్య	-10.5665
▁తప	-10.567
▁పోయి	-10.567
▁కష్ట	-10.5671
▁పాలకులు	-10.5675
▁నిలువ	-10.5681
సంస్కృత	-10.5687
▁తార	-10.5687
రించి	-10.569
▁చేయించ	-10.569
▁ముని	-10.5691
▁సంపాదించి	-10.5693
▁పర్యావరణ	-10.5695
▁ఆటగాడు	-10.5695
▁చేసుకుంటాడు	-10.5695
▁అమలులోకి	-10.5695
▁నిజాము	-10.5696
▁కేసీఆర్	-10.5696
▁సంస్కృతాంధ్ర	-10.5697
మార్గ	-10.5698
▁చూపు	-10.5699
-12	-10.57
▁పేర్కొన్నారు	-10.5702
▁లభించాయి	-10.5703
▁అశోక్	-10.5706
▁ఆశ్రమ	-10.5709
▁కావలి	-10.5709
▁నై	-10.5711
▁పండితుల	-10.5715
▁సభ్య	-10.5718
▁అయ్యాయి	-10.5719
▁నటులు	-10.572
▁మారిన	-10.5722
▁నేపథ్యంలో	-10.573
▁అంతస్తుల	-10.5731
ండర్	-10.5738
▁95	-10.574
▁కాదని	-10.5744
▁దేశీయ	-10.5745
భాషా	-10.5747
యుక్త	-10.5753
వాసి	-10.5753
▁ప్రతిష్ఠా	-10.5754
రత్నం	-10.5754
కల్ప	-10.5757
▁స్వీకరించి	-10.5761
ర్తి	-10.5761
▁శివలింగ	-10.5766
▁దళ	-10.5773
ఘ్	-10.5776
చ్చాడు	-10.5777
▁భాగాల	-10.5778
-7	-10.5779
రియన్	-10.5781
లియా	-10.5787
▁భావించి	-10.5787
▁చూచి	-10.5788
▁కార్మిక	-10.5791
రిగి	-10.5796
విన్	-10.5796
▁యమ	-10.5803
▁పట్నం	-10.5806
▁సంప్రదాయం	-10.5807
ధన	-10.5813
▁పుల్ల	-10.5815
లేఖ	-10.5824
▁అనుగుణంగా	-10.5828
▁ఇస్లాం	-10.5828
▁ప్రజాస్వామ్య	-10.5828
▁అవినీతి	-10.5828
▁స్వర్ణలత	-10.5828
▁ఆదోని	-10.5828
▁తత్వవేత్త	-10.5828
▁ప్రసన్న	-10.5829
▁బీహార్	-10.5829
▁నువ్వు	-10.5829
▁మంగళగిరి	-10.583
▁ఇటువంటి	-10.583
▁హౌస్	-10.5834
▁అటువంటి	-10.5834
▁వర్తక	-10.5836
▁ప్రాణాల	-10.5837
▁వహించ	-10.5842
▁మహబూబాబాద్	-10.5843
గుడి	-10.5845
క్కా	-10.5847
ఠా	-10.5849
లన్నీ	-10.5849
వారం	-10.5849
▁కాశ్మీర్	-10.5851
▁ప్రకటించాడు	-10.5852
▁వీణ	-10.5854
▁పొందాయి	-10.5859
ార్థం	-10.5861
▁చేసుకొని	-10.5866
▁రాజ్యాల	-10.5869
▁ఎన్నికలు	-10.587
▁మద్రాసులో	-10.5872
▁120	-10.5872
▁తీసుకో	-10.5877
▁పరిచయ	-10.5887
▁చేపల	-10.589
రిక్	-10.5891
సరి	-10.5892
▁గణాంకాలను	-10.5895
▁ప్రారంభమైన	-10.5898
▁కోటలో	-10.5899
▁బలరామ	-10.5902
▁ఎఫ్	-10.5912
గుంట	-10.592
▁విష	-10.5923
▁తీస	-10.5928
▁చెట్లు	-10.5932
tion	-10.5935
▁ప్రి	-10.5935
▁ఆప	-10.5936
▁దక్క	-10.594
▁విస్తీర్ణంలో	-10.5941
▁నదిపై	-10.5942
▁ధ్రువ	-10.5943
▁మామ	-10.5945
చేసిన	-10.5946
▁చెర	-10.5947
▁అనువాదం	-10.595
▁జంతువుల	-10.5955
▁రెండ	-10.5956
▁గర్భ	-10.5958
▁దానితో	-10.596
చోట	-10.5961
స్త్ర	-10.5961
కాళ	-10.5963
▁నియోజక	-10.5963
▁ధార్వాడ	-10.5963
▁రాబర్ట్	-10.5963
▁దేవులపల్లి	-10.5963
▁కాలేజ్	-10.5963
▁తరపున	-10.5963
▁బుధవారం	-10.5963
▁ఇసుక	-10.5963
▁వివరణ	-10.5963
▁దొ	-10.5963
▁విస్తరణ	-10.5964
▁సాహస	-10.5964
▁ఉంటూ	-10.5966
▁ప్రారంభించిన	-10.5968
▁తెలుగువారి	-10.5968
▁గ్రామోత్సవం	-10.5968
▁రామాలయం	-10.5969
▁1901	-10.5971
▁అందుకున్నాడు	-10.5975
▁చూడవచ్చు	-10.5975
▁కోడ	-10.5975
ుతున్నారు	-10.5976
డని	-10.5978
సులు	-10.598
▁పెరిగింది	-10.598
▁జయసుధ	-10.5982
య్యే	-10.5984
బొమ్మ	-10.5988
▁వాక్య	-10.5988
▁కనీసం	-10.5989
▁హేమ	-10.5989
బెట్టి	-10.599
▁విభాగ	-10.599
వడంతో	-10.5991
పత్రం	-10.5992
క్టర్	-10.5993
▁టెక్	-10.5995
రహిత	-10.6002
▁దగ్గరి	-10.6003
▁యీ	-10.6007
లపాడు	-10.6009
పత	-10.6011
▁చిత్త	-10.6011
-8	-10.6012
ంటాయి	-10.6012
▁తెల	-10.6015
ప్రారంభించబడింది	-10.602
స్థాన్	-10.6021
▁పదవికి	-10.6022
▁పనిచేసి	-10.6023
▁నున్న	-10.6023
▁పోరాటంలో	-10.6026
ాక్షర	-10.6034
వెల్	-10.6035
▁సముదాయం	-10.6037
-18	-10.604
▁61	-10.6043
▁స్థలాలు	-10.6048
ిస్తా	-10.6049
పల	-10.6051
▁హిందీలో	-10.6052
వాదం	-10.6057
▁మీరు	-10.6064
▁on	-10.6069
ండో	-10.6072
▁ప్రేమలో	-10.6074
▁ప్రభావ	-10.6076
▁మరీ	-10.6079
తక	-10.6084
▁మరు	-10.6098
▁కనుగొన	-10.6098
▁ప్రామాణిక	-10.61
▁ఊరేగింపు	-10.61
▁క్రియేషన్స్	-10.61
▁పరీవాహక	-10.61
▁కర్నూల్	-10.61
▁బెజవాడ	-10.61
▁లినక్స్	-10.61
▁పడమర	-10.61
▁జీర్ణ	-10.61
దనం	-10.61
▁అంట	-10.6101
▁అందువల్ల	-10.6101
▁పీపుల్	-10.6101
▁జయశంకర్	-10.6101
▁సంజీవరెడ్డి	-10.6102
▁స్వీయ	-10.6103
▁రాజకీయవేత్త	-10.6103
▁అభ్యుదయ	-10.6103
▁దేశాయ్	-10.6103
సార్	-10.6104
▁అబ్దుల్లా	-10.6106
▁1918	-10.6108
▁గోపన్న	-10.6109
▁పాలకుల	-10.611
జిల్లా	-10.611
▁గాంచిన	-10.6111
▁మందు	-10.6111
▁చిలక	-10.6111
▁పలిక	-10.6117
▁తిన్న	-10.6119
▁పరిమిత	-10.6121
▁వాటికి	-10.6121
▁భాస్కర్	-10.6126
▁1830	-10.613
మౌ	-10.613
▁అబ్దుల్	-10.6133
ప్రాంతం	-10.6134
▁దాచ	-10.6136
▁అంకితం	-10.6138
ిస్తుంటారు	-10.6139
▁సమస్యల	-10.6141
▁పాడిన	-10.6146
▁కన్ను	-10.6147
▁శాసనాల	-10.6147
▁కంప	-10.6148
▁82	-10.6149
బండి	-10.615
ేటప్పుడు	-10.6151
వాల్	-10.6153
రులు	-10.6153
▁నేత్ర	-10.6153
ెద	-10.6153
-15	-10.6154
▁దూరంగా	-10.6154
▁ప్రదేశంలో	-10.616
▁వెల	-10.616
▁తేజ	-10.6162
▁చంద్రుడు	-10.6164
▁పరిపాలించిన	-10.6166
▁1957	-10.6166
ణము	-10.6167
్యుల	-10.617
▁కలప	-10.6172
▁పిండి	-10.6172
▁వేదాంత	-10.6176
▁సంబంధ	-10.6179
▁ప్రఖ్యాతి	-10.618
త్వాన్ని	-10.6182
▁గ్రంథాలు	-10.6187
▁0.	-10.6188
▁జన్మించిన	-10.6188
▁శ్రద్ధ	-10.6191
▁స్థ	-10.6194
▁రెడ్	-10.6194
దారులు	-10.6195
▁సుబ్రహ్మణ్యం	-10.6196
రాశి	-10.6203
భూషణ	-10.6208
▁తేల	-10.6218
▁విస్తరించింది	-10.622
▁ఎండ	-10.6225
యాన్	-10.6226
.....	-10.6227
▁ఎల్ల	-10.6227
▁చిక్	-10.6229
ోద	-10.6231
స్థితి	-10.6236
▁అరేబియా	-10.6239
▁ఇబ్బందుల	-10.6239
▁ఆపరేటింగ	-10.6239
▁ఉడిపి	-10.6239
▁కదిరి	-10.6239
▁కృష్ణంరాజు	-10.6239
▁సంస్కార	-10.624
▁జరుపుతారు	-10.624
▁85	-10.624
▁తెలుస్తోంది	-10.624
▁మనస్సు	-10.6243
▁1941	-10.6245
▁త్రాగ	-10.6245
▁కుట్ర	-10.6246
▁అవతరించింది	-10.6246
▁చరిత్రకారుడు	-10.6246
▁నిలయం	-10.6246
▁1917	-10.6247
▁విడుదలైంది	-10.6247
▁గుర్తించి	-10.6247
▁చెబుత	-10.6248
▁ఉంచి	-10.6249
▁పోలీసులు	-10.6251
▁ఇంగ్లీష్	-10.6252
▁బ్రి	-10.6254
▁స్వా	-10.6259
▁పురాతనమైన	-10.626
▁శతాబ్దము	-10.6267
▁స్ఫూర్తి	-10.6268
▁పరిధిలోని	-10.6269
వాలా	-10.6274
▁అబ్బ	-10.6275
▁అప్పటికి	-10.6277
▁ప్రభాకర్	-10.6283
▁బలమైన	-10.6287
▁కుక్క	-10.6292
▁మార్గాల	-10.63
▁77	-10.6307
▁మల్	-10.6311
▁కాట	-10.6315
▁కోల్	-10.6315
▁for	-10.6328
▁f	-10.6329
ధీ	-10.6334
మునందు	-10.6338
బడ్డారు	-10.6338
▁సంస్కృతం	-10.6345
రాఘవులు	-10.6347
▁చదవ	-10.6349
▁కనుగొన్న	-10.6353
▁కదా	-10.6355
▁గురి	-10.6358
గోపాల	-10.6362
▁గ్రామాలకు	-10.6363
ేశ్వరాలయం	-10.6369
▁హైదరాబాదుకు	-10.6369
తుంది	-10.6373
▁పెన్	-10.6375
▁స్థాన	-10.6376
▁సంజీవ	-10.6376
▁పిలిచే	-10.6377
▁మౌర్య	-10.638
▁వ్యాప్తి	-10.6381
పట	-10.6381
▁వాసు	-10.6384
▁ఉపయోగిస్తారు	-10.6386
▁చూ	-10.6388
▁కత్తి	-10.6388
▁సైన్యాన్ని	-10.6393
▁మంగ	-10.6393
▁దేవతలు	-10.6394
▁రూపొందించిన	-10.6394
▁వంశం	-10.6396
▁ఎన్నికైనాడు	-10.6396
▁చెప్పబడింది	-10.6398
▁ఉన్నందున	-10.6401
▁76	-10.6402
▁కావున	-10.6405
కన్నా	-10.6406
▁సామ్రాజ్యానికి	-10.6411
▁మాన్	-10.6412
పృ	-10.6413
▁గడ	-10.6413
▁వచ్చు	-10.6417
▁పొర	-10.642
▁ఎందుకు	-10.6422
▁పువ్వు	-10.6423
▁క్రీడా	-10.6423
▁దాట	-10.6425
▁వెళ్ళాడు	-10.6427
▁ప్రపంచంలోనే	-10.6427
▁ఆలయాల	-10.6428
గ్గు	-10.6434
దనపు	-10.6437
▁పత్ర	-10.6439
▁రూపం	-10.6439
▁స్నేహితు	-10.6439
▁చిట్ట	-10.6441
ుచూ	-10.6443
▁ప్రశాంత	-10.6444
ఖో	-10.6451
మిత్ర	-10.6452
▁భూమిని	-10.6457
▁వెళ్ళు	-10.6463
▁ఉత్సవం	-10.6464
బాహు	-10.6464
▁పతాకం	-10.6465
▁హిందువుల	-10.6474
▁గవర్నరు	-10.6475
▁తల్లిదండ్రుల	-10.6475
▁శకం	-10.6476
వస్థ	-10.6479
▁ప్రముఖులు	-10.6481
▁మతాల	-10.6482
ానికే	-10.6483
భ్ర	-10.6483
క్షన్	-10.6485
▁రామాయణము	-10.6487
ోదయ	-10.649
▁చిత్రాలలో	-10.649
న్నర	-10.6492
ాయన	-10.6492
వాని	-10.6494
▁అనుభవించ	-10.6494
▁నీల	-10.6496
▁లక్షణాల	-10.6497
▁బయలుదేర	-10.6506
▁అస్	-10.6509
లాడ	-10.6511
▁లింగం	-10.6511
▁నిమ్మ	-10.6513
▁బయటి	-10.6519
▁పేరును	-10.6522
▁నిడమర్రు	-10.6523
▁యేడాది	-10.6523
▁నంబరు	-10.6523
▁వ్యాకరణ	-10.6523
|	-10.6523
▁బ్రిటన్	-10.6523
▁అధినేత	-10.6523
▁చేరుకుంది	-10.6525
▁యూనిట్	-10.6527
▁1943	-10.6528
▁1934	-10.6529
▁గోప	-10.653
▁ఆచార	-10.653
▁త్రిపుర	-10.6533
▁ఉండేవాడు	-10.6535
▁కూలి	-10.6537
▁పాలకుడు	-10.6538
▁కాలంలోనే	-10.6539
▁రచించారు	-10.6545
▁చేసేవారు	-10.6547
▁పోలీసుల	-10.655
▁తేదీనాడు	-10.6554
▁వస్తాడు	-10.6556
▁ప్రవహించే	-10.6556
▁బాట	-10.6557
▁పర్వ	-10.6557
▁అధికారికంగా	-10.6559
▁కళాకారులు	-10.6561
▁వహించి	-10.6562
చిత్రం	-10.6567
కూడదు	-10.6568
▁ప్రాస	-10.6568
▁నడుమ	-10.6568
▁ఆలేరు	-10.657
▁జయించి	-10.6571
ారో	-10.6574
▁కాస్త	-10.6574
▁మూలం	-10.6577
ించడానికి	-10.658
▁అధ	-10.6583
▁విద్యార్థులకు	-10.6585
▁నొప్పి	-10.6587
▁దగ్గరగా	-10.6588
▁పతనం	-10.6589
▁మిలియన్	-10.659
▁పెట్టిన	-10.6591
▁అడవిలో	-10.6593
▁మద్ద	-10.6594
▁విహార	-10.6595
▁స్వతంత్రం	-10.6595
▁కొప్ప	-10.6602
ినారు	-10.6602
▁క్లా	-10.6603
▁విశ్వాసం	-10.6604
బడుతున్నాయి	-10.6607
▁మెడ	-10.6612
▁వర్క్	-10.6616
మాంబ	-10.6622
▁శాస్త్రము	-10.6622
▁పతన	-10.6625
▁దెబ్బ	-10.6626
▁పెద్దది	-10.6629
▁రచయితల	-10.6632
ce	-10.6632
▁కాన్	-10.6634
▁మంట	-10.6635
▁ప్రో	-10.6636
▁ఉన్నప్పుడు	-10.6637
▁నవ్వు	-10.6638
చేశారు	-10.6643
▁మొదల	-10.6645
▁విప్లవం	-10.6651
▁రహదారిపై	-10.6653
▁ఇళ్ళ	-10.6653
▁పండించ	-10.6665
▁ఇబ్రహీం	-10.6667
▁ఋగ్వేద	-10.6668
▁చారిత్రిక	-10.6668
▁తజికిస్థాన్	-10.6668
▁తణుకు	-10.6668
▁దీర్ఘ	-10.6668
▁నివాసగృహాలు	-10.6668
▁మద్రాస్	-10.6668
▁సెంట్రల్	-10.6668
▁ఇరవై	-10.6668
▁రోజూ	-10.6668
▁బహదూర్	-10.6668
▁పొరుగు	-10.6669
▁న్యాయస్థానం	-10.6669
▁మానసిక	-10.667
▁చంద్రబాబు	-10.6671
▁నేటికీ	-10.6672
సాహిత్య	-10.6672
జాతీయ	-10.6673
▁108	-10.6673
▁విలువైన	-10.6674
సంచార	-10.6675
ెత్తి	-10.6676
▁కథానాయకుడు	-10.6676
రంగా	-10.6678
▁జాతీయస్థాయి	-10.6679
▁గూ	-10.6682
▁ఉదా	-10.6684
▁విశాఖ	-10.6685
ోర్	-10.6686
▁సిక్కు	-10.669
▁గూడ	-10.6697
▁వస్తారు	-10.6698
▁ఆరంభం	-10.6699
▁విజయవంతంగా	-10.6701
▁రాజమహేంద్రవరం	-10.6703
▁వేట	-10.6708
▁స్కా	-10.6711
▁v	-10.6711
▁సామ్రాజ్యాన్ని	-10.6711
▁ప్రశంస	-10.6712
ళు	-10.6717
▁ప్రభావితం	-10.6717
▁దీవి	-10.6718
▁ఇస్తారు	-10.6724
వారే	-10.673
▁పాత్రను	-10.6731
▁జరుగు	-10.6732
▁ఫో	-10.6732
▁చుక్క	-10.6739
▁ప్రమాద	-10.6741
▁ఏనుగు	-10.6741
▁బోధన్	-10.6742
▁పోషించ	-10.6742
లిక	-10.6746
▁కణ	-10.6748
ంచాడు	-10.6749
దేవర	-10.6749
దాన	-10.675
▁దేశంగా	-10.675
ary	-10.6751
▁మఠం	-10.6752
6%	-10.6756
▁నరస	-10.6768
వడ	-10.6771
▁ప్రసంగ	-10.6774
▁గాయ	-10.6779
తీర	-10.6786
▁వారే	-10.679
▁దృశ్య	-10.6791
▁చిట్టి	-10.6792
మిది	-10.6792
ొచ్చు	-10.6801
▁రావడం	-10.6801
▁నీవే	-10.6803
▁ప్రారంభంలో	-10.6804
▁పెళ్ళ	-10.6804
▁ముడి	-10.6805
▁కళ్ళు	-10.6806
▁రాళ్ళ	-10.6811
మ్స్	-10.6812
▁రచయితగా	-10.6813
▁కళింగ	-10.6815
▁ఆశ్చర్య	-10.6815
▁గురజాడ	-10.6815
▁విమోచన	-10.6815
▁వెడల్పు	-10.6815
▁మార్కాపురం	-10.6815
▁కార్తీక	-10.6815
▁ఆఫ్రికా	-10.6815
▁పెనుగొండ	-10.6815
▁చెందినవారు	-10.6815
▁కాశీయాత్ర	-10.6815
▁వినిపించ	-10.6815
▁యాత్రికుల	-10.6816
▁వ్యాపారవేత్త	-10.6816
▁పరిణామ	-10.6817
▁శతాబ్దపు	-10.682
▁చేసుకుంది	-10.6821
చక్రవర్తి	-10.6821
▁యందు	-10.6823
ta	-10.6824
▁ఎలాంటి	-10.6824
▁సోదరుడు	-10.6827
▁కనుగొన్నాడు	-10.6828
ve	-10.683
▁మధ్యకాలంలో	-10.683
▁కప్	-10.683
ముందు	-10.6831
పాప	-10.6833
▁ఉండదు	-10.6834
▁భగవద్గీత	-10.6835
▁గ్రంథాల	-10.6835
ాన్నే	-10.684
▁1919	-10.684
▁In	-10.6841
▁దంపతులు	-10.6841
▁వైఎస్	-10.6843
▁గొల్ల	-10.6849
▁భోజనం	-10.6852
▁కోయ	-10.6854
▁ఉపనది	-10.6855
▁తుమ్మల	-10.6866
▁నారాయణ్	-10.6867
▁కవిత్వ	-10.6867
్మయ	-10.6868
▁సీతమ్మ	-10.6869
▁సింహాసన	-10.6872
▁లక్ష్యం	-10.6872
▁శిల్పకళ	-10.6873
ార్ధం	-10.6874
సముద్రం	-10.6877
▁సముదాయ	-10.6883
▁మిల్	-10.6884
▁సైట్	-10.6886
లోకం	-10.6889
ేశాడు	-10.6893
ేస్తాడు	-10.6895
▁సంపుట	-10.6899
▁జాన	-10.6905
▁ఢిల్లీలో	-10.6909
▁మోహన	-10.6912
▁గుండు	-10.6914
▁కాంతి	-10.6914
me	-10.6915
▁ఫ్ర	-10.6917
▁2016:	-10.6921
▁జూలైలో	-10.6922
▁రేఖ	-10.6924
▁వల్లభ	-10.6926
▁మల్లికార్జున	-10.6934
మంటే	-10.6935
రాగ	-10.6938
▁వీరుడు	-10.694
▁ప్రదేశ	-10.6946
వల్	-10.6948
▁ఎదుర్కొ	-10.6951
▁సమావేశం	-10.6954
▁మెట్ట	-10.6955
▁దీనితో	-10.6955
▁కదల	-10.6956
▁l	-10.6961
థర్	-10.6962
▁1962:	-10.6963
▁ఔరంగజేబు	-10.6964
▁నికోబార్	-10.6964
▁సుప్రీం	-10.6964
▁పాల్వంచ	-10.6964
▁ఓటమి	-10.6964
▁సంపన్న	-10.6964
▁పితామహుడు	-10.6964
▁గొడవ	-10.6964
▁దినపత్రిక	-10.6964
▁తెలుసుకుని	-10.6964
▁సదస్సు	-10.6964
▁చీర	-10.6964
▁మహాసభ	-10.6967
▁రహస్య	-10.6967
▁ముఠా	-10.6967
▁వైశాఖ	-10.6968
▁టాకీ	-10.6968
▁వీరభద్రరావు	-10.6968
ాదుల	-10.6968
▁కావాలని	-10.6969
▁ఓం	-10.6972
సంస్థ	-10.6972
తెలంగాణ	-10.6973
▁రాఘవయ్య	-10.6974
ఇక్కడ	-10.6974
సింహ	-10.6976
▁హం	-10.6977
▁వారితో	-10.698
▁భువన	-10.6981
▁అక్రమ	-10.6981
▁ప్రబల	-10.6982
▁బెంగళూరు	-10.6982
▁ఆంధ్రుల	-10.6983
▁అందుకున్నారు	-10.6985
▁కాటన్	-10.6985
▁నెలలు	-10.6987
సభ	-10.6989
▁సన్	-10.699
▁దాత	-10.6991
▁నిర్మించింది	-10.6992
▁పీఠ	-10.6995
▁నిష్	-10.6996
ావతి	-10.6997
▁విధానాల	-10.6998
▁ఐన	-10.6998
▁నెల్లూరులో	-10.7002
▁చెలి	-10.7002
▁1906	-10.7004
▁చిత్రాలను	-10.7006
▁నృసింహ	-10.7007
లందు	-10.7009
▁వీధిలో	-10.7014
▁డాలర్లు	-10.7014
▁ప్రత్యక్ష	-10.7015
దనీ	-10.7015
పడిన	-10.7019
▁నారద	-10.7023
▁త్యాగ	-10.7026
▁పెట్టాడు	-10.7027
▁రహదారులు	-10.7028
ములతో	-10.7028
వ్యక్త	-10.7028
▁అవతారం	-10.703
▁పాడి	-10.7037
▁తిప్ప	-10.7037
▁బుద్ధ	-10.7039
▁పార్క్	-10.704
▁కీలక	-10.7042
▁నిర్ణయం	-10.7044
▁250	-10.7046
▁బార్	-10.7046
నాయకుని	-10.7047
▁మది	-10.7048
▁భాషకు	-10.705
▁ద్వీపం	-10.7051
▁విమానం	-10.7051
దారుల	-10.7053
▁ఆధారం	-10.7057
సంగీత	-10.7057
ాధిపతి	-10.7058
▁వేస	-10.7059
▁పల్లిలో	-10.7059
▁రాజశేఖర	-10.706
▁చోట్ల	-10.7061
▁వృ	-10.7066
▁దర్శన	-10.7071
షియా	-10.7076
మార్గం	-10.7084
కూర	-10.7087
▁అడవులు	-10.7094
పుల్లయ్య	-10.7097
▁స్ట్ర	-10.7097
▁పేజీలు	-10.7099
యాస	-10.7101
ాధి	-10.7102
ut	-10.7103
-5	-10.7103
▁పోటీలు	-10.711
▁లతో	-10.7111
▁కన్నుల	-10.7114
▁కొంచెం	-10.7115
▁చుట్టుప్రక్కల	-10.7115
▁విముక్తి	-10.7115
▁పటేల్	-10.7115
▁కలామ్	-10.7116
▁అధిపతి	-10.7116
▁84	-10.7116
▁గిడుగు	-10.7117
▁కామేశ్వరరావు	-10.7117
ెర్	-10.7118
▁దారితీసింది	-10.7118
వంశ	-10.7118
▁వెంకటేష్	-10.7118
▁ఏర్పడ్డాయి	-10.7118
▁సరిగా	-10.7119
▁ప్రతిపక్ష	-10.7119
▁సైతం	-10.7119
▁శైలిలో	-10.712
▁ప్రతీతి	-10.7123
బోయే	-10.7123
సంబంధ	-10.7124
▁జన్మించారు	-10.7124
▁సుర	-10.7125
భద్ర	-10.7128
od	-10.7129
▁బ్రహ్మోత్సవాలు	-10.7129
గర	-10.7132
▁తొక్క	-10.7132
▁శ్రీహరి	-10.7133
పార్	-10.7134
-16	-10.7137
▁శిల	-10.7139
లెట్	-10.7143
▁వృత్తులు	-10.7143
మండల	-10.7143
▁పనిచేయ	-10.7146
▁ఏమీ	-10.7147
▁పడిన	-10.7148
ెవర	-10.715
▁కల్యాణ	-10.715
▁ఇంతలో	-10.7151
▁కుండ	-10.7152
బెట్ట	-10.7161
▁తర్వాతి	-10.7164
▁బంగాళాఖాతం	-10.7166
▁దళిత	-10.7166
బల్	-10.7169
▁ప్రభు	-10.7169
▁):	-10.7172
▁అధ్యక్షులు	-10.7172
▁ఇందుకు	-10.7175
ులై	-10.7177
ాచారి	-10.7178
▁సారిగా	-10.7179
▁ప్రవేశించి	-10.7183
వంటి	-10.7185
▁మంత్రులు	-10.7187
ధ్ధ	-10.7189
▁ఆయనను	-10.7196
▁సీమ	-10.7201
▁గౌరవించ	-10.7205
▁మునుప	-10.7206
హూ	-10.7208
యినా	-10.7219
▁వ్యాఖ్యాన	-10.7221
▁రాజరాజ	-10.7221
▁చూడు	-10.7221
▁పద్ధతిలో	-10.7222
▁నగరాలలో	-10.7229
▁కళ్ళ	-10.723
▁రామలింగేశ్వర	-10.7232
చింత	-10.7232
▁లేద	-10.7235
▁మహల్	-10.7238
▁1987:	-10.7239
▁శాప	-10.7241
▁ప్రపంచం	-10.7243
▁సంభాషణ	-10.7245
▁నీలం	-10.7247
ru	-10.7251
భారతదేశం	-10.7253
▁నాటకాలు	-10.7254
శంకర	-10.7254
▁ఉపయోగించి	-10.7257
▁అక్షరం	-10.7257
▁అనుకూల	-10.7259
▁భోజన	-10.726
లేటి	-10.726
▁పూర్ణ	-10.7266
▁నిర్మల	-10.7268
క్లి	-10.7269
▁ఇంజనీరు	-10.7269
▁యూనివర్శిటీ	-10.7269
▁రోదసీ	-10.7269
▁వికారాబాదు	-10.7269
▁గ్రేడ్	-10.7269
▁ఉపఖండంలో	-10.7269
▁కుంకుమ	-10.7269
▁జంక్షన్	-10.727
▁వరల్డ్	-10.727
▁నాయకురాలు	-10.7271
▁ధర్మపురి	-10.7272
▁కారాగార	-10.7272
▁అఖిల	-10.7274
▁విరమణ	-10.7276
▁1923	-10.7277
▁శిష్యుల	-10.7279
దక్షిణ	-10.728
▁పిల్లలకు	-10.728
▁కనుల	-10.7281
▁లోతు	-10.7283
▁సమస్త	-10.7283
▁బయటపడ	-10.7285
నిచ్చి	-10.7286
▁600	-10.7287
▁చంద్రశేఖర్	-10.7288
డాన్ని	-10.7294
▁అనుబంధ	-10.7294
▁గ్రామస్థులు	-10.7295
▁చేయబడ్డాయి	-10.7296
మానం	-10.7297
▁కలిపే	-10.7298
వాణి	-10.7299
వున్న	-10.7301
▁మాతృ	-10.7304
▁చేయటం	-10.7304
▁జీవించ	-10.7309
▁ఇల్ల	-10.7314
పర్తి	-10.7317
▁పిలువబడే	-10.7318
▁కంచి	-10.7318
▁యుగంలో	-10.7319
ఉంది	-10.732
కోన	-10.732
▁పతాక	-10.7324
▁క్రీడల	-10.7324
▁విడిచి	-10.7325
పుత్ర	-10.7325
▁విక్రమ	-10.733
గ్రీ	-10.7333
▁సాగింది	-10.7338
▁పర్యాటకుల	-10.7342
కాంత్	-10.7345
▁b	-10.7345
▁అంశాల	-10.7347
ాకార	-10.7349
ానంతరం	-10.735
▁బెల్	-10.7351
▁విదేశాల	-10.7355
▁మైదాన	-10.7356
భై	-10.7361
▁చేర్చి	-10.7368
▁గుహలు	-10.7374
▁వైస్	-10.7375
▁బుద్ధి	-10.7377
ver	-10.7378
▁వ్యక్తుల	-10.738
▁వ్రాసి	-10.7387
▁నిర్జన	-10.7387
▁గార్	-10.7389
చ్చారు	-10.7389
da	-10.7391
▁రంగుల	-10.7396
▁భూపతి	-10.7396
శే	-10.7401
▁ఆరాధన	-10.7402
నప్పటికీ	-10.7403
ow	-10.7403
▁మాయా	-10.7404
▁మల	-10.7404
రూపం	-10.741
▁మఠ	-10.7411
▁రాధాకృష్ణ	-10.7413
మనోహర	-10.7417
▁అయ్యే	-10.7418
పూర్వ	-10.7419
▁దగ్గరకు	-10.742
▁ముగ్గు	-10.7421
▁బ్ల	-10.7421
▁పరిధిలోకి	-10.7424
▁ఏల	-10.7425
▁ఛందస్సు	-10.7426
▁పాలకొల్లు	-10.7426
▁ప్రాతినిధ్యం	-10.7426
▁జంధ్యాల	-10.7426
▁పోలవరం	-10.7426
▁అమాయక	-10.7426
▁జర్మన్	-10.7426
▁బీహారు	-10.7426
▁సామెత	-10.7426
▁ఆదరణ	-10.7426
▁ఆధారిత	-10.7426
▁ప్రయాణీకుల	-10.7426
▁ప్రమాదం	-10.7426
▁ఆకర్షించ	-10.7427
.2013)	-10.7427
▁సివిల్	-10.7427
▁ఆచరించ	-10.7428
▁నరసాపురం	-10.7428
▁మహిమ	-10.7429
▁ములుగు	-10.743
బొ	-10.7432
▁మార్గాలు	-10.7432
▁సంబంధిత	-10.7432
▁గట్టు	-10.7433
దృ	-10.7433
▁చేసేందుకు	-10.7434
▁1912	-10.7436
ావు	-10.7438
ట్ర	-10.7438
నందుకు	-10.7438
దేవాలయ	-10.7441
▁సరిహద్దులో	-10.7441
▁నివాసం	-10.7441
▁సంపాదకులు	-10.7444
▁గౌరవం	-10.7444
▁దెబ్బతి	-10.7446
▁చిత్రీకరణ	-10.745
▁తరచుగా	-10.745
▁శరీరంలో	-10.7453
▁నటించ	-10.7454
▁కలదు	-10.746
▁పద్ధతుల	-10.7462
తాం	-10.7464
▁పురాణాల	-10.7464
కాలము	-10.7465
ింగు	-10.7466
▁ప్రక్క	-10.7467
2014	-10.7469
▁గుర్తించారు	-10.7471
▁హనుమంతు	-10.7474
▁రచించి	-10.7475
▁చిత్రంలోని	-10.7475
▁నిర్మాణంలో	-10.7477
▁తాప	-10.7478
ములకు	-10.7479
▁నిర	-10.748
వెన్	-10.748
▁సముద్రంలో	-10.749
▁చేస్తా	-10.7493
▁లీపు	-10.7497
▁పిలువబడ	-10.7497
▁దర్శి	-10.75
▁సెం	-10.7503
▁సర్వే	-10.7505
రామ్	-10.7505
▁తీసుకున్న	-10.7505
వచ్చని	-10.7506
▁మల్లి	-10.7511
▁శాఖల	-10.7512
▁1939	-10.7514
ap	-10.7514
▁కుంట	-10.7514
▁పత్రికలో	-10.7515
▁గుహ	-10.7518
▁విషయము	-10.7519
▁వార్షికోత్సవం	-10.752
▁విశ్వాస	-10.7522
▁పెద్దపల్లి	-10.7528
▁తీరాన	-10.753
▁శాసనము	-10.7531
▁చేసుకోవ	-10.7537
వాళ్ళు	-10.7537
▁1984:	-10.7538
▁అహ	-10.7545
మిక్	-10.7546
▁ఆంధ్రా	-10.7549
▁నడిపించ	-10.7549
▁మహారాష్ట్రలో	-10.7549
బట్టి	-10.7549
▁మొదటిసారి	-10.7554
▁భౌగోళిక	-10.7555
▁పంపించ	-10.756
▁భాగ్య	-10.7563
మిన్	-10.7567
-9	-10.7579
మయ్యే	-10.758
ముద్ర	-10.7584
▁కేంద్రపాలిత	-10.7584
▁సదుపాయం	-10.7584
▁కథానాయిక	-10.7584
▁నటీమణి	-10.7584
▁ప్రొఫెసర్	-10.7584
▁హరప్పా	-10.7584
▁ఆఖరి	-10.7584
▁ఖాళీ	-10.7585
▁గూర్చి	-10.7585
▁హాస్యనటుడు	-10.7585
▁లాగ	-10.7586
▁క్లబ్	-10.7586
▁వైదిక	-10.7586
▁జార్జి	-10.7586
▁బీచ్	-10.7587
▁టాటా	-10.7587
▁రాజేశ్వరరావు	-10.7589
▁గణేశ	-10.7589
▁ఊహించ	-10.7589
▁కాళ్ళ	-10.759
▁మూడో	-10.7591
▁వెలువడిన	-10.7591
▁థ	-10.7592
ాబాదు	-10.7594
BN	-10.7595
▁అరణ్య	-10.7595
▁రామమూర్తి	-10.7595
▁పాల్గొన్నాడు	-10.7596
▁1910	-10.7596
▁జంతు	-10.7596
▁1916	-10.7596
▁1900	-10.7598
▁1909	-10.7603
▁నివసిస్తున్నారు	-10.7604
▁తెచ్చిన	-10.761
▁నిజానికి	-10.7614
▁భాగాన్ని	-10.7616
▁భాగాలు	-10.7618
▁అంబేద్కర్	-10.7618
▁చేర్చారు	-10.7619
▁చరిత్రకారులు	-10.7621
దేశము	-10.7625
▁నిర్వహించాడు	-10.7628
▁ఎదుర్కొన్న	-10.763
▁పరిధి	-10.7632
▁పసి	-10.7634
ీయులు	-10.764
▁ఎవర	-10.7642
లిక్	-10.7645
▁సంస్కరణ	-10.7647
▁లోకం	-10.7649
▁పాఠ	-10.765
▁పడవ	-10.7652
దత్త	-10.7653
▁కర్ర	-10.7653
▁చిరు	-10.766
మయ్యింది	-10.766
▁రామేశ్వర	-10.7661
▁నాగయ్య	-10.7665
▁సోదరి	-10.7669
▁షిప్	-10.767
▁గుప్త	-10.7671
▁సంస్కృతంలో	-10.7671
వొ	-10.7671
నందున	-10.7672
▁భార	-10.7673
ుచుండ	-10.7673
▁1959	-10.7674
▁పర్వము	-10.7684
▁రోజులలో	-10.7685
ాంగ్	-10.7687
కింగ్	-10.7693
చలం	-10.7694
▁దశకంలో	-10.7695
▁తవ్వ	-10.7699
▁కలశ	-10.77
రత్న	-10.7702
▁87	-10.7706
మండలం	-10.7706
▁సంసార	-10.7708
▁స్నేహ	-10.7712
▁86	-10.7714
▁ఆధిపత్యం	-10.7714
▁1986:	-10.7715
▁తీసుకుంట	-10.7715
2000	-10.7722
దార	-10.7724
▁మర్	-10.7725
▁మలయాళం	-10.7735
▁గిరిజనుల	-10.7738
▁కాన	-10.7745
▁అలవాటు	-10.7746
▁ఉపరాష్ట్రపతి	-10.7746
▁కందుకూరి	-10.7746
▁ద్రావిడ	-10.7746
▁ప్రొద్దుటూరు	-10.7746
▁యూనివర్సిటీ	-10.7746
▁జయప్రద	-10.7746
▁శాసనసభ్యుడు	-10.7746
▁స్థూల	-10.7746
▁ఆందోళన	-10.7746
▁నాగార్జునసాగర్	-10.7746
▁టన్నుల	-10.7747
▁గజపతి	-10.7748
▁వెళ్తు	-10.7749
▁హస్త	-10.7749
▁పట	-10.775
▁సిద్ధిపేట	-10.7751
ందీ	-10.7751
▁స్నేహితుడు	-10.7754
▁నుంచే	-10.7755
భిక్ష	-10.7756
▁సన్మాన	-10.7756
▁వాటర్	-10.7757
▁విగ్రహాల	-10.776
కారి	-10.7761
▁నిండి	-10.7764
▁కృష్ణశాస్త్రి	-10.7765
▁గుత్తి	-10.7765
నరసింహ	-10.7766
▁మందులు	-10.7767
మల్	-10.7767
▁సంప్రదాయాల	-10.7768
▁నిపుణులు	-10.7771
సంఘ	-10.7771
ాలపై	-10.7773
ింపబడింది	-10.7779
▁నిలిపి	-10.778
▁విశిష్ట	-10.7781
▁పాటించ	-10.7781
మంగళ	-10.7782
కరం	-10.7783
గ్రామానికి	-10.7786
చలపతిరావు	-10.7788
ya	-10.7789
గోళ	-10.7791
▁మేఘ	-10.7792
▁రాసి	-10.7794
▁జననం	-10.7795
శంకర్	-10.7796
ిల్లి	-10.7797
▁దిశలో	-10.7802
డై	-10.7803
ల్లీ	-10.7804
పాడులో	-10.7816
▁83	-10.7822
▁సరోజ	-10.7822
2011	-10.7822
▁ఆమోదించ	-10.7838
▁పరిణ	-10.7839
▁ఘనత	-10.784
▁ముద్రణ	-10.7841
▁సింహాసనం	-10.7846
మృత	-10.7849
▁కొనసాగింద	-10.785
కెక్క	-10.7853
▁మీర్	-10.7854
▁జలాశయం	-10.7855
▁రాష్ట్రాలలో	-10.7863
క్యూ	-10.7864
▁కాద	-10.7869
▁ఆన్	-10.7871
▁నియోజకవర్గంలో	-10.7872
▁పునర్	-10.7877
కొక	-10.7877
▁బండి	-10.7879
▁బోధ	-10.7879
▁ఇటు	-10.7883
.5%	-10.7885
▁అందంగా	-10.7886
ెడి	-10.7891
బాద్	-10.7894
పక్ష	-10.7894
ect	-10.7896
▁విశ్వనాథ్	-10.7899
హాన్	-10.7906
▁ఆసియాలో	-10.7907
co	-10.7908
▁అత్యుత్తమ	-10.791
▁అభ్యసించ	-10.791
▁పరశురామ	-10.791
▁ఆయకట్టు	-10.791
▁బ్లాక్	-10.791
▁రుద్రమదేవి	-10.791
▁పుట్టపర్తి	-10.791
▁గుర్రం	-10.7911
▁సార్వ	-10.7911
▁చెబుతుంది	-10.7911
▁పోలిస్తే	-10.7911
▁బియ్యం	-10.7911
▁కాంచన	-10.7911
▁గండ	-10.7912
▁వెంకట్	-10.7913
▁ముహమ్మద్	-10.7913
పరమైన	-10.7914
▁నరసింహారెడ్డి	-10.7915
▁ఎంపికైన	-10.7917
▁అంతటా	-10.7919
▁ఎవరూ	-10.792
▁నాలుగవ	-10.7921
▁నిలబెట్ట	-10.7925
▁వింత	-10.7927
▁అలాంటి	-10.7927
▁అంజయ్య	-10.7927
▁నగరాలు	-10.7931
▁యూరోపియన్	-10.7932
▁విధానాన్ని	-10.7933
ఫిబ్రవరి	-10.7934
▁పడమటి	-10.7934
ితమైన	-10.7938
కన్నడ	-10.7941
ంజి	-10.7949
▁స్టార్	-10.7949
▁నారాయణపేట	-10.7951
▁తమకు	-10.7955
▁II	-10.7958
▁చలి	-10.7958
శైలి	-10.7966
▁కొనసాగించ	-10.7967
▁సంగ్రహ	-10.7976
మెట్	-10.7991
▁కాగ	-10.7991
ెన్స్	-10.7993
▁కనపడ	-10.7995
▁విభాగాలు	-10.7999
▁ఎక్కి	-10.7999
వారీ	-10.8007
▁మందిర	-10.801
న్యాస	-10.8013
▁సౌకర్యాల	-10.8016
▁నర	-10.8021
▁101	-10.8029
▁మనుషుల	-10.8031
▁వంశీ	-10.8032
వారిని	-10.8033
▁శిర	-10.8034
▁పత్రికలు	-10.8035
▁తీవ్రవాద	-10.8038
▁మొట్టమొదట	-10.804
po	-10.8044
▁పండ్ల	-10.8044
▁ప్రేమించ	-10.8045
గోపుర	-10.8048
▁పడ్డ	-10.8048
▁క్వి	-10.8049
▁బోయ	-10.805
భారతి	-10.8052
▁తలెత్త	-10.8054
▁లోపలి	-10.8056
ుదురు	-10.8057
▁అంశాలు	-10.8061
▁అనుసరించ	-10.8062
దట	-10.8067
▁భూభాగంలో	-10.8069
ష్ణ	-10.8069
▁విభజించ	-10.807
ిస్తాయి	-10.807
▁నర్స	-10.807
▁కళల	-10.8074
నూర్	-10.8074
-6	-10.8075
▁ఆవిష్కరించ	-10.8076
▁డెల్టా	-10.8076
▁వీరబ్రహ్మేంద్ర	-10.8076
▁శీర్షిక	-10.8076
▁ఇబ్బంది	-10.8076
▁నాందేడ్	-10.8076
▁కూటమి	-10.8076
▁ఐక్యరాజ్యసమితి	-10.8076
▁బ్రహ్మాండ	-10.8076
▁కళాకారిణి	-10.8077
▁గ్రీకు	-10.8078
▁పిలిచి	-10.8078
ాలే	-10.8078
▁అనువాదకుడు	-10.8078
▁ఉదయగిరి	-10.8079
ముగ	-10.808
▁భాస్కర	-10.8082
వీటి	-10.8083
500	-10.8084
▁మంజూరు	-10.8086
కీర్	-10.8087
▁నటించింది	-10.8088
▁సమకూర్చాడు	-10.8088
▁విభజించారు	-10.809
▁మొహ	-10.8091
-10	-10.8093
▁మారుత	-10.8094
▁గోడల	-10.8094
శ్యామ	-10.8095
▁పిచ్చి	-10.8096
ోత్తర	-10.8098
▁నగరాల	-10.8101
▁సమాచారాన్ని	-10.8101
పబ్లికేషన్స్	-10.8101
▁భావించారు	-10.8102
నిర్మాణ	-10.8103
▁విచారణ	-10.8103
జూన్	-10.8104
▁మళ్ల	-10.8105
▁ఉంటుందని	-10.8106
▁అంజ	-10.8106
▁ఉంటా	-10.8107
మవుతుంది	-10.8109
్యత	-10.8112
▁పునర్నిర్మాణం	-10.8113
రాజ్యం	-10.8114
▁పాదం	-10.8114
రమణ	-10.8115
తుంటారు	-10.8117
కళా	-10.812
▁ఇంట	-10.8121
వేళ	-10.8122
ిక్	-10.8124
▁పెట్టింది	-10.8125
వోలు	-10.8127
నియన్	-10.8128
లంబ	-10.8129
▁భగవ	-10.8138
▁రోజులపాటు	-10.8138
▁రక్ష	-10.8138
▁నేనే	-10.8138
▁మృ	-10.8141
ురాలిగా	-10.8142
▁ప్రచారంలో	-10.8144
▁చేసుకొ	-10.8152
క్య	-10.8152
▁చీరాల	-10.8155
▁సెల్	-10.8155
ెత్త	-10.8158
ాల్ని	-10.8158
▁ఇంక	-10.8159
గన్	-10.8159
ుడని	-10.8159
▁కోల	-10.8161
ప్రపంచవ్యాప్తంగా	-10.8162
▁పాదాల	-10.8172
ంధ్ర	-10.8179
▁హాల్	-10.8179
▁వరలక్ష్మి	-10.8182
తద్వారా	-10.8183
▁దళాల	-10.8185
▁వరంగల్లో	-10.8187
▁కృష్ణారావు	-10.8192
▁ముక్కు	-10.8192
▁ఉద్దేశ	-10.8195
ళా	-10.8199
▁భావం	-10.8209
▁భుజ	-10.8209
▁తొలిసారి	-10.8209
▁ఉత్తర్వు	-10.821
▁తెలుపు	-10.8212
▁97	-10.8213
▁తెలియని	-10.8214
▁చెప్పడం	-10.8217
ంటున్న	-10.8222
బద్ద	-10.8222
మున్	-10.8223
▁దివా	-10.8223
దుర	-10.8226
▁పనికి	-10.8226
ఫో	-10.8239
మాసం	-10.824
▁సమగ్ర	-10.8243
▁కల్వకుంట్ల	-10.8246
▁శ్రీకాళహస్తి	-10.8246
▁భైరవ	-10.8246
▁అదనంగా	-10.8246
▁దీంతో	-10.8246
▁గెలిచి	-10.8246
▁రౌడీ	-10.8247
▁చెన్నారెడ్డి	-10.8247
ప్రాంతంలో	-10.8248
పట్ట	-10.8249
▁హసన్	-10.8252
▁నివసించే	-10.8252
▁అనురాగ	-10.8253
▁ఊహ	-10.8253
▁నీకు	-10.8254
▁సింధూ	-10.8254
▁రచనలలో	-10.8256
▁బహుముఖ	-10.8257
డెన్	-10.8261
▁విస్తృతంగా	-10.8261
అంత	-10.8262
▁అంతర	-10.8263
▁కోడూరు	-10.8263
▁వ్ర	-10.8265
▁ఏళ్ల	-10.8265
▁వస్తాయి	-10.8266
▁వాని	-10.8267
▁180	-10.8272
▁నడిచే	-10.8275
ఈశ్వరి	-10.8275
తరువాత	-10.8275
▁స్థలంలో	-10.8277
నరసింహారావు	-10.8278
▁కొంగ	-10.8279
▁మహాభారతం	-10.8279
ంటె	-10.8279
▁దె	-10.828
▁గుంటూరులోను	-10.8283
శిక్ష	-10.8288
▁నాగిరెడ్డి	-10.8291
sh	-10.8292
▁బోస్	-10.8293
ద్వార	-10.8295
▁?	-10.8295
▁మంచు	-10.8298
▁ఇద్దరి	-10.83
సీఆర్	-10.8303
▁చెరకు	-10.8305
ాపురంలో	-10.8305
▁సైన్యాల	-10.8307
లార్	-10.8325
▁విభాగాల	-10.8325
▁1939:	-10.8329
▁తప్పించ	-10.8333
▁వీటికి	-10.8336
▁విమర్శలు	-10.8337
నిధి	-10.8339
వేసి	-10.834
▁కనబడ	-10.8342
కైనా	-10.8346
▁సహస్ర	-10.835
▁ముద్ద	-10.8355
ుద్దీన్	-10.8364
▁గనుల	-10.8365
▁IS	-10.8365
▁త్ర	-10.8366
▁ఏర్ప	-10.8367
▁ఫోర్	-10.8381
కరంగా	-10.8382
▁గౌ	-10.8382
▁సైనికుల	-10.8386
▁అధికారుల	-10.8387
▁ఇష్ట	-10.8388
-13	-10.8389
▁పడకల	-10.839
త్తుల	-10.8396
▁చిత్రాలకు	-10.8398
కపోతే	-10.8399
▁తీగ	-10.8399
▁కోట్లు	-10.8403
▁భయ	-10.8415
▁నానా	-10.8417
.2017)	-10.8418
▁ఆయుర్వేద	-10.8418
▁ఇంగ్లాండు	-10.8418
▁తదుపరి	-10.8418
▁బాక్సాఫీస	-10.8418
▁అభయారణ్యం	-10.8418
.1920)	-10.8418
▁కాంతారావు	-10.8418
▁కోనసీమ	-10.8418
▁పొడవైన	-10.8418
▁భూకంపం	-10.8418
▁స్కూలు	-10.8418
▁కంభం	-10.8418
▁History	-10.8418
▁నాస్తిక	-10.8418
▁సూక్ష్మ	-10.8418
▁మరణానంతరం	-10.8419
▁స్వల్ప	-10.8419
▁వేములవాడ	-10.8419
▁సభ్యునిగా	-10.8419
▁పరికరాల	-10.842
▁పరిపాలనలో	-10.8422
నందు	-10.8423
▁మోట	-10.8426
ఆంగ్లం	-10.843
▁పొద	-10.8432
▁మిల్లు	-10.8433
కూర్	-10.8433
దాత	-10.8433
ాలంకార	-10.8437
▁అమ్మవారు	-10.8439
▁గాక	-10.8439
▁సముద్రమట్టాని	-10.844
▁జప	-10.844
▁పుణ్యక్షేత్రాలు	-10.844
ry	-10.8445
▁మంగోల	-10.8445
▁భగవంతుడు	-10.8446
-14	-10.8446
▁వార్తా	-10.8446
▁దిశగా	-10.8448
▁దేహ	-10.845
గుప్త	-10.8452
ate	-10.8453
▁ఉన్నప్పటికీ	-10.8453
సూర్య	-10.8453
నెల	-10.8456
▁అనాథ	-10.8457
సుల	-10.8458
▁శని	-10.8463
▁పశువుల	-10.8463
▁పేర్ల	-10.8463
▁చక్కగా	-10.8464
ies	-10.8465
పారిశ్రామికవేత్త	-10.8468
▁కొండపల్లి	-10.847
రియల్	-10.8475
▁జైలులో	-10.848
▁వదలి	-10.8482
▁ద్వీపాల	-10.8487
▁కలిగే	-10.8488
5,000	-10.849
▁గుమ్మ	-10.8492
పడ్డాడు	-10.8493
▁సైన్య	-10.8494
1936)	-10.8497
రాజేంద్ర	-10.8501
నదీ	-10.8502
▁యువత	-10.8511
లేదా	-10.8513
▁పప్పు	-10.8518
ుడనే	-10.8523
కుండ	-10.8524
బడుతున్న	-10.8532
▁ధ్యాన	-10.8533
▁వృత్త	-10.8534
▁అంశ	-10.8534
▁డాలర్ల	-10.8535
▁ఉమా	-10.8535
ుంటాయి	-10.8535
ine	-10.8535
▁కొట్టు	-10.8537
వంతమైన	-10.8539
లచే	-10.8541
ప్రభుత్వ	-10.8542
▁చరిత్రను	-10.8543
▁ప్రయోగం	-10.8547
▁చూశా	-10.855
▁నందు	-10.8558
▁క్రీడ	-10.856
ిగ్గా	-10.8561
▁ఏది	-10.8566
▁దండెత్తి	-10.8567
గుట్ట	-10.8568
▁చక్రం	-10.8574
సత్యనారాయణ	-10.8575
▁మాసంలో	-10.8575
సెస్	-10.8577
▁89	-10.8579
దానం	-10.8583
▁నాటకాల	-10.8586
▁మంచ	-10.8587
▁పాడే	-10.8587
మణ	-10.8591
.1928)	-10.8594
▁ఈస్టిండియా	-10.8594
▁ఫ్రాన్స్	-10.8594
▁విటమిన్	-10.8594
▁టౌన్	-10.8594
▁చీకటి	-10.8594
▁థామస్	-10.8594
▁తొలుత	-10.8594
▁పరిష్కార	-10.8594
▁కాలక్రమేణ	-10.8594
▁గమనిక	-10.8594
▁బీజాపూర్	-10.8594
▁సామర్థ్యం	-10.8594
▁సంచిక	-10.8594
▁రూపాంతరం	-10.8594
▁బొగ్గు	-10.8594
▁పూర్తయి	-10.8595
▁ఆకలి	-10.8595
▁శివరాత్రి	-10.8595
▁అనుకున్న	-10.8595
▁నిన్ను	-10.8597
▁నిర్వహించే	-10.8597
▁నిమిషాల	-10.86
▁పర్వతం	-10.86
▁వెండి	-10.8602
▁పేర్కొన్నాడు	-10.8603
▁ప్రమాణాల	-10.8604
ంట్లో	-10.8604
▁దక్షిణాది	-10.8606
▁ఫ్ల	-10.8608
▁వచ్చిందని	-10.8609
▁కాంగ్రేసు	-10.8609
▁పెంచడానికి	-10.8609
▁160	-10.8616
▁1950:	-10.8618
id	-10.8619
డతారు	-10.8619
కేంద్రం	-10.862
▁దుస్తులు	-10.8621
▁ప్రచురించాడు	-10.8622
▁ప్రదేశము	-10.8623
▁మంత్రివర్గ	-10.8624
హనుమాన్	-10.8624
▁సమస్యలు	-10.8625
▁మండపం	-10.8626
వరకూ	-10.8632
▁మత్స్య	-10.8633
▁నింద	-10.8635
▁డిగ్రీల	-10.8636
▁రామరాయలు	-10.8636
నేటి	-10.8637
▁వెయ్యి	-10.8637
▁నృత్యాలు	-10.8642
▁స్నానం	-10.8643
ణ్ణ	-10.8645
న్నట్లు	-10.8648
▁శిఖర	-10.865
▁ముస్లిములు	-10.865
▁గంగాధర	-10.8652
▁మించి	-10.8654
▁దాడుల	-10.8655
▁ఆస్తుల	-10.8655
▁దంత	-10.8657
▁యుగము	-10.8657
▁రూపు	-10.8659
▁కోటయ్య	-10.8661
▁సతీ	-10.8663
▁గరి	-10.8664
మర్రి	-10.8668
▁నియంత్రించ	-10.8673
కాదు	-10.8678
శత	-10.8682
వివేక	-10.8684
▁వాల్	-10.8684
▁చెబుతున్న	-10.8688
త్వము	-10.8691
▁లేవ	-10.8695
నటి	-10.8696
▁పెద్దలు	-10.8697
▁కొట్టి	-10.8698
▁శిల్పాలు	-10.8705
గలిగిన	-10.8707
▁ప్రక్కన	-10.8708
▁వెళ్లే	-10.8712
క్ష్య	-10.8715
భేద	-10.8715
ానికై	-10.872
భాషలో	-10.8723
▁అరబ్	-10.8724
▁వెస్ట	-10.8728
▁పుణ్యక్షేత్రం	-10.873
▁గుర్తుగా	-10.8733
ప్రసాదరావు	-10.8733
▁వేమ	-10.8735
▁శరీరం	-10.8736
తోనూ	-10.8738
▁చు	-10.8743
▁జరిపిన	-10.8743
▁శతాబ్ద	-10.8745
▁జరిపించ	-10.8745
▁పాల్గొన్న	-10.8748
▁చెల	-10.8749
▁కేంద్రాన్ని	-10.8749
▁వినియోగించ	-10.875
కాండ	-10.875
▁ఆర్థికంగా	-10.8751
▁నదిని	-10.8751
భాగంలో	-10.8752
▁వర్గాలు	-10.8753
పడింది	-10.8754
ara	-10.8754
డాన్	-10.8757
భర	-10.8757
▁ఉండవచ్చు	-10.876
▁దొరికిన	-10.8763
▁స్వీకరించ	-10.8764
▁వాణి	-10.8766
▁సాహిత్యాన్ని	-10.8769
▁సత్యసాయి	-10.8771
.2012)	-10.8772
▁ఉత్సాహ	-10.8772
▁కేటాయించ	-10.8772
▁తాత్కాలిక	-10.8772
▁నూజివీడు	-10.8772
▁పరుచూరి	-10.8772
▁సంకీర్తన	-10.8772
▁కఠిన	-10.8772
▁సయ్యద్	-10.8772
▁నెమలి	-10.8772
▁వసూలు	-10.8772
కారు	-10.8773
▁వెలుపల	-10.8773
▁నివారించ	-10.8773
▁సమావేశాల	-10.8773
▁నెలకొన్న	-10.8773
▁డీఏ	-10.8774
▁ఆడపిల్ల	-10.8774
▁ప్రేమించి	-10.8775
నీటి	-10.8775
▁వేంగి	-10.8776
రోజ	-10.8777
▁మెరుగు	-10.8777
▁అమెరికాకు	-10.8778
▁భజన	-10.8779
▁వస్తుంటారు	-10.8779
▁మహారాజా	-10.8779
▁కొల్ల	-10.878
▁1913	-10.8783
▁న్యూయార్క్	-10.8792
గ్రామం	-10.8793
900	-10.8794
▁Ma	-10.8797
▁అహో	-10.8797
▁2006:	-10.8798
▁పెర	-10.8799
▁తొండ	-10.8799
▁బెల్లం	-10.8803
ేటట్లు	-10.8803
▁భౌగోళికంగా	-10.8805
▁పరుగు	-10.8805
▁వస్తే	-10.8807
▁సాధించారు	-10.8807
http	-10.8811
గ్రంథ	-10.8811
కుటుంబ	-10.8811
▁మండలాన్ని	-10.8818
సంపద	-10.8818
ియను	-10.882
▁విశాలమైన	-10.8821
గిల్	-10.8823
▁కమల్	-10.8827
నివ్వ	-10.8828
▁తల్లిదండ్రులు	-10.8832
భూపాల	-10.8838
▁రఘునాథ	-10.884
ెట్టి	-10.8841
▁కుటుంబరావు	-10.8841
▁ఇష్టం	-10.8842
▁చిన్ని	-10.8848
▁బారి	-10.8849
వరము	-10.8849
▁బండ్	-10.8853
▁దొరక	-10.8855
▁శ్రీశైల	-10.8856
▁ఆర్య	-10.8856
విధానం	-10.8858
▁శివలింగం	-10.8863
మయ్యాయి	-10.8871
రామయ్య	-10.8872
▁చివర	-10.8879
▁వేదాల	-10.8884
▁సర్వీసు	-10.8885
▁బీజ	-10.8885
▁విశ్వనాధ	-10.8886
▁పెరిగిన	-10.8893
▁యాగ	-10.89
రామచంద్రరావు	-10.89
▁వడ	-10.8902
కట్టు	-10.8904
ంబుల	-10.8904
▁టో	-10.8906
పడే	-10.8909
▁ఇంగ్లీషులో	-10.8911
ండ్లు	-10.8911
▁విభజించి	-10.8916
▁జగపతి	-10.8925
▁రామస్వామి	-10.8927
▁బహుశా	-10.8928
▁పెరిగ	-10.8928
▁అనేవారు	-10.8931
▁పోవ	-10.8934
కుంటే	-10.8935
▁ప్రొడక్షన్	-10.8939
▁వివాదం	-10.8945
▁చేయు	-10.8945
ందరికీ	-10.8947
▁అండ	-10.8948
పడ్డారు	-10.8949
▁కార్యాలయ	-10.8949
దూరంలో	-10.8953
▁ఒంటరి	-10.8954
▁కమ్యూనిస్ట్	-10.8954
▁కొనుగోలు	-10.8954
▁ఖైదీ	-10.8954
▁చారిత్రాత్మక	-10.8954
▁మిర్యాలగూడ	-10.8954
▁మునిసిపల్	-10.8954
▁వీరేశలింగం	-10.8954
▁వైకుంఠ	-10.8954
▁హాస్పిటల్	-10.8954
▁హైస్కూల్	-10.8954
▁ఆవరణలో	-10.8954
▁కమిషన్	-10.8954
▁నామకరణం	-10.8954
▁మధ్యప్రదేశ్	-10.8954
▁శీతాకాల	-10.8954
▁సన్నిహిత	-10.8954
▁న్యాయమూర్తుల	-10.8954
▁విజేత	-10.8954
▁రీసెర్చ్	-10.8954
▁టర్కీ	-10.8954
▁తెలుస్తున్నది	-10.8954
▁ఆంగ్లేయుల	-10.8954
షె	-10.8954
▁చైర్మన్	-10.8954
▁అంతర్జాల	-10.8955
▁శుక్ర	-10.8956
▁నాటకకర్త	-10.8958
కొచ్చి	-10.8958
ౌతుంది	-10.8959
▁విడిపోయి	-10.8961
ట్టుగా	-10.8961
▁యువరాజు	-10.8961
▁మార్చబడింది	-10.8961
ment	-10.8963
ప్రదేశ	-10.8963
▁గుండమ్మ	-10.8963
▁దుష్ట	-10.8964
▁క్షేత్రయ్య	-10.8967
▁గుర్	-10.8968
▁సూత్ర	-10.8969
▁బర్మా	-10.897
▁ఇంటర్	-10.8971
▁చల్లపల్లి	-10.8972
▁అల్లరి	-10.8972
▁బాలా	-10.8975
▁ఇంకో	-10.8975
▁నాశనం	-10.8975
ుకుంటే	-10.8978
దులు	-10.8979
▁విమర్శకులు	-10.8981
▁1890	-10.8982
▁వేగంగా	-10.8985
ాభిషేకం	-10.8987
▁మొత్త	-10.8987
▁బంగారం	-10.8988
అన్న	-10.8989
ుంటాడు	-10.8992
స్వాతంత్ర్యోద్యమ	-10.8992
రాయల	-10.8992
ఊ	-10.8996
▁రాగి	-10.8998
చేసే	-10.8998
▁కూరగాయలు	-10.9001
ల్ప	-10.9002
కునిగా	-10.9006
▁విభ	-10.9007
oc	-10.9008
ot	-10.9009
▁ఫోటో	-10.9018
▁హిందూపురం	-10.9019
▁వేడుకలు	-10.9026
▁జీత	-10.9026
▁కంఠ	-10.9028
▁దేవీ	-10.9029
విశ్వ	-10.9031
▁కార్యాలయాల	-10.9037
▁వేయి	-10.9039
త్తున	-10.9048
▁తిరగ	-10.905
టమే	-10.9055
▁శక్తిని	-10.9057
డింగ్	-10.9059
▁రహ	-10.9059
▁తెలుసుకో	-10.906
▁లేకపోవడం	-10.906
▁వెన్న	-10.9063
to	-10.9071
▁అక్షరాలు	-10.9072
▁లయ	-10.9072
▁రమ్మ	-10.9076
▁భూముల	-10.9082
భావం	-10.9083
▁క్రి	-10.9085
▁మాసం	-10.9094
▁మోహ	-10.9094
పురము	-10.9103
▁దర్శక	-10.9103
▁సంగం	-10.9104
▁పుత్ర	-10.9105
▁జొన్న	-10.9108
▁భాను	-10.9109
▁సంపాదక	-10.911
▁కంది	-10.911
▁శత్రు	-10.9113
▁మిక్కిలి	-10.9114
ండగా	-10.9114
▁సమకూర్చ	-10.9115
యుత	-10.9116
▁నారాయణరెడ్డి	-10.9116
▁విఫల	-10.9124
▁రాజుగా	-10.9126
▁93	-10.9126
మిలి	-10.9128
▁కర్ణ	-10.9129
▁ఉద్యోగుల	-10.9132
▁క్షీర	-10.9139
.1924)	-10.9139
▁అంబేడ్కర్	-10.9139
▁గోధుమ	-10.9139
▁చక్కెర	-10.9139
▁డెవలప్	-10.9139
▁తిరస్కరించ	-10.9139
▁పునర్య్వస్థీకరణ	-10.9139
▁ప్రోత్సాహ	-10.9139
▁మేనమామ	-10.9139
▁సమైక్య	-10.9139
▁స్టుడియో	-10.9139
▁హర్యానా	-10.9139
▁కస్తూరి	-10.9139
▁అద్దె	-10.9139
▁బెంగాలు	-10.9139
▁సాగునీటి	-10.914
▁ప్రార్థించ	-10.914
▁గరుడ	-10.9141
▁ప్రవర్తన	-10.9141
▁వైరస్	-10.9142
▁ప్రగతి	-10.9142
▁నీడ	-10.9143
▁సుత్తి	-10.9144
▁మూసీ	-10.9146
▁ఎవరో	-10.9146
▁కష్టం	-10.9148
▁గురుకుల	-10.9148
▁శక్తివంతమైన	-10.9148
▁విద్వాంసులు	-10.9149
▁రామా	-10.915
▁సంగతి	-10.9151
▁పద్మభూషణ్	-10.9152
▁రాధాకృష్ణన్	-10.9153
▁కథానాయక	-10.9154
▁పాడు	-10.9159
▁భారతీయుల	-10.916
▁తల్లికి	-10.916
షియన్	-10.9167
▁రంగాలలో	-10.9168
ud	-10.917
▁గురై	-10.9171
▁భూత	-10.9173
▁చోటు	-10.9174
▁ఒప్పంద	-10.9174
▁భక్తుడు	-10.9179
▁కేసులో	-10.918
నిర్మాత	-10.9186
నటుడు	-10.9186
విధంగా	-10.9187
సినిమా	-10.9187
స్థల	-10.9191
ప్రకాశ్	-10.9192
రెండు	-10.9193
▁re	-10.9194
ిస్టు	-10.9194
ుకొన్నారు	-10.9196
▁వేడుక	-10.9199
చిలుక	-10.9207
▁సందేశ	-10.9209
▁విగ్రహాలను	-10.9211
▁గాన	-10.9213
▁పాఠకుల	-10.922
▁ఇవే	-10.9227
జాత	-10.9227
▁గీతా	-10.9232
▁చుట్ట	-10.9234
నట్టు	-10.9238
పడ్డ	-10.9241
రైన	-10.9244
▁రాధిక	-10.9245
▁రహదారుల	-10.9248
మండలి	-10.9251
దీప	-10.9252
ోద్యమంలో	-10.9254
రామచంద్ర	-10.9257
▁రీతి	-10.9261
తాయని	-10.9264
▁1949:	-10.9267
▁is	-10.9271
▁కనిపించి	-10.9272
▁విడుదలై	-10.9272
▁కలిసే	-10.9275
▁ఉత్పత్తుల	-10.9277
కుడిగా	-10.9278
▁(4	-10.9279
▁ఉపయోగించే	-10.9279
▁కార్యకలాపాల	-10.9283
▁92	-10.9283
▁వంటకాల	-10.9287
▁110	-10.9287
యితే	-10.929
▁ఇష్టపడ	-10.929
దాకా	-10.9296
పడ్డాయి	-10.9299
▁రమా	-10.9301
రేషన్	-10.9304
త్తా	-10.9305
పరచి	-10.9309
▁వాహన	-10.931
▁సరస	-10.9311
▁చంద్రుని	-10.9314
▁చేయుట	-10.9315
▁ప్రతీక	-10.9318
▁మనము	-10.9319
▁కళలు	-10.9324
రాయ్	-10.9325
వాహన	-10.9326
▁చెప్త	-10.9327
▁ఉభయ	-10.9328
▁కలెక్టరు	-10.9328
▁సుదీర్ఘ	-10.9328
▁అత్యవసర	-10.9328
▁అసోసియేషన్	-10.9328
▁ఆధిక్యత	-10.9328
▁ఇన్సులిన్	-10.9328
▁కిన్నెరసాని	-10.9328
▁నిజాయితీ	-10.9328
▁ప్యాసింజర్	-10.9328
▁మెజారిటీ	-10.9328
▁వ్యవసాయాధారిత	-10.9328
▁సమకాలీన	-10.9328
▁సమర్పణ	-10.9328
ార్ఖండ్	-10.9328
▁సాళువ	-10.9328
▁అర్హత	-10.9328
▁గురువారం	-10.9328
▁నివారణ	-10.9328
▁ఉగాది	-10.9328
▁దర్శకుడిగా	-10.9328
▁పనిచేస్తుంది	-10.9329
▁కైలాస	-10.9329
▁వంకాయ	-10.9329
▁రామకృష్ణారావు	-10.9329
▁ఖనిజ	-10.933
ప్పుడే	-10.933
▁సుభద్ర	-10.9331
▁మాచర్ల	-10.9334
▁మాత	-10.9334
సాని	-10.9337
▁ధర్మవరం	-10.9337
క్రి	-10.9339
లింగం	-10.9339
సంగ	-10.934
▁సృష్టించింది	-10.9341
బార్	-10.9341
▁అనేకమంది	-10.9343
బండ	-10.9344
▁మంత్రివర్గంలో	-10.9345
▁వృద్ధ	-10.9348
చర్	-10.9349
▁ప్రచుర	-10.935
▁పోతుంది	-10.9352
▁స్థాపించబడిన	-10.9352
ండీస్	-10.9354
▁ప్రాంతపు	-10.9354
▁ప్రచురించారు	-10.9362
▁తంగ	-10.9362
▁గోవు	-10.9362
▁రాజశేఖర్	-10.9365
II	-10.9367
▁దర్శించి	-10.9368
ారాధన	-10.9372
ేసాడు	-10.9373
▁వేముల	-10.9374
రిన్	-10.9377
తిరుపతి	-10.9377
▁రాజకీయాల	-10.9378
స్వరూప	-10.9379
▁ఇత	-10.938
▁ఆదేశాల	-10.9383
▁పెను	-10.9385
చింది	-10.9386
సత్య	-10.939
▁నాటకరంగ	-10.9391
మార్చి	-10.9392
ge	-10.9395
▁గుర్రాల	-10.9396
స్తున్నాయి	-10.9397
▁శతకం	-10.9404
నాటికి	-10.9404
▁99	-10.9407
▁వంశము	-10.9411
▁స్తంభాల	-10.9416
▁సదుపాయాలు	-10.9417
▁బాటు	-10.9426
▁భయంకర	-10.9426
ుండగా	-10.9427
▁ఛాయా	-10.9428
హాస	-10.9431
▁మీనా	-10.9432
▁మండప	-10.9437
▁బంగార	-10.9444
im	-10.9445
▁బలవంత	-10.9446
▁సమా	-10.9448
ence	-10.9449
▁ప్రదర్శనలు	-10.9449
▁ఎర్రన	-10.9451
▁ప్రమాదంలో	-10.9452
▁తయార	-10.9452
▁ముద్రించ	-10.9454
▁యాదవ	-10.9455
▁మూత	-10.9459
▁సంస్కృతుల	-10.946
▁అన్నయ్య	-10.946
▁నిషేధించ	-10.9462
▁పర్వతాలు	-10.9465
▁సంతతి	-10.9467
లాగే	-10.9468
య్యింది	-10.947
▁ముక్క	-10.947
▁యుద్ధాలు	-10.9471
▁లాగా	-10.9475
▁రాత్ర	-10.9476
ఖాన్	-10.9478
▁ఎప్పుడు	-10.9479
▁1981:	-10.948
చేశాడు	-10.9482
▁గ్రామాలను	-10.9483
▁వంతు	-10.9492
▁పుచ్చ	-10.9494
▁శాసనసభకు	-10.9496
రాయుడు	-10.9501
▁నక్షత్రం	-10.9508
8%	-10.951
▁మేరీ	-10.9511
▁వేప	-10.9512
▁సముద్రము	-10.9513
క్షేత్రం	-10.9514
▁ఇతనికి	-10.9514
▁ముస్లింలు	-10.9517
.2010)	-10.952
▁చార్లెస్	-10.952
▁జోసెఫ్	-10.952
▁ద్వాదశ	-10.952
▁వీడియో	-10.952
▁రామబ్రహ్మం	-10.952
▁భీష్మ	-10.952
▁పల్నాటి	-10.952
▁నిపుణుడు	-10.952
▁వ్యూహ	-10.952
▁చేనేత	-10.952
▁జార్జ్	-10.952
▁నర్సాపూర్	-10.9521
▁ఒకటైన	-10.9521
హెన్రీ	-10.9521
▁1970:	-10.9521
▁సేకరణ	-10.9521
▁సర్దార్	-10.9521
▁చతుర్	-10.9522
▁రాజకీయనాయకుడు	-10.9522
▁విడుదలయ్య	-10.9523
▁వ్యక్తం	-10.9523
▁వాహనాల	-10.9524
ుకోవచ్చు	-10.9524
.2011)	-10.9524
▁దేవదాసు	-10.9524
▁అమలాపురం	-10.9525
▁లక్ష్మీనారాయణ	-10.9527
▁మణిపూర్	-10.9529
▁నవలలు	-10.953
▁హనుమంతుడు	-10.953
▁చేరుతుంది	-10.953
▁1902	-10.953
▁విఘ్నేశ్వర	-10.9531
▁మిషన్	-10.9532
▁ఎత్తి	-10.9533
▁వుంటాయి	-10.9533
▁ధర్మం	-10.9536
▁యోధులు	-10.9538
గట్టు	-10.9539
▁ప్రారంభమైనది	-10.9541
▁ఇస్తుంది	-10.9542
వటం	-10.9543
దర్శకుడు	-10.9545
▁ఖాత	-10.9548
▁ఉరి	-10.9548
▁దొంగలు	-10.9549
▁పవిత్రమైన	-10.9551
ేశ్వరుడు	-10.9556
▁ప్రదేశాల	-10.9556
▁వచ్చినప్పుడు	-10.9559
వెళ్	-10.9559
▁సంతకం	-10.9559
▁పర్వతాల	-10.956
▁భవ	-10.956
సుకో	-10.9563
▁అతనుకు	-10.9564
▁ఆంగ్లంలో	-10.9568
▁పదవ	-10.9569
వ్యవస్థ	-10.9572
నిర్జన	-10.9573
▁జరిపి	-10.958
▁రూపము	-10.9581
▁స్నేహం	-10.9584
▁విశాఖపట్నంలో	-10.9584
ష్య	-10.9585
▁చల్లని	-10.9586
▁కోరాడు	-10.9587
▁పాలక	-10.9592
పత్రిక	-10.9592
▁కన్య	-10.9595
▁డ్ర	-10.9598
▁మలి	-10.9598
యొ	-10.9602
ెన్నో	-10.9604
▁అధికం	-10.9605
av	-10.9607
▁వెలు	-10.9608
▁కొలను	-10.9608
▁అధ్యయన	-10.9617
▁విధానాలు	-10.9618
▁మాడ	-10.9618
▁లతా	-10.9623
▁ప్రాంతములో	-10.9625
▁శాఖా	-10.9625
పాణి	-10.9636
▁క్షణ	-10.9637
▁రోజును	-10.9638
all	-10.9642
లాగ	-10.9644
▁పొంగ	-10.9646
▁ఆలోచించ	-10.9649
కౌ	-10.9654
▁g	-10.9655
▁ప్రాణం	-10.966
▁సంవత్సరాలకు	-10.9661
▁అరి	-10.9661
పెంట	-10.9661
▁వివరాల	-10.9663
▁1953:	-10.9667
▁సంవత్సరములు	-10.9667
▁మనకి	-10.9667
▁గిరిజ	-10.9667
▁మీటర్లు	-10.9676
స్థానంలో	-10.9679
పుల్	-10.9684
▁కార్యక్రమాల	-10.9687
▁దేశాన్ని	-10.9689
▁సమర్థ	-10.9691
సౌ	-10.9694
గౌడ	-10.9695
ుతున్నది	-10.9696
▁పరిశోధనలు	-10.9697
కపోవడం	-10.9698
రేఖ	-10.9699
గతి	-10.97
రామచంద్రన్	-10.9704
▁శాస్త్రవేత్తలు	-10.9704
వర్త	-10.9705
వ్వా	-10.9712
.1922)	-10.9716
▁కంబైన్స్	-10.9716
▁ఛైర్మన్	-10.9716
▁రూపకల్పన	-10.9716
▁వ్యంగ్య	-10.9716
▁స్టేడియం	-10.9716
▁ఉత్తరప్రదేశ్	-10.9716
▁తప్పనిసరి	-10.9716
▁యజమాని	-10.9716
▁చావ్లా	-10.9716
▁ప్రేరణ	-10.9716
▁కొందరి	-10.9716
▁విభిన్న	-10.9716
▁పాతాళ	-10.9716
▁ధర్మారావు	-10.9716
▁సరోజినీ	-10.9717
▁పీఠభూమి	-10.9717
▁బహమనీ	-10.9717
▁విరివి	-10.9717
▁గ్రేట్	-10.9717
▁బాంబే	-10.9718
▁ఒకరోజు	-10.9718
గలిగే	-10.972
.2014)	-10.972
ాదరణ	-10.9721
▁అసఫ్	-10.9721
▁మాస్కో	-10.9723
▁అయ్యప్ప	-10.9724
▁ఉండేదని	-10.9724
▁ట్రై	-10.9725
▁టిప్పు	-10.9729
▁పద్యాల	-10.973
▁1989:	-10.9731
కంటి	-10.9734
▁పురపాలకసంఘంగా	-10.9735
▁మొగుడు	-10.9735
▁సుమన్	-10.9736
▁రాసాడు	-10.9736
▁కనుగొన్నారు	-10.9736
చంద	-10.9738
వీడు	-10.9739
▁ప్రహ్లాద	-10.974
▁పరిపాలించారు	-10.974
పత్ర	-10.9741
▁అర్జున్	-10.9742
▁ఐటీ	-10.9743
▁విజయవంతమైన	-10.9744
▁బదులుగా	-10.9746
▁పట్టాభిషేకం	-10.9751
▁దేవాలయాన్ని	-10.9754
▁నిలుప	-10.9754
▁దట్టమ	-10.9755
▁అధికరించ	-10.976
▁అవశేషాలు	-10.9761
▁సాగిన	-10.9764
▁నాయిక	-10.9764
▁సాగి	-10.9765
▁పాయ	-10.9767
▁పదవిలో	-10.977
▁పాక్	-10.9771
శిల	-10.9772
▁సోదరులు	-10.9772
▁at	-10.9773
▁తుది	-10.9776
▁శిశువు	-10.9778
▁నీళ్ళు	-10.9784
▁కపిల	-10.9788
▁ఉపన్యాస	-10.9788
▁116	-10.9789
ేశ్వర్	-10.9794
▁పోషక	-10.9802
▁కార్యదర్శిగా	-10.9805
▁వహిస్త	-10.9806
▁ఒప్పించ	-10.9807
▁కావ్యము	-10.981
ala	-10.9813
చిన్న	-10.9815
▁బుట్ట	-10.9821
▁విశేషాలు	-10.9821
▁వెనక	-10.9823
▁ఆలయంలోని	-10.9826
▁జనం	-10.9827
▁బలం	-10.9829
ేనని	-10.9834
కర్ణ	-10.9836
▁శాసనసభలో	-10.9837
▁పడతాడు	-10.9837
పత్	-10.9841
pa	-10.9843
▁భీ	-10.9845
▁సమావేశంలో	-10.9853
స్థుల	-10.9853
▁సంస్థానాధీశుల	-10.9862
▁పట్	-10.9866
కొండూరు	-10.9869
దీప్	-10.9878
▁మెచ్చ	-10.9878
ందలి	-10.988
▁1905	-10.988
టిన్	-10.9885
చుకో	-10.9885
▁మైళ్ళ	-10.9886
▁లభించే	-10.9888
▁వ్యక్తిగా	-10.989
మియా	-10.9891
▁అంక	-10.9892
▁ఉన్నాయని	-10.9892
▁కళాకారుల	-10.9893
▁తోక	-10.9901
▁ఫిలిం	-10.9901
విద్యా	-10.9907
▁సహకరించ	-10.991
▁కనిపెట్ట	-10.9912
.1931)	-10.9916
▁కందుకూరు	-10.9916
▁దుగ్గిరాల	-10.9916
▁పరిష్కరించ	-10.9916
▁భరద్వాజ	-10.9916
▁చిలకలూరిపేట	-10.9916
▁అయోధ్య	-10.9916
▁చక్రవర్తుల	-10.9916
▁బదిలీ	-10.9916
▁ఆజాద్	-10.9916
▁కర్మాగారం	-10.9916
▁ఓడరేవు	-10.9916
▁పీఠాధిపతి	-10.9916
▁రజతోత్సవ	-10.9917
▁గర్భగుడి	-10.9917
▁భవిష్యత్తు	-10.9917
▁కొల్లాపూర్	-10.9917
▁వ్రాత	-10.9917
▁అంతర్గత	-10.9917
▁భద్రాద్రి	-10.9917
▁ద్విపద	-10.9918
▁వాడతారు	-10.9923
▁సంభవించిన	-10.9924
▁కావాలి	-10.9924
ప్రస్తుత	-10.9925
▁పెక్కు	-10.9926
మాణ	-10.9928
▁వేణుగోపాలస్వామి	-10.9929
▁అప్పుడే	-10.9929
▁ప్రతాప్	-10.9931
ాచార్యుడు	-10.9934
▁సుందరయ్య	-10.9934
▁మకర	-10.9934
▁రౌ	-10.9939
▁మహాకవి	-10.994
▁ఉచితంగా	-10.9941
▁మురళీ	-10.9944
▁మునిగి	-10.9944
▁సమరయోధులు	-10.9944
▁జగన్నాథ	-10.9945
బోధ	-10.9951
▁ఉల్	-10.9951
▁శ్రీరాముడు	-10.9953
▁సీతను	-10.9954
▁కృష్ణుని	-10.9956
▁ఆంగ్లో	-10.9956
▁థా	-10.9958
▁కట్టిన	-10.996
సిల్	-10.9965
▁ఇంకొక	-10.9967
▁వెయ్య	-10.9967
▁నిత్యం	-10.9968
▁పోషించిన	-10.9973
చారి	-10.9974
▁అగు	-10.9974
▁పండ్లు	-10.9979
▁కుంభ	-10.998
ప్రతిష్ఠ	-10.998
▁నడిపి	-10.9981
▁1928:	-10.9981
▁యేట	-10.9984
▁1925:	-10.9985
ana	-10.9988
▁ప్రతిబింబ	-10.999
▁మహేంద్ర	-10.9991
గలిగి	-10.9993
రోగ	-10.9998
త్వానికి	-11.0006
▁సంపుటి	-11.0011
ell	-11.0012
▁తాక	-11.0012
ండును	-11.0014
యొక్క	-11.0017
ఘట్ట	-11.0017
ాలన్నీ	-11.0017
▁కోపం	-11.0019
దూర్	-11.002
▁ఆనందం	-11.0021
▁వ్యవహారాల	-11.0025
భరిత	-11.0027
▁వరంగల్లు	-11.0027
▁తీర్మానం	-11.0033
వృత్తి	-11.0035
పురుగు	-11.0036
tic	-11.0038
గలదు	-11.0043
ph	-11.0044
▁ఆంజనేయస్వామి	-11.0048
పాండ	-11.0056
▁జమున	-11.0056
▁ఆవుల	-11.0058
▁మెట్ల	-11.006
ొకటి	-11.0062
ెస్ట్	-11.0065
ంగో	-11.0071
▁జాగ్రత్త	-11.0073
పోతారు	-11.0081
▁సంగీతాన్ని	-11.0083
▁అసమాన	-11.0086
▁పీఠం	-11.0089
▁న్యాయం	-11.0092
▁వ్యా	-11.0093
▁రంగనాథ	-11.0097
▁కుటుంబాలు	-11.0101
▁బేత	-11.0101
▁మూలంగా	-11.0104
ెక్కి	-11.0105
డక	-11.0106
▁భిన్న	-11.011
▁తడి	-11.011
▁1977:	-11.011
▁జ్యోతిష	-11.0114
ఖ్యాత	-11.0117
▁మేడ	-11.012
archive	-11.012
▁మున్సిపాలిటీ	-11.012
▁ఇతిహాస	-11.012
▁గోంగూర	-11.012
▁నిరంకుశ	-11.012
▁ప్రాజెక్ట్	-11.012
▁వెళుతుంది	-11.012
▁గొర్రె	-11.012
▁పరస్పర	-11.012
▁రీమేక్	-11.012
▁సుధాకర్	-11.012
▁ఇటలీ	-11.012
▁తీశారు	-11.012
▁భూపాలపల్లి	-11.012
▁అస్సామీ	-11.012
▁వాసిరెడ్డి	-11.012
▁మౌలిక	-11.0121
▁ఎగువ	-11.0121
▁సెలవు	-11.0121
▁భువనచంద్ర	-11.0121
▁పరిరక్షణ	-11.0121
▁విజయశాంతి	-11.0122
▁పెట్టే	-11.0123
▁విభజించబడింది	-11.0123
▁తరచూ	-11.0123
ita	-11.0125
▁ఉప్పల	-11.0125
▁ఆదరించ	-11.0126
▁నాగుల	-11.0127
▁పదవుల	-11.0128
యమ్మ	-11.0129
వృ	-11.0131
▁రాజశ్రీ	-11.0133
▁అందించే	-11.0133
▁రోజా	-11.0134
▁స్వీకరించారు	-11.0137
▁కోల్పో	-11.0139
▁సాయంతో	-11.0141
స్ధ	-11.0147
▁సాధ్యమ	-11.0148
▁హిమ	-11.015
▁భీమన్న	-11.0153
▁అన్నదానం	-11.0155
▁తీరం	-11.0157
ేసారి	-11.0158
ప్రజల	-11.0161
▁కలియుగ	-11.0162
▁గుర్తించిన	-11.0163
▁1992:	-11.0165
▁శశి	-11.0168
ఖే	-11.0168
▁మొట్ట	-11.0174
▁మూగ	-11.0182
▁చేయాలి	-11.0186
▁మన్న	-11.0187
భట్ట	-11.0188
దీనిని	-11.0188
ులయ్యారు	-11.0188
▁సంవత్సరాలుగా	-11.0193
హె	-11.0195
▁వాహనం	-11.0195
రాత్రి	-11.0199
▁చెట్ల	-11.0203
pp	-11.0208
▁చెప్పింది	-11.021
యోగ్య	-11.0212
▁సేకరించి	-11.0212
తిన్	-11.0214
తంత్ర	-11.0224
బడతాయి	-11.0225
▁అంతటి	-11.0231
▁బ్రతుకు	-11.0234
▁అక్షరాల	-11.0234
కృతి	-11.0236
▁విశిష్టమైన	-11.0237
▁ప్రారంభమై	-11.0237
▁కాకతీయులు	-11.024
అని	-11.0243
vi	-11.0251
▁(6	-11.0256
కపోవడంతో	-11.0256
▁దేవ్	-11.0257
▁రంగనాయక	-11.0257
▁ఐక్య	-11.0265
పరిచి	-11.0268
▁మంచిది	-11.027
▁యుద్ధాల	-11.0275
▁అంతగా	-11.0276
▁చందా	-11.0279
▁చరిత్రకారుల	-11.0284
▁సమయంలోనే	-11.0284
▁హనుమ	-11.0285
▁అవతారాల	-11.0287
▁గోన	-11.0289
▁వధ	-11.0289
▁దీన	-11.0292
స్సా	-11.0293
▁చూసే	-11.0297
▁పొట్ట	-11.0297
▁శివారు	-11.0298
▁ప్రవాహం	-11.0298
▁పలుకు	-11.0299
▁1979:	-11.03
చ్చె	-11.0301
▁ప్రెసిడెన్సీలో	-11.0301
నాధ్	-11.0301
▁సింధ	-11.0306
పురా	-11.0308
▁చేయవచ్చు	-11.0308
దూర	-11.0311
ారట	-11.0312
▁కన్నె	-11.0317
▁బెర్	-11.0323
▁జగన్నాధ	-11.0328
పద్మనాభ	-11.0328
▁మంగళవారం	-11.0328
పోతాడు	-11.0328
.1908)	-11.0329
.2006)	-11.0329
▁ఓరుగల్లు	-11.0329
▁కవయిత్రి	-11.0329
▁జమ్మలమడుగు	-11.0329
▁యలమంచిలి	-11.0329
▁విపరీత	-11.0329
▁నలుమూలల	-11.0329
▁స్వీకారం	-11.0329
▁వేర్వేరు	-11.0329
▁ఆచంట	-11.0329
▁నిరసన	-11.0329
▁వెనక్కి	-11.0329
▁దసరా	-11.0329
▁తపాలా	-11.0329
▁హోటల్	-11.0329
▁ఉస్మానియా	-11.0329
▁వినుకొండ	-11.0329
▁0-6	-11.0329
▁తరఫు	-11.0329
▁తిరుగుతూ	-11.0329
▁గొల్లపూడి	-11.033
▁గొంతు	-11.033
▁సురవరం	-11.033
▁వెంకటరమణ	-11.0331
▁కొండవీటి	-11.0331
▁ప్రదానం	-11.0333
▁పీటర్	-11.0333
▁పార్వతీపురం	-11.0333
▁చేస్తుంటారు	-11.0333
▁పోరాడి	-11.0334
కాల్	-11.0335
▁ధరించిన	-11.0335
▁పోగొట్ట	-11.0335
సర్వ	-11.0338
▁చెపుత	-11.0338
▁సుబ్బయ్య	-11.0339
▁వాస్తు	-11.0339
▁దగ్గు	-11.0339
▁రోమన్	-11.0341
▁గౌడ్	-11.0344
▁బేర	-11.0345
▁గణేశన్	-11.0345
ni	-11.0348
▁ఉపాధ్యాయుడు	-11.0351
▁శ్రీకృష్ణుడు	-11.0351
▁కూర్చిన	-11.0353
ావళి	-11.0353
▁చింతపల్లి	-11.0353
▁మాయాబజార్	-11.0355
▁కథకుడు	-11.0355
▁ఫ్రీ	-11.0356
▁చేరుకుంట	-11.0356
▁అద్దంకి	-11.0356
▁కపూర్	-11.0362
▁అంతం	-11.0362
▁స్వదేశ	-11.0362
▁టూ	-11.0366
▁ఇవ్వడం	-11.0368
▁పొన్న	-11.037
ుకోవటం	-11.037
▁సేకరించ	-11.0371
▁మిల్లులు	-11.0373
▁లక్ష్మణ్	-11.0379
▁మరొకటి	-11.038
▁ఆయుధాలు	-11.0382
▁రావడంతో	-11.0384
▁శిల్పం	-11.0386
▁మాఘ	-11.0387
▁అడగ	-11.0389
పోవటం	-11.039
▁మనువు	-11.039
బట్ట	-11.039
మయింది	-11.0392
▁125	-11.0393
▁1924:	-11.0393
నాడే	-11.0395
ka	-11.0397
గృహ	-11.0398
||	-11.0399
కొడుకు	-11.0399
▁విమర్శించ	-11.0401
▁ఆప్	-11.0402
▁దిగువన	-11.0409
▁పచ్చని	-11.0411
దంతా	-11.0412
▁నక్క	-11.0415
▁సిద్ధాంతాల	-11.0416
▁సంస్కరణలు	-11.0419
▁రాజును	-11.042
▁వామన	-11.0421
▁ప్రసాదించ	-11.0422
▁చర్యలు	-11.0423
▁నామం	-11.0424
▁సూచిస్త	-11.0429
▁ఉమ	-11.0435
తడు	-11.0436
▁de	-11.0457
▁పక్షుల	-11.0458
▁సన్యాస	-11.0459
ంపూడి	-11.0461
▁మహాదేవ	-11.0461
▁130	-11.0463
ాధ్యాయ	-11.0463
బడినవి	-11.0472
▁వరం	-11.0475
▁నగర్లో	-11.0476
▁మార్పుల	-11.0479
ేశారు	-11.0487
▁1966:	-11.0488
op	-11.049
▁విజయవంతం	-11.0494
▁వీరిని	-11.0496
▁పాండురంగ	-11.0499
▁అధీనంలో	-11.0505
▁తరం	-11.0506
పర్య	-11.0513
▁ప్రాజెక్టులు	-11.0514
ుచున్నవి	-11.0514
▁బయలుదేరి	-11.0515
▁కాలేజీలో	-11.0517
▁మహాత్మ	-11.0517
శాంతి	-11.0518
దొర	-11.0519
▁కావు	-11.0524
▁సముద్రతీర	-11.0524
▁గణనీయ	-11.053
▁సేవకు	-11.0531
గమన	-11.0533
▁140	-11.0535
▁జ్ఞాపక	-11.0541
▁పునరుద్ధరణ	-11.0541
▁మగళూరు	-11.0541
▁వేరుశనగ	-11.0541
▁ఘర్షణ	-11.0541
▁నిరాకరించ	-11.0541
▁కచేరీ	-11.0541
▁టెన్నిస్	-11.0541
▁ప్రతాపరుద్ర	-11.0541
▁వెలువరించ	-11.0541
▁బందరు	-11.0542
▁నిర్ధారించ	-11.0542
▁జారీచేసింది	-11.0542
శృంగ	-11.0542
▁చమురు	-11.0542
▁జనార్ధన	-11.0542
▁ద్రవిడ	-11.0542
▁దర్శకునిగా	-11.0542
▁మలుపు	-11.0543
నెల్సన్	-11.0543
▁జబ్బు	-11.0543
రీత్యా	-11.0544
▁తెస్తూ	-11.0544
▁సినీనటి	-11.0545
▁అనబడే	-11.0545
▁పర్యవేక్షణ	-11.0545
▁హాసన్	-11.0545
▁శ్లోకం	-11.0546
▁సువర్ణ	-11.0546
▁అభిషేకాలు	-11.0547
▁నిలిచాయి	-11.0547
▁శిల్పి	-11.0549
▁సంజీవయ్య	-11.0549
▁అవకాశాలు	-11.055
▁ఏర్పాటుచేసిన	-11.055
▁గుర్తించబడింది	-11.0551
▁కలుగుతుంది	-11.0553
▁అయిదు	-11.0555
▁మహాలక్ష్మి	-11.0555
▁చిత్రీకరించారు	-11.0556
▁చంద్రగిరి	-11.0556
▁హిందు	-11.0559
▁ఖమ్మంలో	-11.0562
▁సంబంధాల	-11.0565
▁1857	-11.0567
▁ఆంజనేయులు	-11.0567
▁త్యాగరాజు	-11.0569
▁పాఠ్య	-11.0569
ుకోవాలని	-11.0575
▁స్టూడియోస్	-11.0575
▁1896	-11.0576
▁మానవుల	-11.0577
▁కట్టడాలు	-11.058
▁సమాధానం	-11.058
▁ఉద	-11.0581
కారము	-11.0583
▁విస్తృత	-11.0584
ింపజేస	-11.0585
▁నారా	-11.0585
రీస్	-11.0588
▁రాజేశ్వరి	-11.0589
▁కాళి	-11.059
▁వెలువడ	-11.0592
▁ఉండేలా	-11.0592
ఫు	-11.0596
▁వస్త్రాలు	-11.0598
▁ప్రతిభా	-11.0599
▁తై	-11.0601
▁మౌన	-11.0602
▁కార్యక్రమాలను	-11.0602
పథ	-11.0604
▁ఉద్యమానికి	-11.0605
▁మనుషులు	-11.0606
▁గుర	-11.0606
యుండును	-11.0607
▁పంపి	-11.061
▁అచ్చు	-11.0614
▁పాలనకు	-11.0615
▁నుంచీ	-11.0615
▁కాపురం	-11.0616
▁వస్తూ	-11.0616
శుద్ధ	-11.0617
▁దళాలు	-11.0618
పురుషుల	-11.0619
పాళ	-11.0621
లెస్	-11.0622
▁అవతారము	-11.0624
▁రాజమండ్రిలో	-11.0626
per	-11.0626
ాగ్ని	-11.0627
▁ఆకులు	-11.063
▁వైభవ	-11.0633
▁ఇటీవలి	-11.0643
▁చెందుతున్న	-11.0643
2005)	-11.0649
▁వ్రత	-11.0649
▁హాయి	-11.0654
▁వినయ	-11.0655
▁Dr	-11.0655
▁ప్రకాశ	-11.0656
▁1957:	-11.0661
మడుగు	-11.0663
▁వైపున	-11.0665
▁పంపిన	-11.0667
▁నరసింహస్వామి	-11.0668
సిద్ధి	-11.0672
▁ఉగ్ర	-11.0672
▁శ్రీధర్	-11.0676
▁బల్ల	-11.0676
▁నిలబడి	-11.0678
▁సైనికులు	-11.068
▁కేంద్రానికి	-11.0681
టుకు	-11.0683
▁నిజంగా	-11.0685
▁శతాబ్ధ	-11.0696
ts	-11.0698
▁తగ	-11.0698
und	-11.0699
లాట	-11.07
ఱు	-11.0701
▁1895	-11.0703
▁106	-11.0704
▁సినిమాలోని	-11.0706
▁చనిపో	-11.0713
▁విద్యాలయం	-11.0715
▁కట్టడం	-11.0716
▁సైన్యము	-11.0729
ానిక	-11.0729
ట్టే	-11.0731
▁పౌ	-11.0733
-17	-11.0735
▁1978:	-11.0736
▁నందన	-11.0737
▁అరణ్యాల	-11.0738
▁జాతీయోద్యమ	-11.0738
వ్యాప్త	-11.0748
▁నిర్మాణాలు	-11.0758
ఱ్ఱ	-11.0759
▁ఇంజనీర్	-11.0759
▁కౌన్సిల్	-11.0759
▁చొప్పున	-11.0759
▁ఫ్యాక్టరీ	-11.0759
▁ఋషుల	-11.0759
▁నిడదవోలు	-11.0759
▁నైరుతి	-11.0759
▁యాజమాన్య	-11.0759
▁విస్తారంగా	-11.0759
▁ఊళ్ళో	-11.0759
▁చండీగఢ్	-11.0759
▁కెరీర్	-11.0759
▁అందుకని	-11.0759
▁కలయిక	-11.0759
▁కోనేరు	-11.0759
▁యాత్రాచరిత్ర	-11.0759
▁జరప	-11.0759
▁అంతేకాక	-11.0759
▁కోర్సు	-11.076
▁ప్రతాపరెడ్డి	-11.076
▁సొమ్ము	-11.076
▁వాణిశ్రీ	-11.076
▁యాక్షన్	-11.076
▁వర్ధిల్ల	-11.0761
▁నేపాలీ	-11.0761
▁పస	-11.0761
▁చంద్రమోహన్	-11.0762
ద్వేష	-11.0762
▁శ్యామల	-11.0762
▁ప్రాకృత	-11.0762
▁ప్రదక్షిణ	-11.0763
▁వెంకటాద్రి	-11.0763
▁లింకు	-11.0764
▁వాణీ	-11.0764
రేణు	-11.0765
▁జమ్ము	-11.0766
▁త్రో	-11.0768
▁అర్జునుడు	-11.0769
▁కోప	-11.0769
▁అబ్బాయి	-11.077
▁విద్యాసాగర్	-11.0772
▁పాండవుల	-11.0772
▁కల్లూరు	-11.0776
▁చందన	-11.0777
▁విచిత్ర	-11.0778
ప్పటికి	-11.0778
▁పడింది	-11.078
▁పైడి	-11.0781
▁నిరంతరం	-11.0781
▁1,0	-11.0782
ద్దామ	-11.0783
▁తొలగించి	-11.0784
▁ఇవన్న	-11.0786
▁చెందాయి	-11.0787
సిద్ధ	-11.0787
▁తీసుకున్నారు	-11.0788
▁వికాస	-11.079
▁స్తుత	-11.0791
▁వర్షాలు	-11.0792
▁రాకుండా	-11.0792
▁సరుకు	-11.0795
▁వేసింది	-11.0798
▁రూపొందించారు	-11.0799
▁బౌ	-11.0799
▁కోసమ	-11.0801
▁ఓడిపోయి	-11.0802
▁బాగ	-11.0805
▁ఉత్తర్వులు	-11.0805
▁బజారు	-11.0806
art	-11.0809
▁నాథ్	-11.081
▁బాంబు	-11.0812
▁షె	-11.0813
▁సినిమాలకు	-11.0815
3%	-11.0815
ాయీ	-11.0817
దై	-11.0818
▁బోర్	-11.0818
▁అట్టి	-11.0819
▁సముద్రపు	-11.0823
యంత్ర	-11.0823
▁పేరుగల	-11.0823
▁నొక్క	-11.0823
▁ఘాట్	-11.0825
▁గెలుచుకు	-11.0825
▁ముంద	-11.0827
▁అనుగ్రహ	-11.083
▁కీర్తనలు	-11.0831
రాఘవ	-11.0833
సూచి	-11.0833
సిన్	-11.0834
▁కావ్యాల	-11.0835
ఖి	-11.0851
▁పూర్తిచేస	-11.0852
▁సంస్కరణల	-11.0852
▁అందుకున్న	-11.0854
▁నిర్వహించబడుతు	-11.0854
▁గావించ	-11.0854
జన్మ	-11.0858
▁రాఘవేంద్రరావు	-11.0861
▁చెయ్యడం	-11.0863
▁పదాన్ని	-11.0864
▁అర్జున	-11.0864
స్త్రీ	-11.0866
▁కోరి	-11.0868
▁రావణ	-11.0869
▁సమస్యలను	-11.0869
మండ్	-11.087
▁హక్కు	-11.0872
▁కుటుంబాల	-11.0887
ొప్ప	-11.0888
దైవ	-11.0892
▁స్థానాలు	-11.0893
▁పుష్కర	-11.0896
▁చాలు	-11.0897
ొచ్చి	-11.0903
▁వండ	-11.0906
▁పద్యము	-11.0908
పంతుల	-11.0909
్యాన్ని	-11.0917
▁ముక్కలు	-11.0926
▁రాధా	-11.0934
▁రామరాయల	-11.0934
▁శిథిలాల	-11.0937
ందువలన	-11.0937
▁వేణుగోపాల	-11.0939
జియా	-11.0939
▁స్నేహితుల	-11.0942
లైట్	-11.0944
బ్ధ	-11.0945
▁ప్రముఖమైన	-11.0946
▁కుటుంబాన్ని	-11.0953
▁దేవరాయ	-11.0953
▁అంతర్జాతీయంగా	-11.0958
▁వ్యయం	-11.0964
▁కారణాలు	-11.0966
▁సంభవించ	-11.0968
శిష్య	-11.0968
ించబడింది	-11.0968
%),	-11.0973
▁సద	-11.0975
వ్యాఖ్య	-11.0975
ఫిల్	-11.0976
▁అనారోగ్య	-11.0979
▁విశ్వవిద్యాలయాల	-11.098
▁మిరప	-11.0981
.1925)	-11.0981
.1927)	-11.0981
▁అధిగమించ	-11.0981
▁దక్షిణాఫ్రికా	-11.0981
▁నాదెండ్ల	-11.0981
▁బాలీవుడ్	-11.0981
▁వియత్నాం	-11.0981
▁దుఃఖ	-11.0981
▁అంతర్వేది	-11.0981
▁మృత్యు	-11.0981
▁లచ్చన్న	-11.0981
▁సిరిసిల్ల	-11.0981
▁స్పేస్	-11.0981
▁పెడన	-11.0981
▁జాలాది	-11.0981
▁సత్యభామ	-11.0981
▁ఇందిరాగాంధీ	-11.0981
▁క్రీడాకారిణి	-11.0981
▁తరగతుల	-11.0981
▁తులసి	-11.0982
▁కాల్చి	-11.0982
▁ఎవరైనా	-11.0982
▁సురేంద్ర	-11.0982
▁మాత్రము	-11.0982
▁జనగామ	-11.0982
▁దర్శనీయ	-11.0982
స్క్	-11.0983
▁మతపరమైన	-11.0983
▁ప్రచురణకర్త	-11.0983
▁సీతారాం	-11.0983
▁పండిస్తారు	-11.0983
▁కొండవీడు	-11.0983
టివ్	-11.0983
▁జర్నల	-11.0986
▁వెలుగులో	-11.0988
▁విడుదలయ్యింది	-11.0989
▁గ్యాస్	-11.0989
▁కాఫీ	-11.0991
▁రావణుడు	-11.0991
▁శుభ్ర	-11.0992
▁తప్పకుండా	-11.0994
▁బలవంతంగా	-11.0994
▁ముసల	-11.0994
▁పంటల	-11.0996
▁సాంబశివరావు	-11.0999
▁మేజర్	-11.1
చెర్ల	-11.1001
లాస	-11.1001
▁యుక్త	-11.1002
▁చెడు	-11.1003
▁ఎంటర్	-11.1004
▁దత్తత	-11.1007
▁1889	-11.1007
▁కరి	-11.1008
▁ఎన్నికైనారు	-11.1009
▁జంగ్	-11.1009
▁భారతదేశములో	-11.101
▁మంత్రం	-11.1012
▁జాబితాలో	-11.1012
▁ఓట్ల	-11.1015
▁లేఖ	-11.1019
ధ్ర	-11.1019
▁పుట్టింది	-11.1021
▁నాట్యం	-11.1024
▁సహజంగా	-11.1026
▁ఉండటంతో	-11.1027
పంట	-11.1029
▁పావు	-11.1034
▁కీరవాణి	-11.1035
ొకరు	-11.1035
▁కష్టాలు	-11.1039
▁వెచ్చ	-11.1042
▁నింప	-11.1042
▁సుమ	-11.1046
▁గట్టి	-11.1053
▁నడవ	-11.106
▁ప్రశంసించ	-11.106
▁ప్రపంచములో	-11.1063
రక్షణ	-11.1063
▁గర్వ	-11.1064
▁జ్ఞానం	-11.1064
సెంట్	-11.1068
▁గదులు	-11.1069
▁తాడి	-11.107
చోట్ల	-11.1072
చెట్టు	-11.1074
go	-11.1074
▁వల్లూరు	-11.1081
▁స్నాన	-11.1082
▁వున్నది	-11.1082
▁con	-11.1083
▁స్థితిలో	-11.1088
ుడగు	-11.109
▁అల్ప	-11.1093
▁ఒకదాని	-11.1094
సుందరి	-11.1094
▁నిప్పు	-11.1098
▁వదల	-11.1098
రంభ	-11.11
▁డిస్క	-11.11
har	-11.11
సభ్య	-11.1101
▁క్షీణించ	-11.1102
▁వేశారు	-11.1103
▁పెట్టుబడి	-11.1108
శాయి	-11.1108
రింగ్	-11.111
▁చేపలు	-11.111
▁సంఘాల	-11.1111
▁బ్లాగ	-11.1112
▁సిద్ధాంతం	-11.1112
▁బట్ట	-11.1113
ity	-11.1116
▁వాద్య	-11.1118
▁దొంగల	-11.1118
▁హృదయం	-11.1119
లాడే	-11.1122
▁ఆర్మీ	-11.1132
వర్గం	-11.1132
ంటో	-11.1139
నెల్	-11.114
▁1925	-11.1142
▁సామంతుల	-11.1155
▁పత్రికను	-11.1156
▁మొక్కల	-11.1158
రేట్	-11.1158
గల్లు	-11.1162
లింగేశ్వర	-11.1164
▁సన్నివేశాల	-11.1168
▁శవ	-11.117
▁అమ్మాయిని	-11.1175
▁అమె	-11.1176
యోగి	-11.1177
?)	-11.1179
▁గుహల	-11.1183
▁రాష్ట్రకూటుల	-11.1186
▁దళం	-11.1188
▁కరీంనగర్లో	-11.119
-11	-11.1191
కాలపు	-11.1191
▁ప్రతిమ	-11.1194
నాథుని	-11.1197
ాడో	-11.1207
పట్టు	-11.1208
▁ముఖ్యపాత్ర	-11.1208
▁ఆనవాయితీ	-11.1208
▁పులివెందుల	-11.1208
▁విశ్రాంతి	-11.1208
▁సందర్శకుల	-11.1208
▁ఒడిశా	-11.1208
▁పునరుద్ధరించ	-11.1208
▁ముఖర్జీ	-11.1208
▁ఆక్రమణ	-11.1208
▁నెంబరు	-11.1208
▁దక్షిణాసియా	-11.1208
▁నిర్మూలన	-11.1208
▁హయాంలో	-11.1208
▁రుక్మిణీ	-11.1208
▁అరుణాచల	-11.1208
▁త్వరలో	-11.1208
▁చవితి	-11.1208
▁యాదాద్రి	-11.1208
▁నౌకాశ్రయ	-11.1208
▁జస్టి	-11.1209
విఠలాచార్య	-11.1209
▁ఎడారి	-11.1209
▁గుంట	-11.1209
▁రామానాయుడు	-11.1209
▁త్రిపురనేని	-11.1209
▁తిమ్మాపూర్	-11.1209
▁హుజూర	-11.1209
కొద్దీ	-11.121
▁స్వచ్ఛంద	-11.121
▁ఆత్మకథ	-11.121
ండేది	-11.1211
▁పట్టాభి	-11.1211
▁డయాబెటిస్	-11.1211
▁ధ్వజస్తంభ	-11.1211
▁మల్లాది	-11.1211
▁పచ్చి	-11.1212
▁ఉద్భవించింది	-11.1213
▁ముగిసింది	-11.1213
▁ప్రతినిధి	-11.1213
▁మూడ	-11.1214
▁కిరణ్	-11.1214
▁షెల్	-11.1218
▁సేవల	-11.1221
▁ట్రేడ	-11.1221
ఉన్న	-11.1222
▁జోన్	-11.1222
▁వినియోగదారుల	-11.1222
▁జన్మించింది	-11.1222
▁ఇస్తాడు	-11.1223
▁ఆర్యభట్ట	-11.1224
▁కృష్ణమాచార్య	-11.1226
▁సముద్రతీరం	-11.1228
▁గ్రామస్తుల	-11.1229
▁వెంకన్న	-11.123
▁చేసేవాడు	-11.123
ోత్సవాలు	-11.1232
▁పూస	-11.1232
▁చిత్రీకరించ	-11.1232
▁నార	-11.1233
▁చిక్కుడు	-11.1234
▁వాటా	-11.1235
▁క్రైస్తవులు	-11.1236
▁ప్రెసిడెన్సీ	-11.1238
▁నార్క	-11.1238
▁వాయువు	-11.124
▁భలే	-11.124
est	-11.1242
▁మేళ	-11.1243
▁అందుకుంది	-11.1244
ho	-11.1247
▁కృష్ణదేవరాయలు	-11.1256
మోహనరావు	-11.1258
1983)	-11.1261
▁బిలియన్	-11.1261
▁మొదలై	-11.1262
▁ఉత్పత్తులు	-11.1269
▁సులభ	-11.1271
pe	-11.1274
▁ప్రీత	-11.1279
▁1927:	-11.1281
▁రాజైన	-11.1282
ృష్ట	-11.1291
▁వెళ్ళారు	-11.1291
జ్యోతి	-11.1292
▁పోయే	-11.1295
మూడి	-11.1297
అక్కినేని	-11.1298
డిసెంబరు	-11.1298
▁కల్పనా	-11.1299
▁దృష్టిలో	-11.1299
▁ఉన్నట్టు	-11.1299
▁నోటి	-11.1302
అనగా	-11.1302
▁ఎడ	-11.1303
ప్రపంచ	-11.1303
▁ఉగ్రవాద	-11.1304
పోతూ	-11.1304
▁వాసుదేవ	-11.1305
క్రియ	-11.1306
నాటక	-11.1309
▁రైతుల	-11.1314
og	-11.1315
▁అవు	-11.132
▁హర్	-11.1322
ers	-11.1326
▁రామన్న	-11.1327
▁మొక్కలు	-11.1328
▁బాలుర	-11.133
▁అనుభవం	-11.1333
▁నివసించిన	-11.1334
▁వరదల	-11.1336
▁సంప్రదాయాలు	-11.1337
సాగారు	-11.1337
దేహ	-11.1341
చేసింది	-11.1343
▁ప్రదేశాలలో	-11.1345
▁శ్రీకృష్ణదేవరాయ	-11.1345
భట్టు	-11.1346
▁జంతువులు	-11.1349
▁పనిచేస్త	-11.135
▁గోదా	-11.135
శాస్త్రవేత్త	-11.1354
▁వివాద	-11.1356
▁పూలు	-11.1362
▁ఆళ్వారు	-11.1366
▁అన్నింటి	-11.1367
పట్టణ	-11.1369
▁అన్యాయ	-11.1376
▁వస్తా	-11.1379
▁మహాభారతంలో	-11.1382
▁ఉండుట	-11.1384
▁కృష్ణదేవరాయల	-11.1393
గజ	-11.1394
▁అధ్యక్షత	-11.1397
▁విద్యాలయ	-11.1398
▁తెలిప	-11.1399
▁రసాయనం	-11.1399
▁బాక్	-11.1401
▁దోష	-11.1407
వయ్యా	-11.1411
▁స్తంభ	-11.1412
▁భయం	-11.1414
డుతున్న	-11.1415
▁మోసం	-11.1416
▁నిరంతర	-11.1417
పార	-11.1422
▁ముత్త	-11.1425
▁కార్యాలయాలు	-11.143
ంబే	-11.143
▁ఇస్లామ	-11.1441
.1918)	-11.1441
.1933)	-11.1441
▁అంగీకరిస్త	-11.1441
▁గ్రానైట్	-11.1441
▁నెమ్మదిగా	-11.1441
▁మొక్కజొన్న	-11.1441
▁సారస్వత	-11.1441
▁అదృష్ట	-11.1441
▁ఎమ్మెల్సీ	-11.1441
▁తాడిపత్రి	-11.1441
▁తాతినేని	-11.1441
▁దృఢ	-11.1441
▁ప్రతిరోజూ	-11.1441
▁రాయచోటి	-11.1441
▁విరాళం	-11.1441
▁గ్రూప్	-11.1441
▁మున్నగు	-11.1441
▁కెమెరా	-11.1441
పాక్షిక	-11.1441
▁వ్యాఖ్యాత	-11.1441
▁గజపతుల	-11.1441
▁నాణే	-11.1441
▁గ్రూపు	-11.1441
▁జ్ఞాపకార్థం	-11.1441
▁నమూనా	-11.1441
▁పేటెంట్	-11.1441
▁అధికసంఖ్య	-11.1442
▁ఆర్యసమాజ	-11.1442
▁సరికొత్త	-11.1442
▁పెరుగుదల	-11.1442
▁నటుడిగా	-11.1442
▁సమూహం	-11.1443
స్తానని	-11.1443
▁1907	-11.1443
▁భాషావేత్త	-11.1443
▁Indian	-11.1444
▁ఖడ్గ	-11.1445
▁గురయ్య	-11.1445
▁సాగుతుంది	-11.1446
▁కుమారుడైన	-11.1447
▁గోపాలరెడ్డి	-11.1448
▁కమలా	-11.1448
ారణ్య	-11.1448
▁జెండా	-11.1449
క్ష్మ	-11.145
▁1904	-11.1452
▁హల్	-11.1452
వర్తి	-11.1453
▁చదివే	-11.1453
▁వ్రాస్త	-11.1454
▁మొర	-11.1455
▁పేరుపొందిన	-11.1457
▁రాళ్ల	-11.1457
▁అమర్	-11.1458
▁సత్యాగ్రహం	-11.1458
▁అపార	-11.1458
▁హొ	-11.1459
▁షెడ్	-11.1459
▁సంధ్య	-11.1459
▁An	-11.1461
▁సత్రం	-11.1463
▁800	-11.1464
▁వ్యవహరించాడు	-11.1466
▁వక్త	-11.1467
రేవు	-11.147
▁1897	-11.1471
▁ట్రాక్	-11.1471
▁ఆలయము	-11.1474
▁కాసు	-11.1474
▁వినాయకుడు	-11.1476
వీధి	-11.1479
▁1898	-11.1479
▁రక్తం	-11.1481
▁లారీ	-11.1481
ింపబడిన	-11.1481
▁1860	-11.1482
▁సుధ	-11.1483
▁రమ్య	-11.1485
▁గీ	-11.1487
▁పేర్లతో	-11.1487
▁శారదా	-11.1489
▁స్టాక్	-11.1491
లపాటి	-11.1495
ోయ్	-11.1495
పురుష	-11.1498
టువంటి	-11.1499
▁స్వభావ	-11.1502
▁తీసుకువచ్చ	-11.1505
▁అయ్యారు	-11.1507
▁పదము	-11.1511
▁వారిద్దరి	-11.1511
no	-11.1513
▁జలాల	-11.1515
▁పీవీ	-11.1516
▁అల్లా	-11.1523
▁భర్తను	-11.1529
▁ముగిస	-11.1532
▁దక్కను	-11.1533
మొత్తం	-11.1536
స్తాను	-11.1536
సంఖ్య	-11.1538
జనవరి	-11.1538
▁కోరస్	-11.1541
▁ఉపయోగించిన	-11.1541
▁కలిసిన	-11.1549
▁గతి	-11.155
▁ఆకారం	-11.1551
▁కాకినాడలో	-11.1551
▁వ్యవహార	-11.1554
▁ప్రతినాయక	-11.1555
▁భావించబడుతు	-11.1556
ోన్నత	-11.1557
▁మధ్యయుగ	-11.1557
సుబ్బ	-11.1562
▁కవితలు	-11.1567
▁జీవించి	-11.1569
▁మిగిలి	-11.1569
త్రయ	-11.1569
▁కెనడా	-11.1577
వ్యాస	-11.1579
▁ఆగి	-11.1581
▁వివాదాల	-11.1581
▁ప్రభాకర	-11.1582
▁లక్క	-11.1582
▁కల్పన	-11.1584
▁రామన్	-11.1584
నాయకుడు	-11.1585
కల్లు	-11.1586
▁కానుక	-11.1589
ాశ్రమం	-11.159
▁కలిగింది	-11.1591
దరినీ	-11.1593
ద్వా	-11.1593
లంక	-11.1594
▁కలం	-11.1597
▁సూర్యుని	-11.1598
ాపక	-11.16
వచ్చిన	-11.1602
▁కాంత	-11.1606
▁శైలజ	-11.1607
▁1928	-11.1611
ాన్సీ	-11.1615
జార్	-11.1615
▁దార	-11.1616
▁సగం	-11.1616
షాద్	-11.1619
విఠల	-11.162
1914	-11.162
▁వేలు	-11.162
▁వెల్లడించ	-11.162
జింగ్	-11.1621
▁మించిన	-11.1622
▁పురి	-11.1623
▁170	-11.1624
వోయి	-11.1627
▁చక్క	-11.163
▁సభ్యులుగా	-11.163
పూట	-11.1631
యింట్	-11.1634
▁ఎకరాలు	-11.1634
▁కేరళలో	-11.1635
▁ప్రస్తుతము	-11.1639
▁తోటల	-11.164
▁మౌ	-11.164
▁తినే	-11.1641
గుర్తించబడుతుంది	-11.1645
▁దేశాలకు	-11.1646
▁సంగ	-11.1647
▁ప్రయాణించి	-11.1649
▁ప్రభావిత	-11.1652
▁గీస	-11.1658
▁అమ్మా	-11.1658
▁నేరం	-11.166
▁సంస్థానంలో	-11.166
▁ధైర్యం	-11.1662
▁కుమార్తెలు	-11.167
▁సంతాన	-11.1671
▁ఎందుక	-11.1677
▁కోరిన	-11.1677
సరస్వత	-11.1679
▁శ్రావణ	-11.1679
.1923)	-11.1679
.1940)	-11.1679
▁ఇండోనేషియా	-11.1679
▁ఒత్తిడి	-11.1679
▁కొలంబియా	-11.1679
▁నాల్గవ	-11.1679
▁బెనర్జీ	-11.1679
▁భట్టిప్రోలు	-11.1679
▁వ్యావహారిక	-11.1679
▁సామ్యవాద	-11.1679
▁ఖైదు	-11.1679
▁నాగభూషణం	-11.1679
▁మరుసటి	-11.1679
[1]	-11.1679
▁ఫిలిప్	-11.1679
అయోమయ	-11.1679
▁సజీవ	-11.1679
▁నగదు	-11.1679
▁వెంకటేశ్వర్లు	-11.1679
▁దాద్రా	-11.1679
▁చేసుకోవడం	-11.168
▁అభినయ	-11.168
▁పెరుగుతున్న	-11.168
▁ఆయిల్	-11.168
ప్రజాప్రతినిధులు	-11.168
▁గణేష్	-11.168
▁పంచతంత్ర	-11.168
▁ట్రస్ట్	-11.1681
▁ఫెర్	-11.1681
.2008)	-11.1681
.2004)	-11.1682
▁చేశాయి	-11.1682
▁కొడుక	-11.1682
▁కాలక్రమంలో	-11.1682
▁ఉంటున్న	-11.1683
▁స్మిత	-11.1683
▁నివృత్తి	-11.1684
▁టీవీ	-11.1685
▁చేస్తాయి	-11.1685
▁ఎవ్వర	-11.1685
▁హిందూమత	-11.1686
▁మొల్ల	-11.1686
ండేవి	-11.1686
▁చదివాడు	-11.1687
▁ఆమోదించింది	-11.1687
▁మహారాణి	-11.1687
▁కొరియా	-11.1687
యాంగ్	-11.1688
▁ఎన్నికైంది	-11.1688
▁లోహ	-11.1689
▁కార్యక్రమాన్ని	-11.169
▁తెలిపాడు	-11.1691
▁గోరు	-11.1692
▁తీసుకువెళ్ళ	-11.1693
▁ప్రతిజ్ఞ	-11.1695
▁అనుకూలంగా	-11.1696
▁వర్గీకరించ	-11.1698
రామలింగ	-11.1699
▁పార్టీలు	-11.17
▁గురువులు	-11.17
▁మన్యం	-11.1702
▁జీవుల	-11.1705
జై	-11.1705
▁ప్రవేశపెట్టిన	-11.1706
1974)	-11.1706
▁స్థానాన్ని	-11.1707
▁విడిది	-11.1708
▁భవనాల	-11.1709
▁వాగ్	-11.1713
▁బాలరాజు	-11.1713
▁1899	-11.1714
▁మరణానికి	-11.1715
▁డిపో	-11.1717
▁శాస్త్రజ్ఞుడు	-11.1719
ంచుకుని	-11.1721
▁నడక	-11.1722
సైన్	-11.1722
▁శ్రీకృష్ణుని	-11.1722
▁ఇండ	-11.1723
▁చేయగల	-11.1724
▁రాజేశ్వర	-11.1725
▁అతిథి	-11.1727
▁ప్రసారాలు	-11.1729
▁పిలుస్త	-11.1736
▁భాగస్వామ్యం	-11.1745
▁సంబ	-11.1746
కాన్	-11.1746
▁175	-11.1756
▁ఉండవచ్చును	-11.1756
▁ట్రి	-11.1757
▁మాధ్యమం	-11.1758
మెంటు	-11.1758
టొ	-11.1758
▁వార్తలు	-11.1758
▁మహేశ్వర	-11.1759
▁కుర్ర	-11.1765
▁చేసుకొన్న	-11.1767
స్తాన	-11.1769
▁విల్	-11.1771
▁105	-11.1776
▁మేర	-11.1778
▁నరక	-11.1778
▁సోదరుల	-11.1779
▁118	-11.1784
రాజశేఖరరెడ్డి	-11.1786
విషయ	-11.1788
ధుర	-11.179
ther	-11.1792
07.	-11.1794
▁జొ	-11.1795
▁దైవం	-11.1797
▁వున్నాయి	-11.1799
▁చదువుకున్న	-11.1803
▁సమయములో	-11.1804
▁పొందినది	-11.1806
ాగ్ర	-11.1809
జాన్	-11.1811
▁నిర్వహిస్తున్న	-11.1812
▁కరుణ	-11.1813
ంగానూ	-11.1813
వంతుల	-11.1815
▁సమర్పించిన	-11.1818
▁గీతం	-11.1822
చిత్త	-11.1823
▁ఇప్పటికి	-11.1824
▁స్తంభం	-11.1825
▁పరచ	-11.183
▁వేసే	-11.183
పడుతుంది	-11.183
▁అడ	-11.1834
▁పాలనను	-11.1838
▁సుందరి	-11.1843
ప్రస్తుతం	-11.1844
▁ఉంటుంద	-11.1844
▁పరిస్థితులు	-11.1849
సర్గ	-11.185
▁పరిశీలించ	-11.1852
net	-11.1852
▁1927	-11.1855
కుర్తి	-11.1861
-30	-11.1872
▁విచ్చేస	-11.1874
▁పోస్ట	-11.1878
▁తాళ్ళ	-11.1878
బడినది	-11.1878
నిలయ	-11.1884
▁అధ్యాపక	-11.1886
కారిణి	-11.1889
▁ఉత్	-11.1889
▁సీతారామయ్య	-11.189
▁1988:	-11.1896
▁పేర్కొన్న	-11.1899
▁కట్టా	-11.1902
నందీశ్వర	-11.1902
▁దాగ	-11.1903
▁సిద్ధి	-11.1904
▁తోటి	-11.1909
▁వ్యవస్థాపక	-11.1915
▁సూత్రాల	-11.1915
జాక్	-11.1918
పర్వం	-11.1918
▁సంస్కృతికి	-11.1919
▁సాంప్రదాయం	-11.192
వాడని	-11.1921
▁తెలియజేస	-11.1922
.1994)	-11.1923
.2009)	-11.1923
సార్వభౌమ	-11.1923
▁ఆఫ్ఘనిస్తాన్	-11.1923
▁కమ్యూనిష్టు	-11.1923
▁జటప్రోలు	-11.1923
▁నెల్లిమర్ల	-11.1923
▁ఫౌండేషన్	-11.1923
▁బహిష్కరించ	-11.1923
▁బీజాపూరు	-11.1923
▁మొహమ్మద్	-11.1923
▁విజయనిర్మల	-11.1923
▁సంఘసంస్కర్త	-11.1923
▁మారుతీరావు	-11.1923
▁ఆశ్రయం	-11.1923
▁ఘరానా	-11.1923
▁రాయచూరు	-11.1923
▁సుపరిచిత	-11.1923
▁దేవరకొండ	-11.1923
▁ముంబాయి	-11.1923
▁కొలువై	-11.1923
▁అపురూప	-11.1923
▁ఇరాక్	-11.1923
▁ట్రాన్స్	-11.1923
▁వనవాస	-11.1923
▁నమః	-11.1923
▁రెండింటి	-11.1923
▁నరహరి	-11.1923
▁తెలుగునాట	-11.1924
▁గర్భవతి	-11.1924
▁కనకదుర్గ	-11.1924
▁పిల్లలమర్రి	-11.1924
▁పునాది	-11.1924
▁వేటపాలెం	-11.1924
▁సూచిస్తుంది	-11.1924
▁కథారచయిత	-11.1924
▁శ్వేత	-11.1925
▁రామగుండం	-11.1925
▁ఉపదేశించ	-11.1925
▁పేరుగాంచిన	-11.1925
▁వన్నె	-11.1926
▁రాజపుత్ర	-11.1926
▁హైదర్	-11.1927
▁ఎదుట	-11.1927
▁సుదర్శన	-11.1927
▁వేశ్య	-11.193
▁తెలియకుండా	-11.1931
▁రేపల్లె	-11.1931
▁నాగపూర్	-11.1932
▁ఉక్కు	-11.1933
▁ప్రేమిస్తాడు	-11.1935
▁తెలుసుకొని	-11.1936
▁చర్చించ	-11.1937
▁జింక	-11.1938
▁Telugu	-11.1939
▁వ్యవహరిస్తార	-11.1941
స్తి	-11.1942
▁ఆదుర్తి	-11.1942
▁బంధించి	-11.1942
▁ముగించ	-11.1945
రోజున	-11.1947
ందట	-11.1947
రావ్	-11.1948
ాచార్యుల	-11.1948
▁365	-11.1948
▁గుల్	-11.1949
▁బ్రాడ్	-11.195
▁నియామకం	-11.1953
▁ముస్లింల	-11.1954
▁వంశస్థులు	-11.1954
▁మనుమ	-11.1955
నపల్లి	-11.196
▁ప్రక్కనే	-11.1963
ber	-11.197
▁రాసే	-11.1971
▁దేవరాయలు	-11.1971
కర్ష	-11.1971
-4	-11.1972
▁తారా	-11.1972
▁ఎదిగి	-11.1973
▁చోళులు	-11.1975
▁వాడిన	-11.1975
భక్తి	-11.1977
▁ఉంచారు	-11.1983
▁బ్రహ్మానందం	-11.1984
▁చూస్తున్న	-11.1985
▁ప్రయాణించ	-11.1985
ial	-11.1986
▁ప్రయత్నించ	-11.1987
▁కొద్దిగా	-11.1987
▁అడిగి	-11.1987
కెల్లా	-11.1988
▁తేల్చ	-11.1993
▁విమానాశ్రయ	-11.1993
బోయిన	-11.1994
▁వార్తల	-11.1995
వ్రత	-11.1997
▁2004:	-11.1998
600	-11.1999
▁రాజ్యంగా	-11.2003
▁జలాశయ	-11.2004
▁పద్యాలను	-11.2004
▁వహించగా	-11.2008
▁దొంగతన	-11.2017
▁గ్రహించ	-11.2019
ుతుంటాయి	-11.2023
▁ఇటుకల	-11.2024
విష్ణు	-11.203
▁విశ్వవిద్యాలయము	-11.2037
▁మగధ	-11.2037
గాయకుల	-11.204
▁కీలకమైన	-11.2043
▁కేంద్రాల	-11.2046
పద్మ	-11.2048
▁వార్త	-11.2049
▁బంధు	-11.2053
▁వారసుల	-11.2055
స్టిక్	-11.2056
▁బ్రహ్మన్న	-11.2058
▁క్రియ	-11.2061
▁జన్మించి	-11.2065
▁పోసి	-11.2065
▁ఆచారాల	-11.2071
▁మదన్	-11.2073
▁ఇచ్చట	-11.2076
▁పరిశోధనల	-11.2076
నిపిస్తుంది	-11.2078
గోపాల్	-11.208
▁త్రవ్వ	-11.208
▁సరిహద్దుల	-11.2081
▁మాండ	-11.2082
▁1903	-11.2082
▁నిర్మితమైన	-11.2084
▁వెలిగి	-11.2084
▁పెరగ	-11.2084
▁సరిపో	-11.2086
▁వాసవ	-11.2087
▁జరుగ	-11.209
▁దంపతుల	-11.209
ite	-11.2091
▁చేసినట్లు	-11.2091
కేంద్రంగా	-11.2093
▁ఎకరాలకు	-11.2095
▁సీస	-11.2099
▁1996:	-11.21
ాంతం	-11.21
ca	-11.2101
▁2020:	-11.2104
▁1924	-11.2108
▁అవతరించ	-11.211
▁రచనల్లో	-11.2111
▁పాత్రకు	-11.2112
▁రావే	-11.2113
▁బిలియన్ల	-11.2115
▁మార్గదర్శక	-11.212
డితే	-11.2127
.2016	-11.2128
▁ముక్త	-11.2128
▁ఫలితాల	-11.2129
▁తోడ	-11.2131
వూరి	-11.2131
▁ముగింపు	-11.2136
▁మోడ	-11.2139
▁హెల్	-11.214
▁నల్లమల	-11.2142
సమూహ	-11.2144
▁చేరుకొ	-11.2145
▁115	-11.2149
▁దానిపై	-11.215
▁సీతారాముల	-11.2151
ీకృత	-11.2153
▁ఆహ్వానించ	-11.2156
కాలువ	-11.2157
▁సందర్శించి	-11.2157
▁అధి	-11.2168
▁ప్రయత్న	-11.2169
▁గై	-11.2172
▁కలుస్త	-11.2172
▁మినహా	-11.2172
.11.10.2016	-11.2173
.1921)	-11.2173
.1972)	-11.2173
.2002)	-11.2173
.2007)	-11.2173
▁ఎగ్జిక్యూటివ్	-11.2173
▁చెళ్ళపిళ్ళ	-11.2173
▁పాండిత్య	-11.2173
▁ఫ్రాన్సు	-11.2173
▁మార్కండేయ	-11.2173
▁మైక్రోసాఫ్ట్	-11.2173
▁వగైరా	-11.2173
▁వాగ్గేయకారుడు	-11.2173
▁శిథిలావస్థ	-11.2173
▁శృంగేరి	-11.2173
▁క్షత్రియ	-11.2173
▁పంజాబీ	-11.2173
▁పూజయామి	-11.2173
▁విశ్వామిత్ర	-11.2173
▁సరాసరి	-11.2173
▁సికింద్రాబాదు	-11.2173
▁ఘనవిజయం	-11.2173
▁రావట్లేదు	-11.2173
▁అబద్ధ	-11.2173
▁ఓపెన్	-11.2173
▁సిద్దిపేట	-11.2173
▁ఆడియో	-11.2173
▁తాళ్ళపాక	-11.2173
▁శుక్ల	-11.2173
▁ఫెడరేషన్	-11.2173
▁గణతంత్ర	-11.2173
▁తన్నో	-11.2173
▁సృష్టికర్త	-11.2174
▁మనోహర్	-11.2174
952	-11.2174
▁ఖ్యాతి	-11.2174
▁గది	-11.2174
▁సుభాష్	-11.2175
▁ఆవిరి	-11.2175
▁నెలకొని	-11.2175
▁తలసరి	-11.2176
▁అన్నది	-11.2177
2,000	-11.2177
▁భ్రమ	-11.2178
▁సవాలు	-11.2178
▁కన్యకా	-11.2179
▁తోడ్పడ	-11.2179
వుంది	-11.2179
▁అన్నమాచార్య	-11.218
▁అనువదించాడు	-11.2182
▁జీవనం	-11.2183
▁మారుతుంది	-11.2183
▁సిమెంట్	-11.2185
▁ధ్వంసం	-11.2186
▁చూచ	-11.2186
▁రావడానికి	-11.2187
తత్త్వ	-11.2188
▁మొక్కులు	-11.2191
▁గుడ్డ	-11.2191
▁రెండూ	-11.2192
పోతాయి	-11.2192
▁పగటి	-11.2192
▁ఉండాలని	-11.2193
పడతారు	-11.2193
▁భావించే	-11.2194
▁ద్వారకా	-11.2195
ఆపరేటివ	-11.2201
▁మహావీర	-11.2202
సృజ	-11.2204
కేతు	-11.2205
▁1893	-11.2206
▁చనిపోత	-11.2208
▁రూపాల	-11.2211
▁హాస్యం	-11.2215
▁ఆహ్వాన	-11.2216
▁పాలించాడు	-11.2217
రీతి	-11.2217
▁త్రవ్వకాల	-11.2219
▁జొన్నలు	-11.2222
▁126	-11.2227
▁నిధులు	-11.2227
▁పదార్థాలు	-11.2229
▁చేయబడ	-11.223
ించెను	-11.2231
▁పెంపకం	-11.2234
▁నియోజకవర్గాల	-11.2235
▁మందిరాలు	-11.2236
▁చేతుల్లో	-11.2242
వలస	-11.2244
▁క్రిమి	-11.2247
▁కుదిర	-11.2249
▁అలంకరించ	-11.225
▁భాగాలుగా	-11.2254
▁బంక	-11.2256
▁గఢ్	-11.226
▁పర్యటన	-11.2261
▁ఆమోదం	-11.2262
▁పరిమితం	-11.2262
రామిరెడ్డి	-11.2263
యున్నది	-11.2265
▁అలయ	-11.2265
▁సేవలను	-11.227
▁ద్వీపాలు	-11.2271
▁ఉద్యమాల	-11.2271
▁జత	-11.2282
వాసులు	-11.2283
▁కోమల	-11.2283
రామాయణ	-11.2286
మొదటి	-11.2286
ఘంటసాల	-11.2287
▁దుర్గం	-11.2289
వరలక్ష్మి	-11.2291
ించుకున్న	-11.2293
శైలజ	-11.2294
▁గ్రహీతలు	-11.2296
▁చేసుకునే	-11.2298
▁చంద్రశేఖర	-11.2298
స్తుంటాడు	-11.2302
▁నిలుస్త	-11.2303
హర్ష	-11.2303
▁ప్రాత	-11.2304
హర్	-11.2305
మెన్	-11.2309
▁విదేశాలలో	-11.231
▁చెన్నకేశవస్వామి	-11.2312
▁ఛాయ	-11.2314
▁సుందర్	-11.2318
ore	-11.2325
▁డబ్బ	-11.2327
▁రాజకీయాల్లో	-11.2333
▁పరిశోధక	-11.2333
1967)	-11.2335
▁పండగ	-11.2341
▁పూర్వము	-11.2341
▁ఉపన్యాసాల	-11.2343
▁రోగుల	-11.2344
డూరు	-11.2345
▁రారా	-11.2345
▁సాయం	-11.2349
▁1993:	-11.2351
▁ఆకుల	-11.2352
▁ఫ్య	-11.2353
▁మాతృక	-11.236
అర్	-11.2361
యానం	-11.2362
▁చేయించి	-11.2365
▁గోత్ర	-11.2365
▁నడుపుత	-11.2367
up	-11.2369
▁నిలిచ	-11.2369
స్తున్నారు	-11.2371
▁గదిలో	-11.2375
▁తీసుకువచ్చి	-11.2382
▁అయినది	-11.239
ాలయాలు	-11.2391
▁1995:	-11.2395
▁వార్షికోత్సవ	-11.2395
▁సౌర	-11.2397
▁నడుస్తున్న	-11.24
▁రాధను	-11.2401
▁కుమారి	-11.2403
▁ప్రతిష్ఠాత్మక	-11.2405
▁చనిపోయిన	-11.2409
▁దర్శకత్వ	-11.241
▁వైవిధ్య	-11.2418
మంత్ర	-11.2422
జీవన	-11.2422
▁తగు	-11.2423
▁అనుమతించ	-11.2426
▁పడే	-11.2426
ఘర్	-11.2427
▁అన్నసమారాధన	-11.2429
▁ఆర్గనైజేషన్	-11.2429
▁ఊరేగించ	-11.2429
▁కాళోజీ	-11.2429
▁చేబ్రోలు	-11.2429
▁జాషువా	-11.2429
▁ధోరణి	-11.2429
▁బూర్గుల	-11.2429
▁మొరార్జీ	-11.2429
▁సామూహిక	-11.2429
▁సింగరేణి	-11.2429
▁తాత్విక	-11.2429
▁తక్కిన	-11.2429
▁విండోస్	-11.2429
▁హిమాచల	-11.2429
▁మన్వంతర	-11.2429
▁సైన్సు	-11.2429
▁పరిశీలన	-11.2429
▁శతదినోత్సవం	-11.2429
▁గాంధేయవాది	-11.2429
▁పురుషోత్తమ	-11.243
▁బూడిద	-11.243
▁రాచరిక	-11.243
▁నందిగామ	-11.243
▁పొగాకు	-11.2431
▁వేమూరి	-11.2431
▁పదార్థాల	-11.2431
▁వహిస్తుంది	-11.2431
▁విభేదాల	-11.2431
▁వివాహమాడ	-11.2431
▁బాబూరావు	-11.2432
▁ఉద్దేశంతో	-11.2432
▁పోల్చ	-11.2433
▁టెస్ట్	-11.2433
]]	-11.2434
▁శతావధాన	-11.2434
▁నూరు	-11.2435
▁పాల్గొంటారు	-11.2436
▁సహచర	-11.2438
భాషల	-11.2438
▁జగ్గయ్యపేట	-11.2438
▁సరిహద్దులుగా	-11.2438
▁బుర్ర	-11.2439
▁శిఖరం	-11.2439
వాడే	-11.244
▁ఇనుము	-11.2441
▁తేనె	-11.2441
▁ఇవ్వబడింది	-11.2444
▁అమిత	-11.2444
▁వడ్డే	-11.245
▁రాయుడు	-11.2452
▁సాధించాయి	-11.2454
▁ఎన్నికై	-11.2455
▁నవీన	-11.2458
▁ఆభరణాలు	-11.2458
▁సమూహాల	-11.2458
▁హంస	-11.246
▁రూపాయి	-11.2464
▁రహస్యం	-11.2464
▁144	-11.2466
▁వారసుడు	-11.2466
▁కల్లు	-11.2469
▁కాలంనాటి	-11.247
IT	-11.2472
▁1880	-11.2473
గౌర	-11.2474
▁ఆరోపణలు	-11.2479
▁సేవించ	-11.2484
ిచ్చి	-11.2484
▁ఆరంభించ	-11.2487
▁సూర్యం	-11.2487
▁పాండవులు	-11.2489
▁తాటి	-11.2489
▁లింగాల	-11.249
▁పొడ	-11.2493
పడతాడు	-11.2493
▁సాహిత్యము	-11.2495
▁పురాణము	-11.25
▁పట్టిక	-11.2503
▁అప్	-11.2507
▁కరిగి	-11.2507
▁ముఖ్యము	-11.251
▁భార్యలు	-11.2512
కొమ్మ	-11.2514
▁వాచ	-11.2514
▁స్థిరపడి	-11.2519
▁చర్యల	-11.252
▁సగ	-11.2521
▁లేత	-11.2522
▁ఉపయోగపడ	-11.2529
▁అమల	-11.253
▁వినియోగ	-11.2531
▁విధానంలో	-11.2535
▁చావ	-11.2535
▁కోడలు	-11.2547
▁పెద్దాపురం	-11.2548
రవాణా	-11.255
పీఠ	-11.2555
▁మాంస	-11.2557
భోగ	-11.2558
▁పర్యాటకులు	-11.2558
▁అభిప్రాయము	-11.2558
భీమ	-11.2559
▁బౌద్ధమతం	-11.2559
కూట	-11.2563
▁చేరారు	-11.2564
▁విమల	-11.2565
▁వుండి	-11.2565
▁మరిన్న	-11.2568
స్థలం	-11.2571
▁స్థానికులు	-11.2574
▁రాజన్	-11.2575
మెర్	-11.2582
పక్క	-11.2583
▁పదముల	-11.2588
▁రాగం	-11.2589
▁పెడతా	-11.2589
ant	-11.2589
గుండం	-11.259
▁అనుబంధం	-11.2592
▁సుంక	-11.2604
▁రాచ	-11.2606
res	-11.261
▁నికోల	-11.261
ేటి	-11.262
ree	-11.2626
ముఖి	-11.263
ప్రాయం	-11.2631
్ఞ	-11.264
▁కృతి	-11.2643
▁ఊరగాయల	-11.2646
▁వేడ	-11.2648
వైపులా	-11.2649
▁ఎగుర	-11.265
CE	-11.2651
-21	-11.2652
స్టేషన	-11.2653
▁గ్రామస్థుల	-11.2654
▁పరీక్షించ	-11.2656
▁మోర్	-11.2657
▁చీలి	-11.2658
హన్	-11.2663
చేయడం	-11.2665
▁సామ్రాజ్యము	-11.2665
▁శైల	-11.267
▁ఉద్భవించ	-11.2671
దశలో	-11.2671
▁సంస్కృతభాష	-11.2675
మిల్లి	-11.2681
ేసింది	-11.2682
▁పాత్రికేయ	-11.2682
▁పిలుపు	-11.2686
▁ఇతరులు	-11.2686
▁తాలూకాలు	-11.2686
▁పరిణామాల	-11.2689
1988)	-11.2691
▁చిరుత	-11.2692
.1904)	-11.2692
.1996)	-11.2692
▁New	-11.2692
▁ఎత్తయిన	-11.2692
▁తెలుసుకుంటాడు	-11.2692
▁న్యూక్లియర్	-11.2692
▁పార్వతమ్మ	-11.2692
▁బనగానపల్లె	-11.2692
▁వికారాబాద్	-11.2692
▁వివాదాస్పద	-11.2692
▁స్పెయిన్	-11.2692
▁హరిశ్చంద్ర	-11.2692
▁ప్రదర్శిస్త	-11.2692
▁మిషనరీ	-11.2692
▁మౌలానా	-11.2692
▁శకుంతల	-11.2692
▁సర్పంచ్	-11.2692
▁ఒకానొక	-11.2692
▁తదనంతర	-11.2692
▁ద్వాపర	-11.2692
▁పాత్రధారులు	-11.2692
▁వాహినీ	-11.2692
▁ఆర్మూర్	-11.2692
▁అభివర్ణించ	-11.2692
▁డేవిడ్	-11.2692
▁చైనీయుల	-11.2692
▁సంకలనకర్త	-11.2693
▁పిమ్మట	-11.2693
▁విషాద	-11.2693
▁ఉయ్యాలవాడ	-11.2693
స్తార	-11.2693
▁హీరోయిన్	-11.2693
▁అనుచరుల	-11.2693
▁బహుమనీ	-11.2693
▁గండికోట	-11.2694
▁పాలమూరు	-11.2694
▁నిధి	-11.2694
▁వాయువ్య	-11.2694
▁సారథి	-11.2694
▁మాట్లాడుతారు	-11.2696
▁రాజ్యలక్ష్మి	-11.2697
ాధ్యక్ష	-11.2697
▁రఘుపతి	-11.2697
▁ఉచ్ఛ	-11.2698
▁కోవెల	-11.2698
▁గౌరీ	-11.2698
▁తేలిక	-11.2699
▁దుంప	-11.2699
▁పోరాటాల	-11.27
▁టిబెట్	-11.2701
▁డేటా	-11.2702
▁కార్యక్రమానికి	-11.2702
▁నిర్మించబడ్డాయి	-11.2702
out	-11.2703
▁భూలోక	-11.2703
▁చిన్నారి	-11.2703
▁వాడుతారు	-11.2704
▁మహోత్సవాలు	-11.2705
▁విద్యాభ్యాసం	-11.2705
▁పెంచి	-11.2706
▁మాతృభాష	-11.2706
▁రాజకీయాలలో	-11.2706
పాటలు	-11.2708
▁ప్రత్తిపాడు	-11.2709
▁రబీ	-11.2709
▁భస్మ	-11.271
▁నారదుడు	-11.271
▁చేపట్టింది	-11.2712
▁గంధ	-11.2713
▁దొరికి	-11.2714
▁ఇబ్రహీంపట్నం	-11.2715
▁తెలిసింది	-11.2716
▁దోస	-11.2719
▁ప్రదేశాన్ని	-11.2721
▁నీలి	-11.2722
▁పోతే	-11.2723
▁వ్యవహరించారు	-11.2723
▁పన్నెండు	-11.2724
▁1892	-11.2724
▁మమత	-11.2724
▁స్పష్టంగా	-11.2728
▁కష్టాల	-11.2729
▁భావించాడు	-11.273
▁విద్యాసంస్థలు	-11.2731
టెన్	-11.2731
కల్చర్	-11.2733
▁యాదవ్	-11.2734
▁చిహ్నంగా	-11.2736
▁మున్సిపల్	-11.2741
▁(9	-11.2742
▁కార్యక్రమాలలో	-11.2745
▁అవతరించి	-11.2746
మట్టి	-11.2747
ాంశాల	-11.275
▁కులం	-11.275
▁హరిజన	-11.2751
ian	-11.2751
▁వర్ధ	-11.2751
▁కేంద్రాలలో	-11.2751
▁మురళి	-11.2753
▁విధమైన	-11.2753
గ్రఫీ	-11.2754
పట్టణం	-11.2754
▁చిన్నతనంలో	-11.2754
▁తెల్లవార	-11.2755
▁పథ	-11.2758
▁సింహం	-11.276
▁ఆధిపత్య	-11.2761
▁కీర్తించ	-11.2762
▁మడి	-11.2763
▁అలంకార	-11.2764
▁పెట్టె	-11.2767
▁సాగే	-11.2768
▁సందర్భాల	-11.277
▁పంపాడు	-11.2777
విశ్వనాథ	-11.2779
▁గవర్నరుగా	-11.2782
▁నిర్వహిస్త	-11.2783
▁సంపత్	-11.2785
▁సంకేతం	-11.2785
హ్య	-11.2786
▁పదానికి	-11.2787
▁బ్లాగులు	-11.279
సాగర	-11.279
▁ప్రకాశరావు	-11.2792
▁పరిజ్ఞానం	-11.2794
▁ప్రయత్నిస్త	-11.2794
▁సమానంగా	-11.2798
▁భావాలు	-11.2801
▁సుందరమ్మ	-11.2804
సుకొని	-11.281
▁చెక్కబడి	-11.2813
▁లొంగిపో	-11.2817
లక్ష్మణ	-11.2819
ఆంధ్రప్రదేశ్	-11.282
స్తున్నా	-11.2823
▁నగరంలోని	-11.2823
▁జల్ల	-11.2826
సమయంలో	-11.2827
▁తలుపుల	-11.2827
▁బ్లాగుల	-11.2829
▁శైలిని	-11.2829
▁మలచ	-11.2831
▁తీసుకునే	-11.2832
▁మాదిరిగా	-11.2837
▁సుందరం	-11.2838
▁వాహనాలు	-11.2842
ous	-11.2844
▁ఆంధ్రదేశ	-11.2847
▁స్నేహితులు	-11.2851
తగానో	-11.2853
▁కోణ	-11.2859
▁సత్కరించ	-11.2859
▁పుట	-11.2874
తుంటే	-11.2874
▁ధనం	-11.2875
▁ప్రాముఖ్యతను	-11.2877
▁ప్రియా	-11.2877
▁రంభ	-11.2879
ందె	-11.288
▁అసంతృప్తి	-11.2889
1962)	-11.2891
▁నిషేధ	-11.2895
సెల్	-11.2895
మాడ	-11.2898
▁పలుక	-11.2904
▁అందం	-11.2905
నుకుని	-11.2906
▁అందించడం	-11.2907
ide	-11.291
▁ప్ల	-11.2913
▁నిశ్చయ	-11.2914
▁తయారుచేస	-11.2916
▁సమర్ధ	-11.2917
▁టేక	-11.292
▁సరే	-11.2922
▁పబ్లికేషన్స్	-11.2922
▁ప్రవహించ	-11.2926
ప్స్	-11.2927
హోమం	-11.293
▁కొక్	-11.2939
▁చంద్	-11.2941
▁ప్రవేశించిన	-11.2946
ుకున్నది	-11.2951
▁రసం	-11.2954
▁121	-11.2956
▁కరుణా	-11.296
▁చావు	-11.296
▁మెట్రో	-11.2961
గోడ	-11.2962
▁తాడేపల్లి	-11.2962
.1917)	-11.2963
.1929)	-11.2963
.1935)	-11.2963
▁from	-11.2963
▁ఇస్మాయిల్	-11.2963
▁డైరక్టర్	-11.2963
▁తజకిస్థాన్	-11.2963
▁దోహదం	-11.2963
▁పాలిటెక్నిక్	-11.2963
▁మలేషియా	-11.2963
▁మేడ్చల్	-11.2963
▁శ్రేణి	-11.2963
▁కొవ్వూరు	-11.2963
▁దిగుమతి	-11.2963
▁విస్తారమైన	-11.2963
▁శ్రేణుల	-11.2963
▁డిజిటల	-11.2963
▁ద్రోహ	-11.2963
▁ఎడిటర్	-11.2963
▁కచ్చితంగా	-11.2963
▁కిషోర్	-11.2963
▁చురుకు	-11.2963
▁సంజయ్	-11.2963
▁ఇస్రో	-11.2963
▁మీడియం	-11.2963
▁సుగంధ	-11.2963
▁గీతాంజలి	-11.2963
▁పరిగణనలో	-11.2963
▁కనిగిరి	-11.2963
▁అంకితమిచ్చ	-11.2963
ాళ్వార్	-11.2963
▁ఫంక్షన	-11.2963
▁దర్శకురాలు	-11.2964
▁వెంబడి	-11.2964
▁హరికథ	-11.2964
▁డ్రైవర్	-11.2964
▁చేసుకుంటారు	-11.2964
▁సభ్యత్వం	-11.2964
▁చేరుకోవచ్చు	-11.2964
▁సిస్టము	-11.2965
▁అధ్యక్షునిగా	-11.2965
▁తరుణ	-11.2966
▁మకుటం	-11.2966
రోహణ	-11.2966
▁తీరాంధ్ర	-11.2967
▁మిస్	-11.2968
'''	-11.2968
▁కాళీ	-11.2969
▁రైళ్ళు	-11.2969
▁పేరొంద	-11.2969
▁గార్ల	-11.297
▁రూపొందించబడింది	-11.297
▁గ్రంథంలో	-11.297
▁గనుక	-11.297
▁మృతి	-11.2971
▁తగినంత	-11.2972
▁నిర్మించనున్న	-11.2972
నీలకంఠ	-11.2972
▁కూర్మ	-11.2973
▁ముగిసిన	-11.2973
▁అభిమానం	-11.2974
▁గుంతకల్లు	-11.2977
కాడ	-11.2979
ంజలి	-11.2981
▁దిబ్బ	-11.2981
▁వెంకటగిరి	-11.2983
▁సమకూర్చారు	-11.2983
▁పవన్	-11.2985
▁చెయ్యడానికి	-11.2987
▁ధో	-11.2988
▁శరీరానికి	-11.2989
పనేని	-11.2989
▁అడ్డం	-11.299
▁సౌకర్య	-11.299
▁వుండేది	-11.2991
▁కోకిల	-11.2992
▁తీసుకోవడం	-11.2992
ిస్తున్నాయి	-11.2995
▁ప్రహ్లాదుని	-11.2996
▁సమానం	-11.3
▁పుస్తకాన్ని	-11.3002
▁అప్పటినుండి	-11.3003
▁ఆయుధ	-11.3005
▁ఊరగాయ	-11.301
▁శక్తుల	-11.3011
క్కర	-11.3014
▁తేది	-11.3017
▁అంతరించి	-11.3018
ీయుల	-11.302
▁ఏర్పాట్లు	-11.3021
▁రైతులకు	-11.3024
▁ప్రసిద్ధమైన	-11.3027
▁సొరంగ	-11.303
▁అనుబంధంగా	-11.3032
ించాయి	-11.3032
▁ఆస్థానంలో	-11.3033
ఇవి	-11.3033
▁చివరగా	-11.3035
▁నాగేంద్ర	-11.3035
▁నడుస్త	-11.3037
▁స్వామీ	-11.3038
▁మోత	-11.304
▁పక్షులు	-11.304
▁ఏళ్ళు	-11.3042
▁పరిశీలించి	-11.3042
▁అచ్యుతరాయల	-11.3044
▁తీసే	-11.3044
▁మహోత్సవం	-11.3045
▁మరలా	-11.3045
▁ఎదుర్కొంటున్న	-11.3049
▁హక్కులు	-11.3049
▁చర్చలు	-11.3051
▁తవ్వకాల	-11.3052
▁నిర్మిత	-11.306
▁నాట	-11.3069
▁పద్ధతిని	-11.307
▁గ్రంధ	-11.308
▁కాళ్ళు	-11.3083
▁ప్రక్కల	-11.3084
▁పంజ	-11.3089
▁బ్రతుక	-11.309
▁వున్నవి	-11.3094
ద్వీప	-11.3096
సామ్రాజ్య	-11.3097
▁సీట్ల	-11.3097
▁జాతులు	-11.3097
ఉత్తర	-11.3098
హిందీ	-11.31
గర్భ	-11.3102
▁ద్వ	-11.3102
మాధవ	-11.3104
కేశవ	-11.3104
ిద్దరూ	-11.3106
▁బాస	-11.3112
▁వేష	-11.3115
వర్గ	-11.3117
▁350	-11.3121
ధేయ	-11.3124
▁కాయలు	-11.3129
దేవీ	-11.3131
ాడనీ	-11.3134
చర్య	-11.3138
▁ప్రముఖుల	-11.314
▁దిశ	-11.3146
▁మహోత్సవ	-11.3149
-25	-11.315
▁రాగాల	-11.3151
కృష్ణారావు	-11.3153
దొ	-11.3155
▁ఎదిరించి	-11.3161
▁యువతి	-11.3164
,00,000	-11.3164
▁700	-11.3165
బడలేదు	-11.3166
2004	-11.3168
డానిక	-11.3173
పింగ్	-11.3174
▁మాసాల	-11.3185
▁ఆత్మకూరులో	-11.3186
పప్పు	-11.3188
కొలను	-11.3191
▁పర్యటించ	-11.32
▁పరిశ్రమకు	-11.3204
▁ఓడించ	-11.3208
భార	-11.3211
▁రెండవది	-11.3212
▁పద్యాలలో	-11.3223
ోత్తమ	-11.3228
వేసిన	-11.3228
▁అవే	-11.3229
▁ఘటన	-11.3232
▁కొనసాగిన	-11.3236
▁నిరాశ	-11.3237
▁సమాచారము	-11.3238
▁కలిప	-11.3238
.1902)	-11.324
▁Sanskrit	-11.324
▁కృత్రిమ	-11.324
▁ఛత్తీస్	-11.324
▁జొన్నవిత్తుల	-11.324
▁దోపిడీ	-11.324
▁నిరుద్యోగ	-11.324
▁రిచర్డ్	-11.324
▁సుల్తానేట్	-11.324
▁హన్మకొండ	-11.324
▁అన్నదమ్ముల	-11.324
▁అరబిక్	-11.324
▁త్వరగా	-11.324
▁ముదిగొండ	-11.324
▁ఆలంపూర్	-11.324
▁పేదరికం	-11.324
▁మక్కువ	-11.324
▁ఆరోపించ	-11.324
▁మొదలగునవి	-11.3241
▁సమరయోధురాలు	-11.3241
▁పిదప	-11.3241
▁సమీక్ష	-11.3241
▁బృందావన	-11.3241
▁గాంధార	-11.3241
▁అరుదు	-11.3241
▁సంతరించుకుంది	-11.3241
▁కలిగించే	-11.3241
▁సారవంతమైన	-11.3241
▁అవార్డ్	-11.3241
▁పూర్ణిమ	-11.3241
▁పిలవబడే	-11.3242
▁నిన్నే	-11.3242
▁నదీతీర	-11.3242
▁సరోజిని	-11.3242
▁కాంస్య	-11.3242
▁మహేష్	-11.3243
▁సోషల	-11.3243
▁డచ్	-11.3244
▁చోడ	-11.3244
▁ఆపరేషన్	-11.3244
▁రమణీయ	-11.3244
నైపుణ్య	-11.3244
▁పంచాంగ	-11.3245
▁విశ్వేశ్వరయ్య	-11.3246
▁ఒక్కసారి	-11.3246
▁కక్ష్య	-11.3248
▁జయరాం	-11.3248
▁రాహు	-11.3248
▁ఉత్సవాలలో	-11.3249
▁చేసుకోవడానికి	-11.3249
▁పొన్నూరు	-11.325
▁డామన్	-11.325
▁లీగ్	-11.3251
▁ప్రపంచానికి	-11.3251
▁అధ్యాపకుడు	-11.3252
▁చూస్తూ	-11.3252
▁విచ్చేసిన	-11.3253
▁రికార్డ్	-11.3254
▁మరణించింది	-11.3255
▁భిన్నంగా	-11.3255
చిత్రాల	-11.3255
స్వప్న	-11.3256
హై	-11.3256
▁చెపుతారు	-11.3259
▁హాకీ	-11.3259
▁షాహి	-11.326
▁ఫిలింస్	-11.3262
ప్యూ	-11.3262
గమనం	-11.3263
▁వస్త్రాల	-11.3263
ంబున	-11.3264
▁శాత	-11.3264
▁అన్నవరం	-11.3264
▁గ్రామాల్లో	-11.3265
▁నాజర్	-11.3268
▁పురాతనమైనది	-11.327
▁వాగ్దాన	-11.3271
▁నటించి	-11.3272
▁సృష్టించాడు	-11.3273
▁వర్ణించాడు	-11.3275
▁పుట్	-11.3276
పెడితే	-11.3277
▁ఏలూరులోను	-11.3277
ోపాధ్యాయ	-11.3277
▁ఏర్పరచారు	-11.3278
▁దేవాలయానికి	-11.328
▁పరమాత్మ	-11.3281
▁స్థలాన్ని	-11.3282
▁చూపిన	-11.3284
▁చేసినపుడు	-11.3284
bo	-11.3288
▁దేవుడి	-11.3288
ాయువు	-11.3289
▁నిశ్చయించ	-11.3291
▁దేశాల్లో	-11.3293
▁కంట	-11.3294
▁ఏమిటి	-11.3295
▁చిత్రాల్లో	-11.3299
▁ముఖం	-11.33
▁ఏకాదశి	-11.3301
▁నిలువు	-11.3302
▁భంగ	-11.3304
▁సదా	-11.3306
▁కండ	-11.3307
వాదులు	-11.3311
▁చెప్పడానికి	-11.3314
విధాన	-11.3314
▁పొగ	-11.3316
▁మువ్వ	-11.3317
▁గౌరి	-11.3317
▁గడప	-11.3318
▁పిలువ	-11.332
▁లేచి	-11.333
సోమ	-11.333
భాగాన	-11.3331
▁రామానుజ	-11.3332
▁ప్రశంసలు	-11.3337
▁నిర్మాణాల	-11.3342
▁సంఘాలు	-11.3347
▁యాత్రా	-11.3347
▁మచ్చ	-11.3349
▁ముచ్చట	-11.3349
▁ఎవరికి	-11.3352
గ్రేట	-11.3352
▁వీలుగా	-11.3355
మోహన	-11.3355
▁ఆజ్ఞ	-11.3355
▁చేయమని	-11.3356
▁అందిస్త	-11.336
▁గండి	-11.3361
▁ఘట	-11.3361
▁ముఖ్యమైనది	-11.3373
▁1959:	-11.3376
పీఠం	-11.3379
▁కొత్తపల్లి	-11.338
పరిశ్రమ	-11.3382
సుందర	-11.3382
సినారె	-11.3383
బ్రాహ్మణ	-11.3384
కొరకు	-11.3384
tt	-11.3386
ical	-11.3387
▁ఉన్నదని	-11.3389
▁చివరలో	-11.3391
▁అనువదించి	-11.3395
ావతారం	-11.3395
▁పురాణాలు	-11.3396
▁చెవి	-11.3398
▁ఆధారాల	-11.3401
▁లభిస్తున్నాయి	-11.3403
▁మాధవి	-11.3404
సైన్స్	-11.3404
▁సాంప్రదాయక	-11.3405
ుకునేవారు	-11.3405
▁ఉత్త	-11.3409
చుకొని	-11.3414
ాదులు	-11.3414
ard	-11.3415
▁ఉద్దేశించి	-11.3419
▁నిండ	-11.3421
సొ	-11.3425
▁శిల్పాల	-11.3426
▁ఉపాధ్యాయులు	-11.3431
బెల్	-11.3434
▁పరీక్షలు	-11.3439
బాట	-11.3439
ెక్కడ	-11.3441
వాక్	-11.3441
▁సుల్తానులు	-11.3442
అల్	-11.3444
2003)	-11.3451
▁కోల్పోయి	-11.3453
బలం	-11.3453
▁సాక్ష్య	-11.3459
క్రమం	-11.3463
ణ్ణి	-11.3463
▁అర్చ	-11.3466
వేంకటేశ్వరస్వామి	-11.3468
▁తడ	-11.3479
▁పెట్టడం	-11.3479
▁దాతల	-11.3481
▁విశ్లేష	-11.3485
▁ప్రవాహ	-11.3491
సాగాడు	-11.3492
▁పట్టణాల	-11.3503
1937)	-11.3517
▁ఉపయోగం	-11.3519
.1926)	-11.3526
.1939)	-11.3526
ద్విపాత్రాభినయం	-11.3526
▁English	-11.3526
▁అసోసియేట్	-11.3526
▁ఇంజినీరింగ్	-11.3526
▁జనసాంద్రత	-11.3526
▁పురాతత్వ	-11.3526
▁పెండ్యాల	-11.3526
▁ప్రజ్ఞాశాలి	-11.3526
▁ఫొటో	-11.3526
▁బ్రదర్స్	-11.3526
▁మహావిష్ణువు	-11.3526
▁లైబ్రరీ	-11.3526
▁విడదీసి	-11.3526
▁ఏమిటంటే	-11.3526
.1915)	-11.3526
▁చంద్రబోస్	-11.3526
▁చైత్ర	-11.3526
▁బృహత్తర	-11.3526
▁స్థితిగతుల	-11.3526
▁శశిరేఖ	-11.3526
▁కాలుష్య	-11.3526
పితామహ	-11.3526
▁పర్షియా	-11.3527
▁చింతలపూడి	-11.3527
▁అనువైన	-11.3527
▁కొన్నాళ్ళ	-11.3527
▁పంత్	-11.3527
▁స్వరకర్త	-11.3528
▁are	-11.3528
▁జరుగుతూ	-11.3528
▁ప్రక్రియల	-11.3528
▁దారుణ	-11.3529
▁లేకపోతే	-11.3529
▁దేశవ్యాప్తంగా	-11.353
▁ఆదివారంనాడు	-11.353
▁బాలాజీ	-11.353
▁ఏర్పడుతుంది	-11.3531
▁సాహిత్యవేత్త	-11.3531
▁బజార్	-11.3531
పదార్ధాల	-11.3531
▁అరవై	-11.3533
▁వెనుకబడిన	-11.3533
▁బందీ	-11.3534
▁స్థావరం	-11.3535
▁త్రిలింగ	-11.3536
▁హద్దు	-11.3537
▁దోచుకు	-11.3539
▁అంకిత	-11.3539
▁బీదర్	-11.354
▁చూస్తాడు	-11.354
▁భాగమైన	-11.3542
▁అపూర్వ	-11.3544
▁సవతి	-11.3544
▁కట్టించిన	-11.3545
▁ఆమోద	-11.3545
యంతి	-11.3546
▁పూజలంద	-11.3547
▁ధైర్య	-11.3547
▁చాప	-11.355
▁నిధులతో	-11.355
▁ఆవిడ	-11.3551
▁న్యాయస్థాన	-11.3551
▁అంతరిక్షంలో	-11.3551
క్రాంత	-11.3551
300	-11.3552
▁అఖండ	-11.3553
▁తెలుస్త	-11.3554
▁ప్రతినిధులు	-11.3557
▁రక్షిస్త	-11.3561
▁హెర్	-11.3563
▁చిహ్నాలు	-11.3566
▁1885	-11.3566
▁కృష్ణవేణి	-11.3566
▁శేషగిరిరావు	-11.3566
▁వనరు	-11.3567
▁గోపురం	-11.3567
▁తెలిపే	-11.3568
▁నియమించాడు	-11.3569
▁వజ్రాల	-11.357
టికీ	-11.3571
▁వ్యాఖ్యలు	-11.3571
▁1894	-11.3573
▁1891	-11.3573
▁ప్రతిపాద	-11.3573
▁సరదా	-11.3574
▁112	-11.3575
ెవరో	-11.3576
ుటచే	-11.3579
▁హిమాలయ	-11.3579
ార్చన	-11.358
ుకోవటానికి	-11.358
▁పుట్టినరోజు	-11.3581
▁అభయ	-11.3581
▁సహిత	-11.3581
▁ప్రణ	-11.3583
▁మిత్రులు	-11.3584
వర్ష	-11.3586
▁ముట్ట	-11.3587
▁ప్రవాస	-11.3587
ర్బన్	-11.3594
son	-11.3595
▁ఓంకార	-11.36
▁ప్రయోజనం	-11.3601
▁లవ్	-11.3603
వేశారు	-11.3605
▁గోల్డ	-11.3607
▁సేవలకు	-11.3609
▁కలువ	-11.361
▁గాజుల	-11.361
ట్రిక్	-11.3611
▁అన్యాయం	-11.3615
▁మృగ	-11.3621
▁సౌకర్యము	-11.3622
▁హెడ్	-11.3622
▁తగిలి	-11.3623
▁బ్రాహ్మణుల	-11.3629
▁ఓటు	-11.3632
▁రక్తంలో	-11.3638
త్తె	-11.3648
▁మల్లయ్య	-11.3649
▁భవనాలు	-11.365
▁వెలసి	-11.3654
▁స్థానికంగా	-11.3657
రూపంలో	-11.3661
ార్డ్	-11.3665
▁ఎక్కడా	-11.3668
జీవిత	-11.3671
▁చేయబడి	-11.3671
కళ్యాణ	-11.3677
పర్వత	-11.3678
సృష్టి	-11.3678
చంద్రశేఖరరావు	-11.368
సహాయ	-11.3683
▁రాష్ట్రంలోనే	-11.3684
భుజ	-11.3685
▁భవన్	-11.3695
▁రామిరెడ్డి	-11.3696
▁చేపట్టి	-11.3696
కొట్ట	-11.3697
▁132	-11.37
OS	-11.3701
▁విషయాలను	-11.3701
ia	-11.3702
ండ్రు	-11.3705
▁నౌకా	-11.3706
▁ప్రాకార	-11.3708
రోజులు	-11.3708
▁ప్రదర్శితమై	-11.371
▁అరెస్ట	-11.3711
▁లభిస్త	-11.3713
ani	-11.3714
▁కుదుర్చ	-11.3716
▁దీపం	-11.3718
▁ఏర్పాటుచేస	-11.3722
▁గదుల	-11.3724
▁చూస్త	-11.3726
▁సందర్భాలలో	-11.3734
▁ఏనుగులు	-11.3736
ll	-11.3738
▁220	-11.3738
▁కాండ	-11.374
▁కుండల	-11.3742
ెరిగి	-11.3742
▁మెన్	-11.3744
---	-11.3745
ువులు	-11.3746
▁వారాల	-11.3747
▁వ్యతిరేకత	-11.375
▁స్వీకర	-11.376
భారతీయ	-11.3761
దానా	-11.3761
▁కుమారుల	-11.3761
ిస్తానని	-11.3762
▁156	-11.3763
▁వ్యాధుల	-11.3771
▁లక్ష్య	-11.3772
పేర	-11.378
▁అద్దం	-11.3783
▁ఉద్యానవన	-11.3783
దుర్తి	-11.3783
▁కంబ	-11.3786
▁శత్రువుల	-11.3796
▁మరే	-11.3797
గన్న	-11.3799
▁దేవస్థానము	-11.3802
▁360	-11.3804
▁సంతరించ	-11.3804
▁రుద్రమ	-11.3805
▁భామ	-11.3807
ప్రాంతాలలో	-11.3812
▁సృష్టించిన	-11.3818
▁కమ్యూనికేషన్	-11.382
.1901)	-11.382
.1975)	-11.382
.2018)	-11.382
▁అసిస్టెంట్	-11.382
▁ఇంగ్లాండ్	-11.382
▁చేతులమీదుగా	-11.382
▁ద్రాక్షారామ	-11.382
▁ప్రచోదయాత్	-11.382
▁మద్యాహ్నం	-11.382
▁రంపచోడవరం	-11.382
▁విష్ణుకుండినుల	-11.382
▁వృషభ	-11.382
▁శతదినోత్సవాల	-11.382
▁షిర్డీ	-11.382
▁సురక్షిత	-11.382
▁స్పీకరు	-11.382
▁చింతామణి	-11.382
▁వీటూరి	-11.382
▁హిరణ్యకశిపు	-11.382
.1900)	-11.382
ముక్కామల	-11.382
▁యాత్రికుడు	-11.382
▁మాంత్రికు	-11.382
▁తీర్ధ	-11.382
▁సభాపతి	-11.382
▁నిర్వర్తించ	-11.382
▁సాధ్యం	-11.382
▁బ్రహ్మంగారి	-11.382
▁జర్నలిస్టు	-11.382
▁భక్తిశ్రద్ధలతో	-11.3821
▁డిప్యూట	-11.3821
▁రాజంపేట	-11.3821
▁ఆసియన్	-11.3821
▁తోలుబొమ్మలాట	-11.3821
▁నిడివి	-11.3821
▁అహంకార	-11.3821
▁కొల్లేరు	-11.3821
▁ఫుల్	-11.3821
▁నరేష్	-11.3821
▁వెర్షన్	-11.3821
▁ఎలాగైన	-11.3821
▁స్మృతి	-11.3821
▁తరతరాల	-11.3821
▁యానాం	-11.3821
▁సభ్యురాలు	-11.3822
▁సేనాని	-11.3822
▁నష్టం	-11.3822
▁డ్రై	-11.3822
బినెట్	-11.3823
▁ప్రసిద్ధిచెందిన	-11.3824
▁పీచు	-11.3824
▁జరిగిందని	-11.3824
▁యువకుడు	-11.3824
▁చేసుకోవాలని	-11.3825
▁నడిపే	-11.3825
▁వారిచే	-11.3825
▁ఏర్పాటుచేశారు	-11.3826
▁సిమెంటు	-11.3827
▁సీతాదేవి	-11.3827
పర్రు	-11.3829
▁మస్తాన్	-11.3829
▁ఏమిటో	-11.383
మల్లేశ్వర	-11.383
▁తిమ్మాపురం	-11.3831
▁క్రో	-11.3831
▁విజయలక్ష్మి	-11.3832
▁విస్తీర్ణము	-11.3832
▁బహుమతులు	-11.3835
▁యక్షగాన	-11.3835
▁గణనీయంగా	-11.3836
▁గద్య	-11.3836
▁వలయ	-11.3836
▁ఎలుక	-11.3836
▁కొలిచ	-11.3836
▁ప్రయత్నిస్తాడు	-11.3837
▁కనుమలలో	-11.3837
▁అడుగుపెట్ట	-11.3838
▁నీళ్ళ	-11.3839
▁తాజా	-11.3839
▁హంపి	-11.3839
వర్తన	-11.3839
▁గడిపి	-11.3843
▁చెక్కిన	-11.3844
▁సాలూరు	-11.3845
▁తీసుకురా	-11.3848
▁162	-11.385
▁పుట్టుక	-11.3851
▁బంధించ	-11.3851
▁సాధిస్త	-11.3851
▁దొరికే	-11.3851
కంద	-11.3851
▁వేస్తారు	-11.3854
1970)	-11.3855
▁అనిపించ	-11.3856
▁సామ్రాజ్యాల	-11.3858
▁చేపట్టారు	-11.386
▁విధాలు	-11.3862
▁1862	-11.3863
▁చొ	-11.3864
ఆర్యన్	-11.3867
▁గుర్తించింది	-11.3868
రాముడు	-11.3876
▁భద్రతా	-11.3877
▁వసతులు	-11.388
▁నూట	-11.388
▁తగుల	-11.3882
▁మొత్తము	-11.3883
4,000	-11.3885
▁1800	-11.3887
▁కృష్ణారెడ్డి	-11.3887
▁పురాణాలలో	-11.3889
బాల్	-11.389
▁పేరుమీద	-11.3891
▁కార్యకలాపాలు	-11.3891
▁కన్నయ్య	-11.3893
▁దండయాత్రల	-11.3898
▁నిర్వహించడం	-11.3898
▁చాలావరక	-11.3905
▁నగరాలకు	-11.3908
విశ్వనాథన్	-11.3909
▁చరిత	-11.3911
▁చేప	-11.3914
పోవడానికి	-11.3915
tra	-11.3922
కిచ్చి	-11.3923
▁ప్రాంగణం	-11.3929
▁అంబా	-11.3929
▁దాచి	-11.3933
▁నౌ	-11.3934
▁ఆపద	-11.3935
▁పోతుల	-11.3936
▁కొన్న	-11.3936
▁వేడుకల	-11.394
▁రాఘవాచార్య	-11.3944
▁ప్రేక్షకులు	-11.3946
▁వివరించి	-11.3946
పురానికి	-11.3951
ill	-11.3957
▁యిచ్చ	-11.3959
▁సఖ	-11.3961
▁పదములు	-11.3963
III	-11.3964
▁పెర్	-11.3964
▁జంటగా	-11.3966
▁అందజేస	-11.3973
▁మంత్రుల	-11.3973
▁మంత్రిత్వ	-11.3974
గ్యా	-11.3975
చెన్నై	-11.398
AN	-11.3982
కళాశాల	-11.3982
త్యాగ	-11.3984
పార్టీ	-11.3986
పుట	-11.3993
aga	-11.3993
▁చెప్పబడిన	-11.3996
▁పక్షం	-11.3997
▁చెందినవాడు	-11.3998
▁మరణించే	-11.4007
ik	-11.4011
పూరిత	-11.4012
రసం	-11.4021
వూరు	-11.4024
▁దేవస్థాన	-11.4027
బంద	-11.4031
▁కోల్పోయిన	-11.4033
▁నిధుల	-11.4033
▁ముప్ప	-11.4036
▁129	-11.4037
▁కాలు	-11.4038
▁పాండవ	-11.4038
▁మండలాలతో	-11.404
▁గడిచి	-11.4041
▁అనుసంధానం	-11.4049
▁బావా	-11.4052
ప్రోలు	-11.4056
▁రూపొంద	-11.4058
▁వైవిధ్యం	-11.4058
▁అశోకు	-11.4063
ములైన	-11.4066
▁కట్టడాల	-11.4075
▁శతాబ్దానిక	-11.4077
▁తిరునాళ్ళ	-11.4078
▁తరచు	-11.408
ాలనుకున్న	-11.4084
1991)	-11.409
▁రాజకీయంగా	-11.4099
▁కార్మికుల	-11.4102
న్నిటి	-11.4106
▁నిబంధనల	-11.4114
▁విరాట	-11.4115
▁శ్రీరాం	-11.4117
▁135	-11.4119
▁ఫెడర	-11.4123
▁వ్యాప	-11.4123
▁కన్నులపండువ	-11.4123
▁గుండెపోటు	-11.4123
▁ఛంధము	-11.4123
.1907)	-11.4123
.1909)	-11.4123
fficial	-11.4123
▁with	-11.4123
▁గుడ్లవల్లేరు	-11.4123
▁జరిపారు	-11.4123
▁జాతీయరహదారి	-11.4123
▁ధీమహి	-11.4123
▁పెదవేగి	-11.4123
▁పేర్కొంది	-11.4123
▁ప్రవహిస్తూ	-11.4123
▁బిజినెస్	-11.4123
▁మరికొందర	-11.4123
▁మేనల్లుడు	-11.4123
▁మైక్రో	-11.4123
▁యశోద	-11.4123
▁విద్మహే	-11.4123
▁విరూపాక్ష	-11.4123
▁షూటింగ్	-11.4123
▁సెకండరీ	-11.4123
▁గెలుపొంది	-11.4123
▁జవాబు	-11.4123
▁తుళువ	-11.4123
.1910)	-11.4123
.1930)	-11.4123
▁తుఫాను	-11.4123
▁విరాళాల	-11.4123
▁పరాజయం	-11.4123
హిరణ్య	-11.4123
▁పరిమాణం	-11.4123
▁వాయిద్య	-11.4123
▁కావేరీ	-11.4123
▁వితరణ	-11.4123
▁హవేలీ	-11.4123
▁ఇడ్లీ	-11.4123
▁రైల్వేస్టేషను	-11.4123
▁చిత్రలేఖన	-11.4123
▁పతకం	-11.4123
▁లెనిన్	-11.4123
▁అప్పలాచార్య	-11.4124
▁స్థూప	-11.4124
▁శాస్త్రజ్ఞుల	-11.4124
▁పరిగణిస్తారు	-11.4124
▁[[	-11.4124
▁రమ్యకృష్ణ	-11.4125
▁శాసనమండలి	-11.4125
▁క్రాస్	-11.4125
▁యోగ్యమైన	-11.4125
▁విడిపించ	-11.4125
▁జరిపే	-11.4125
▁వోల్	-11.4125
▁వెళతాడు	-11.4126
▁మాండ్య	-11.4126
▁మెప్పించ	-11.4127
▁వెంకటరత్నం	-11.4127
▁తాలుకా	-11.4128
▁దుర్మార్గ	-11.4128
day	-11.4128
▁నమ్ముతారు	-11.4128
▁చైర్	-11.4129
▁మార్క్స్	-11.4129
▁బస్తీ	-11.413
▁బొమ్మలాట	-11.413
▁నన్నయ్య	-11.4131
ప్రభుత్వం	-11.4131
▁కోరుతూ	-11.4131
▁కోయిల	-11.4134
▁నిండు	-11.4134
▁రావణుని	-11.4134
▁డిమాండ్	-11.4135
▁చెప్పుకోవచ్చు	-11.4137
వారిపాలెం	-11.4139
▁పాలేరు	-11.4139
పండ	-11.4141
▁చెప్తారు	-11.4146
▁విధులు	-11.4146
▁తినడం	-11.4146
▁ఆంధ్రదేశంలో	-11.4149
▁రాష్ట్రస్థాయి	-11.4149
రాదని	-11.415
▁ఫోర్స్	-11.4151
▁బాబూ	-11.4154
▁పచ్చడి	-11.4154
కమల	-11.4157
▁పండుగలు	-11.4158
▁నందా	-11.4161
▁జరుగుతున్నది	-11.4161
▁పూర్వీకులు	-11.4162
100	-11.4162
త్తూరు	-11.4163
▁1886	-11.4164
మిక్కిలినేని	-11.4165
▁చదరంగం	-11.417
▁చండ	-11.4177
▁నాటికే	-11.4179
▁నోరు	-11.418
▁పిల్లి	-11.4184
▁మంటపం	-11.4186
▁పట్టణాలకు	-11.4191
▁రాలేదు	-11.4193
▁De	-11.4194
▁శరీరము	-11.4195
▁స్వరాజ్య	-11.4196
▁గణాలు	-11.4202
▁భరించ	-11.4208
▁అర్థము	-11.4213
రంగు	-11.4214
▁పనులకు	-11.4218
▁మధుమేహం	-11.4219
▁మైలవరం	-11.422
ఫై	-11.4224
వస్తువు	-11.4227
▁అవకాశ	-11.4229
▁అద్భుతం	-11.4229
▁విలసిల్ల	-11.4233
str	-11.4236
▁రోమ	-11.4237
▁ప్రయోజనాల	-11.4241
▁పారిపోయి	-11.4243
▁విక్రయ	-11.4245
భంగ	-11.4249
▁గేట్	-11.4254
▁చదువుచున్న	-11.4254
▁అక్షరముల	-11.4255
ఖిల	-11.4255
▁కొరత	-11.4258
▁రాజన్న	-11.4272
కన్య	-11.428
▁పీడ	-11.4284
▁మెట్లు	-11.4288
రాఘవేంద్రరావు	-11.4292
ఇంగ్లీషు	-11.4293
▁అనుసరిస్త	-11.4293
సమితి	-11.4293
అమెరికా	-11.4293
రఘు	-11.4294
అందులో	-11.4294
లలిత	-11.4299
య్యాక	-11.4302
బిడ్డ	-11.4304
▁టెన్	-11.4305
▁రికార్డులు	-11.4306
సరోజ	-11.4308
అతను	-11.4309
ుకోలేదు	-11.431
▁La	-11.4314
▁సర్ప	-11.4317
▁ఉద్యోగులు	-11.4318
▁అలంకరించి	-11.4322
our	-11.4326
▁మెత్త	-11.434
▁అక్షాంశ	-11.4348
కంప	-11.4349
పయోగ	-11.4351
▁పట్టణాలలో	-11.4351
స్తుంటాయి	-11.4354
▁ఉదాహరణలు	-11.4355
రుద్ర	-11.4367
▁వేయించి	-11.4367
▁ఎప్పటిక	-11.437
▁ఆరోపణ	-11.4375
▁ముంచ	-11.4376
▁శివుడి	-11.4377
-24	-11.438
▁కళ్ల	-11.4381
▁పులుల	-11.4382
ిణీ	-11.4382
▁చల్లగా	-11.4382
బడును	-11.4384
▁అవసరమై	-11.4384
ప్రాంతాల	-11.439
▁నిపుణుల	-11.439
▁పల్లవుల	-11.4393
▁గాయపడ్డ	-11.4393
చైనా	-11.4393
▁బదులు	-11.4395
▁తొమ్మిద	-11.4398
ుకునేందుకు	-11.4399
వీరు	-11.4403
▁బంధువుల	-11.4404
▁భావించిన	-11.441
▁విశాల	-11.4412
▁సత్యాగ్రహ	-11.4413
▁నోట	-11.4415
రంజని	-11.4417
కలిగి	-11.4424
▁కీర్తన	-11.4427
▁తరాల	-11.4433
ుకోడానికి	-11.4433
తాయ	-11.4434
▁సోమేశ్వర	-11.4434
▁గడించ	-11.4435
.1986)	-11.4436
▁అన్వేషణ	-11.4436
▁ఆకుపచ్చ	-11.4436
▁ఋతుపవనాల	-11.4436
▁ఏర్పాటైన	-11.4436
▁ఒరిస్సా	-11.4436
▁కలెక్టరేట్	-11.4436
▁కల్వకుర్తి	-11.4436
▁డాక్టరేట్	-11.4436
▁తళ్ళికోట	-11.4436
▁తాగునీటి	-11.4436
▁ధార్మిక	-11.4436
▁ప్రైజెస్	-11.4436
▁ఫాల్గుణ	-11.4436
▁మహాశివరాత్రి	-11.4436
▁ముసునూరి	-11.4436
▁రోహిణి	-11.4436
▁విద్యనభ్యసించ	-11.4436
▁వెంగమాంబ	-11.4436
▁సామర్ధ్య	-11.4436
▁సుందరరామ్మూర్తి	-11.4436
▁హుబ్లి	-11.4436
▁నర్తకి	-11.4436
▁నేలకొండపల్లి	-11.4436
▁ముళ్ళపూడి	-11.4436
▁వినోబా	-11.4436
▁వివేకానంద	-11.4436
▁మిశ్రమ	-11.4436
▁భ్రమరాంబ	-11.4436
▁జమ్మూ	-11.4436
▁మాడుగుల	-11.4436
▁ధనవంతుడ	-11.4436
▁కన్యాశుల్కం	-11.4436
▁సన్నిధి	-11.4436
▁టైటిల్	-11.4436
▁లక్షద్వీప	-11.4436
▁దీపావళి	-11.4436
▁లోతైన	-11.4436
▁కథాంశం	-11.4436
▁సేవలందించ	-11.4436
▁మొదలవుతుంది	-11.4436
▁అంతేకాదు	-11.4436
▁ఫుడ్	-11.4437
మంజరి	-11.4437
▁కాంచనమాల	-11.4438
▁వన్య	-11.4438
▁బీజపూర్	-11.4438
▁మొదలయిన	-11.4438
▁క్రిస్టియన్	-11.4438
▁గడుపుత	-11.4438
▁అర్పించ	-11.4438
▁పెనుకొండ	-11.4438
▁పదార్థం	-11.4438
▁వెదురు	-11.4438
▁విరమించ	-11.4439
▁పునః	-11.4439
▁Pro	-11.4439
▁సూర్యకుమారి	-11.4439
▁భండార	-11.4439
▁ప్రతీకారం	-11.4439
▁Lin	-11.444
హక్రా	-11.4441
▁జోడించ	-11.4441
▁సృష్టించి	-11.4441
▁పూర్తిస్థాయి	-11.4442
▁చెంచు	-11.4442
▁ఎముకల	-11.4443
▁లక్షలాది	-11.4445
▁అష్టావధాన	-11.4445
▁ఒక్కటే	-11.4445
▁కనిపెట్టిన	-11.4446
▁అంతర్భాగం	-11.4447
▁గంగానది	-11.4447
▁దర్శనమిస్త	-11.4447
▁రాణీ	-11.4448
▁ఓహో	-11.4449
▁Th	-11.4449
▁కృష్ణకుమారి	-11.4449
▁పనిచేస్తూ	-11.445
▁ఎనిమిదవ	-11.445
▁పాకిస్థానీ	-11.4451
▁పుత్రుడు	-11.4453
▁సంతకాలు	-11.4454
▁ఇతడి	-11.4455
▁నియమించింది	-11.4455
మెల్ల	-11.4455
▁తుమ్మ	-11.4463
▁వచ్చినపుడు	-11.4465
▁వాస్తవానికి	-11.4468
▁చేసాయి	-11.4469
▁దొరుకు	-11.4469
▁మూడింట	-11.447
▁అశోక	-11.447
ించేందుకు	-11.4472
!!	-11.4473
▁1883	-11.4473
▁ప్రయత్నాల	-11.4474
▁పారిస్	-11.4475
▁తాలూకాలోని	-11.4475
▁ఆముద	-11.4476
▁సెట్	-11.4477
▁కోపంతో	-11.4479
▁1888	-11.448
▁ప్రధానమైనవి	-11.4481
▁చుట్టి	-11.4481
▁210	-11.4484
వలసింది	-11.4486
▁రంగనాథ్	-11.4487
▁నియమించారు	-11.4487
▁రాజాజీ	-11.4488
▁సూరి	-11.4491
▁విశ్వసిస్త	-11.4491
▁అయ్యర్	-11.4492
పఠన	-11.4493
▁ఇంద్రుడు	-11.4494
▁గింజల	-11.4495
▁కార్యక్రమాలకు	-11.45
▁చెరు	-11.4508
▁చెల్లెలి	-11.4509
విరోధ	-11.4509
▁పాండు	-11.4515
▁నియమాలు	-11.4516
▁ముక్తి	-11.4516
▁ఆహ్లాదకర	-11.4517
’’	-11.4519
ఫార	-11.452
▁క్రీడాకారుల	-11.4522
▁నాయకత్వ	-11.4522
▁గుప్తా	-11.4523
400	-11.4527
▁పాపయ్య	-11.4527
గట్టి	-11.4532
▁ఆవిర్భవ	-11.4532
▁పోరు	-11.4533
▁వ్యాధులు	-11.4533
▁సూర్యుడు	-11.4534
▁తియ్య	-11.4535
▁మానవుడు	-11.4538
▁సంహరించ	-11.4543
▁వ్యాపించ	-11.4543
ern	-11.4544
▁రంగనాధ	-11.4546
▁అధికారాలు	-11.4547
▁స్థిరపడ్డార	-11.4548
▁లక్ష్యంగా	-11.455
ోదర	-11.4553
▁త్రిపురాంతక	-11.4553
▁వెర్	-11.4555
రణాలు	-11.4557
బడుతోంది	-11.4558
వెల్లి	-11.4558
▁కూతురి	-11.4563
యెల్	-11.4568
▁గ్రహాల	-11.457
దలచి	-11.4573
▁కాల్పుల	-11.4574
▁కల్యాణం	-11.4578
▁చెన్నకేశవ	-11.4581
▁శ్లోకాలు	-11.4586
▁అందజేసిన	-11.4594
▁బౌద్ధమత	-11.4601
వంశం	-11.4604
▁సదుపాయాల	-11.4607
▁వేతన	-11.4607
ఇన్	-11.4607
▁లొంగ	-11.4611
అక్టోబరు	-11.4616
▁కలుసుకు	-11.4616
నక్షత్ర	-11.4616
తిరుమల	-11.4616
శారద	-11.4617
వృక్ష	-11.4619
1938)	-11.4621
ప్రేమ	-11.4623
ఇతను	-11.4623
▁లైను	-11.4625
▁శాస్త్రాల	-11.4628
▁చిహ్న	-11.4631
మార్లు	-11.4634
▁సమయము	-11.4635
▁సాంకేతికత	-11.4635
▁సుభా	-11.4639
▁యుండ	-11.4643
ాశ్రయ	-11.4654
స్తుంటారు	-11.4655
▁వ్యాసము	-11.4656
ాయపాలెం	-11.4657
అంటే	-11.4658
▁కాల్వ	-11.4658
▁కీర్తనల	-11.4661
▁మతము	-11.4667
పాడ	-11.467
శిల్ప	-11.4679
▁తట్ట	-11.468
do	-11.4681
పట్టి	-11.4681
▁మాణిక్య	-11.4684
▁సేన్	-11.4687
ఖానా	-11.4691
▁అంధ	-11.4695
ెందు	-11.4696
▁సమాధాన	-11.4703
జాతుల	-11.4703
▁ప్రజల్లో	-11.4705
విస్తర	-11.4706
▁కొత్తూరు	-11.471
▁ముస్లిముల	-11.471
▁యమున	-11.4714
ఫార్	-11.4715
▁ఇతివృత్తం	-11.4719
▁ఇంతే	-11.4727
▁ఒక్కర	-11.4727
▁ప్రత్యక్షమై	-11.473
యగు	-11.4734
▁పేరుపొంద	-11.4737
▁ముండ	-11.4741
▁మెక్	-11.4744
మూర్త	-11.4744
▁పేరే	-11.4748
▁స్వచ్ఛ	-11.4751
▁లూయీ	-11.4758
.1998)	-11.4758
▁ఔరంగాబాద్	-11.4758
▁కాంప్లెక్స్	-11.4758
▁కెప్టెన్	-11.4758
▁గాయకురాలు	-11.4758
▁తృతీయ	-11.4758
▁దేవాదాయ	-11.4758
▁నెరవేర	-11.4758
▁పుదుచ్చేరి	-11.4758
▁పురస్కరించుకొని	-11.4758
▁ప్రమాణస్వీకారం	-11.4758
▁యునెస్కో	-11.4758
▁వ్రాసాడు	-11.4758
▁సత్తెనపల్లి	-11.4758
▁సికింద్రాబాద్	-11.4758
▁తానీషా	-11.4758
▁పటిష్ఠ	-11.4758
▁మంజీరా	-11.4758
▁లిఖిత	-11.4758
▁స్వాగతం	-11.4758
▁అలంకరణ	-11.4758
▁వశిష్ట	-11.4758
▁కనిపిస్తున్న	-11.4758
▁అనసూయ	-11.4758
title	-11.4758
▁మార్పిడి	-11.4758
▁తజిక్	-11.4758
జమునారాణి	-11.4758
▁జడ్జి	-11.4758
▁దశరథ	-11.4758
▁అపహరించ	-11.4758
▁భంగిమ	-11.4758
▁అచ్చంపేట	-11.4758
▁వైశాలి	-11.4759
▁ధ్వని	-11.4759
▁ఉత్తేజ	-11.4759
▁గ్రీన్	-11.4759
▁వివక్ష	-11.4759
india	-11.4759
▁వ్రాసే	-11.4759
▁ముఖద్వారం	-11.4759
▁తీసికొని	-11.4759
▁రఘురామయ్య	-11.4759
▁చంద్రబాబునాయుడు	-11.4759
▁భగవాన్	-11.4759
▁వారపత్రిక	-11.4759
▁చరణ్	-11.476
▁ఋణ	-11.476
▁అంతిమ	-11.476
▁లీడర్	-11.476
గలిగారు	-11.476
▁యూదులు	-11.476
▁రవీంద్రనాథ్	-11.476
బృహ	-11.476
▁దేశమంతటా	-11.4761
▁అందుచేత	-11.4761
▁గడిపాడు	-11.4761
▁వందలాది	-11.4761
▁శనివారంనాడు	-11.4761
▁పాయింట్	-11.4761
▁పద్మనాభం	-11.4762
▁చిత్రాల్లోనూ	-11.4762
▁కీసర	-11.4762
▁ఆలపించ	-11.4762
▁మొదలుకొని	-11.4762
▁వరుణ	-11.4764
▁శ్రీరామమూర్తి	-11.4764
▁రాకెట్	-11.4764
▁కుదిరింది	-11.4765
▁తీసుకోలేదు	-11.4765
▁వెంకట్రావు	-11.4765
▁కోటేశ్వరరావు	-11.4765
▁సాంప్రదాయిక	-11.4766
▁తెలియజేస్తుంది	-11.4766
▁విష్ణుమూర్తి	-11.4766
▁జులై	-11.4767
▁అవుతాయి	-11.4768
▁వలపు	-11.4769
▁మొదలుపెట్టారు	-11.4771
ువుగా	-11.4771
▁అవుతాడు	-11.4772
▁గ్రామదేవత	-11.4772
చుక్క	-11.4773
hy	-11.4773
▁చేరుకుని	-11.4773
▁సాధువు	-11.4774
▁ప్రవేశపెట్టింది	-11.4775
వెంట	-11.4775
▁చూడటానికి	-11.4775
▁మీడియా	-11.4776
▁నిలిచారు	-11.4776
▁ఓడించాడు	-11.4777
▁ముంపు	-11.4777
▁పుత్రులు	-11.4778
▁మధ్యాహ్నం	-11.478
▁శ్రీకాంత్	-11.4782
▁వెలిస	-11.4782
▁చిన్ననాటి	-11.4783
▁కలిగిస్తుంది	-11.4785
▁చేసుకోవచ్చు	-11.4785
▁కార్యాలయాన్ని	-11.4787
▁పెద్దయె	-11.4787
ించేవాడు	-11.4788
anga	-11.4791
▁నాగరాజు	-11.4796
AT	-11.4797
▁నిజమైన	-11.4798
▁వాడకం	-11.48
▁కనిపించింది	-11.48
వలసినది	-11.4801
▁జలపాతాలు	-11.4802
▁పనిచేస్తున్నారు	-11.4803
▁మొవ్వ	-11.4804
▁తగ్గింది	-11.4804
▁ఒప్పుకో	-11.4804
▁గంగమ్మ	-11.4806
▁ఉద్యోగాలు	-11.4807
▁విశ్లేషణ	-11.481
చేస్తున్న	-11.4811
▁అదుపులో	-11.4811
▁బట్టలు	-11.4812
▁క్రిస్ట	-11.4815
హరణ	-11.4816
▁ఫలితాలు	-11.4817
▁కల్పించారు	-11.4819
▁సంవత్సరాల్లో	-11.4822
1989)	-11.4823
▁కావచ్చును	-11.4823
దయా	-11.4823
▁పథకాల	-11.4823
ంపబడ	-11.4824
▁భవనాన్ని	-11.4824
▁ఒకరైన	-11.4825
▁ప్రణయ	-11.4835
▁జాగ్రత్తగా	-11.4835
▁కావూరు	-11.4835
పెడుతుంది	-11.4839
▁క్షేత్రాలు	-11.4841
ద్వారం	-11.4852
▁ఉష్ణోగ్రతలు	-11.4853
▁స్వామివారు	-11.4857
▁161	-11.4858
▁కామన్	-11.4867
▁కార్మికులు	-11.4873
▁చింద	-11.4878
ive	-11.4878
▁కొంతభాగ	-11.4879
▁రక్షించి	-11.488
the	-11.4884
▁114	-11.4886
▁రాముడి	-11.4891
ప్రాప్తి	-11.4892
▁వందే	-11.4897
▁ప్రయత్నించి	-11.4899
▁అర్చన	-11.4902
1951)	-11.4904
▁సుందరమైన	-11.4907
▁రాళ్ళు	-11.4907
నాధుని	-11.4911
▁ఉండడంతో	-11.4915
▁అవతల	-11.4918
▁పిల్లల్	-11.4921
▁ప్రవహిస్తున్న	-11.4931
▁పన్నులు	-11.4932
రణాల	-11.4932
▁నిలిచిన	-11.4934
▁వ్యవహరిస్త	-11.4937
▁నిషేధం	-11.4939
▁పిల్లా	-11.4943
▁పిలుచు	-11.4947
ప్రకాష్	-11.4948
సుబ్బారావు	-11.4949
The	-11.4949
నాగేశ్వరరావు	-11.495
▁సంగమం	-11.4952
▁రథం	-11.4952
ధాన్య	-11.4954
▁1,2	-11.4955
▁సంబంధము	-11.4962
ప్రథమ	-11.4964
▁ఘన్	-11.4968
▁పూరించ	-11.4971
▁బిళ్ళ	-11.4973
▁హోల్	-11.4976
మనిషి	-11.4979
▁బీద	-11.4979
▁ఉద్యోగి	-11.4989
లాగానే	-11.4993
▁వేయడం	-11.4994
▁పట్టే	-11.4999
▁మెచ్చి	-11.5002
బండ్ల	-11.5004
▁స్వాధీన	-11.5005
▁కాండము	-11.5008
▁ఆలోచ	-11.5009
▁అనుసంధాన	-11.5014
ానంతర	-11.5024
▁నియమిత	-11.5025
▁కప్పు	-11.504
▁దుస్తుల	-11.504
▁స్థిరపడిన	-11.5043
▁సందర్శించిన	-11.5043
ture	-11.5048
▁చైతన్యం	-11.5051
▁నలుగుర	-11.5052
▁హరిత	-11.5061
▁నూత	-11.5069
▁be	-11.5071
▁124	-11.5075
▁అంజి	-11.5078
బడుతున్నది	-11.5083
నైవేద్య	-11.5083
ాంజనేయ	-11.509
▁తోలుబొమ్మల	-11.5091
orld	-11.5092
.1992)	-11.5092
▁ఇండస్ట్రీ	-11.5092
▁ఉత్తరాఖండ్	-11.5092
▁చైనీస్	-11.5092
▁ఛాంపియన్	-11.5092
▁ఛాయాగ్రాహకుడు	-11.5092
▁నటీనటుల	-11.5092
▁నమోదైంది	-11.5092
▁మెమోరియల్	-11.5092
▁శ్రీమహావిష్ణువు	-11.5092
▁క్రమశిక్షణ	-11.5092
▁ఖరీఫ్	-11.5092
▁టమోటా	-11.5092
▁తీసుకెళ్ళ	-11.5092
▁తుర్కమేనిస్తాన్	-11.5092
▁త్రాగునీటి	-11.5092
▁పాపఘ్ని	-11.5092
▁మునిసిపాలిటీ	-11.5092
▁వామపక్ష	-11.5092
▁అదిలాబాదు	-11.5092
▁ద్రోణ	-11.5092
▁పెట్రో	-11.5092
▁మార్షల్	-11.5092
▁మాల్దీవుల	-11.5092
▁సమకాలిక	-11.5092
▁వ్యవధి	-11.5092
అక్షరాస్యుల	-11.5092
▁అందుకనే	-11.5092
▁కోరుట్ల	-11.5092
▁పొదిలి	-11.5092
▁దిగుబడి	-11.5092
▁పండిట్	-11.5092
▁ఆనవాళ్ళు	-11.5092
▁చెప్పుకోదగిన	-11.5092
▁గాంచింది	-11.5092
▁శిష్యుడు	-11.5092
▁మహాత్మాగాంధీ	-11.5092
▁కొవ్వు	-11.5092
▁గంధర్వ	-11.5092
▁సమాధుల	-11.5092
▁ఐక్యరాజ్య	-11.5092
▁సత్యజిత్	-11.5092
▁రేఖాంశాల	-11.5092
▁షరతు	-11.5092
▁ఎరుపు	-11.5092
▁భానుప్రియ	-11.5092
▁కమలాబాయి	-11.5092
▁జ్వరం	-11.5092
▁ముట్టడించ	-11.5092
▁గూడవల్లి	-11.5093
▁ఎన్నికయ్యారు	-11.5093
▁జయలలిత	-11.5093
▁పనిచేసారు	-11.5093
▁ప్రారంభమవుతుంది	-11.5093
▁ఉష్ణమండల	-11.5094
▁గురువారంనాడు	-11.5094
▁స్కంద	-11.5094
▁సుమతీ	-11.5094
▁హరికథా	-11.5094
▁పేజీలున్నందు	-11.5095
▁ఇరానీ	-11.5095
▁గులాబ	-11.5096
▁విప్లవాత్మక	-11.5096
▁బ్రహ్మపుత్ర	-11.5096
▁డబుల్	-11.5096
▁సింగపూర్	-11.5096
▁వాడుతున్నారు	-11.5096
▁రాజేంద్రప్రసాద్	-11.5096
ాయుధ	-11.5097
▁దహన	-11.5097
▁చీఫ్	-11.5097
▁డచ్చి	-11.5098
▁రంగాచార్యులు	-11.5098
▁పరీక్షల	-11.5099
ism	-11.5099
▁గృహాల	-11.51
▁లభిస్తాయి	-11.51
▁అందిస్తున్నాయి	-11.51
▁ప్రేమికుల	-11.5101
▁ధర్మారం	-11.5102
▁ఆద్యుడు	-11.5103
▁పోషించింది	-11.5103
షీద్	-11.5103
▁ఎద్దుల	-11.5104
▁అనువదించారు	-11.5105
▁బెలూ	-11.5106
▁డాన్స్	-11.5109
కోశం	-11.511
▁నడుప	-11.511
▁కలాం	-11.5111
▁విరిగి	-11.5111
స్తుంటుంది	-11.5113
▁జన్మదిన	-11.5115
▁అప్పుడప్పుడు	-11.5115
▁ఇల్లాలు	-11.5118
con	-11.5118
▁అవకాశము	-11.5119
జ్జా	-11.5121
▁కృష్ణయ్య	-11.5121
▁తీసుకున్నాడు	-11.5123
▁భేదములు	-11.5123
▁చాలాకాలం	-11.5124
మానవ	-11.5126
▁సంయుక్తంగా	-11.5126
▁ముఖ్యమంత్రులు	-11.5126
▁అనుభవించాడు	-11.5127
▁కరణం	-11.5129
▁భువ	-11.5129
▁పాకాల	-11.513
▁1858	-11.5133
▁కొనసాగుతున్న	-11.5133
లందరి	-11.5135
▁కూరగాయల	-11.5137
▁ఫర్డ్	-11.5138
▁ప్రవేశపెట్టారు	-11.5141
న్నిటినీ	-11.5142
▁పాదాలు	-11.5143
▁ఆచార్యుడు	-11.5146
▁యోగము	-11.5148
6,000	-11.5152
▁రాష్ట్రీయ	-11.5156
మల్లికార్జునరావు	-11.5159
ిస్తోంది	-11.5161
▁కార్యక్రమ	-11.5164
▁ఇరువైపుల	-11.5164
▁ముచ్చ	-11.5166
▁భరత్	-11.517
▁తయారుచేసిన	-11.5174
▁దాటిన	-11.5174
▁వెస్ట్	-11.5178
blog	-11.5178
▁సంప్రదాయానికి	-11.5187
▁అక్షాంశం	-11.5188
▁ఉర్	-11.5188
▁సంరక్ష	-11.5189
▁ప్రసిద్ధుడు	-11.519
▁స్వరపరిచ	-11.5193
ొద్దు	-11.5194
▁అత్య	-11.52
▁రూపాన్ని	-11.52
▁తిమ్మన	-11.5201
▁ఎస్వీ	-11.5201
మాలిక	-11.5203
▁మొదలయ్యింద	-11.5205
▁అంటా	-11.5212
▁తేమ	-11.5213
▁మినీ	-11.522
▁జోషి	-11.5224
▁వెళ్ళింది	-11.5224
హార్డ్	-11.5225
▁కలిస	-11.5227
▁సన్యాసి	-11.5233
▁నిర్మించే	-11.5233
▁మోద	-11.5234
▁ఆరంభకాల	-11.5237
వాడైన	-11.524
స్మృత	-11.5244
వుతుంద	-11.5245
▁ప్రస్థానం	-11.5255
ాంజనేయస్వామివారి	-11.5256
జ్జి	-11.5258
▁మధుసూదన	-11.5264
▁పరిమితమైన	-11.5265
ంగీతం	-11.5266
▁కందుల	-11.527
గోల్	-11.527
▁జాలి	-11.527
min	-11.527
▁పోడూరు	-11.5272
▁తీసుకోవాల	-11.5273
▁ఇళ్ల	-11.5273
▁మానస	-11.5275
▁కలవు	-11.5276
▁వైశాల్య	-11.5279
▁కుమారుని	-11.528
▁సహాయపడ	-11.528
▁అధికరణ	-11.5281
▁ప్రాకారం	-11.5288
సామాన్య	-11.5294
వసంత	-11.5298
గ్రాహ	-11.5304
▁దీనిపై	-11.5305
పల్ల	-11.531
▁చేసుకొంట	-11.5313
▁గురైన	-11.5314
▁దారితీస	-11.5321
▁చక్రము	-11.5322
▁గడు	-11.5323
▁జీవితాంత	-11.5329
2008	-11.5332
కాంక్ష	-11.5343
▁భూదాన	-11.5345
మందిరం	-11.5345
▁చలపతి	-11.5346
▁కాణ	-11.5356
క్షేత్ర	-11.5358
▁పార్లమెంట	-11.5361
▁ఎన్నుకో	-11.5362
▁గింజలు	-11.5386
▁హిమాలయాల	-11.5387
▁విశ్వేశ్వర	-11.5394
▁ద్రవ	-11.5397
వెంకటేశ్వరస్వామి	-11.5399
ాస్త్ర	-11.5405
▁గ్రంథాలను	-11.5409
▁నిలచి	-11.541
eb	-11.5414
▁మునుల	-11.5421
▁లఘు	-11.5427
ుకొంది	-11.5427
▁మదర్	-11.5432
▁ఏర్పడ్డ	-11.5432
నిరోధ	-11.5433
▁దౌత్య	-11.5436
.1976)	-11.5436
▁Publish	-11.5436
▁ఇటాలియన్	-11.5436
▁ఉపనిషత్తుల	-11.5436
▁కనిపిస్తాడు	-11.5436
▁కమిషను	-11.5436
▁ఘటోత్కచ	-11.5436
▁చురుకైన	-11.5436
▁జమిందారు	-11.5436
▁దుర్యోధన	-11.5436
▁ధూర్జటి	-11.5436
▁నిర్వచించ	-11.5436
▁పెట్టుబడుల	-11.5436
▁ప్రయోక్త	-11.5436
▁ప్రెసిడెంట్	-11.5436
▁బంగాళాదుంప	-11.5436
▁బాలమురళీకృష్ణ	-11.5436
▁రిజర్వాయర్	-11.5436
▁లినక్సు	-11.5436
▁విక్టోరియా	-11.5436
▁వెంపటి	-11.5436
▁సంఘర్షణ	-11.5436
▁సంతృప్తి	-11.5436
▁సెక్రటరీ	-11.5436
ననుసరించి	-11.5437
▁ఆవిర్భావ	-11.5437
▁గాయత్రీ	-11.5437
▁జడ్చర్ల	-11.5437
▁జాగీరు	-11.5437
▁దృక్పథ	-11.5437
▁హరీశ్	-11.5437
.1911)	-11.5437
▁ఘగ్గర్	-11.5437
▁చుండూరు	-11.5437
▁తత్త్వవేత్త	-11.5437
▁ఫ్లాష్	-11.5437
▁విద్వాన్	-11.5437
▁గన్నవరం	-11.5437
▁బాపిరాజు	-11.5437
▁మర్యాద	-11.5437
▁రాజనీతి	-11.5437
▁పరిమళ	-11.5437
▁రజనీకాంత్	-11.5437
▁ఎనలేని	-11.5437
▁తొందర	-11.5437
▁అత్యల్ప	-11.5437
▁బ్రహ్మంగారు	-11.5437
▁నౌకాదళ	-11.5437
▁గడియార	-11.5437
▁పుష్కరిణి	-11.5437
▁వెన్నెలకంటి	-11.5437
▁త్రిభువన	-11.5437
▁గార్డెన్	-11.5437
▁సంక్షోభం	-11.5437
▁ప్రళయ	-11.5437
ల్యాండ్	-11.5437
▁కొలనుపాక	-11.5437
▁బిర్లా	-11.5437
▁వేదపండితుల	-11.5437
▁రాయల్	-11.5438
▁ఎడమవైపు	-11.5438
▁పదమూడ	-11.5438
▁వరస	-11.5438
▁ప్రకటిస్త	-11.5438
▁ప్లాంటు	-11.5438
▁సభ్యుడిగా	-11.5438
ట్లయితే	-11.5439
▁కర్తవ్య	-11.5439
▁సహకరిస్త	-11.5439
▁కృతుల	-11.5441
1958)	-11.5441
▁పొందుతాడు	-11.5441
▁పేపర్	-11.5441
▁పరిపాలిస్త	-11.5441
▁భవాని	-11.5441
న్టీఆర్	-11.5441
▁టెర్ర	-11.5442
▁ఆదేశించ	-11.5443
▁మాట్లాడుతూ	-11.5443
▁పూజిస్తారు	-11.5443
▁పారాయణ	-11.5443
▁మిరియాల	-11.5444
▁ఎవరికీ	-11.5444
▁నగలు	-11.5444
▁కదిలి	-11.5444
▁నిబంధన	-11.5447
▁వ్యక్తిత్వం	-11.5447
▁ఆయన్న	-11.5448
▁త్యాగయ్య	-11.5448
▁మ్యూజిక్	-11.5448
▁వృత్తాంత	-11.5449
▁దీనివల్ల	-11.5449
▁టైప్	-11.545
▁గోవిందరావు	-11.5451
▁కురుక్షేత్ర	-11.5452
▁సంపాదిస్త	-11.5452
తీయ	-11.5452
▁కొడవట	-11.5453
▁పర్సన్	-11.5454
▁కల్పించడానికి	-11.5456
▁పేదలకు	-11.5458
నాల్డ్	-11.546
▁విచార	-11.546
▁కావడానికి	-11.546
▁మనసే	-11.5462
▁ప్రధానపాత్ర	-11.5462
▁కంచు	-11.5465
▁పూజారి	-11.5465
ించాడని	-11.5465
▁సవరించ	-11.5466
▁మన్ననల	-11.5468
▁నిర్వహించడానికి	-11.5468
▁రెండుసార్లు	-11.547
▁బాధ్యతలను	-11.547
చేసారు	-11.5471
▁ఉపనదులు	-11.5472
▁రాగానే	-11.5473
శ్రీశ్రీ	-11.5473
కూడదని	-11.5473
▁భద్రపరచ	-11.5474
▁ధీర	-11.5475
▁కొనసాగించారు	-11.5476
▁యమునా	-11.5477
▁కోటగిరి	-11.5479
▁అడుగ	-11.5482
▁చెరుకు	-11.5484
▁భూభాగాన్ని	-11.5486
▁తిరునాళ్ళు	-11.5488
▁ముగింపుకు	-11.549
▁గర్భం	-11.5493
ప్రేమించుకుంటారు	-11.5493
▁ఇండోర్	-11.5496
▁మాటల్లో	-11.5497
▁అందించి	-11.5498
▁అధీనంలోకి	-11.5501
▁కిరీట	-11.5502
▁నిర్మింప	-11.5502
గ్రహణం	-11.5503
చుట్ట	-11.5504
ుటకై	-11.5506
▁గట్టిగా	-11.5512
▁సవర	-11.5516
▁కటక	-11.5517
▁న్యాయవాద	-11.5517
▁202	-11.5519
▁అలియా	-11.5525
▁ముప్పు	-11.5527
ati	-11.5531
▁ప్లాన్	-11.5531
▁వ్యవహారాలు	-11.5533
లయిన	-11.5537
▁జాడ	-11.5537
▁తెచ్చుకున్న	-11.5541
▁శూర	-11.5545
▁సంఘటనల	-11.5545
▁అండగా	-11.5546
▁కూతుర	-11.5549
▁బ్రాహ్మణులు	-11.5557
▁కొమర	-11.556
▁ప్రశస్తి	-11.5563
▁సంబంధమైన	-11.5566
▁చేదు	-11.5568
▁అందరు	-11.5575
▁బుద్ద	-11.5575
ల్లారా	-11.5576
▁నాగేశ్వర	-11.5578
షనల్	-11.558
▁ఆరాధించ	-11.5581
▁షాపు	-11.5583
▁ఆర్థర	-11.5585
▁రుణ	-11.5585
పోర్ట్	-11.5586
▁బెడ్	-11.5596
AR	-11.5603
▁పడుతున్న	-11.5603
▁నియమిస్త	-11.5609
▁చింతల	-11.561
▁పడిపోయ	-11.5614
▁నడప	-11.562
▁రాక్షసుల	-11.5622
ఆంగ్ల	-11.5624
ాలన్నింటి	-11.5625
▁వీళ్ళ	-11.5626
▁బ్రె	-11.5629
ost	-11.5632
▁జ్ఞానము	-11.5638
▁పెట్టుకున్న	-11.5642
▁నియమాల	-11.5643
ఏప్రిల్	-11.5651
తూర్పు	-11.5651
▁రూపొంది	-11.5654
శాతం	-11.5659
కోమల	-11.5662
▁206	-11.5665
చేస్తుంటాడు	-11.567
దొడ్డి	-11.567
▁బాలుడు	-11.5671
▁అపర	-11.5673
న్నార్	-11.5674
▁వధించ	-11.5676
ఫోన్	-11.5677
ఈనాడు	-11.5677
▁విప్ప	-11.5684
▁......	-11.5695
▁భయపడి	-11.57
ముఖ్యంగా	-11.5703
▁అందిస్తున్న	-11.5704
▁పద్ధతులు	-11.5709
▁వంక	-11.571
▁స్థానము	-11.571
▁శ్రామిక	-11.5711
▁గాత్ర	-11.5711
▁చెడ	-11.5718
▁స్థలాల	-11.5726
వుతాడు	-11.5731
▁రాయబార	-11.5731
▁ముస్లిమ	-11.5731
▁ఫలితం	-11.5734
▁నిర్దేశ	-11.5736
నెట్	-11.5741
▁శిథిల	-11.5742
ాకృతి	-11.5744
▁పూర్వీకుల	-11.5749
ke	-11.5749
టికల్	-11.5758
▁వేదాలు	-11.5761
ear	-11.5765
విచ్ఛిన్న	-11.5776
పూర్వక	-11.5776
▁1,3	-11.5782
▁స్థాపక	-11.5784
ించె	-11.5787
▁మూవీ	-11.579
.1987)	-11.5794
.1997)	-11.5794
▁అంతేకాకుండా	-11.5794
▁క్రియాశీల	-11.5794
▁గిద్దలూరు	-11.5794
▁జోగులాంబ	-11.5794
▁ట్రాఫిక్	-11.5794
▁ఠాగూర్	-11.5794
▁దూరదర్శన్	-11.5794
▁నైఋతి	-11.5794
▁ఫిర్యాదు	-11.5794
▁బద్వేలు	-11.5794
▁మానవతావాది	-11.5794
▁రెగ్యులేటర్	-11.5794
▁విధ్వంస	-11.5794
▁వైద్యారోగ్య	-11.5794
▁షావుకారు	-11.5794
▁సున్నపురాయి	-11.5794
▁అడ్రసు	-11.5794
▁కలివికోడి	-11.5794
▁మల్లీశ్వరి	-11.5794
▁మాండలికం	-11.5794
.1950)	-11.5794
ology	-11.5794
▁అష్టాదశ	-11.5794
▁తీర్ధప్రసాదాల	-11.5794
▁పేష్వా	-11.5794
▁బస్టాండ్	-11.5794
▁బాదామి	-11.5794
▁మొఘలుల	-11.5794
▁రామలింగారెడ్డి	-11.5794
▁హుసేన్	-11.5794
▁అనిసెట్టి	-11.5794
▁నగరపాలక	-11.5794
▁లక్ష్మీకాంతం	-11.5794
▁హోమియో	-11.5794
▁అట్లూరి	-11.5794
▁కోదాడ	-11.5794
▁మ్యాచ్	-11.5794
.1919)	-11.5794
▁టెక్కలి	-11.5794
.1895)	-11.5794
.1896)	-11.5794
▁త్రిమూర్తుల	-11.5794
▁తెనుగు	-11.5794
▁భరణి	-11.5794
▁బ్రతికి	-11.5794
ఎత్తిపోతల	-11.5794
▁పేల్చి	-11.5794
▁తెలివి	-11.5794
▁శాసనసభ్యులు	-11.5794
▁పందిరి	-11.5794
▁కిట్టయ్య	-11.5794
▁జరుపుకోగా	-11.5794
▁రకమైన	-11.5794
ాధిపతుల	-11.5794
html	-11.5794
▁విశాలాంధ్ర	-11.5794
▁కదంబ	-11.5794
▁స్మరించ	-11.5794
▁రాజభవన	-11.5794
▁శిరస్సు	-11.5794
▁తిరుగుతుంది	-11.5794
▁అంతకుముందు	-11.5795
▁టైమ్స్	-11.5795
▁స్టాలిన్	-11.5795
▁కాళిదాసు	-11.5795
▁అభినవ	-11.5795
▁వంశీయులు	-11.5795
▁సిల్క్	-11.5796
▁నామమాత్ర	-11.5796
▁సూఫీ	-11.5796
▁అక్కడక్కడ	-11.5796
▁ముప్పై	-11.5796
▁భౌతికశాస్త్రం	-11.5796
▁దేశభక్తి	-11.5796
▁ఎరువుల	-11.5797
▁అనారోగ్యంతో	-11.5797
▁లాటిన్	-11.5797
▁రిక్షా	-11.5797
▁ఇప్పటివరకు	-11.5797
మొట్టమొదటిసారిగా	-11.5797
▁నల్లగొండ	-11.5798
▁లార్డ్	-11.5798
▁యువకులు	-11.5799
▁ఆపిల్	-11.5799
▁నాలుగో	-11.5799
▁ధరూర్	-11.58
▁పేర్కొనబడింది	-11.58
▁కేంద్రమంత్రి	-11.58
▁తెలిపింది	-11.5801
▁తగ్గుతుంది	-11.5801
▁స్వచ్ఛమైన	-11.5802
▁సందర్శన	-11.5802
▁ఒరియా	-11.5802
▁వెంక	-11.5804
▁ప్రాచీనమైన	-11.5804
▁రఫీ	-11.5805
▁రోడ్దు	-11.5806
▁కుమారుడి	-11.5806
▁సంగారెడ్డిలోను	-11.5807
నాటికీ	-11.5808
1000	-11.5808
▁కట్టించాడు	-11.5808
▁కట్టించారు	-11.5809
▁ఎడ్ల	-11.5811
▁రామాపురం	-11.5812
లేకపోయింది	-11.5812
▁యూరో	-11.5813
▁నారాయణమూర్తి	-11.5813
.1%	-11.5813
▁ఏర్పాటుచేసారు	-11.5814
▁బోర్డ్	-11.5814
▁పతకాలు	-11.5816
▁కూలీ	-11.5818
▁అంజలి	-11.5819
ుతుంటాడు	-11.582
కల్లా	-11.5822
▁నాటకాల్లో	-11.5822
▁అభిమానులు	-11.5826
▁చిహ్నం	-11.5827
▁గుండ్ల	-11.5829
▁పెంపొందించ	-11.5831
▁కాపీ	-11.5831
ెవ్వర	-11.5833
▁పురుషుడు	-11.5833
▁అందించింది	-11.5835
▁ఎగుమతులు	-11.5836
▁ఎన్నుకున్న	-11.5837
▁ఆత్మలింగ	-11.5838
▁విద్యాశాఖ	-11.5839
▁వేణుగోపాల్	-11.5841
▁అనంతర	-11.5844
ేటివ్	-11.5844
▁పల్లవులు	-11.5847
▁బంధువులు	-11.5847
▁చెప్పాలి	-11.5849
▁తట్టుకోలే	-11.5852
▁వెంకటరావు	-11.5854
▁న్యాయశాస్త్ర	-11.5854
శ్రిత	-11.5856
▁జిమ్	-11.5859
వాత	-11.586
▁తేదీలలో	-11.5863
▁పావన	-11.5864
▁మారాయి	-11.5865
▁నాగమ్మ	-11.5865
ల్లాప్రగడ	-11.5869
▁నశించ	-11.587
▁141	-11.5875
▁నిండిన	-11.5885
▁తిరిగే	-11.5886
▁వ్రాయబడిన	-11.5888
▁చెప్పుకున్న	-11.5891
▁చేజిక్కించ	-11.5892
▁సోషలిస్టు	-11.5893
▁జయించ	-11.5896
▁అయన	-11.5896
▁సుదూర	-11.5903
కంటె	-11.5904
రామలింగేశ్వరరావు	-11.5907
▁గుట్టపై	-11.5914
ేసారు	-11.5916
వాహిని	-11.5917
వయసులోనే	-11.5919
▁మహదేవ	-11.5921
▁ఆధారపడ	-11.5925
▁రాష్ట్రాల్లో	-11.5925
కొన్ని	-11.5927
▁భద్రత	-11.5928
▁షట్	-11.5928
▁దశకం	-11.593
▁సర్వీసులు	-11.5932
ాశ్రమ	-11.5936
▁జరుపుకున్న	-11.5937
▁అడిగ	-11.5938
వత్స	-11.594
IN	-11.5943
▁పూరి	-11.5946
▁అమర్చ	-11.5947
▁కూర్చున్న	-11.595
శ్రీకృష్ణదేవరాయల	-11.595
▁వాసన	-11.5957
కృప	-11.5965
▁ప్రబోధ	-11.5966
▁స్థానికుల	-11.5976
▁విడిచిపెట్టి	-11.5978
ుకోలేక	-11.5979
▁గమనించిన	-11.5986
1968)	-11.5989
▁చేశా	-11.5991
▁జగన్	-11.5996
▁మొదలుపెట్ట	-11.5996
యుండ	-11.5998
సమయ	-11.5998
కంఠ	-11.6009
▁తెప్పించ	-11.601
ail	-11.6013
▁రాజ్యాంగంలో	-11.6017
▁శ్లోకాల	-11.6019
▁దూక	-11.602
ఎత్తులో	-11.6021
హిందూ	-11.6021
రైల్వే	-11.6021
▁ప్రమాణం	-11.6022
▁నాగూర	-11.6028
ప్రదర్శన	-11.6029
ram	-11.6035
▁సంహరించి	-11.6039
▁Cha	-11.6041
▁అధికమైన	-11.6046
▁గెలుచుకున్న	-11.6051
▁వివాహాల	-11.6052
▁Man	-11.6058
▁చోళుల	-11.6061
▁సులభం	-11.6062
▁గుర్తింప	-11.6063
గుండా	-11.6065
▁అలంకారం	-11.6066
విశ్వనాథ్	-11.6069
▁ప్రభావము	-11.6074
▁దర్శకుల	-11.6077
▁విమానాల	-11.6078
ుచున్నాడు	-11.6079
▁పట్టాభిషేక	-11.61
కావ్యాన్ని	-11.6102
▁విమర్శకుల	-11.612
▁నెక్	-11.6122
▁వ్యవహారం	-11.6122
▁పవన	-11.6145
వెల్త్	-11.6146
▁నిర్వాహక	-11.6154
▁అభిమన్యు	-11.6156
.1964)	-11.6164
.1973)	-11.6164
coordinates	-11.6164
hemistry	-11.6164
కాలిఫోర్నియా	-11.6164
▁ఇంజనీరింగు	-11.6164
▁ఎడ్యుకేషన్	-11.6164
▁ట్యాంక్	-11.6164
▁పర్ణశాల	-11.6164
▁పునరుజ్జీవ	-11.6164
▁పునర్విభజన	-11.6164
▁మంగేష్కర్	-11.6164
▁రిజర్వేషన్	-11.6164
▁సైబీరియా	-11.6164
▁సౌలభ్య	-11.6164
▁స్రవంతి	-11.6164
▁హాలీవుడ్	-11.6164
▁అణుబాంబు	-11.6164
▁అభ్యంతర	-11.6164
▁ఆశ్రయించ	-11.6164
▁క్యాన్సర్	-11.6164
▁గోరుచిక్కుడు	-11.6164
▁దత్తాత్రేయ	-11.6164
▁బంగాళా	-11.6164
▁బాలగంగాధర	-11.6164
▁మళయాళ	-11.6164
▁ముహూర్త	-11.6164
▁రైతాంగ	-11.6164
▁శ్రీరామనవమి	-11.6164
▁అసాధారణ	-11.6164
▁మంథని	-11.6164
▁మిలటరీ	-11.6164
.1945)	-11.6164
▁ఖానాపూర్	-11.6164
▁సంకీర్ణ	-11.6164
ebsite	-11.6164
▁ఆఫ్రికన్	-11.6164
▁మంజుల	-11.6164
▁మేనేజర్	-11.6164
.1892)	-11.6164
▁స్పందన	-11.6164
▁మంగళంపల్లి	-11.6164
.1890)	-11.6164
.1899)	-11.6164
వపేజీ	-11.6164
▁అమూల్య	-11.6164
▁ప్రదర్శింప	-11.6164
▁శరణు	-11.6164
▁మసాలా	-11.6164
▁తాండవ	-11.6164
▁సుగ్రీవ	-11.6164
▁బహుభాషావేత్త	-11.6164
▁కొంకణి	-11.6164
▁రుక్మిణి	-11.6164
▁పదహారు	-11.6164
నిరవద్య	-11.6164
▁తులసీ	-11.6164
▁విభూతి	-11.6164
▁ఎఱ్ఱన	-11.6164
▁రికార్డింగ్	-11.6164
▁విత్తనాల	-11.6165
▁పానగల్	-11.6165
▁పట్టించుకో	-11.6165
▁జన్యు	-11.6165
▁కథానాయకుడిగా	-11.6165
▁దాల్చి	-11.6165
▁నిర్మింపబడిన	-11.6166
▁పూసపాటి	-11.6166
▁ఇరువుర	-11.6166
▁సీరియల్	-11.6166
▁అనుసంధానించబడి	-11.6166
▁బాహ్య	-11.6167
▁మైత్రి	-11.6167
▁రాధాకృష్ణమూర్తి	-11.6167
▁ప్రయత్నిస్తుంది	-11.6167
▁మంత్రాల	-11.6167
▁సామంతులుగా	-11.6168
▁నరసింగ	-11.6169
▁దర్శించుకొని	-11.6169
▁ఇంద్రియ	-11.6169
▁తర్క	-11.617
▁బేగం	-11.6171
▁CD	-11.6171
▁అధిష్టించాడు	-11.6171
▁కట్టె	-11.6172
కముందే	-11.6172
▁పలాస	-11.6172
▁మహాసముద్రం	-11.6172
▁నర్సాపురం	-11.6173
▁కుమారస్వామి	-11.6173
▁వెలువడింది	-11.6173
▁చెల్లించాలి	-11.6173
షో	-11.6173
▁గుంపు	-11.6173
▁సుగుణ	-11.6174
▁వారధి	-11.6174
▁కలుస్తాయి	-11.6174
▁శిలాశాసన	-11.6174
ated	-11.6175
.4%	-11.6175
▁పట్టుకొని	-11.6176
▁స్వాతి	-11.6176
▁ఆదిత్య	-11.6176
▁పెరుగుతుంది	-11.6177
▁డైరీ	-11.6177
▁ఇనుప	-11.6178
▁చిన్నప్పటి	-11.6178
▁లియో	-11.6179
▁ఉత్తరాంధ్ర	-11.6181
▁ప్రేమిస్తుంది	-11.6181
▁యుద్ద	-11.6182
బడుతూ	-11.6183
▁ఇవ్వాలని	-11.6184
▁ఆక్రమించింది	-11.6185
▁గుళ్ళు	-11.6185
▁కుమ్మరి	-11.6186
▁772	-11.6186
▁ఉల్లి	-11.6187
▁విధించింది	-11.6188
ేసరికి	-11.6188
ండేవారు	-11.6189
▁కలహాల	-11.619
▁జోగి	-11.619
▁సైన్యానికి	-11.619
▁రామచంద్రపురం	-11.6192
▁పరిస్థితుల్లో	-11.6193
▁నిర్ణయించింది	-11.6193
▁గొల్లపల్లి	-11.6195
▁రేయి	-11.6198
ుడను	-11.6205
▁ప్రవేశించింది	-11.6205
▁1565	-11.6206
▁80%	-11.6207
▁ఇస్తూ	-11.6208
▁ఉద్యానవనం	-11.6212
▁1877	-11.6214
▁కోదండరామ	-11.6215
▁చేస్తున్నాయి	-11.6217
▁ప్రచురితమై	-11.6219
▁సరసు	-11.6221
బర్మన్	-11.6233
▁పేరుపెట్ట	-11.6234
గురించి	-11.6236
▁రామరాజు	-11.6237
232	-11.6237
▁ఆయుధాల	-11.6242
▁చీలిక	-11.6242
లింగేశ్వరస్వామి	-11.6247
▁జాతక	-11.6247
▁శత్రువు	-11.6248
▁నిదుర	-11.6257
గలవు	-11.6257
▁వృత్తుల	-11.6261
గింపు	-11.6265
▁నక్షత్రాల	-11.6269
ుతున్నట్లు	-11.627
▁సర్కారు	-11.6271
▁తామర	-11.6271
▁శతాబ్ధాల	-11.6272
1954	-11.6273
▁విధాల	-11.6276
▁St	-11.628
ద్దీన్	-11.6285
▁కల్యాణి	-11.6288
▁సుద్ద	-11.6292
▁తుర్	-11.6292
▁కమలాకర	-11.6302
బోతున్న	-11.6304
▁చక్కట	-11.6304
వుతాయి	-11.6305
▁సత్కరించి	-11.6309
ముఖంగా	-11.6311
ాభరణ	-11.6317
▁ఉచ్చ	-11.6318
రాజనాల	-11.632
ద్దాం	-11.6323
ింపబడి	-11.6333
▁సన్నివేశం	-11.6333
▁కాళ్ల	-11.6336
మేనని	-11.6337
▁తపో	-11.6341
▁జాగర	-11.6342
▁అభిప్రాయపడ్డా	-11.6347
మధుసూదనరావు	-11.6353
▁కావచ్చు	-11.6353
▁నడచి	-11.6355
▁ప్రాచుర్య	-11.6357
▁దేవుడ	-11.6366
▁138	-11.6379
▁పాల్పడ	-11.6382
ించుచు	-11.6399
ధిపత్య	-11.6402
▁ప్రయత్నించిన	-11.6403
▁భద్రాచల	-11.6403
అమెరికన్	-11.6406
ఆధునిక	-11.6406
ఆగష్టు	-11.6406
వరహాల	-11.6412
▁భీకర	-11.6414
over	-11.6417
▁2,4	-11.6418
▁నిర్వహించుచున్న	-11.6418
రంగారెడ్డి	-11.6422
ాంబిక	-11.6423
▁రత్నాల	-11.6425
▁ధన్య	-11.6425
▁దళితుల	-11.6426
చేయడానికి	-11.6426
▁పెసర	-11.6426
▁నవాబ	-11.6429
▁1865	-11.643
సెన్	-11.6445
ance	-11.6449
▁నడుపుతున్న	-11.6454
ఆనంద	-11.6456
కోవ్	-11.6463
▁అన్నట్లు	-11.6466
▁చిన్నతనం	-11.6474
▁190	-11.6476
▁కవితల	-11.6476
లోచన	-11.6484
దొంగ	-11.6487
క్షేత్రాల	-11.6491
▁సర్పంచి	-11.6494
▁పన్నెండ	-11.6502
▁ఎగుమతుల	-11.6503
▁నాలుగ	-11.6507
▁సర్వస్వం	-11.6508
మిచ్చి	-11.6509
▁స్థావర	-11.6514
▁వ్యాఖ్యల	-11.6515
▁భేదము	-11.6517
▁అనువదించ	-11.6517
▁ప్రతాప	-11.6518
▁కృష్ణదేవ	-11.6527
▁వెలగ	-11.6527
దాయక	-11.6529
▁నీదే	-11.6534
స్తుతి	-11.6536
▁భవిష్య	-11.6548
.1906)	-11.6549
.1932)	-11.6549
.1944)	-11.6549
.1947)	-11.6549
ఛాన్సలర్	-11.6549
▁అథారిటీ	-11.6549
▁అదృశ్య	-11.6549
▁ఆతిథ్యం	-11.6549
▁ఆవిష్కర్త	-11.6549
▁ఉపసంహరించ	-11.6549
▁ఏకగ్రీవ	-11.6549
▁ఒడంబడిక	-11.6549
▁కలుషిత	-11.6549
▁చేవెళ్ళ	-11.6549
▁ఛత్రపతి	-11.6549
▁దామోదరం	-11.6549
▁నటీమణుల	-11.6549
▁పోతిరెడ్డిపాడు	-11.6549
▁ప్రత్యర్థి	-11.6549
▁ఫెస్టివల్	-11.6549
▁బంగాళదుంప	-11.6549
▁మంగుళూరు	-11.6549
▁వడ్డాది	-11.6549
▁వికీపీడియా	-11.6549
▁శంకరాభరణం	-11.6549
▁సమృద్ధి	-11.6549
▁స్పెషల్	-11.6549
▁అగస్త్య	-11.6549
▁కాళేశ్వరరావు	-11.6549
▁పదిహేను	-11.6549
▁ప్రావీణ్య	-11.6549
.1952)	-11.6549
.2001)	-11.6549
.2020)	-11.6549
▁ఏల్చూర	-11.6549
▁శిబిర	-11.6549
▁సత్తుపల్లి	-11.6549
▁కూర్చొని	-11.6549
▁గుర్రపు	-11.6549
▁రేఖాంశం	-11.6549
▁కరాచీ	-11.6549
▁పైకప్పు	-11.6549
▁లక్నో	-11.6549
▁కాగితం	-11.6549
▁ఎదుర్కో	-11.6549
▁ఐశ్వర్య	-11.6549
▁వేరువేరు	-11.6549
▁వ్యాయామ	-11.6549
▁జనావాస	-11.6549
▁కొడంగల్	-11.6549
▁నిర్మూలించ	-11.6549
▁పలనాటి	-11.6549
▁ఆండ్రూ	-11.6549
▁దక్షిణామూర్తి	-11.6549
▁వెలికితీ	-11.6549
▁కావేరి	-11.6549
▁మరియొక	-11.6549
▁ఋజువ	-11.6549
▁హతమార్చ	-11.6549
నిపుణ	-11.6549
▁అగ్గి	-11.6549
▁కిష్టయ్య	-11.6549
▁యాడికి	-11.6549
▁వెంకట్రామయ్య	-11.6549
▁నిరోధక	-11.6549
▁వేగవంతమైన	-11.6549
▁సమ్మె	-11.6549
▁మొదలయింది	-11.655
▁ప్రసవ	-11.655
▁యాదగిరి	-11.655
▁బెల్గాం	-11.655
▁కుడివైపు	-11.655
▁పశ్చిమగోదావరి	-11.655
▁కోయిలకొండ	-11.6551
▁తెలియజేయ	-11.6551
▁సొగసు	-11.6551
▁తూర్పుగోదావరి	-11.6551
▁బీజింగ్	-11.6551
▁దయానంద	-11.6551
▁ముఖ్యపట్టణం	-11.6551
▁హనుమకొండ	-11.6551
▁మెట్రోపాలి	-11.6551
▁సూర్యోదయ	-11.6552
▁పాటిల్	-11.6552
▁ఆకర్షణీయ	-11.6552
▁మల్లాపూర్	-11.6552
▁కొత్తపేట	-11.6552
వంశపు	-11.6552
▁మౌంట	-11.6553
▁కలుపుకొని	-11.6553
▁బ్రహ్మచారి	-11.6553
▁రాంబాబు	-11.6553
▁నేపాలు	-11.6553
▁వర్షాకాలంలో	-11.6553
▁ముఖ్యపాత్రల్లో	-11.6555
▁పెన్నానది	-11.6555
▁ప్రదర్శనశాల	-11.6555
▁అనుమానం	-11.6556
▁మరోవైపు	-11.6556
▁వైశ్య	-11.6556
▁తుర్క్	-11.6556
▁దాఖల	-11.6556
▁పుంజ	-11.6557
ork	-11.6558
▁సింహళ	-11.656
.2%	-11.656
▁కేశవరావు	-11.656
▁ముఘల	-11.656
▁అవుట్	-11.6561
▁పెట్టుకొని	-11.6562
వంతంగా	-11.6562
▁మొదలుపెట్టాడు	-11.6562
▁పెట్టుకుని	-11.6563
▁చండీ	-11.6564
▁జమీందారీ	-11.6564
▁విరసం	-11.6564
▁పరిసరాలలో	-11.6565
▁స్థిరపడింది	-11.6565
▁లక్షణముల	-11.6565
▁పాడుతూ	-11.6566
గలుగుత	-11.6566
▁వదిన	-11.6566
▁కూర్చుని	-11.6567
▁పీఠిక	-11.6568
▁షాహ్	-11.6568
▁బ్రహ్మదేవు	-11.6568
భాయ్	-11.657
▁చండీగ	-11.657
▁భయము	-11.657
▁అలంకరించారు	-11.657
▁స్థావరాలు	-11.6571
▁ప్రయత్నించారు	-11.6573
▁రామవరం	-11.6574
▁సింహాచలం	-11.6575
▁పాలకొండ	-11.6575
▁థర్మ	-11.6576
▁ముల్క్	-11.6576
▁ఇయర్	-11.6577
▁జయించాడు	-11.6579
▁రాసుకున్న	-11.6583
▁ఎన్టీ	-11.6585
▁భూదేవి	-11.6585
▁వర్గానికి	-11.6586
▁అభిషేకం	-11.6592
▁వంగర	-11.6596
గణములు	-11.6598
▁శ్రీరాముని	-11.6598
▁శ్రీపాద	-11.6598
966	-11.66
▁బిరుద	-11.66
▁పల్లవి	-11.6603
▁పట్టభద్ర	-11.6604
▁పొందడానికి	-11.6606
▁యంత్రాలు	-11.6607
▁మీర్జా	-11.6609
▁ధర్మరాజు	-11.6609
ారనీ	-11.661
▁మాలిక్	-11.6611
▁పంపింది	-11.6611
▁3000	-11.6612
బోయి	-11.6613
▁పారిపోయ	-11.6613
ref	-11.6613
▁కామరూప	-11.6618
▁రాయబారి	-11.6618
▁కవిత్వము	-11.6619
▁ప్రాబల్యం	-11.6621
▁ఎన్నుకుంట	-11.6622
▁ఇష్టమైన	-11.6623
▁సాగుతున్న	-11.6626
▁శుక	-11.6627
అంద	-11.6629
▁అవ్వ	-11.6635
▁విశిష్టత	-11.6636
▁భో	-11.6638
▁సమ్మేళనం	-11.664
పాలిట	-11.6642
▁మంత్రము	-11.6642
▁భగవంతుడి	-11.6643
▁విగ్రహము	-11.6645
ఫోర్డ్	-11.6646
▁హ్యూ	-11.6646
బ్రహ్మానందరెడ్డి	-11.6653
▁ఉపయోగపడే	-11.6658
▁ఆక్రమించుకున్న	-11.6658
పునర్నిర్మించారు	-11.6663
▁చేయబడ్డ	-11.6664
▁చదువుతున్న	-11.6664
ుకుందాం	-11.6665
▁నిలబడ	-11.6668
వచ్చునని	-11.6671
▁ఆళ్వారుల	-11.6674
▁ఊర్లో	-11.6679
▁శిథిలమై	-11.6681
▁రూమ్	-11.6685
▁చదివ	-11.6688
భాగ్య	-11.6692
▁తలచి	-11.6698
▁వేయించ	-11.6704
▁భీమేశ్వర	-11.6709
▁ఇస్తున్న	-11.6712
▁మీసాల	-11.6717
▁కన్నడంలో	-11.6719
▁తెలియజేస్తు	-11.6721
వారూ	-11.6725
▁2,0	-11.6733
టెంట్	-11.6737
has	-11.6745
▁తెప్ప	-11.6748
చెత్త	-11.6751
▁ఆక్రమి	-11.6753
▁డిజైన్	-11.6761
టెల్	-11.6764
భూముల	-11.6764
▁పంచదార	-11.6776
క్రింద	-11.6786
▁యక్ష	-11.6786
▁విక్రయించ	-11.679
హృదయ	-11.6801
ప్రవేశ	-11.6805
పరిశోధన	-11.6805
చైతన్య	-11.6805
హైదరాబాదు	-11.6806
సమరయోధుడు	-11.6806
వయసు	-11.6806
జూలై	-11.6806
రోజులపాటు	-11.6807
ప్రకాశరావు	-11.6807
మహేంద్ర	-11.6807
ేవారట	-11.6809
పుస్తక	-11.6812
అక్కడ	-11.6814
ప్రక్క	-11.6861
హనుమంత	-11.6862
▁మార్చడం	-11.6867
▁సమర్ధించ	-11.6869
▁లాలా	-11.6873
▁చెడిపో	-11.6877
▁కాంగ్	-11.6889
▁బుధ	-11.6891
వృత్త	-11.6895
ించటం	-11.6903
విగ్రహ	-11.6904
char	-11.6909
▁నుండ	-11.6911
▁ద్వారక	-11.6917
▁విఘ్న	-11.6927
ST	-11.6927
▁చదివించ	-11.693
నాధుడు	-11.6931
▁131	-11.6938
▁బిరుదాంకిత	-11.6938
వరాహ	-11.694
రేచర్ల	-11.6943
▁Vi	-11.6943
.1946)	-11.6949
.1995)	-11.6949
niversity	-11.6949
కులశేఖర	-11.6949
▁అంజలీదేవి	-11.6949
▁ఉత్తీర్ణుడ	-11.6949
▁ఉధృత	-11.6949
▁ఏర్పాటైంది	-11.6949
▁కనువిందు	-11.6949
▁కార్యనిర్వాహక	-11.6949
▁కౌసల్య	-11.6949
▁గ్రౌండ్	-11.6949
▁తుకారాం	-11.6949
▁నర్మదా	-11.6949
▁నిర్దోషి	-11.6949
▁పసిఫిక్	-11.6949
▁పోరాటయోధుడు	-11.6949
▁ఫిలిమ్స్	-11.6949
▁భరతనాట్య	-11.6949
▁మేళతాళాల	-11.6949
▁యండమూరి	-11.6949
▁యజుర్వేద	-11.6949
▁శారీరక	-11.6949
▁సామర్లకోట	-11.6949
కళాప్రపూర్ణ	-11.6949
▁ఆవిష్కరణ	-11.6949
▁కనిపిస్తూ	-11.6949
▁కమిషనర్	-11.6949
▁గుండ్లకమ్మ	-11.6949
▁తాండూర్	-11.6949
▁పృథ్వీ	-11.6949
▁లక్ష్మయ్య	-11.6949
▁వశిష్ఠ	-11.6949
▁సంప్రదించ	-11.6949
▁హొయసల	-11.6949
.1912)	-11.6949
వాషింగ్టన్	-11.6949
▁గంభీర	-11.6949
▁చెళ్లపిళ్	-11.6949
▁చౌడప్ప	-11.6949
▁ప్రతిపత్తి	-11.6949
▁మదురై	-11.6949
▁శ్రవణ	-11.6949
▁చిలుకూరి	-11.6949
▁అసమ్మతి	-11.6949
▁బంగ్లా	-11.6949
డాల్ఫ్	-11.6949
హీరాలాల్	-11.6949
▁తిమ్మరుసు	-11.6949
▁తీశాడు	-11.6949
▁ఖిల్లా	-11.6949
▁మహ్మద	-11.6949
▁1866	-11.6949
▁కుర్చీ	-11.6949
▁రావణాసురుడు	-11.6949
▁కట్నం	-11.6949
▁దీక్షితులు	-11.6949
▁పొందుపరచ	-11.6949
▁సౌమ్య	-11.6949
▁ఆఫీస్	-11.6949
▁అసూయ	-11.6949
▁వాయిదా	-11.6949
▁అజయ్	-11.6949
▁బొడ్డు	-11.6949
▁శిఖరాగ్ర	-11.6949
▁పరాక్రమ	-11.6949
▁మాసపత్రిక	-11.6949
▁నార్త్	-11.6949
చంద్రశేఖర	-11.6949
▁ఉత్పల	-11.6949
▁ఆవిర్భవించింది	-11.695
▁ఫ్రాం	-11.695
▁సరోవర	-11.695
▁నైపుణ్యం	-11.695
▁ఫ్రంట్	-11.695
able	-11.6951
▁నడుస్తుంది	-11.6951
▁రాచకొండ	-11.6951
▁అడుగుతాడు	-11.6952
▁రాజ్యపాలన	-11.6952
▁గజేంద్ర	-11.6952
▁ఉస్మాన	-11.6952
▁బెల్లంకొండ	-11.6952
▁వచ్చాక	-11.6952
▁దివాకర్	-11.6952
▁కలుపుతూ	-11.6953
▁కుసుమ	-11.6953
▁కామరాజ్	-11.6953
▁ర్యాంక	-11.6953
▁విశ్వసించ	-11.6953
▁రైలుమార్గం	-11.6953
▁డప్పు	-11.6954
▁పట్టుదల	-11.6954
▁రామభద్ర	-11.6954
ాక్సిన్	-11.6955
▁ఆధారము	-11.6955
nline	-11.6955
▁శ్యాం	-11.6957
▁స్వీడన్	-11.6957
▁హెచ్చు	-11.6957
▁కన్నాంబ	-11.6958
▁స్టాండు	-11.6958
▁పొద్దు	-11.6958
▁బర్గ్	-11.6959
▁ఎంతోమంది	-11.6959
ొచ్చిన	-11.6959
▁మనుమడు	-11.6962
▁చనిపోయాడ	-11.6962
▁సప్తర్షులు	-11.6963
▁దక్కింది	-11.6964
▁జిల్లాపరిషత్	-11.6964
▁కాకర్ల	-11.6964
▁మలయ	-11.6967
▁సౌత్	-11.6967
▁రాఘవరావు	-11.6967
ెంట్స్	-11.6967
▁గోపాలకృష్ణయ్య	-11.6969
▁నారాయణపూర్	-11.697
▁అవకాశాన్ని	-11.697
▁ప్రయత్నించాడు	-11.6971
▁సేవకుడు	-11.6975
▁బాసర	-11.6977
క్కడ	-11.6978
▁తీర్చుకున్నా	-11.6979
▁జగతి	-11.6979
▁చూస్తారు	-11.6979
▁పాలిత	-11.6983
▁సేపు	-11.6988
▁పరిగి	-11.6989
▁చెప్పుకొన	-11.6995
▁నార్ల	-11.6996
▁స్కీ	-11.6998
▁అనువాదాలు	-11.7002
▁కాయల	-11.7002
డమూ	-11.7003
▁1879	-11.7003
▁పదవీకాలం	-11.7004
▁వన్యప్రాణ	-11.7008
▁వర్ణించిన	-11.7008
▁ధ్రువీకరించ	-11.7009
▁అర్జునుడి	-11.701
▁1861	-11.7012
▁సంస్థానాధీశ	-11.7014
▁దృశ్యాల	-11.7015
▁పయన	-11.7019
▁శిఖరాల	-11.7019
▁1500	-11.7019
▁ఉపాధ్యాయుల	-11.7021
▁చేయటానికి	-11.7021
▁గమనిస్త	-11.7024
▁అమర్చి	-11.7024
▁అర్జునుని	-11.7029
▁కాస్ట్	-11.7037
కముందు	-11.7039
ish	-11.7042
▁నిలవ	-11.7048
కాటారం	-11.7053
▁బాధపడుతున్న	-11.7054
▁యర్ర	-11.7054
▁సాక్ష్యం	-11.7055
▁లేకపో	-11.7067
▁కొండాపురం	-11.7068
▁అన్నదాన	-11.7081
▁చూసుకుంట	-11.7081
▁హజార	-11.7098
ాల్సిందే	-11.7101
▁చెవుల	-11.7105
[...]
